<pad>	0
<unk>	0
<s>	0
</s>	0
[PAD]	0
[UNK]	0
[CLS]	0
[SEP]	0
[MASK]	0
▁t	-0
he	-1
▁a	-2
in	-3
▁w	-4
▁the	-5
▁*	-6
ou	-7
▁s	-8
re	-9
▁o	-10
ha	-11
er	-12
nd	-13
▁b	-14
it	-15
is	-16
▁c	-17
▁m	-18
▁y	-19
▁d	-20
on	-21
ing	-22
▁f	-23
▁I	-24
ll	-25
▁to	-26
OT	-27
MOT	-28
▁you	-29
an	-30
ed	-31
or	-32
es	-33
▁p	-34
hat	-35
en	-36
▁g	-37
▁l	-38
▁and	-39
CH	-40
CHI	-41
▁n	-42
ar	-43
▁of	-44
as	-45
▁in	-46
at	-47
om	-48
▁he	-49
ow	-50
▁h	-51
▁it	-52
ot	-53
▁ha	-54
et	-55
ve	-56
le	-57
▁that	-58
ay	-59
▁th	-60
▁on	-61
▁T	-62
ic	-63
us	-64
gh	-65
▁be	-66
id	-67
▁is	-68
▁A	-69
▁we	-70
▁e	-71
ld	-72
ut	-73
al	-74
oo	-75
▁S	-76
▁was	-77
▁M	-78
im	-79
ac	-80
ke	-81
ad	-82
..	-83
▁do	-84
ver	-85
▁re	-86
▁=	-87
▁r	-88
▁W	-89
ght	-90
▁u	-91
▁[	-92
▁B	-93
▁for	-94
ir	-95
se	-96
ly	-97
▁H	-98
▁st	-99
ent	-100
ion	-101
am	-102
out	-103
▁C	-104
st	-105
▁"	-106
▁k	-107
ith	-108
▁me	-109
ight	-110
▁The	-111
ea	-112
▁an	-113
▁what	-114
▁with	-115
her	-116
▁wh	-117
ome	-118
ur	-119
▁se	-120
▁go	-121
all	-122
▁Y	-123
▁as	-124
▁not	-125
▁this	-126
ter	-127
ch	-128
▁at	-129
ill	-130
▁li	-131
▁have	-132
▁-	-133
ould	-134
ro	-135
▁are	-136
▁D	-137
▁no	-138
ce	-139
▁kn	-140
▁N	-141
▁there	-142
ri	-143
▁P	-144
▁can	-145
ook	-146
ust	-147
▁they	-148
if	-149
il	-150
ant	-151
▁O	-152
▁one	-153
▁his	-154
un	-155
ct	-156
▁whe	-157
ain	-158
▁so	-159
...	-160
▁G	-161
▁know	-162
▁j	-163
▁L	-164
op	-165
ell	-166
▁don	-167
▁up	-168
▁she	-169
eah	-170
▁her	-171
▁ne	-172
and	-173
ore	-174
um	-175
▁all	-176
xx	-177
ie	-178
▁your	-179
▁F	-180
▁my	-181
▁had	-182
IN	-183
ge	-184
▁fr	-185
pp	-186
▁R	-187
▁J	-188
our	-189
▁sh	-190
▁but	-191
▁sa	-192
▁like	-193
ab	-194
▁1	-195
ack	-196
▁He	-197
▁E	-198
ood	-199
▁out	-200
▁de	-201
art	-202
ol	-203
INV	-204
▁It	-205
ul	-206
▁him	-207
▁pl	-208
▁al	-209
ink	-210
ry	-211
▁ab	-212
ake	-213
▁get	-214
▁see	-215
▁from	-216
▁did	-217
th	-218
ig	-219
▁look	-220
red	-221
ers	-222
el	-223
very	-224
▁or	-225
han	-226
ation	-227
▁here	-228
ess	-229
▁were	-230
ck	-231
ound	-232
est	-233
AT	-234
▁by	-235
▁You	-236
▁oh	-237
▁yeah	-238
ist	-239
▁su	-240
qu	-241
ind	-242
ame	-243
ra	-244
ard	-245
os	-246
▁them	-247
ong	-248
own	-249
▁got	-250
nt	-251
▁some	-252
itt	-253
one	-254
ak	-255
▁com	-256
▁just	-257
▁about	-258
▁think	-259
▁who	-260
▁wor	-261
▁want	-262
▁us	-263
ast	-264
▁sp	-265
▁right	-266
▁2	-267
res	-268
na	-269
ive	-270
ally	-271
▁now	-272
ep	-273
em	-274
▁would	-275
▁said	-276
▁(	-277
▁v	-278
ice	-279
ap	-280
▁if	-281
FAT	-282
od	-283
].	-284
ate	-285
▁ex	-286
▁when	-287
▁then	-288
▁con	-289
▁any	-290
ick	-291
ber	-292
▁man	-293
ime	-294
ough	-295
▁tw	-296
ort	-297
▁say	-298
hing	-299
ine	-300
ich	-301
fe	-302
ven	-303
use	-304
▁will	-305
▁bo	-306
kay	-307
other	-308
ide	-309
▁tr	-310
▁put	-311
▁And	-312
xxx	-313
▁where	-314
hi	-315
▁xxx	-316
▁good	-317
ear	-318
ag	-319
▁“	-320
▁int	-321
ittle	-322
▁down	-323
ous	-324
ther	-325
ies	-326
way	-327
▁back	-328
▁ag	-329
▁K	-330
."	-331
▁pro	-332
ost	-333
▁going	-334
ca	-335
▁cl	-336
au	-337
▁little	-338
▁been	-339
ose	-340
▁time	-341
▁could	-342
▁more	-343
▁well	-344
▁has	-345
▁ar	-346
▁over	-347
▁U	-348
▁come	-349
▁br	-350
▁'	-351
--	-352
▁very	-353
end	-354
▁which	-355
▁19	-356
▁too	-357
▁two	-358
ace	-359
▁off	-360
▁What	-361
▁their	-362
ove	-363
▁20	-364
ity	-365
lf	-366
▁pe	-367
▁okay	-368
ree	-369
ite	-370
▁Th	-371
▁how	-372
▁qu	-373
cause	-374
▁other	-375
▁play	-376
ure	-377
▁af	-378
▁fe	-379
ish	-380
are	-381
ond	-382
▁let	-383
▁thing	-384
▁yes	-385
▁le	-386
▁gr	-387
ud	-388
alk	-389
ft	-390
▁St	-391
reat	-392
,"	-393
▁than	-394
▁bl	-395
▁We	-396
orn	-397
▁No	-398
▁But	-399
▁ro	-400
ue	-401
age	-402
▁In	-403
omet	-404
urn	-405
my	-406
hed	-407
▁does	-408
ment	-409
▁into	-410
ought	-411
ian	-412
pl	-413
▁er	-414
AR	-415
▁again	-416
ople	-417
irst	-418
ass	-419
iv	-420
▁way	-421
ty	-422
▁Yeah	-423
▁make	-424
▁Oh	-425
ade	-426
ia	-427
▁She	-428
ase	-429
▁tell	-430
▁en	-431
ble	-432
▁somet	-433
ire	-434
ect	-435
ps	-436
onna	-437
▁work	-438
▁take	-439
ater	-440
▁people	-441
▁pr	-442
ary	-443
iss	-444
ount	-445
▁gonna	-446
▁sha	-447
▁call	-448
▁car	-449
▁day	-450
▁co	-451
▁fl	-452
▁am	-453
▁That	-454
ov	-455
▁first	-456
add	-457
int	-458
▁They	-459
ci	-460
▁need	-461
pt	-462
per	-463
ran	-464
▁after	-465
ng	-466
ys	-467
▁mean	-468
ord	-469
▁uh	-470
▁Mr	-471
uch	-472
▁bet	-473
▁hand	-474
ise	-475
▁only	-476
ne	-477
▁part	-478
▁thr	-479
▁our	-480
▁because	-481
▁should	-482
▁every	-483
ull	-484
self	-485
▁V	-486
fore	-487
ather	-488
nder	-489
ff	-490
wn	-491
act	-492
mer	-493
uh	-494
so	-495
▁ch	-496
▁didn	-497
ark	-498
iz	-499
ouse	-500
ach	-501
▁So	-502
av	-503
we	-504
▁un	-505
▁Well	-506
▁these	-507
▁much	-508
ub	-509
ock	-510
▁cha	-511
ob	-512
uck	-513
▁happ	-514
▁something	-515
thing	-516
ress	-517
augh	-518
▁pre	-519
able	-520
▁Wh	-521
ady	-522
les	-523
▁big	-524
▁made	-525
ren	-526
▁really	-527
▁te	-528
▁year	-529
ting	-530
▁long	-531
ile	-532
▁gu	-533
ool	-534
▁ad	-535
man	-536
og	-537
irl	-538
old	-539
▁why	-540
▁sm	-541
day	-542
▁This	-543
▁chi	-544
▁away	-545
oc	-546
▁talk	-547
ew	-548
▁dis	-549
▁po	-550
ied	-551
ory	-552
cl	-553
▁ke	-554
be	-555
ip	-556
ated	-557
▁before	-558
hes	-559
ict	-560
▁may	-561
▁under	-562
ions	-563
cc	-564
▁rem	-565
▁went	-566
▁wr	-567
anna	-568
ody	-569
▁sc	-570
▁im	-571
ence	-572
hen	-573
ang	-574
ving	-575
▁There	-576
▁hel	-577
▁cr	-578
▁sec	-579
▁old	-580
▁never	-581
▁three	-582
▁girl	-583
ix	-584
oll	-585
ward	-586
▁those	-587
▁turn	-588
▁wanna	-589
▁um	-590
▁doing	-591
▁ask	-592
riend	-593
▁child	-594
00	-595
PAR	-596
▁app	-597
▁came	-598
▁home	-599
tain	-600
ful	-601
here	-602
▁act	-603
▁thought	-604
▁also	-605
▁Yes	-606
atch	-607
ny	-608
?"	-609
▁per	-610
▁bab	-611
▁Ch	-612
▁eat	-613
▁must	-614
▁new	-615
pen	-616
hm	-617
▁even	-618
ors	-619
ons	-620
▁another	-621
▁find	-622
▁things	-623
gg	-624
▁book	-625
ath	-626
▁through	-627
▁house	-628
ried	-629
▁give	-630
akes	-631
▁great	-632
ks	-633
EX	-634
ance	-635
▁ple	-636
▁bu	-637
▁head	-638
ious	-639
▁help	-640
▁many	-641
▁start	-642
ved	-643
EXP	-644
ait	-645
▁still	-646
ings	-647
▁comp	-648
ily	-649
get	-650
▁won	-651
ans	-652
▁lea	-653
▁last	-654
oh	-655
▁sl	-656
ail	-657
ave	-658
pe	-659
▁Un	-660
land	-661
ign	-662
▁try	-663
▁love	-664
ru	-665
▁done	-666
oy	-667
▁found	-668
igh	-669
laugh	-670
▁show	-671
TE	-672
▁%	-673
▁happen	-674
▁called	-675
▁night	-676
▁mom	-677
▁How	-678
aking	-679
oot	-680
▁boy	-681
air	-682
▁bit	-683
▁might	-684
▁cont	-685
▁isn	-686
xt	-687
▁201	-688
▁lot	-689
rd	-690
▁el	-691
▁bel	-692
ves	-693
▁min	-694
▁res	-695
▁chan	-696
▁name	-697
up	-698
▁ser	-699
▁baby	-700
ling	-701
ult	-702
body	-703
▁friend	-704
.”	-705
side	-706
ms	-707
▁bot	-708
med	-709
▁Mum	-710
ates	-711
▁che	-712
ars	-713
▁around	-714
ild	-715
ee	-716
▁dif	-717
aw	-718
als	-719
ually	-720
oss	-721
iver	-722
oney	-723
▁open	-724
▁gl	-725
▁If	-726
▁its	-727
chool	-728
▁care	-729
▁Br	-730
▁better	-731
▁own	-732
.]	-733
▁kind	-734
te	-735
▁mov	-736
yes	-737
ember	-738
▁water	-739
▁sure	-740
▁most	-741
▁comm	-742
▁count	-743
▁Al	-744
▁end	-745
▁rec	-746
ever	-747
IS	-748
ope	-749
▁nice	-750
▁place	-751
▁mhm	-752
▁Is	-753
▁feel	-754
rent	-755
ces	-756
▁An	-757
▁years	-758
imes	-759
▁four	-760
ways	-761
▁keep	-762
ah	-763
▁As	-764
▁anything	-765
▁Do	-766
ph	-767
ical	-768
▁used	-769
port	-770
,”	-771
ww	-772
▁cour	-773
▁looks	-774
▁doesn	-775
AN	-776
ited	-777
▁being	-778
led	-779
▁mother	-780
inn	-781
▁3	-782
▁att	-783
ens	-784
ince	-785
▁life	-786
▁else	-787
▁while	-788
▁run	-789
!"	-790
▁such	-791
ont	-792
ere	-793
▁All	-794
▁same	-795
▁room	-796
▁fin	-797
▁beg	-798
▁shall	-799
▁wait	-800
▁bre	-801
amp	-802
▁des	-803
▁dr	-804
▁sit	-805
▁supp	-806
ute	-807
▁Mar	-808
▁.	-809
▁next	-810
orry	-811
laughs	-812
▁sw	-813
▁bus	-814
▁school	-815
▁Be	-816
row	-817
▁told	-818
atter	-819
▁please	-820
▁TH	-821
RO	-822
▁saw	-823
▁stop	-824
AD	-825
▁always	-826
▁left	-827
ations	-828
orm	-829
ird	-830
▁bec	-831
ition	-832
▁far	-833
▁hold	-834
▁set	-835
▁cle	-836
addy	-837
uc	-838
ss	-839
▁word	-840
▁wee	-841
▁Now	-842
▁read	-843
und	-844
▁Don	-845
ident	-846
▁pret	-847
▁Why	-848
aught	-849
▁Mummy	-850
meric	-851
arly	-852
leep	-853
▁diffe	-854
▁father	-855
▁Ar	-856
▁men	-857
oon	-858
▁col	-859
ins	-860
▁ever	-861
▁hard	-862
▁mon	-863
outh	-864
▁num	-865
ung	-866
▁Then	-867
ye	-868
▁gone	-869
▁ele	-870
▁fam	-871
▁ball	-872
▁ah	-873
ream	-874
ta	-875
ction	-876
▁use	-877
▁unt	-878
▁fun	-879
▁took	-880
ister	-881
ug	-882
mp	-883
ness	-884
▁When	-885
▁pres	-886
▁money	-887
oun	-888
▁point	-889
▁door	-890
vel	-891
▁Americ	-892
▁coming	-893
▁pol	-894
raw	-895
ump	-896
orning	-897
▁erm	-898
▁enough	-899
▁walk	-900
▁goes	-901
▁gre	-902
▁bed	-903
▁huh	-904
▁Fran	-905
▁200	-906
▁Cha	-907
▁ac	-908
anc	-909
vent	-910
▁five	-911
▁though	-912
▁hear	-913
▁box	-914
▁ind	-915
ished	-916
erson	-917
▁On	-918
ows	-919
▁ob	-920
▁sur	-921
▁says	-922
pect	-923
▁_	-924
mber	-925
▁nothing	-926
The	-927
▁ret	-928
ts	-929
▁sing	-930
ower	-931
▁war	-932
right	-933
ib	-934
▁side	-935
▁eyes	-936
▁acc	-937
▁mar	-938
▁young	-939
▁stand	-940
▁watch	-941
▁until	-942
▁real	-943
▁morning	-944
▁str	-945
ec	-946
".	-947
▁hm	-948
▁wom	-949
uff	-950
▁belie	-951
ier	-952
▁quite	-953
▁course	-954
▁light	-955
the	-956
▁pass	-957
oup	-958
▁thank	-959
▁asked	-960
▁Come	-961
az	-962
▁seen	-963
ER	-964
▁looking	-965
▁red	-966
▁stay	-967
▁reg	-968
▁My	-969
ired	-970
ger	-971
▁ph	-972
ross	-973
▁pick	-974
TEA	-975
ets	-976
ES	-977
ret	-978
▁remember	-979
▁De	-980
▁few	-981
▁dist	-982
▁six	-983
bab	-984
gr	-985
▁At	-986
ible	-987
▁Let	-988
▁best	-989
▁second	-990
▁round	-991
▁different	-992
▁dog	-993
▁world	-994
ial	-995
▁Gr	-996
▁small	-997
gether	-998
▁once	-999
ased	-1000
▁For	-1001
▁together	-1002
oor	-1003
eak	-1004
tle	-1005
▁sound	-1006
▁ent	-1007
ton	-1008
▁leave	-1009
une	-1010
ank	-1011
▁Not	-1012
▁hur	-1013
▁♪	-1014
ween	-1015
▁fell	-1016
ike	-1017
oe	-1018
▁mil	-1019
▁face	-1020
MA	-1021
▁pie	-1022
▁wind	-1023
▁sorry	-1024
ational	-1025
ning	-1026
▁yet	-1027
▁list	-1028
▁known	-1029
▁dear	-1030
MCH	-1031
▁getting	-1032
▁today	-1033
aster	-1034
▁soon	-1035
▁sleep	-1036
mb	-1037
uring	-1038
▁hands	-1039
SIS	-1040
ctor	-1041
▁both	-1042
huh	-1043
▁heard	-1044
▁sk	-1045
ents	-1046
▁mind	-1047
▁rel	-1048
ten	-1049
▁char	-1050
ollow	-1051
▁202	-1052
▁each	-1053
▁fall	-1054
▁mm	-1055
▁fire	-1056
▁children	-1057
▁cap	-1058
▁bro	-1059
ush	-1060
▁train	-1061
▁Sp	-1062
ener	-1063
▁ter	-1064
▁Okay	-1065
▁sn	-1066
▁Mrs	-1067
▁Than	-1068
ered	-1069
▁4	-1070
ures	-1071
▁Can	-1072
▁without	-1073
▁dri	-1074
OU	-1075
▁number	-1076
ash	-1077
ject	-1078
▁ready	-1079
▁bad	-1080
),	-1081
▁rest	-1082
fta	-1083
▁between	-1084
ason	-1085
▁hafta	-1086
▁May	-1087
▁himself	-1088
▁Miss	-1089
▁Chr	-1090
▁upon	-1091
▁Cl	-1092
▁Er	-1093
iet	-1094
▁pict	-1095
ries	-1096
▁New	-1097
).	-1098
▁happened	-1099
▁wanted	-1100
▁person	-1101
arl	-1102
▁Eng	-1103
ane	-1104
ics	-1105
▁ca	-1106
orth	-1107
ats	-1108
ged	-1109
▁Af	-1110
▁haven	-1111
fect	-1112
its	-1113
▁looked	-1114
▁18	-1115
ating	-1116
▁foot	-1117
ohn	-1118
ina	-1119
▁hat	-1120
▁Hey	-1121
ife	-1122
▁half	-1123
any	-1124
1:	-1125
ames	-1126
▁God	-1127
eter	-1128
▁having	-1129
cle	-1130
ines	-1131
▁high	-1132
▁pap	-1133
der	-1134
▁dec	-1135
▁mus	-1136
pped	-1137
▁later	-1138
less	-1139
▁Fr	-1140
▁matter	-1141
▁knew	-1142
▁inst	-1143
oice	-1144
most	-1145
▁along	-1146
GMA	-1147
io	-1148
unt	-1149
▁sort	-1150
▁heart	-1151
▁talking	-1152
ched	-1153
▁air	-1154
▁story	-1155
▁move	-1156
▁everything	-1157
▁wond	-1158
▁pretty	-1159
stand	-1160
▁lar	-1161
ale	-1162
▁John	-1163
▁THE	-1164
▁follow	-1165
▁pop	-1166
▁Just	-1167
▁dep	-1168
eth	-1169
osed	-1170
▁top	-1171
ork	-1172
▁maybe	-1173
BRO	-1174
ertain	-1175
▁cons	-1176
▁Mm	-1177
▁5	-1178
sel	-1179
ma	-1180
▁hour	-1181
lic	-1182
dd	-1183
▁Mom	-1184
▁ans	-1185
▁hor	-1186
cha	-1187
▁Re	-1188
ball	-1189
▁days	-1190
▁Bl	-1191
▁United	-1192
▁inter	-1193
▁live	-1194
cial	-1195
▁Ind	-1196
▁making	-1197
▁boys	-1198
▁gave	-1199
me	-1200
▁against	-1201
▁American	-1202
▁Go	-1203
rew	-1204
by	-1205
▁break	-1206
▁tra	-1207
▁table	-1208
aut	-1209
▁bring	-1210
▁wasn	-1211
iness	-1212
▁dire	-1213
▁199	-1214
▁drink	-1215
▁Z	-1216
▁Uh	-1217
▁alright	-1218
idd	-1219
cept	-1220
▁Daddy	-1221
vers	-1222
▁miss	-1223
▁inv	-1224
▁anim	-1225
▁city	-1226
▁Where	-1227
ither	-1228
ual	-1229
▁sir	-1230
▁Ma	-1231
ING	-1232
bo	-1233
ped	-1234
▁believe	-1235
▁family	-1236
",	-1237
pr	-1238
ully	-1239
▁Right	-1240
▁died	-1241
▁Christ	-1242
ised	-1243
▁blue	-1244
▁since	-1245
?”	-1246
ern	-1247
▁Who	-1248
uth	-1249
▁kill	-1250
ters	-1251
▁sy	-1252
▁Pr	-1253
You	-1254
clud	-1255
▁His	-1256
oint	-1257
▁aw	-1258
▁id	-1259
▁cut	-1260
enty	-1261
▁add	-1262
▁whole	-1263
▁born	-1264
▁moment	-1265
▁noise	-1266
▁tri	-1267
erest	-1268
oud	-1269
ision	-1270
▁return	-1271
▁started	-1272
ok	-1273
br	-1274
▁close	-1275
▁town	-1276
▁actually	-1277
▁cur	-1278
▁stud	-1279
orrow	-1280
▁ste	-1281
ced	-1282
ery	-1283
▁Good	-1284
----	-1285
ric	-1286
aken	-1287
▁meet	-1288
wards	-1289
▁doll	-1290
▁wonder	-1291
▁sub	-1292
to	-1293
▁wouldn	-1294
▁food	-1295
▁saying	-1296
▁swe	-1297
sh	-1298
▁chair	-1299
▁trying	-1300
ready	-1301
▁hot	-1302
ular	-1303
bably	-1304
oke	-1305
▁white	-1306
▁laugh	-1307
vern	-1308
hip	-1309
▁cent	-1310
▁Are	-1311
ield	-1312
▁black	-1313
▁Ger	-1314
▁near	-1315
▁song	-1316
▁friends	-1317
▁understand	-1318
▁hey	-1319
▁comes	-1320
▁almost	-1321
▁Thom	-1322
ole	-1323
▁One	-1324
▁cat	-1325
▁dro	-1326
▁land	-1327
▁interest	-1328
ote	-1329
uss	-1330
▁imp	-1331
▁CHI	-1332
▁quest	-1333
▁floor	-1334
▁game	-1335
▁inf	-1336
▁wrong	-1337
▁build	-1338
▁disc	-1339
zz	-1340
▁Q	-1341
||	-1342
▁pull	-1343
ony	-1344
▁green	-1345
▁team	-1346
▁feet	-1347
▁eight	-1348
ches	-1349
cess	-1350
▁playing	-1351
▁Com	-1352
EN	-1353
ustr	-1354
▁already	-1355
ative	-1356
▁minute	-1357
▁sign	-1358
ined	-1359
▁brother	-1360
▁ref	-1361
▁squ	-1362
aces	-1363
app	-1364
ted	-1365
read	-1366
▁Look	-1367
▁job	-1368
▁rep	-1369
ocal	-1370
ON	-1371
▁met	-1372
oes	-1373
▁poss	-1374
▁beaut	-1375
▁Bob	-1376
ants	-1377
▁became	-1378
www	-1379
aid	-1380
▁Tom	-1381
▁draw	-1382
▁sil	-1383
▁guess	-1384
▁sent	-1385
▁country	-1386
▁pain	-1387
▁began	-1388
▁happy	-1389
▁ten	-1390
▁hair	-1391
▁pay	-1392
▁Thomas	-1393
▁eas	-1394
ives	-1395
eed	-1396
▁Sh	-1397
▁Will	-1398
▁quick	-1399
▁States	-1400
▁Me	-1401
▁times	-1402
▁Did	-1403
▁beh	-1404
▁Jack	-1405
▁kid	-1406
▁idea	-1407
▁speak	-1408
eb	-1409
▁To	-1410
▁6	-1411
undred	-1412
ison	-1413
ama	-1414
ying	-1415
where	-1416
▁son	-1417
▁paper	-1418
▁exc	-1419
▁lost	-1420
▁Sc	-1421
ize	-1422
▁pur	-1423
▁fact	-1424
▁gotta	-1425
elt	-1426
▁listen	-1427
hy	-1428
▁played	-1429
ues	-1430
▁198	-1431
▁fine	-1432
▁probably	-1433
ages	-1434
▁lead	-1435
▁yell	-1436
▁–	-1437
▁gi	-1438
▁includ	-1439
ital	-1440
ik	-1441
▁ass	-1442
▁leg	-1443
ities	-1444
▁front	-1445
ple	-1446
▁tre	-1447
ene	-1448
▁picture	-1449
ring	-1450
ared	-1451
▁behind	-1452
olog	-1453
ner	-1454
▁makes	-1455
▁music	-1456
ster	-1457
airs	-1458
no	-1459
▁woman	-1460
▁coll	-1461
ipp	-1462
▁color	-1463
ivers	-1464
ently	-1465
ises	-1466
ots	-1467
▁hundred	-1468
▁fight	-1469
▁hope	-1470
▁brought	-1471
▁cook	-1472
▁mine	-1473
▁hum	-1474
▁certain	-1475
▁girls	-1476
▁,	-1477
ouch	-1478
ape	-1479
▁during	-1480
It	-1481
▁full	-1482
▁conf	-1483
LL	-1484
▁contin	-1485
▁Thank	-1486
▁7	-1487
utes	-1488
▁voice	-1489
▁MOT	-1490
OR	-1491
haps	-1492
▁aren	-1493
wer	-1494
▁plan	-1495
▁stuff	-1496
▁party	-1497
▁Har	-1498
▁means	-1499
ober	-1500
▁month	-1501
▁outside	-1502
▁turned	-1503
ey	-1504
▁ran	-1505
▁ext	-1506
▁sat	-1507
ury	-1508
▁After	-1509
▁seemed	-1510
▁week	-1511
iful	-1512
▁expl	-1513
lish	-1514
▁poor	-1515
rib	-1516
▁8	-1517
cy	-1518
▁couldn	-1519
tern	-1520
▁del	-1521
ouble	-1522
19	-1523
key	-1524
▁wants	-1525
▁short	-1526
▁Some	-1527
ax	-1528
▁movie	-1529
▁inc	-1530
▁prom	-1531
ense	-1532
▁stick	-1533
itting	-1534
▁sun	-1535
ete	-1536
RA	-1537
▁compl	-1538
▁able	-1539
▁lear	-1540
▁dead	-1541
ided	-1542
▁gener	-1543
▁proble	-1544
▁cup	-1545
▁sim	-1546
▁Her	-1547
▁late	-1548
▁hell	-1549
ured	-1550
▁bar	-1551
▁taken	-1552
room	-1553
unch	-1554
▁offic	-1555
▁often	-1556
inner	-1557
▁record	-1558
▁import	-1559
▁197	-1560
▁fore	-1561
ese	-1562
▁horse	-1563
▁i	-1564
▁bird	-1565
▁es	-1566
son	-1567
▁ones	-1568
▁piece	-1569
ides	-1570
▁form	-1571
ned	-1572
ert	-1573
ief	-1574
▁myself	-1575
fully	-1576
rying	-1577
▁Ph	-1578
for	-1579
▁Car	-1580
▁rock	-1581
!”	-1582
▁business	-1583
0,	-1584
▁Your	-1585
▁prod	-1586
▁stre	-1587
▁Pro	-1588
iam	-1589
ards	-1590
▁fro	-1591
▁dress	-1592
▁!	-1593
▁pu	-1594
▁Ge	-1595
▁German	-1596
▁minutes	-1597
iew	-1598
▁With	-1599
cted	-1600
▁words	-1601
▁King	-1602
▁vis	-1603
Oh	-1604
▁clot	-1605
▁sister	-1606
▁Here	-1607
2:	-1608
▁bear	-1609
▁yourself	-1610
▁Le	-1611
▁repl	-1612
▁taking	-1613
▁less	-1614
ments	-1615
lease	-1616
irth	-1617
NAN	-1618
ized	-1619
illy	-1620
ones	-1621
▁eng	-1622
▁large	-1623
▁mag	-1624
▁ed	-1625
aur	-1626
▁line	-1627
▁death	-1628
used	-1629
▁inside	-1630
▁grand	-1631
head	-1632
▁Fl	-1633
▁dark	-1634
ask	-1635
What	-1636
▁Chi	-1637
▁med	-1638
men	-1639
▁rather	-1640
selves	-1641
ublic	-1642
ention	-1643
LO	-1644
▁Ab	-1645
gan	-1646
▁pen	-1647
▁cold	-1648
▁ev	-1649
▁felt	-1650
ming	-1651
▁beautiful	-1652
ific	-1653
▁tele	-1654
1.	-1655
▁road	-1656
ider	-1657
ney	-1658
dy	-1659
▁wife	-1660
▁Ex	-1661
▁lady	-1662
▁main	-1663
ze	-1664
ald	-1665
▁9	-1666
not	-1667
arent	-1668
bit	-1669
▁tree	-1670
▁sometimes	-1671
oub	-1672
▁yellow	-1673
▁ago	-1674
▁cir	-1675
▁Ad	-1676
▁age	-1677
▁case	-1678
▁art	-1679
▁sweet	-1680
▁guy	-1681
▁alone	-1682
LD	-1683
▁toys	-1684
aughter	-1685
▁given	-1686
▁funny	-1687
▁?	-1688
amed	-1689
aim	-1690
ution	-1691
els	-1692
▁present	-1693
▁Char	-1694
morrow	-1695
▁someone	-1696
▁boat	-1697
wh	-1698
aj	-1699
born	-1700
▁strong	-1701
▁reac	-1702
▁change	-1703
▁Or	-1704
ator	-1705
rig	-1706
ists	-1707
rench	-1708
▁twenty	-1709
▁power	-1710
▁Count	-1711
▁serv	-1712
rest	-1713
▁Pe	-1714
▁page	-1715
▁state	-1716
▁ins	-1717
▁YOU	-1718
▁till	-1719
DS	-1720
▁Te	-1721
▁either	-1722
0.	-1723
▁wood	-1724
▁English	-1725
▁birth	-1726
▁Ed	-1727
▁milk	-1728
▁true	-1729
ham	-1730
▁wear	-1731
▁important	-1732
▁bag	-1733
▁past	-1734
▁mess	-1735
▁Jan	-1736
▁196	-1737
owing	-1738
▁mot	-1739
▁others	-1740
▁lik	-1741
range	-1742
▁mark	-1743
ffe	-1744
▁body	-1745
▁occ	-1746
▁Grand	-1747
▁wish	-1748
▁mommy	-1749
▁ground	-1750
artment	-1751
▁fast	-1752
▁pri	-1753
ising	-1754
UR	-1755
gy	-1756
icha	-1757
▁across	-1758
DAD	-1759
▁least	-1760
▁hello	-1761
▁class	-1762
▁fif	-1763
▁seven	-1764
▁em	-1765
▁tea	-1766
We	-1767
▁gets	-1768
iously	-1769
▁forg	-1770
▁fav	-1771
▁fair	-1772
▁Bar	-1773
▁trans	-1774
▁govern	-1775
▁working	-1776
▁Mommy	-1777
▁buy	-1778
atur	-1779
▁Cap	-1780
▁Pl	-1781
▁order	-1782
iving	-1783
▁fish	-1784
ians	-1785
ara	-1786
▁hurt	-1787
umb	-1788
▁lay	-1789
▁hon	-1790
▁IN	-1791
▁uhhuh	-1792
▁Per	-1793
▁question	-1794
▁X	-1795
ained	-1796
idge	-1797
itc	-1798
▁early	-1799
▁dar	-1800
arth	-1801
▁adv	-1802
ley	-1803
▁Ben	-1804
ately	-1805
Yes	-1806
▁jump	-1807
2.	-1808
ature	-1809
▁prov	-1810
▁sea	-1811
ops	-1812
▁deal	-1813
▁news	-1814
fic	-1815
ges	-1816
▁sever	-1817
ken	-1818
ism	-1819
▁#	-1820
▁clean	-1821
▁France	-1822
▁El	-1823
pri	-1824
▁Brit	-1825
▁finished	-1826
ello	-1827
▁law	-1828
▁animals	-1829
▁area	-1830
▁Every	-1831
▁ty	-1832
rence	-1833
▁Tr	-1834
▁creat	-1835
ety	-1836
▁dinner	-1837
fort	-1838
▁gun	-1839
▁star	-1840
iting	-1841
▁win	-1842
MAR	-1843
iding	-1844
▁Con	-1845
▁several	-1846
▁Hel	-1847
▁z	-1848
▁Wor	-1849
▁rece	-1850
▁group	-1851
raid	-1852
▁...	-1853
▁somebody	-1854
▁Tw	-1855
▁pos	-1856
▁tried	-1857
ummer	-1858
▁glad	-1859
▁expect	-1860
▁ice	-1861
▁guys	-1862
erv	-1863
▁fig	-1864
ering	-1865
▁hung	-1866
▁lo	-1867
▁prot	-1868
▁quiet	-1869
▁free	-1870
▁herself	-1871
irty	-1872
]?	-1873
▁bur	-1874
▁thinking	-1875
▁wall	-1876
▁exp	-1877
stem	-1878
▁roll	-1879
▁Sha	-1880
isc	-1881
ened	-1882
▁egg	-1883
ains	-1884
▁write	-1885
inging	-1886
▁By	-1887
▁daddy	-1888
▁mill	-1889
PAT	-1890
ana	-1891
1,	-1892
sc	-1893
iff	-1894
▁mouth	-1895
ept	-1896
ilt	-1897
▁reason	-1898
▁Because	-1899
▁sold	-1900
▁toy	-1901
▁jo	-1902
▁pat	-1903
overed	-1904
▁Ah	-1905
▁Am	-1906
▁company	-1907
imb	-1908
▁Se	-1909
▁women	-1910
ices	-1911
▁War	-1912
▁stra	-1913
▁cried	-1914
uly	-1915
▁chance	-1916
▁takes	-1917
000	-1918
▁Joe	-1919
uary	-1920
▁French	-1921
▁mod	-1922
No	-1923
iter	-1924
▁camp	-1925
▁opp	-1926
▁send	-1927
owed	-1928
▁da	-1929
▁Of	-1930
▁Man	-1931
eared	-1932
angu	-1933
urch	-1934
acher	-1935
aced	-1936
att	-1937
▁polit	-1938
▁spe	-1939
ead	-1940
fess	-1941
▁York	-1942
▁Jap	-1943
▁rele	-1944
oof	-1945
▁Dr	-1946
osp	-1947
▁pot	-1948
ued	-1949
icks	-1950
▁partic	-1951
ement	-1952
ousand	-1953
mon	-1954
▁ear	-1955
▁held	-1956
▁These	-1957
▁living	-1958
II	-1959
ounds	-1960
rict	-1961
▁become	-1962
raph	-1963
▁trouble	-1964
▁corn	-1965
▁among	-1966
EL	-1967
entle	-1968
TER	-1969
▁afraid	-1970
▁sitting	-1971
▁darling	-1972
ls	-1973
▁books	-1974
▁hit	-1975
▁phone	-1976
▁step	-1977
▁running	-1978
▁ap	-1979
▁Dad	-1980
▁fly	-1981
▁window	-1982
▁kept	-1983
▁doctor	-1984
▁vill	-1985
▁Jim	-1986
▁sal	-1987
▁tomorrow	-1988
▁truck	-1989
▁surpr	-1990
eng	-1991
▁fix	-1992
▁conc	-1993
olly	-1994
but	-1995
Well	-1996
enn	-1997
▁lived	-1998
ived	-1999
And	-2000
▁soft	-2001
▁cor	-2002
▁hi	-2003
▁ra	-2004
▁football	-2005
▁Geor	-2006
ford	-2007
▁15	-2008
▁AN	-2009
ping	-2010
ium	-2011
▁adm	-2012
▁ju	-2013
band	-2014
▁Please	-2015
iversity	-2016
▁195	-2017
▁ship	-2018
▁def	-2019
▁fur	-2020
▁fing	-2021
20	-2022
▁lov	-2023
yl	-2024
But	-2025
▁letter	-2026
▁Have	-2027
inning	-2028
▁par	-2029
UN	-2030
▁Dav	-2031
anger	-2032
▁Japan	-2033
▁17	-2034
▁usually	-2035
▁arm	-2036
▁Get	-2037
cil	-2038
alth	-2039
▁resp	-2040
▁thousand	-2041
▁catch	-2042
arch	-2043
▁answer	-2044
▁stood	-2045
irt	-2046
itten	-2047
▁married	-2048
de	-2049
▁birthday	-2050
▁ya	-2051
▁County	-2052
▁band	-2053
▁World	-2054
dden	-2055
▁[1	-2056
CDS	-2057
▁cond	-2058
▁lad	-2059
RI	-2060
▁Eur	-2061
▁ton	-2062
▁frog	-2063
ically	-2064
unk	-2065
LOI	-2066
▁touch	-2067
▁attack	-2068
oth	-2069
rie	-2070
▁sand	-2071
▁dad	-2072
▁hours	-2073
look	-2074
▁cross	-2075
2,	-2076
▁shop	-2077
▁heav	-2078
owers	-2079
ears	-2080
▁check	-2081
▁March	-2082
ange	-2083
▁June	-2084
▁bath	-2085
3.	-2086
aul	-2087
▁January	-2088
▁system	-2089
▁Gu	-2090
▁sudden	-2091
▁choo	-2092
▁nine	-2093
▁object	-2094
▁194	-2095
▁10	-2096
▁problem	-2097
▁fil	-2098
▁clear	-2099
▁lots	-2100
ode	-2101
▁Sw	-2102
▁perhaps	-2103
ox	-2104
mas	-2105
iddle	-2106
▁Sam	-2107
teen	-2108
▁Col	-2109
▁ord	-2110
▁Frank	-2111
▁exper	-2112
bum	-2113
ional	-2114
net	-2115
▁suppose	-2116
ract	-2117
▁Phil	-2118
▁hist	-2119
▁tired	-2120
▁special	-2121
▁king	-2122
urs	-2123
▁block	-2124
▁north	-2125
▁kiss	-2126
▁ann	-2127
▁seems	-2128
▁TO	-2129
▁tem	-2130
▁named	-2131
ility	-2132
▁mer	-2133
▁Hello	-2134
GRA	-2135
▁report	-2136
▁langu	-2137
aint	-2138
▁daughter	-2139
▁appro	-2140
ient	-2141
▁killed	-2142
▁clothes	-2143
asure	-2144
▁points	-2145
▁Ne	-2146
com	-2147
▁gra	-2148
▁mount	-2149
▁hus	-2150
ugust	-2151
▁knows	-2152
▁yours	-2153
over	-2154
▁dream	-2155
ccess	-2156
▁forget	-2157
▁press	-2158
ude	-2159
pril	-2160
oman	-2161
▁blood	-2162
▁post	-2163
▁everybody	-2164
wered	-2165
ored	-2166
▁rain	-2167
▁mum	-2168
▁gentle	-2169
▁easy	-2170
ADU	-2171
though	-2172
▁themselves	-2173
point	-2174
▁dra	-2175
RE	-2176
▁Erm	-2177
▁replied	-2178
ality	-2179
▁low	-2180
▁released	-2181
▁straight	-2182
▁waiting	-2183
That	-2184
▁CH	-2185
▁Captain	-2186
▁lovely	-2187
▁eating	-2188
ott	-2189
ron	-2190
lly	-2191
▁dat	-2192
amer	-2193
▁months	-2194
▁eye	-2195
▁Any	-2196
▁throw	-2197
ories	-2198
▁South	-2199
▁answered	-2200
vision	-2201
velop	-2202
▁coup	-2203
▁series	-2204
ays	-2205
▁shoes	-2206
itch	-2207
makes	-2208
▁hors	-2209
inal	-2210
▁Pres	-2211
▁lives	-2212
▁Par	-2213
▁ill	-2214
FCH	-2215
actly	-2216
▁Bet	-2217
▁hop	-2218
▁har	-2219
▁tonight	-2220
amb	-2221
▁within	-2222
▁deep	-2223
▁hang	-2224
▁nose	-2225
▁kids	-2226
▁sounds	-2227
raz	-2228
more	-2229
5.	-2230
▁British	-2231
▁ain	-2232
AP	-2233
▁whether	-2234
▁fit	-2235
▁possible	-2236
▁sail	-2237
ler	-2238
▁album	-2239
▁16	-2240
▁careful	-2241
▁husband	-2242
▁sca	-2243
▁government	-2244
▁gold	-2245
▁worked	-2246
gue	-2247
▁charac	-2248
▁spec	-2249
▁moved	-2250
aged	-2251
4.	-2252
▁cow	-2253
uit	-2254
▁duck	-2255
stairs	-2256
▁juice	-2257
▁August	-2258
ager	-2259
▁cannot	-2260
▁passed	-2261
3:	-2262
▁Cal	-2263
par	-2264
▁div	-2265
rol	-2266
ctober	-2267
arden	-2268
▁forgot	-2269
que	-2270
unic	-2271
▁Ste	-2272
▁North	-2273
▁fa	-2274
▁field	-2275
▁event	-2276
fast	-2277
cient	-2278
ek	-2279
▁police	-2280
hant	-2281
▁proper	-2282
uts	-2283
▁safe	-2284
▁putting	-2285
▁danger	-2286
▁luck	-2287
che	-2288
ances	-2289
▁doub	-2290
NA	-2291
▁diffic	-2292
▁]	-2293
▁Peter	-2294
3,	-2295
▁couple	-2296
▁slow	-2297
urd	-2298
▁Europe	-2299
ovember	-2300
▁broken	-2301
▁single	-2302
▁const	-2303
▁noises	-2304
AL	-2305
ulation	-2306
▁Mary	-2307
▁forward	-2308
▁Mc	-2309
▁Maybe	-2310
▁river	-2311
▁however	-2312
▁longer	-2313
AS	-2314
▁puts	-2315
reed	-2316
joy	-2317
pes	-2318
eptember	-2319
CHILD	-2320
hern	-2321
▁quickly	-2322
▁above	-2323
▁arms	-2324
▁Dan	-2325
▁Was	-2326
friend	-2327
CHILDES	-2328
▁childes	-2329
▁ring	-2330
cember	-2331
▁toward	-2332
ardon	-2333
▁favor	-2334
▁April	-2335
▁success	-2336
▁shot	-2337
7.	-2338
ai	-2339
▁office	-2340
▁Je	-2341
▁193	-2342
▁member	-2343
ffect	-2344
▁board	-2345
▁England	-2346
▁evening	-2347
▁October	-2348
▁breat	-2349
▁towards	-2350
unny	-2351
▁excl	-2352
omb	-2353
▁Min	-2354
▁seem	-2355
▁pretend	-2356
ging	-2357
He	-2358
gas	-2359
8.	-2360
come	-2361
▁knock	-2362
▁det	-2363
▁var	-2364
gram	-2365
▁bott	-2366
lex	-2367
▁chick	-2368
aser	-2369
▁arri	-2370
▁anyway	-2371
ral	-2372
6.	-2373
ior	-2374
▁cos	-2375
aimed	-2376
▁national	-2377
▁wow	-2378
ruary	-2379
ebruary	-2380
▁wat	-2381
▁mist	-2382
ience	-2383
▁reached	-2384
9.	-2385
▁glass	-2386
▁la	-2387
ining	-2388
▁caught	-2389
▁November	-2390
▁See	-2391
▁grow	-2392
▁building	-2393
▁ve	-2394
▁orange	-2395
▁seat	-2396
▁needs	-2397
▁elect	-2398
▁sight	-2399
udd	-2400
rat	-2401
4,	-2402
▁July	-2403
▁feeling	-2404
▁Lea	-2405
attle	-2406
▁third	-2407
▁nearly	-2408
▁Christmas	-2409
fer	-2410
▁drive	-2411
▁cool	-2412
▁Mart	-2413
▁equ	-2414
▁visit	-2415
▁September	-2416
▁whose	-2417
▁oper	-2418
▁snow	-2419
▁ahead	-2420
▁common	-2421
▁station	-2422
▁million	-2423
▁abs	-2424
phone	-2425
▁esc	-2426
terday	-2427
▁treat	-2428
yn	-2429
let	-2430
▁Su	-2431
▁cry	-2432
▁department	-2433
▁December	-2434
▁Qu	-2435
▁engine	-2436
▁shar	-2437
▁OF	-2438
▁clos	-2439
ggest	-2440
▁David	-2441
itchen	-2442
▁telling	-2443
you	-2444
▁worry	-2445
▁From	-2446
▁former	-2447
con	-2448
▁effect	-2449
gest	-2450
▁whatever	-2451
rop	-2452
▁places	-2453
▁dest	-2454
▁parent	-2455
▁returned	-2456
▁cray	-2457
▁orig	-2458
vocal	-2459
▁circ	-2460
▁warm	-2461
▁human	-2462
▁lie	-2463
ograph	-2464
ondon	-2465
▁Carl	-2466
ills	-2467
▁suggest	-2468
▁standing	-2469
▁Sir	-2470
▁Ke	-2471
▁trees	-2472
▁television	-2473
▁cover	-2474
uced	-2475
▁hungry	-2476
▁sol	-2477
▁February	-2478
▁Paul	-2479
ample	-2480
▁changed	-2481
▁shout	-2482
▁stat	-2483
▁cal	-2484
ED	-2485
▁cake	-2486
▁broke	-2487
IC	-2488
▁stopped	-2489
ien	-2490
▁enjoy	-2491
noon	-2492
▁stri	-2493
▁develop	-2494
▁ride	-2495
▁instead	-2496
emy	-2497
▁club	-2498
▁anyone	-2499
▁public	-2500
ander	-2501
▁Che	-2502
▁val	-2503
▁climb	-2504
▁strange	-2505
▁kitchen	-2506
rod	-2507
▁breakfast	-2508
▁meant	-2509
▁eh	-2510
▁cause	-2511
▁bye	-2512
▁Pat	-2513
ips	-2514
iny	-2515
▁cost	-2516
▁fear	-2517
5,	-2518
▁built	-2519
▁village	-2520
IT	-2521
▁bow	-2522
▁Gl	-2523
▁London	-2524
▁push	-2525
▁Em	-2526
▁player	-2527
▁disapp	-2528
▁tick	-2529
llustr	-2530
▁University	-2531
▁view	-2532
▁Rep	-2533
--------	-2534
▁organ	-2535
▁bread	-2536
▁pupp	-2537
▁Comm	-2538
▁Helen	-2539
▁super	-2540
▁region	-2541
▁decided	-2542
▁profess	-2543
▁est	-2544
▁Mark	-2545
▁opened	-2546
▁fill	-2547
uct	-2548
▁Thanks	-2549
▁carry	-2550
rible	-2551
▁yesterday	-2552
▁swim	-2553
ffic	-2554
▁wild	-2555
▁(19	-2556
▁supposed	-2557
uce	-2558
▁bes	-2559
▁dem	-2560
▁tape	-2561
▁teacher	-2562
▁led	-2563
▁support	-2564
▁afternoon	-2565
▁island	-2566
▁butter	-2567
▁direct	-2568
ology	-2569
▁save	-2570
▁exactly	-2571
▁Mother	-2572
▁test	-2573
▁perfect	-2574
▁followed	-2575
▁Ital	-2576
▁2020	-2577
ause	-2578
▁nin	-2579
oops	-2580
▁written	-2581
▁Ele	-2582
▁career	-2583
▁fellow	-2584
unity	-2585
ustral	-2586
▁track	-2587
hile	-2588
▁West	-2589
▁store	-2590
▁Fraser	-2591
mbers	-2592
▁season	-2593
▁prison	-2594
.'	-2595
▁indeed	-2596
co	-2597
cially	-2598
▁Gre	-2599
een	-2600
▁Great	-2601
▁turns	-2602
idence	-2603
vol	-2604
▁bright	-2605
▁whom	-2606
▁heavy	-2607
▁12	-2608
ospital	-2609
▁whis	-2610
▁Lord	-2611
8,	-2612
▁pack	-2613
ror	-2614
▁ow	-2615
▁av	-2616
▁position	-2617
▁weeks	-2618
▁miles	-2619
▁garden	-2620
▁Cr	-2621
▁pieces	-2622
▁learn	-2623
▁desc	-2624
ET	-2625
mother	-2626
ffee	-2627
▁park	-2628
bor	-2629
▁George	-2630
▁Like	-2631
▁sick	-2632
▁smil	-2633
ceed	-2634
▁cre	-2635
▁middle	-2636
▁works	-2637
▁Mad	-2638
▁Take	-2639
▁ir	-2640
▁ban	-2641
▁except	-2642
▁following	-2643
uel	-2644
▁Austral	-2645
▁Sm	-2646
▁using	-2647
▁protect	-2648
▁rad	-2649
OM	-2650
9,	-2651
ases	-2652
▁Russ	-2653
▁First	-2654
oul	-2655
▁ru	-2656
▁Two	-2657
▁brown	-2658
▁AND	-2659
▁City	-2660
ended	-2661
▁certainly	-2662
gen	-2663
▁requ	-2664
▁secret	-2665
▁ut	-2666
▁quar	-2667
▁mis	-2668
▁Wait	-2669
bles	-2670
▁sus	-2671
▁bought	-2672
▁hasn	-2673
▁belong	-2674
7,	-2675
▁added	-2676
▁happens	-2677
▁maj	-2678
▁National	-2679
▁ang	-2680
▁inform	-2681
▁stuck	-2682
▁Mag	-2683
▁farm	-2684
▁finish	-2685
▁Hi	-2686
▁truth	-2687
GH	-2688
▁complete	-2689
omin	-2690
go	-2691
▁giving	-2692
▁appear	-2693
uk	-2694
gar	-2695
ician	-2696
ushed	-2697
▁di	-2698
▁pardon	-2699
ales	-2700
night	-2701
empt	-2702
LE	-2703
▁program	-2704
ula	-2705
▁decl	-2706
▁pract	-2707
uthor	-2708
▁bottom	-2709
▁fort	-2710
▁street	-2711
▁cast	-2712
▁Indian	-2713
▁earth	-2714
▁watching	-2715
▁wrote	-2716
▁President	-2717
'.	-2718
▁lunch	-2719
▁worth	-2720
▁south	-2721
▁somewhere	-2722
ground	-2723
bed	-2724
▁lau	-2725
▁holding	-2726
▁Lou	-2727
▁Nor	-2728
board	-2729
▁doubt	-2730
iday	-2731
▁mad	-2732
▁language	-2733
▁Part	-2734
▁anybody	-2735
nel	-2736
▁OK	-2737
▁figure	-2738
▁shoot	-2739
singing	-2740
andy	-2741
6,	-2742
lie	-2743
▁List	-2744
▁Aunt	-2745
▁leaving	-2746
▁honey	-2747
ichael	-2748
▁ooh	-2749
igg	-2750
▁vi	-2751
ishing	-2752
ege	-2753
▁legs	-2754
▁general	-2755
▁district	-2756
▁Pol	-2757
▁Somet	-2758
▁members	-2759
▁example	-2760
▁base	-2761
fl	-2762
▁ought	-2763
▁church	-2764
▁lift	-2765
▁prop	-2766
▁dev	-2767
▁captain	-2768
ouncil	-2769
▁coffee	-2770
▁emp	-2771
▁loc	-2772
▁hol	-2773
▁tast	-2774
▁service	-2775
dom	-2776
ray	-2777
▁busy	-2778
tered	-2779
bur	-2780
child	-2781
▁sell	-2782
▁everyone	-2783
▁$	-2784
▁hig	-2785
▁mach	-2786
▁level	-2787
▁elep	-2788
box	-2789
▁bas	-2790
▁cop	-2791
▁‘	-2792
SI	-2793
▁flowers	-2794
▁character	-2795
▁neck	-2796
izz	-2797
▁fail	-2798
▁Sorry	-2799
▁space	-2800
▁anymore	-2801
▁summer	-2802
▁difficult	-2803
ille	-2804
resent	-2805
ogn	-2806
▁Even	-2807
▁Bill	-2808
▁However	-2809
▁history	-2810
▁consider	-2811
iers	-2812
gu	-2813
▁laughs	-2814
hold	-2815
▁neigh	-2816
▁moving	-2817
▁received	-2818
▁exclaimed	-2819
▁ce	-2820
▁pictures	-2821
▁master	-2822
▁tail	-2823
▁imag	-2824
oop	-2825
time	-2826
Th	-2827
▁Tell	-2828
▁thirty	-2829
APTER	-2830
US	-2831
itted	-2832
▁Black	-2833
ified	-2834
▁Ell	-2835
▁cab	-2836
▁parents	-2837
nect	-2838
▁fifty	-2839
work	-2840
▁reach	-2841
▁trust	-2842
▁defe	-2843
aff	-2844
nie	-2845
▁hole	-2846
ressed	-2847
ancy	-2848
▁thanks	-2849
▁spir	-2850
erry	-2851
▁sad	-2852
▁Rea	-2853
af	-2854
▁cars	-2855
Why	-2856
▁Rober	-2857
▁suddenly	-2858
▁carried	-2859
▁including	-2860
ounter	-2861
▁sense	-2862
▁America	-2863
▁result	-2864
▁CHAPTER	-2865
▁hospital	-2866
▁WH	-2867
▁bottle	-2868
eal	-2869
▁cheese	-2870
itty	-2871
ift	-2872
ording	-2873
▁commune	-2874
▁Hen	-2875
▁Brown	-2876
▁lock	-2877
ky	-2878
▁Cent	-2879
▁spoke	-2880
▁card	-2881
▁rising	-2882
bye	-2883
▁compan	-2884
▁burn	-2885
▁tot	-2886
▁major	-2887
pecially	-2888
▁stru	-2889
▁weren	-2890
▁animal	-2891
▁Michael	-2892
mpions	-2893
that	-2894
lin	-2895
kes	-2896
uation	-2897
▁port	-2898
▁comfort	-2899
▁mix	-2900
▁accept	-2901
▁James	-2902
▁population	-2903
eddy	-2904
▁chicken	-2905
,--	-2906
king	-2907
▁appeared	-2908
uty	-2909
▁yep	-2910
AY	-2911
▁plays	-2912
ocol	-2913
▁loud	-2914
▁beginning	-2915
ti	-2916
ino	-2917
▁further	-2918
▁William	-2919
ada	-2920
rupt	-2921
▁mat	-2922
rel	-2923
iger	-2924
cent	-2925
▁Uncle	-2926
Illustr	-2927
▁convers	-2928
▁horses	-2929
mm	-2930
▁pink	-2931
points	-2932
view	-2933
mie	-2934
ination	-2935
hel	-2936
▁bank	-2937
▁compet	-2938
resh	-2939
▁Mon	-2940
▁walking	-2941
▁Mama	-2942
▁race	-2943
bers	-2944
▁Sar	-2945
▁allowed	-2946
▁puzz	-2947
▁spot	-2948
▁rul	-2949
▁contain	-2950
▁vol	-2951
house	-2952
cer	-2953
lo	-2954
riage	-2955
▁recogn	-2956
iod	-2957
har	-2958
▁current	-2959
▁rab	-2960
▁feed	-2961
gasps	-2962
▁collect	-2963
OW	-2964
▁god	-2965
▁crying	-2966
▁seeing	-2967
▁corner	-2968
form	-2969
sings	-2970
▁gas	-2971
▁design	-2972
▁although	-2973
▁pounds	-2974
acing	-2975
estern	-2976
▁Harry	-2977
▁walked	-2978
▁IT	-2979
Illustration	-2980
▁dropped	-2981
▁likes	-2982
▁lose	-2983
▁self	-2984
▁hast	-2985
ization	-2986
▁vide	-2987
ghed	-2988
▁192	-2989
ume	-2990
▁prin	-2991
▁natur	-2992
▁grass	-2993
▁Ser	-2994
iced	-2995
ggy	-2996
asket	-2997
▁pock	-2998
▁camer	-2999
▁moon	-3000
▁continued	-3001
▁Nin	-3002
▁dry	-3003
▁games	-3004
▁obs	-3005
▁meeting	-3006
roll	-3007
▁jour	-3008
▁wash	-3009
▁En	-3010
▁bra	-3011
like	-3012
▁mid	-3013
▁remark	-3014
▁apple	-3015
▁spend	-3016
▁Sec	-3017
▁letters	-3018
▁priv	-3019
▁wide	-3020
▁beat	-3021
▁dance	-3022
▁term	-3023
ades	-3024
lished	-3025
acy	-3026
izes	-3027
▁dam	-3028
▁account	-3029
asant	-3030
▁tall	-3031
▁attention	-3032
ounced	-3033
ya	-3034
olute	-3035
▁Afric	-3036
cell	-3037
clock	-3038
▁danc	-3039
▁president	-3040
▁Billy	-3041
▁fle	-3042
play	-3043
what	-3044
how	-3045
▁tor	-3046
▁entire	-3047
▁picks	-3048
▁teeth	-3049
▁jack	-3050
▁wonderful	-3051
▁Rob	-3052
AM	-3053
▁Que	-3054
▁ate	-3055
▁Father	-3056
▁vict	-3057
gie	-3058
▁holds	-3059
▁distance	-3060
roy	-3061
There	-3062
well	-3063
rit	-3064
▁author	-3065
▁gen	-3066
whis	-3067
▁plate	-3068
▁respect	-3069
▁Ag	-3070
▁wet	-3071
▁local	-3072
ID	-3073
unicip	-3074
uture	-3075
▁People	-3076
▁shape	-3077
▁nobody	-3078
▁Mot	-3079
▁Roman	-3080
oose	-3081
▁information	-3082
ript	-3083
▁Span	-3084
▁Jul	-3085
▁leaves	-3086
▁cream	-3087
▁created	-3088
▁county	-3089
▁itself	-3090
wood	-3091
▁necess	-3092
now	-3093
▁based	-3094
ida	-3095
▁shouldn	-3096
▁century	-3097
▁popular	-3098
▁lab	-3099
▁health	-3100
▁yum	-3101
ission	-3102
▁type	-3103
bert	-3104
▁14	-3105
▁delight	-3106
itions	-3107
▁Mor	-3108
vin	-3109
▁silence	-3110
▁control	-3111
▁match	-3112
ius	-3113
▁laughed	-3114
▁favorite	-3115
▁liked	-3116
aven	-3117
elve	-3118
light	-3119
▁nor	-3120
▁11	-3121
▁uhoh	-3122
aves	-3123
ression	-3124
ala	-3125
olved	-3126
▁eggs	-3127
▁interesting	-3128
▁Germany	-3129
aps	-3130
rian	-3131
▁..	-3132
▁writing	-3133
por	-3134
▁Stop	-3135
noise	-3136
▁ears	-3137
▁shut	-3138
medi	-3139
gel	-3140
▁Sy	-3141
▁hide	-3142
off	-3143
str	-3144
▁Really	-3145
itive	-3146
▁wel	-3147
▁capital	-3148
▁Bobby	-3149
▁period	-3150
▁Nothing	-3151
▁interested	-3152
chan	-3153
cher	-3154
itz	-3155
▁mention	-3156
▁sky	-3157
▁jud	-3158
looks	-3159
bs	-3160
▁dig	-3161
pered	-3162
▁die	-3163
ounded	-3164
▁vers	-3165
▁famous	-3166
▁key	-3167
▁grew	-3168
▁13	-3169
▁silver	-3170
chn	-3171
ston	-3172
VE	-3173
▁perfor	-3174
ato	-3175
▁force	-3176
iller	-3177
arr	-3178
▁Red	-3179
▁parts	-3180
▁stars	-3181
ads	-3182
icy	-3183
uge	-3184
ipe	-3185
▁questions	-3186
▁laughing	-3187
oom	-3188
▁paid	-3189
raft	-3190
ilar	-3191
▁leng	-3192
osaur	-3193
▁chocol	-3194
▁Give	-3195
▁drop	-3196
▁norm	-3197
ply	-3198
▁hall	-3199
ashed	-3200
▁cell	-3201
rs	-3202
CAR	-3203
▁bell	-3204
▁future	-3205
▁serious	-3206
▁crayon	-3207
▁Jo	-3208
het	-3209
▁finally	-3210
▁Park	-3211
ires	-3212
iment	-3213
▁names	-3214
▁alive	-3215
▁command	-3216
astic	-3217
lt	-3218
▁phot	-3219
▁starts	-3220
▁Ant	-3221
▁army	-3222
icro	-3223
RY	-3224
field	-3225
▁pet	-3226
▁Sure	-3227
▁smell	-3228
▁needed	-3229
▁anx	-3230
▁pub	-3231
▁Dor	-3232
▁incre	-3233
▁Robert	-3234
How	-3235
ustom	-3236
▁Betty	-3237
▁aut	-3238
▁gives	-3239
▁showed	-3240
▁exam	-3241
▁reading	-3242
owd	-3243
ivil	-3244
▁birds	-3245
ipped	-3246
Don	-3247
▁mur	-3248
eneral	-3249
name	-3250
▁singing	-3251
▁Alex	-3252
iforn	-3253
▁Would	-3254
sp	-3255
val	-3256
▁tur	-3257
▁loved	-3258
▁Act	-3259
▁surprise	-3260
▁charge	-3261
isted	-3262
▁attempt	-3263
▁sle	-3264
rap	-3265
▁lying	-3266
▁elephant	-3267
▁Luc	-3268
▁⌊	-3269
▁clever	-3270
▁sheep	-3271
▁mem	-3272
▁closed	-3273
▁INV	-3274
▁hous	-3275
▁bridge	-3276
▁plant	-3277
itary	-3278
▁Maj	-3279
▁officer	-3280
▁House	-3281
_,	-3282
▁rub	-3283
If	-3284
viously	-3285
▁wheel	-3286
irm	-3287
soci	-3288
▁Mat	-3289
▁spl	-3290
▁none	-3291
▁speed	-3292
▁smile	-3293
▁Californ	-3294
▁Listen	-3295
▁camera	-3296
rief	-3297
▁Jwww	-3298
▁finger	-3299
ids	-3300
▁⌈	-3301
▁Our	-3302
▁trad	-3303
va	-3304
cious	-3305
ites	-3306
▁accident	-3307
▁River	-3308
▁especially	-3309
▁hy	-3310
▁Many	-3311
▁film	-3312
▁slowly	-3313
▁below	-3314
▁share	-3315
▁subject	-3316
▁scared	-3317
▁bene	-3318
ploy	-3319
▁bigger	-3320
▁comput	-3321
set	-3322
▁asking	-3323
▁prep	-3324
▁(1	-3325
▁Jes	-3326
ument	-3327
isf	-3328
▁basket	-3329
▁connect	-3330
ival	-3331
▁Blue	-3332
▁Fred	-3333
▁pray	-3334
▁inn	-3335
▁California	-3336
,'	-3337
ichard	-3338
▁Hist	-3339
▁conversation	-3340
▁Bon	-3341
▁iss	-3342
▁invest	-3343
▁Co	-3344
orts	-3345
▁video	-3346
anor	-3347
▁bang	-3348
pers	-3349
omes	-3350
▁capt	-3351
▁Intern	-3352
▁viol	-3353
ATT	-3354
▁Sund	-3355
oly	-3356
▁Amy	-3357
▁problems	-3358
▁due	-3359
xic	-3360
▁twelve	-3361
▁tit	-3362
ann	-3363
▁terrible	-3364
sy	-3365
▁Cor	-3366
hood	-3367
ica	-3368
iles	-3369
lymp	-3370
▁chief	-3371
yle	-3372
▁asleep	-3373
ili	-3374
bl	-3375
▁fresh	-3376
▁ep	-3377
▁shows	-3378
▁Sant	-3379
▁municip	-3380
▁US	-3381
▁Henry	-3382
")	-3383
▁repe	-3384
eder	-3385
▁pig	-3386
▁court	-3387
▁infl	-3388
▁spoon	-3389
▁extra	-3390
iant	-3391
aching	-3392
▁coat	-3393
▁activ	-3394
▁promise	-3395
▁chocolate	-3396
▁peace	-3397
▁direction	-3398
▁host	-3399
▁Party	-3400
▁comb	-3401
▁educ	-3402
▁remain	-3403
▁tow	-3404
▁mass	-3405
▁immedi	-3406
▁sleeping	-3407
▁Richard	-3408
▁ye	-3409
▁van	-3410
▁Little	-3411
▁gar	-3412
▁picked	-3413
▁Bel	-3414
▁fright	-3415
▁pocket	-3416
▁Most	-3417
▁countries	-3418
▁rose	-3419
▁separ	-3420
▁species	-3421
▁helped	-3422
▁Olymp	-3423
▁Ros	-3424
ether	-3425
▁India	-3426
▁East	-3427
▁din	-3428
inary	-3429
▁("	-3430
uten	-3431
▁Coll	-3432
▁machine	-3433
cuse	-3434
alley	-3435
ably	-3436
▁fingers	-3437
._	-3438
▁served	-3439
▁stage	-3440
▁breath	-3441
wise	-3442
▁30	-3443
▁circle	-3444
▁Mer	-3445
▁adult	-3446
St	-3447
▁Only	-3448
▁Bo	-3449
▁shore	-3450
uction	-3451
ods	-3452
kin	-3453
kn	-3454
gged	-3455
▁accom	-3456
▁slight	-3457
▁dogs	-3458
▁straw	-3459
▁west	-3460
▁hardly	-3461
▁La	-3462
▁talked	-3463
▁pal	-3464
▁spent	-3465
▁rob	-3466
nes	-3467
▁earl	-3468
under	-3469
▁tour	-3470
yond	-3471
▁rap	-3472
▁Govern	-3473
▁learned	-3474
pose	-3475
▁turning	-3476
▁crowd	-3477
▁joined	-3478
▁represent	-3479
pping	-3480
gs	-3481
inite	-3482
ris	-3483
▁monkey	-3484
▁covered	-3485
▁amount	-3486
FAD	-3487
ingly	-3488
▁Does	-3489
▁pers	-3490
illa	-3491
▁politician	-3492
aper	-3493
▁older	-3494
▁include	-3495
▁forty	-3496
epend	-3497
uses	-3498
▁upstairs	-3499
▁spread	-3500
▁Very	-3501
▁process	-3502
▁ways	-3503
▁forest	-3504
▁situation	-3505
▁fol	-3506
conom	-3507
▁likely	-3508
▁drawing	-3509
cience	-3510
▁caused	-3511
▁Mus	-3512
olf	-3513
▁blank	-3514
▁sum	-3515
lands	-3516
ville	-3517
▁San	-3518
▁&	-3519
▁kick	-3520
▁study	-3521
edd	-3522
ils	-3523
▁welcome	-3524
olutely	-3525
bour	-3526
aker	-3527
elle	-3528
outs	-3529
atic	-3530
ka	-3531
▁Sue	-3532
▁League	-3533
▁hurry	-3534
▁battle	-3535
rect	-3536
▁sna	-3537
▁Mal	-3538
▁)	-3539
▁uncle	-3540
ests	-3541
hire	-3542
▁fre	-3543
of	-3544
▁Ol	-3545
▁General	-3546
▁fem	-3547
▁Paris	-3548
▁sevent	-3549
▁stone	-3550
▁concern	-3551
▁ON	-3552
▁Japanese	-3553
▁cloud	-3554
▁Med	-3555
▁rid	-3556
▁calling	-3557
▁Ber	-3558
▁ver	-3559
▁100	-3560
▁During	-3561
uted	-3562
▁Big	-3563
▁tend	-3564
UT	-3565
▁join	-3566
▁spring	-3567
▁meat	-3568
ex	-3569
atives	-3570
▁Bro	-3571
▁stories	-3572
▁(2	-3573
▁occas	-3574
▁search	-3575
▁excuse	-3576
▁rail	-3577
Now	-3578
▁cand	-3579
▁1,	-3580
▁satisf	-3581
ushing	-3582
▁dollars	-3583
▁Hall	-3584
▁oops	-3585
▁Sarah	-3586
ference	-3587
▁square	-3588
▁Anne	-3589
▁similar	-3590
▁Bur	-3591
▁ris	-3592
▁Jane	-3593
▁Other	-3594
▁rabbit	-3595
antly	-3596
ita	-3597
▁Aust	-3598
▁aff	-3599
anda	-3600
▁mountain	-3601
▁scr	-3602
▁worse	-3603
UNK	-3604
▁Eleanor	-3605
oses	-3606
TUR	-3607
▁natural	-3608
▁size	-3609
▁High	-3610
reek	-3611
▁guard	-3612
cul	-3613
▁Old	-3614
▁explain	-3615
▁declared	-3616
ams	-3617
▁Bab	-3618
▁silly	-3619
▁entered	-3620
aded	-3621
▁driving	-3622
▁Its	-3623
erve	-3624
razy	-3625
la	-3626
▁Tony	-3627
▁lim	-3628
▁broad	-3629
order	-3630
They	-3631
▁rich	-3632
'?	-3633
▁beha	-3634
▁Their	-3635
▁possib	-3636
▁sett	-3637
▁enemy	-3638
▁crack	-3639
ensus	-3640
▁enc	-3641
▁path	-3642
▁rese	-3643
lect	-3644
10	-3645
ously	-3646
▁Which	-3647
▁clock	-3648
▁discuss	-3649
▁II	-3650
▁eff	-3651
▁Um	-3652
ency	-3653
▁length	-3654
▁den	-3655
isy	-3656
oyal	-3657
▁Republic	-3658
▁hiding	-3659
reme	-3660
▁naught	-3661
▁dressed	-3662
▁trip	-3663
▁sandw	-3664
▁final	-3665
▁steps	-3666
▁relig	-3667
▁Before	-3668
▁lines	-3669
▁particular	-3670
▁Sunday	-3671
▁forth	-3672
ergy	-3673
▁missing	-3674
LA	-3675
▁winter	-3676
▁Mac	-3677
▁sex	-3678
ns	-3679
▁Carol	-3680
▁respons	-3681
erved	-3682
▁emb	-3683
gon	-3684
▁hate	-3685
▁25	-3686
▁ma	-3687
▁Australia	-3688
▁Ann	-3689
IR	-3690
▁role	-3691
orthern	-3692
CK	-3693
aches	-3694
▁WE	-3695
▁fighting	-3696
SO	-3697
▁Laur	-3698
URS	-3699
▁beyond	-3700
▁BE	-3701
▁arrived	-3702
▁Wal	-3703
▁largest	-3704
▁apart	-3705
▁Since	-3706
▁angry	-3707
▁Minister	-3708
▁Lo	-3709
▁hill	-3710
▁bull	-3711
▁introd	-3712
▁blocks	-3713
▁various	-3714
▁Bert	-3715
▁movies	-3716
nam	-3717
arm	-3718
▁east	-3719
ribed	-3720
▁Say	-3721
▁directed	-3722
uke	-3723
essie	-3724
▁State	-3725
▁utter	-3726
col	-3727
]!	-3728
▁Doctor	-3729
▁tight	-3730
▁leader	-3731
▁destroy	-3732
▁streng	-3733
▁beside	-3734
elly	-3735
▁tiny	-3736
▁flat	-3737
▁teddy	-3738
sidered	-3739
▁hun	-3740
▁School	-3741
▁considered	-3742
▁action	-3743
▁ur	-3744
ography	-3745
zen	-3746
▁nurs	-3747
▁Jesus	-3748
▁numbers	-3749
▁agreed	-3750
▁ST	-3751
▁suit	-3752
▁flying	-3753
▁deter	-3754
▁History	-3755
▁difference	-3756
hem	-3757
▁tou	-3758
▁plane	-3759
hin	-3760
▁proud	-3761
▁Three	-3762
▁bite	-3763
ux	-3764
aud	-3765
imate	-3766
▁phys	-3767
▁Sim	-3768
▁ide	-3769
▁happening	-3770
ho	-3771
▁Child	-3772
gl	-3773
inct	-3774
▁Cup	-3775
▁spell	-3776
▁falling	-3777
▁medic	-3778
▁placed	-3779
astern	-3780
▁speaking	-3781
▁Got	-3782
▁Spanish	-3783
ially	-3784
/0	-3785
▁laid	-3786
▁pleasure	-3787
▁About	-3788
mit	-3789
▁wake	-3790
cture	-3791
▁Excuse	-3792
▁unless	-3793
▁Tur	-3794
▁simple	-3795
bre	-3796
reet	-3797
OO	-3798
▁refer	-3799
▁Air	-3800
ena	-3801
rer	-3802
ums	-3803
▁White	-3804
▁Ro	-3805
antic	-3806
action	-3807
▁rough	-3808
▁driver	-3809
▁sens	-3810
▁threw	-3811
▁tax	-3812
aturday	-3813
▁missed	-3814
▁Christian	-3815
▁discovered	-3816
▁fat	-3817
laughing	-3818
▁cult	-3819
▁Ac	-3820
arrow	-3821
▁Stan	-3822
▁→	-3823
nal	-3824
▁fool	-3825
▁colors	-3826
▁soldiers	-3827
▁puzzle	-3828
utenant	-3829
▁watched	-3830
▁bill	-3831
itude	-3832
▁onto	-3833
▁shoe	-3834
ails	-3835
▁Never	-3836
hered	-3837
▁thick	-3838
▁honest	-3839
▁weather	-3840
▁handle	-3841
...?	-3842
▁babies	-3843
fit	-3844
▁easily	-3845
ables	-3846
line	-3847
ciety	-3848
ached	-3849
hal	-3850
▁THAT	-3851
▁thinks	-3852
▁raised	-3853
My	-3854
▁paint	-3855
||0	-3856
oken	-3857
▁bud	-3858
▁escape	-3859
▁skin	-3860
ousin	-3861
▁oppos	-3862
▁buck	-3863
▁relations	-3864
▁wearing	-3865
rey	-3866
lend	-3867
▁demand	-3868
▁goin	-3869
▁joy	-3870
▁taste	-3871
▁Charles	-3872
▁pulled	-3873
▁temper	-3874
▁mir	-3875
▁hadn	-3876
▁anywhere	-3877
▁dangerous	-3878
▁houses	-3879
ples	-3880
▁begin	-3881
sha	-3882
▁Mhm	-3883
▁wha	-3884
▁lion	-3885
▁manage	-3886
ago	-3887
▁crit	-3888
▁spirit	-3889
▁dinosaur	-3890
▁eager	-3891
▁und	-3892
▁iron	-3893
ural	-3894
asons	-3895
idden	-3896
▁More	-3897
▁Queen	-3898
can	-3899
pens	-3900
▁scar	-3901
▁drew	-3902
▁offe	-3903
▁market	-3904
ira	-3905
LY	-3906
▁surprised	-3907
▁completely	-3908
azing	-3909
▁Louis	-3910
▁ham	-3911
▁While	-3912
oved	-3913
min	-3914
cks	-3915
▁formed	-3916
▁empty	-3917
▁Ham	-3918
father	-3919
ees	-3920
essel	-3921
▁college	-3922
▁starting	-3923
▁cere	-3924
▁Mexic	-3925
▁employ	-3926
▁grad	-3927
reen	-3928
stit	-3929
▁pun	-3930
▁moves	-3931
▁lid	-3932
▁naughty	-3933
iel	-3934
▁scene	-3935
▁professional	-3936
ivid	-3937
iled	-3938
▁Perhaps	-3939
▁woods	-3940
ashion	-3941
▁background	-3942
ups	-3943
▁Lee	-3944
▁crazy	-3945
▁Saturday	-3946
▁wit	-3947
face	-3948
▁tap	-3949
ularly	-3950
▁shirt	-3951
ences	-3952
oles	-3953
▁weap	-3954
▁mater	-3955
▁fault	-3956
▁Bu	-3957
▁trave	-3958
sey	-3959
▁micro	-3960
ighs	-3961
▁Tod	-3962
▁gate	-3963
▁sharp	-3964
▁crew	-3965
▁hero	-3966
▁mam	-3967
▁goodness	-3968
oring	-3969
▁techn	-3970
vocalizes	-3971
hand	-3972
▁Champions	-3973
heart	-3974
▁radio	-3975
asc	-3976
▁filled	-3977
▁Ha	-3978
▁HE	-3979
▁Mic	-3980
▁Anna	-3981
▁arrest	-3982
▁Nic	-3983
▁duty	-3984
▁nature	-3985
▁roof	-3986
OTH	-3987
outhern	-3988
gin	-3989
pin	-3990
onel	-3991
▁Tex	-3992
▁Port	-3993
▁immediately	-3994
cast	-3995
▁Sl	-3996
oves	-3997
▁Rem	-3998
▁computer	-3999
11	-4000
enny	-4001
▁regard	-4002
▁coast	-4003
▁puppet	-4004
▁threat	-4005
vious	-4006
icle	-4007
▁brush	-4008
▁manner	-4009
▁pleasant	-4010
cean	-4011
▁suff	-4012
▁fruit	-4013
▁social	-4014
vi	-4015
▁bound	-4016
▁ended	-4017
She	-4018
▁purple	-4019
IM	-4020
▁quarter	-4021
▁date	-4022
▁Bunny	-4023
▁civil	-4024
▁flower	-4025
utch	-4026
urse	-4027
▁expected	-4028
▁cabin	-4029
▁stran	-4030
▁Tim	-4031
▁deg	-4032
▁Mel	-4033
▁simply	-4034
All	-4035
▁announced	-4036
▁Scott	-4037
▁necessary	-4038
iest	-4039
oph	-4040
▁Charlie	-4041
yer	-4042
▁inj	-4043
picks	-4044
▁agree	-4045
Do	-4046
▁surv	-4047
▁needta	-4048
▁notice	-4049
▁tower	-4050
SIB	-4051
▁Steven	-4052
▁stream	-4053
▁actor	-4054
▁Could	-4055
▁vessel	-4056
▁therefore	-4057
▁higher	-4058
▁excited	-4059
▁influ	-4060
▁huge	-4061
▁Pre	-4062
▁Sch	-4063
▁believed	-4064
▁original	-4065
▁TV	-4066
▁European	-4067
▁fallen	-4068
▁tiger	-4069
▁opport	-4070
pa	-4071
▁faith	-4072
▁Foot	-4073
▁meaning	-4074
▁aud	-4075
▁dru	-4076
▁log	-4077
▁offer	-4078
▁pleased	-4079
▁thou	-4080
▁smart	-4081
▁cheer	-4082
▁custom	-4083
▁songs	-4084
▁sugar	-4085
▁lights	-4086
▁private	-4087
Then	-4088
▁cro	-4089
▁supper	-4090
▁experience	-4091
aine	-4092
.,	-4093
▁twice	-4094
▁plenty	-4095
rom	-4096
▁bless	-4097
roat	-4098
▁boo	-4099
▁Maggie	-4100
▁project	-4101
sil	-4102
▁bee	-4103
▁promised	-4104
▁political	-4105
▁pan	-4106
anced	-4107
▁military	-4108
▁modern	-4109
▁possess	-4110
▁lucky	-4111
▁purpose	-4112
▁allow	-4113
▁energy	-4114
▁plain	-4115
▁International	-4116
▁Grandma	-4117
▁usual	-4118
ae	-4119
▁Nat	-4120
▁dust	-4121
pper	-4122
ledge	-4123
ERE	-4124
▁Earth	-4125
▁travel	-4126
▁settle	-4127
puts	-4128
▁determ	-4129
▁Sal	-4130
▁lower	-4131
istan	-4132
inally	-4133
▁24	-4134
▁econom	-4135
▁soul	-4136
▁motor	-4137
▁snake	-4138
anch	-4139
▁whoops	-4140
ems	-4141
hest	-4142
▁kitty	-4143
▁singer	-4144
▁tone	-4145
▁painting	-4146
▁ident	-4147
▁Martin	-4148
ords	-4149
berry	-4150
▁edge	-4151
▁Des	-4152
▁Cath	-4153
▁grown	-4154
▁Pri	-4155
Not	-4156
▁Jose	-4157
▁brief	-4158
▁Dem	-4159
ossible	-4160
cip	-4161
she	-4162
▁feat	-4163
ours	-4164
itor	-4165
▁Gra	-4166
▁mostly	-4167
▁Gold	-4168
▁Council	-4169
ushes	-4170
▁awful	-4171
counter	-4172
▁produced	-4173
▁blow	-4174
▁municipality	-4175
▁depend	-4176
▁swimming	-4177
▁ge	-4178
van	-4179
▁net	-4180
▁Reg	-4181
ggie	-4182
ki	-4183
oups	-4184
ria	-4185
▁brave	-4186
▁grab	-4187
▁cart	-4188
▁runs	-4189
▁journey	-4190
abel	-4191
▁beach	-4192
▁haha	-4193
▁magic	-4194
▁note	-4195
▁gentleman	-4196
▁lake	-4197
takes	-4198
bing	-4199
ruction	-4200
mond	-4201
hips	-4202
ening	-4203
▁ant	-4204
▁Chan	-4205
don	-4206
▁indust	-4207
▁Sen	-4208
▁mouse	-4209
▁pin	-4210
▁saved	-4211
In	-4212
▁strength	-4213
▁Over	-4214
▁impro	-4215
ette	-4216
▁imagine	-4217
▁Max	-4218
ishes	-4219
oid	-4220
▁carefully	-4221
▁storm	-4222
▁trick	-4223
known	-4224
vey	-4225
bered	-4226
▁neg	-4227
brother	-4228
▁noticed	-4229
GHT	-4230
▁hotel	-4231
osing	-4232
ointed	-4233
bon	-4234
oted	-4235
▁Comp	-4236
▁Jud	-4237
usion	-4238
▁exist	-4239
▁Summer	-4240
▁opening	-4241
istr	-4242
▁Laura	-4243
This	-4244
▁earlier	-4245
▁terms	-4246
ators	-4247
cries	-4248
▁Texas	-4249
▁cookie	-4250
▁listening	-4251
aret	-4252
mar	-4253
eds	-4254
eer	-4255
ship	-4256
▁advent	-4257
▁choice	-4258
▁Street	-4259
▁interrupt	-4260
▁Union	-4261
chie	-4262
iber	-4263
▁message	-4264
▁mistake	-4265
▁evidence	-4266
▁Arab	-4267
CE	-4268
▁thus	-4269
FRI	-4270
▁Master	-4271
▁assist	-4272
▁officers	-4273
rance	-4274
▁seconds	-4275
▁smoke	-4276
▁scream	-4277
▁Mil	-4278
▁stret	-4279
▁Hon	-4280
bie	-4281
▁ordered	-4282
eg	-4283
uckles	-4284
agon	-4285
▁imm	-4286
▁deck	-4287
ively	-4288
▁slide	-4289
▁trail	-4290
initely	-4291
▁Put	-4292
hington	-4293
▁guns	-4294
▁191	-4295
▁pause	-4296
▁Russian	-4297
▁double	-4298
SOA	-4299
lebr	-4300
▁pound	-4301
▁dirty	-4302
▁attract	-4303
▁election	-4304
▁census	-4305
▁knife	-4306
▁Sometimes	-4307
▁sac	-4308
▁total	-4309
▁struck	-4310
▁growing	-4311
ugg	-4312
▁ladies	-4313
▁tears	-4314
ners	-4315
▁weight	-4316
itation	-4317
▁bomb	-4318
▁Pal	-4319
▁Italian	-4320
▁orders	-4321
▁button	-4322
▁choose	-4323
▁strugg	-4324
▁heads	-4325
ij	-4326
▁occup	-4327
oming	-4328
kins	-4329
▁delic	-4330
▁downstairs	-4331
▁pair	-4332
▁Del	-4333
OL	-4334
▁shad	-4335
tr	-4336
eech	-4337
▁newsp	-4338
▁nea	-4339
oons	-4340
▁involved	-4341
▁keeping	-4342
▁flag	-4343
▁marry	-4344
▁Kingdom	-4345
vere	-4346
inese	-4347
▁mummy	-4348
▁ME	-4349
▁non	-4350
eless	-4351
▁Scot	-4352
Is	-4353
ett	-4354
▁Hur	-4355
▁stairs	-4356
▁Italy	-4357
ental	-4358
▁Play	-4359
▁estab	-4360
▁epis	-4361
▁DO	-4362
▁cards	-4363
▁personal	-4364
30	-4365
▁calm	-4366
▁taught	-4367
▁wand	-4368
▁shake	-4369
▁Dar	-4370
▁China	-4371
▁stock	-4372
▁occur	-4373
▁fellows	-4374
▁rule	-4375
▁Canada	-4376
▁ble	-4377
▁earn	-4378
▁meal	-4379
eaks	-4380
▁Once	-4381
▁Cos	-4382
▁telephone	-4383
RYA	-4384
▁Wil	-4385
▁Washington	-4386
▁chem	-4387
▁walks	-4388
▁shoulder	-4389
▁bowl	-4390
▁nest	-4391
AK	-4392
▁Win	-4393
▁dancing	-4394
CAT	-4395
▁thee	-4396
▁Ross	-4397
burg	-4398
▁Those	-4399
▁calls	-4400
back	-4401
▁Acc	-4402
▁Club	-4403
istics	-4404
▁2018	-4405
▁pit	-4406
▁tells	-4407
ify	-4408
▁youth	-4409
▁lips	-4410
▁groups	-4411
▁vo	-4412
▁Rog	-4413
eman	-4414
▁tv	-4415
lected	-4416
▁Cong	-4417
▁Lady	-4418
▁Purd	-4419
▁amb	-4420
▁bother	-4421
▁remind	-4422
▁worried	-4423
▁gro	-4424
▁Bye	-4425
iction	-4426
pic	-4427
▁Hold	-4428
▁remem	-4429
▁continues	-4430
▁et	-4431
▁chap	-4432
▁Ire	-4433
▁bedroom	-4434
ucky	-4435
using	-4436
HE	-4437
▁whoa	-4438
▁row	-4439
▁disp	-4440
▁Love	-4441
▁areas	-4442
asp	-4443
▁published	-4444
izza	-4445
▁tong	-4446
▁regular	-4447
▁Dist	-4448
▁center	-4449
▁scient	-4450
▁Church	-4451
hah	-4452
▁address	-4453
▁begins	-4454
▁murder	-4455
ola	-4456
▁Flor	-4457
▁Adam	-4458
▁spoken	-4459
▁Out	-4460
has	-4461
urity	-4462
▁flight	-4463
▁fifteen	-4464
▁plants	-4465
ontin	-4466
▁Rock	-4467
▁Ned	-4468
umber	-4469
▁Boy	-4470
▁Friday	-4471
▁sides	-4472
mo	-4473
ero	-4474
▁Ken	-4475
omen	-4476
actor	-4477
▁fixed	-4478
bel	-4479
▁Sus	-4480
▁App	-4481
▁FOR	-4482
▁unc	-4483
aked	-4484
▁surr	-4485
▁Purdie	-4486
▁tries	-4487
▁[?	-4488
▁gall	-4489
▁Santa	-4490
▁Dep	-4491
▁toast	-4492
jo	-4493
⌉.	-4494
sing	-4495
▁Mont	-4496
▁forgotten	-4497
▁founded	-4498
▁Up	-4499
JEN	-4500
oured	-4501
▁Beck	-4502
▁firm	-4503
----------------	-4504
nce	-4505
▁Braz	-4506
▁teach	-4507
iring	-4508
▁title	-4509
▁closer	-4510
▁absolutely	-4511
host	-4512
▁Everything	-4513
icated	-4514
▁Day	-4515
ols	-4516
▁acqu	-4517
▁smaller	-4518
▁prepared	-4519
▁impossible	-4520
yy	-4521
▁rapid	-4522
pet	-4523
▁independ	-4524
ourt	-4525
▁community	-4526
▁director	-4527
▁Ir	-4528
▁pil	-4529
▁shown	-4530
gypt	-4531
▁Cle	-4532
ulf	-4533
,000	-4534
▁rocks	-4535
▁wedd	-4536
▁harm	-4537
ule	-4538
▁dise	-4539
gress	-4540
▁Keep	-4541
▁reaches	-4542
igs	-4543
ez	-4544
▁inqu	-4545
⌋.	-4546
ittee	-4547
VAL	-4548
▁claim	-4549
▁neither	-4550
▁Fort	-4551
berg	-4552
▁appre	-4553
▁aged	-4554
▁tun	-4555
▁Spain	-4556
ordon	-4557
▁Four	-4558
▁IS	-4559
▁vac	-4560
▁Ooh	-4561
▁Africa	-4562
▁sour	-4563
▁jumped	-4564
▁changes	-4565
▁honor	-4566
▁Mount	-4567
▁21	-4568
Peter	-4569
▁pour	-4570
▁managed	-4571
▁Green	-4572
ique	-4573
▁Brazil	-4574
-1	-4575
▁evident	-4576
aving	-4577
▁wheels	-4578
▁enter	-4579
▁Care	-4580
▁loves	-4581
fly	-4582
▁bunny	-4583
▁price	-4584
▁version	-4585
cend	-4586
imin	-4587
▁Eve	-4588
▁heat	-4589
▁Lat	-4590
▁boss	-4591
inger	-4592
edy	-4593
▁()	-4594
▁Franc	-4595
▁env	-4596
▁bump	-4597
||1	-4598
▁batter	-4599
▁mult	-4600
▁Ray	-4601
ashing	-4602
▁Island	-4603
▁Res	-4604
▁heaven	-4605
▁correct	-4606
▁plans	-4607
▁ninete	-4608
oughs	-4609
▁training	-4610
▁located	-4611
ari	-4612
▁loss	-4613
▁quietly	-4614
yr	-4615
VER	-4616
▁celebr	-4617
▁movement	-4618
▁gentlemen	-4619
▁brain	-4620
▁lem	-4621
▁rate	-4622
▁ho	-4623
▁emer	-4624
▁Smith	-4625
▁Cat	-4626
▁pool	-4627
▁normal	-4628
▁cousin	-4629
1)	-4630
▁Egypt	-4631
▁Chinese	-4632
▁medicine	-4633
▁bat	-4634
▁occasion	-4635
▁lap	-4636
▁oil	-4637
▁investig	-4638
▁Another	-4639
▁drinking	-4640
▁Mo	-4641
▁uhuh	-4642
arliam	-4643
▁sandwich	-4644
▁pill	-4645
▁Bear	-4646
▁pa	-4647
▁everywhere	-4648
do	-4649
isa	-4650
▁marriage	-4651
2)	-4652
▁eleven	-4653
▁education	-4654
▁desp	-4655
aning	-4656
▁contract	-4657
▁thy	-4658
▁opportunity	-4659
▁Mond	-4660
babbles	-4661
▁suggested	-4662
▁Mike	-4663
▁Alice	-4664
looking	-4665
▁AM	-4666
▁Law	-4667
▁carrying	-4668
▁(20	-4669
▁eld	-4670
▁ta	-4671
▁’	-4672
▁bal	-4673
▁cases	-4674
▁electric	-4675
▁stayed	-4676
rot	-4677
▁remained	-4678
▁Hal	-4679
urns	-4680
llen	-4681
▁trade	-4682
arliament	-4683
oms	-4684
arently	-4685
Come	-4686
▁speech	-4687
▁showing	-4688
--"	-4689
▁bits	-4690
▁intern	-4691
▁cred	-4692
▁papers	-4693
ching	-4694
▁print	-4695
▁generally	-4696
▁peas	-4697
▁individ	-4698
ios	-4699
ella	-4700
eping	-4701
Ch	-4702
▁finding	-4703
ruct	-4704
▁magaz	-4705
iron	-4706
▁Prince	-4707
▁tum	-4708
▁rules	-4709
▁23	-4710
▁actress	-4711
ipper	-4712
▁crime	-4713
eted	-4714
▁practice	-4715
▁bike	-4716
▁faces	-4717
▁softly	-4718
▁[2	-4719
pan	-4720
▁upset	-4721
▁Award	-4722
▁surface	-4723
▁falls	-4724
▁ancient	-4725
illed	-4726
▁kinds	-4727
▁Ver	-4728
ker	-4729
▁female	-4730
▁sch	-4731
▁mail	-4732
▁doors	-4733
▁rout	-4734
nic	-4735
west	-4736
▁fourth	-4737
▁Jean	-4738
ooh	-4739
▁Swed	-4740
▁avail	-4741
▁Kore	-4742
▁Bern	-4743
▁opin	-4744
▁pizza	-4745
▁events	-4746
▁Jew	-4747
▁Chic	-4748
▁exec	-4749
anche	-4750
▁Wind	-4751
▁Gar	-4752
▁bub	-4753
▁Something	-4754
▁associ	-4755
▁tie	-4756
▁condition	-4757
aled	-4758
▁product	-4759
OS	-4760
aries	-4761
▁percent	-4762
▁stands	-4763
▁mut	-4764
osta	-4765
▁polic	-4766
▁Olympics	-4767
▁province	-4768
cing	-4769
▁proceed	-4770
▁tent	-4771
▁fashion	-4772
▁leading	-4773
▁ourselves	-4774
aa	-4775
wing	-4776
▁grave	-4777
osh	-4778
▁Bea	-4779
iety	-4780
▁prim	-4781
▁range	-4782
▁offered	-4783
▁prevent	-4784
▁Lie	-4785
▁ninety	-4786
▁motion	-4787
▁weak	-4788
▁brothers	-4789
ata	-4790
Let	-4791
▁rope	-4792
▁Bessie	-4793
▁Ruth	-4794
▁aunt	-4795
▁liter	-4796
▁obviously	-4797
aft	-4798
▁shr	-4799
▁oo	-4800
▁ships	-4801
▁risk	-4802
▁Still	-4803
▁dolly	-4804
▁helping	-4805
▁Vir	-4806
▁Bart	-4807
▁opposite	-4808
▁50	-4809
▁decision	-4810
rees	-4811
▁yyy	-4812
▁sixty	-4813
▁boats	-4814
▁dread	-4815
__	-4816
ademy	-4817
▁Rec	-4818
▁pir	-4819
▁sake	-4820
GE	-4821
▁Chief	-4822
▁peek	-4823
▁blind	-4824
▁novel	-4825
▁Isn	-4826
▁Gordon	-4827
▁craw	-4828
▁Dis	-4829
▁Bonnet	-4830
▁continue	-4831
▁Vict	-4832
▁mountains	-4833
illiant	-4834
▁suspect	-4835
▁walls	-4836
▁throat	-4837
volution	-4838
rid	-4839
▁Sun	-4840
worth	-4841
▁sits	-4842
▁according	-4843
▁sees	-4844
▁artist	-4845
▁shell	-4846
▁whispered	-4847
▁190	-4848
▁balloon	-4849
cellent	-4850
ials	-4851
▁22	-4852
▁neighbor	-4853
ounce	-4854
▁resc	-4855
▁easier	-4856
▁Ok	-4857
▁glasses	-4858
▁saf	-4859
asy	-4860
▁towel	-4861
▁victim	-4862
▁frightened	-4863
So	-4864
▁Pet	-4865
gn	-4866
▁~	-4867
ocrat	-4868
▁studio	-4869
▁Rose	-4870
da	-4871
▁stir	-4872
▁wedding	-4873
▁alt	-4874
▁2000	-4875
onse	-4876
▁wine	-4877
▁contact	-4878
itional	-4879
▁shouted	-4880
mn	-4881
▁uses	-4882
▁council	-4883
rif	-4884
▁ox	-4885
anny	-4886
▁Marg	-4887
note	-4888
▁Super	-4889
▁centre	-4890
▁Huh	-4891
▁keeps	-4892
ented	-4893
▁ideas	-4894
useum	-4895
▁nurse	-4896
▁tongue	-4897
▁appearance	-4898
▁perm	-4899
▁microphone	-4900
lyn	-4901
▁greatest	-4902
▁tar	-4903
▁Sea	-4904
▁affect	-4905
oking	-4906
iana	-4907
ores	-4908
izing	-4909
ellig	-4910
stood	-4911
▁attend	-4912
▁rights	-4913
▁extreme	-4914
▁Wow	-4915
▁flo	-4916
▁detect	-4917
▁ladd	-4918
▁younger	-4919
UK	-4920
▁smiled	-4921
▁successful	-4922
▁knee	-4923
▁Eliz	-4924
▁Chris	-4925
▁aver	-4926
filler	-4927
▁style	-4928
....	-4929
▁Sil	-4930
▁comfortable	-4931
rist	-4932
▁desk	-4933
▁nineteen	-4934
▁windows	-4935
ache	-4936
50	-4937
urt	-4938
wr	-4939
▁dare	-4940
▁pump	-4941
▁students	-4942
▁model	-4943
▁Saint	-4944
▁histor	-4945
▁retired	-4946
▁official	-4947
▁possibly	-4948
▁Dutch	-4949
▁bisc	-4950
bout	-4951
abeth	-4952
GR	-4953
▁Pop	-4954
▁shopping	-4955
rick	-4956
▁deb	-4957
▁chat	-4958
cise	-4959
▁crash	-4960
▁willing	-4961
▁reck	-4962
tering	-4963
▁anxious	-4964
▁Ter	-4965
▁Jer	-4966
▁doin	-4967
▁cy	-4968
olic	-4969
arily	-4970
▁Dick	-4971
▁Emp	-4972
▁perfectly	-4973
▁suc	-4974
▁bark	-4975
▁Major	-4976
▁vocal	-4977
cream	-4978
▁dun	-4979
esty	-4980
nods	-4981
▁purs	-4982
▁bringing	-4983
-19	-4984
▁mentioned	-4985
hab	-4986
▁decide	-4987
▁judge	-4988
▁beauty	-4989
▁settled	-4990
den	-4991
▁obl	-4992
aws	-4993
ini	-4994
▁zoo	-4995
just	-4996
▁cities	-4997
▁narrow	-4998
▁Joseph	-4999
▁whist	-5000
▁Far	-5001
▁shook	-5002
ota	-5003
ENT	-5004
▁odd	-5005
▁eaten	-5006
▁definitely	-5007
▁airpl	-5008
▁waited	-5009
▁doc	-5010
▁succeed	-5011
▁nursery	-5012
▁bathroom	-5013
▁holiday	-5014
vest	-5015
▁nap	-5016
▁Fire	-5017
▁award	-5018
▁Da	-5019
asing	-5020
iano	-5021
IGHT	-5022
▁Jones	-5023
▁Rome	-5024
▁Sing	-5025
”.	-5026
ga	-5027
▁coach	-5028
▁forced	-5029
▁riding	-5030
▁society	-5031
▁explained	-5032
▁directly	-5033
▁2,	-5034
▁reply	-5035
silence	-5036
▁steal	-5037
fection	-5038
semb	-5039
▁Lake	-5040
▁defend	-5041
ification	-5042
▁circum	-5043
▁biggest	-5044
▁Bay	-5045
▁beep	-5046
▁Alright	-5047
atory	-5048
▁included	-5049
▁cong	-5050
▁prove	-5051
▁favour	-5052
▁Art	-5053
ste	-5054
▁realize	-5055
▁26	-5056
▁Monday	-5057
▁poet	-5058
sych	-5059
▁Under	-5060
▁furn	-5061
rem	-5062
▁memory	-5063
fortun	-5064
▁Kat	-5065
omm	-5066
orough	-5067
▁string	-5068
book	-5069
▁bare	-5070
▁pencil	-5071
with	-5072
▁otherwise	-5073
▁conv	-5074
▁neat	-5075
▁fairly	-5076
▁studied	-5077
itar	-5078
▁Kim	-5079
▁developed	-5080
▁afterwards	-5081
▁mud	-5082
▁schools	-5083
lor	-5084
▁Wel	-5085
▁ign	-5086
▁Profess	-5087
orter	-5088
ii	-5089
▁duh	-5090
idding	-5091
ooth	-5092
▁shel	-5093
ading	-5094
▁silent	-5095
▁mission	-5096
CT	-5097
▁brilliant	-5098
▁Nick	-5099
▁clown	-5100
▁flew	-5101
▁wise	-5102
▁Life	-5103
sm	-5104
▁fence	-5105
sequ	-5106
▁Step	-5107
▁Although	-5108
▁properly	-5109
▁Has	-5110
▁Ange	-5111
▁highest	-5112
▁knowledge	-5113
▁particularly	-5114
▁lawyer	-5115
▁der	-5116
Where	-5117
▁meth	-5118
▁Wood	-5119
▁yup	-5120
▁washing	-5121
odes	-5122
▁bi	-5123
▁Post	-5124
▁wa	-5125
▁Army	-5126
▁manager	-5127
ogether	-5128
▁somewhat	-5129
▁CO	-5130
▁rust	-5131
▁performan	-5132
othy	-5133
▁Nice	-5134
isions	-5135
ses	-5136
▁une	-5137
▁writer	-5138
▁science	-5139
▁murd	-5140
▁appreci	-5141
▁mere	-5142
▁monster	-5143
▁Jeff	-5144
▁According	-5145
cely	-5146
▁kinda	-5147
▁feels	-5148
▁blanket	-5149
▁salt	-5150
▁Young	-5151
▁pages	-5152
▁powerful	-5153
▁eighty	-5154
▁escap	-5155
▁--	-5156
STE	-5157
▁larger	-5158
uits	-5159
▁afford	-5160
"]	-5161
▁Ry	-5162
▁rings	-5163
▁hanging	-5164
▁soldier	-5165
aly	-5166
▁Bre	-5167
then	-5168
▁bin	-5169
iling	-5170
▁wave	-5171
▁[3	-5172
▁repeated	-5173
▁thoughts	-5174
boy	-5175
icked	-5176
▁respond	-5177
▁Lind	-5178
▁castle	-5179
▁players	-5180
▁cute	-5181
▁evil	-5182
▁shock	-5183
kend	-5184
▁text	-5185
icles	-5186
▁signed	-5187
▁Den	-5188
▁arch	-5189
ockey	-5190
opher	-5191
▁Both	-5192
▁talks	-5193
▁cit	-5194
uf	-5195
▁fund	-5196
▁stro	-5197
▁mate	-5198
▁knowing	-5199
ALL	-5200
ube	-5201
▁tid	-5202
ingu	-5203
▁Prin	-5204
▁safety	-5205
▁Es	-5206
▁—	-5207
▁GO	-5208
atoes	-5209
▁teams	-5210
▁troub	-5211
▁soup	-5212
▁Call	-5213
▁Po	-5214
▁plat	-5215
place	-5216
▁development	-5217
▁vote	-5218
▁metal	-5219
▁Russia	-5220
▁Andy	-5221
▁rib	-5222
▁Roger	-5223
▁swing	-5224
▁feelings	-5225
▁tim	-5226
IF	-5227
oned	-5228
acks	-5229
ulty	-5230
▁horsie	-5231
▁disease	-5232
▁services	-5233
reg	-5234
▁27	-5235
▁Fe	-5236
uments	-5237
▁research	-5238
dro	-5239
bell	-5240
vert	-5241
▁cloth	-5242
▁serve	-5243
▁invent	-5244
▁fought	-5245
▁reve	-5246
▁prefer	-5247
▁1.	-5248
▁Ron	-5249
▁states	-5250
▁remarked	-5251
▁pushed	-5252
▁Florida	-5253
▁concerned	-5254
▁mel	-5255
▁barn	-5256
▁passing	-5257
▁Royal	-5258
▁produc	-5259
▁matters	-5260
adian	-5261
▁thrown	-5262
▁available	-5263
▁Mass	-5264
ilies	-5265
▁Lara	-5266
▁Last	-5267
▁poo	-5268
ription	-5269
imit	-5270
▁waste	-5271
▁disappeared	-5272
▁hurried	-5273
amps	-5274
▁elected	-5275
rael	-5276
umps	-5277
▁wondering	-5278
sec	-5279
▁hug	-5280
▁wings	-5281
▁fancy	-5282
▁response	-5283
▁nomin	-5284
JES	-5285
eta	-5286
mark	-5287
rant	-5288
▁exer	-5289
▁farmer	-5290
▁boots	-5291
▁hook	-5292
▁smiling	-5293
▁effort	-5294
isher	-5295
▁Indians	-5296
▁distrib	-5297
vo	-5298
▁remembered	-5299
▁nerv	-5300
0,000	-5301
▁Long	-5302
▁burst	-5303
ION	-5304
▁29	-5305
▁male	-5306
7)	-5307
rans	-5308
▁tractor	-5309
▁forever	-5310
▁Early	-5311
▁Today	-5312
holds	-5313
▁Hot	-5314
▁Chicago	-5315
▁native	-5316
iliar	-5317
▁magn	-5318
▁Cast	-5319
pering	-5320
▁hearing	-5321
aign	-5322
ansas	-5323
▁keys	-5324
thur	-5325
▁sink	-5326
▁depart	-5327
▁Im	-5328
▁screw	-5329
▁arrange	-5330
▁Mur	-5331
▁Barb	-5332
▁opinion	-5333
itan	-5334
▁Fine	-5335
▁fired	-5336
▁knocked	-5337
lla	-5338
▁international	-5339
▁Victor	-5340
▁value	-5341
▁doggie	-5342
▁wan	-5343
rows	-5344
▁debut	-5345
road	-5346
▁goal	-5347
▁chest	-5348
etch	-5349
▁pred	-5350
gers	-5351
▁wished	-5352
gency	-5353
▁pressure	-5354
▁Hy	-5355
▁Sov	-5356
▁opens	-5357
▁latter	-5358
▁Think	-5359
▁189	-5360
fall	-5361
pill	-5362
▁Greek	-5363
ironment	-5364
ban	-5365
gent	-5366
▁rare	-5367
▁appl	-5368
▁related	-5369
▁nope	-5370
▁thin	-5371
▁bod	-5372
▁sen	-5373
▁clearly	-5374
achel	-5375
ram	-5376
Good	-5377
▁Steve	-5378
▁Van	-5379
▁Prov	-5380
▁failed	-5381
▁mor	-5382
▁Time	-5383
ona	-5384
▁weird	-5385
▁greater	-5386
▁horn	-5387
▁languages	-5388
iggles	-5389
▁Squ	-5390
bey	-5391
▁Academy	-5392
_.	-5393
ipping	-5394
▁witness	-5395
▁Lin	-5396
▁dozen	-5397
▁advant	-5398
▁cooking	-5399
Who	-5400
ients	-5401
itzer	-5402
▁veget	-5403
year	-5404
▁drawn	-5405
obile	-5406
ishment	-5407
▁weekend	-5408
▁Ellie	-5409
▁dere	-5410
▁Australian	-5411
▁aware	-5412
▁Secret	-5413
▁[$	-5414
▁foc	-5415
chief	-5416
▁Western	-5417
▁tied	-5418
▁worst	-5419
Al	-5420
IL	-5421
▁Val	-5422
▁pra	-5423
▁Edward	-5424
▁joke	-5425
▁forces	-5426
war	-5427
bits	-5428
sed	-5429
▁28	-5430
▁Didn	-5431
▁yay	-5432
▁folks	-5433
▁fishing	-5434
7]	-5435
hum	-5436
▁fully	-5437
▁Gab	-5438
▁HA	-5439
▁Mexico	-5440
▁patient	-5441
▁queen	-5442
ological	-5443
▁positive	-5444
▁Nobody	-5445
▁staying	-5446
▁Lab	-5447
▁bend	-5448
▁friendly	-5449
▁Night	-5450
▁cancer	-5451
▁Pen	-5452
▁staff	-5453
▁property	-5454
craft	-5455
▁Make	-5456
▁ahhah	-5457
▁gather	-5458
▁Atl	-5459
▁Haw	-5460
▁Jerry	-5461
▁mile	-5462
reedom	-5463
▁relationship	-5464
▁expens	-5465
▁qual	-5466
▁faster	-5467
▁Each	-5468
▁College	-5469
▁entirely	-5470
tons	-5471
▁Baby	-5472
▁express	-5473
▁garage	-5474
▁material	-5475
they	-5476
▁site	-5477
▁Virgin	-5478
▁Six	-5479
▁drove	-5480
▁Bes	-5481
▁dism	-5482
▁throwing	-5483
▁RE	-5484
aming	-5485
▁Pak	-5486
▁"'	-5487
▁previous	-5488
quar	-5489
▁gat	-5490
▁Central	-5491
▁District	-5492
▁Sol	-5493
▁admin	-5494
▁¶	-5495
aterpill	-5496
▁average	-5497
▁voices	-5498
▁shoulders	-5499
▁fond	-5500
ias	-5501
▁Os	-5502
▁ghost	-5503
▁release	-5504
▁arg	-5505
▁gently	-5506
▁mo	-5507
orks	-5508
▁Israel	-5509
▁sposta	-5510
▁Hum	-5511
▁ends	-5512
BC	-5513
▁Back	-5514
▁cats	-5515
▁Prime	-5516
bow	-5517
▁rom	-5518
▁airplane	-5519
An	-5520
▁theory	-5521
otion	-5522
▁SE	-5523
▁distur	-5524
▁signal	-5525
▁aye	-5526
vy	-5527
ila	-5528
spect	-5529
ilities	-5530
▁excellent	-5531
ibility	-5532
▁touched	-5533
▁Rom	-5534
peror	-5535
▁Ireland	-5536
▁presence	-5537
▁excit	-5538
▁knees	-5539
▁Jimmy	-5540
▁drops	-5541
▁cookies	-5542
▁African	-5543
▁tough	-5544
▁cris	-5545
▁episode	-5546
▁frequ	-5547
▁buried	-5548
▁loose	-5549
▁northern	-5550
appy	-5551
▁reported	-5552
asty	-5553
▁Governor	-5554
zzz	-5555
istic	-5556
▁troops	-5557
bird	-5558
▁libr	-5559
whispers	-5560
onder	-5561
▁Div	-5562
May	-5563
▁mixed	-5564
▁acting	-5565
▁Professor	-5566
▁realized	-5567
▁crown	-5568
▁ocean	-5569
ropical	-5570
▁figures	-5571
▁determined	-5572
see	-5573
▁Spe	-5574
▁gaz	-5575
▁boxes	-5576
▁expression	-5577
ware	-5578
▁Syl	-5579
▁newspaper	-5580
▁aft	-5581
▁crayons	-5582
▁becoming	-5583
apt	-5584
▁fold	-5585
ulations	-5586
▁shooting	-5587
uns	-5588
▁40	-5589
▁Jon	-5590
▁prepar	-5591
▁central	-5592
▁Ba	-5593
▁Pap	-5594
▁Tommy	-5595
▁advice	-5596
▁Elizabeth	-5597
▁magnet	-5598
oos	-5599
▁Best	-5600
pret	-5601
▁maid	-5602
▁[1.	-5603
▁Next	-5604
▁rank	-5605
▁understood	-5606
▁objects	-5607
igned	-5608
▁diam	-5609
▁mirror	-5610
tt	-5611
aging	-5612
▁Aye	-5613
▁Whe	-5614
▁cups	-5615
▁plastic	-5616
▁WHAT	-5617
▁reasons	-5618
▁carriage	-5619
▁188	-5620
▁Bal	-5621
tained	-5622
ANT	-5623
▁travell	-5624
▁Scotland	-5625
▁types	-5626
▁Ap	-5627
alled	-5628
sters	-5629
▁Ted	-5630
▁Tra	-5631
▁Later	-5632
▁Fore	-5633
▁includes	-5634
▁Los	-5635
▁socks	-5636
▁pulling	-5637
bury	-5638
9)	-5639
▁veh	-5640
▁Mars	-5641
uan	-5642
isha	-5643
▁yard	-5644
▁Again	-5645
ba	-5646
▁Les	-5647
▁familiar	-5648
▁fan	-5649
▁stom	-5650
isco	-5651
▁gift	-5652
inc	-5653
ppy	-5654
▁described	-5655
▁Bird	-5656
▁toes	-5657
ocratic	-5658
▁sports	-5659
unts	-5660
▁lies	-5661
▁circumst	-5662
▁darkness	-5663
▁Cons	-5664
▁stones	-5665
tw	-5666
▁formula	-5667
▁paying	-5668
▁Lieutenant	-5669
TH	-5670
fa	-5671
▁Five	-5672
▁Help	-5673
IK	-5674
3)	-5675
▁cheek	-5676
▁pointing	-5677
▁Star	-5678
▁minister	-5679
UST	-5680
iot	-5681
ential	-5682
▁Julia	-5683
▁XX	-5684
▁courage	-5685
▁comment	-5686
▁university	-5687
▁Soviet	-5688
▁jumping	-5689
vis	-5690
▁entertain	-5691
▁byeb	-5692
▁pointed	-5693
▁psych	-5694
▁quack	-5695
oving	-5696
▁instant	-5697
▁Met	-5698
▁tip	-5699
▁yummy	-5700
▁fart	-5701
▁186	-5702
▁Arthur	-5703
▁amazing	-5704
▁security	-5705
ILL	-5706
▁zzz	-5707
▁pulls	-5708
▁damage	-5709
▁wore	-5710
cel	-5711
▁families	-5712
OME	-5713
ands	-5714
▁hidden	-5715
▁excitement	-5716
osition	-5717
▁cutting	-5718
put	-5719
angle	-5720
▁stops	-5721
▁degree	-5722
▁beast	-5723
▁trains	-5724
▁icecream	-5725
ITH	-5726
▁receive	-5727
AND	-5728
▁pic	-5729
▁task	-5730
▁Rh	-5731
▁MY	-5732
▁Edd	-5733
▁puppy	-5734
▁sport	-5735
▁stranger	-5736
▁aside	-5737
▁suspic	-5738
▁Ow	-5739
▁Colonel	-5740
▁campaign	-5741
▁por	-5742
▁[.	-5743
▁planet	-5744
▁gathered	-5745
▁lone	-5746
▁3,	-5747
▁km	-5748
▁characters	-5749
▁rise	-5750
▁ladder	-5751
▁innoc	-5752
berries	-5753
▁partner	-5754
▁locked	-5755
▁Canadian	-5756
▁sweetheart	-5757
▁Brother	-5758
▁wid	-5759
▁waves	-5760
▁Way	-5761
▁perform	-5762
ribe	-5763
▁Hill	-5764
▁Brian	-5765
▁dying	-5766
▁desper	-5767
▁apparently	-5768
▁Chair	-5769
▁Had	-5770
ulous	-5771
▁matches	-5772
atsy	-5773
▁Lar	-5774
ension	-5775
▁southern	-5776
hess	-5777
▁leaf	-5778
sung	-5779
▁Son	-5780
▁policy	-5781
6)	-5782
▁Empire	-5783
aring	-5784
▁byebye	-5785
▁screen	-5786
▁observed	-5787
▁Irish	-5788
▁butterfly	-5789
▁Corn	-5790
aining	-5791
▁surely	-5792
▁magazine	-5793
▁copy	-5794
▁yards	-5795
IE	-5796
ima	-5797
▁Girl	-5798
law	-5799
▁Cla	-5800
▁tom	-5801
enced	-5802
▁activity	-5803
ois	-5804
▁Women	-5805
4)	-5806
igr	-5807
5)	-5808
▁throughout	-5809
▁forms	-5810
▁communic	-5811
▁confess	-5812
ja	-5813
▁fac	-5814
ooper	-5815
oston	-5816
▁jigs	-5817
▁Hmm	-5818
▁hunt	-5819
illing	-5820
▁Sk	-5821
▁boom	-5822
▁Jimmie	-5823
▁companion	-5824
▁Ty	-5825
icking	-5826
▁2020,	-5827
ERS	-5828
▁vent	-5829
▁slept	-5830
▁sword	-5831
"?	-5832
pir	-5833
▁AT	-5834
▁NE	-5835
hell	-5836
ROZ	-5837
innie	-5838
down	-5839
▁ast	-5840
ctors	-5841
▁Championship	-5842
▁owner	-5843
:00	-5844
▁fairy	-5845
▁Fin	-5846
▁aim	-5847
▁meas	-5848
▁Nav	-5849
▁destroyed	-5850
▁Rod	-5851
iance	-5852
',	-5853
Be	-5854
▁Turn	-5855
▁apartment	-5856
▁wrest	-5857
▁Move	-5858
▁toil	-5859
▁Yet	-5860
▁saus	-5861
oma	-5862
▁sav	-5863
▁nervous	-5864
ishop	-5865
umn	-5866
▁curious	-5867
▁medical	-5868
▁western	-5869
▁slightly	-5870
▁Fa	-5871
▁gray	-5872
▁recently	-5873
.’	-5874
▁giant	-5875
▁pean	-5876
▁foreign	-5877
▁citiz	-5878
vocalize	-5879
ano	-5880
▁Anyway	-5881
▁effects	-5882
▁picking	-5883
neath	-5884
▁mamma	-5885
▁vir	-5886
▁Court	-5887
ua	-5888
▁candy	-5889
▁doggy	-5890
iverse	-5891
▁chairs	-5892
▁buildings	-5893
▁Hol	-5894
▁trunk	-5895
▁separate	-5896
ederal	-5897
▁Water	-5898
▁drama	-5899
met	-5900
▁Fox	-5901
▁treasure	-5902
▁besides	-5903
▁Hor	-5904
▁dreams	-5905
▁interview	-5906
uesday	-5907
IA	-5908
win	-5909
lim	-5910
▁Dorothy	-5911
▁progress	-5912
▁Sa	-5913
▁useful	-5914
▁Remember	-5915
▁wondered	-5916
▁champions	-5917
igan	-5918
ado	-5919
▁listened	-5920
5]	-5921
▁arran	-5922
▁wooden	-5923
▁phil	-5924
▁constit	-5925
▁THIS	-5926
▁contr	-5927
▁ess	-5928
▁blame	-5929
▁issue	-5930
▁streets	-5931
▁spr	-5932
▁rang	-5933
▁bunch	-5934
▁recorded	-5935
▁Lu	-5936
▁dish	-5937
▁fox	-5938
Here	-5939
▁request	-5940
▁rif	-5941
▁instr	-5942
▁channel	-5943
▁currently	-5944
mus	-5945
▁pow	-5946
▁init	-5947
gend	-5948
urance	-5949
ucle	-5950
▁Bra	-5951
▁spite	-5952
▁Ev	-5953
ilty	-5954
▁Lisa	-5955
▁tooth	-5956
▁sore	-5957
▁totally	-5958
▁Ly	-5959
itzerland	-5960
▁Americans	-5961
▁measure	-5962
▁stepped	-5963
▁symb	-5964
▁feather	-5965
▁Leave	-5966
▁active	-5967
▁Bus	-5968
hank	-5969
▁strike	-5970
dad	-5971
▁proved	-5972
▁encour	-5973
CA	-5974
▁spo	-5975
sighs	-5976
▁hammer	-5977
via	-5978
▁breaking	-5979
▁performance	-5980
▁score	-5981
▁owned	-5982
▁Fil	-5983
▁indic	-5984
▁Angeles	-5985
▁becomes	-5986
▁mainly	-5987
car	-5988
▁invited	-5989
▁Switzerland	-5990
za	-5991
▁helps	-5992
▁ours	-5993
aboo	-5994
▁Brad	-5995
▁statistics	-5996
▁Polly	-5997
▁trial	-5998
▁recorder	-5999
▁Dun	-6000
ights	-6001
▁autom	-6002
▁Show	-6003
▁rush	-6004
▁achie	-6005
▁desire	-6006
▁wounded	-6007
rane	-6008
▁Boston	-6009
cod	-6010
▁Should	-6011
▁sisters	-6012
▁clouds	-6013
mes	-6014
ursday	-6015
▁traffic	-6016
hh	-6017
▁map	-6018
▁data	-6019
▁influence	-6020
▁established	-6021
▁Camp	-6022
▁fier	-6023
▁laws	-6024
▁gor	-6025
lam	-6026
▁Sand	-6027
apping	-6028
IV	-6029
▁Ox	-6030
▁Second	-6031
▁handsome	-6032
▁performed	-6033
▁Jac	-6034
▁cash	-6035
▁credit	-6036
uries	-6037
▁Fer	-6038
▁rooms	-6039
▁[4	-6040
▁holes	-6041
▁Latin	-6042
▁lifted	-6043
▁grandma	-6044
▁hes	-6045
▁Eric	-6046
▁raise	-6047
▁enjoyed	-6048
3]	-6049
▁frogs	-6050
▁Mos	-6051
▁Down	-6052
▁sole	-6053
▁princess	-6054
hib	-6055
▁Dire	-6056
omer	-6057
rank	-6058
▁moo	-6059
▁trib	-6060
▁restaur	-6061
▁Everybody	-6062
▁Bas	-6063
umper	-6064
heast	-6065
▁patter	-6066
▁student	-6067
▁Rad	-6068
▁Government	-6069
▁branch	-6070
iece	-6071
▁environment	-6072
amin	-6073
▁Men	-6074
▁hunting	-6075
▁access	-6076
▁opt	-6077
▁Flore	-6078
▁pants	-6079
▁Pakistan	-6080
while	-6081
▁Bud	-6082
anches	-6083
▁liber	-6084
untary	-6085
▁oblig	-6086
▁rapidly	-6087
▁Gil	-6088
▁engaged	-6089
▁Off	-6090
▁bricks	-6091
erves	-6092
▁Ang	-6093
▁divided	-6094
▁caterpill	-6095
org	-6096
voc	-6097
▁Besides	-6098
▁Serv	-6099
▁sorts	-6100
▁2.	-6101
▁2010	-6102
▁somehow	-6103
ailed	-6104
▁prisoners	-6105
▁habit	-6106
▁NO	-6107
▁removed	-6108
▁responsible	-6109
▁Cam	-6110
▁fortune	-6111
▁companies	-6112
▁seventy	-6113
rang	-6114
▁unus	-6115
▁transl	-6116
▁gradu	-6117
anchester	-6118
▁underneath	-6119
itcher	-6120
▁wire	-6121
▁adop	-6122
▁rear	-6123
▁Hu	-6124
water	-6125
▁Pooh	-6126
aren	-6127
▁section	-6128
PE	-6129
▁rent	-6130
▁create	-6131
▁Land	-6132
▁craft	-6133
▁honour	-6134
▁splend	-6135
▁golden	-6136
▁Open	-6137
▁advantage	-6138
▁etc	-6139
▁banana	-6140
▁Peggy	-6141
▁recording	-6142
enth	-6143
▁mort	-6144
▁awake	-6145
▁target	-6146
2]	-6147
▁Georg	-6148
▁Fif	-6149
▁mama	-6150
▁Ill	-6151
▁Dada	-6152
▁Britain	-6153
▁exciting	-6154
▁Sur	-6155
osen	-6156
ednes	-6157
▁weapons	-6158
▁Zeal	-6159
▁upper	-6160
▁bodies	-6161
▁chips	-6162
▁AMY	-6163
▁Lucy	-6164
▁jacket	-6165
ocks	-6166
▁tear	-6167
▁burning	-6168
▁difficulty	-6169
▁WAS	-6170
▁borrow	-6171
▁Tor	-6172
▁lamb	-6173
▁normally	-6174
||2	-6175
▁Stay	-6176
engers	-6177
▁fields	-6178
▁scarcely	-6179
ault	-6180
▁nation	-6181
▁creature	-6182
▁production	-6183
▁SH	-6184
▁Nicole	-6185
ednesday	-6186
Did	-6187
▁forgive	-6188
▁unknown	-6189
▁learning	-6190
▁planning	-6191
▁Fre	-6192
icing	-6193
was	-6194
arts	-6195
▁evidently	-6196
▁wra	-6197
geant	-6198
estival	-6199
▁beneath	-6200
▁features	-6201
▁resist	-6202
▁horrible	-6203
▁(;	-6204
▁colour	-6205
▁pale	-6206
▁Ca	-6207
▁bloody	-6208
-2	-6209
▁review	-6210
▁alarm	-6211
▁dunno	-6212
▁towns	-6213
▁faint	-6214
▁landed	-6215
1]	-6216
fish	-6217
ds	-6218
istry	-6219
▁border	-6220
▁Associ	-6221
LAU	-6222
▁Becky	-6223
▁tender	-6224
▁territ	-6225
▁experien	-6226
▁glance	-6227
▁nearer	-6228
▁competed	-6229
ares	-6230
usted	-6231
▁gang	-6232
▁Zealand	-6233
▁closely	-6234
▁rolling	-6235
▁prize	-6236
▁deliver	-6237
ked	-6238
▁purse	-6239
▁greatly	-6240
▁symp	-6241
▁Bad	-6242
▁intellig	-6243
▁Parliament	-6244
▁Charl	-6245
▁equal	-6246
▁shower	-6247
▁Bru	-6248
▁brings	-6249
▁airport	-6250
▁sweetie	-6251
▁ben	-6252
DE	-6253
▁aer	-6254
▁shame	-6255
▁Int	-6256
▁soap	-6257
bu	-6258
▁Az	-6259
▁washed	-6260
▁Som	-6261
chuckles	-6262
ati	-6263
▁library	-6264
▁ordinary	-6265
▁exchan	-6266
▁jigsaw	-6267
▁terror	-6268
▁results	-6269
III	-6270
turns	-6271
▁Oliver	-6272
▁leaders	-6273
▁4,	-6274
▁nav	-6275
▁squee	-6276
▁lonely	-6277
pointing	-6278
rier	-6279
tin	-6280
▁Ram	-6281
iation	-6282
making	-6283
▁hearts	-6284
▁apolog	-6285
▁specific	-6286
▁Hind	-6287
▁unif	-6288
▁badly	-6289
inson	-6290
▁treated	-6291
▁whee	-6292
▁fal	-6293
▁hills	-6294
▁spider	-6295
ura	-6296
▁lou	-6297
coughs	-6298
▁losing	-6299
ée	-6300
▁bags	-6301
▁pony	-6302
Of	-6303
thew	-6304
▁kidding	-6305
▁UN	-6306
▁bears	-6307
▁baseball	-6308
▁beer	-6309
▁swear	-6310
▁sticks	-6311
▁slipped	-6312
umed	-6313
4]	-6314
ateg	-6315
▁Book	-6316
▁jobs	-6317
▁spare	-6318
▁Mister	-6319
ko	-6320
▁Whoa	-6321
▁lack	-6322
▁Watch	-6323
▁merry	-6324
▁trous	-6325
ointment	-6326
▁couch	-6327
▁guilty	-6328
ador	-6329
▁supply	-6330
▁Tre	-6331
▁Donald	-6332
▁Alexander	-6333
Ar	-6334
▁pond	-6335
▁homes	-6336
stein	-6337
▁Jess	-6338
▁goat	-6339
▁Town	-6340
▁Angel	-6341
▁transport	-6342
ties	-6343
▁dump	-6344
▁cot	-6345
▁branches	-6346
When	-6347
▁guitar	-6348
▁individual	-6349
yo	-6350
▁stomach	-6351
▁187	-6352
inned	-6353
▁lorry	-6354
▁suffe	-6355
▁Madame	-6356
eral	-6357
igator	-6358
▁deer	-6359
▁balls	-6360
▁grant	-6361
▁piano	-6362
▁descend	-6363
▁Sel	-6364
▁Hurry	-6365
..."	-6366
▁agre	-6367
▁reckon	-6368
▁Awards	-6369
▁commun	-6370
▁Tuesday	-6371
▁Dou	-6372
uous	-6373
▁Gran	-6374
▁queer	-6375
▁yo	-6376
▁Whatever	-6377
▁religion	-6378
18	-6379
ends	-6380
▁tal	-6381
▁eats	-6382
▁mustn	-6383
▁Someone	-6384
▁competition	-6385
stead	-6386
▁Thursday	-6387
acle	-6388
▁WITH	-6389
▁bone	-6390
▁smooth	-6391
GA	-6392
sell	-6393
icket	-6394
▁Alf	-6395
▁Bow	-6396
▁professor	-6397
▁Pot	-6398
▁goodbye	-6399
▁Jenny	-6400
▁bon	-6401
▁Stand	-6402
▁Florence	-6403
reck	-6404
▁Fair	-6405
▁pity	-6406
▁dolls	-6407
▁wagon	-6408
giggles	-6409
▁accepted	-6410
▁Ord	-6411
▁replaced	-6412
arian	-6413
bec	-6414
▁Also	-6415
▁musical	-6416
▁Ten	-6417
▁rushed	-6418
AB	-6419
▁decor	-6420
▁thousands	-6421
yal	-6422
ception	-6423
▁presents	-6424
▁gay	-6425
kee	-6426
▁signs	-6427
▁incident	-6428
▁circumstances	-6429
▁Sn	-6430
▁Nancy	-6431
▁relief	-6432
▁teaching	-6433
?'	-6434
SE	-6435
▁guest	-6436
▁mighty	-6437
▁industry	-6438
▁neighbour	-6439
▁MAN	-6440
▁Trans	-6441
▁candid	-6442
ELA	-6443
▁DE	-6444
▁ALL	-6445
▁chosen	-6446
▁victory	-6447
▁Catholic	-6448
▁lod	-6449
▁inha	-6450
▁myst	-6451
▁Shall	-6452
▁link	-6453
▁prisoner	-6454
▁lads	-6455
▁particip	-6456
▁nodd	-6457
▁pure	-6458
▁admit	-6459
▁Everyone	-6460
▁changing	-6461
▁Andrew	-6462
▁independent	-6463
▁Stone	-6464
▁pilot	-6465
▁0	-6466
▁Det	-6467
▁split	-6468
▁Congress	-6469
▁seriously	-6470
hall	-6471
▁protest	-6472
▁winning	-6473
▁upside	-6474
ST	-6475
eks	-6476
▁coal	-6477
▁invol	-6478
▁introduced	-6479
▁chim	-6480
▁hoping	-6481
▁delicious	-6482
▁originally	-6483
▁jam	-6484
▁pile	-6485
▁cher	-6486
▁pipe	-6487
▁Maria	-6488
▁refused	-6489
▁required	-6490
KAR	-6491
▁belongs	-6492
!'	-6493
▁Walter	-6494
kel	-6495
▁woof	-6496
▁presently	-6497
bling	-6498
▁bones	-6499
hus	-6500
▁wolf	-6501
▁Gal	-6502
▁gosh	-6503
Chi	-6504
rific	-6505
▁steam	-6506
▁apples	-6507
▁Majesty	-6508
6]	-6509
▁Daniel	-6510
▁Caroline	-6511
emies	-6512
mouth	-6513
▁sets	-6514
▁religious	-6515
ani	-6516
eps	-6517
▁chain	-6518
▁picnic	-6519
▁hurts	-6520
▁Matthew	-6521
▁planned	-6522
▁delay	-6523
▁setting	-6524
▁Firstname	-6525
▁Wednesday	-6526
▁Music	-6527
▁beans	-6528
▁avoid	-6529
▁gir	-6530
▁steady	-6531
esh	-6532
▁attacked	-6533
▁captured	-6534
▁fifth	-6535
▁pitcher	-6536
▁demon	-6537
▁content	-6538
▁curtain	-6539
eaking	-6540
▁grate	-6541
▁escaped	-6542
▁Games	-6543
▁champ	-6544
▁administr	-6545
this	-6546
▁Hea	-6547
▁hoped	-6548
▁Jackson	-6549
▁Jenn	-6550
▁cows	-6551
▁recognized	-6552
▁fant	-6553
▁stack	-6554
▁severe	-6555
▁pitch	-6556
▁mechan	-6557
▁Actually	-6558
▁expensive	-6559
▁lit	-6560
▁dishes	-6561
▁nic	-6562
▁advance	-6563
▁Province	-6564
alking	-6565
ending	-6566
▁jelly	-6567
rose	-6568
▁cru	-6569
▁flash	-6570
entr	-6571
▁Sally	-6572
▁tin	-6573
▁2021	-6574
12	-6575
▁Bi	-6576
▁Jun	-6577
▁farther	-6578
▁admir	-6579
▁hasta	-6580
▁intended	-6581
mhm	-6582
▁quality	-6583
▁counter	-6584
▁records	-6585
ELS	-6586
▁crossed	-6587
▁temperature	-6588
▁tummy	-6589
40	-6590
▁merc	-6591
rences	-6592
▁moments	-6593
▁divor	-6594
▁commer	-6595
▁shadow	-6596
▁Marie	-6597
▁Road	-6598
▁speaks	-6599
▁trousers	-6600
▁conditions	-6601
▁parties	-6602
▁Ald	-6603
▁Bell	-6604
▁grandfather	-6605
▁5,	-6606
▁Brook	-6607
▁thorough	-6608
▁Eddie	-6609
overy	-6610
▁throws	-6611
▁Run	-6612
▁Kent	-6613
▁rolled	-6614
▁Secretary	-6615
▁(200	-6616
▁tickle	-6617
▁grace	-6618
▁whenever	-6619
shine	-6620
▁lord	-6621
▁comedy	-6622
▁crocod	-6623
▁Sub	-6624
utions	-6625
▁gy	-6626
athy	-6627
icted	-6628
▁anti	-6629
▁source	-6630
▁Us	-6631
enger	-6632
▁remains	-6633
▁Sher	-6634
▁grandmother	-6635
▁Cont	-6636
stitute	-6637
▁policeman	-6638
▁satisfied	-6639
▁woke	-6640
▁x	-6641
▁provided	-6642
▁conce	-6643
▁trem	-6644
▁sentence	-6645
▁cruel	-6646
wa	-6647
▁KN	-6648
iture	-6649
▁III	-6650
▁notes	-6651
▁lesson	-6652
▁EX	-6653
▁weapon	-6654
▁challen	-6655
oli	-6656
▁Philip	-6657
▁recomm	-6658
lers	-6659
▁comr	-6660
▁Patsy	-6661
▁appears	-6662
▁rode	-6663
▁switch	-6664
fficient	-6665
iraffe	-6666
▁Annie	-6667
▁drown	-6668
olution	-6669
▁racing	-6670
▁adventure	-6671
COL	-6672
▁Tri	-6673
▁SO	-6674
▁aid	-6675
▁waters	-6676
▁culture	-6677
▁actual	-6678
▁diamond	-6679
▁ash	-6680
▁royal	-6681
iser	-6682
▁uns	-6683
▁1980	-6684
▁signific	-6685
ava	-6686
rough	-6687
▁Head	-6688
▁division	-6689
▁drunk	-6690
▁provide	-6691
▁entrance	-6692
there	-6693
▁Home	-6694
sembly	-6695
▁gained	-6696
▁drug	-6697
▁papa	-6698
▁squir	-6699
▁designed	-6700
▁lessons	-6701
▁demanded	-6702
▁eighteen	-6703
hamed	-6704
▁climbed	-6705
▁Domin	-6706
▁critic	-6707
▁Kitty	-6708
otte	-6709
▁rot	-6710
▁oven	-6711
▁finds	-6712
▁legal	-6713
▁bucket	-6714
▁Company	-6715
ros	-6716
emic	-6717
▁mummie	-6718
▁bitter	-6719
gery	-6720
py	-6721
isl	-6722
scream	-6723
▁annoy	-6724
▁useta	-6725
▁pushing	-6726
▁companions	-6727
rog	-6728
▁earnest	-6729
▁happiness	-6730
▁toss	-6731
cho	-6732
▁Di	-6733
ivity	-6734
▁quit	-6735
▁Molly	-6736
umes	-6737
umbled	-6738
▁appointed	-6739
▁rug	-6740
▁scary	-6741
▁Virginia	-6742
▁Deb	-6743
▁Rel	-6744
▁typ	-6745
▁load	-6746
▁poison	-6747
▁passage	-6748
▁dim	-6749
opter	-6750
▁sang	-6751
ancing	-6752
▁truly	-6753
▁climbing	-6754
▁guide	-6755
elled	-6756
▁rhy	-6757
▁Such	-6758
▁marks	-6759
ability	-6760
actually	-6761
▁recognize	-6762
▁structure	-6763
utive	-6764
▁Susan	-6765
▁eagerly	-6766
▁approach	-6767
▁connected	-6768
▁bac	-6769
alds	-6770
▁occurred	-6771
ami	-6772
▁wound	-6773
▁Marc	-6774
hia	-6775
five	-6776
▁code	-6777
▁belief	-6778
▁shining	-6779
▁owl	-6780
▁thir	-6781
▁Northern	-6782
VID	-6783
▁Hard	-6784
▁chop	-6785
▁liqu	-6786
▁Mickey	-6787
▁conqu	-6788
azz	-6789
▁jail	-6790
▁Ob	-6791
▁palace	-6792
▁systems	-6793
▁transfer	-6794
stone	-6795
▁fuss	-6796
playing	-6797
▁rescue	-6798
ouri	-6799
▁warning	-6800
▁cig	-6801
▁Gi	-6802
issa	-6803
▁pant	-6804
▁Footnote	-6805
hetti	-6806
▁sixteen	-6807
▁extremely	-6808
▁folk	-6809
▁arrested	-6810
▁function	-6811
KAT	-6812
▁Soon	-6813
▁rice	-6814
lection	-6815
▁slip	-6816
▁penny	-6817
▁produce	-6818
▁eventually	-6819
▁Cook	-6820
▁authority	-6821
▁consequ	-6822
Are	-6823
▁Matt	-6824
▁selected	-6825
▁BO	-6826
▁Pac	-6827
▁enemies	-6828
▁Bat	-6829
▁wealth	-6830
▁unfortun	-6831
▁Wall	-6832
▁statement	-6833
chair	-6834
▁lets	-6835
▁AL	-6836
▁foll	-6837
▁sings	-6838
▁standard	-6839
shouts	-6840
],	-6841
onsense	-6842
rots	-6843
▁cave	-6844
▁circus	-6845
▁splendid	-6846
▁fate	-6847
upp	-6848
aned	-6849
▁YOUR	-6850
otes	-6851
▁DON	-6852
▁sooner	-6853
▁hay	-6854
eding	-6855
▁oldest	-6856
▁delighted	-6857
▁Est	-6858
▁Hung	-6859
▁caterpillar	-6860
▁tiss	-6861
SC	-6862
▁Bomb	-6863
▁concentr	-6864
▁suffered	-6865
▁increased	-6866
▁guests	-6867
▁aston	-6868
▁noble	-6869
▁watches	-6870
▁2020)	-6871
▁prince	-6872
▁Ash	-6873
▁thirst	-6874
▁tunnel	-6875
▁sending	-6876
▁Chairman	-6877
▁Democratic	-6878
▁Nana	-6879
▁Stud	-6880
▁suppl	-6881
▁peekaboo	-6882
soft	-6883
▁Han	-6884
keep	-6885
▁elder	-6886
▁giraffe	-6887
▁philos	-6888
▁Him	-6889
▁Penn	-6890
▁increase	-6891
▁plus	-6892
▁hadta	-6893
▁commander	-6894
▁1990	-6895
▁2017	-6896
▁equip	-6897
▁fourteen	-6898
▁selling	-6899
▁discover	-6900
▁governor	-6901
▁roles	-6902
▁gotten	-6903
ervation	-6904
▁tale	-6905
▁Duke	-6906
▁Johnny	-6907
▁Sweden	-6908
▁Awww	-6909
▁Rachel	-6910
▁Mir	-6911
▁scratch	-6912
▁cam	-6913
▁killing	-6914
▁addition	-6915
▁grey	-6916
▁saving	-6917
▁du	-6918
▁Pers	-6919
▁Pier	-6920
hew	-6921
fers	-6922
▁stole	-6923
▁buttons	-6924
ture	-6925
▁harder	-6926
gt	-6927
▁6,	-6928
quarters	-6929
▁contrib	-6930
▁Cy	-6931
▁tracks	-6932
non	-6933
▁operation	-6934
▁seated	-6935
▁plates	-6936
▁regret	-6937
ico	-6938
▁medal	-6939
▁kindly	-6940
8)	-6941
atre	-6942
▁2011	-6943
▁belt	-6944
▁file	-6945
▁pron	-6946
umbling	-6947
▁freedom	-6948
▁Princess	-6949
▁wipe	-6950
▁shops	-6951
▁Association	-6952
▁highly	-6953
▁shouting	-6954
▁react	-6955
▁sorrow	-6956
▁HAVE	-6957
▁relax	-6958
▁fleet	-6959
▁innocent	-6960
▁jew	-6961
▁agent	-6962
▁spark	-6963
▁Sit	-6964
▁explos	-6965
▁Margaret	-6966
okes	-6967
▁Dave	-6968
8]	-6969
To	-6970
▁Att	-6971
▁lat	-6972
▁prof	-6973
▁altogether	-6974
ora	-6975
▁affair	-6976
▁arranged	-6977
▁nucle	-6978
▁Wales	-6979
▁league	-6980
▁appreciate	-6981
▁Cross	-6982
▁owe	-6983
▁Disney	-6984
Go	-6985
OUT	-6986
▁1970	-6987
▁Danny	-6988
draw	-6989
▁Kar	-6990
mi	-6991
Can	-6992
▁Anton	-6993
▁seats	-6994
▁UK	-6995
▁buddy	-6996
ito	-6997
▁Cur	-6998
▁breast	-6999
▁ticket	-7000
wald	-7001
invol	-7002
▁drugs	-7003
▁Williams	-7004
▁31	-7005
▁Portug	-7006
olk	-7007
▁bay	-7008
ELL	-7009
▁Mabel	-7010
eable	-7011
▁diss	-7012
ulance	-7013
▁toilet	-7014
▁pear	-7015
unting	-7016
▁shapes	-7017
▁passengers	-7018
▁nut	-7019
▁sons	-7020
▁spots	-7021
▁Bull	-7022
▁rum	-7023
Just	-7024
Look	-7025
▁jun	-7026
alais	-7027
▁Pan	-7028
▁kissed	-7029
▁Austria	-7030
▁improve	-7031
As	-7032
bin	-7033
▁bush	-7034
▁spect	-7035
▁Barbara	-7036
▁treatment	-7037
▁height	-7038
ige	-7039
▁McC	-7040
▁grapes	-7041
▁justice	-7042
▁potatoes	-7043
▁inhabit	-7044
uing	-7045
▁2019	-7046
▁marked	-7047
▁boun	-7048
▁media	-7049
▁spirits	-7050
cies	-7051
▁fork	-7052
9]	-7053
▁snap	-7054
▁Der	-7055
addle	-7056
▁worn	-7057
▁Nether	-7058
▁details	-7059
eau	-7060
aghetti	-7061
▁turtle	-7062
▁Poor	-7063
ifts	-7064
▁(199	-7065
▁crim	-7066
▁burned	-7067
▁distant	-7068
GER	-7069
awa	-7070
▁10,	-7071
ader	-7072
kiss	-7073
▁Year	-7074
Americ	-7075
▁Jason	-7076
alo	-7077
▁incl	-7078
▁7,	-7079
ieve	-7080
▁bent	-7081
contin	-7082
pot	-7083
▁Fam	-7084
▁NOT	-7085
kr	-7086
▁shed	-7087
involuntary	-7088
aved	-7089
amma	-7090
▁cott	-7091
▁chose	-7092
▁Rab	-7093
▁rat	-7094
▁Happy	-7095
60	-7096
sl	-7097
agn	-7098
▁Sid	-7099
▁kingdom	-7100
stra	-7101
▁Looks	-7102
▁network	-7103
▁Bor	-7104
▁cheap	-7105
▁poorly	-7106
▁flood	-7107
▁Want	-7108
▁sigh	-7109
▁nights	-7110
▁FAT	-7111
ji	-7112
▁journal	-7113
SS	-7114
▁cries	-7115
▁raining	-7116
cipal	-7117
▁accompl	-7118
KF	-7119
▁SIS	-7120
▁doo	-7121
▁painted	-7122
Ah	-7123
▁Asia	-7124
▁incred	-7125
▁Grace	-7126
▁brand	-7127
▁valley	-7128
▁teachers	-7129
rial	-7130
▁pride	-7131
▁humans	-7132
▁document	-7133
▁stor	-7134
nament	-7135
▁conduct	-7136
▁Ren	-7137
New	-7138
char	-7139
▁Iran	-7140
▁Sylvia	-7141
ela	-7142
▁pillow	-7143
▁Jam	-7144
▁hipp	-7145
▁cells	-7146
▁cents	-7147
▁solid	-7148
▁buying	-7149
▁driven	-7150
▁stern	-7151
▁strawberry	-7152
▁seek	-7153
rels	-7154
▁dawn	-7155
▁Anything	-7156
▁Cop	-7157
▁sequ	-7158
▁elimin	-7159
lfriend	-7160
aki	-7161
▁fed	-7162
▁Bang	-7163
▁[5	-7164
▁sprang	-7165
opl	-7166
▁islands	-7167
▁elev	-7168
ev	-7169
ques	-7170
▁unf	-7171
▁Louise	-7172
ESS	-7173
ensive	-7174
▁cough	-7175
▁ducks	-7176
▁require	-7177
whispered	-7178
▁kil	-7179
▁buzz	-7180
▁origin	-7181
▁precious	-7182
olen	-7183
▁hesit	-7184
▁leans	-7185
▁railway	-7186
oto	-7187
▁backwards	-7188
▁confidence	-7189
14	-7190
adium	-7191
▁eastern	-7192
▁Conf	-7193
▁clap	-7194
▁peanut	-7195
happy	-7196
▁2022	-7197
▁daily	-7198
▁presented	-7199
▁Try	-7200
▁myster	-7201
▁equipment	-7202
▁spin	-7203
▁unusual	-7204
▁collection	-7205
▁CAN	-7206
JO	-7207
OULD	-7208
ulate	-7209
foot	-7210
▁Gina	-7211
rolled	-7212
▁chase	-7213
▁compos	-7214
▁priest	-7215
▁Netherlands	-7216
enly	-7217
▁mood	-7218
▁1960	-7219
▁Group	-7220
▁secure	-7221
▁climate	-7222
▁sounded	-7223
▁Mu	-7224
▁Roy	-7225
▁jeal	-7226
▁Warren	-7227
,’	-7228
wers	-7229
▁confir	-7230
▁witch	-7231
lock	-7232
▁Belg	-7233
▁ouch	-7234
▁somethin	-7235
▁powers	-7236
▁Missouri	-7237
▁Were	-7238
▁obey	-7239
sn	-7240
▁myth	-7241
▁sofa	-7242
▁murm	-7243
▁wing	-7244
necess	-7245
▁Auntie	-7246
▁complex	-7247
▁recent	-7248
▁Ball	-7249
▁condu	-7250
▁unable	-7251
▁chuck	-7252
▁scare	-7253
▁legend	-7254
▁producer	-7255
▁trucks	-7256
zo	-7257
▁coun	-7258
▁exercise	-7259
Per	-7260
▁torn	-7261
▁stronger	-7262
▁Const	-7263
▁Honey	-7264
▁pregn	-7265
▁Syd	-7266
▁noisy	-7267
▁handed	-7268
▁blowing	-7269
▁swift	-7270
▁Philipp	-7271
▁Christopher	-7272
gly	-7273
▁basically	-7274
EV	-7275
about	-7276
venue	-7277
▁tank	-7278
ungle	-7279
▁2016	-7280
▁Inter	-7281
▁pengu	-7282
dr	-7283
▁Police	-7284
▁completed	-7285
▁Ryan	-7286
▁cage	-7287
▁	-7288
e	-7289
t	-7290
o	-7291
a	-7292
n	-7293
i	-7294
h	-7295
s	-7296
r	-7297
l	-7298
d	-7299
u	-7300
.	-7301
y	-7302
m	-7303
w	-7304
c	-7305
g	-7306
f	-7307
p	-7308
:	-7309
b	-7310
I	-7311
*	-7312
,	-7313
k	-7314
T	-7315
'	-7316
M	-7317
v	-7318
O	-7319
H	-7320
C	-7321
?	-7322
A	-7323
S	-7324
"	-7325
-	-7326
N	-7327
x	-7328
W	-7329
B	-7330
=	-7331
]	-7332
[	-7333
E	-7334
R	-7335
D	-7336
P	-7337
!	-7338
F	-7339
Y	-7340
1	-7341
L	-7342
G	-7343
j	-7344
0	-7345
V	-7346
2	-7347
J	-7348
z	-7349
9	-7350
U	-7351
q	-7352
K	-7353
)	-7354
(	-7355
;	-7356
3	-7357
“	-7358
”	-7359
’	-7360
8	-7361
5	-7362
4	-7363
7	-7364
6	-7365
_	-7366
X	-7367
%	-7368
/	-7369
|	-7370
♪	-7371
Z	-7372
–	-7373
Q	-7374
—	-7375
+	-7376
é	-7377
#	-7378
$	-7379
á	-7380
&	-7381
‘	-7382
í	-7383
⌋	-7384
⌈	-7385
⌊	-7386
⌉	-7387
→	-7388
ü	-7389
~	-7390
ö	-7391
è	-7392
ó	-7393
`	-7394
¶	-7395
ä	-7396
}	-7397
―	-7398
°	-7399
ñ	-7400
ō	-7401
{	-7402
ú	-7403
─	-7404
\	-7405
ô	-7406
✿	-7407
â	-7408
ç	-7409
æ	-7410
ā	-7411
ã	-7412
É	-7413
Ö	-7414
£	-7415
ć	-7416
•	-7417
š	-7418
ū	-7419
́	-7420
à	-7421
↗	-7422
ø	-7423
ê	-7424
↫	-7425
@	-7426
ë	-7427
ł	-7428
å	-7429
♫	-7430
ß	-7431
č	-7432
Á	-7433
§	-7434
ă	-7435
⁄	-7436
œ	-7437
ï	-7438
ı	-7439
ş	-7440
	-7441
ī	-7442
×	-7443
¡	-7444
î	-7445
ì	-7446
·	-7447
¿	-7448
Æ	-7449
©	-7450
ž	-7451
ș	-7452
ń	-7453
ð	-7454
Î	-7455
^	-7456
−	-7457
€	-7458
Ç	-7459
ý	-7460
′	-7461
ò	-7462
Š	-7463
¤	-7464
	-7465
∆	-7466
∙	-7467
Ō	-7468
Ü	-7469
Å	-7470
ř	-7471
­	-7472
û	-7473
ğ	-7474
ˈ	-7475
ː	-7476
þ	-7477
ě	-7478
⁎	-7479
ù	-7480
ə	-7481
õ	-7482
ē	-7483
ś	-7484
	-7485
À	-7486
ț	-7487
Ó	-7488
Đ	-7489
İ	-7490
Ä	-7491
Ã	-7492
ő	-7493
Ú	-7494
ę	-7495
¢	-7496
ą	-7497
ʻ	-7498
Ł	-7499
Č	-7500
Ş	-7501
ţ	-7502
Ž	-7503
±	-7504
Â	-7505
Ś	-7506
Í	-7507
„	-7508
‡	-7509
Ý	-7510
ż	-7511
ả	-7512
ʼ	-7513
Η	-7514
È	-7515
ṯ	-7516
Ø	-7517
ṟ	-7518
ɛ	-7519
ɪ	-7520
ệ	-7521
ė	-7522
ṭ	-7523
®	-7524
Ñ	-7525
÷	-7526
ー	-7527
»	-7528
Ì	-7529
ồ	-7530
đ	-7531
ư	-7532
̶	-7533
ź	-7534
†	-7535
	-7536
«	-7537
>	-7538
ʿ	-7539
Ð	-7540
Ô	-7541
ṣ	-7542
¦	-7543
ṉ	-7544
ň	-7545
ĕ	-7546
ọ	-7547
Ê	-7548
ḥ	-7549
‭	-7550
ɑ	-7551
Þ	-7552
▔	-7553
་	-7554
ů	-7555
ǎ	-7556
	-7557
Ï	-7558
॥	-7559
ÿ	-7560
ũ	-7561
Ò	-7562
←	-7563
¬	-7564
ẩ	-7565
ŋ	-7566
ɔ	-7567
ʊ	-7568
	-7569
Ż	-7570
ạ	-7571
ʾ	-7572
Ḥ	-7573
Ā	-7574
ṇ	-7575
ʃ	-7576
Α	-7577
ờ	-7578
ế	-7579
ễ	-7580
ứ	-7581
	-7582
¥	-7583
ν	-7584
∇	-7585
Ë	-7586
ˌ	-7587
ŵ	-7588
・	-7589
ŭ	-7590
ơ	-7591
♭	-7592
ộ	-7593
₹	-7594
ņ	-7595
‐	-7596
○	-7597
⟨	-7598
⟩	-7599
ṃ	-7600
ʒ	-7601
Ј	-7602
।	-7603
ố	-7604
Ć	-7605
ĩ	-7606
Ε	-7607
٤	-7608
ị	-7609
∞	-7610
<	-7611
Ù	-7612
ŏ	-7613
١	-7614
ġ	-7615
ĭ	-7616
ǔ	-7617
ǫ	-7618
ề	-7619
█	-7620
⬄	-7621
Œ	-7622
ɐ	-7623
؟	-7624
ḍ	-7625
‚	-7626
	-7627
	-7628
Ķ	-7629
ƒ	-7630
Ș	-7631
ʌ	-7632
ʔ	-7633
ο	-7634
Õ	-7635
ŷ	-7636
∴	-7637
į	-7638
ɣ	-7639
ɾ	-7640
Τ	-7641
ـ	-7642
٧	-7643
٨	-7644
ḻ	-7645
	-7646
ť	-7647
Ÿ	-7648
ǐ	-7649
ɘ	-7650
ɡ	-7651
٢	-7652
٥	-7653
↑	-7654
ď	-7655
Ē	-7656
ʁ	-7657
།	-7658
₤	-7659
≤	-7660
≥	-7661
	-7662
	-7663
Ľ	-7664
Ț	-7665
ɫ	-7666
Υ	-7667
ớ	-7668
⁂	-7669
₩	-7670
☆	-7671
♯	-7672
	-7673
	-7674
ǒ	-7675
ɒ	-7676
ɦ	-7677
ˆ	-7678
१	-7679
Ṭ	-7680
ữ	-7681
‍	-7682
√	-7683
≈	-7684
☺	-7685
	-7686
	-7687
ĝ	-7688
ű	-7689
ǁ	-7690
ɨ	-7691
ɹ	-7692
ʋ	-7693
ʘ	-7694
٦	-7695
٩	-7696
ṅ	-7697
ẓ	-7698
ậ	-7699
ẻ	-7700
ụ	-7701
	-7702
	-7703
ĥ	-7704
ļ	-7705
Ř	-7706
ɕ	-7707
ʏ	-7708
ḷ	-7709
Ṣ	-7710
ủ	-7711
ỹ	-7712
⁠	-7713
★	-7714
✡	-7715
、	-7716
	-7717
ħ	-7718
ľ	-7719
ǝ	-7720
ɯ	-7721
ɲ	-7722
ṓ	-7723
ắ	-7724
∂	-7725
∗	-7726
∘	-7727
⋅	-7728
●	-7729
♥	-7730
	-7731
	-7732
ĉ	-7733
ĵ	-7734
ŝ	-7735
Ū	-7736
ǂ	-7737
ǚ	-7738
ǵ	-7739
ɜ	-7740
ɩ	-7741
ʎ	-7742
˧	-7743
ව	-7744
ḫ	-7745
ấ	-7746
ầ	-7747
ẽ	-7748
ổ	-7749
ử	-7750
ỳ	-7751
‖	-7752
‬	-7753
※	-7754
₱	-7755
₵	-7756
∈	-7757
≠	-7758
Û	-7759
Ğ	-7760
Ī	-7761
Ţ	-7762
Ə	-7763
ȁ	-7764
ɳ	-7765
ʇ	-7766
ʕ	-7767
ˊ	-7768
ˋ	-7769
״	-7770
ṁ	-7771
ṛ	-7772
ẏ	-7773
ằ	-7774
ẹ	-7775
ỉ	-7776
ợ	-7777
‰	-7778
∝	-7779
∼	-7780
≡	-7781
❌	-7782
「	-7783
」	-7784
	-7785
	-7786
Ĉ	-7787
Ę	-7788
Ě	-7789
ģ	-7790
Ļ	-7791
Ŝ	-7792
Ť	-7793
Ŧ	-7794
Ź	-7795
Ƌ	-7796
ƿ	-7797
ǃ	-7798
ǣ	-7799
ǩ	-7800
ȝ	-7801
ʂ	-7802
ʈ	-7803
ʐ	-7804
ʹ	-7805
ˀ	-7806
ˇ	-7807
а	-7808
б	-7809
с	-7810
२	-7811
३	-7812
४	-7813
५	-7814
ය	-7815
ා	-7816
ේ	-7817
၁	-7818
ḗ	-7819
ḿ	-7820
ṙ	-7821
Ṯ	-7822
Ẓ	-7823
ẵ	-7824
Ẹ	-7825
ể	-7826
ỗ	-7827
ở	-7828
ự	-7829
⊙	-7830
◉	-7831
☃	-7832
☉	-7833
☻	-7834
♠	-7835
✅	-7836
✙	-7837
。	-7838
〜	-7839
ꞯ	-7840
	-7841
Ă	-7842
Ą	-7843
Ĕ	-7844
Ė	-7845
Ĝ	-7846
Ĥ	-7847
Ħ	-7848
ķ	-7849
ĺ	-7850
Ń	-7851
Ő	-7852
ŕ	-7853
ŗ	-7854
ų	-7855
Ƅ	-7856
ƌ	-7857
Ǝ	-7858
Ǧ	-7859
ǧ	-7860
ǹ	-7861
ȃ	-7862
Ȝ	-7863
Ɂ	-7864
ɂ	-7865
ɖ	-7866
ɗ	-7867
ɝ	-7868
ɟ	-7869
ɥ	-7870
ɮ	-7871
ɶ	-7872
ɷ	-7873
ɸ	-7874
ɺ	-7875
ʑ	-7876
ʙ	-7877
ʝ	-7878
ʟ	-7879
ʧ	-7880
ʽ	-7881
˥	-7882
˦	-7883
˩	-7884
̈	-7885
Β	-7886
М	-7887
й	-7888
к	-7889
о	-7890
у	-7891
ш	-7892
я	-7893
־	-7894
،	-7895
۞	-7896
۰	-7897
०	-7898
६	-7899
७	-7900
८	-7901
९	-7902
ආ	-7903
ජ	-7904
බ	-7905
ු	-7906
ෝ	-7907
၀	-7908
၂	-7909
၃	-7910
၄	-7911
၅	-7912
၆	-7913
၇	-7914
၈	-7915
၉	-7916
᚛	-7917
᚜	-7918
០	-7919
១	-7920
២	-7921
៣	-7922
៤	-7923
៥	-7924
៦	-7925
៧	-7926
៨	-7927
៩	-7928
ḋ	-7929
Ḍ	-7930
ḏ	-7931
Ḡ	-7932
Ḩ	-7933
ḱ	-7934
ḵ	-7935
Ṃ	-7936
ṗ	-7937
ṫ	-7938
Ṳ	-7939
ṹ	-7940
ẞ	-7941
ặ	-7942
Ế	-7943
Ọ	-7944
ỏ	-7945
‿	-7946
⁣	-7947
₡	-7948
₣	-7949
₿	-7950
↊	-7951
↋	-7952
∉	-7953
≒	-7954
▼	-7955
◊	-7956
☐	-7957
☚	-7958
☛	-7959
☣	-7960
☭	-7961
☯	-7962
♄	-7963
♑	-7964
♒	-7965
♡	-7966
♣	-7967
♦	-7968
♮	-7969
✚	-7970
❤	-7971
❦	-7972
⬱	-7973
ⱡ	-7974
⿰	-7975
⿱	-7976
⿺	-7977
〉	-7978
《	-7979
》	-7980
『	-7981
』	-7982
Ꜧ	-7983
ꜧ	-7984
꞉	-7985
ꞌ	-7986
	-7987
	-7988
	-7989
𝄆	-7990
