<pad>	0
<unk>	0
<s>	0
</s>	0
[PAD]	0
[UNK]	0
[CLS]	0
[SEP]	0
[MASK]	0
▁t	-0
he	-1
▁a	-2
in	-3
▁w	-4
▁the	-5
▁*	-6
ou	-7
▁s	-8
re	-9
▁o	-10
ha	-11
er	-12
nd	-13
▁b	-14
it	-15
is	-16
▁c	-17
▁m	-18
▁y	-19
▁d	-20
on	-21
ing	-22
▁f	-23
▁I	-24
ll	-25
▁to	-26
OT	-27
MOT	-28
▁you	-29
an	-30
ed	-31
or	-32
es	-33
▁p	-34
hat	-35
en	-36
▁g	-37
▁l	-38
▁and	-39
CH	-40
CHI	-41
▁n	-42
ar	-43
▁of	-44
as	-45
▁in	-46
at	-47
om	-48
▁he	-49
ow	-50
▁h	-51
▁it	-52
ot	-53
▁ha	-54
et	-55
ve	-56
le	-57
▁that	-58
ay	-59
▁th	-60
▁on	-61
▁T	-62
ic	-63
us	-64
gh	-65
▁be	-66
id	-67
▁is	-68
▁A	-69
▁we	-70
▁e	-71
ld	-72
ut	-73
al	-74
oo	-75
▁S	-76
▁was	-77
▁M	-78
im	-79
ac	-80
ke	-81
ad	-82
..	-83
▁do	-84
ver	-85
▁re	-86
▁=	-87
▁r	-88
▁W	-89
ght	-90
▁u	-91
▁[	-92
▁B	-93
▁for	-94
ir	-95
se	-96
ly	-97
▁H	-98
▁st	-99
ent	-100
ion	-101
am	-102
out	-103
▁C	-104
st	-105
▁"	-106
▁k	-107
ith	-108
▁me	-109
ight	-110
▁The	-111
ea	-112
▁an	-113
▁what	-114
▁with	-115
her	-116
▁wh	-117
ome	-118
ur	-119
▁se	-120
▁go	-121
all	-122
▁Y	-123
▁as	-124
▁not	-125
▁this	-126
ter	-127
ch	-128
▁at	-129
ill	-130
▁li	-131
▁have	-132
▁-	-133
ould	-134
ro	-135
▁are	-136
▁D	-137
▁no	-138
ce	-139
▁kn	-140
▁N	-141
▁there	-142
ri	-143
▁P	-144
▁can	-145
ook	-146
ust	-147
▁they	-148
if	-149
il	-150
ant	-151
▁O	-152
▁one	-153
▁his	-154
un	-155
ct	-156
▁whe	-157
ain	-158
▁so	-159
...	-160
▁G	-161
▁know	-162
▁j	-163
▁L	-164
op	-165
ell	-166
▁don	-167
▁up	-168
▁she	-169
eah	-170
▁her	-171
▁ne	-172
and	-173
ore	-174
um	-175
▁all	-176
xx	-177
ie	-178
▁your	-179
▁F	-180
▁my	-181
▁had	-182
IN	-183
ge	-184
▁fr	-185
pp	-186
▁R	-187
▁J	-188
our	-189
▁sh	-190
▁but	-191
▁sa	-192
▁like	-193
ab	-194
▁1	-195
ack	-196
▁He	-197
▁E	-198
ood	-199
▁out	-200
▁de	-201
art	-202
ol	-203
INV	-204
▁It	-205
ul	-206
▁him	-207
▁pl	-208
▁al	-209
ink	-210
ry	-211
▁ab	-212
ake	-213
▁get	-214
▁see	-215
▁from	-216
▁did	-217
th	-218
ig	-219
▁look	-220
red	-221
ers	-222
el	-223
very	-224
▁or	-225
han	-226
ation	-227
▁here	-228
ess	-229
▁were	-230
ck	-231
ound	-232
est	-233
AT	-234
▁by	-235
▁You	-236
▁oh	-237
▁yeah	-238
ist	-239
▁su	-240
qu	-241
ind	-242
ame	-243
ra	-244
ard	-245
os	-246
▁them	-247
ong	-248
own	-249
▁got	-250
nt	-251
▁some	-252
itt	-253
one	-254
ak	-255
▁com	-256
▁just	-257
▁about	-258
▁think	-259
▁who	-260
▁wor	-261
▁want	-262
▁us	-263
ast	-264
▁sp	-265
▁right	-266
▁2	-267
res	-268
na	-269
ive	-270
ally	-271
▁now	-272
ep	-273
em	-274
▁would	-275
▁said	-276
▁(	-277
▁v	-278
ice	-279
ap	-280
▁if	-281
FAT	-282
od	-283
].	-284
ate	-285
▁ex	-286
▁when	-287
▁then	-288
▁con	-289
▁any	-290
ick	-291
ber	-292
▁man	-293
ime	-294
ough	-295
▁tw	-296
ort	-297
▁say	-298
hing	-299
ine	-300
ich	-301
fe	-302
ven	-303
use	-304
▁will	-305
▁bo	-306
kay	-307
other	-308
ide	-309
▁tr	-310
▁put	-311
▁And	-312
xxx	-313
▁where	-314
hi	-315
▁xxx	-316
▁good	-317
ear	-318
ag	-319
▁“	-320
▁int	-321
ittle	-322
▁down	-323
ous	-324
ther	-325
ies	-326
way	-327
▁back	-328
▁ag	-329
▁K	-330
."	-331
▁pro	-332
ost	-333
▁going	-334
ca	-335
▁cl	-336
au	-337
▁little	-338
▁been	-339
ose	-340
▁time	-341
▁could	-342
▁more	-343
▁well	-344
▁has	-345
▁ar	-346
▁over	-347
▁U	-348
▁come	-349
▁br	-350
▁'	-351
--	-352
▁very	-353
end	-354
▁which	-355
▁19	-356
▁too	-357
▁two	-358
ace	-359
▁off	-360
▁What	-361
▁their	-362
ove	-363
▁20	-364
ity	-365
lf	-366
▁pe	-367
▁okay	-368
ree	-369
ite	-370
▁Th	-371
▁how	-372
▁qu	-373
cause	-374
▁other	-375
▁play	-376
ure	-377
▁af	-378
▁fe	-379
ish	-380
are	-381
ond	-382
▁let	-383
▁thing	-384
▁yes	-385
▁le	-386
▁gr	-387
ud	-388
alk	-389
ft	-390
▁St	-391
reat	-392
,"	-393
▁than	-394
▁bl	-395
▁We	-396
orn	-397
▁No	-398
▁But	-399
▁ro	-400
ue	-401
age	-402
▁In	-403
omet	-404
urn	-405
my	-406
hed	-407
▁does	-408
ment	-409
▁into	-410
ought	-411
ian	-412
pl	-413
▁er	-414
AR	-415
▁again	-416
ople	-417
irst	-418
ass	-419
iv	-420
▁way	-421
ty	-422
▁Yeah	-423
▁make	-424
▁Oh	-425
ade	-426
ia	-427
▁She	-428
ase	-429
▁tell	-430
▁en	-431
ble	-432
▁somet	-433
ire	-434
ect	-435
ps	-436
onna	-437
▁work	-438
▁take	-439
ater	-440
▁people	-441
▁pr	-442
ary	-443
iss	-444
ount	-445
▁gonna	-446
▁sha	-447
▁call	-448
▁car	-449
▁day	-450
▁co	-451
▁fl	-452
▁am	-453
▁That	-454
ov	-455
▁first	-456
add	-457
int	-458
▁They	-459
ci	-460
▁need	-461
pt	-462
per	-463
ran	-464
▁after	-465
ng	-466
ys	-467
▁mean	-468
ord	-469
▁uh	-470
▁Mr	-471
uch	-472
▁bet	-473
▁hand	-474
ise	-475
▁only	-476
ne	-477
▁part	-478
▁thr	-479
▁our	-480
▁because	-481
▁should	-482
▁every	-483
ull	-484
self	-485
▁V	-486
fore	-487
ather	-488
nder	-489
ff	-490
wn	-491
act	-492
mer	-493
uh	-494
so	-495
▁ch	-496
▁didn	-497
ark	-498
iz	-499
ouse	-500
ach	-501
▁So	-502
av	-503
we	-504
▁un	-505
▁Well	-506
▁these	-507
▁much	-508
ub	-509
ock	-510
▁cha	-511
ob	-512
uck	-513
▁happ	-514
▁something	-515
thing	-516
ress	-517
augh	-518
▁pre	-519
able	-520
▁Wh	-521
ady	-522
les	-523
▁big	-524
▁made	-525
ren	-526
▁really	-527
▁te	-528
▁year	-529
ting	-530
▁long	-531
ile	-532
▁gu	-533
ool	-534
▁ad	-535
man	-536
og	-537
irl	-538
old	-539
▁why	-540
▁sm	-541
day	-542
▁This	-543
▁chi	-544
▁away	-545
oc	-546
▁talk	-547
ew	-548
▁dis	-549
▁po	-550
ied	-551
ory	-552
cl	-553
▁ke	-554
be	-555
ip	-556
ated	-557
▁before	-558
hes	-559
ict	-560
▁may	-561
▁under	-562
ions	-563
cc	-564
▁rem	-565
▁went	-566
▁wr	-567
anna	-568
ody	-569
▁sc	-570
▁im	-571
ence	-572
hen	-573
ang	-574
ving	-575
▁There	-576
▁hel	-577
▁cr	-578
▁sec	-579
▁old	-580
▁never	-581
▁three	-582
▁girl	-583
ix	-584
oll	-585
ward	-586
▁those	-587
▁turn	-588
▁wanna	-589
▁um	-590
▁doing	-591
▁ask	-592
riend	-593
▁child	-594
00	-595
PAR	-596
▁app	-597
▁came	-598
▁home	-599
tain	-600
ful	-601
here	-602
▁act	-603
▁thought	-604
▁also	-605
▁Yes	-606
atch	-607
ny	-608
?"	-609
▁per	-610
▁bab	-611
▁Ch	-612
▁eat	-613
▁must	-614
▁new	-615
pen	-616
hm	-617
▁even	-618
ors	-619
ons	-620
▁another	-621
▁find	-622
▁things	-623
gg	-624
▁book	-625
ath	-626
▁through	-627
▁house	-628
ried	-629
▁give	-630
akes	-631
▁great	-632
ks	-633
EX	-634
ance	-635
▁ple	-636
▁bu	-637
▁head	-638
ious	-639
▁help	-640
▁many	-641
▁start	-642
ved	-643
EXP	-644
ait	-645
▁still	-646
ings	-647
▁comp	-648
ily	-649
get	-650
▁won	-651
ans	-652
▁lea	-653
▁last	-654
oh	-655
▁sl	-656
ail	-657
ave	-658
pe	-659
▁Un	-660
land	-661
ign	-662
▁try	-663
▁love	-664
ru	-665
▁done	-666
oy	-667
▁found	-668
igh	-669
laugh	-670
▁show	-671
TE	-672
▁%	-673
▁happen	-674
▁called	-675
▁night	-676
▁mom	-677
▁How	-678
aking	-679
oot	-680
▁boy	-681
air	-682
▁bit	-683
▁might	-684
▁cont	-685
▁isn	-686
xt	-687
▁201	-688
▁lot	-689
rd	-690
▁el	-691
▁bel	-692
ves	-693
▁min	-694
▁res	-695
▁chan	-696
▁name	-697
up	-698
▁ser	-699
▁baby	-700
ling	-701
ult	-702
body	-703
▁friend	-704
.”	-705
side	-706
ms	-707
▁bot	-708
med	-709
▁Mum	-710
ates	-711
▁che	-712
ars	-713
▁around	-714
ild	-715
ee	-716
▁dif	-717
aw	-718
als	-719
ually	-720
oss	-721
iver	-722
oney	-723
▁open	-724
▁gl	-725
▁If	-726
▁its	-727
chool	-728
▁care	-729
▁Br	-730
▁better	-731
▁own	-732
.]	-733
▁kind	-734
te	-735
▁mov	-736
yes	-737
ember	-738
▁water	-739
▁sure	-740
▁most	-741
▁comm	-742
▁count	-743
▁Al	-744
▁end	-745
▁rec	-746
ever	-747
IS	-748
ope	-749
▁nice	-750
▁place	-751
▁mhm	-752
▁Is	-753
▁feel	-754
rent	-755
ces	-756
▁An	-757
▁years	-758
imes	-759
▁four	-760
ways	-761
▁keep	-762
ah	-763
▁As	-764
▁anything	-765
▁Do	-766
ph	-767
ical	-768
▁used	-769
port	-770
,”	-771
ww	-772
▁cour	-773
▁looks	-774
▁doesn	-775
AN	-776
ited	-777
▁being	-778
led	-779
▁mother	-780
inn	-781
▁3	-782
▁att	-783
ens	-784
ince	-785
▁life	-786
▁else	-787
▁while	-788
▁run	-789
!"	-790
▁such	-791
ont	-792
ere	-793
▁All	-794
▁same	-795
▁room	-796
▁fin	-797
▁beg	-798
▁shall	-799
▁wait	-800
▁bre	-801
amp	-802
▁des	-803
▁dr	-804
▁sit	-805
▁supp	-806
ute	-807
▁Mar	-808
▁.	-809
▁next	-810
orry	-811
laughs	-812
▁sw	-813
▁bus	-814
▁school	-815
▁Be	-816
row	-817
▁told	-818
atter	-819
▁please	-820
▁TH	-821
RO	-822
▁saw	-823
▁stop	-824
AD	-825
▁always	-826
▁left	-827
ations	-828
orm	-829
ird	-830
▁bec	-831
ition	-832
▁far	-833
▁hold	-834
▁set	-835
▁cle	-836
addy	-837
uc	-838
ss	-839
▁word	-840
▁wee	-841
▁Now	-842
▁read	-843
und	-844
▁Don	-845
ident	-846
▁pret	-847
▁Why	-848
aught	-849
▁Mummy	-850
meric	-851
arly	-852
leep	-853
▁diffe	-854
▁father	-855
▁Ar	-856
▁men	-857
oon	-858
▁col	-859
ins	-860
▁ever	-861
▁hard	-862
▁mon	-863
outh	-864
▁num	-865
ung	-866
▁Then	-867
ye	-868
▁gone	-869
▁ele	-870
▁fam	-871
▁ball	-872
▁ah	-873
ream	-874
ta	-875
ction	-876
▁use	-877
▁unt	-878
▁fun	-879
▁took	-880
ister	-881
ug	-882
mp	-883
ness	-884
▁When	-885
▁pres	-886
▁money	-887
oun	-888
▁point	-889
▁door	-890
vel	-891
▁Americ	-892
▁coming	-893
▁pol	-894
raw	-895
ump	-896
orning	-897
▁erm	-898
▁enough	-899
▁walk	-900
▁goes	-901
▁gre	-902
▁bed	-903
▁huh	-904
▁Fran	-905
▁200	-906
▁Cha	-907
▁ac	-908
anc	-909
vent	-910
▁five	-911
▁though	-912
▁hear	-913
▁box	-914
▁ind	-915
ished	-916
erson	-917
▁On	-918
ows	-919
▁ob	-920
▁sur	-921
▁says	-922
pect	-923
▁_	-924
mber	-925
▁nothing	-926
The	-927
▁ret	-928
ts	-929
▁sing	-930
ower	-931
▁war	-932
right	-933
ib	-934
▁side	-935
▁eyes	-936
▁acc	-937
▁mar	-938
▁young	-939
▁stand	-940
▁watch	-941
▁until	-942
▁real	-943
▁morning	-944
▁str	-945
ec	-946
".	-947
▁hm	-948
▁wom	-949
uff	-950
▁belie	-951
ier	-952
▁quite	-953
▁course	-954
▁light	-955
the	-956
▁pass	-957
oup	-958
▁thank	-959
▁asked	-960
▁Come	-961
az	-962
▁seen	-963
ER	-964
▁looking	-965
▁red	-966
▁stay	-967
▁reg	-968
▁My	-969
ired	-970
ger	-971
▁ph	-972
ross	-973
▁pick	-974
TEA	-975
ets	-976
ES	-977
ret	-978
▁remember	-979
▁De	-980
▁few	-981
▁dist	-982
▁six	-983
bab	-984
gr	-985
▁At	-986
ible	-987
▁Let	-988
▁best	-989
▁second	-990
▁round	-991
▁different	-992
▁dog	-993
▁world	-994
ial	-995
▁Gr	-996
▁small	-997
gether	-998
▁once	-999
ased	-1000
▁For	-1001
▁together	-1002
oor	-1003
eak	-1004
tle	-1005
▁sound	-1006
▁ent	-1007
ton	-1008
▁leave	-1009
une	-1010
ank	-1011
▁Not	-1012
▁hur	-1013
▁♪	-1014
ween	-1015
▁fell	-1016
ike	-1017
oe	-1018
▁mil	-1019
▁face	-1020
MA	-1021
▁pie	-1022
▁wind	-1023
▁sorry	-1024
ational	-1025
ning	-1026
▁yet	-1027
▁list	-1028
▁known	-1029
▁dear	-1030
MCH	-1031
▁getting	-1032
▁today	-1033
aster	-1034
▁soon	-1035
▁sleep	-1036
mb	-1037
uring	-1038
▁hands	-1039
SIS	-1040
ctor	-1041
▁both	-1042
huh	-1043
▁heard	-1044
▁sk	-1045
ents	-1046
▁mind	-1047
▁rel	-1048
ten	-1049
▁char	-1050
ollow	-1051
▁202	-1052
▁each	-1053
▁fall	-1054
▁mm	-1055
▁fire	-1056
▁children	-1057
▁cap	-1058
▁bro	-1059
ush	-1060
▁train	-1061
▁Sp	-1062
ener	-1063
▁ter	-1064
▁Okay	-1065
▁sn	-1066
▁Mrs	-1067
▁Than	-1068
ered	-1069
▁4	-1070
ures	-1071
▁Can	-1072
▁without	-1073
▁dri	-1074
OU	-1075
▁number	-1076
ash	-1077
ject	-1078
▁ready	-1079
▁bad	-1080
),	-1081
▁rest	-1082
fta	-1083
▁between	-1084
ason	-1085
▁hafta	-1086
▁May	-1087
▁himself	-1088
▁Miss	-1089
▁Chr	-1090
▁upon	-1091
▁Cl	-1092
▁Er	-1093
iet	-1094
▁pict	-1095
ries	-1096
▁New	-1097
).	-1098
▁happened	-1099
▁wanted	-1100
▁person	-1101
arl	-1102
▁Eng	-1103
ane	-1104
ics	-1105
▁ca	-1106
orth	-1107
ats	-1108
ged	-1109
▁Af	-1110
▁haven	-1111
fect	-1112
its	-1113
▁looked	-1114
▁18	-1115
ating	-1116
▁foot	-1117
ohn	-1118
ina	-1119
▁hat	-1120
▁Hey	-1121
ife	-1122
▁half	-1123
any	-1124
1:	-1125
ames	-1126
▁God	-1127
eter	-1128
▁having	-1129
cle	-1130
ines	-1131
▁high	-1132
▁pap	-1133
der	-1134
▁dec	-1135
▁mus	-1136
pped	-1137
▁later	-1138
less	-1139
▁Fr	-1140
▁matter	-1141
▁knew	-1142
▁inst	-1143
oice	-1144
most	-1145
▁along	-1146
GMA	-1147
io	-1148
unt	-1149
▁sort	-1150
▁heart	-1151
▁talking	-1152
ched	-1153
▁air	-1154
▁story	-1155
▁move	-1156
▁everything	-1157
▁wond	-1158
▁pretty	-1159
stand	-1160
▁lar	-1161
ale	-1162
▁John	-1163
▁THE	-1164
▁follow	-1165
▁pop	-1166
▁Just	-1167
▁dep	-1168
eth	-1169
osed	-1170
▁top	-1171
ork	-1172
▁maybe	-1173
BRO	-1174
ertain	-1175
▁cons	-1176
▁Mm	-1177
▁5	-1178
sel	-1179
ma	-1180
▁hour	-1181
lic	-1182
dd	-1183
▁Mom	-1184
▁ans	-1185
▁hor	-1186
cha	-1187
▁Re	-1188
ball	-1189
▁days	-1190
▁Bl	-1191
▁United	-1192
▁inter	-1193
▁live	-1194
cial	-1195
▁Ind	-1196
▁making	-1197
▁boys	-1198
▁gave	-1199
me	-1200
▁against	-1201
▁American	-1202
▁Go	-1203
rew	-1204
by	-1205
▁break	-1206
▁tra	-1207
▁table	-1208
aut	-1209
▁bring	-1210
▁wasn	-1211
iness	-1212
▁dire	-1213
▁199	-1214
▁drink	-1215
▁Z	-1216
▁Uh	-1217
▁alright	-1218
idd	-1219
cept	-1220
▁Daddy	-1221
vers	-1222
▁miss	-1223
▁inv	-1224
▁anim	-1225
▁city	-1226
▁Where	-1227
ither	-1228
ual	-1229
▁sir	-1230
▁Ma	-1231
ING	-1232
bo	-1233
ped	-1234
▁believe	-1235
▁family	-1236
",	-1237
pr	-1238
ully	-1239
▁Right	-1240
▁died	-1241
▁Christ	-1242
ised	-1243
▁blue	-1244
▁since	-1245
?”	-1246
ern	-1247
▁Who	-1248
uth	-1249
▁kill	-1250
ters	-1251
▁sy	-1252
▁Pr	-1253
You	-1254
clud	-1255
▁His	-1256
oint	-1257
▁aw	-1258
▁id	-1259
▁cut	-1260
enty	-1261
▁add	-1262
▁whole	-1263
▁born	-1264
▁moment	-1265
▁noise	-1266
▁tri	-1267
erest	-1268
oud	-1269
ision	-1270
▁return	-1271
▁started	-1272
ok	-1273
br	-1274
▁close	-1275
▁town	-1276
▁actually	-1277
▁cur	-1278
▁stud	-1279
orrow	-1280
▁ste	-1281
ced	-1282
ery	-1283
▁Good	-1284
----	-1285
ric	-1286
aken	-1287
▁meet	-1288
wards	-1289
▁doll	-1290
▁wonder	-1291
▁sub	-1292
to	-1293
▁wouldn	-1294
▁food	-1295
▁saying	-1296
▁swe	-1297
sh	-1298
▁chair	-1299
▁trying	-1300
ready	-1301
▁hot	-1302
ular	-1303
bably	-1304
oke	-1305
▁white	-1306
▁laugh	-1307
vern	-1308
hip	-1309
▁cent	-1310
▁Are	-1311
ield	-1312
▁black	-1313
▁Ger	-1314
▁near	-1315
▁song	-1316
▁friends	-1317
▁understand	-1318
▁hey	-1319
▁comes	-1320
▁almost	-1321
▁Thom	-1322
ole	-1323
▁One	-1324
▁cat	-1325
▁dro	-1326
▁land	-1327
▁interest	-1328
ote	-1329
uss	-1330
▁imp	-1331
▁CHI	-1332
▁quest	-1333
▁floor	-1334
▁game	-1335
▁inf	-1336
▁wrong	-1337
▁build	-1338
▁disc	-1339
zz	-1340
▁Q	-1341
||	-1342
▁pull	-1343
ony	-1344
▁green	-1345
▁team	-1346
▁feet	-1347
▁eight	-1348
ches	-1349
cess	-1350
▁playing	-1351
▁Com	-1352
EN	-1353
ustr	-1354
▁already	-1355
ative	-1356
▁minute	-1357
▁sign	-1358
ined	-1359
▁brother	-1360
▁ref	-1361
▁squ	-1362
aces	-1363
app	-1364
ted	-1365
read	-1366
▁Look	-1367
▁job	-1368
▁rep	-1369
ocal	-1370
ON	-1371
▁met	-1372
oes	-1373
▁poss	-1374
▁beaut	-1375
▁Bob	-1376
ants	-1377
▁became	-1378
www	-1379
aid	-1380
▁Tom	-1381
▁draw	-1382
▁sil	-1383
▁guess	-1384
▁sent	-1385
▁country	-1386
▁pain	-1387
▁began	-1388
▁happy	-1389
▁ten	-1390
▁hair	-1391
▁pay	-1392
▁Thomas	-1393
▁eas	-1394
ives	-1395
eed	-1396
▁Sh	-1397
▁Will	-1398
▁quick	-1399
▁States	-1400
▁Me	-1401
▁times	-1402
▁Did	-1403
▁beh	-1404
▁Jack	-1405
▁kid	-1406
▁idea	-1407
▁speak	-1408
eb	-1409
▁To	-1410
▁6	-1411
undred	-1412
ison	-1413
ama	-1414
ying	-1415
where	-1416
▁son	-1417
▁paper	-1418
▁exc	-1419
▁lost	-1420
▁Sc	-1421
ize	-1422
▁pur	-1423
▁fact	-1424
▁gotta	-1425
elt	-1426
▁listen	-1427
hy	-1428
▁played	-1429
ues	-1430
▁198	-1431
▁fine	-1432
▁probably	-1433
ages	-1434
▁lead	-1435
▁yell	-1436
▁–	-1437
▁gi	-1438
▁includ	-1439
ital	-1440
ik	-1441
▁ass	-1442
▁leg	-1443
ities	-1444
▁front	-1445
ple	-1446
▁tre	-1447
ene	-1448
▁picture	-1449
ring	-1450
ared	-1451
▁behind	-1452
olog	-1453
ner	-1454
▁makes	-1455
▁music	-1456
ster	-1457
airs	-1458
no	-1459
▁woman	-1460
▁coll	-1461
ipp	-1462
▁color	-1463
ivers	-1464
ently	-1465
ises	-1466
ots	-1467
▁hundred	-1468
▁fight	-1469
▁hope	-1470
▁brought	-1471
▁cook	-1472
▁mine	-1473
▁hum	-1474
▁certain	-1475
▁girls	-1476
▁,	-1477
ouch	-1478
ape	-1479
▁during	-1480
It	-1481
▁full	-1482
▁conf	-1483
LL	-1484
▁contin	-1485
▁Thank	-1486
▁7	-1487
utes	-1488
▁voice	-1489
▁MOT	-1490
OR	-1491
haps	-1492
▁aren	-1493
wer	-1494
▁plan	-1495
▁stuff	-1496
▁party	-1497
▁Har	-1498
▁means	-1499
ober	-1500
▁month	-1501
▁outside	-1502
▁turned	-1503
ey	-1504
▁ran	-1505
▁ext	-1506
▁sat	-1507
ury	-1508
▁After	-1509
▁seemed	-1510
▁week	-1511
iful	-1512
▁expl	-1513
lish	-1514
▁poor	-1515
rib	-1516
▁8	-1517
cy	-1518
▁couldn	-1519
tern	-1520
▁del	-1521
ouble	-1522
19	-1523
key	-1524
▁wants	-1525
▁short	-1526
▁Some	-1527
ax	-1528
▁movie	-1529
▁inc	-1530
▁prom	-1531
ense	-1532
▁stick	-1533
itting	-1534
▁sun	-1535
ete	-1536
RA	-1537
▁compl	-1538
▁able	-1539
▁lear	-1540
▁dead	-1541
ided	-1542
▁gener	-1543
▁proble	-1544
▁cup	-1545
▁sim	-1546
▁Her	-1547
▁late	-1548
▁hell	-1549
ured	-1550
▁bar	-1551
▁taken	-1552
room	-1553
unch	-1554
▁offic	-1555
▁often	-1556
inner	-1557
▁record	-1558
▁import	-1559
▁197	-1560
▁fore	-1561
ese	-1562
▁horse	-1563
▁i	-1564
▁bird	-1565
▁es	-1566
son	-1567
▁ones	-1568
▁piece	-1569
ides	-1570
▁form	-1571
ned	-1572
ert	-1573
ief	-1574
▁myself	-1575
fully	-1576
rying	-1577
▁Ph	-1578
for	-1579
▁Car	-1580
▁rock	-1581
!”	-1582
▁business	-1583
0,	-1584
▁Your	-1585
▁prod	-1586
▁stre	-1587
▁Pro	-1588
iam	-1589
ards	-1590
▁fro	-1591
▁dress	-1592
▁!	-1593
▁pu	-1594
▁Ge	-1595
▁German	-1596
▁minutes	-1597
iew	-1598
▁With	-1599
cted	-1600
▁words	-1601
▁King	-1602
▁vis	-1603
Oh	-1604
▁clot	-1605
▁sister	-1606
▁Here	-1607
2:	-1608
▁bear	-1609
▁yourself	-1610
▁Le	-1611
▁repl	-1612
▁taking	-1613
▁less	-1614
ments	-1615
lease	-1616
irth	-1617
NAN	-1618
ized	-1619
illy	-1620
ones	-1621
▁eng	-1622
▁large	-1623
▁mag	-1624
▁ed	-1625
aur	-1626
▁line	-1627
▁death	-1628
used	-1629
▁inside	-1630
▁grand	-1631
head	-1632
▁Fl	-1633
▁dark	-1634
ask	-1635
What	-1636
▁Chi	-1637
▁med	-1638
men	-1639
▁rather	-1640
selves	-1641
ublic	-1642
ention	-1643
LO	-1644
▁Ab	-1645
gan	-1646
▁pen	-1647
▁cold	-1648
▁ev	-1649
▁felt	-1650
ming	-1651
▁beautiful	-1652
ific	-1653
▁tele	-1654
1.	-1655
▁road	-1656
ider	-1657
ney	-1658
dy	-1659
▁wife	-1660
▁Ex	-1661
▁lady	-1662
▁main	-1663
ze	-1664
ald	-1665
▁9	-1666
not	-1667
arent	-1668
bit	-1669
▁tree	-1670
▁sometimes	-1671
oub	-1672
▁yellow	-1673
▁ago	-1674
▁cir	-1675
▁Ad	-1676
▁age	-1677
▁case	-1678
▁art	-1679
▁sweet	-1680
▁guy	-1681
▁alone	-1682
LD	-1683
▁toys	-1684
aughter	-1685
▁given	-1686
▁funny	-1687
▁?	-1688
amed	-1689
aim	-1690
ution	-1691
els	-1692
▁present	-1693
▁Char	-1694
morrow	-1695
▁someone	-1696
▁boat	-1697
wh	-1698
aj	-1699
born	-1700
▁strong	-1701
▁reac	-1702
▁change	-1703
▁Or	-1704
ator	-1705
rig	-1706
ists	-1707
rench	-1708
▁twenty	-1709
▁power	-1710
▁Count	-1711
▁serv	-1712
rest	-1713
▁Pe	-1714
▁page	-1715
▁state	-1716
▁ins	-1717
▁YOU	-1718
▁till	-1719
DS	-1720
▁Te	-1721
▁either	-1722
0.	-1723
▁wood	-1724
▁English	-1725
▁birth	-1726
▁Ed	-1727
▁milk	-1728
▁true	-1729
ham	-1730
▁wear	-1731
▁important	-1732
▁bag	-1733
▁past	-1734
▁mess	-1735
▁Jan	-1736
▁196	-1737
owing	-1738
▁mot	-1739
▁others	-1740
▁lik	-1741
range	-1742
▁mark	-1743
ffe	-1744
▁body	-1745
▁occ	-1746
▁Grand	-1747
▁wish	-1748
▁mommy	-1749
▁ground	-1750
artment	-1751
▁fast	-1752
▁pri	-1753
ising	-1754
UR	-1755
gy	-1756
icha	-1757
▁across	-1758
DAD	-1759
▁least	-1760
▁hello	-1761
▁class	-1762
▁fif	-1763
▁seven	-1764
▁em	-1765
▁tea	-1766
We	-1767
▁gets	-1768
iously	-1769
▁forg	-1770
▁fav	-1771
▁fair	-1772
▁Bar	-1773
▁trans	-1774
▁govern	-1775
▁working	-1776
▁Mommy	-1777
▁buy	-1778
atur	-1779
▁Cap	-1780
▁Pl	-1781
▁order	-1782
iving	-1783
▁fish	-1784
ians	-1785
ara	-1786
▁hurt	-1787
umb	-1788
▁lay	-1789
▁hon	-1790
▁IN	-1791
▁uhhuh	-1792
▁Per	-1793
▁question	-1794
▁X	-1795
ained	-1796
idge	-1797
itc	-1798
▁early	-1799
▁dar	-1800
arth	-1801
▁adv	-1802
ley	-1803
▁Ben	-1804
ately	-1805
Yes	-1806
▁jump	-1807
2.	-1808
ature	-1809
▁prov	-1810
▁sea	-1811
ops	-1812
▁deal	-1813
▁news	-1814
fic	-1815
ges	-1816
▁sever	-1817
ken	-1818
ism	-1819
▁#	-1820
▁clean	-1821
▁France	-1822
▁El	-1823
pri	-1824
▁Brit	-1825
▁finished	-1826
ello	-1827
▁law	-1828
▁animals	-1829
▁area	-1830
▁Every	-1831
▁ty	-1832
rence	-1833
▁Tr	-1834
▁creat	-1835
ety	-1836
▁dinner	-1837
fort	-1838
▁gun	-1839
▁star	-1840
iting	-1841
▁win	-1842
MAR	-1843
iding	-1844
▁Con	-1845
▁several	-1846
▁Hel	-1847
▁z	-1848
▁Wor	-1849
▁rece	-1850
▁group	-1851
raid	-1852
▁...	-1853
▁somebody	-1854
▁Tw	-1855
▁pos	-1856
▁tried	-1857
ummer	-1858
▁glad	-1859
▁expect	-1860
▁ice	-1861
▁guys	-1862
erv	-1863
▁fig	-1864
ering	-1865
▁hung	-1866
▁lo	-1867
▁prot	-1868
▁quiet	-1869
▁free	-1870
▁herself	-1871
irty	-1872
]?	-1873
▁bur	-1874
▁thinking	-1875
▁wall	-1876
▁exp	-1877
stem	-1878
▁roll	-1879
▁Sha	-1880
isc	-1881
ened	-1882
▁egg	-1883
ains	-1884
▁write	-1885
inging	-1886
▁By	-1887
▁daddy	-1888
▁mill	-1889
PAT	-1890
ana	-1891
1,	-1892
sc	-1893
iff	-1894
▁mouth	-1895
ept	-1896
ilt	-1897
▁reason	-1898
▁Because	-1899
▁sold	-1900
▁toy	-1901
▁jo	-1902
▁pat	-1903
overed	-1904
▁Ah	-1905
▁Am	-1906
▁company	-1907
imb	-1908
▁Se	-1909
▁women	-1910
ices	-1911
▁War	-1912
▁stra	-1913
▁cried	-1914
uly	-1915
▁chance	-1916
▁takes	-1917
000	-1918
▁Joe	-1919
uary	-1920
▁French	-1921
▁mod	-1922
No	-1923
iter	-1924
▁camp	-1925
▁opp	-1926
▁send	-1927
owed	-1928
▁da	-1929
▁Of	-1930
▁Man	-1931
eared	-1932
angu	-1933
urch	-1934
acher	-1935
aced	-1936
att	-1937
▁polit	-1938
▁spe	-1939
ead	-1940
fess	-1941
▁York	-1942
▁Jap	-1943
▁rele	-1944
oof	-1945
▁Dr	-1946
osp	-1947
▁pot	-1948
ued	-1949
icks	-1950
▁partic	-1951
ement	-1952
ousand	-1953
mon	-1954
▁ear	-1955
▁held	-1956
▁These	-1957
▁living	-1958
II	-1959
ounds	-1960
rict	-1961
▁become	-1962
raph	-1963
▁trouble	-1964
▁corn	-1965
▁among	-1966
EL	-1967
entle	-1968
TER	-1969
▁afraid	-1970
▁sitting	-1971
▁darling	-1972
ls	-1973
▁books	-1974
▁hit	-1975
▁phone	-1976
▁step	-1977
▁running	-1978
▁ap	-1979
▁Dad	-1980
▁fly	-1981
▁window	-1982
▁kept	-1983
▁doctor	-1984
▁vill	-1985
▁Jim	-1986
▁sal	-1987
▁tomorrow	-1988
▁truck	-1989
▁surpr	-1990
eng	-1991
▁fix	-1992
▁conc	-1993
olly	-1994
but	-1995
Well	-1996
enn	-1997
▁lived	-1998
ived	-1999
And	-2000
▁soft	-2001
▁cor	-2002
▁hi	-2003
▁ra	-2004
▁football	-2005
▁Geor	-2006
ford	-2007
▁15	-2008
▁AN	-2009
ping	-2010
ium	-2011
▁adm	-2012
▁ju	-2013
band	-2014
▁Please	-2015
iversity	-2016
▁195	-2017
▁ship	-2018
▁def	-2019
▁fur	-2020
▁fing	-2021
20	-2022
▁lov	-2023
yl	-2024
But	-2025
▁letter	-2026
▁Have	-2027
inning	-2028
▁par	-2029
UN	-2030
▁Dav	-2031
anger	-2032
▁Japan	-2033
▁17	-2034
▁usually	-2035
▁arm	-2036
▁Get	-2037
cil	-2038
alth	-2039
▁resp	-2040
▁thousand	-2041
▁catch	-2042
arch	-2043
▁answer	-2044
▁stood	-2045
irt	-2046
itten	-2047
▁married	-2048
de	-2049
▁birthday	-2050
▁ya	-2051
▁County	-2052
▁band	-2053
▁World	-2054
dden	-2055
▁[1	-2056
CDS	-2057
▁cond	-2058
▁lad	-2059
RI	-2060
▁Eur	-2061
▁ton	-2062
▁frog	-2063
ically	-2064
unk	-2065
LOI	-2066
▁touch	-2067
▁attack	-2068
oth	-2069
rie	-2070
▁sand	-2071
▁dad	-2072
▁hours	-2073
look	-2074
▁cross	-2075
2,	-2076
▁shop	-2077
▁heav	-2078
owers	-2079
ears	-2080
▁check	-2081
▁March	-2082
ange	-2083
▁June	-2084
▁bath	-2085
3.	-2086
aul	-2087
▁January	-2088
▁system	-2089
▁Gu	-2090
▁sudden	-2091
▁choo	-2092
▁nine	-2093
▁object	-2094
▁194	-2095
▁10	-2096
▁problem	-2097
▁fil	-2098
▁clear	-2099
▁lots	-2100
ode	-2101
▁Sw	-2102
▁perhaps	-2103
ox	-2104
mas	-2105
iddle	-2106
▁Sam	-2107
teen	-2108
▁Col	-2109
▁ord	-2110
▁Frank	-2111
▁exper	-2112
bum	-2113
ional	-2114
net	-2115
▁suppose	-2116
ract	-2117
▁Phil	-2118
▁hist	-2119
▁tired	-2120
▁special	-2121
▁king	-2122
urs	-2123
▁block	-2124
▁north	-2125
▁kiss	-2126
▁ann	-2127
▁seems	-2128
▁TO	-2129
▁tem	-2130
▁named	-2131
ility	-2132
▁mer	-2133
▁Hello	-2134
GRA	-2135
▁report	-2136
▁langu	-2137
aint	-2138
▁daughter	-2139
▁appro	-2140
ient	-2141
▁killed	-2142
▁clothes	-2143
asure	-2144
▁points	-2145
▁Ne	-2146
com	-2147
▁gra	-2148
▁mount	-2149
▁hus	-2150
ugust	-2151
▁knows	-2152
▁yours	-2153
over	-2154
▁dream	-2155
ccess	-2156
▁forget	-2157
▁press	-2158
ude	-2159
pril	-2160
oman	-2161
▁blood	-2162
▁post	-2163
▁everybody	-2164
wered	-2165
ored	-2166
▁rain	-2167
▁mum	-2168
▁gentle	-2169
▁easy	-2170
ADU	-2171
though	-2172
▁themselves	-2173
point	-2174
▁dra	-2175
RE	-2176
▁Erm	-2177
▁replied	-2178
ality	-2179
▁low	-2180
▁released	-2181
▁straight	-2182
▁waiting	-2183
That	-2184
▁CH	-2185
▁Captain	-2186
▁lovely	-2187
▁eating	-2188
ott	-2189
ron	-2190
lly	-2191
▁dat	-2192
amer	-2193
▁months	-2194
▁eye	-2195
▁Any	-2196
▁throw	-2197
ories	-2198
▁South	-2199
▁answered	-2200
vision	-2201
velop	-2202
▁coup	-2203
▁series	-2204
ays	-2205
▁shoes	-2206
itch	-2207
makes	-2208
▁hors	-2209
inal	-2210
▁Pres	-2211
▁lives	-2212
▁Par	-2213
▁ill	-2214
FCH	-2215
actly	-2216
▁Bet	-2217
▁hop	-2218
▁har	-2219
▁tonight	-2220
amb	-2221
▁within	-2222
▁deep	-2223
▁hang	-2224
▁nose	-2225
▁kids	-2226
▁sounds	-2227
raz	-2228
more	-2229
5.	-2230
▁British	-2231
▁ain	-2232
AP	-2233
▁whether	-2234
▁fit	-2235
▁possible	-2236
▁sail	-2237
ler	-2238
▁album	-2239
▁16	-2240
▁careful	-2241
▁husband	-2242
▁sca	-2243
▁government	-2244
▁gold	-2245
▁worked	-2246
gue	-2247
▁charac	-2248
▁spec	-2249
▁moved	-2250
aged	-2251
4.	-2252
▁cow	-2253
uit	-2254
▁duck	-2255
stairs	-2256
▁juice	-2257
▁August	-2258
ager	-2259
▁cannot	-2260
▁passed	-2261
3:	-2262
▁Cal	-2263
par	-2264
▁div	-2265
rol	-2266
ctober	-2267
arden	-2268
▁forgot	-2269
que	-2270
unic	-2271
▁Ste	-2272
▁North	-2273
▁fa	-2274
▁field	-2275
▁event	-2276
fast	-2277
cient	-2278
ek	-2279
▁police	-2280
hant	-2281
▁proper	-2282
uts	-2283
▁safe	-2284
▁putting	-2285
▁danger	-2286
▁luck	-2287
che	-2288
ances	-2289
▁doub	-2290
NA	-2291
▁diffic	-2292
▁]	-2293
▁Peter	-2294
3,	-2295
▁couple	-2296
▁slow	-2297
urd	-2298
▁Europe	-2299
ovember	-2300
▁broken	-2301
▁single	-2302
▁const	-2303
▁noises	-2304
AL	-2305
ulation	-2306
▁Mary	-2307
▁forward	-2308
▁Mc	-2309
▁Maybe	-2310
▁river	-2311
▁however	-2312
▁longer	-2313
AS	-2314
▁puts	-2315
reed	-2316
joy	-2317
pes	-2318
eptember	-2319
CHILD	-2320
hern	-2321
▁quickly	-2322
▁above	-2323
▁arms	-2324
▁Dan	-2325
▁Was	-2326
friend	-2327
CHILDES	-2328
▁childes	-2329
▁ring	-2330
cember	-2331
▁toward	-2332
ardon	-2333
▁favor	-2334
▁April	-2335
▁success	-2336
▁shot	-2337
7.	-2338
ai	-2339
▁office	-2340
▁Je	-2341
▁193	-2342
▁member	-2343
ffect	-2344
▁board	-2345
▁England	-2346
▁evening	-2347
▁October	-2348
▁breat	-2349
▁towards	-2350
unny	-2351
▁excl	-2352
omb	-2353
▁Min	-2354
▁seem	-2355
▁pretend	-2356
ging	-2357
He	-2358
gas	-2359
8.	-2360
come	-2361
▁knock	-2362
▁det	-2363
▁var	-2364
gram	-2365
▁bott	-2366
lex	-2367
▁chick	-2368
aser	-2369
▁arri	-2370
▁anyway	-2371
ral	-2372
6.	-2373
ior	-2374
▁cos	-2375
aimed	-2376
▁national	-2377
▁wow	-2378
ruary	-2379
ebruary	-2380
▁wat	-2381
▁mist	-2382
ience	-2383
▁reached	-2384
9.	-2385
▁glass	-2386
▁la	-2387
ining	-2388
▁caught	-2389
▁November	-2390
▁See	-2391
▁grow	-2392
▁building	-2393
▁ve	-2394
▁orange	-2395
▁seat	-2396
▁needs	-2397
▁elect	-2398
▁sight	-2399
udd	-2400
rat	-2401
4,	-2402
▁July	-2403
▁feeling	-2404
▁Lea	-2405
attle	-2406
▁third	-2407
▁nearly	-2408
▁Christmas	-2409
fer	-2410
▁drive	-2411
▁cool	-2412
▁Mart	-2413
▁equ	-2414
▁visit	-2415
▁September	-2416
▁whose	-2417
▁oper	-2418
▁snow	-2419
▁ahead	-2420
▁common	-2421
▁station	-2422
▁million	-2423
▁abs	-2424
phone	-2425
▁esc	-2426
terday	-2427
▁treat	-2428
yn	-2429
let	-2430
▁Su	-2431
▁cry	-2432
▁department	-2433
▁December	-2434
▁Qu	-2435
▁engine	-2436
▁shar	-2437
▁OF	-2438
▁clos	-2439
ggest	-2440
▁David	-2441
itchen	-2442
▁telling	-2443
you	-2444
▁worry	-2445
▁From	-2446
▁former	-2447
con	-2448
▁effect	-2449
gest	-2450
▁whatever	-2451
rop	-2452
▁places	-2453
▁dest	-2454
▁parent	-2455
▁returned	-2456
▁cray	-2457
▁orig	-2458
vocal	-2459
▁circ	-2460
▁warm	-2461
▁human	-2462
▁lie	-2463
ograph	-2464
ondon	-2465
▁Carl	-2466
ills	-2467
▁suggest	-2468
▁standing	-2469
▁Sir	-2470
▁Ke	-2471
▁trees	-2472
▁television	-2473
▁cover	-2474
uced	-2475
▁hungry	-2476
▁sol	-2477
▁February	-2478
▁Paul	-2479
ample	-2480
▁changed	-2481
▁shout	-2482
▁stat	-2483
▁cal	-2484
ED	-2485
▁cake	-2486
▁broke	-2487
IC	-2488
▁stopped	-2489
ien	-2490
▁enjoy	-2491
noon	-2492
▁stri	-2493
▁develop	-2494
▁ride	-2495
▁instead	-2496
emy	-2497
▁club	-2498
▁anyone	-2499
▁public	-2500
ander	-2501
▁Che	-2502
▁val	-2503
▁climb	-2504
▁strange	-2505
▁kitchen	-2506
rod	-2507
▁breakfast	-2508
▁meant	-2509
▁eh	-2510
▁cause	-2511
▁bye	-2512
▁Pat	-2513
ips	-2514
iny	-2515
▁cost	-2516
▁fear	-2517
5,	-2518
▁built	-2519
▁village	-2520
IT	-2521
▁bow	-2522
▁Gl	-2523
▁London	-2524
▁push	-2525
▁Em	-2526
▁player	-2527
▁disapp	-2528
▁tick	-2529
llustr	-2530
▁University	-2531
▁view	-2532
▁Rep	-2533
--------	-2534
▁organ	-2535
▁bread	-2536
▁pupp	-2537
▁Comm	-2538
▁Helen	-2539
▁super	-2540
▁region	-2541
▁decided	-2542
▁profess	-2543
▁est	-2544
▁Mark	-2545
▁opened	-2546
▁fill	-2547
uct	-2548
▁Thanks	-2549
▁carry	-2550
rible	-2551
▁yesterday	-2552
▁swim	-2553
ffic	-2554
▁wild	-2555
▁(19	-2556
▁supposed	-2557
uce	-2558
▁bes	-2559
▁dem	-2560
▁tape	-2561
▁teacher	-2562
▁led	-2563
▁support	-2564
▁afternoon	-2565
▁island	-2566
▁butter	-2567
▁direct	-2568
ology	-2569
▁save	-2570
▁exactly	-2571
▁Mother	-2572
▁test	-2573
▁perfect	-2574
▁followed	-2575
▁Ital	-2576
▁2020	-2577
ause	-2578
▁nin	-2579
oops	-2580
▁written	-2581
▁Ele	-2582
▁career	-2583
▁fellow	-2584
unity	-2585
ustral	-2586
▁track	-2587
hile	-2588
▁West	-2589
▁store	-2590
▁Fraser	-2591
mbers	-2592
▁season	-2593
▁prison	-2594
.'	-2595
▁indeed	-2596
co	-2597
cially	-2598
▁Gre	-2599
een	-2600
▁Great	-2601
▁turns	-2602
idence	-2603
vol	-2604
▁bright	-2605
▁whom	-2606
▁heavy	-2607
▁12	-2608
ospital	-2609
▁whis	-2610
▁Lord	-2611
8,	-2612
▁pack	-2613
ror	-2614
▁ow	-2615
▁av	-2616
▁position	-2617
▁weeks	-2618
▁miles	-2619
▁garden	-2620
▁Cr	-2621
▁pieces	-2622
▁learn	-2623
▁desc	-2624
ET	-2625
mother	-2626
ffee	-2627
▁park	-2628
bor	-2629
▁George	-2630
▁Like	-2631
▁sick	-2632
▁smil	-2633
ceed	-2634
▁cre	-2635
▁middle	-2636
▁works	-2637
▁Mad	-2638
▁Take	-2639
▁ir	-2640
▁ban	-2641
▁except	-2642
▁following	-2643
uel	-2644
▁Austral	-2645
▁Sm	-2646
▁using	-2647
▁protect	-2648
▁rad	-2649
OM	-2650
9,	-2651
ases	-2652
▁Russ	-2653
▁First	-2654
oul	-2655
▁ru	-2656
▁Two	-2657
▁brown	-2658
▁AND	-2659
▁City	-2660
ended	-2661
▁certainly	-2662
gen	-2663
▁requ	-2664
▁secret	-2665
▁ut	-2666
▁quar	-2667
▁mis	-2668
▁Wait	-2669
bles	-2670
▁sus	-2671
▁bought	-2672
▁hasn	-2673
▁belong	-2674
7,	-2675
▁added	-2676
▁happens	-2677
▁maj	-2678
▁National	-2679
▁ang	-2680
▁inform	-2681
▁stuck	-2682
▁Mag	-2683
▁farm	-2684
▁finish	-2685
▁Hi	-2686
▁truth	-2687
GH	-2688
▁complete	-2689
omin	-2690
go	-2691
▁giving	-2692
▁appear	-2693
uk	-2694
gar	-2695
ician	-2696
ushed	-2697
▁di	-2698
▁pardon	-2699
ales	-2700
night	-2701
empt	-2702
LE	-2703
▁program	-2704
ula	-2705
▁decl	-2706
▁pract	-2707
uthor	-2708
▁bottom	-2709
▁fort	-2710
▁street	-2711
▁cast	-2712
▁Indian	-2713
▁earth	-2714
▁watching	-2715
▁wrote	-2716
▁President	-2717
'.	-2718
▁lunch	-2719
▁worth	-2720
▁south	-2721
▁somewhere	-2722
ground	-2723
bed	-2724
▁lau	-2725
▁holding	-2726
▁Lou	-2727
▁Nor	-2728
board	-2729
▁doubt	-2730
iday	-2731
▁mad	-2732
▁language	-2733
▁Part	-2734
▁anybody	-2735
nel	-2736
▁OK	-2737
▁figure	-2738
▁shoot	-2739
singing	-2740
andy	-2741
6,	-2742
lie	-2743
▁List	-2744
▁Aunt	-2745
▁leaving	-2746
▁honey	-2747
ichael	-2748
▁ooh	-2749
igg	-2750
▁vi	-2751
ishing	-2752
ege	-2753
▁legs	-2754
▁general	-2755
▁district	-2756
▁Pol	-2757
▁Somet	-2758
▁members	-2759
▁example	-2760
▁base	-2761
fl	-2762
▁ought	-2763
▁church	-2764
▁lift	-2765
▁prop	-2766
▁dev	-2767
▁captain	-2768
ouncil	-2769
▁coffee	-2770
▁emp	-2771
▁loc	-2772
▁hol	-2773
▁tast	-2774
▁service	-2775
dom	-2776
ray	-2777
▁busy	-2778
tered	-2779
bur	-2780
child	-2781
▁sell	-2782
▁everyone	-2783
▁$	-2784
▁hig	-2785
▁mach	-2786
▁level	-2787
▁elep	-2788
box	-2789
▁bas	-2790
▁cop	-2791
▁‘	-2792
SI	-2793
▁flowers	-2794
▁character	-2795
▁neck	-2796
izz	-2797
▁fail	-2798
▁Sorry	-2799
▁space	-2800
▁anymore	-2801
▁summer	-2802
▁difficult	-2803
ille	-2804
resent	-2805
ogn	-2806
▁Even	-2807
▁Bill	-2808
▁However	-2809
▁history	-2810
▁consider	-2811
iers	-2812
gu	-2813
▁laughs	-2814
hold	-2815
▁neigh	-2816
▁moving	-2817
▁received	-2818
▁exclaimed	-2819
▁ce	-2820
▁pictures	-2821
▁master	-2822
▁tail	-2823
▁imag	-2824
oop	-2825
time	-2826
Th	-2827
▁Tell	-2828
▁thirty	-2829
APTER	-2830
US	-2831
itted	-2832
▁Black	-2833
ified	-2834
▁Ell	-2835
▁cab	-2836
▁parents	-2837
nect	-2838
▁fifty	-2839
work	-2840
▁reach	-2841
▁trust	-2842
▁defe	-2843
aff	-2844
nie	-2845
▁hole	-2846
ressed	-2847
ancy	-2848
▁thanks	-2849
▁spir	-2850
erry	-2851
▁sad	-2852
▁Rea	-2853
af	-2854
▁cars	-2855
Why	-2856
▁Rober	-2857
▁suddenly	-2858
▁carried	-2859
▁including	-2860
ounter	-2861
▁sense	-2862
▁America	-2863
▁result	-2864
▁CHAPTER	-2865
▁hospital	-2866
▁WH	-2867
▁bottle	-2868
eal	-2869
▁cheese	-2870
itty	-2871
ift	-2872
ording	-2873
▁commune	-2874
▁Hen	-2875
▁Brown	-2876
▁lock	-2877
ky	-2878
▁Cent	-2879
▁spoke	-2880
▁card	-2881
▁rising	-2882
bye	-2883
▁compan	-2884
▁burn	-2885
▁tot	-2886
▁major	-2887
pecially	-2888
▁stru	-2889
▁weren	-2890
▁animal	-2891
▁Michael	-2892
mpions	-2893
that	-2894
lin	-2895
kes	-2896
uation	-2897
▁port	-2898
▁comfort	-2899
▁mix	-2900
▁accept	-2901
▁James	-2902
▁population	-2903
eddy	-2904
▁chicken	-2905
,--	-2906
king	-2907
▁appeared	-2908
uty	-2909
▁yep	-2910
AY	-2911
▁plays	-2912
ocol	-2913
▁loud	-2914
▁beginning	-2915
ti	-2916
ino	-2917
▁further	-2918
▁William	-2919
ada	-2920
rupt	-2921
▁mat	-2922
rel	-2923
iger	-2924
cent	-2925
▁Uncle	-2926
Illustr	-2927
▁convers	-2928
▁horses	-2929
mm	-2930
▁pink	-2931
points	-2932
view	-2933
mie	-2934
ination	-2935
hel	-2936
▁bank	-2937
▁compet	-2938
resh	-2939
▁Mon	-2940
▁walking	-2941
▁Mama	-2942
▁race	-2943
bers	-2944
▁Sar	-2945
▁allowed	-2946
▁puzz	-2947
▁spot	-2948
▁rul	-2949
▁contain	-2950
▁vol	-2951
house	-2952
cer	-2953
lo	-2954
riage	-2955
▁recogn	-2956
iod	-2957
har	-2958
▁current	-2959
▁rab	-2960
▁feed	-2961
gasps	-2962
▁collect	-2963
OW	-2964
▁god	-2965
▁crying	-2966
▁seeing	-2967
▁corner	-2968
form	-2969
sings	-2970
▁gas	-2971
▁design	-2972
▁although	-2973
▁pounds	-2974
acing	-2975
estern	-2976
▁Harry	-2977
▁walked	-2978
▁IT	-2979
Illustration	-2980
▁dropped	-2981
▁likes	-2982
▁lose	-2983
▁self	-2984
▁hast	-2985
ization	-2986
▁vide	-2987
ghed	-2988
▁192	-2989
ume	-2990
▁prin	-2991
▁natur	-2992
▁grass	-2993
▁Ser	-2994
iced	-2995
ggy	-2996
asket	-2997
▁pock	-2998
▁camer	-2999
▁moon	-3000
▁continued	-3001
▁Nin	-3002
▁dry	-3003
▁games	-3004
▁obs	-3005
▁meeting	-3006
roll	-3007
▁jour	-3008
▁wash	-3009
▁En	-3010
▁bra	-3011
like	-3012
▁mid	-3013
▁remark	-3014
▁apple	-3015
▁spend	-3016
▁Sec	-3017
▁letters	-3018
▁priv	-3019
▁wide	-3020
▁beat	-3021
▁dance	-3022
▁term	-3023
ades	-3024
lished	-3025
acy	-3026
izes	-3027
▁dam	-3028
▁account	-3029
asant	-3030
▁tall	-3031
▁attention	-3032
ounced	-3033
ya	-3034
olute	-3035
▁Afric	-3036
cell	-3037
clock	-3038
▁danc	-3039
▁president	-3040
▁Billy	-3041
▁fle	-3042
play	-3043
what	-3044
how	-3045
▁tor	-3046
▁entire	-3047
▁picks	-3048
▁teeth	-3049
▁jack	-3050
▁wonderful	-3051
▁Rob	-3052
AM	-3053
▁Que	-3054
▁ate	-3055
▁Father	-3056
▁vict	-3057
gie	-3058
▁holds	-3059
▁distance	-3060
roy	-3061
There	-3062
well	-3063
rit	-3064
▁author	-3065
▁gen	-3066
whis	-3067
▁plate	-3068
▁respect	-3069
▁Ag	-3070
▁wet	-3071
▁local	-3072
ID	-3073
unicip	-3074
uture	-3075
▁People	-3076
▁shape	-3077
▁nobody	-3078
▁Mot	-3079
▁Roman	-3080
oose	-3081
▁information	-3082
ript	-3083
▁Span	-3084
▁Jul	-3085
▁leaves	-3086
▁cream	-3087
▁created	-3088
▁county	-3089
▁itself	-3090
wood	-3091
▁necess	-3092
now	-3093
▁based	-3094
ida	-3095
▁shouldn	-3096
▁century	-3097
▁popular	-3098
▁lab	-3099
▁health	-3100
▁yum	-3101
ission	-3102
▁type	-3103
bert	-3104
▁14	-3105
▁delight	-3106
itions	-3107
▁Mor	-3108
vin	-3109
▁silence	-3110
▁control	-3111
▁match	-3112
ius	-3113
▁laughed	-3114
▁favorite	-3115
▁liked	-3116
aven	-3117
elve	-3118
light	-3119
▁nor	-3120
▁11	-3121
▁uhoh	-3122
aves	-3123
ression	-3124
ala	-3125
olved	-3126
▁eggs	-3127
▁interesting	-3128
▁Germany	-3129
aps	-3130
rian	-3131
▁..	-3132
▁writing	-3133
por	-3134
▁Stop	-3135
noise	-3136
▁ears	-3137
▁shut	-3138
medi	-3139
gel	-3140
▁Sy	-3141
▁hide	-3142
off	-3143
str	-3144
▁Really	-3145
itive	-3146
▁wel	-3147
▁capital	-3148
▁Bobby	-3149
▁period	-3150
▁Nothing	-3151
▁interested	-3152
chan	-3153
cher	-3154
itz	-3155
▁mention	-3156
▁sky	-3157
▁jud	-3158
looks	-3159
bs	-3160
▁dig	-3161
pered	-3162
▁die	-3163
ounded	-3164
▁vers	-3165
▁famous	-3166
▁key	-3167
▁grew	-3168
▁13	-3169
▁silver	-3170
chn	-3171
ston	-3172
VE	-3173
▁perfor	-3174
ato	-3175
▁force	-3176
iller	-3177
arr	-3178
▁Red	-3179
▁parts	-3180
▁stars	-3181
ads	-3182
icy	-3183
uge	-3184
ipe	-3185
▁questions	-3186
▁laughing	-3187
oom	-3188
▁paid	-3189
raft	-3190
ilar	-3191
▁leng	-3192
osaur	-3193
▁chocol	-3194
▁Give	-3195
▁drop	-3196
▁norm	-3197
ply	-3198
▁hall	-3199
ashed	-3200
▁cell	-3201
rs	-3202
CAR	-3203
▁bell	-3204
▁future	-3205
▁serious	-3206
▁crayon	-3207
▁Jo	-3208
het	-3209
▁finally	-3210
▁Park	-3211
ires	-3212
iment	-3213
▁names	-3214
▁alive	-3215
▁command	-3216
astic	-3217
lt	-3218
▁phot	-3219
▁starts	-3220
▁Ant	-3221
▁army	-3222
icro	-3223
RY	-3224
field	-3225
▁pet	-3226
▁Sure	-3227
▁smell	-3228
▁needed	-3229
▁anx	-3230
▁pub	-3231
▁Dor	-3232
▁incre	-3233
▁Robert	-3234
How	-3235
ustom	-3236
▁Betty	-3237
▁aut	-3238
▁gives	-3239
▁showed	-3240
▁exam	-3241
▁reading	-3242
owd	-3243
ivil	-3244
▁birds	-3245
ipped	-3246
Don	-3247
▁mur	-3248
eneral	-3249
name	-3250
▁singing	-3251
▁Alex	-3252
iforn	-3253
▁Would	-3254
sp	-3255
val	-3256
▁tur	-3257
▁loved	-3258
▁Act	-3259
▁surprise	-3260
▁charge	-3261
isted	-3262
▁attempt	-3263
▁sle	-3264
rap	-3265
▁lying	-3266
▁elephant	-3267
▁Luc	-3268
▁⌊	-3269
▁clever	-3270
▁sheep	-3271
▁mem	-3272
▁closed	-3273
▁INV	-3274
▁hous	-3275
▁bridge	-3276
▁plant	-3277
itary	-3278
▁Maj	-3279
▁officer	-3280
▁House	-3281
_,	-3282
▁rub	-3283
If	-3284
viously	-3285
▁wheel	-3286
irm	-3287
soci	-3288
▁Mat	-3289
▁spl	-3290
▁none	-3291
▁speed	-3292
▁smile	-3293
▁Californ	-3294
▁Listen	-3295
▁camera	-3296
rief	-3297
▁Jwww	-3298
▁finger	-3299
ids	-3300
▁⌈	-3301
▁Our	-3302
▁trad	-3303
va	-3304
cious	-3305
ites	-3306
▁accident	-3307
▁River	-3308
▁especially	-3309
▁hy	-3310
▁Many	-3311
▁film	-3312
▁slowly	-3313
▁below	-3314
▁share	-3315
▁subject	-3316
▁scared	-3317
▁bene	-3318
ploy	-3319
▁bigger	-3320
▁comput	-3321
set	-3322
▁asking	-3323
▁prep	-3324
▁(1	-3325
▁Jes	-3326
ument	-3327
isf	-3328
▁basket	-3329
▁connect	-3330
ival	-3331
▁Blue	-3332
▁Fred	-3333
▁pray	-3334
▁inn	-3335
▁California	-3336
,'	-3337
ichard	-3338
▁Hist	-3339
▁conversation	-3340
▁Bon	-3341
▁iss	-3342
▁invest	-3343
▁Co	-3344
orts	-3345
▁video	-3346
anor	-3347
▁bang	-3348
pers	-3349
omes	-3350
▁capt	-3351
▁Intern	-3352
▁viol	-3353
ATT	-3354
▁Sund	-3355
oly	-3356
▁Amy	-3357
▁problems	-3358
▁due	-3359
xic	-3360
▁twelve	-3361
▁tit	-3362
ann	-3363
▁terrible	-3364
sy	-3365
▁Cor	-3366
hood	-3367
ica	-3368
iles	-3369
lymp	-3370
▁chief	-3371
yle	-3372
▁asleep	-3373
ili	-3374
bl	-3375
▁fresh	-3376
▁ep	-3377
▁shows	-3378
▁Sant	-3379
▁municip	-3380
▁US	-3381
▁Henry	-3382
")	-3383
▁repe	-3384
eder	-3385
▁pig	-3386
▁court	-3387
▁infl	-3388
▁spoon	-3389
▁extra	-3390
iant	-3391
aching	-3392
▁coat	-3393
▁activ	-3394
▁promise	-3395
▁chocolate	-3396
▁peace	-3397
▁direction	-3398
▁host	-3399
▁Party	-3400
▁comb	-3401
▁educ	-3402
▁remain	-3403
▁tow	-3404
▁mass	-3405
▁immedi	-3406
▁sleeping	-3407
▁Richard	-3408
▁ye	-3409
▁van	-3410
▁Little	-3411
▁gar	-3412
▁picked	-3413
▁Bel	-3414
▁fright	-3415
▁pocket	-3416
▁Most	-3417
▁countries	-3418
▁rose	-3419
▁separ	-3420
▁species	-3421
▁helped	-3422
▁Olymp	-3423
▁Ros	-3424
ether	-3425
▁India	-3426
▁East	-3427
▁din	-3428
inary	-3429
▁("	-3430
uten	-3431
▁Coll	-3432
▁machine	-3433
cuse	-3434
alley	-3435
ably	-3436
▁fingers	-3437
._	-3438
▁served	-3439
▁stage	-3440
▁breath	-3441
wise	-3442
▁30	-3443
▁circle	-3444
▁Mer	-3445
▁adult	-3446
St	-3447
▁Only	-3448
▁Bo	-3449
▁shore	-3450
uction	-3451
ods	-3452
kin	-3453
kn	-3454
gged	-3455
▁accom	-3456
▁slight	-3457
▁dogs	-3458
▁straw	-3459
▁west	-3460
▁hardly	-3461
▁La	-3462
▁talked	-3463
▁pal	-3464
▁spent	-3465
▁rob	-3466
nes	-3467
▁earl	-3468
under	-3469
▁tour	-3470
yond	-3471
▁rap	-3472
▁Govern	-3473
▁learned	-3474
pose	-3475
▁turning	-3476
▁crowd	-3477
▁joined	-3478
▁represent	-3479
pping	-3480
gs	-3481
inite	-3482
ris	-3483
▁monkey	-3484
▁covered	-3485
▁amount	-3486
FAD	-3487
ingly	-3488
▁Does	-3489
▁pers	-3490
illa	-3491
▁politician	-3492
aper	-3493
▁older	-3494
▁include	-3495
▁forty	-3496
epend	-3497
uses	-3498
▁upstairs	-3499
▁spread	-3500
▁Very	-3501
▁process	-3502
▁ways	-3503
▁forest	-3504
▁situation	-3505
▁fol	-3506
conom	-3507
▁likely	-3508
▁drawing	-3509
cience	-3510
▁caused	-3511
▁Mus	-3512
olf	-3513
▁blank	-3514
▁sum	-3515
lands	-3516
ville	-3517
▁San	-3518
▁&	-3519
▁kick	-3520
▁study	-3521
edd	-3522
ils	-3523
▁welcome	-3524
olutely	-3525
bour	-3526
aker	-3527
elle	-3528
outs	-3529
atic	-3530
ka	-3531
▁Sue	-3532
▁League	-3533
▁hurry	-3534
▁battle	-3535
rect	-3536
▁sna	-3537
▁Mal	-3538
▁)	-3539
▁uncle	-3540
ests	-3541
hire	-3542
▁fre	-3543
of	-3544
▁Ol	-3545
▁General	-3546
▁fem	-3547
▁Paris	-3548
▁sevent	-3549
▁stone	-3550
▁concern	-3551
▁ON	-3552
▁Japanese	-3553
▁cloud	-3554
▁Med	-3555
▁rid	-3556
▁calling	-3557
▁Ber	-3558
▁ver	-3559
▁100	-3560
▁During	-3561
uted	-3562
▁Big	-3563
▁tend	-3564
UT	-3565
▁join	-3566
▁spring	-3567
▁meat	-3568
ex	-3569
atives	-3570
▁Bro	-3571
▁stories	-3572
▁(2	-3573
▁occas	-3574
▁search	-3575
▁excuse	-3576
▁rail	-3577
Now	-3578
▁cand	-3579
▁1,	-3580
▁satisf	-3581
ushing	-3582
▁dollars	-3583
▁Hall	-3584
▁oops	-3585
▁Sarah	-3586
ference	-3587
▁square	-3588
▁Anne	-3589
▁similar	-3590
▁Bur	-3591
▁ris	-3592
▁Jane	-3593
▁Other	-3594
▁rabbit	-3595
antly	-3596
ita	-3597
▁Aust	-3598
▁aff	-3599
anda	-3600
▁mountain	-3601
▁scr	-3602
▁worse	-3603
UNK	-3604
▁Eleanor	-3605
oses	-3606
TUR	-3607
▁natural	-3608
▁size	-3609
▁High	-3610
reek	-3611
▁guard	-3612
cul	-3613
▁Old	-3614
▁explain	-3615
▁declared	-3616
ams	-3617
▁Bab	-3618
▁silly	-3619
▁entered	-3620
aded	-3621
▁driving	-3622
▁Its	-3623
erve	-3624
razy	-3625
la	-3626
▁Tony	-3627
▁lim	-3628
▁broad	-3629
order	-3630
They	-3631
▁rich	-3632
'?	-3633
▁beha	-3634
▁Their	-3635
▁possib	-3636
▁sett	-3637
▁enemy	-3638
▁crack	-3639
ensus	-3640
▁enc	-3641
▁path	-3642
▁rese	-3643
lect	-3644
10	-3645
ously	-3646
▁Which	-3647
▁clock	-3648
▁discuss	-3649
▁II	-3650
▁eff	-3651
▁Um	-3652
ency	-3653
▁length	-3654
▁den	-3655
isy	-3656
oyal	-3657
▁Republic	-3658
▁hiding	-3659
reme	-3660
▁naught	-3661
▁dressed	-3662
▁trip	-3663
▁sandw	-3664
▁final	-3665
▁steps	-3666
▁relig	-3667
▁Before	-3668
▁lines	-3669
▁particular	-3670
▁Sunday	-3671
▁forth	-3672
ergy	-3673
▁missing	-3674
LA	-3675
▁winter	-3676
▁Mac	-3677
▁sex	-3678
ns	-3679
▁Carol	-3680
▁respons	-3681
erved	-3682
▁emb	-3683
gon	-3684
▁hate	-3685
▁25	-3686
▁ma	-3687
▁Australia	-3688
▁Ann	-3689
IR	-3690
▁role	-3691
orthern	-3692
CK	-3693
aches	-3694
▁WE	-3695
▁fighting	-3696
SO	-3697
▁Laur	-3698
URS	-3699
▁beyond	-3700
▁BE	-3701
▁arrived	-3702
▁Wal	-3703
▁largest	-3704
▁apart	-3705
▁Since	-3706
▁angry	-3707
▁Minister	-3708
▁Lo	-3709
▁hill	-3710
▁bull	-3711
▁introd	-3712
▁blocks	-3713
▁various	-3714
▁Bert	-3715
▁movies	-3716
nam	-3717
arm	-3718
▁east	-3719
ribed	-3720
▁Say	-3721
▁directed	-3722
uke	-3723
essie	-3724
▁State	-3725
▁utter	-3726
col	-3727
]!	-3728
▁Doctor	-3729
▁tight	-3730
▁leader	-3731
▁destroy	-3732
▁streng	-3733
▁beside	-3734
elly	-3735
▁tiny	-3736
▁flat	-3737
▁teddy	-3738
sidered	-3739
▁hun	-3740
▁School	-3741
▁considered	-3742
▁action	-3743
▁ur	-3744
ography	-3745
zen	-3746
▁nurs	-3747
▁Jesus	-3748
▁numbers	-3749
▁agreed	-3750
▁ST	-3751
▁suit	-3752
▁flying	-3753
▁deter	-3754
▁History	-3755
▁difference	-3756
hem	-3757
▁tou	-3758
▁plane	-3759
hin	-3760
▁proud	-3761
▁Three	-3762
▁bite	-3763
ux	-3764
aud	-3765
imate	-3766
▁phys	-3767
▁Sim	-3768
▁ide	-3769
▁happening	-3770
ho	-3771
▁Child	-3772
gl	-3773
inct	-3774
▁Cup	-3775
▁spell	-3776
▁falling	-3777
▁medic	-3778
▁placed	-3779
astern	-3780
▁speaking	-3781
▁Got	-3782
▁Spanish	-3783
ially	-3784
/0	-3785
▁laid	-3786
▁pleasure	-3787
▁About	-3788
mit	-3789
▁wake	-3790
cture	-3791
▁Excuse	-3792
▁unless	-3793
▁Tur	-3794
▁simple	-3795
bre	-3796
reet	-3797
OO	-3798
▁refer	-3799
▁Air	-3800
ena	-3801
rer	-3802
ums	-3803
▁White	-3804
▁Ro	-3805
antic	-3806
action	-3807
▁rough	-3808
▁driver	-3809
▁sens	-3810
▁threw	-3811
▁tax	-3812
aturday	-3813
▁missed	-3814
▁Christian	-3815
▁discovered	-3816
▁fat	-3817
laughing	-3818
▁cult	-3819
▁Ac	-3820
arrow	-3821
▁Stan	-3822
▁→	-3823
nal	-3824
▁fool	-3825
▁colors	-3826
▁soldiers	-3827
▁puzzle	-3828
utenant	-3829
▁watched	-3830
▁bill	-3831
itude	-3832
▁onto	-3833
▁shoe	-3834
ails	-3835
▁Never	-3836
hered	-3837
▁thick	-3838
▁honest	-3839
▁weather	-3840
▁handle	-3841
...?	-3842
▁babies	-3843
fit	-3844
▁easily	-3845
ables	-3846
line	-3847
ciety	-3848
ached	-3849
hal	-3850
▁THAT	-3851
▁thinks	-3852
▁raised	-3853
My	-3854
▁paint	-3855
||0	-3856
oken	-3857
▁bud	-3858
▁escape	-3859
▁skin	-3860
ousin	-3861
▁oppos	-3862
▁buck	-3863
▁relations	-3864
▁wearing	-3865
rey	-3866
lend	-3867
▁demand	-3868
▁goin	-3869
▁joy	-3870
▁taste	-3871
▁Charles	-3872
▁pulled	-3873
▁temper	-3874
▁mir	-3875
▁hadn	-3876
▁anywhere	-3877
▁dangerous	-3878
▁houses	-3879
ples	-3880
▁begin	-3881
sha	-3882
▁Mhm	-3883
▁wha	-3884
▁lion	-3885
▁manage	-3886
ago	-3887
▁crit	-3888
▁spirit	-3889
▁dinosaur	-3890
▁eager	-3891
▁und	-3892
▁iron	-3893
ural	-3894
asons	-3895
idden	-3896
▁More	-3897
▁Queen	-3898
can	-3899
pens	-3900
▁scar	-3901
▁drew	-3902
▁offe	-3903
▁market	-3904
ira	-3905
LY	-3906
▁surprised	-3907
▁completely	-3908
azing	-3909
▁Louis	-3910
▁ham	-3911
▁While	-3912
oved	-3913
min	-3914
cks	-3915
▁formed	-3916
▁empty	-3917
▁Ham	-3918
father	-3919
ees	-3920
essel	-3921
▁college	-3922
▁starting	-3923
▁cere	-3924
▁Mexic	-3925
▁employ	-3926
▁grad	-3927
reen	-3928
stit	-3929
▁pun	-3930
▁moves	-3931
▁lid	-3932
▁naughty	-3933
iel	-3934
▁scene	-3935
▁professional	-3936
ivid	-3937
iled	-3938
▁Perhaps	-3939
▁woods	-3940
ashion	-3941
▁background	-3942
ups	-3943
▁Lee	-3944
▁crazy	-3945
▁Saturday	-3946
▁wit	-3947
face	-3948
▁tap	-3949
ularly	-3950
▁shirt	-3951
ences	-3952
oles	-3953
▁weap	-3954
▁mater	-3955
▁fault	-3956
▁Bu	-3957
▁trave	-3958
sey	-3959
▁micro	-3960
ighs	-3961
▁Tod	-3962
▁gate	-3963
▁sharp	-3964
▁crew	-3965
▁hero	-3966
▁mam	-3967
▁goodness	-3968
oring	-3969
▁techn	-3970
vocalizes	-3971
hand	-3972
▁Champions	-3973
heart	-3974
▁radio	-3975
asc	-3976
▁filled	-3977
▁Ha	-3978
▁HE	-3979
▁Mic	-3980
▁Anna	-3981
▁arrest	-3982
▁Nic	-3983
▁duty	-3984
▁nature	-3985
▁roof	-3986
OTH	-3987
outhern	-3988
gin	-3989
pin	-3990
onel	-3991
▁Tex	-3992
▁Port	-3993
▁immediately	-3994
cast	-3995
▁Sl	-3996
oves	-3997
▁Rem	-3998
▁computer	-3999
11	-4000
enny	-4001
▁regard	-4002
▁coast	-4003
▁puppet	-4004
▁threat	-4005
vious	-4006
icle	-4007
▁brush	-4008
▁manner	-4009
▁pleasant	-4010
cean	-4011
▁suff	-4012
▁fruit	-4013
▁social	-4014
vi	-4015
▁bound	-4016
▁ended	-4017
She	-4018
▁purple	-4019
IM	-4020
▁quarter	-4021
▁date	-4022
▁Bunny	-4023
▁civil	-4024
▁flower	-4025
utch	-4026
urse	-4027
▁expected	-4028
▁cabin	-4029
▁stran	-4030
▁Tim	-4031
▁deg	-4032
▁Mel	-4033
▁simply	-4034
All	-4035
▁announced	-4036
▁Scott	-4037
▁necessary	-4038
iest	-4039
oph	-4040
▁Charlie	-4041
yer	-4042
▁inj	-4043
picks	-4044
▁agree	-4045
Do	-4046
▁surv	-4047
▁needta	-4048
▁notice	-4049
▁tower	-4050
SIB	-4051
▁Steven	-4052
▁stream	-4053
▁actor	-4054
▁Could	-4055
▁vessel	-4056
▁therefore	-4057
▁higher	-4058
▁excited	-4059
▁influ	-4060
▁huge	-4061
▁Pre	-4062
▁Sch	-4063
▁believed	-4064
▁original	-4065
▁TV	-4066
▁European	-4067
▁fallen	-4068
▁tiger	-4069
▁opport	-4070
pa	-4071
▁faith	-4072
▁Foot	-4073
▁meaning	-4074
▁aud	-4075
▁dru	-4076
▁log	-4077
▁offer	-4078
▁pleased	-4079
▁thou	-4080
▁smart	-4081
▁cheer	-4082
▁custom	-4083
▁songs	-4084
▁sugar	-4085
▁lights	-4086
▁private	-4087
Then	-4088
▁cro	-4089
▁supper	-4090
▁experience	-4091
aine	-4092
.,	-4093
▁twice	-4094
▁plenty	-4095
rom	-4096
▁bless	-4097
roat	-4098
▁boo	-4099
▁Maggie	-4100
▁project	-4101
sil	-4102
▁bee	-4103
▁promised	-4104
▁political	-4105
▁pan	-4106
anced	-4107
▁military	-4108
▁modern	-4109
▁possess	-4110
▁lucky	-4111
▁purpose	-4112
▁allow	-4113
▁energy	-4114
▁plain	-4115
▁International	-4116
▁Grandma	-4117
▁usual	-4118
ae	-4119
▁Nat	-4120
▁dust	-4121
pper	-4122
ledge	-4123
ERE	-4124
▁Earth	-4125
▁travel	-4126
▁settle	-4127
puts	-4128
▁determ	-4129
▁Sal	-4130
▁lower	-4131
istan	-4132
inally	-4133
▁24	-4134
▁econom	-4135
▁soul	-4136
▁motor	-4137
▁snake	-4138
anch	-4139
▁whoops	-4140
ems	-4141
hest	-4142
▁kitty	-4143
▁singer	-4144
▁tone	-4145
▁painting	-4146
▁ident	-4147
▁Martin	-4148
ords	-4149
berry	-4150
▁edge	-4151
▁Des	-4152
▁Cath	-4153
▁grown	-4154
▁Pri	-4155
Not	-4156
▁Jose	-4157
▁brief	-4158
▁Dem	-4159
ossible	-4160
cip	-4161
she	-4162
▁feat	-4163
ours	-4164
itor	-4165
▁Gra	-4166
▁mostly	-4167
▁Gold	-4168
▁Council	-4169
ushes	-4170
▁awful	-4171
counter	-4172
▁produced	-4173
▁blow	-4174
▁municipality	-4175
▁depend	-4176
▁swimming	-4177
▁ge	-4178
van	-4179
▁net	-4180
▁Reg	-4181
ggie	-4182
ki	-4183
oups	-4184
ria	-4185
▁brave	-4186
▁grab	-4187
▁cart	-4188
▁runs	-4189
▁journey	-4190
abel	-4191
▁beach	-4192
▁haha	-4193
▁magic	-4194
▁note	-4195
▁gentleman	-4196
▁lake	-4197
takes	-4198
bing	-4199
ruction	-4200
mond	-4201
hips	-4202
ening	-4203
▁ant	-4204
▁Chan	-4205
don	-4206
▁indust	-4207
▁Sen	-4208
▁mouse	-4209
▁pin	-4210
▁saved	-4211
In	-4212
▁strength	-4213
▁Over	-4214
▁impro	-4215
ette	-4216
▁imagine	-4217
▁Max	-4218
ishes	-4219
oid	-4220
▁carefully	-4221
▁storm	-4222
▁trick	-4223
known	-4224
vey	-4225
bered	-4226
▁neg	-4227
brother	-4228
▁noticed	-4229
GHT	-4230
▁hotel	-4231
osing	-4232
ointed	-4233
bon	-4234
oted	-4235
▁Comp	-4236
▁Jud	-4237
usion	-4238
▁exist	-4239
▁Summer	-4240
▁opening	-4241
istr	-4242
▁Laura	-4243
This	-4244
▁earlier	-4245
▁terms	-4246
ators	-4247
cries	-4248
▁Texas	-4249
▁cookie	-4250
▁listening	-4251
aret	-4252
mar	-4253
eds	-4254
eer	-4255
ship	-4256
▁advent	-4257
▁choice	-4258
▁Street	-4259
▁interrupt	-4260
▁Union	-4261
chie	-4262
iber	-4263
▁message	-4264
▁mistake	-4265
▁evidence	-4266
▁Arab	-4267
CE	-4268
▁thus	-4269
FRI	-4270
▁Master	-4271
▁assist	-4272
▁officers	-4273
rance	-4274
▁seconds	-4275
▁smoke	-4276
▁scream	-4277
▁Mil	-4278
▁stret	-4279
▁Hon	-4280
bie	-4281
▁ordered	-4282
eg	-4283
uckles	-4284
agon	-4285
▁imm	-4286
▁deck	-4287
ively	-4288
▁slide	-4289
▁trail	-4290
initely	-4291
▁Put	-4292
hington	-4293
▁guns	-4294
▁191	-4295
▁pause	-4296
▁Russian	-4297
▁double	-4298
SOA	-4299
lebr	-4300
▁pound	-4301
▁dirty	-4302
▁attract	-4303
▁election	-4304
▁census	-4305
▁knife	-4306
▁Sometimes	-4307
▁sac	-4308
▁total	-4309
▁struck	-4310
▁growing	-4311
ugg	-4312
▁ladies	-4313
▁tears	-4314
ners	-4315
▁weight	-4316
itation	-4317
▁bomb	-4318
▁Pal	-4319
▁Italian	-4320
▁orders	-4321
▁button	-4322
▁choose	-4323
▁strugg	-4324
▁heads	-4325
ij	-4326
▁occup	-4327
oming	-4328
kins	-4329
▁delic	-4330
▁downstairs	-4331
▁pair	-4332
▁Del	-4333
OL	-4334
▁shad	-4335
tr	-4336
eech	-4337
▁newsp	-4338
▁nea	-4339
oons	-4340
▁involved	-4341
▁keeping	-4342
▁flag	-4343
▁marry	-4344
▁Kingdom	-4345
vere	-4346
inese	-4347
▁mummy	-4348
▁ME	-4349
▁non	-4350
eless	-4351
▁Scot	-4352
Is	-4353
ett	-4354
▁Hur	-4355
▁stairs	-4356
▁Italy	-4357
ental	-4358
▁Play	-4359
▁estab	-4360
▁epis	-4361
▁DO	-4362
▁cards	-4363
▁personal	-4364
30	-4365
▁calm	-4366
▁taught	-4367
▁wand	-4368
▁shake	-4369
▁Dar	-4370
▁China	-4371
▁stock	-4372
▁occur	-4373
▁fellows	-4374
▁rule	-4375
▁Canada	-4376
▁ble	-4377
▁earn	-4378
▁meal	-4379
eaks	-4380
▁Once	-4381
▁Cos	-4382
▁telephone	-4383
RYA	-4384
▁Wil	-4385
▁Washington	-4386
▁chem	-4387
▁walks	-4388
▁shoulder	-4389
▁bowl	-4390
▁nest	-4391
AK	-4392
▁Win	-4393
▁dancing	-4394
CAT	-4395
▁thee	-4396
▁Ross	-4397
burg	-4398
▁Those	-4399
▁calls	-4400
back	-4401
▁Acc	-4402
▁Club	-4403
istics	-4404
▁2018	-4405
▁pit	-4406
▁tells	-4407
ify	-4408
▁youth	-4409
▁lips	-4410
▁groups	-4411
▁vo	-4412
▁Rog	-4413
eman	-4414
▁tv	-4415
lected	-4416
▁Cong	-4417
▁Lady	-4418
▁Purd	-4419
▁amb	-4420
▁bother	-4421
▁remind	-4422
▁worried	-4423
▁gro	-4424
▁Bye	-4425
iction	-4426
pic	-4427
▁Hold	-4428
▁remem	-4429
▁continues	-4430
▁et	-4431
▁chap	-4432
▁Ire	-4433
▁bedroom	-4434
ucky	-4435
using	-4436
HE	-4437
▁whoa	-4438
▁row	-4439
▁disp	-4440
▁Love	-4441
▁areas	-4442
asp	-4443
▁published	-4444
izza	-4445
▁tong	-4446
▁regular	-4447
▁Dist	-4448
▁center	-4449
▁scient	-4450
▁Church	-4451
hah	-4452
▁address	-4453
▁begins	-4454
▁murder	-4455
ola	-4456
▁Flor	-4457
▁Adam	-4458
▁spoken	-4459
▁Out	-4460
has	-4461
urity	-4462
▁flight	-4463
▁fifteen	-4464
▁plants	-4465
ontin	-4466
▁Rock	-4467
▁Ned	-4468
umber	-4469
▁Boy	-4470
▁Friday	-4471
▁sides	-4472
mo	-4473
ero	-4474
▁Ken	-4475
omen	-4476
actor	-4477
▁fixed	-4478
bel	-4479
▁Sus	-4480
▁App	-4481
▁FOR	-4482
▁unc	-4483
aked	-4484
▁surr	-4485
▁Purdie	-4486
▁tries	-4487
▁[?	-4488
▁gall	-4489
▁Santa	-4490
▁Dep	-4491
▁toast	-4492
jo	-4493
⌉.	-4494
sing	-4495
▁Mont	-4496
▁forgotten	-4497
▁founded	-4498
▁Up	-4499
JEN	-4500
oured	-4501
▁Beck	-4502
▁firm	-4503
----------------	-4504
nce	-4505
▁Braz	-4506
▁teach	-4507
iring	-4508
▁title	-4509
▁closer	-4510
▁absolutely	-4511
host	-4512
▁Everything	-4513
icated	-4514
▁Day	-4515
ols	-4516
▁acqu	-4517
▁smaller	-4518
▁prepared	-4519
▁impossible	-4520
yy	-4521
▁rapid	-4522
pet	-4523
▁independ	-4524
ourt	-4525
▁community	-4526
▁director	-4527
▁Ir	-4528
▁pil	-4529
▁shown	-4530
gypt	-4531
▁Cle	-4532
ulf	-4533
,000	-4534
▁rocks	-4535
▁wedd	-4536
▁harm	-4537
ule	-4538
▁dise	-4539
gress	-4540
▁Keep	-4541
▁reaches	-4542
igs	-4543
ez	-4544
▁inqu	-4545
⌋.	-4546
ittee	-4547
VAL	-4548
▁claim	-4549
▁neither	-4550
▁Fort	-4551
berg	-4552
▁appre	-4553
▁aged	-4554
▁tun	-4555
▁Spain	-4556
ordon	-4557
▁Four	-4558
▁IS	-4559
▁vac	-4560
▁Ooh	-4561
▁Africa	-4562
▁sour	-4563
▁jumped	-4564
▁changes	-4565
▁honor	-4566
▁Mount	-4567
▁21	-4568
Peter	-4569
▁pour	-4570
▁managed	-4571
▁Green	-4572
ique	-4573
▁Brazil	-4574
-1	-4575
▁evident	-4576
aving	-4577
▁wheels	-4578
▁enter	-4579
▁Care	-4580
▁loves	-4581
fly	-4582
▁bunny	-4583
▁price	-4584
▁version	-4585
cend	-4586
imin	-4587
▁Eve	-4588
▁heat	-4589
▁Lat	-4590
▁boss	-4591
inger	-4592
edy	-4593
▁()	-4594
▁Franc	-4595
▁env	-4596
▁bump	-4597
||1	-4598
▁batter	-4599
▁mult	-4600
▁Ray	-4601
ashing	-4602
▁Island	-4603
▁Res	-4604
▁heaven	-4605
▁correct	-4606
▁plans	-4607
▁ninete	-4608
oughs	-4609
▁training	-4610
▁located	-4611
ari	-4612
▁loss	-4613
▁quietly	-4614
yr	-4615
VER	-4616
▁celebr	-4617
▁movement	-4618
▁gentlemen	-4619
▁brain	-4620
▁lem	-4621
▁rate	-4622
▁ho	-4623
▁emer	-4624
▁Smith	-4625
▁Cat	-4626
▁pool	-4627
▁normal	-4628
▁cousin	-4629
1)	-4630
▁Egypt	-4631
▁Chinese	-4632
▁medicine	-4633
▁bat	-4634
▁occasion	-4635
▁lap	-4636
▁oil	-4637
▁investig	-4638
▁Another	-4639
▁drinking	-4640
▁Mo	-4641
▁uhuh	-4642
arliam	-4643
▁sandwich	-4644
▁pill	-4645
▁Bear	-4646
▁pa	-4647
▁everywhere	-4648
do	-4649
isa	-4650
▁marriage	-4651
2)	-4652
▁eleven	-4653
▁education	-4654
▁desp	-4655
aning	-4656
▁contract	-4657
▁thy	-4658
▁opportunity	-4659
▁Mond	-4660
babbles	-4661
▁suggested	-4662
▁Mike	-4663
▁Alice	-4664
looking	-4665
▁AM	-4666
▁Law	-4667
▁carrying	-4668
▁(20	-4669
▁eld	-4670
▁ta	-4671
▁’	-4672
▁bal	-4673
▁cases	-4674
▁electric	-4675
▁stayed	-4676
rot	-4677
▁remained	-4678
▁Hal	-4679
urns	-4680
llen	-4681
▁trade	-4682
arliament	-4683
oms	-4684
arently	-4685
Come	-4686
▁speech	-4687
▁showing	-4688
--"	-4689
▁bits	-4690
▁intern	-4691
▁cred	-4692
▁papers	-4693
ching	-4694
▁print	-4695
▁generally	-4696
▁peas	-4697
▁individ	-4698
ios	-4699
ella	-4700
eping	-4701
Ch	-4702
▁finding	-4703
ruct	-4704
▁magaz	-4705
iron	-4706
▁Prince	-4707
▁tum	-4708
▁rules	-4709
▁23	-4710
▁actress	-4711
ipper	-4712
▁crime	-4713
eted	-4714
▁practice	-4715
▁bike	-4716
▁faces	-4717
▁softly	-4718
▁[2	-4719
pan	-4720
▁upset	-4721
▁Award	-4722
▁surface	-4723
▁falls	-4724
▁ancient	-4725
illed	-4726
▁kinds	-4727
▁Ver	-4728
ker	-4729
▁female	-4730
▁sch	-4731
▁mail	-4732
▁doors	-4733
▁rout	-4734
nic	-4735
west	-4736
▁fourth	-4737
▁Jean	-4738
ooh	-4739
▁Swed	-4740
▁avail	-4741
▁Kore	-4742
▁Bern	-4743
▁opin	-4744
▁pizza	-4745
▁events	-4746
▁Jew	-4747
▁Chic	-4748
▁exec	-4749
anche	-4750
▁Wind	-4751
▁Gar	-4752
▁bub	-4753
▁Something	-4754
▁associ	-4755
▁tie	-4756
▁condition	-4757
aled	-4758
▁product	-4759
OS	-4760
aries	-4761
▁percent	-4762
▁stands	-4763
▁mut	-4764
osta	-4765
▁polic	-4766
▁Olympics	-4767
▁province	-4768
cing	-4769
▁proceed	-4770
▁tent	-4771
▁fashion	-4772
▁leading	-4773
▁ourselves	-4774
aa	-4775
wing	-4776
▁grave	-4777
osh	-4778
▁Bea	-4779
iety	-4780
▁prim	-4781
▁range	-4782
▁offered	-4783
▁prevent	-4784
▁Lie	-4785
▁ninety	-4786
▁motion	-4787
▁weak	-4788
▁brothers	-4789
ata	-4790
Let	-4791
▁rope	-4792
▁Bessie	-4793
▁Ruth	-4794
▁aunt	-4795
▁liter	-4796
▁obviously	-4797
aft	-4798
▁shr	-4799
▁oo	-4800
▁ships	-4801
▁risk	-4802
▁Still	-4803
▁dolly	-4804
▁helping	-4805
▁Vir	-4806
▁Bart	-4807
▁opposite	-4808
▁50	-4809
▁decision	-4810
rees	-4811
▁yyy	-4812
▁sixty	-4813
▁boats	-4814
▁dread	-4815
__	-4816
ademy	-4817
▁Rec	-4818
▁pir	-4819
▁sake	-4820
GE	-4821
▁Chief	-4822
▁peek	-4823
▁blind	-4824
▁novel	-4825
▁Isn	-4826
▁Gordon	-4827
▁craw	-4828
▁Dis	-4829
▁Bonnet	-4830
▁continue	-4831
▁Vict	-4832
▁mountains	-4833
illiant	-4834
▁suspect	-4835
▁walls	-4836
▁throat	-4837
volution	-4838
rid	-4839
▁Sun	-4840
worth	-4841
▁sits	-4842
▁according	-4843
▁sees	-4844
▁artist	-4845
▁shell	-4846
▁whispered	-4847
▁190	-4848
▁balloon	-4849
cellent	-4850
ials	-4851
▁22	-4852
▁neighbor	-4853
ounce	-4854
▁resc	-4855
▁easier	-4856
▁Ok	-4857
▁glasses	-4858
▁saf	-4859
asy	-4860
▁towel	-4861
▁victim	-4862
▁frightened	-4863
So	-4864
▁Pet	-4865
gn	-4866
▁~	-4867
ocrat	-4868
▁studio	-4869
▁Rose	-4870
da	-4871
▁stir	-4872
▁wedding	-4873
▁alt	-4874
▁2000	-4875
onse	-4876
▁wine	-4877
▁contact	-4878
itional	-4879
▁shouted	-4880
mn	-4881
▁uses	-4882
▁council	-4883
rif	-4884
▁ox	-4885
anny	-4886
▁Marg	-4887
note	-4888
▁Super	-4889
▁centre	-4890
▁Huh	-4891
▁keeps	-4892
ented	-4893
▁ideas	-4894
useum	-4895
▁nurse	-4896
▁tongue	-4897
▁appearance	-4898
▁perm	-4899
▁microphone	-4900
lyn	-4901
▁greatest	-4902
▁tar	-4903
▁Sea	-4904
▁affect	-4905
oking	-4906
iana	-4907
ores	-4908
izing	-4909
ellig	-4910
stood	-4911
▁attend	-4912
▁rights	-4913
▁extreme	-4914
▁Wow	-4915
▁flo	-4916
▁detect	-4917
▁ladd	-4918
▁younger	-4919
UK	-4920
▁smiled	-4921
▁successful	-4922
▁knee	-4923
▁Eliz	-4924
▁Chris	-4925
▁aver	-4926
filler	-4927
▁style	-4928
....	-4929
▁Sil	-4930
▁comfortable	-4931
rist	-4932
▁desk	-4933
▁nineteen	-4934
▁windows	-4935
ache	-4936
50	-4937
urt	-4938
wr	-4939
▁dare	-4940
▁pump	-4941
▁students	-4942
▁model	-4943
▁Saint	-4944
▁histor	-4945
▁retired	-4946
▁official	-4947
▁possibly	-4948
▁Dutch	-4949
▁bisc	-4950
bout	-4951
abeth	-4952
GR	-4953
▁Pop	-4954
▁shopping	-4955
rick	-4956
▁deb	-4957
▁chat	-4958
cise	-4959
▁crash	-4960
▁willing	-4961
▁reck	-4962
tering	-4963
▁anxious	-4964
▁Ter	-4965
▁Jer	-4966
▁doin	-4967
▁cy	-4968
olic	-4969
arily	-4970
▁Dick	-4971
▁Emp	-4972
▁perfectly	-4973
▁suc	-4974
▁bark	-4975
▁Major	-4976
▁vocal	-4977
cream	-4978
▁dun	-4979
esty	-4980
nods	-4981
▁purs	-4982
▁bringing	-4983
-19	-4984
▁mentioned	-4985
hab	-4986
▁decide	-4987
▁judge	-4988
▁beauty	-4989
▁settled	-4990
den	-4991
▁obl	-4992
aws	-4993
ini	-4994
▁zoo	-4995
just	-4996
▁cities	-4997
▁narrow	-4998
▁Joseph	-4999
▁whist	-5000
▁Far	-5001
▁shook	-5002
ota	-5003
ENT	-5004
▁odd	-5005
▁eaten	-5006
▁definitely	-5007
▁airpl	-5008
▁waited	-5009
▁doc	-5010
▁succeed	-5011
▁nursery	-5012
▁bathroom	-5013
▁holiday	-5014
vest	-5015
▁nap	-5016
▁Fire	-5017
▁award	-5018
▁Da	-5019
asing	-5020
iano	-5021
IGHT	-5022
▁Jones	-5023
▁Rome	-5024
▁Sing	-5025
”.	-5026
ga	-5027
▁coach	-5028
▁forced	-5029
▁riding	-5030
▁society	-5031
▁explained	-5032
▁directly	-5033
▁2,	-5034
▁reply	-5035
silence	-5036
▁steal	-5037
fection	-5038
semb	-5039
▁Lake	-5040
▁defend	-5041
ification	-5042
▁circum	-5043
▁biggest	-5044
▁Bay	-5045
▁beep	-5046
▁Alright	-5047
atory	-5048
▁included	-5049
▁cong	-5050
▁prove	-5051
▁favour	-5052
▁Art	-5053
ste	-5054
▁realize	-5055
▁26	-5056
▁Monday	-5057
▁poet	-5058
sych	-5059
▁Under	-5060
▁furn	-5061
rem	-5062
▁memory	-5063
fortun	-5064
▁Kat	-5065
omm	-5066
orough	-5067
▁string	-5068
book	-5069
▁bare	-5070
▁pencil	-5071
with	-5072
▁otherwise	-5073
▁conv	-5074
▁neat	-5075
▁fairly	-5076
▁studied	-5077
itar	-5078
▁Kim	-5079
▁developed	-5080
▁afterwards	-5081
▁mud	-5082
▁schools	-5083
lor	-5084
▁Wel	-5085
▁ign	-5086
▁Profess	-5087
orter	-5088
ii	-5089
▁duh	-5090
idding	-5091
ooth	-5092
▁shel	-5093
ading	-5094
▁silent	-5095
▁mission	-5096
CT	-5097
▁brilliant	-5098
▁Nick	-5099
▁clown	-5100
▁flew	-5101
▁wise	-5102
▁Life	-5103
sm	-5104
▁fence	-5105
sequ	-5106
▁Step	-5107
▁Although	-5108
▁properly	-5109
▁Has	-5110
▁Ange	-5111
▁highest	-5112
▁knowledge	-5113
▁particularly	-5114
▁lawyer	-5115
▁der	-5116
Where	-5117
▁meth	-5118
▁Wood	-5119
▁yup	-5120
▁washing	-5121
odes	-5122
▁bi	-5123
▁Post	-5124
▁wa	-5125
▁Army	-5126
▁manager	-5127
ogether	-5128
▁somewhat	-5129
▁CO	-5130
▁rust	-5131
▁performan	-5132
othy	-5133
▁Nice	-5134
isions	-5135
ses	-5136
▁une	-5137
▁writer	-5138
▁science	-5139
▁murd	-5140
▁appreci	-5141
▁mere	-5142
▁monster	-5143
▁Jeff	-5144
▁According	-5145
cely	-5146
▁kinda	-5147
▁feels	-5148
▁blanket	-5149
▁salt	-5150
▁Young	-5151
▁pages	-5152
▁powerful	-5153
▁eighty	-5154
▁escap	-5155
▁--	-5156
STE	-5157
▁larger	-5158
uits	-5159
▁afford	-5160
"]	-5161
▁Ry	-5162
▁rings	-5163
▁hanging	-5164
▁soldier	-5165
aly	-5166
▁Bre	-5167
then	-5168
▁bin	-5169
iling	-5170
▁wave	-5171
▁[3	-5172
▁repeated	-5173
▁thoughts	-5174
boy	-5175
icked	-5176
▁respond	-5177
▁Lind	-5178
▁castle	-5179
▁players	-5180
▁cute	-5181
▁evil	-5182
▁shock	-5183
kend	-5184
▁text	-5185
icles	-5186
▁signed	-5187
▁Den	-5188
▁arch	-5189
ockey	-5190
opher	-5191
▁Both	-5192
▁talks	-5193
▁cit	-5194
uf	-5195
▁fund	-5196
▁stro	-5197
▁mate	-5198
▁knowing	-5199
ALL	-5200
ube	-5201
▁tid	-5202
ingu	-5203
▁Prin	-5204
▁safety	-5205
▁Es	-5206
▁—	-5207
▁GO	-5208
atoes	-5209
▁teams	-5210
▁troub	-5211
▁soup	-5212
▁Call	-5213
▁Po	-5214
▁plat	-5215
place	-5216
▁development	-5217
▁vote	-5218
▁metal	-5219
▁Russia	-5220
▁Andy	-5221
▁rib	-5222
▁Roger	-5223
▁swing	-5224
▁feelings	-5225
▁tim	-5226
IF	-5227
oned	-5228
acks	-5229
ulty	-5230
▁horsie	-5231
▁disease	-5232
▁services	-5233
reg	-5234
▁27	-5235
▁Fe	-5236
uments	-5237
▁research	-5238
dro	-5239
bell	-5240
vert	-5241
▁cloth	-5242
▁serve	-5243
▁invent	-5244
▁fought	-5245
▁reve	-5246
▁prefer	-5247
▁1.	-5248
▁Ron	-5249
▁states	-5250
▁remarked	-5251
▁pushed	-5252
▁Florida	-5253
▁concerned	-5254
▁mel	-5255
▁barn	-5256
▁passing	-5257
▁Royal	-5258
▁produc	-5259
▁matters	-5260
adian	-5261
▁thrown	-5262
▁available	-5263
▁Mass	-5264
ilies	-5265
▁Lara	-5266
▁Last	-5267
▁poo	-5268
ription	-5269
imit	-5270
▁waste	-5271
▁disappeared	-5272
▁hurried	-5273
amps	-5274
▁elected	-5275
rael	-5276
umps	-5277
▁wondering	-5278
sec	-5279
▁hug	-5280
▁wings	-5281
▁fancy	-5282
▁response	-5283
▁nomin	-5284
JES	-5285
eta	-5286
mark	-5287
rant	-5288
▁exer	-5289
▁farmer	-5290
▁boots	-5291
▁hook	-5292
▁smiling	-5293
▁effort	-5294
isher	-5295
▁Indians	-5296
▁distrib	-5297
vo	-5298
▁remembered	-5299
▁nerv	-5300
0,000	-5301
▁Long	-5302
▁burst	-5303
ION	-5304
▁29	-5305
▁male	-5306
7)	-5307
rans	-5308
▁tractor	-5309
▁forever	-5310
▁Early	-5311
▁Today	-5312
holds	-5313
▁Hot	-5314
▁Chicago	-5315
▁native	-5316
iliar	-5317
▁magn	-5318
▁Cast	-5319
pering	-5320
▁hearing	-5321
aign	-5322
ansas	-5323
▁keys	-5324
thur	-5325
▁sink	-5326
▁depart	-5327
▁Im	-5328
▁screw	-5329
▁arrange	-5330
▁Mur	-5331
▁Barb	-5332
▁opinion	-5333
itan	-5334
▁Fine	-5335
▁fired	-5336
▁knocked	-5337
lla	-5338
▁international	-5339
▁Victor	-5340
▁value	-5341
▁doggie	-5342
▁wan	-5343
rows	-5344
▁debut	-5345
road	-5346
▁goal	-5347
▁chest	-5348
etch	-5349
▁pred	-5350
gers	-5351
▁wished	-5352
gency	-5353
▁pressure	-5354
▁Hy	-5355
▁Sov	-5356
▁opens	-5357
▁latter	-5358
▁Think	-5359
▁189	-5360
fall	-5361
pill	-5362
▁Greek	-5363
ironment	-5364
ban	-5365
gent	-5366
▁rare	-5367
▁appl	-5368
▁related	-5369
▁nope	-5370
▁thin	-5371
▁bod	-5372
▁sen	-5373
▁clearly	-5374
achel	-5375
ram	-5376
Good	-5377
▁Steve	-5378
▁Van	-5379
▁Prov	-5380
▁failed	-5381
▁mor	-5382
▁Time	-5383
ona	-5384
▁weird	-5385
▁greater	-5386
▁horn	-5387
▁languages	-5388
iggles	-5389
▁Squ	-5390
bey	-5391
▁Academy	-5392
_.	-5393
ipping	-5394
▁witness	-5395
▁Lin	-5396
▁dozen	-5397
▁advant	-5398
▁cooking	-5399
Who	-5400
ients	-5401
itzer	-5402
▁veget	-5403
year	-5404
▁drawn	-5405
obile	-5406
ishment	-5407
▁weekend	-5408
▁Ellie	-5409
▁dere	-5410
▁Australian	-5411
▁aware	-5412
▁Secret	-5413
▁[$	-5414
▁foc	-5415
chief	-5416
▁Western	-5417
▁tied	-5418
▁worst	-5419
Al	-5420
IL	-5421
▁Val	-5422
▁pra	-5423
▁Edward	-5424
▁joke	-5425
▁forces	-5426
war	-5427
bits	-5428
sed	-5429
▁28	-5430
▁Didn	-5431
▁yay	-5432
▁folks	-5433
▁fishing	-5434
7]	-5435
hum	-5436
▁fully	-5437
▁Gab	-5438
▁HA	-5439
▁Mexico	-5440
▁patient	-5441
▁queen	-5442
ological	-5443
▁positive	-5444
▁Nobody	-5445
▁staying	-5446
▁Lab	-5447
▁bend	-5448
▁friendly	-5449
▁Night	-5450
▁cancer	-5451
▁Pen	-5452
▁staff	-5453
▁property	-5454
craft	-5455
▁Make	-5456
▁ahhah	-5457
▁gather	-5458
▁Atl	-5459
▁Haw	-5460
▁Jerry	-5461
▁mile	-5462
reedom	-5463
▁relationship	-5464
▁expens	-5465
▁qual	-5466
▁faster	-5467
▁Each	-5468
▁College	-5469
▁entirely	-5470
tons	-5471
▁Baby	-5472
▁express	-5473
▁garage	-5474
▁material	-5475
they	-5476
▁site	-5477
▁Virgin	-5478
▁Six	-5479
▁drove	-5480
▁Bes	-5481
▁dism	-5482
▁throwing	-5483
▁RE	-5484
aming	-5485
▁Pak	-5486
▁"'	-5487
▁previous	-5488
quar	-5489
▁gat	-5490
▁Central	-5491
▁District	-5492
▁Sol	-5493
▁admin	-5494
▁¶	-5495
aterpill	-5496
▁average	-5497
▁voices	-5498
▁shoulders	-5499
▁fond	-5500
ias	-5501
▁Os	-5502
▁ghost	-5503
▁release	-5504
▁arg	-5505
▁gently	-5506
▁mo	-5507
orks	-5508
▁Israel	-5509
▁sposta	-5510
▁Hum	-5511
▁ends	-5512
BC	-5513
▁Back	-5514
▁cats	-5515
▁Prime	-5516
bow	-5517
▁rom	-5518
▁airplane	-5519
An	-5520
▁theory	-5521
otion	-5522
▁SE	-5523
▁distur	-5524
▁signal	-5525
▁aye	-5526
vy	-5527
ila	-5528
spect	-5529
ilities	-5530
▁excellent	-5531
ibility	-5532
▁touched	-5533
▁Rom	-5534
peror	-5535
▁Ireland	-5536
▁presence	-5537
▁excit	-5538
▁knees	-5539
▁Jimmy	-5540
▁drops	-5541
▁cookies	-5542
▁African	-5543
▁tough	-5544
▁cris	-5545
▁episode	-5546
▁frequ	-5547
▁buried	-5548
▁loose	-5549
▁northern	-5550
appy	-5551
▁reported	-5552
asty	-5553
▁Governor	-5554
zzz	-5555
istic	-5556
▁troops	-5557
bird	-5558
▁libr	-5559
whispers	-5560
onder	-5561
▁Div	-5562
May	-5563
▁mixed	-5564
▁acting	-5565
▁Professor	-5566
▁realized	-5567
▁crown	-5568
▁ocean	-5569
ropical	-5570
▁figures	-5571
▁determined	-5572
see	-5573
▁Spe	-5574
▁gaz	-5575
▁boxes	-5576
▁expression	-5577
ware	-5578
▁Syl	-5579
▁newspaper	-5580
▁aft	-5581
▁crayons	-5582
▁becoming	-5583
apt	-5584
▁fold	-5585
ulations	-5586
▁shooting	-5587
uns	-5588
▁40	-5589
▁Jon	-5590
▁prepar	-5591
▁central	-5592
▁Ba	-5593
▁Pap	-5594
▁Tommy	-5595
▁advice	-5596
▁Elizabeth	-5597
▁magnet	-5598
oos	-5599
▁Best	-5600
pret	-5601
▁maid	-5602
▁[1.	-5603
▁Next	-5604
▁rank	-5605
▁understood	-5606
▁objects	-5607
igned	-5608
▁diam	-5609
▁mirror	-5610
tt	-5611
aging	-5612
▁Aye	-5613
▁Whe	-5614
▁cups	-5615
▁plastic	-5616
▁WHAT	-5617
▁reasons	-5618
▁carriage	-5619
▁188	-5620
▁Bal	-5621
tained	-5622
ANT	-5623
▁travell	-5624
▁Scotland	-5625
▁types	-5626
▁Ap	-5627
alled	-5628
sters	-5629
▁Ted	-5630
▁Tra	-5631
▁Later	-5632
▁Fore	-5633
▁includes	-5634
▁Los	-5635
▁socks	-5636
▁pulling	-5637
bury	-5638
9)	-5639
▁veh	-5640
▁Mars	-5641
uan	-5642
isha	-5643
▁yard	-5644
▁Again	-5645
ba	-5646
▁Les	-5647
▁familiar	-5648
▁fan	-5649
▁stom	-5650
isco	-5651
▁gift	-5652
inc	-5653
ppy	-5654
▁described	-5655
▁Bird	-5656
▁toes	-5657
ocratic	-5658
▁sports	-5659
unts	-5660
▁lies	-5661
▁circumst	-5662
▁darkness	-5663
▁Cons	-5664
▁stones	-5665
tw	-5666
▁formula	-5667
▁paying	-5668
▁Lieutenant	-5669
TH	-5670
fa	-5671
▁Five	-5672
▁Help	-5673
IK	-5674
3)	-5675
▁cheek	-5676
▁pointing	-5677
▁Star	-5678
▁minister	-5679
UST	-5680
iot	-5681
ential	-5682
▁Julia	-5683
▁XX	-5684
▁courage	-5685
▁comment	-5686
▁university	-5687
▁Soviet	-5688
▁jumping	-5689
vis	-5690
▁entertain	-5691
▁byeb	-5692
▁pointed	-5693
▁psych	-5694
▁quack	-5695
oving	-5696
▁instant	-5697
▁Met	-5698
▁tip	-5699
▁yummy	-5700
▁fart	-5701
▁186	-5702
▁Arthur	-5703
▁amazing	-5704
▁security	-5705
ILL	-5706
▁zzz	-5707
▁pulls	-5708
▁damage	-5709
▁wore	-5710
cel	-5711
▁families	-5712
OME	-5713
ands	-5714
▁hidden	-5715
▁excitement	-5716
osition	-5717
▁cutting	-5718
put	-5719
angle	-5720
▁stops	-5721
▁degree	-5722
▁beast	-5723
▁trains	-5724
▁icecream	-5725
ITH	-5726
▁receive	-5727
AND	-5728
▁pic	-5729
▁task	-5730
▁Rh	-5731
▁MY	-5732
▁Edd	-5733
▁puppy	-5734
▁sport	-5735
▁stranger	-5736
▁aside	-5737
▁suspic	-5738
▁Ow	-5739
▁Colonel	-5740
▁campaign	-5741
▁por	-5742
▁[.	-5743
▁planet	-5744
▁gathered	-5745
▁lone	-5746
▁3,	-5747
▁km	-5748
▁characters	-5749
▁rise	-5750
▁ladder	-5751
▁innoc	-5752
berries	-5753
▁partner	-5754
▁locked	-5755
▁Canadian	-5756
▁sweetheart	-5757
▁Brother	-5758
▁wid	-5759
▁waves	-5760
▁Way	-5761
▁perform	-5762
ribe	-5763
▁Hill	-5764
▁Brian	-5765
▁dying	-5766
▁desper	-5767
▁apparently	-5768
▁Chair	-5769
▁Had	-5770
ulous	-5771
▁matches	-5772
atsy	-5773
▁Lar	-5774
ension	-5775
▁southern	-5776
hess	-5777
▁leaf	-5778
sung	-5779
▁Son	-5780
▁policy	-5781
6)	-5782
▁Empire	-5783
aring	-5784
▁byebye	-5785
▁screen	-5786
▁observed	-5787
▁Irish	-5788
▁butterfly	-5789
▁Corn	-5790
aining	-5791
▁surely	-5792
▁magazine	-5793
▁copy	-5794
▁yards	-5795
IE	-5796
ima	-5797
▁Girl	-5798
law	-5799
▁Cla	-5800
▁tom	-5801
enced	-5802
▁activity	-5803
ois	-5804
▁Women	-5805
4)	-5806
igr	-5807
5)	-5808
▁throughout	-5809
▁forms	-5810
▁communic	-5811
▁confess	-5812
ja	-5813
▁fac	-5814
ooper	-5815
oston	-5816
▁jigs	-5817
▁Hmm	-5818
▁hunt	-5819
illing	-5820
▁Sk	-5821
▁boom	-5822
▁Jimmie	-5823
▁companion	-5824
▁Ty	-5825
icking	-5826
▁2020,	-5827
ERS	-5828
▁vent	-5829
▁slept	-5830
▁sword	-5831
"?	-5832
pir	-5833
▁AT	-5834
▁NE	-5835
hell	-5836
ROZ	-5837
innie	-5838
down	-5839
▁ast	-5840
ctors	-5841
▁Championship	-5842
▁owner	-5843
:00	-5844
▁fairy	-5845
▁Fin	-5846
▁aim	-5847
▁meas	-5848
▁Nav	-5849
▁destroyed	-5850
▁Rod	-5851
iance	-5852
',	-5853
Be	-5854
▁Turn	-5855
▁apartment	-5856
▁wrest	-5857
▁Move	-5858
▁toil	-5859
▁Yet	-5860
▁saus	-5861
oma	-5862
▁sav	-5863
▁nervous	-5864
ishop	-5865
umn	-5866
▁curious	-5867
▁medical	-5868
▁western	-5869
▁slightly	-5870
▁Fa	-5871
▁gray	-5872
▁recently	-5873
.’	-5874
▁giant	-5875
▁pean	-5876
▁foreign	-5877
▁citiz	-5878
vocalize	-5879
ano	-5880
▁Anyway	-5881
▁effects	-5882
▁picking	-5883
neath	-5884
▁mamma	-5885
▁vir	-5886
▁Court	-5887
ua	-5888
▁candy	-5889
▁doggy	-5890
iverse	-5891
▁chairs	-5892
▁buildings	-5893
▁Hol	-5894
▁trunk	-5895
▁separate	-5896
ederal	-5897
▁Water	-5898
▁drama	-5899
met	-5900
▁Fox	-5901
▁treasure	-5902
▁besides	-5903
▁Hor	-5904
▁dreams	-5905
▁interview	-5906
uesday	-5907
IA	-5908
win	-5909
lim	-5910
▁Dorothy	-5911
▁progress	-5912
▁Sa	-5913
▁useful	-5914
▁Remember	-5915
▁wondered	-5916
▁champions	-5917
igan	-5918
ado	-5919
▁listened	-5920
5]	-5921
▁arran	-5922
▁wooden	-5923
▁phil	-5924
▁constit	-5925
▁THIS	-5926
▁contr	-5927
▁ess	-5928
▁blame	-5929
▁issue	-5930
▁streets	-5931
▁spr	-5932
▁rang	-5933
▁bunch	-5934
▁recorded	-5935
▁Lu	-5936
▁dish	-5937
▁fox	-5938
Here	-5939
▁request	-5940
▁rif	-5941
▁instr	-5942
▁channel	-5943
▁currently	-5944
mus	-5945
▁pow	-5946
▁init	-5947
gend	-5948
urance	-5949
ucle	-5950
▁Bra	-5951
▁spite	-5952
▁Ev	-5953
ilty	-5954
▁Lisa	-5955
▁tooth	-5956
▁sore	-5957
▁totally	-5958
▁Ly	-5959
itzerland	-5960
▁Americans	-5961
▁measure	-5962
▁stepped	-5963
▁symb	-5964
▁feather	-5965
▁Leave	-5966
▁active	-5967
▁Bus	-5968
hank	-5969
▁strike	-5970
dad	-5971
▁proved	-5972
▁encour	-5973
CA	-5974
▁spo	-5975
sighs	-5976
▁hammer	-5977
via	-5978
▁breaking	-5979
▁performance	-5980
▁score	-5981
▁owned	-5982
▁Fil	-5983
▁indic	-5984
▁Angeles	-5985
▁becomes	-5986
▁mainly	-5987
car	-5988
▁invited	-5989
▁Switzerland	-5990
za	-5991
▁helps	-5992
▁ours	-5993
aboo	-5994
▁Brad	-5995
▁statistics	-5996
▁Polly	-5997
▁trial	-5998
▁recorder	-5999
▁Dun	-6000
ights	-6001
▁autom	-6002
▁Show	-6003
▁rush	-6004
▁achie	-6005
▁desire	-6006
▁wounded	-6007
rane	-6008
▁Boston	-6009
cod	-6010
▁Should	-6011
▁sisters	-6012
▁clouds	-6013
mes	-6014
ursday	-6015
▁traffic	-6016
hh	-6017
▁map	-6018
▁data	-6019
▁influence	-6020
▁established	-6021
▁Camp	-6022
▁fier	-6023
▁laws	-6024
▁gor	-6025
lam	-6026
▁Sand	-6027
apping	-6028
IV	-6029
▁Ox	-6030
▁Second	-6031
▁handsome	-6032
▁performed	-6033
▁Jac	-6034
▁cash	-6035
▁credit	-6036
uries	-6037
▁Fer	-6038
▁rooms	-6039
▁[4	-6040
▁holes	-6041
▁Latin	-6042
▁lifted	-6043
▁grandma	-6044
▁hes	-6045
▁Eric	-6046
▁raise	-6047
▁enjoyed	-6048
3]	-6049
▁frogs	-6050
▁Mos	-6051
▁Down	-6052
▁sole	-6053
▁princess	-6054
hib	-6055
▁Dire	-6056
omer	-6057
rank	-6058
▁moo	-6059
▁trib	-6060
▁restaur	-6061
▁Everybody	-6062
▁Bas	-6063
umper	-6064
heast	-6065
▁patter	-6066
▁student	-6067
▁Rad	-6068
▁Government	-6069
▁branch	-6070
iece	-6071
▁environment	-6072
amin	-6073
▁Men	-6074
▁hunting	-6075
▁access	-6076
▁opt	-6077
▁Flore	-6078
▁pants	-6079
▁Pakistan	-6080
while	-6081
▁Bud	-6082
anches	-6083
▁liber	-6084
untary	-6085
▁oblig	-6086
▁rapidly	-6087
▁Gil	-6088
▁engaged	-6089
▁Off	-6090
▁bricks	-6091
erves	-6092
▁Ang	-6093
▁divided	-6094
▁caterpill	-6095
org	-6096
voc	-6097
▁Besides	-6098
▁Serv	-6099
▁sorts	-6100
▁2.	-6101
▁2010	-6102
▁somehow	-6103
ailed	-6104
▁prisoners	-6105
▁habit	-6106
▁NO	-6107
▁removed	-6108
▁responsible	-6109
▁Cam	-6110
▁fortune	-6111
▁companies	-6112
▁seventy	-6113
rang	-6114
▁unus	-6115
▁transl	-6116
▁gradu	-6117
anchester	-6118
▁underneath	-6119
itcher	-6120
▁wire	-6121
▁adop	-6122
▁rear	-6123
▁Hu	-6124
water	-6125
▁Pooh	-6126
aren	-6127
▁section	-6128
PE	-6129
▁rent	-6130
▁create	-6131
▁Land	-6132
▁craft	-6133
▁honour	-6134
▁splend	-6135
▁golden	-6136
▁Open	-6137
▁advantage	-6138
▁etc	-6139
▁banana	-6140
▁Peggy	-6141
▁recording	-6142
enth	-6143
▁mort	-6144
▁awake	-6145
▁target	-6146
2]	-6147
▁Georg	-6148
▁Fif	-6149
▁mama	-6150
▁Ill	-6151
▁Dada	-6152
▁Britain	-6153
▁exciting	-6154
▁Sur	-6155
osen	-6156
ednes	-6157
▁weapons	-6158
▁Zeal	-6159
▁upper	-6160
▁bodies	-6161
▁chips	-6162
▁AMY	-6163
▁Lucy	-6164
▁jacket	-6165
ocks	-6166
▁tear	-6167
▁burning	-6168
▁difficulty	-6169
▁WAS	-6170
▁borrow	-6171
▁Tor	-6172
▁lamb	-6173
▁normally	-6174
||2	-6175
▁Stay	-6176
engers	-6177
▁fields	-6178
▁scarcely	-6179
ault	-6180
▁nation	-6181
▁creature	-6182
▁production	-6183
▁SH	-6184
▁Nicole	-6185
ednesday	-6186
Did	-6187
▁forgive	-6188
▁unknown	-6189
▁learning	-6190
▁planning	-6191
▁Fre	-6192
icing	-6193
was	-6194
arts	-6195
▁evidently	-6196
▁wra	-6197
geant	-6198
estival	-6199
▁beneath	-6200
▁features	-6201
▁resist	-6202
▁horrible	-6203
▁(;	-6204
▁colour	-6205
▁pale	-6206
▁Ca	-6207
▁bloody	-6208
-2	-6209
▁review	-6210
▁alarm	-6211
▁dunno	-6212
▁towns	-6213
▁faint	-6214
▁landed	-6215
1]	-6216
fish	-6217
ds	-6218
istry	-6219
▁border	-6220
▁Associ	-6221
LAU	-6222
▁Becky	-6223
▁tender	-6224
▁territ	-6225
▁experien	-6226
▁glance	-6227
▁nearer	-6228
▁competed	-6229
ares	-6230
usted	-6231
▁gang	-6232
▁Zealand	-6233
▁closely	-6234
▁rolling	-6235
▁prize	-6236
▁deliver	-6237
ked	-6238
▁purse	-6239
▁greatly	-6240
▁symp	-6241
▁Bad	-6242
▁intellig	-6243
▁Parliament	-6244
▁Charl	-6245
▁equal	-6246
▁shower	-6247
▁Bru	-6248
▁brings	-6249
▁airport	-6250
▁sweetie	-6251
▁ben	-6252
DE	-6253
▁aer	-6254
▁shame	-6255
▁Int	-6256
▁soap	-6257
bu	-6258
▁Az	-6259
▁washed	-6260
▁Som	-6261
chuckles	-6262
ati	-6263
▁library	-6264
▁ordinary	-6265
▁exchan	-6266
▁jigsaw	-6267
▁terror	-6268
▁results	-6269
III	-6270
turns	-6271
▁Oliver	-6272
▁leaders	-6273
▁4,	-6274
▁nav	-6275
▁squee	-6276
▁lonely	-6277
pointing	-6278
rier	-6279
tin	-6280
▁Ram	-6281
iation	-6282
making	-6283
▁hearts	-6284
▁apolog	-6285
▁specific	-6286
▁Hind	-6287
▁unif	-6288
▁badly	-6289
inson	-6290
▁treated	-6291
▁whee	-6292
▁fal	-6293
▁hills	-6294
▁spider	-6295
ura	-6296
▁lou	-6297
coughs	-6298
▁losing	-6299
ée	-6300
▁bags	-6301
▁pony	-6302
Of	-6303
thew	-6304
▁kidding	-6305
▁UN	-6306
▁bears	-6307
▁baseball	-6308
▁beer	-6309
▁swear	-6310
▁sticks	-6311
▁slipped	-6312
umed	-6313
4]	-6314
ateg	-6315
▁Book	-6316
▁jobs	-6317
▁spare	-6318
▁Mister	-6319
ko	-6320
▁Whoa	-6321
▁lack	-6322
▁Watch	-6323
▁merry	-6324
▁trous	-6325
ointment	-6326
▁couch	-6327
▁guilty	-6328
ador	-6329
▁supply	-6330
▁Tre	-6331
▁Donald	-6332
▁Alexander	-6333
Ar	-6334
▁pond	-6335
▁homes	-6336
stein	-6337
▁Jess	-6338
▁goat	-6339
▁Town	-6340
▁Angel	-6341
▁transport	-6342
ties	-6343
▁dump	-6344
▁cot	-6345
▁branches	-6346
When	-6347
▁guitar	-6348
▁individual	-6349
yo	-6350
▁stomach	-6351
▁187	-6352
inned	-6353
▁lorry	-6354
▁suffe	-6355
▁Madame	-6356
eral	-6357
igator	-6358
▁deer	-6359
▁balls	-6360
▁grant	-6361
▁piano	-6362
▁descend	-6363
▁Sel	-6364
▁Hurry	-6365
..."	-6366
▁agre	-6367
▁reckon	-6368
▁Awards	-6369
▁commun	-6370
▁Tuesday	-6371
▁Dou	-6372
uous	-6373
▁Gran	-6374
▁queer	-6375
▁yo	-6376
▁Whatever	-6377
▁religion	-6378
18	-6379
ends	-6380
▁tal	-6381
▁eats	-6382
▁mustn	-6383
▁Someone	-6384
▁competition	-6385
stead	-6386
▁Thursday	-6387
acle	-6388
▁WITH	-6389
▁bone	-6390
▁smooth	-6391
GA	-6392
sell	-6393
icket	-6394
▁Alf	-6395
▁Bow	-6396
▁professor	-6397
▁Pot	-6398
▁goodbye	-6399
▁Jenny	-6400
▁bon	-6401
▁Stand	-6402
▁Florence	-6403
reck	-6404
▁Fair	-6405
▁pity	-6406
▁dolls	-6407
▁wagon	-6408
giggles	-6409
▁accepted	-6410
▁Ord	-6411
▁replaced	-6412
arian	-6413
bec	-6414
▁Also	-6415
▁musical	-6416
▁Ten	-6417
▁rushed	-6418
AB	-6419
▁decor	-6420
▁thousands	-6421
yal	-6422
ception	-6423
▁presents	-6424
▁gay	-6425
kee	-6426
▁signs	-6427
▁incident	-6428
▁circumstances	-6429
▁Sn	-6430
▁Nancy	-6431
▁relief	-6432
▁teaching	-6433
?'	-6434
SE	-6435
▁guest	-6436
▁mighty	-6437
▁industry	-6438
▁neighbour	-6439
▁MAN	-6440
▁Trans	-6441
▁candid	-6442
ELA	-6443
▁DE	-6444
▁ALL	-6445
▁chosen	-6446
▁victory	-6447
▁Catholic	-6448
▁lod	-6449
▁inha	-6450
▁myst	-6451
▁Shall	-6452
▁link	-6453
▁prisoner	-6454
▁lads	-6455
▁particip	-6456
▁nodd	-6457
▁pure	-6458
▁admit	-6459
▁Everyone	-6460
▁changing	-6461
▁Andrew	-6462
▁independent	-6463
▁Stone	-6464
▁pilot	-6465
▁0	-6466
▁Det	-6467
▁split	-6468
▁Congress	-6469
▁seriously	-6470
hall	-6471
▁protest	-6472
▁winning	-6473
▁upside	-6474
ST	-6475
eks	-6476
▁coal	-6477
▁invol	-6478
▁introduced	-6479
▁chim	-6480
▁hoping	-6481
▁delicious	-6482
▁originally	-6483
▁jam	-6484
▁pile	-6485
▁cher	-6486
▁pipe	-6487
▁Maria	-6488
▁refused	-6489
▁required	-6490
KAR	-6491
▁belongs	-6492
!'	-6493
▁Walter	-6494
kel	-6495
▁woof	-6496
▁presently	-6497
bling	-6498
▁bones	-6499
hus	-6500
▁wolf	-6501
▁Gal	-6502
▁gosh	-6503
Chi	-6504
rific	-6505
▁steam	-6506
▁apples	-6507
▁Majesty	-6508
6]	-6509
▁Daniel	-6510
▁Caroline	-6511
emies	-6512
mouth	-6513
▁sets	-6514
▁religious	-6515
ani	-6516
eps	-6517
▁chain	-6518
▁picnic	-6519
▁hurts	-6520
▁Matthew	-6521
▁planned	-6522
▁delay	-6523
▁setting	-6524
▁Firstname	-6525
▁Wednesday	-6526
▁Music	-6527
▁beans	-6528
▁avoid	-6529
▁gir	-6530
▁steady	-6531
esh	-6532
▁attacked	-6533
▁captured	-6534
▁fifth	-6535
▁pitcher	-6536
▁demon	-6537
▁content	-6538
▁curtain	-6539
eaking	-6540
▁grate	-6541
▁escaped	-6542
▁Games	-6543
▁champ	-6544
▁administr	-6545
this	-6546
▁Hea	-6547
▁hoped	-6548
▁Jackson	-6549
▁Jenn	-6550
▁cows	-6551
▁recognized	-6552
▁fant	-6553
▁stack	-6554
▁severe	-6555
▁pitch	-6556
▁mechan	-6557
▁Actually	-6558
▁expensive	-6559
▁lit	-6560
▁dishes	-6561
▁nic	-6562
▁advance	-6563
▁Province	-6564
alking	-6565
ending	-6566
▁jelly	-6567
rose	-6568
▁cru	-6569
▁flash	-6570
entr	-6571
▁Sally	-6572
▁tin	-6573
▁2021	-6574
12	-6575
▁Bi	-6576
▁Jun	-6577
▁farther	-6578
▁admir	-6579
▁hasta	-6580
▁intended	-6581
mhm	-6582
▁quality	-6583
▁counter	-6584
▁records	-6585
ELS	-6586
▁crossed	-6587
▁temperature	-6588
▁tummy	-6589
40	-6590
▁merc	-6591
rences	-6592
▁moments	-6593
▁divor	-6594
▁commer	-6595
▁shadow	-6596
▁Marie	-6597
▁Road	-6598
▁speaks	-6599
▁trousers	-6600
▁conditions	-6601
▁parties	-6602
▁Ald	-6603
▁Bell	-6604
▁grandfather	-6605
▁5,	-6606
▁Brook	-6607
▁thorough	-6608
▁Eddie	-6609
overy	-6610
▁throws	-6611
▁Run	-6612
▁Kent	-6613
▁rolled	-6614
▁Secretary	-6615
▁(200	-6616
▁tickle	-6617
▁grace	-6618
▁whenever	-6619
shine	-6620
▁lord	-6621
▁comedy	-6622
▁crocod	-6623
▁Sub	-6624
utions	-6625
▁gy	-6626
athy	-6627
icted	-6628
▁anti	-6629
▁source	-6630
▁Us	-6631
enger	-6632
▁remains	-6633
▁Sher	-6634
▁grandmother	-6635
▁Cont	-6636
stitute	-6637
▁policeman	-6638
▁satisfied	-6639
▁woke	-6640
▁x	-6641
▁provided	-6642
▁conce	-6643
▁trem	-6644
▁sentence	-6645
▁cruel	-6646
wa	-6647
▁KN	-6648
iture	-6649
▁III	-6650
▁notes	-6651
▁lesson	-6652
▁EX	-6653
▁weapon	-6654
▁challen	-6655
oli	-6656
▁Philip	-6657
▁recomm	-6658
lers	-6659
▁comr	-6660
▁Patsy	-6661
▁appears	-6662
▁rode	-6663
▁switch	-6664
fficient	-6665
iraffe	-6666
▁Annie	-6667
▁drown	-6668
olution	-6669
▁racing	-6670
▁adventure	-6671
COL	-6672
▁Tri	-6673
▁SO	-6674
▁aid	-6675
▁waters	-6676
▁culture	-6677
▁actual	-6678
▁diamond	-6679
▁ash	-6680
▁royal	-6681
iser	-6682
▁uns	-6683
▁1980	-6684
▁signific	-6685
ava	-6686
rough	-6687
▁Head	-6688
▁division	-6689
▁drunk	-6690
▁provide	-6691
▁entrance	-6692
there	-6693
▁Home	-6694
sembly	-6695
▁gained	-6696
▁drug	-6697
▁papa	-6698
▁squir	-6699
▁designed	-6700
▁lessons	-6701
▁demanded	-6702
▁eighteen	-6703
hamed	-6704
▁climbed	-6705
▁Domin	-6706
▁critic	-6707
▁Kitty	-6708
otte	-6709
▁rot	-6710
▁oven	-6711
▁finds	-6712
▁legal	-6713
▁bucket	-6714
▁Company	-6715
ros	-6716
emic	-6717
▁mummie	-6718
▁bitter	-6719
gery	-6720
py	-6721
isl	-6722
scream	-6723
▁annoy	-6724
▁useta	-6725
▁pushing	-6726
▁companions	-6727
rog	-6728
▁earnest	-6729
▁happiness	-6730
▁toss	-6731
cho	-6732
▁Di	-6733
ivity	-6734
▁quit	-6735
▁Molly	-6736
umes	-6737
umbled	-6738
▁appointed	-6739
▁rug	-6740
▁scary	-6741
▁Virginia	-6742
▁Deb	-6743
▁Rel	-6744
▁typ	-6745
▁load	-6746
▁poison	-6747
▁passage	-6748
▁dim	-6749
opter	-6750
▁sang	-6751
ancing	-6752
▁truly	-6753
▁climbing	-6754
▁guide	-6755
elled	-6756
▁rhy	-6757
▁Such	-6758
▁marks	-6759
ability	-6760
actually	-6761
▁recognize	-6762
▁structure	-6763
utive	-6764
▁Susan	-6765
▁eagerly	-6766
▁approach	-6767
▁connected	-6768
▁bac	-6769
alds	-6770
▁occurred	-6771
ami	-6772
▁wound	-6773
▁Marc	-6774
hia	-6775
five	-6776
▁code	-6777
▁belief	-6778
▁shining	-6779
▁owl	-6780
▁thir	-6781
▁Northern	-6782
VID	-6783
▁Hard	-6784
▁chop	-6785
▁liqu	-6786
▁Mickey	-6787
▁conqu	-6788
azz	-6789
▁jail	-6790
▁Ob	-6791
▁palace	-6792
▁systems	-6793
▁transfer	-6794
stone	-6795
▁fuss	-6796
playing	-6797
▁rescue	-6798
ouri	-6799
▁warning	-6800
▁cig	-6801
▁Gi	-6802
issa	-6803
▁pant	-6804
▁Footnote	-6805
hetti	-6806
▁sixteen	-6807
▁extremely	-6808
▁folk	-6809
▁arrested	-6810
▁function	-6811
KAT	-6812
▁Soon	-6813
▁rice	-6814
lection	-6815
▁slip	-6816
▁penny	-6817
▁produce	-6818
▁eventually	-6819
▁Cook	-6820
▁authority	-6821
▁consequ	-6822
Are	-6823
▁Matt	-6824
▁selected	-6825
▁BO	-6826
▁Pac	-6827
▁enemies	-6828
▁Bat	-6829
▁wealth	-6830
▁unfortun	-6831
▁Wall	-6832
▁statement	-6833
chair	-6834
▁lets	-6835
▁AL	-6836
▁foll	-6837
▁sings	-6838
▁standard	-6839
shouts	-6840
],	-6841
onsense	-6842
rots	-6843
▁cave	-6844
▁circus	-6845
▁splendid	-6846
▁fate	-6847
upp	-6848
aned	-6849
▁YOUR	-6850
otes	-6851
▁DON	-6852
▁sooner	-6853
▁hay	-6854
eding	-6855
▁oldest	-6856
▁delighted	-6857
▁Est	-6858
▁Hung	-6859
▁caterpillar	-6860
▁tiss	-6861
SC	-6862
▁Bomb	-6863
▁concentr	-6864
▁suffered	-6865
▁increased	-6866
▁guests	-6867
▁aston	-6868
▁noble	-6869
▁watches	-6870
▁2020)	-6871
▁prince	-6872
▁Ash	-6873
▁thirst	-6874
▁tunnel	-6875
▁sending	-6876
▁Chairman	-6877
▁Democratic	-6878
▁Nana	-6879
▁Stud	-6880
▁suppl	-6881
▁peekaboo	-6882
soft	-6883
▁Han	-6884
keep	-6885
▁elder	-6886
▁giraffe	-6887
▁philos	-6888
▁Him	-6889
▁Penn	-6890
▁increase	-6891
▁plus	-6892
▁hadta	-6893
▁commander	-6894
▁1990	-6895
▁2017	-6896
▁equip	-6897
▁fourteen	-6898
▁selling	-6899
▁discover	-6900
▁governor	-6901
▁roles	-6902
▁gotten	-6903
ervation	-6904
▁tale	-6905
▁Duke	-6906
▁Johnny	-6907
▁Sweden	-6908
▁Awww	-6909
▁Rachel	-6910
▁Mir	-6911
▁scratch	-6912
▁cam	-6913
▁killing	-6914
▁addition	-6915
▁grey	-6916
▁saving	-6917
▁du	-6918
▁Pers	-6919
▁Pier	-6920
hew	-6921
fers	-6922
▁stole	-6923
▁buttons	-6924
ture	-6925
▁harder	-6926
gt	-6927
▁6,	-6928
quarters	-6929
▁contrib	-6930
▁Cy	-6931
▁tracks	-6932
non	-6933
▁operation	-6934
▁seated	-6935
▁plates	-6936
▁regret	-6937
ico	-6938
▁medal	-6939
▁kindly	-6940
8)	-6941
atre	-6942
▁2011	-6943
▁belt	-6944
▁file	-6945
▁pron	-6946
umbling	-6947
▁freedom	-6948
▁Princess	-6949
▁wipe	-6950
▁shops	-6951
▁Association	-6952
▁highly	-6953
▁shouting	-6954
▁react	-6955
▁sorrow	-6956
▁HAVE	-6957
▁relax	-6958
▁fleet	-6959
▁innocent	-6960
▁jew	-6961
▁agent	-6962
▁spark	-6963
▁Sit	-6964
▁explos	-6965
▁Margaret	-6966
okes	-6967
▁Dave	-6968
8]	-6969
To	-6970
▁Att	-6971
▁lat	-6972
▁prof	-6973
▁altogether	-6974
ora	-6975
▁affair	-6976
▁arranged	-6977
▁nucle	-6978
▁Wales	-6979
▁league	-6980
▁appreciate	-6981
▁Cross	-6982
▁owe	-6983
▁Disney	-6984
Go	-6985
OUT	-6986
▁1970	-6987
▁Danny	-6988
draw	-6989
▁Kar	-6990
mi	-6991
Can	-6992
▁Anton	-6993
▁seats	-6994
▁UK	-6995
▁buddy	-6996
ito	-6997
▁Cur	-6998
▁breast	-6999
▁ticket	-7000
wald	-7001
invol	-7002
▁drugs	-7003
▁Williams	-7004
▁31	-7005
▁Portug	-7006
olk	-7007
▁bay	-7008
ELL	-7009
▁Mabel	-7010
eable	-7011
▁diss	-7012
ulance	-7013
▁toilet	-7014
▁pear	-7015
unting	-7016
▁shapes	-7017
▁passengers	-7018
▁nut	-7019
▁sons	-7020
▁spots	-7021
▁Bull	-7022
▁rum	-7023
Just	-7024
Look	-7025
▁jun	-7026
alais	-7027
▁Pan	-7028
▁kissed	-7029
▁Austria	-7030
▁improve	-7031
As	-7032
bin	-7033
▁bush	-7034
▁spect	-7035
▁Barbara	-7036
▁treatment	-7037
▁height	-7038
ige	-7039
▁McC	-7040
▁grapes	-7041
▁justice	-7042
▁potatoes	-7043
▁inhabit	-7044
uing	-7045
▁2019	-7046
▁marked	-7047
▁boun	-7048
▁media	-7049
▁spirits	-7050
cies	-7051
▁fork	-7052
9]	-7053
▁snap	-7054
▁Der	-7055
addle	-7056
▁worn	-7057
▁Nether	-7058
▁details	-7059
eau	-7060
aghetti	-7061
▁turtle	-7062
▁Poor	-7063
ifts	-7064
▁(199	-7065
▁crim	-7066
▁burned	-7067
▁distant	-7068
GER	-7069
awa	-7070
▁10,	-7071
ader	-7072
kiss	-7073
▁Year	-7074
Americ	-7075
▁Jason	-7076
alo	-7077
▁incl	-7078
▁7,	-7079
ieve	-7080
▁bent	-7081
contin	-7082
pot	-7083
▁Fam	-7084
▁NOT	-7085
kr	-7086
▁shed	-7087
involuntary	-7088
aved	-7089
amma	-7090
▁cott	-7091
▁chose	-7092
▁Rab	-7093
▁rat	-7094
▁Happy	-7095
60	-7096
sl	-7097
agn	-7098
▁Sid	-7099
▁kingdom	-7100
stra	-7101
▁Looks	-7102
▁network	-7103
▁Bor	-7104
▁cheap	-7105
▁poorly	-7106
▁flood	-7107
▁Want	-7108
▁sigh	-7109
▁nights	-7110
▁FAT	-7111
ji	-7112
▁journal	-7113
SS	-7114
▁cries	-7115
▁raining	-7116
cipal	-7117
▁accompl	-7118
KF	-7119
▁SIS	-7120
▁doo	-7121
▁painted	-7122
Ah	-7123
▁Asia	-7124
▁incred	-7125
▁Grace	-7126
▁brand	-7127
▁valley	-7128
▁teachers	-7129
rial	-7130
▁pride	-7131
▁humans	-7132
▁document	-7133
▁stor	-7134
nament	-7135
▁conduct	-7136
▁Ren	-7137
New	-7138
char	-7139
▁Iran	-7140
▁Sylvia	-7141
ela	-7142
▁pillow	-7143
▁Jam	-7144
▁hipp	-7145
▁cells	-7146
▁cents	-7147
▁solid	-7148
▁buying	-7149
▁driven	-7150
▁stern	-7151
▁strawberry	-7152
▁seek	-7153
rels	-7154
▁dawn	-7155
▁Anything	-7156
▁Cop	-7157
▁sequ	-7158
▁elimin	-7159
lfriend	-7160
aki	-7161
▁fed	-7162
▁Bang	-7163
▁[5	-7164
▁sprang	-7165
opl	-7166
▁islands	-7167
▁elev	-7168
ev	-7169
ques	-7170
▁unf	-7171
▁Louise	-7172
ESS	-7173
ensive	-7174
▁cough	-7175
▁ducks	-7176
▁require	-7177
whispered	-7178
▁kil	-7179
▁buzz	-7180
▁origin	-7181
▁precious	-7182
olen	-7183
▁hesit	-7184
▁leans	-7185
▁railway	-7186
oto	-7187
▁backwards	-7188
▁confidence	-7189
14	-7190
adium	-7191
▁eastern	-7192
▁Conf	-7193
▁clap	-7194
▁peanut	-7195
happy	-7196
▁2022	-7197
▁daily	-7198
▁presented	-7199
▁Try	-7200
▁myster	-7201
▁equipment	-7202
▁spin	-7203
▁unusual	-7204
▁collection	-7205
▁CAN	-7206
JO	-7207
OULD	-7208
ulate	-7209
foot	-7210
▁Gina	-7211
rolled	-7212
▁chase	-7213
▁compos	-7214
▁priest	-7215
▁Netherlands	-7216
enly	-7217
▁mood	-7218
▁1960	-7219
▁Group	-7220
▁secure	-7221
▁climate	-7222
▁sounded	-7223
▁Mu	-7224
▁Roy	-7225
▁jeal	-7226
▁Warren	-7227
,’	-7228
wers	-7229
▁confir	-7230
▁witch	-7231
lock	-7232
▁Belg	-7233
▁ouch	-7234
▁somethin	-7235
▁powers	-7236
▁Missouri	-7237
▁Were	-7238
▁obey	-7239
sn	-7240
▁myth	-7241
▁sofa	-7242
▁murm	-7243
▁wing	-7244
necess	-7245
▁Auntie	-7246
▁complex	-7247
▁recent	-7248
▁Ball	-7249
▁condu	-7250
▁unable	-7251
▁chuck	-7252
▁scare	-7253
▁legend	-7254
▁producer	-7255
▁trucks	-7256
zo	-7257
▁coun	-7258
▁exercise	-7259
Per	-7260
▁torn	-7261
▁stronger	-7262
▁Const	-7263
▁Honey	-7264
▁pregn	-7265
▁Syd	-7266
▁noisy	-7267
▁handed	-7268
▁blowing	-7269
▁swift	-7270
▁Philipp	-7271
▁Christopher	-7272
gly	-7273
▁basically	-7274
EV	-7275
about	-7276
venue	-7277
▁tank	-7278
ungle	-7279
▁2016	-7280
▁Inter	-7281
▁pengu	-7282
dr	-7283
▁Police	-7284
▁completed	-7285
▁Ryan	-7286
▁cage	-7287
▁12,	-7288
▁bold	-7289
▁unit	-7290
▁proposed	-7291
▁photograph	-7292
atively	-7293
▁dragon	-7294
▁spaghetti	-7295
cest	-7296
erous	-7297
▁surround	-7298
▁breathing	-7299
▁/	-7300
refer	-7301
▁sunshine	-7302
zy	-7303
▁tools	-7304
▁ability	-7305
▁Kate	-7306
ctions	-7307
▁lately	-7308
▁organization	-7309
tes	-7310
nina	-7311
▁ashamed	-7312
▁Dam	-7313
▁canoe	-7314
▁subst	-7315
▁Too	-7316
▁shh	-7317
▁Korea	-7318
▁slipp	-7319
▁stiff	-7320
bot	-7321
▁Yep	-7322
ession	-7323
ONE	-7324
▁tub	-7325
▁disappear	-7326
▁cereal	-7327
▁succeeded	-7328
▁issues	-7329
▁chemical	-7330
▁ambulance	-7331
weet	-7332
▁Joy	-7333
▁drinks	-7334
▁mole	-7335
▁letting	-7336
▁restaurant	-7337
▁AB	-7338
▁exha	-7339
▁dom	-7340
▁Ellen	-7341
▁physical	-7342
aria	-7343
▁Robin	-7344
▁Without	-7345
▁failure	-7346
▁permission	-7347
ech	-7348
elet	-7349
▁Lois	-7350
▁helic	-7351
▁armed	-7352
inois	-7353
▁bushes	-7354
▁lieutenant	-7355
▁beds	-7356
▁goods	-7357
▁Winter	-7358
▁woo	-7359
▁servant	-7360
▁protection	-7361
▁Tem	-7362
▁volume	-7363
▁jealous	-7364
▁suffering	-7365
shakes	-7366
▁proof	-7367
▁pushes	-7368
amas	-7369
oard	-7370
icide	-7371
FF	-7372
▁BY	-7373
▁Mod	-7374
▁Greg	-7375
▁thunder	-7376
▁Department	-7377
▁ax	-7378
▁responsibility	-7379
▁Tok	-7380
▁lic	-7381
▁hers	-7382
▁audience	-7383
annine	-7384
For	-7385
▁na	-7386
▁cas	-7387
▁Ford	-7388
▁swall	-7389
▁laughter	-7390
▁cheeks	-7391
iped	-7392
annah	-7393
ivered	-7394
▁Dev	-7395
▁frag	-7396
▁Football	-7397
cles	-7398
▁Ark	-7399
Cause	-7400
ellow	-7401
▁advert	-7402
AU	-7403
▁fo	-7404
▁185	-7405
▁colon	-7406
▁Columb	-7407
▁explan	-7408
▁hundreds	-7409
▁experiment	-7410
").	-7411
pro	-7412
▁AD	-7413
▁cliff	-7414
▁powder	-7415
▁Eastern	-7416
▁Eh	-7417
iffe	-7418
▁Sister	-7419
▁fortun	-7420
Mother	-7421
▁2019,	-7422
▁Holly	-7423
▁committee	-7424
EST	-7425
▁gain	-7426
ulated	-7427
▁inspect	-7428
athan	-7429
▁Illinois	-7430
keys	-7431
▁briefly	-7432
▁illustr	-7433
▁admitted	-7434
▁instruct	-7435
▁3.	-7436
▁Abe	-7437
▁occupied	-7438
▁seized	-7439
▁shaking	-7440
▁Gree	-7441
▁anch	-7442
▁emergency	-7443
erable	-7444
▁struggle	-7445
PS	-7446
▁Pict	-7447
▁Ra	-7448
▁amaz	-7449
▁scra	-7450
▁thirteen	-7451
▁rude	-7452
▁Light	-7453
▁Jeannine	-7454
▁Gro	-7455
▁vocalises	-7456
▁stove	-7457
▁altern	-7458
▁Ta	-7459
▁Johnson	-7460
▁Clare	-7461
li	-7462
June	-7463
▁Class	-7464
▁carpet	-7465
▁8,	-7466
▁balance	-7467
elp	-7468
▁11,	-7469
inder	-7470
▁purcha	-7471
▁Albert	-7472
▁Center	-7473
▁doctors	-7474
▁follows	-7475
atherine	-7476
▁Beth	-7477
▁Rick	-7478
▁Work	-7479
▁Oxford	-7480
▁Team	-7481
writer	-7482
▁fever	-7483
referring	-7484
▁instance	-7485
▁Southern	-7486
▁drum	-7487
arrass	-7488
▁exped	-7489
▁Person	-7490
yard	-7491
▁lif	-7492
unning	-7493
▁dough	-7494
▁causes	-7495
▁workers	-7496
▁32	-7497
▁checked	-7498
▁ath	-7499
▁KNOW	-7500
▁covers	-7501
.--	-7502
ali	-7503
pton	-7504
▁Lot	-7505
▁bug	-7506
▁desert	-7507
▁ba	-7508
▁Holl	-7509
▁bree	-7510
▁beads	-7511
▁consult	-7512
▁Carolina	-7513
▁route	-7514
▁uniform	-7515
aka	-7516
▁brick	-7517
▁advanced	-7518
▁creatures	-7519
sex	-7520
▁BRO	-7521
▁2008	-7522
▁convin	-7523
▁finan	-7524
15	-7525
iches	-7526
▁Turk	-7527
▁reward	-7528
▁studies	-7529
▁Nan	-7530
▁Tob	-7531
▁Tele	-7532
▁tempt	-7533
▁aboard	-7534
▁returning	-7535
inky	-7536
▁rifle	-7537
▁shelter	-7538
▁gods	-7539
▁Str	-7540
burgh	-7541
gging	-7542
▁Postman	-7543
▁9,	-7544
alls	-7545
icycle	-7546
iments	-7547
▁Faith	-7548
▁begun	-7549
elling	-7550
▁surrounded	-7551
.)	-7552
▁Lew	-7553
▁landing	-7554
▁inhabitants	-7555
ufact	-7556
▁AS	-7557
etts	-7558
hemat	-7559
▁Rail	-7560
▁platform	-7561
▁End	-7562
▁efforts	-7563
▁fits	-7564
▁slave	-7565
ighed	-7566
▁roads	-7567
▁settlement	-7568
GLO	-7569
irk	-7570
Thank	-7571
Calais	-7572
aks	-7573
enes	-7574
necessary	-7575
hens	-7576
aling	-7577
▁2012	-7578
▁enthus	-7579
▁Probably	-7580
music	-7581
▁schol	-7582
▁display	-7583
▁XV	-7584
sect	-7585
▁Def	-7586
iar	-7587
▁SC	-7588
▁Cra	-7589
babble	-7590
▁Offic	-7591
▁distinct	-7592
ague	-7593
▁Must	-7594
▁applic	-7595
▁Aren	-7596
▁Build	-7597
▁Shi	-7598
▁Tha	-7599
▁sauce	-7600
▁Twenty	-7601
▁Unt	-7602
▁cord	-7603
▁Career	-7604
▁bul	-7605
▁suffer	-7606
uzz	-7607
▁loo	-7608
▁false	-7609
▁safely	-7610
▁embarrass	-7611
mont	-7612
▁sin	-7613
erk	-7614
omed	-7615
rich	-7616
▁Mem	-7617
▁Bible	-7618
▁furniture	-7619
IST	-7620
ibly	-7621
▁Fel	-7622
▁multip	-7623
uddle	-7624
▁Georgia	-7625
zing	-7626
▁minor	-7627
▁nodded	-7628
▁uncom	-7629
aron	-7630
uties	-7631
▁Ale	-7632
▁stolen	-7633
aska	-7634
iens	-7635
▁flour	-7636
▁union	-7637
ridge	-7638
▁Thus	-7639
▁frame	-7640
▁Windows	-7641
▁contains	-7642
▁revol	-7643
▁dollar	-7644
▁Committee	-7645
▁nominated	-7646
▁forb	-7647
▁aband	-7648
▁conclud	-7649
▁persons	-7650
arn	-7651
▁girlfriend	-7652
imp	-7653
boat	-7654
▁healthy	-7655
▁cakes	-7656
▁Sydney	-7657
urg	-7658
Mr	-7659
ARD	-7660
----"	-7661
▁asks	-7662
▁Atlantic	-7663
▁attached	-7664
▁20,	-7665
which	-7666
▁Senate	-7667
▁blew	-7668
00.	-7669
ylvan	-7670
▁basketball	-7671
▁symbol	-7672
▁expecting	-7673
▁loudly	-7674
▁sleepy	-7675
▁depends	-7676
uable	-7677
▁mystery	-7678
heim	-7679
long	-7680
▁Holy	-7681
▁reality	-7682
▁utterances	-7683
esc	-7684
▁je	-7685
▁err	-7686
▁wreck	-7687
▁passion	-7688
||3	-7689
anas	-7690
▁15,	-7691
▁boot	-7692
▁method	-7693
▁Alan	-7694
anks	-7695
▁bubbles	-7696
▁tropical	-7697
▁sock	-7698
▁stopping	-7699
▁Mich	-7700
án	-7701
▁whistle	-7702
▁conscious	-7703
new	-7704
▁facing	-7705
American	-7706
▁goals	-7707
▁location	-7708
▁crocodile	-7709
▁Tam	-7710
▁oop	-7711
▁bond	-7712
▁ceased	-7713
uls	-7714
hara	-7715
▁steel	-7716
▁Though	-7717
▁cleaning	-7718
▁merely	-7719
▁archite	-7720
MEL	-7721
▁Lib	-7722
orious	-7723
▁Francis	-7724
▁Welcome	-7725
achus	-7726
▁Islam	-7727
▁persu	-7728
▁Martine	-7729
▁clothing	-7730
▁possession	-7731
▁considerable	-7732
▁Leon	-7733
▁sheet	-7734
▁ringing	-7735
reaches	-7736
lace	-7737
▁heavily	-7738
▁Nap	-7739
▁nick	-7740
ricane	-7741
▁warri	-7742
▁wishes	-7743
▁engines	-7744
▁affection	-7745
ICE	-7746
opes	-7747
▁2007	-7748
▁headed	-7749
▁sales	-7750
▁appeal	-7751
▁obliged	-7752
dog	-7753
geous	-7754
▁13,	-7755
▁2014	-7756
▁describe	-7757
▁batt	-7758
▁roar	-7759
▁quarters	-7760
▁OH	-7761
▁tray	-7762
▁ancest	-7763
▁Patrick	-7764
▁visited	-7765
▁inquired	-7766
▁neighborhood	-7767
pre	-7768
▁CON	-7769
LI	-7770
iy	-7771
▁Mid	-7772
▁Prot	-7773
ologist	-7774
▁vain	-7775
▁museum	-7776
▁drift	-7777
▁Winnie	-7778
▁Morgan	-7779
eme	-7780
▁Asian	-7781
▁Teddy	-7782
▁lemon	-7783
▁calcul	-7784
▁resour	-7785
▁─	-7786
AUN	-7787
▁citizens	-7788
▁connection	-7789
toys	-7790
▁affairs	-7791
▁romantic	-7792
▁construction	-7793
▁60	-7794
resp	-7795
▁hut	-7796
▁Seven	-7797
▁grateful	-7798
▁Illustr	-7799
▁returns	-7800
▁cupboard	-7801
▁tidy	-7802
▁Middle	-7803
▁alp	-7804
▁ger	-7805
OOK	-7806
hants	-7807
WE	-7808
▁sailor	-7809
▁reports	-7810
▁confirmed	-7811
▁vic	-7812
▁shark	-7813
▁Wilson	-7814
ieur	-7815
town	-7816
venge	-7817
▁Percy	-7818
▁biscuits	-7819
ocr	-7820
▁sne	-7821
▁Division	-7822
eness	-7823
▁colored	-7824
▁whoo	-7825
IG	-7826
bar	-7827
umble	-7828
UM	-7829
sk	-7830
▁Pas	-7831
▁rolls	-7832
▁fireman	-7833
On	-7834
hmm	-7835
lessly	-7836
▁march	-7837
▁units	-7838
una	-7839
▁2006	-7840
▁COVID	-7841
standing	-7842
▁Charlotte	-7843
LYN	-7844
rr	-7845
▁dyn	-7846
ylvania	-7847
▁cottage	-7848
▁gri	-7849
▁Pass	-7850
▁bees	-7851
▁Ari	-7852
▁Cub	-7853
▁www	-7854
ington	-7855
voice	-7856
▁acted	-7857
▁quant	-7858
▁slaves	-7859
▁Anth	-7860
▁factory	-7861
ints	-7862
▁Bernard	-7863
ograp	-7864
▁element	-7865
orted	-7866
unched	-7867
Gr	-7868
phy	-7869
▁pressed	-7870
▁disappointed	-7871
▁Jewish	-7872
▁Pacific	-7873
▁dreadful	-7874
▁Hay	-7875
▁Lincol	-7876
▁distributed	-7877
▁chess	-7878
▁sexual	-7879
▁sche	-7880
▁hockey	-7881
ransc	-7882
▁lamp	-7883
OB	-7884
▁vast	-7885
▁traditional	-7886
80	-7887
▁Belle	-7888
▁Goodbye	-7889
achusetts	-7890
▁Arch	-7891
▁Golden	-7892
▁Somebody	-7893
▁[6	-7894
▁rivers	-7895
▁pretending	-7896
▁Tay	-7897
▁Jake	-7898
▁joint	-7899
▁billion	-7900
mony	-7901
▁umbre	-7902
irts	-7903
▁pirate	-7904
▁Dog	-7905
▁stamp	-7906
▁benefit	-7907
ribly	-7908
▁costs	-7909
▁Valley	-7910
▁Guy	-7911
▁ded	-7912
▁supported	-7913
▁Moo	-7914
▁Pete	-7915
▁Thing	-7916
▁anger	-7917
▁contro	-7918
▁smiles	-7919
▁confused	-7920
walk	-7921
▁ratt	-7922
▁approached	-7923
▁actions	-7924
▁Ton	-7925
▁tissue	-7926
wide	-7927
▁2009	-7928
▁Hope	-7929
▁salad	-7930
▁confl	-7931
▁technology	-7932
▁Jr	-7933
▁trap	-7934
▁Simon	-7935
▁majority	-7936
agger	-7937
▁Dear	-7938
▁stup	-7939
▁[7	-7940
▁ARE	-7941
▁earned	-7942
▁glanced	-7943
▁injured	-7944
▁container	-7945
▁Kenn	-7946
▁Prod	-7947
▁Gabri	-7948
▁scored	-7949
mann	-7950
mate	-7951
▁Clark	-7952
▁prompt	-7953
▁Emma	-7954
▁cock	-7955
▁pup	-7956
▁2013	-7957
ertainly	-7958
▁rejo	-7959
▁partly	-7960
▁article	-7961
▁broadcast	-7962
▁Story	-7963
▁Berlin	-7964
____	-7965
erted	-7966
▁stroke	-7967
Your	-7968
estic	-7969
▁Order	-7970
▁killer	-7971
▁manufact	-7972
▁soil	-7973
▁princi	-7974
▁Song	-7975
▁inches	-7976
▁principal	-7977
▁importance	-7978
omi	-7979
▁Ni	-7980
▁seas	-7981
▁servants	-7982
▁BUT	-7983
▁jar	-7984
▁Sever	-7985
▁angel	-7986
▁16,	-7987
▁bullet	-7988
▁Massachusetts	-7989
rets	-7990
▁25,	-7991
▁ages	-7992
▁stable	-7993
▁Grandpa	-7994
▁client	-7995
▁nicely	-7996
rison	-7997
▁remove	-7998
▁Service	-7999
▁Francisco	-8000
aman	-8001
▁splash	-8002
▁degrees	-8003
▁Supp	-8004
▁14,	-8005
▁scale	-8006
▁Vol	-8007
▁Nina	-8008
▁Armen	-8009
▁tremb	-8010
Man	-8011
song	-8012
inkle	-8013
agement	-8014
▁budget	-8015
agged	-8016
ament	-8017
▁Exactly	-8018
isse	-8019
▁senior	-8020
Ind	-8021
obe	-8022
▁Aha	-8023
crying	-8024
▁Kansas	-8025
▁Stephen	-8026
▁reaching	-8027
ugs	-8028
▁dining	-8029
lying	-8030
▁gard	-8031
▁vehicle	-8032
cr	-8033
▁18,	-8034
▁understanding	-8035
mosp	-8036
▁classes	-8037
▁commonly	-8038
onscious	-8039
▁pitched	-8040
eling	-8041
▁seasons	-8042
▁hid	-8043
▁helicopter	-8044
sque	-8045
vell	-8046
▁image	-8047
▁retire	-8048
▁compared	-8049
▁Net	-8050
▁trained	-8051
▁attended	-8052
▁Dominic	-8053
▁Budd	-8054
FA	-8055
▁Kn	-8056
▁flu	-8057
otted	-8058
▁Liber	-8059
▁management	-8060
MAD	-8061
keeper	-8062
▁tribe	-8063
▁PL	-8064
part	-8065
▁21,	-8066
▁sausage	-8067
iro	-8068
▁defeated	-8069
ario	-8070
▁Director	-8071
Bl	-8072
uz	-8073
wan	-8074
▁dey	-8075
▁Papa	-8076
▁Sport	-8077
uals	-8078
▁rev	-8079
eline	-8080
aughters	-8081
▁approaching	-8082
▁answers	-8083
▁capture	-8084
▁naturally	-8085
▁sched	-8086
iders	-8087
▁Cass	-8088
▁ugly	-8089
▁Karen	-8090
▁distingu	-8091
ele	-8092
anes	-8093
▁concl	-8094
▁Emperor	-8095
▁desperate	-8096
▁Battle	-8097
▁contest	-8098
▁sticker	-8099
▁pole	-8100
ef	-8101
▁Institute	-8102
▁ward	-8103
▁aircraft	-8104
▁income	-8105
▁stores	-8106
RIC	-8107
▁seeds	-8108
▁Instead	-8109
▁demonstr	-8110
▁LE	-8111
door	-8112
▁gle	-8113
▁separated	-8114
▁stretched	-8115
▁territory	-8116
▁authorities	-8117
▁teen	-8118
▁shy	-8119
▁noted	-8120
▁serving	-8121
onia	-8122
▁coloring	-8123
▁eliminated	-8124
▁cuts	-8125
▁winner	-8126
umm	-8127
▁2015	-8128
▁nearest	-8129
▁Top	-8130
▁2021,	-8131
▁Lau	-8132
▁Dora	-8133
▁Madam	-8134
▁referred	-8135
▁universe	-8136
rah	-8137
▁Penns	-8138
▁Social	-8139
zes	-8140
imme	-8141
▁ren	-8142
ender	-8143
▁Argent	-8144
▁arrival	-8145
▁dressing	-8146
▁Nord	-8147
▁items	-8148
▁Eight	-8149
▁Jersey	-8150
▁Islands	-8151
▁stations	-8152
▁Wolf	-8153
▁instit	-8154
▁headquarters	-8155
ropol	-8156
▁dull	-8157
▁biscuit	-8158
eting	-8159
▁Museum	-8160
▁betray	-8161
▁rustling	-8162
▁boyfriend	-8163
di	-8164
▁spy	-8165
▁2018,	-8166
Wh	-8167
▁Ocean	-8168
▁cricket	-8169
▁remaining	-8170
▁chew	-8171
▁wanting	-8172
▁assistant	-8173
▁wicked	-8174
pron	-8175
▁OUT	-8176
▁Ven	-8177
TA	-8178
LES	-8179
▁rac	-8180
allas	-8181
▁tradition	-8182
▁satisfaction	-8183
▁Viet	-8184
itched	-8185
▁awarded	-8186
▁retreat	-8187
▁midnight	-8188
nis	-8189
▁elephants	-8190
▁represented	-8191
cur	-8192
low	-8193
▁hydro	-8194
▁battery	-8195
▁lemme	-8196
▁deeply	-8197
four	-8198
▁GET	-8199
▁amongst	-8200
▁variety	-8201
▁whisper	-8202
also	-8203
▁tab	-8204
▁vig	-8205
▁buff	-8206
▁{	-8207
iner	-8208
▁Vis	-8209
who	-8210
▁Sat	-8211
▁hal	-8212
70	-8213
och	-8214
▁hits	-8215
▁confident	-8216
ulls	-8217
▁Arn	-8218
gment	-8219
▁keen	-8220
▁Represent	-8221
▁Form	-8222
▁Snow	-8223
▁Mouse	-8224
▁exact	-8225
▁minds	-8226
▁feeding	-8227
▁funeral	-8228
▁accompan	-8229
▁alongside	-8230
haw	-8231
▁17,	-8232
▁illness	-8233
▁sale	-8234
▁writ	-8235
pected	-8236
--_	-8237
ifer	-8238
▁Gray	-8239
▁Moon	-8240
▁Prize	-8241
uddenly	-8242
▁programme	-8243
▁economic	-8244
▁bord	-8245
▁Until	-8246
▁Muslim	-8247
▁Bring	-8248
▁revolution	-8249
some	-8250
screams	-8251
▁concer	-8252
▁compar	-8253
▁acid	-8254
▁Cathy	-8255
▁committed	-8256
▁meow	-8257
▁estate	-8258
▁Mmm	-8259
▁Beat	-8260
▁dirt	-8261
bridge	-8262
▁tempor	-8263
oir	-8264
▁35	-8265
▁Shan	-8266
▁vacation	-8267
▁crab	-8268
master	-8269
▁electr	-8270
▁horror	-8271
▁electron	-8272
▁arrive	-8273
▁cattle	-8274
▁Barry	-8275
onsieur	-8276
▁responded	-8277
▁Gall	-8278
▁Walk	-8279
▁loyal	-8280
▁exchange	-8281
▁troubles	-8282
▁adventures	-8283
dri	-8284
▁Davis	-8285
▁interrupted	-8286
▁politics	-8287
▁impl	-8288
▁Republican	-8289
▁ee	-8290
▁hee	-8291
▁voy	-8292
▁Sandy	-8293
▁figured	-8294
nda	-8295
alie	-8296
unks	-8297
▁Abs	-8298
▁Naz	-8299
▁Ukr	-8300
▁Cwww	-8301
▁Buck	-8302
▁webs	-8303
▁drawer	-8304
▁solemn	-8305
▁officially	-8306
rob	-8307
imum	-8308
▁Hit	-8309
▁Pennsylvania	-8310
hio	-8311
▁cou	-8312
▁Mill	-8313
▁vessels	-8314
ourse	-8315
▁achieve	-8316
▁charming	-8317
round	-8318
▁peep	-8319
▁Health	-8320
ratulations	-8321
works	-8322
▁anal	-8323
▁Grant	-8324
▁Aw	-8325
▁2001	-8326
▁Spider	-8327
▁oy	-8328
iven	-8329
▁Ice	-8330
▁Zorg	-8331
▁Olympic	-8332
uces	-8333
asion	-8334
▁bench	-8335
▁Mexican	-8336
▁murdered	-8337
▁violence	-8338
▁dea	-8339
verse	-8340
▁loving	-8341
▁strawberries	-8342
ophy	-8343
▁lob	-8344
▁belonged	-8345
rett	-8346
▁potato	-8347
fire	-8348
▁thirsty	-8349
▁Austrian	-8350
▁umbrella	-8351
▁valuable	-8352
▁fasc	-8353
▁nuts	-8354
▁atmosp	-8355
▁paused	-8356
▁squad	-8357
▁prayer	-8358
▁Pil	-8359
▁Mean	-8360
▁Finally	-8361
▁survive	-8362
▁mistress	-8363
▁COM	-8364
▁basic	-8365
▁Heaven	-8366
▁prepare	-8367
▁tickets	-8368
▁financial	-8369
▁insect	-8370
▁counting	-8371
▁reaction	-8372
▁await	-8373
▁rubber	-8374
▁foolish	-8375
▁Duck	-8376
▁capable	-8377
spe	-8378
▁Hans	-8379
imately	-8380
▁scheme	-8381
rad	-8382
'...	-8383
▁ber	-8384
▁Jord	-8385
▁ceremony	-8386
TS	-8387
▁household	-8388
agle	-8389
corn	-8390
▁Chap	-8391
▁thoroughly	-8392
▁Wild	-8393
▁Linda	-8394
▁Spani	-8395
▁blows	-8396
▁Commander	-8397
coh	-8398
16	-8399
17	-8400
orial	-8401
▁prospect	-8402
▁rig	-8403
▁pecul	-8404
▁discovery	-8405
owa	-8406
▁Nik	-8407
▁stated	-8408
▁Michigan	-8409
rily	-8410
▁unex	-8411
▁feathers	-8412
▁FC	-8413
▁drag	-8414
▁labor	-8415
inity	-8416
▁sought	-8417
▁artists	-8418
▁Ak	-8419
▁mal	-8420
▁chip	-8421
intend	-8422
▁Lewis	-8423
▁concert	-8424
▁hath	-8425
▁Larry	-8426
▁chimney	-8427
ormed	-8428
▁feast	-8429
▁sixth	-8430
▁strict	-8431
▁closing	-8432
▁visitors	-8433
▁insurance	-8434
▁Id	-8435
attered	-8436
▁Follow	-8437
▁Nathan	-8438
▁nowhere	-8439
INE	-8440
ext	-8441
▁ashore	-8442
▁starring	-8443
ova	-8444
▁Dra	-8445
▁grat	-8446
▁defeat	-8447
▁wherever	-8448
▁tournament	-8449
OP	-8450
▁Broad	-8451
▁carrot	-8452
▁delightful	-8453
▁explanation	-8454
cut	-8455
▁growth	-8456
▁nearby	-8457
▁agreement	-8458
▁insp	-8459
▁Honor	-8460
HL	-8461
acious	-8462
▁Bomba	-8463
▁Raymond	-8464
▁Suddenly	-8465
idays	-8466
▁Tour	-8467
▁unhappy	-8468
▁partners	-8469
▁Manchester	-8470
▁[8	-8471
lets	-8472
▁Better	-8473
▁✿	-8474
▁basis	-8475
▁cleared	-8476
▁resident	-8477
▁touching	-8478
bly	-8479
▁commission	-8480
olt	-8481
pent	-8482
▁Ral	-8483
▁virt	-8484
▁skill	-8485
▁Lincoln	-8486
utation	-8487
▁Society	-8488
▁focus	-8489
▁piggy	-8490
▁sailing	-8491
▁champion	-8492
▁numerous	-8493
apers	-8494
▁Bruce	-8495
▁conflict	-8496
▁eth	-8497
▁toe	-8498
urches	-8499
▁portion	-8500
▁triangle	-8501
NE	-8502
▁oink	-8503
gro	-8504
▁extent	-8505
▁intense	-8506
▁30,	-8507
rifice	-8508
▁anxiety	-8509
▁22,	-8510
▁JUST	-8511
▁mend	-8512
▁disci	-8513
▁commercial	-8514
▁Inc	-8515
▁Sav	-8516
▁economy	-8517
▁mathemat	-8518
top	-8519
▁sciss	-8520
▁detective	-8521
▁cub	-8522
▁Sara	-8523
▁meters	-8524
▁Germans	-8525
▁chances	-8526
iable	-8527
olves	-8528
▁2004	-8529
▁Earl	-8530
▁tune	-8531
ebra	-8532
▁Pope	-8533
▁whale	-8534
▁Hannah	-8535
▁tremend	-8536
▁sym	-8537
▁natives	-8538
▁primary	-8539
hor	-8540
▁1950	-8541
▁sticky	-8542
▁punishment	-8543
TV	-8544
▁chart	-8545
▁sailed	-8546
▁throne	-8547
▁intention	-8548
TLE	-8549
▁Ts	-8550
case	-8551
▁polite	-8552
▁Scottish	-8553
▁limited	-8554
two	-8555
ught	-8556
▁Raj	-8557
ements	-8558
▁Kevin	-8559
▁bore	-8560
▁Indeed	-8561
▁argument	-8562
13	-8563
▁hired	-8564
▁daughters	-8565
▁dece	-8566
▁sneak	-8567
ammy	-8568
▁2017,	-8569
▁THERE	-8570
▁carbon	-8571
▁Rich	-8572
▁fare	-8573
▁rocket	-8574
▁studying	-8575
oked	-8576
▁24,	-8577
▁sticking	-8578
▁Brazilian	-8579
OOD	-8580
Yeah	-8581
▁lung	-8582
▁domin	-8583
▁lt	-8584
▁depth	-8585
▁reign	-8586
▁surgery	-8587
▁pregnant	-8588
▁slee	-8589
▁Frances	-8590
▁scientific	-8591
UL	-8592
▁UP	-8593
pool	-8594
▁Minn	-8595
▁staring	-8596
At	-8597
gal	-8598
▁pist	-8599
▁innit	-8600
▁Norman	-8601
▁shortly	-8602
▁Victoria	-8603
One	-8604
▁23,	-8605
pless	-8606
▁draws	-8607
▁chamber	-8608
▁gal	-8609
▁opera	-8610
▁script	-8611
▁temple	-8612
▁Through	-8613
▁Lawrence	-8614
▁Fanny	-8615
▁swept	-8616
▁dinosaurs	-8617
▁Rus	-8618
▁bid	-8619
▁Ever	-8620
inated	-8621
▁Kenneth	-8622
▁composed	-8623
▁products	-8624
▁conference	-8625
grim	-8626
asses	-8627
sound	-8628
▁Lad	-8629
pson	-8630
▁Spring	-8631
▁convinced	-8632
▁Sis	-8633
▁Allen	-8634
▁refers	-8635
▁consist	-8636
▁Main	-8637
▁imit	-8638
▁loads	-8639
▁cotton	-8640
▁Vin	-8641
▁unw	-8642
▁attacks	-8643
zer	-8644
▁cigaret	-8645
▁elements	-8646
▁nonsense	-8647
bors	-8648
comm	-8649
▁packed	-8650
▁Anthony	-8651
▁generation	-8652
▁[9	-8653
▁Fle	-8654
▁Won	-8655
break	-8656
▁enjoying	-8657
▁yeh	-8658
▁Rand	-8659
▁tack	-8660
▁tide	-8661
▁levels	-8662
▁pattern	-8663
mel	-8664
onge	-8665
▁closes	-8666
▁spending	-8667
▁scientists	-8668
ilst	-8669
▁ven	-8670
▁tool	-8671
ainted	-8672
▁Loire	-8673
▁hopes	-8674
▁stupid	-8675
▁plot	-8676
ulture	-8677
▁friendship	-8678
Will	-8679
▁28,	-8680
inda	-8681
▁SHE	-8682
▁Lwww	-8683
angers	-8684
▁lands	-8685
▁Amanda	-8686
▁Records	-8687
▁municipal	-8688
▁touches	-8689
▁recovered	-8690
HER	-8691
isk	-8692
▁Sergeant	-8693
Have	-8694
▁Tal	-8695
▁Joey	-8696
▁belly	-8697
▁Dallas	-8698
▁cooked	-8699
▁vision	-8700
inea	-8701
rell	-8702
▁Osc	-8703
▁poll	-8704
▁2020.	-8705
▁ding	-8706
▁adopted	-8707
▁Nell	-8708
▁Diana	-8709
▁bob	-8710
▁Bank	-8711
▁thrust	-8712
▁pumpkin	-8713
IND	-8714
inem	-8715
itter	-8716
▁lawn	-8717
▁loft	-8718
▁Leslie	-8719
▁regions	-8720
▁insisted	-8721
▁programs	-8722
ón	-8723
places	-8724
▁banks	-8725
▁stead	-8726
▁Labour	-8727
▁launched	-8728
▁patients	-8729
▁regarded	-8730
▁Film	-8731
▁rattle	-8732
▁impress	-8733
ika	-8734
▁Ms	-8735
▁19,	-8736
▁27,	-8737
▁Mind	-8738
▁Enter	-8739
▁Grandad	-8740
▁instrument	-8741
Sh	-8742
000.	-8743
▁ere	-8744
inking	-8745
angar	-8746
▁lover	-8747
had	-8748
▁charged	-8749
ANN	-8750
iga	-8751
aints	-8752
▁Cher	-8753
▁undert	-8754
▁package	-8755
▁Graeme	-8756
▁activities	-8757
▁Vill	-8758
▁launch	-8759
▁breathe	-8760
▁cheerful	-8761
▁carrots	-8762
ennis	-8763
▁steep	-8764
▁necklace	-8765
isp	-8766
▁Wr	-8767
▁ridic	-8768
▁willn	-8769
▁Poland	-8770
▁Morning	-8771
continues	-8772
▁secretary	-8773
▁Na	-8774
▁madam	-8775
Cl	-8776
ption	-8777
▁muff	-8778
inners	-8779
▁shots	-8780
▁Harold	-8781
▁nuclear	-8782
▁ruled	-8783
gues	-8784
▁26,	-8785
▁Arm	-8786
sname	-8787
▁disg	-8788
▁christ	-8789
habet	-8790
▁Kelly	-8791
cow	-8792
▁Ka	-8793
▁holy	-8794
▁beating	-8795
▁;	-8796
AKE	-8797
▁——	-8798
▁Pret	-8799
▁fled	-8800
ygen	-8801
▁Ass	-8802
▁rit	-8803
▁mercy	-8804
▁mister	-8805
▁“‘	-8806
▁Cas	-8807
▁None	-8808
▁flow	-8809
▁stays	-8810
▁bearing	-8811
▁(,	-8812
▁jer	-8813
▁Dolly	-8814
▁Friend	-8815
▁expedition	-8816
▁vegetables	-8817
▁wo	-8818
▁Jos	-8819
▁gum	-8820
▁dried	-8821
▁winds	-8822
theless	-8823
▁Family	-8824
▁jungle	-8825
▁Ze	-8826
▁Taylor	-8827
▁repeat	-8828
▁Granddad	-8829
IKE	-8830
▁2005	-8831
▁mayor	-8832
▁instantly	-8833
GAI	-8834
obal	-8835
▁prior	-8836
cription	-8837
▁constant	-8838
▁proceeded	-8839
▁Easter	-8840
olph	-8841
▁Cut	-8842
▁Hug	-8843
olley	-8844
▁Civil	-8845
▁flies	-8846
90	-8847
▁fuel	-8848
▁nort	-8849
▁propos	-8850
HS	-8851
adu	-8852
ettle	-8853
▁fires	-8854
▁bicycle	-8855
▁threatened	-8856
▁Emily	-8857
uled	-8858
▁engineer	-8859
ogue	-8860
▁Seth	-8861
teacher	-8862
▁canton	-8863
▁sacred	-8864
▁recommend	-8865
give	-8866
▁baba	-8867
▁pirates	-8868
▁rabbits	-8869
▁Revolution	-8870
▁sufficient	-8871
▁Kong	-8872
▁estim	-8873
▁charges	-8874
▁cone	-8875
▁Jordan	-8876
▁awfully	-8877
▁bottles	-8878
▁criminal	-8879
akin	-8880
oting	-8881
▁dign	-8882
▁panc	-8883
▁Guard	-8884
icip	-8885
arson	-8886
▁Educ	-8887
▁noon	-8888
priate	-8889
▁illeg	-8890
▁kindness	-8891
vocalization	-8892
▁hed	-8893
▁Wend	-8894
▁waving	-8895
▁villages	-8896
ipt	-8897
▁summ	-8898
ags	-8899
hetic	-8900
▁Hang	-8901
▁refuse	-8902
▁Power	-8903
▁anyhow	-8904
acity	-8905
▁Tokyo	-8906
Perhaps	-8907
▁Childsname	-8908
NG	-8909
arant	-8910
▁Check	-8911
▁zebra	-8912
▁shared	-8913
▁catching	-8914
▁mysterious	-8915
▁500	-8916
▁Sax	-8917
▁Boys	-8918
▁hats	-8919
||0||0	-8920
▁Doesn	-8921
▁Forget	-8922
▁screaming	-8923
▁impression	-8924
▁Sab	-8925
ccer	-8926
▁disag	-8927
▁Howard	-8928
▁36	-8929
▁fetch	-8930
▁poured	-8931
▁stared	-8932
▁directions	-8933
Un	-8934
▁Ky	-8935
▁instructions	-8936
SH	-8937
▁184	-8938
▁Bav	-8939
▁ens	-8940
▁emot	-8941
wick	-8942
▁Stra	-8943
iently	-8944
▁2010,	-8945
▁enorm	-8946
▁films	-8947
▁shove	-8948
▁introduce	-8949
omy	-8950
▁federal	-8951
▁machines	-8952
▁Korean	-8953
▁Children	-8954
etic	-8955
▁Kay	-8956
rm	-8957
▁beef	-8958
▁Jacob	-8959
▁Scient	-8960
EP	-8961
rate	-8962
▁animated	-8963
▁sandwiches	-8964
IES	-8965
nor	-8966
pol	-8967
bage	-8968
▁Lily	-8969
chestra	-8970
▁visible	-8971
▁multiple	-8972
iley	-8973
otal	-8974
▁Pic	-8975
anges	-8976
▁surre	-8977
▁Commission	-8978
▁expert	-8979
▁Assembly	-8980
vention	-8981
▁steamer	-8982
▁limit	-8983
▁snack	-8984
▁sniff	-8985
▁thumb	-8986
▁feared	-8987
▁districts	-8988
▁Du	-8989
▁Ut	-8990
elia	-8991
pher	-8992
▁Ali	-8993
force	-8994
▁crept	-8995
▁Rub	-8996
asped	-8997
▁parish	-8998
▁tomato	-8999
▁Half	-9000
▁Force	-9001
▁jolly	-9002
▁Castle	-9003
INK	-9004
iscilla	-9005
▁fierce	-9006
▁perman	-9007
▁Free	-9008
▁cush	-9009
▁Several	-9010
▁affected	-9011
▁terribly	-9012
▁Aud	-9013
▁Engine	-9014
▁wrapped	-9015
▁scissors	-9016
▁Mun	-9017
▁Rol	-9018
▁limb	-9019
▁hated	-9020
▁extended	-9021
▁cycl	-9022
▁Death	-9023
▁prime	-9024
geon	-9025
▁seal	-9026
▁dies	-9027
▁alcoh	-9028
Sure	-9029
iden	-9030
ront	-9031
▁Find	-9032
▁Pa	-9033
refers	-9034
UD	-9035
ipes	-9036
▁MAR	-9037
▁2021)	-9038
OUN	-9039
▁Point	-9040
▁bells	-9041
▁devil	-9042
▁assured	-9043
▁gorgeous	-9044
▁BC	-9045
▁hoo	-9046
▁stout	-9047
▁existence	-9048
▁atmosphere	-9049
▁Hir	-9050
▁chin	-9051
▁mast	-9052
▁Start	-9053
▁gimme	-9054
▁attitude	-9055
▁peculiar	-9056
ashes	-9057
mates	-9058
▁Quick	-9059
▁grade	-9060
25	-9061
iat	-9062
sur	-9063
▁lip	-9064
▁Josh	-9065
rings	-9066
▁useless	-9067
▁Die	-9068
▁device	-9069
▁description	-9070
vior	-9071
▁clay	-9072
▁articles	-9073
▁chickens	-9074
▁expressed	-9075
UE	-9076
▁commit	-9077
▁lasted	-9078
▁Ay	-9079
abor	-9080
▁Add	-9081
whines	-9082
▁albums	-9083
▁attempts	-9084
-3	-9085
▁Ot	-9086
▁web	-9087
▁HERE	-9088
thened	-9089
▁volcan	-9090
"),	-9091
▁acts	-9092
giving	-9093
▁dwell	-9094
▁nesting	-9095
lap	-9096
▁dropping	-9097
ippi	-9098
oused	-9099
▁Mayor	-9100
▁grief	-9101
▁zero	-9102
▁turkey	-9103
▁miserable	-9104
Mar	-9105
ysis	-9106
▁Allah	-9107
▁possibility	-9108
amm	-9109
▁aah	-9110
armed	-9111
moves	-9112
▁Having	-9113
▁delivered	-9114
▁sacrifice	-9115
▁unexpected	-9116
▁kisses	-9117
bi	-9118
▁pine	-9119
▁aeropl	-9120
▁snakes	-9121
▁univers	-9122
▁sout	-9123
coming	-9124
▁Number	-9125
▁candle	-9126
stitution	-9127
MP	-9128
▁Catherine	-9129
▁ing	-9130
▁assistance	-9131
going	-9132
▁unlike	-9133
▁claimed	-9134
▁disaster	-9135
▁(18	-9136
▁Hart	-9137
▁warn	-9138
▁Priscilla	-9139
stal	-9140
▁phr	-9141
▁barely	-9142
▁feature	-9143
▁significant	-9144
▁genus	-9145
▁savage	-9146
▁squeeze	-9147
leton	-9148
▁cops	-9149
▁slice	-9150
uv	-9151
▁IV	-9152
▁Bol	-9153
esome	-9154
▁arrow	-9155
▁churches	-9156
▁Li	-9157
ilton	-9158
ifying	-9159
▁shelf	-9160
ustomed	-9161
▁tricks	-9162
UCK	-9163
away	-9164
▁bron	-9165
▁seed	-9166
▁Blake	-9167
▁invite	-9168
▁Haven	-9169
▁Trust	-9170
▁glory	-9171
▁dragged	-9172
▁stretch	-9173
uer	-9174
▁Cind	-9175
▁batteries	-9176
helle	-9177
oster	-9178
▁photo	-9179
▁aspect	-9180
▁absence	-9181
▁Jonathan	-9182
▁Championships	-9183
BE	-9184
ras	-9185
▁2022,	-9186
▁Ern	-9187
▁Clar	-9188
▁leads	-9189
isation	-9190
mod	-9191
▁Sweet	-9192
▁negative	-9193
.=	-9194
zed	-9195
▁frank	-9196
▁obtain	-9197
ranscribed	-9198
▁centuries	-9199
▁seventeen	-9200
▁sung	-9201
▁Robinson	-9202
▁helpless	-9203
AH	-9204
tries	-9205
▁Navy	-9206
▁crowded	-9207
▁Wonder	-9208
▁colonel	-9209
▁acquaint	-9210
▁generous	-9211
▁Meanwhile	-9212
BS	-9213
brush	-9214
unted	-9215
▁outer	-9216
▁label	-9217
▁fridge	-9218
▁gloves	-9219
▁tables	-9220
▁gradually	-9221
▁29,	-9222
▁peak	-9223
▁facts	-9224
▁associated	-9225
▁yourselves	-9226
▁45	-9227
▁Ve	-9228
inton	-9229
▁Joan	-9230
▁Ohio	-9231
▁jury	-9232
▁duties	-9233
▁faithful	-9234
cup	-9235
▁Tar	-9236
▁Claus	-9237
▁anchor	-9238
▁Confeder	-9239
▁challenge	-9240
▁discussion	-9241
▁championship	-9242
glas	-9243
▁Lyn	-9244
Very	-9245
▁News	-9246
▁Mississ	-9247
▁mike	-9248
▁swung	-9249
▁mistaken	-9250
ikes	-9251
orms	-9252
orous	-9253
▁copies	-9254
pense	-9255
▁prem	-9256
▁ginger	-9257
▁violent	-9258
▁suggestion	-9259
▁Stu	-9260
▁kidna	-9261
▁editor	-9262
▁utterance	-9263
oyd	-9264
urger	-9265
▁Edna	-9266
amation	-9267
▁frequently	-9268
▁ok	-9269
▁begged	-9270
▁obtained	-9271
▁occasionally	-9272
▁2011,	-9273
▁Pardon	-9274
▁smoking	-9275
▁Lang	-9276
▁Soph	-9277
▁beard	-9278
▁sweets	-9279
▁vel	-9280
▁glue	-9281
▁draft	-9282
▁flesh	-9283
▁laying	-9284
▁warned	-9285
uma	-9286
▁BA	-9287
▁Julie	-9288
▁mental	-9289
▁Franklin	-9290
▁Geoff	-9291
▁spaces	-9292
▁sailors	-9293
JW	-9294
▁liquid	-9295
▁organized	-9296
▁investigation	-9297
▁Geography	-9298
▁SA	-9299
▁Line	-9300
▁silk	-9301
▁millions	-9302
▁constantly	-9303
22	-9304
osy	-9305
▁Jay	-9306
icken	-9307
▁Found	-9308
▁childhood	-9309
▁previously	-9310
▁raid	-9311
▁heels	-9312
▁conven	-9313
press	-9314
▁Wrest	-9315
▁kicked	-9316
▁deserve	-9317
▁Sin	-9318
▁gloom	-9319
▁Contin	-9320
▁status	-9321
adelp	-9322
▁alphabet	-9323
western	-9324
▁Arnold	-9325
▁mice	-9326
▁stress	-9327
ORE	-9328
▁Jen	-9329
ooray	-9330
▁bride	-9331
▁provin	-9332
VEN	-9333
▁wag	-9334
▁kings	-9335
▁YE	-9336
fits	-9337
ulse	-9338
▁tales	-9339
▁Things	-9340
aze	-9341
Miss	-9342
▁grim	-9343
▁louder	-9344
▁solution	-9345
vet	-9346
▁ack	-9347
orney	-9348
▁pudd	-9349
whispering	-9350
lar	-9351
umph	-9352
acles	-9353
▁kilomet	-9354
▁hen	-9355
▁guards	-9356
ordinary	-9357
▁victims	-9358
▁tremendous	-9359
ITTLE	-9360
▁item	-9361
▁refe	-9362
▁concept	-9363
din	-9364
▁2016,	-9365
▁Samuel	-9366
erer	-9367
▁183	-9368
▁grandpa	-9369
Ex	-9370
▁Vi	-9371
▁arose	-9372
▁gates	-9373
▁sympathy	-9374
▁movements	-9375
▁unconscious	-9376
200	-9377
ervative	-9378
▁ga	-9379
edge	-9380
▁narr	-9381
▁cared	-9382
adelphia	-9383
▁crossing	-9384
;"	-9385
sa	-9386
▁ease	-9387
▁Leg	-9388
▁Zoe	-9389
▁nep	-9390
▁mour	-9391
▁ruin	-9392
▁Among	-9393
▁Missus	-9394
▁applied	-9395
▁neighbors	-9396
Qu	-9397
▁Luke	-9398
▁mars	-9399
ouches	-9400
▁Ho	-9401
▁McG	-9402
▁pepper	-9403
▁obvious	-9404
▁Jessie	-9405
▁lux	-9406
▁Hell	-9407
▁mush	-9408
▁aliens	-9409
▁corpor	-9410
▁kitten	-9411
▁Arkansas	-9412
mad	-9413
▁trace	-9414
▁heading	-9415
▁delicate	-9416
▁electricity	-9417
chi	-9418
▁drank	-9419
▁perce	-9420
▁closet	-9421
▁decent	-9422
▁nephew	-9423
▁voyage	-9424
▁resolved	-9425
▁2003	-9426
▁midst	-9427
▁impact	-9428
▁remarkable	-9429
arse	-9430
▁Alab	-9431
▁Lion	-9432
▁Officer	-9433
GHS	-9434
▁4.	-9435
▁tennis	-9436
▁accused	-9437
cat	-9438
aval	-9439
▁fer	-9440
▁Miller	-9441
▁Moscow	-9442
▁Amb	-9443
▁holidays	-9444
▁collected	-9445
▁Office	-9446
chard	-9447
▁detail	-9448
izations	-9449
▁presidential	-9450
▁ABOUT	-9451
▁Ralph	-9452
▁Series	-9453
cia	-9454
▁breeze	-9455
▁Special	-9456
▁Gri	-9457
▁obst	-9458
▁absor	-9459
▁horiz	-9460
▁Burton	-9461
▁shakes	-9462
▁leather	-9463
▁Tomorrow	-9464
bery	-9465
▁fee	-9466
after	-9467
▁THEY	-9468
▁WELL	-9469
▁bass	-9470
▁Marky	-9471
▁gazed	-9472
▁spill	-9473
▁Douglas	-9474
▁profession	-9475
/020	-9476
▁Mas	-9477
▁Swedish	-9478
▁explore	-9479
▁Pear	-9480
▁ending	-9481
▁comrades	-9482
▁Et	-9483
▁Ja	-9484
▁ugh	-9485
▁Todd	-9486
▁imper	-9487
▁tribes	-9488
――	-9489
▁HER	-9490
adesh	-9491
▁Card	-9492
▁Gary	-9493
▁pace	-9494
▁recover	-9495
▁Absolutely	-9496
▁MR	-9497
hard	-9498
ubby	-9499
▁Av	-9500
▁heap	-9501
unnecessary	-9502
▁Mississippi	-9503
from	-9504
ennes	-9505
▁bars	-9506
▁golf	-9507
▁2011.	-9508
▁incredible	-9509
▁accompanied	-9510
▁Benj	-9511
▁Maur	-9512
hearted	-9513
▁Graham	-9514
▁candidate	-9515
▁establish	-9516
▁northwest	-9517
By	-9518
ghan	-9519
▁Imp	-9520
▁mart	-9521
▁disturb	-9522
De	-9523
NIC	-9524
dam	-9525
dale	-9526
▁sob	-9527
▁Ready	-9528
▁nah	-9529
▁sank	-9530
▁Coast	-9531
▁Polish	-9532
▁fantastic	-9533
?]	-9534
otic	-9535
▁ult	-9536
▁2002	-9537
▁RIGHT	-9538
▁sou	-9539
gives	-9540
▁pier	-9541
ropolitan	-9542
▁favourite	-9543
▁goose	-9544
▁appointment	-9545
PP	-9546
eav	-9547
phan	-9548
▁Kath	-9549
▁Khan	-9550
▁situ	-9551
▁cheeky	-9552
▁digger	-9553
▁exceed	-9554
▁circles	-9555
▁sometime	-9556
▁puff	-9557
when	-9558
▁2010.	-9559
▁overt	-9560
reading	-9561
▁stuffed	-9562
▁Oper	-9563
real	-9564
ureau	-9565
▁gest	-9566
▁blast	-9567
▁chasing	-9568
45	-9569
Ne	-9570
unn	-9571
itors	-9572
▁Education	-9573
▁historical	-9574
–19	-9575
▁Moses	-9576
▁faced	-9577
▁nasty	-9578
▁stool	-9579
▁ballet	-9580
▁firing	-9581
▁revealed	-9582
▁troubled	-9583
▁Ain	-9584
▁Bour	-9585
▁Karl	-9586
▁potty	-9587
▁passes	-9588
▁Ban	-9589
▁Chat	-9590
▁nail	-9591
▁tire	-9592
▁speaker	-9593
▁IF	-9594
▁Roll	-9595
OUR	-9596
des	-9597
jan	-9598
usc	-9599
▁"_	-9600
▁fog	-9601
▁2019.	-9602
▁LITTLE	-9603
▁concluded	-9604
▁Philadelphia	-9605
▁boring	-9606
▁defense	-9607
▁musician	-9608
▁invitation	-9609
▁penn	-9610
alling	-9611
▁curios	-9612
▁indign	-9613
▁oxygen	-9614
▁reflect	-9615
▁tramp	-9616
▁proced	-9617
▁personally	-9618
▁forests	-9619
mic	-9620
zech	-9621
▁ONE	-9622
▁Mcdon	-9623
▁profit	-9624
▁WOR	-9625
eating	-9626
▁comin	-9627
▁Pierre	-9628
▁Wy	-9629
agne	-9630
alle	-9631
will	-9632
ection	-9633
earch	-9634
elson	-9635
▁newspapers	-9636
▁von	-9637
▁strongly	-9638
aste	-9639
21	-9640
oria	-9641
lement	-9642
▁thief	-9643
▁interfe	-9644
▁Personal	-9645
nut	-9646
▁Alabama	-9647
▁suitc	-9648
▁assume	-9649
▁grounds	-9650
▁covering	-9651
▁OR	-9652
only	-9653
orus	-9654
▁kne	-9655
aters	-9656
▁Plan	-9657
▁roots	-9658
▁breaks	-9659
osis	-9660
▁races	-9661
▁helmet	-9662
▁theatre	-9663
▁DID	-9664
▁(198	-9665
▁gaze	-9666
▁unique	-9667
▁Airport	-9668
▁subjects	-9669
▁33	-9670
velope	-9671
▁alien	-9672
angaroo	-9673
▁Always	-9674
▁penguin	-9675
▁announce	-9676
erg	-9677
ienna	-9678
ective	-9679
▁depos	-9680
▁beaten	-9681
▁baa	-9682
▁resources	-9683
gle	-9684
▁DNA	-9685
▁Norway	-9686
▁anxiously	-9687
▁Cart	-9688
▁Lane	-9689
▁grows	-9690
▁sympt	-9691
▁whoever	-9692
▁enormous	-9693
iac	-9694
olas	-9695
▁300	-9696
▁Hun	-9697
▁Bald	-9698
squeals	-9699
▁Bridge	-9700
ubb	-9701
▁Hong	-9702
▁calend	-9703
▁worthy	-9704
▁mounted	-9705
gets	-9706
vant	-9707
je	-9708
ingo	-9709
▁impr	-9710
▁Camer	-9711
▁mothers	-9712
▁sharply	-9713
chers	-9714
▁gifts	-9715
▁Turkey	-9716
▁insist	-9717
alem	-9718
unte	-9719
▁Clara	-9720
▁reject	-9721
▁referring	-9722
▁ey	-9723
▁chairman	-9724
oti	-9725
uki	-9726
gins	-9727
reads	-9728
▁beings	-9729
kerchief	-9730
▁independence	-9731
po	-9732
]...	-9733
▁gon	-9734
▁Toby	-9735
500	-9736
sen	-9737
pany	-9738
▁oct	-9739
▁Austin	-9740
ells	-9741
inks	-9742
▁HIM	-9743
▁Pra	-9744
▁maintain	-9745
▁reference	-9746
race	-9747
▁Ask	-9748
▁Cru	-9749
▁wins	-9750
▁comed	-9751
▁youngest	-9752
bb	-9753
ISH	-9754
kind	-9755
▁Gen	-9756
akers	-9757
▁Pitt	-9758
▁gettin	-9759
▁defence	-9760
▁suicide	-9761
▁literature	-9762
▁HIS	-9763
▁mask	-9764
▁skirt	-9765
▁festival	-9766
colm	-9767
rond	-9768
Never	-9769
▁Juan	-9770
▁LIKE	-9771
▁views	-9772
▁materials	-9773
▁complicated	-9774
ROM	-9775
▁Liz	-9776
▁ske	-9777
▁Cab	-9778
▁Region	-9779
▁resting	-9780
▁personality	-9781
-4	-9782
iry	-9783
▁mic	-9784
▁2021.	-9785
▁Radio	-9786
lk	-9787
▁sweep	-9788
▁Corpor	-9789
▁Presently	-9790
▁impressed	-9791
bal	-9792
▁Tan	-9793
▁theme	-9794
▁questioned	-9795
▁[2.	-9796
▁Spot	-9797
▁2013.	-9798
▁apologize	-9799
CI	-9800
▁Aut	-9801
▁stew	-9802
▁2018.	-9803
▁Czech	-9804
▁envelope	-9805
jack	-9806
▁cares	-9807
▁invented	-9808
▁Nich	-9809
▁chum	-9810
▁Stock	-9811
▁porch	-9812
▁paj	-9813
▁Buddy	-9814
▁Oscar	-9815
▁sunny	-9816
▁owners	-9817
▁costume	-9818
▁behavior	-9819
▁merchant	-9820
▁intelligence	-9821
▁flav	-9822
▁Dennis	-9823
▁Jews	-9824
▁hurting	-9825
toy	-9826
ovie	-9827
kward	-9828
onies	-9829
asures	-9830
▁spray	-9831
▁dashed	-9832
▁poetry	-9833
▁forehead	-9834
▁bund	-9835
▁Speak	-9836
▁Times	-9837
ographer	-9838
▁replace	-9839
izzy	-9840
▁Katie	-9841
ffin	-9842
▁shift	-9843
▁assault	-9844
▁dealing	-9845
ME	-9846
bus	-9847
emon	-9848
▁Common	-9849
akh	-9850
▁describ	-9851
▁sho	-9852
▁dess	-9853
▁whilst	-9854
▁hastily	-9855
GRO	-9856
▁Ll	-9857
▁Iowa	-9858
grunts	-9859
▁Girls	-9860
▁relie	-9861
▁Greece	-9862
▁hom	-9863
▁wis	-9864
etime	-9865
atural	-9866
▁happily	-9867
▁printed	-9868
▁Mi	-9869
corder	-9870
ructed	-9871
respond	-9872
▁Almost	-9873
▁Jackie	-9874
▁memories	-9875
leg	-9876
▁80	-9877
▁echo	-9878
▁aloud	-9879
▁angle	-9880
▁weary	-9881
▁Pur	-9882
lings	-9883
▁shells	-9884
▁accustomed	-9885
▁scout	-9886
▁experienced	-9887
▁mac	-9888
▁(197	-9889
▁kissing	-9890
▁scattered	-9891
▁Dak	-9892
▁Doc	-9893
ingle	-9894
▁Orig	-9895
▁graph	-9896
▁Knight	-9897
▁endeav	-9898
▁squeak	-9899
▁inclined	-9900
▁?[	-9901
▁Commun	-9902
▁scenes	-9903
▁guarant	-9904
▁Columbia	-9905
▁startled	-9906
azy	-9907
unty	-9908
ATION	-9909
▁cert	-9910
▁dismiss	-9911
▁uncomfort	-9912
esota	-9913
▁1930	-9914
▁debt	-9915
▁waist	-9916
▁acknow	-9917
▁intend	-9918
CO	-9919
▁Wars	-9920
▁subur	-9921
▁Dimit	-9922
▁awards	-9923
▁spoons	-9924
cake	-9925
▁[$=	-9926
▁taxi	-9927
▁Champ	-9928
▁tastes	-9929
▁elections	-9930
▁Jas	-9931
▁firmly	-9932
▁edition	-9933
▁swinging	-9934
▁mos	-9935
▁Know	-9936
▁padd	-9937
▁2017.	-9938
ultural	-9939
▁bananas	-9940
▁napp	-9941
▁tube	-9942
▁Hindu	-9943
▁Forest	-9944
▁slippers	-9945
▁contained	-9946
▁ridiculous	-9947
▁extraordinary	-9948
rim	-9949
▁Wendy	-9950
▁widely	-9951
▁Channel	-9952
▁revenge	-9953
▁muttered	-9954
▁confusion	-9955
▁Bir	-9956
▁sam	-9957
▁Sean	-9958
▁Melissa	-9959
▁trailer	-9960
itals	-9961
▁True	-9962
▁Andre	-9963
▁lodge	-9964
▁prayers	-9965
▁informed	-9966
▁literally	-9967
aph	-9968
▁Nep	-9969
▁foss	-9970
▁rack	-9971
▁Station	-9972
▁addressed	-9973
LOU	-9974
Some	-9975
▁Boris	-9976
▁sighed	-9977
stan	-9978
▁dude	-9979
▁Author	-9980
▁cuddle	-9981
▁causing	-9982
▁Gy	-9983
▁1996	-9984
▁Game	-9985
▁clubs	-9986
▁Vienna	-9987
▁barrel	-9988
lah	-9989
oda	-9990
psy	-9991
▁hamb	-9992
holding	-9993
▁ruined	-9994
▁candles	-9995
▁Minnesota	-9996
▁relatives	-9997
▁reputation	-9998
▁roast	-9999
▁Granny	-10000
▁gathering	-10001
▁+	-10002
||4	-10003
nels	-10004
▁Kang	-10005
▁Short	-10006
▁preparing	-10007
Le	-10008
pea	-10009
▁deliber	-10010
▁pockets	-10011
▁Benjamin	-10012
▁episodes	-10013
▁expand	-10014
▁searching	-10015
▁BBC	-10016
▁Cir	-10017
andal	-10018
▁shade	-10019
▁Vietnam	-10020
▁daylight	-10021
▁$1	-10022
Bob	-10023
▁34	-10024
riger	-10025
▁Sophie	-10026
▁parrot	-10027
▁reasonable	-10028
gain	-10029
▁Freder	-10030
tery	-10031
▁Fat	-10032
▁Harris	-10033
▁abroad	-10034
▁submar	-10035
▁discipl	-10036
▁lighted	-10037
▁Spaniards	-10038
▁Therefore	-10039
▁dug	-10040
▁Whit	-10041
▁nails	-10042
▁waved	-10043
esar	-10044
gage	-10045
uper	-10046
▁Cooper	-10047
▁despite	-10048
▁squirrel	-10049
▁thankful	-10050
▁interrupts	-10051
Re	-10052
uno	-10053
ère	-10054
▁Swiss	-10055
▁bubble	-10056
▁emphas	-10057
▁constitu	-10058
ori	-10059
▁2012,	-10060
▁Crown	-10061
istered	-10062
▁honestly	-10063
▁operating	-10064
▁parliament	-10065
TED	-10066
egr	-10067
▁dared	-10068
becca	-10069
▁brid	-10070
▁dipl	-10071
▁grav	-10072
▁writes	-10073
▁rushing	-10074
itable	-10075
▁Going	-10076
▁banging	-10077
lay	-10078
▁Moore	-10079
▁manners	-10080
▁monarch	-10081
ilda	-10082
▁wars	-10083
▁reads	-10084
▁beloved	-10085
▁instinct	-10086
▁graduated	-10087
▁operations	-10088
▁5.	-10089
▁Dri	-10090
▁Talk	-10091
▁Being	-10092
▁flung	-10093
▁latest	-10094
vard	-10095
▁Woman	-10096
▁planes	-10097
▁hitting	-10098
▁70	-10099
▁Bry	-10100
▁ped	-10101
▁Hugh	-10102
▁bands	-10103
▁cowboy	-10104
▁aeroplane	-10105
▁industrial	-10106
▁roses	-10107
▁lun	-10108
▁2013,	-10109
▁employed	-10110
▁lightning	-10111
fin	-10112
▁90	-10113
grow	-10114
▁FIF	-10115
▁injury	-10116
▁critical	-10117
▁curiosity	-10118
ivery	-10119
▁Norm	-10120
teenth	-10121
▁burnt	-10122
▁danced	-10123
▁awkward	-10124
▁despair	-10125
▁divorce	-10126
▁balloons	-10127
▁Evelyn	-10128
▁Living	-10129
▁Dub	-10130
▁Rap	-10131
▁pee	-10132
▁Elect	-10133
▁Michelle	-10134
▁Pictures	-10135
gger	-10136
▁floating	-10137
rain	-10138
▁Shar	-10139
▁rend	-10140
▁bills	-10141
▁online	-10142
▁survey	-10143
quis	-10144
▁yield	-10145
▁executive	-10146
▁inner	-10147
▁astron	-10148
▁massive	-10149
▁Ur	-10150
▁NEW	-10151
▁Mack	-10152
▁vice	-10153
antern	-10154
▁2014,	-10155
▁register	-10156
▁possessed	-10157
EVA	-10158
inter	-10159
▁Hockey	-10160
▁Between	-10161
▁EXP	-10162
▁Jill	-10163
▁appet	-10164
▁categ	-10165
▁patch	-10166
▁destruction	-10167
ni	-10168
▁HOW	-10169
eller	-10170
▁Judy	-10171
▁diet	-10172
▁claims	-10173
▁joking	-10174
▁entering	-10175
san	-10176
ousins	-10177
rified	-10178
▁athlet	-10179
▁protected	-10180
▁Fro	-10181
▁rage	-10182
▁mischief	-10183
isie	-10184
akened	-10185
▁2012.	-10186
▁bored	-10187
▁stadium	-10188
▁VI	-10189
▁Stat	-10190
▁2015,	-10191
▁cherry	-10192
▁dum	-10193
antha	-10194
▁vroom	-10195
▁Silver	-10196
▁loaded	-10197
▁session	-10198
▁explosion	-10199
ATE	-10200
Bill	-10201
▁root	-10202
▁momma	-10203
▁collar	-10204
▁Federal	-10205
▁Malcolm	-10206
▁superior	-10207
—”	-10208
umin	-10209
▁Hend	-10210
▁intent	-10211
▁equally	-10212
▁longest	-10213
▁calendar	-10214
▁Biography	-10215
elf	-10216
atures	-10217
▁Antonio	-10218
▁Bavaria	-10219
▁rainbow	-10220
▁Christians	-10221
24	-10222
▁RA	-10223
moving	-10224
▁crawl	-10225
▁diagn	-10226
▁tests	-10227
gasp	-10228
omon	-10229
▁emperor	-10230
▁offering	-10231
▁potential	-10232
▁Kir	-10233
▁sla	-10234
▁Sounds	-10235
rondisse	-10236
▁alcohol	-10237
ando	-10238
▁Wes	-10239
▁granted	-10240
Con	-10241
▁ay	-10242
hands	-10243
▁accur	-10244
▁bloom	-10245
▁Neither	-10246
▁visiting	-10247
uy	-10248
▁AR	-10249
Foot	-10250
▁2008.	-10251
▁blown	-10252
▁infect	-10253
▁digging	-10254
▁visitor	-10255
▁checking	-10256
▁interests	-10257
ICK	-10258
agers	-10259
MU	-10260
wns	-10261
▁grie	-10262
▁Adams	-10263
▁ignor	-10264
▁journalist	-10265
▁NOW	-10266
cules	-10267
group	-10268
▁1992	-10269
▁genius	-10270
▁lookee	-10271
▁Internet	-10272
▁fab	-10273
▁Anim	-10274
▁brac	-10275
▁dock	-10276
▁sear	-10277
▁cleaned	-10278
▁raising	-10279
ART	-10280
▁Dream	-10281
▁weigh	-10282
▁puzzled	-10283
▁conclusion	-10284
▁Arts	-10285
▁prob	-10286
▁bounce	-10287
▁liberty	-10288
▁magnific	-10289
▁Kas	-10290
▁Scientists	-10291
▁travelling	-10292
▁handkerchief	-10293
▁Fur	-10294
▁Balt	-10295
▁subs	-10296
▁Cliff	-10297
▁Creek	-10298
▁click	-10299
▁Centre	-10300
▁mobile	-10301
▁Mountain	-10302
▁Ep	-10303
▁brig	-10304
▁rasp	-10305
▁sites	-10306
▁Enough	-10307
▁counted	-10308
▁oranges	-10309
IVE	-10310
▁Ira	-10311
▁Kaz	-10312
▁fake	-10313
▁Carter	-10314
▁Unless	-10315
▁pajamas	-10316
▁exhausted	-10317
▁MA	-10318
avan	-10319
▁Nest	-10320
▁cure	-10321
▁Smart	-10322
▁infant	-10323
▁needle	-10324
▁marched	-10325
▁Pun	-10326
prise	-10327
Malley	-10328
▁Pretty	-10329
▁frozen	-10330
▁devoted	-10331
▁stealing	-10332
▁evolution	-10333
▁resistance	-10334
aga	-10335
▁max	-10336
▁Festival	-10337
,.	-10338
▁1999	-10339
▁loll	-10340
▁agric	-10341
▁hedge	-10342
▁unfortunate	-10343
tail	-10344
▁Stew	-10345
▁Nations	-10346
▁BOY	-10347
▁sed	-10348
umbles	-10349
▁allows	-10350
▁accounts	-10351
▁ski	-10352
uther	-10353
▁mock	-10354
▁penal	-10355
▁Holland	-10356
▁crashed	-10357
See	-10358
anta	-10359
▁Debbie	-10360
▁strangers	-10361
▁suspected	-10362
untranscribed	-10363
PH	-10364
▁coc	-10365
▁skills	-10366
▁Gee	-10367
▁Johan	-10368
▁Gerald	-10369
▁Stanley	-10370
▁leaning	-10371
▁domestic	-10372
▁additional	-10373
Get	-10374
acht	-10375
▁Urs	-10376
▁EN	-10377
flies	-10378
▁pand	-10379
▁listed	-10380
▁kangaroo	-10381
▁customers	-10382
▁effective	-10383
▁footballer	-10384
ldom	-10385
▁prey	-10386
▁Dal	-10387
▁Hop	-10388
▁bib	-10389
▁era	-10390
ifferent	-10391
▁Egyptian	-10392
▁supplies	-10393
erb	-10394
▁junior	-10395
▁knight	-10396
▁illegal	-10397
▁motorcy	-10398
▁tu	-10399
▁Len	-10400
orpor	-10401
▁knocking	-10402
▁murmured	-10403
▁Wrestling	-10404
Tw	-10405
▁stab	-10406
fecture	-10407
vestigator	-10408
idae	-10409
borough	-10410
▁Alaska	-10411
▁adults	-10412
▁volunte	-10413
▁appropriate	-10414
pha	-10415
▁Ga	-10416
▁Hat	-10417
ultan	-10418
▁arts	-10419
▁2009.	-10420
▁reminds	-10421
EW	-10422
atson	-10423
▁earthqu	-10424
▁fastened	-10425
▁TW	-10426
▁Martha	-10427
▁opposed	-10428
pur	-10429
▁leap	-10430
▁Beach	-10431
▁smells	-10432
▁seventh	-10433
▁attractive	-10434
▁:	-10435
GEO	-10436
▁Shh	-10437
stick	-10438
▁celebrate	-10439
▁instruments	-10440
▁(196	-10441
▁inch	-10442
▁parl	-10443
▁Pam	-10444
▁dart	-10445
▁mild	-10446
▁fisher	-10447
▁accompany	-10448
Me	-10449
uj	-10450
▁godd	-10451
▁Techn	-10452
touches	-10453
▁Claire	-10454
▁Except	-10455
▁annual	-10456
▁refuge	-10457
▁Box	-10458
ucker	-10459
▁Name	-10460
▁Quite	-10461
▁Alfred	-10462
▁hollow	-10463
▁worship	-10464
▁software	-10465
MAT	-10466
eyed	-10467
▁necessarily	-10468
vas	-10469
▁dates	-10470
▁singles	-10471
▁Mcdonalds	-10472
▁Bee	-10473
▁Gill	-10474
▁bade	-10475
▁drives	-10476
▁Connect	-10477
▁attempted	-10478
▁uncomfortable	-10479
▁CD	-10480
▁sack	-10481
▁semi	-10482
▁inher	-10483
▁patience	-10484
▁Ret	-10485
▁2022)	-10486
▁Human	-10487
▁Gentle	-10488
▁burden	-10489
▁rested	-10490
▁terrific	-10491
Ph	-10492
DER	-10493
▁iv	-10494
udge	-10495
▁san	-10496
orton	-10497
▁subm	-10498
▁2014.	-10499
▁praise	-10500
▁railroad	-10501
his	-10502
fter	-10503
▁rein	-10504
ittens	-10505
▁theater	-10506
▁examples	-10507
til	-10508
▁ink	-10509
▁plainly	-10510
isms	-10511
made	-10512
▁Aah	-10513
▁Blackie	-10514
yler	-10515
▁collea	-10516
▁talent	-10517
▁exception	-10518
▁positions	-10519
▁practical	-10520
▁Cape	-10521
▁rival	-10522
▁Robbie	-10523
▁drowned	-10524
";	-10525
MB	-10526
pass	-10527
▁adding	-10528
▁reduced	-10529
▁commanded	-10530
ialect	-10531
▁pouring	-10532
▁curtains	-10533
▁`	-10534
upon	-10535
▁Var	-10536
▁Dead	-10537
parent	-10538
▁sharing	-10539
▁starred	-10540
▁creation	-10541
▁Mia	-10542
onent	-10543
▁Jere	-10544
▁dreamed	-10545
tie	-10546
nedy	-10547
uffy	-10548
▁poem	-10549
▁horns	-10550
▁adjust	-10551
▁reviews	-10552
olleyball	-10553
MO	-10554
gun	-10555
quet	-10556
ouses	-10557
▁Abra	-10558
▁Field	-10559
▁Micro	-10560
▁behave	-10561
omething	-10562
▁Turkish	-10563
▁immediate	-10564
▁entertainment	-10565
UB	-10566
▁FIFA	-10567
▁migr	-10568
▁soci	-10569
▁ceiling	-10570
▁vehicles	-10571
23	-10572
oshi	-10573
▁Real	-10574
▁McDon	-10575
▁votes	-10576
▁blessed	-10577
Br	-10578
odd	-10579
▁pigs	-10580
▁panda	-10581
▁actors	-10582
▁knights	-10583
▁comments	-10584
▁identity	-10585
AME	-10586
woman	-10587
▁2007.	-10588
▁Coming	-10589
▁Nelson	-10590
▁Brooklyn	-10591
hu	-10592
▁2009,	-10593
▁urged	-10594
▁Stuart	-10595
▁cannon	-10596
▁Darling	-10597
▁permitted	-10598
▁surrounding	-10599
▁Bul	-10600
▁Leo	-10601
▁widow	-10602
▁legisl	-10603
▁merged	-10604
▁monkeys	-10605
▁muscles	-10606
▁controlled	-10607
FL	-10608
▁roo	-10609
▁bust	-10610
▁pros	-10611
▁assure	-10612
▁caut	-10613
▁morn	-10614
▁gown	-10615
▁recon	-10616
▁shrie	-10617
▁immense	-10618
▁imagination	-10619
HV	-10620
AST	-10621
cill	-10622
peare	-10623
AA	-10624
▁Band	-10625
▁offers	-10626
April	-10627
▁reb	-10628
apore	-10629
▁2018)	-10630
▁lookin	-10631
▁housing	-10632
▁Hospital	-10633
▁Bos	-10634
▁Niger	-10635
▁Space	-10636
▁tones	-10637
▁conver	-10638
▁crisis	-10639
▁scholars	-10640
▁SEE	-10641
ordin	-10642
ailing	-10643
pushes	-10644
▁Somers	-10645
▁1998	-10646
▁prices	-10647
▁Monster	-10648
▁rod	-10649
▁Glad	-10650
▁Justice	-10651
▁Louisiana	-10652
▁Representatives	-10653
▁dial	-10654
▁shone	-10655
▁Allison	-10656
▁ruff	-10657
dra	-10658
▁secrets	-10659
▁Ye	-10660
▁poly	-10661
▁shouts	-10662
hibition	-10663
LLD	-10664
aro	-10665
yon	-10666
▁Hand	-10667
ctures	-10668
▁grabs	-10669
Take	-10670
utter	-10671
phones	-10672
▁Hotel	-10673
▁Judge	-10674
▁multi	-10675
▁Horn	-10676
▁repair	-10677
▁symptoms	-10678
cas	-10679
▁Oak	-10680
▁Ivan	-10681
▁broom	-10682
▁impat	-10683
▁abandoned	-10684
▁dustbin	-10685
▁selfish	-10686
▁Kr	-10687
▁haste	-10688
▁autumn	-10689
▁bedtime	-10690
▁fiction	-10691
steps	-10692
▁virus	-10693
▁hooray	-10694
▁dresses	-10695
▁precise	-10696
▁180	-10697
▁math	-10698
aneous	-10699
▁naked	-10700
▁distress	-10701
▁inspired	-10702
ulpt	-10703
▁packet	-10704
kespeare	-10705
▁meetings	-10706
▁association	-10707
itled	-10708
▁soda	-10709
▁tuck	-10710
▁consists	-10711
bag	-10712
utor	-10713
▁bew	-10714
utiful	-10715
▁flows	-10716
▁leaped	-10717
▁outfit	-10718
▁Kennedy	-10719
▁Rebecca	-10720
▁wrestling	-10721
▁increasing	-10722
▁unp	-10723
▁ange	-10724
▁dram	-10725
▁trump	-10726
▁Dimitra	-10727
▁dessert	-10728
▁testing	-10729
▁relieved	-10730
chants	-10731
agan	-10732
usive	-10733
▁Pick	-10734
▁2008,	-10735
assador	-10736
▁approx	-10737
▁saddle	-10738
▁Detective	-10739
▁clip	-10740
ifully	-10741
▁suitable	-10742
▁GOT	-10743
▁Sad	-10744
▁Vic	-10745
▁yer	-10746
abled	-10747
▁amus	-10748
hedral	-10749
▁offend	-10750
▁vanished	-10751
▁traveling	-10752
mund	-10753
▁Bund	-10754
▁Spir	-10755
▁moral	-10756
▁daisy	-10757
▁seldom	-10758
▁farmers	-10759
▁computers	-10760
▁individuals	-10761
HSLLD	-10762
▁twist	-10763
▁sails	-10764
▁solve	-10765
▁bishop	-10766
▁doorway	-10767
iah	-10768
life	-10769
igers	-10770
▁wrap	-10771
▁harbor	-10772
▁kicking	-10773
▁receiving	-10774
▁considering	-10775
ooped	-10776
▁metres	-10777
▁orphan	-10778
▁awesome	-10779
▁hurricane	-10780
▁Bed	-10781
▁Mans	-10782
▁sauc	-10783
▁landl	-10784
orld	-10785
ulting	-10786
▁apply	-10787
▁methods	-10788
▁purp	-10789
▁bucks	-10790
retched	-10791
▁recall	-10792
▁Singapore	-10793
▁suspicious	-10794
ANK	-10795
Maybe	-10796
▁Price	-10797
▁strain	-10798
▁Harrison	-10799
GRM	-10800
▁Much	-10801
▁mead	-10802
▁whirl	-10803
▁Rabbit	-10804
▁composer	-10805
uri	-10806
▁vest	-10807
▁Daisy	-10808
▁System	-10809
▁issued	-10810
▁shield	-10811
▁una	-10812
▁Small	-10813
▁twins	-10814
Sp	-10815
▁AF	-10816
▁Pay	-10817
▁1940	-10818
▁Dere	-10819
▁kite	-10820
▁publ	-10821
▁tomb	-10822
▁resign	-10823
):	-10824
▁babys	-10825
▁wears	-10826
▁behavi	-10827
▁carries	-10828
▁sensible	-10829
rock	-10830
▁Ais	-10831
▁Dark	-10832
▁painful	-10833
▁passenger	-10834
era	-10835
LING	-10836
kers	-10837
tuce	-10838
▁Near	-10839
▁anticip	-10840
▁versions	-10841
▁fans	-10842
▁lions	-10843
▁simpl	-10844
▁slope	-10845
▁sheets	-10846
▁chapter	-10847
▁cousins	-10848
▁delivery	-10849
▁regiment	-10850
▁attracted	-10851
class	-10852
▁Amos	-10853
▁Pays	-10854
▁hint	-10855
▁Kings	-10856
▁sober	-10857
▁customer	-10858
tub	-10859
▁Easy	-10860
▁hose	-10861
▁Yorks	-10862
▁disgust	-10863
▁uttered	-10864
▁blankets	-10865
▁Ju	-10866
▁CAR	-10867
▁tops	-10868
▁jumps	-10869
▁relative	-10870
▁trembling	-10871
lad	-10872
ezes	-10873
▁assass	-10874
tainment	-10875
▁bothered	-10876
▁lengthened	-10877
▁arrangements	-10878
▁disappointment	-10879
TCA	-10880
▁UE	-10881
onic	-10882
▁clo	-10883
▁1988	-10884
▁lecture	-10885
▁counties	-10886
▁179	-10887
▁COME	-10888
▁wool	-10889
▁bronze	-10890
▁Persian	-10891
▁dischar	-10892
▁Jennifer	-10893
▁glorious	-10894
▁underground	-10895
és	-10896
hop	-10897
iper	-10898
opus	-10899
▁helpful	-10900
▁nations	-10901
▁disturbed	-10902
mal	-10903
▁hip	-10904
▁lane	-10905
▁hunter	-10906
▁joining	-10907
▁communication	-10908
IX	-10909
▁ANY	-10910
▁combat	-10911
Bra	-10912
▁JO	-10913
▁SP	-10914
▁Aaron	-10915
▁cj	-10916
▁loan	-10917
▁phrase	-10918
▁Indones	-10919
▁Shah	-10920
▁scrub	-10921
▁distract	-10922
ORY	-10923
▁6.	-10924
▁dee	-10925
▁insult	-10926
▁barking	-10927
▁cabinet	-10928
▁exposed	-10929
▁stickers	-10930
▁worldwide	-10931
bes	-10932
▁Age	-10933
▁cad	-10934
▁Gard	-10935
onym	-10936
ensity	-10937
▁Board	-10938
▁Parker	-10939
▁improved	-10940
▁Shakespeare	-10941
▁dol	-10942
atched	-10943
▁2006,	-10944
▁2006.	-10945
▁combined	-10946
onto	-10947
ifted	-10948
oration	-10949
▁Econom	-10950
▁consent	-10951
▁highway	-10952
bef	-10953
▁44	-10954
▁RO	-10955
▁Rud	-10956
▁grape	-10957
▁borders	-10958
never	-10959
▁1994	-10960
▁Sign	-10961
▁lied	-10962
▁worm	-10963
hammad	-10964
vation	-10965
▁2007,	-10966
▁Trump	-10967
▁needn	-10968
▁stair	-10969
▁shadows	-10970
▁meantime	-10971
▁correspond	-10972
▁administrative	-10973
CC	-10974
aya	-10975
emeter	-10976
estion	-10977
▁Chuck	-10978
▁popped	-10979
▁violin	-10980
▁Belgium	-10981
▁damaged	-10982
iw	-10983
ANG	-10984
omp	-10985
acha	-10986
▁Colin	-10987
resents	-10988
▁conscience	-10989
▁experiences	-10990
▁Ian	-10991
apsed	-10992
▁Phill	-10993
▁Bright	-10994
▁select	-10995
▁survived	-10996
▁waff	-10997
▁Color	-10998
▁goddess	-10999
erecorder	-11000
▁imagined	-11001
orf	-11002
oween	-11003
▁GOOD	-11004
▁alike	-11005
▁argue	-11006
▁nerve	-11007
THE	-11008
▁babe	-11009
▁brass	-11010
▁dating	-11011
▁deaths	-11012
35	-11013
▁Pull	-11014
▁hosp	-11015
▁solo	-11016
▁Lower	-11017
▁Terry	-11018
▁Abd	-11019
▁Dig	-11020
▁Brid	-11021
▁scan	-11022
▁Willie	-11023
▁images	-11024
▁Congratulations	-11025
BA	-11026
▁Yorkshire	-11027
▁suspicion	-11028
▁gap	-11029
▁tel	-11030
▁Mist	-11031
▁backs	-11032
▁Certainly	-11033
Say	-11034
pple	-11035
▁WHO	-11036
▁Gulf	-11037
▁privile	-11038
▁secured	-11039
vor	-11040
▁Isa	-11041
▁spoil	-11042
▁founder	-11043
▁businessman	-11044
nat	-11045
▁Lore	-11046
▁span	-11047
▁2015.	-11048
▁swell	-11049
▁crimes	-11050
▁leaned	-11051
▁Inspect	-11052
▁dreaming	-11053
gi	-11054
Hey	-11055
umpty	-11056
▁bacon	-11057
▁Square	-11058
▁bacter	-11059
▁elevator	-11060
▁struggling	-11061
bourne	-11062
called	-11063
▁ol	-11064
fare	-11065
▁Kam	-11066
▁UEFA	-11067
▁disgr	-11068
▁formal	-11069
▁charity	-11070
rik	-11071
zan	-11072
▁frost	-11073
▁Public	-11074
▁lettuce	-11075
▁striking	-11076
TD	-11077
asks	-11078
▁gee	-11079
▁hood	-11080
▁trim	-11081
▁Bishop	-11082
▁contents	-11083
dough	-11084
fight	-11085
▁cooper	-11086
▁1997	-11087
▁bean	-11088
▁dialect	-11089
▁messages	-11090
▁sew	-11091
▁Vice	-11092
▁Wayne	-11093
▁gallop	-11094
▁bullets	-11095
▁existed	-11096
▁constitution	-11097
bro	-11098
ules	-11099
▁Low	-11100
▁Sup	-11101
▁satell	-11102
Footnote	-11103
▁trapped	-11104
▁paintings	-11105
-5	-11106
oxy	-11107
ndry	-11108
pulls	-11109
▁WILL	-11110
▁everyday	-11111
▁homework	-11112
,]	-11113
▁Gib	-11114
▁cable	-11115
▁comic	-11116
▁grain	-11117
▁enters	-11118
▁overall	-11119
rigerator	-11120
▁mistakes	-11121
▁Apple	-11122
▁Dakota	-11123
▁capacity	-11124
▁answering	-11125
▁identified	-11126
iki	-11127
▁fulf	-11128
▁Tonight	-11129
▁divorced	-11130
▁Hollywood	-11131
▁principle	-11132
oi	-11133
▁Woo	-11134
owned	-11135
▁WANT	-11136
Tr	-11137
burn	-11138
▁Eva	-11139
leans	-11140
▁Harvey	-11141
▁congress	-11142
▁decisions	-11143
▁southwest	-11144
zel	-11145
odore	-11146
encies	-11147
▁copper	-11148
▁permanent	-11149
▁consideration	-11150
iffs	-11151
▁Cole	-11152
▁Rain	-11153
lahoma	-11154
ocracy	-11155
▁Caesar	-11156
▁soccer	-11157
▁pudding	-11158
▁departure	-11159
osl	-11160
▁rip	-11161
▁clue	-11162
▁rehe	-11163
▁featured	-11164
three	-11165
▁Irene	-11166
ederation	-11167
▁reception	-11168
▁submarine	-11169
▁intelligent	-11170
▁kettle	-11171
▁Whether	-11172
▁conductor	-11173
▁northeast	-11174
▁Sleep	-11175
▁peach	-11176
▁Ladies	-11177
▁photos	-11178
▁promptly	-11179
▁Aff	-11180
▁Kid	-11181
▁Alec	-11182
▁Mario	-11183
▁Polit	-11184
cry	-11185
▁planted	-11186
maid	-11187
▁PRO	-11188
▁neut	-11189
▁jewel	-11190
onde	-11191
▁Expl	-11192
▁eleg	-11193
▁hind	-11194
▁Peace	-11195
▁Tower	-11196
▁brook	-11197
▁gasped	-11198
▁triumph	-11199
▁dollhouse	-11200
▁LO	-11201
ardo	-11202
Hello	-11203
scape	-11204
▁lest	-11205
▁column	-11206
▁therap	-11207
▁bleeding	-11208
▁creating	-11209
▁earliest	-11210
bled	-11211
▁bunk	-11212
▁Junior	-11213
▁insects	-11214
hol	-11215
▁""	-11216
warf	-11217
wich	-11218
▁FROM	-11219
▁nothin	-11220
▁desired	-11221
Sc	-11222
▁dah	-11223
▁deeper	-11224
▁typical	-11225
▁Bradford	-11226
▁Independ	-11227
▁Portugal	-11228
ão	-11229
REAM	-11230
choo	-11231
▁intr	-11232
▁creep	-11233
▁hatch	-11234
▁fixing	-11235
▁PE	-11236
▁ec	-11237
▁Full	-11238
▁mini	-11239
▁Brand	-11240
▁flame	-11241
▁wolves	-11242
▁judgment	-11243
▁smallest	-11244
aby	-11245
▁raw	-11246
ighty	-11247
ciences	-11248
▁admire	-11249
▁dancer	-11250
▁scramb	-11251
say	-11252
blows	-11253
▁whip	-11254
▁gross	-11255
ennessee	-11256
▁rocking	-11257
mat	-11258
▁37	-11259
wall	-11260
▁behalf	-11261
▁fortunate	-11262
Tell	-11263
oust	-11264
▁sup	-11265
iggle	-11266
▁lean	-11267
▁files	-11268
▁Nellie	-11269
▁consum	-11270
▁practically	-11271
whe	-11272
▁1995	-11273
▁suitcase	-11274
▁engineering	-11275
why	-11276
hibit	-11277
▁Mess	-11278
▁Baron	-11279
▁remote	-11280
▁sculpt	-11281
▁specim	-11282
▁purposes	-11283
▁hesitated	-11284
mir	-11285
▁WWE	-11286
state	-11287
▁lend	-11288
▁Joyce	-11289
▁Miles	-11290
▁Patty	-11291
▁Ukraine	-11292
▁application	-11293
▁municipalities	-11294
▁crisps	-11295
▁slightest	-11296
GRF	-11297
etr	-11298
▁Sky	-11299
▁panic	-11300
▁Ernest	-11301
▁agents	-11302
▁Science	-11303
▁clearing	-11304
rec	-11305
▁hire	-11306
▁Bangl	-11307
▁emotion	-11308
▁gardens	-11309
▁hah	-11310
▁trif	-11311
▁Anderson	-11312
▁pots	-11313
▁susp	-11314
▁resemb	-11315
▁Argentina	-11316
▁clin	-11317
▁Aisne	-11318
37	-11319
TRA	-11320
▁31,	-11321
▁plung	-11322
▁filling	-11323
▁website	-11324
▁peaceful	-11325
▁Inspector	-11326
▁Tennessee	-11327
**	-11328
baby	-11329
▁atom	-11330
▁negoti	-11331
▁Oklahoma	-11332
▁uncertain	-11333
▁combination	-11334
driver	-11335
outing	-11336
▁Derek	-11337
▁Janet	-11338
▁shaped	-11339
▁lightly	-11340
▁provinces	-11341
idi	-11342
||5	-11343
▁7.	-11344
oples	-11345
▁Advent	-11346
▁ribbon	-11347
▁temporary	-11348
▁Said	-11349
pleasant	-11350
▁unfortunately	-11351
MAN	-11352
rup	-11353
▁Dur	-11354
▁Prem	-11355
▁medium	-11356
pretends	-11357
▁represents	-11358
good	-11359
▁Ker	-11360
▁Walt	-11361
▁Peters	-11362
▁assemb	-11363
build	-11364
▁bumped	-11365
▁Roc	-11366
pherd	-11367
▁Welsh	-11368
▁fears	-11369
▁absolute	-11370
▁promoted	-11371
▁steadily	-11372
ür	-11373
mph	-11374
rete	-11375
▁Wol	-11376
▁amid	-11377
noises	-11378
▁bloss	-11379
▁battles	-11380
▁alternative	-11381
BO	-11382
▁Ple	-11383
."--_	-11384
▁deserted	-11385
▁Pipp	-11386
▁THINK	-11387
▁Tiger	-11388
▁debate	-11389
babbling	-11390
▁compass	-11391
▁roughly	-11392
iev	-11393
▁dod	-11394
▁coin	-11395
▁Blood	-11396
▁fitted	-11397
▁stripes	-11398
▁hopeless	-11399
▁taperecorder	-11400
IME	-11401
obs	-11402
pshire	-11403
▁Baker	-11404
irlines	-11405
▁Abraham	-11406
arms	-11407
uese	-11408
▁donkey	-11409
▁nappie	-11410
▁skipper	-11411
▁containing	-11412
Total	-11413
▁Same	-11414
onation	-11415
▁amused	-11416
▁awhile	-11417
▁48	-11418
▁Ped	-11419
▁pops	-11420
▁shan	-11421
▁finest	-11422
eries	-11423
▁clerk	-11424
▁Cookie	-11425
▁discussed	-11426
▁interpret	-11427
SAR	-11428
riet	-11429
▁involve	-11430
▁parking	-11431
▁Samantha	-11432
rooms	-11433
Please	-11434
▁Berry	-11435
▁Chile	-11436
▁wives	-11437
▁camping	-11438
▁swiftly	-11439
▁sausages	-11440
▁Pig	-11441
▁eter	-11442
▁nina	-11443
▁males	-11444
▁surprising	-11445
bee	-11446
did	-11447
▁2016.	-11448
▁dolph	-11449
▁Russell	-11450
▁whispering	-11451
▁Gw	-11452
girl	-11453
hies	-11454
entine	-11455
orters	-11456
▁crust	-11457
▁ideal	-11458
▁sympat	-11459
▁guessed	-11460
▁miracle	-11461
▁benefits	-11462
▁regarding	-11463
▁acquaintance	-11464
jor	-11465
▁ank	-11466
▁bru	-11467
▁skip	-11468
▁Native	-11469
▁Senator	-11470
hase	-11471
▁gig	-11472
icians	-11473
▁statue	-11474
▁thread	-11475
▁dignity	-11476
lder	-11477
itage	-11478
starts	-11479
▁newly	-11480
▁sadly	-11481
▁suits	-11482
▁contem	-11483
▁compete	-11484
▁architect	-11485
▁°	-11486
oen	-11487
aver	-11488
▁pad	-11489
▁Swww	-11490
insula	-11491
▁scrat	-11492
▁Angela	-11493
▁marker	-11494
▁believes	-11495
▁magnificent	-11496
IRL	-11497
vous	-11498
▁Ast	-11499
▁dent	-11500
▁colony	-11501
▁summon	-11502
▁Si	-11503
▁Send	-11504
throws	-11505
▁voted	-11506
▁Monsieur	-11507
▁conducted	-11508
abs	-11509
acon	-11510
icut	-11511
▁dot	-11512
▁Spen	-11513
castle	-11514
▁Third	-11515
▁sources	-11516
▁automobile	-11517
▁urban	-11518
▁Yo	-11519
emen	-11520
hist	-11521
count	-11522
▁Bush	-11523
▁LOOK	-11524
▁Nobel	-11525
▁messy	-11526
▁license	-11527
▁relation	-11528
▁scientist	-11529
▁38	-11530
▁op	-11531
nett	-11532
oline	-11533
▁Marian	-11534
▁Sports	-11535
▁nerves	-11536
▁prosec	-11537
▁confirm	-11538
▁finishing	-11539
tan	-11540
▁400	-11541
▁troll	-11542
ALLY	-11543
nons	-11544
shows	-11545
▁boil	-11546
▁Guess	-11547
▁alert	-11548
▁shiny	-11549
▁accent	-11550
▁females	-11551
iddy	-11552
▁Ore	-11553
oning	-11554
actory	-11555
▁Jamie	-11556
▁ceremon	-11557
Manchester	-11558
▁Gor	-11559
▁peel	-11560
angled	-11561
▁disgu	-11562
▁Palace	-11563
▁buffalo	-11564
▁lantern	-11565
▁spilled	-11566
▁regional	-11567
▁sensitive	-11568
▁pronounced	-11569
▁Entertainment	-11570
▁gb	-11571
TING	-11572
roit	-11573
▁sar	-11574
uster	-11575
▁zoom	-11576
▁pence	-11577
▁shine	-11578
Because	-11579
▁charts	-11580
▁Mountains	-11581
▁Iraq	-11582
▁camel	-11583
▁Queens	-11584
▁alligator	-11585
uum	-11586
▁Lam	-11587
▁Ernie	-11588
▁edges	-11589
▁flock	-11590
▁fries	-11591
emetery	-11592
▁Grammy	-11593
▁integr	-11594
▁propose	-11595
▁unpleasant	-11596
▁meals	-11597
▁orbit	-11598
▁lively	-11599
▁transm	-11600
▁popcorn	-11601
rum	-11602
ctic	-11603
prod	-11604
▁1984	-11605
▁wisdom	-11606
▁contrast	-11607
▁headache	-11608
▁depression	-11609
ucing	-11610
▁charm	-11611
▁initi	-11612
▁Solomon	-11613
▁cultural	-11614
▁schedule	-11615
REN	-11616
agu	-11617
ashi	-11618
inch	-11619
▁Cool	-11620
▁scold	-11621
▁tested	-11622
AV	-11623
igen	-11624
zona	-11625
▁Lil	-11626
▁Sum	-11627
▁empire	-11628
▁motorcycle	-11629
TEN	-11630
illon	-11631
still	-11632
▁PLAY	-11633
▁Aunty	-11634
▁chalk	-11635
▁talkin	-11636
▁glances	-11637
▁painter	-11638
chae	-11639
▁Roz	-11640
▁surf	-11641
▁ruler	-11642
▁Temple	-11643
▁cheers	-11644
▁magazines	-11645
46	-11646
,...	-11647
chen	-11648
your	-11649
▁wax	-11650
▁tons	-11651
▁renew	-11652
▁Builder	-11653
▁strings	-11654
▁transferred	-11655
dist	-11656
smith	-11657
▁Guys	-11658
▁yelling	-11659
▁heartily	-11660
▁descended	-11661
ulu	-11662
▁(3	-11663
▁tore	-11664
▁Paraly	-11665
▁hunger	-11666
▁sample	-11667
▁warrant	-11668
▁controvers	-11669
▁environmental	-11670
load	-11671
sels	-11672
▁Kal	-11673
▁Fifi	-11674
▁Live	-11675
▁sher	-11676
▁drill	-11677
▁wrist	-11678
▁analysis	-11679
▁monsters	-11680
▁admiration	-11681
▁concerning	-11682
▁42	-11683
▁CL	-11684
OTHER	-11685
▁diplom	-11686
▁pension	-11687
oft	-11688
pict	-11689
▁Fern	-11690
▁ment	-11691
▁Kentucky	-11692
▁Boss	-11693
▁Scar	-11694
▁twin	-11695
▁2022.	-11696
▁strip	-11697
▁Warner	-11698
▁earnestly	-11699
▁Philippines	-11700
▁lifting	-11701
▁Hamilton	-11702
▁spinning	-11703
▁arrangement	-11704
47	-11705
BI	-11706
aunt	-11707
high	-11708
talk	-11709
▁tag	-11710
▁nods	-11711
erving	-11712
▁exerc	-11713
▁hippo	-11714
▁activist	-11715
▁christmas	-11716
iasm	-11717
▁Thirty	-11718
▁exists	-11719
▁assumed	-11720
▁colours	-11721
▁occasions	-11722
▁philosophy	-11723
▁£	-11724
▁isol	-11725
▁poop	-11726
fashion	-11727
▁jumper	-11728
▁Paralymp	-11729
fortunately	-11730
star	-11731
uine	-11732
▁quid	-11733
▁sust	-11734
silver	-11735
▁mines	-11736
▁Rosalie	-11737
▁nit	-11738
based	-11739
cling	-11740
ication	-11741
▁humming	-11742
▁seeking	-11743
inating	-11744
▁coward	-11745
▁learnt	-11746
▁Security	-11747
▁ladybird	-11748
▁administration	-11749
asha	-11750
▁hmm	-11751
▁Hank	-11752
▁punch	-11753
▁beasts	-11754
▁utterly	-11755
▁Maryland	-11756
▁contrary	-11757
▁retirement	-11758
▁Iris	-11759
isible	-11760
▁swamp	-11761
▁napkin	-11762
▁Vincent	-11763
▁pandemic	-11764
Se	-11765
ré	-11766
have	-11767
▁Cly	-11768
Laugh	-11769
▁creek	-11770
▁arrows	-11771
▁identify	-11772
▁proposal	-11773
,,	-11774
▁oak	-11775
▁Punch	-11776
▁Napole	-11777
▁Sultan	-11778
▁documents	-11779
▁southeast	-11780
▁provisions	-11781
▁Eff	-11782
▁gym	-11783
enton	-11784
▁gear	-11785
riages	-11786
▁spons	-11787
▁Afghan	-11788
:--	-11789
amus	-11790
▁nee	-11791
Every	-11792
▁Gabriel	-11793
▁comrade	-11794
▁searched	-11795
▁hamburger	-11796
▁1991	-11797
▁Fight	-11798
▁pasta	-11799
▁Isabel	-11800
▁agency	-11801
▁labour	-11802
▁overcome	-11803
ui	-11804
▁LET	-11805
▁hob	-11806
▁och	-11807
adise	-11808
plays	-11809
▁Gene	-11810
▁Agent	-11811
▁Monte	-11812
▁examination	-11813
CHR	-11814
utt	-11815
▁goo	-11816
▁Crow	-11817
▁Emmy	-11818
ctoral	-11819
▁tires	-11820
▁gazing	-11821
▁Frederick	-11822
▁amusement	-11823
iti	-11824
▁2005.	-11825
▁Bumper	-11826
▁minus	-11827
▁Around	-11828
▁flames	-11829
▁rebell	-11830
▁Jessica	-11831
▁critics	-11832
▁happier	-11833
▁Cow	-11834
▁Test	-11835
▁Maisie	-11836
▁birdie	-11837
▁interfere	-11838
ARS	-11839
DEM	-11840
▁Ran	-11841
inent	-11842
▁EVER	-11843
▁Mine	-11844
▁Hills	-11845
overlap	-11846
▁Census	-11847
('	-11848
▁core	-11849
▁Hundred	-11850
Pr	-11851
irs	-11852
▁Inf	-11853
▁Fame	-11854
▁pige	-11855
▁pears	-11856
▁rhyth	-11857
▁steering	-11858
▁elsewhere	-11859
▁officials	-11860
▁Portuguese	-11861
jab	-11862
▁Kh	-11863
rary	-11864
▁wiped	-11865
▁cellar	-11866
▁enthusi	-11867
▁venture	-11868
▁compound	-11869
▁restrict	-11870
▁astonishment	-11871
achi	-11872
wind	-11873
zard	-11874
▁Left	-11875
headed	-11876
▁lighter	-11877
▁sweater	-11878
55	-11879
▁Rio	-11880
▁Dale	-11881
▁sewing	-11882
▁writers	-11883
▁examined	-11884
▁belonging	-11885
oa	-11886
olo	-11887
▁Buff	-11888
▁oars	-11889
▁Spirit	-11890
Billboard	-11891
▁accomplished	-11892
Gu	-11893
▁SU	-11894
iveness	-11895
▁Carlos	-11896
iva	-11897
▁avo	-11898
adays	-11899
uting	-11900
▁Dean	-11901
▁knot	-11902
antine	-11903
▁Country	-11904
▁pursuit	-11905
▁crawling	-11906
▁messenger	-11907
▁enthusiasm	-11908
▁Desp	-11909
▁Utah	-11910
▁Admin	-11911
▁Hawai	-11912
▁Storm	-11913
▁crane	-11914
▁punished	-11915
hers	-11916
thel	-11917
▁french	-11918
istration	-11919
▁resigned	-11920
iren	-11921
pled	-11922
drops	-11923
▁Keith	-11924
▁pistol	-11925
▁disorder	-11926
udes	-11927
▁Boo	-11928
osure	-11929
▁ranch	-11930
▁Romans	-11931
▁Ancient	-11932
▁Herbert	-11933
▁offices	-11934
USIC	-11935
umpy	-11936
▁Liver	-11937
▁defin	-11938
▁dynasty	-11939
▁Geoffrey	-11940
▁withdraw	-11941
IAN	-11942
held	-11943
▁Nine	-11944
▁cust	-11945
stream	-11946
urning	-11947
▁Organ	-11948
▁snowman	-11949
▁consequence	-11950
REE	-11951
lon	-11952
oty	-11953
▁Need	-11954
▁Jeremy	-11955
▁magnets	-11956
▁physics	-11957
mun	-11958
ixon	-11959
oots	-11960
▁Ext	-11961
▁acad	-11962
▁bugs	-11963
ugging	-11964
▁titles	-11965
▁flashed	-11966
▁Illustrations	-11967
OMAN	-11968
▁Gun	-11969
▁Ewww	-11970
▁clam	-11971
▁zone	-11972
▁Tyler	-11973
▁sweat	-11974
▁preced	-11975
▁yelled	-11976
iversary	-11977
▁cushion	-11978
▁measures	-11979
Home	-11980
▁Ring	-11981
▁musk	-11982
▁Upper	-11983
current	-11984
▁classical	-11985
▁Cuba	-11986
▁fest	-11987
▁Avenue	-11988
inations	-11989
▁proport	-11990
▁murderer	-11991
▁sergeant	-11992
bra	-11993
acco	-11994
▁Hil	-11995
▁Chand	-11996
▁snapped	-11997
▁careless	-11998
▁electrical	-11999
ubs	-12000
llis	-12001
▁1993	-12002
▁absent	-12003
▁context	-12004
▁gratitude	-12005
TO	-12006
COU	-12007
With	-12008
▁mob	-12009
▁aired	-12010
▁cycle	-12011
▁Looking	-12012
▁Usually	-12013
▁estimated	-12014
▁Meg	-12015
▁fict	-12016
clears	-12017
▁Lloyd	-12018
▁tapes	-12019
intendo	-12020
▁Jennie	-12021
▁precip	-12022
▁reprod	-12023
▁entitled	-12024
▁hopefully	-12025
'!	-12026
Dear	-12027
▁McK	-12028
▁toler	-12029
▁Alexand	-12030
▁trusted	-12031
▁Cambridge	-12032
28	-12033
ubl	-12034
arlet	-12035
itches	-12036
▁Nigel	-12037
▁grabbed	-12038
▁approved	-12039
KN	-12040
-20	-12041
hums	-12042
▁Alb	-12043
▁[1]	-12044
▁Clay	-12045
▁Nepal	-12046
▁lollip	-12047
▁explains	-12048
▁sacrific	-12049
kh	-12050
Rat	-12051
mind	-12052
shot	-12053
ooked	-12054
▁Base	-12055
▁verse	-12056
ulating	-12057
▁warrior	-12058
▁Unfortunately	-12059
tape	-12060
▁Prim	-12061
▁Save	-12062
▁Thor	-12063
flakes	-12064
▁Sound	-12065
▁telly	-12066
▁eighth	-12067
entially	-12068
ications	-12069
olve	-12070
▁Imper	-12071
▁Sammy	-12072
▁Colomb	-12073
▁bathtub	-12074
▁pretends	-12075
▁reminded	-12076
▁behaviour	-12077
▁perceived	-12078
▁voc	-12079
▁Medal	-12080
▁Deputy	-12081
▁Roland	-12082
▁Gilbert	-12083
▁operated	-12084
▁cigarette	-12085
▁differences	-12086
▁difficulties	-12087
▁Ronald	-12088
▁orchestra	-12089
▁Py	-12090
▁Din	-12091
▁apt	-12092
▁Prom	-12093
▁SOME	-12094
▁pens	-12095
▁indul	-12096
▁citizen	-12097
▁notable	-12098
▁postman	-12099
▁Ric	-12100
▁horrid	-12101
▁flushed	-12102
▁warriors	-12103
▁performing	-12104
27	-12105
▁Set	-12106
▁grasp	-12107
▁Mission	-12108
▁afterward	-12109
anim	-12110
▁Dot	-12111
▁Web	-12112
▁soa	-12113
▁1972	-12114
▁pets	-12115
▁2023,	-12116
▁claws	-12117
talking	-12118
▁wounds	-12119
▁Greater	-12120
▁followers	-12121
▁PA	-12122
▁Haut	-12123
▁Maine	-12124
▁wheat	-12125
▁Russians	-12126
lan	-12127
▁hem	-12128
▁abuse	-12129
anguage	-12130
▁Network	-12131
▁catches	-12132
▁goats	-12133
▁pairs	-12134
▁Denmark	-12135
▁fairies	-12136
▁investment	-12137
▁WA	-12138
▁sty	-12139
▁Mand	-12140
▁Prix	-12141
▁fert	-12142
▁Wouldn	-12143
▁deadly	-12144
▁gravely	-12145
▁whispers	-12146
▁opposition	-12147
avia	-12148
gian	-12149
rous	-12150
uzzy	-12151
▁camps	-12152
▁reduce	-12153
▁Develop	-12154
▁Stewart	-12155
Or	-12156
usk	-12157
ivia	-12158
▁que	-12159
▁bask	-12160
▁counsel	-12161
▁accommod	-12162
▁Conference	-12163
aku	-12164
▁Dim	-12165
▁1989	-12166
▁yuck	-12167
▁2004.	-12168
▁Diego	-12169
▁scorn	-12170
▁tails	-12171
▁corners	-12172
▁heavens	-12173
▁mixture	-12174
▁tightly	-12175
▁educated	-12176
▁discipline	-12177
squ	-12178
▁Cad	-12179
▁vine	-12180
▁ranks	-12181
▁Arizona	-12182
▁Project	-12183
▁grinned	-12184
ía	-12185
OUS	-12186
▁Media	-12187
▁abund	-12188
▁hears	-12189
▁freely	-12190
▁shorter	-12191
▁surrender	-12192
eered	-12193
▁plug	-12194
▁seam	-12195
▁tryin	-12196
▁75	-12197
imore	-12198
▁deny	-12199
▁logs	-12200
▁owns	-12201
▁2005,	-12202
▁Hitler	-12203
▁models	-12204
▁moonlight	-12205
pat	-12206
▁Ec	-12207
boys	-12208
▁Dol	-12209
▁Nam	-12210
▁Deep	-12211
▁enqu	-12212
ranean	-12213
▁Mason	-12214
▁puzzles	-12215
▁measured	-12216
▁projects	-12217
▁wandering	-12218
cont	-12219
▁bun	-12220
ested	-12221
▁oath	-12222
▁breed	-12223
▁occurs	-12224
▁approval	-12225
▁regularly	-12226
▁Connecticut	-12227
ín	-12228
▁39	-12229
▁Lor	-12230
ooner	-12231
▁adapt	-12232
▁observ	-12233
▁salary	-12234
▁Nintendo	-12235
▁attorney	-12236
▁Microsoft	-12237
▁NHL	-12238
▁Vik	-12239
▁dash	-12240
▁Tracy	-12241
▁troop	-12242
▁yucky	-12243
▁parade	-12244
▁upright	-12245
▁travelled	-12246
▁Especially	-12247
▁influenced	-12248
▁permit	-12249
▁octopus	-12250
▁formerly	-12251
▁́	-12252
INGS	-12253
lines	-12254
▁Norah	-12255
▁handy	-12256
▁wasted	-12257
▁Romania	-12258
:—	-12259
▁tad	-12260
▁vow	-12261
▁Page	-12262
▁ashes	-12263
▁ranked	-12264
▁waking	-12265
run	-12266
▁0.	-12267
onom	-12268
ppers	-12269
▁tact	-12270
piration	-12271
arrondisse	-12272
▁Calm	-12273
▁Fall	-12274
heastern	-12275
▁genuine	-12276
▁invasion	-12277
▁execution	-12278
66	-12279
lem	-12280
cker	-12281
▁nom	-12282
cular	-12283
organ	-12284
▁Whoo	-12285
▁chlor	-12286
▁dense	-12287
orne	-12288
▁tossed	-12289
▁videos	-12290
▁indicated	-12291
▁earthquake	-12292
▁distinguished	-12293
Pas	-12294
▁Eun	-12295
▁Finn	-12296
▁Hugo	-12297
▁Felix	-12298
▁harsh	-12299
▁crunch	-12300
▁descent	-12301
▁internal	-12302
▁restored	-12303
▁wandered	-12304
▁PR	-12305
▁Lem	-12306
▁Nar	-12307
▁Tai	-12308
▁Isab	-12309
▁YEAH	-12310
▁adopt	-12311
▁caval	-12312
▁entry	-12313
humming	-12314
▁Otherwise	-12315
▁od	-12316
graph	-12317
ugged	-12318
▁Phys	-12319
formed	-12320
▁prote	-12321
▁skull	-12322
▁smack	-12323
▁wages	-12324
▁bracelet	-12325
gate	-12326
▁Yan	-12327
▁hyp	-12328
▁Craw	-12329
▁Merc	-12330
▁cargo	-12331
▁lifts	-12332
▁accord	-12333
▁chased	-12334
▁twisted	-12335
▁infection	-12336
▁forgetting	-12337
▁Grandmother	-12338
▁communities	-12339
apper	-12340
▁Cale	-12341
▁GIRL	-12342
▁Sout	-12343
▁Potato	-12344
fashioned	-12345
▁sweeping	-12346
may	-12347
ategy	-12348
found	-12349
▁coco	-12350
▁niece	-12351
osaurus	-12352
▁Arabic	-12353
▁muscle	-12354
atically	-12355
▁blessing	-12356
▁supporting	-12357
▁screwdriver	-12358
▁constituency	-12359
▁GU	-12360
isen	-12361
moans	-12362
opens	-12363
piece	-12364
▁curly	-12365
▁foods	-12366
▁peril	-12367
▁folded	-12368
▁technical	-12369
▁Television	-12370
ROW	-12371
▁vul	-12372
▁Area	-12373
▁rais	-12374
▁greeted	-12375
▁remarks	-12376
▁lifetime	-12377
ASE	-12378
▁largely	-12379
▁lowered	-12380
▁hastened	-12381
mill	-12382
▁galax	-12383
▁taxes	-12384
▁Scouts	-12385
▁preferred	-12386
,—	-12387
▁advised	-12388
▁marvell	-12389
goes	-12390
▁Aqu	-12391
comune	-12392
▁Pearl	-12393
▁marble	-12394
▁twinkle	-12395
▁•	-12396
▁patri	-12397
▁rides	-12398
▁boards	-12399
▁rarely	-12400
▁Highness	-12401
▁appearances	-12402
▁differently	-12403
▁photographs	-12404
75	-12405
▁bake	-12406
▁whar	-12407
▁Reagan	-12408
formation	-12409
rigg	-12410
▁Non	-12411
▁Ont	-12412
▁Edith	-12413
▁cinem	-12414
▁utmost	-12415
▁Maurice	-12416
▁whereas	-12417
▁Research	-12418
▁particles	-12419
meal	-12420
▁Craig	-12421
▁Rosie	-12422
▁reflected	-12423
▁celebrated	-12424
hai	-12425
sne	-12426
▁MO	-12427
ante	-12428
usalem	-12429
▁Humph	-12430
▁Marshall	-12431
hoo	-12432
▁Occ	-12433
breat	-12434
▁caps	-12435
Father	-12436
▁tasty	-12437
▁consequences	-12438
▁representing	-12439
aire	-12440
▁Cry	-12441
▁Brig	-12442
employ	-12443
▁canvas	-12444
▁Islamic	-12445
▁comedian	-12446
▁indicate	-12447
▁Transport	-12448
DO	-12449
sw	-12450
onne	-12451
▁Cre	-12452
opard	-12453
▁dict	-12454
▁Adele	-12455
▁Penny	-12456
orporated	-12457
gus	-12458
▁GR	-12459
iors	-12460
isure	-12461
▁Surely	-12462
▁invisible	-12463
opot	-12464
▁Tak	-12465
▁Tank	-12466
▁dose	-12467
▁Close	-12468
▁Oswald	-12469
ROG	-12470
alt	-12471
ogan	-12472
▁LAU	-12473
▁USA	-12474
weight	-12475
▁Rangers	-12476
▁Nathaniel	-12477
:00.	-12478
ruit	-12479
▁fame	-12480
▁Indust	-12481
▁frustr	-12482
▁sector	-12483
▁peoples	-12484
Any	-12485
oric	-12486
▁dub	-12487
▁Iron	-12488
▁guid	-12489
▁Money	-12490
▁divide	-12491
▁Univers	-12492
▁penalty	-12493
▁farewell	-12494
▁developing	-12495
tis	-12496
tit	-12497
plex	-12498
▁ric	-12499
▁Clyde	-12500
▁rotten	-12501
▁imprison	-12502
bach	-12503
▁GRE	-12504
AKING	-12505
▁1920	-12506
▁1986	-12507
▁meets	-12508
▁timber	-12509
▁apparent	-12510
▁pressing	-12511
▁stirring	-12512
RIT	-12513
unes	-12514
▁Break	-12515
▁spear	-12516
▁Trevor	-12517
▁caution	-12518
IB	-12519
▁PH	-12520
tles	-12521
▁ela	-12522
▁solar	-12523
▁petrol	-12524
▁Supreme	-12525
▁Thompson	-12526
▁dedicated	-12527
▁↗	-12528
OST	-12529
orig	-12530
▁Made	-12531
▁palm	-12532
▁GOING	-12533
▁Heart	-12534
▁Laugh	-12535
▁Treat	-12536
▁Barney	-12537
▁counts	-12538
▁reform	-12539
▁swings	-12540
▁rattling	-12541
PEN	-12542
six	-12543
ths	-12544
avid	-12545
▁Hou	-12546
▁Sri	-12547
▁tha	-12548
▁glow	-12549
▁nood	-12550
▁awoke	-12551
▁fruits	-12552
▁serves	-12553
▁substance	-12554
▁astonished	-12555
boo	-12556
▁Mall	-12557
▁Anybody	-12558
▁annoyed	-12559
▁swallow	-12560
▁silently	-12561
inkled	-12562
▁Walker	-12563
bish	-12564
▁Mik	-12565
▁Ott	-12566
▁haw	-12567
▁global	-12568
▁ripped	-12569
God	-12570
hill	-12571
▁ung	-12572
▁1976	-12573
▁raft	-12574
▁souls	-12575
▁humble	-12576
▁furious	-12577
▁schooner	-12578
---	-12579
WAY	-12580
ogy	-12581
tree	-12582
▁150	-12583
▁Sac	-12584
allel	-12585
▁beam	-12586
▁grip	-12587
▁mans	-12588
Newman	-12589
▁senses	-12590
▁Business	-12591
USE	-12592
▁dip	-12593
bread	-12594
▁Erin	-12595
▁hearty	-12596
▁heroes	-12597
▁Gentlemen	-12598
▁Ce	-12599
icals	-12600
▁unto	-12601
Ratner	-12602
▁dwarf	-12603
▁rural	-12604
▁reader	-12605
▁fearful	-12606
▁traveled	-12607
NewmanRatner	-12608
orse	-12609
▁error	-12610
▁visits	-12611
▁cartoon	-12612
▁Colorado	-12613
▁depending	-12614
▁representative	-12615
▁"."	-12616
▁crib	-12617
▁debuted	-12618
▁prosper	-12619
▁rehears	-12620
▁observation	-12621
IDS	-12622
enez	-12623
▁Tree	-12624
▁bows	-12625
▁grin	-12626
▁Formula	-12627
▁planets	-12628
hs	-12629
rome	-12630
ardie	-12631
▁beet	-12632
▁Press	-12633
▁irrit	-12634
▁Others	-12635
▁boiling	-12636
▁controll	-12637
▁selection	-12638
aza	-12639
▁ze	-12640
shirt	-12641
▁Coun	-12642
▁liver	-12643
▁Marcus	-12644
▁radiation	-12645
▁employment	-12646
WH	-12647
▁behold	-12648
▁spiders	-12649
▁hydrogen	-12650
▁nickname	-12651
▁policies	-12652
-6	-12653
ISS	-12654
them	-12655
andom	-12656
▁Dude	-12657
▁Plat	-12658
▁deaf	-12659
Nothing	-12660
▁resear	-12661
▁Foreign	-12662
▁circuit	-12663
▁counten	-12664
▁payment	-12665
▁rescued	-12666
▁formation	-12667
▁Constitution	-12668
arks	-12669
hind	-12670
▁Effie	-12671
▁Frost	-12672
▁existing	-12673
▁chemistry	-12674
▁philosopher	-12675
uro	-12676
▁kin	-12677
▁Pitts	-12678
▁layer	-12679
▁modest	-12680
▁obeyed	-12681
elest	-12682
▁topic	-12683
▁Margot	-12684
▁corrid	-12685
▁sharks	-12686
▁Harvard	-12687
▁corrupt	-12688
▁surgeon	-12689
▁spiritual	-12690
▁vegetable	-12691
DY	-12692
▁agg	-12693
iping	-12694
verty	-12695
ellect	-12696
▁assum	-12697
▁coats	-12698
▁trips	-12699
▁underw	-12700
▁Liverpool	-12701
▁amazement	-12702
hole	-12703
▁Spl	-12704
▁bos	-12705
▁parcel	-12706
▁preparations	-12707
26	-12708
into	-12709
▁Eat	-12710
▁Sem	-12711
rient	-12712
▁Stri	-12713
orting	-12714
▁Quiet	-12715
▁greet	-12716
▁Territ	-12717
▁marvel	-12718
▁Toronto	-12719
▁puppets	-12720
Pro	-12721
ateur	-12722
ulars	-12723
▁encl	-12724
▁Tucker	-12725
▁declare	-12726
▁peasant	-12727
▁engagement	-12728
RAC	-12729
▁Jin	-12730
▁Lock	-12731
▁dive	-12732
▁Anyone	-12733
▁fights	-12734
▁option	-12735
▁digital	-12736
▁Armenian	-12737
▁Nicholas	-12738
▁approximately	-12739
Wait	-12740
disc	-12741
▁Mig	-12742
▁Shir	-12743
▁damp	-12744
▁gamb	-12745
▁reluct	-12746
▁sliding	-12747
▁thanked	-12748
abr	-12749
uis	-12750
▁Rot	-12751
amble	-12752
▁cran	-12753
▁Front	-12754
▁bundle	-12755
▁classic	-12756
▁conspir	-12757
▁Bangladesh	-12758
▁properties	-12759
▁Row	-12760
▁jokes	-12761
▁executed	-12762
▁interior	-12763
▁fictional	-12764
imer	-12765
▁2003.	-12766
▁Lucas	-12767
▁Despite	-12768
▁signals	-12769
▁Napoleon	-12770
▁weakness	-12771
▁manufacture	-12772
VD	-12773
ONG	-12774
tical	-12775
unwald	-12776
▁whoop	-12777
istinct	-12778
munition	-12779
▁poverty	-12780
▁spoiled	-12781
▁misunder	-12782
▁Hampshire	-12783
oz	-12784
imo	-12785
▁FA	-12786
▁1987	-12787
▁rays	-12788
▁Agnes	-12789
▁providing	-12790
▁##	-12791
▁Fal	-12792
▁Lamb	-12793
▁tips	-12794
▁2002.	-12795
▁Mandy	-12796
▁Marion	-12797
▁chewing	-12798
▁Jerusalem	-12799
loud	-12800
oded	-12801
▁tob	-12802
▁pays	-12803
▁Ethan	-12804
▁Lucky	-12805
▁Nurse	-12806
▁burgl	-12807
▁shocked	-12808
▁Apparently	-12809
▁architecture	-12810
.'"	-12811
aho	-12812
▁Kyle	-12813
▁Pink	-12814
▁navy	-12815
ilight	-12816
▁coinc	-12817
▁Morris	-12818
▁traged	-12819
▁Fireman	-12820
▁residents	-12821
Ke	-12822
▁Ri	-12823
care	-12824
▁1981	-12825
▁José	-12826
▁stim	-12827
▁subd	-12828
▁Franz	-12829
▁WOULD	-12830
▁bombs	-12831
▁chill	-12832
▁coins	-12833
▁theirs	-12834
▁marching	-12835
▁strategy	-12836
▁Metropolitan	-12837
El	-12838
cked	-12839
ista	-12840
▁repro	-12841
▁campus	-12842
▁casual	-12843
▁ethnic	-12844
▁hither	-12845
▁knocks	-12846
▁Hungary	-12847
▁bargain	-12848
▁fathers	-12849
▁fighter	-12850
▁wishing	-12851
▁playgroup	-12852
▁electronic	-12853
CD	-12854
▁vit	-12855
▁vague	-12856
▁Esther	-12857
▁values	-12858
▁defined	-12859
▁laundry	-12860
▁seeming	-12861
▁Together	-12862
▁historic	-12863
▁magnetic	-12864
▁successfully	-12865
▁CE	-12866
impse	-12867
▁Cand	-12868
▁WHEN	-12869
▁cane	-12870
inding	-12871
▁Rosam	-12872
▁Batman	-12873
▁Cheers	-12874
▁disagre	-12875
▁leadership	-12876
IP	-12877
LIN	-12878
mare	-12879
▁lazy	-12880
▁rubbed	-12881
▁liberal	-12882
▁É	-12883
sky	-12884
▁Cob	-12885
icate	-12886
zburg	-12887
▁Neil	-12888
▁Wake	-12889
▁sway	-12890
ooping	-12891
▁ii	-12892
asping	-12893
▁Britt	-12894
ologists	-12895
Braunwald	-12896
▁resolution	-12897
▁Corporation	-12898
hot	-12899
iko	-12900
eton	-12901
▁syn	-12902
inction	-12903
putting	-12904
▁assign	-12905
▁seesaw	-12906
▁shorts	-12907
▁Chapter	-12908
▁Ontario	-12909
▁glimpse	-12910
▁convince	-12911
▁collecting	-12912
MW	-12913
rors	-12914
▁Toy	-12915
guard	-12916
halie	-12917
▁Drake	-12918
▁taller	-12919
▁Wallace	-12920
▁annoying	-12921
▁complain	-12922
▁overhead	-12923
adi	-12924
nan	-12925
▁Dec	-12926
jorie	-12927
▁Room	-12928
▁Slow	-12929
▁trot	-12930
▁humor	-12931
▁ledge	-12932
acement	-12933
picture	-12934
▁cutter	-12935
ferences	-12936
▁focused	-12937
▁Beautiful	-12938
▁Halloween	-12939
▁Federation	-12940
!’	-12941
▁TAL	-12942
▁2023	-12943
▁Rush	-12944
▁Went	-12945
▁wires	-12946
▁basement	-12947
▁purchase	-12948
hog	-12949
xide	-12950
▁flee	-12951
▁lugg	-12952
▁rect	-12953
▁convey	-12954
▁drivers	-12955
▁observe	-12956
▁provides	-12957
▁translated	-12958
hee	-12959
▁Telet	-12960
▁harvest	-12961
▁boarding	-12962
▁injuries	-12963
▁ancestors	-12964
▁guarantee	-12965
gom	-12966
–20	-12967
ideo	-12968
▁Mwww	-12969
▁fatal	-12970
▁amazed	-12971
▁deed	-12972
▁Lucia	-12973
▁nursing	-12974
▁slavery	-12975
▁departed	-12976
▁pp	-12977
▁Duc	-12978
yrics	-12979
▁2001.	-12980
▁abrupt	-12981
▁Detroit	-12982
orp	-12983
atus	-12984
hour	-12985
▁Daw	-12986
▁Might	-12987
▁diver	-12988
▁Spencer	-12989
▁operate	-12990
▁routine	-12991
▁strateg	-12992
▁compounds	-12993
▁forbidden	-12994
▁encouraged	-12995
▁anniversary	-12996
▁refrigerator	-12997
''	-12998
Eng	-12999
▁Kl	-13000
▁Tu	-13001
free	-13002
▁OFF	-13003
etter	-13004
▁flip	-13005
▁lungs	-13006
▁sends	-13007
▁stake	-13008
▁Edmund	-13009
▁Garden	-13010
▁elders	-13011
▁threatening	-13012
oys	-13013
shi	-13014
ulk	-13015
▁VII	-13016
▁Wat	-13017
▁Jung	-13018
▁Donna	-13019
________	-13020
▁sequence	-13021
▁ammunition	-13022
38	-13023
whel	-13024
named	-13025
▁whim	-13026
▁Visit	-13027
▁worker	-13028
▁Freedom	-13029
▁Suppose	-13030
▁readily	-13031
!--	-13032
ichi	-13033
▁Dyn	-13034
▁bah	-13035
▁wig	-13036
▁Lanc	-13037
▁2017)	-13038
▁Fried	-13039
▁crumb	-13040
▁rocky	-13041
▁tents	-13042
▁swords	-13043
▁elegant	-13044
▁receipt	-13045
▁wasting	-13046
▁disgrace	-13047
▁Ans	-13048
▁Dory	-13049
▁TIME	-13050
▁rats	-13051
▁Imperial	-13052
::	-13053
WN	-13054
jud	-13055
▁upd	-13056
GHING	-13057
▁ache	-13058
▁sunset	-13059
▁suspended	-13060
▁Thanksgiving	-13061
mers	-13062
ovak	-13063
handed	-13064
orable	-13065
▁Place	-13066
▁diary	-13067
▁limbs	-13068
ountain	-13069
▁Municip	-13070
▁fortnight	-13071
▁butterflies	-13072
ICH	-13073
eem	-13074
Only	-13075
last	-13076
▁Kap	-13077
▁1985	-13078
▁helm	-13079
▁Milan	-13080
▁Round	-13081
▁advis	-13082
▁snail	-13083
▁Modern	-13084
gressive	-13085
▁Nathalie	-13086
OWN	-13087
adle	-13088
nuts	-13089
▁SAY	-13090
▁bum	-13091
▁yawn	-13092
▁elbow	-13093
▁naval	-13094
▁stall	-13095
▁Oregon	-13096
▁suggests	-13097
▁residence	-13098
32	-13099
AMY	-13100
▁mant	-13101
France	-13102
active	-13103
▁Youth	-13104
▁apron	-13105
▁compre	-13106
▁appetite	-13107
▁procedure	-13108
▁distribution	-13109
Ste	-13110
got	-13111
▁8.	-13112
▁Kan	-13113
▁[$=1	-13114
▁drain	-13115
▁veter	-13116
▁patrol	-13117
▁Command	-13118
▁examine	-13119
▁attacking	-13120
▁functions	-13121
48	-13122
Com	-13123
Sam	-13124
gor	-13125
ril	-13126
list	-13127
▁cra	-13128
ivals	-13129
▁Chin	-13130
▁pram	-13131
▁daring	-13132
▁suffic	-13133
▁footsteps	-13134
cery	-13135
abouts	-13136
onents	-13137
▁Perry	-13138
▁baked	-13139
▁chorus	-13140
▁longing	-13141
▁worrying	-13142
▁Illustrated	-13143
adda	-13144
enne	-13145
▁SER	-13146
▁paw	-13147
▁phase	-13148
picking	-13149
▁medals	-13150
▁portra	-13151
▁occupation	-13152
ETH	-13153
afa	-13154
angs	-13155
▁Tit	-13156
▁bef	-13157
▁dots	-13158
▁soot	-13159
▁Floss	-13160
▁canal	-13161
▁timid	-13162
▁roller	-13163
▁appearing	-13164
▁bury	-13165
▁mamm	-13166
▁2004,	-13167
▁Norwe	-13168
▁readers	-13169
▁assigned	-13170
▁pancakes	-13171
//	-13172
rise	-13173
anton	-13174
▁1983	-13175
▁Mort	-13176
erness	-13177
▁ascend	-13178
▁assembly	-13179
▁doubtless	-13180
▁Hear	-13181
▁haul	-13182
▁Isaac	-13183
▁Couldn	-13184
▁absurd	-13185
▁romance	-13186
▁employees	-13187
▁stockings	-13188
▁acquainted	-13189
iami	-13190
ollo	-13191
▁Nag	-13192
▁Scr	-13193
Would	-13194
illes	-13195
▁Read	-13196
▁Shaw	-13197
▁eldest	-13198
▁resumed	-13199
▁Foundation	-13200
42	-13201
ryn	-13202
arin	-13203
rice	-13204
vals	-13205
▁Mec	-13206
▁Olive	-13207
▁Action	-13208
▁leisure	-13209
dis	-13210
mail	-13211
▁vib	-13212
▁mode	-13213
▁pork	-13214
▁scoot	-13215
▁Audrey	-13216
▁Jasper	-13217
▁maximum	-13218
▁Christianity	-13219
36	-13220
▁Tel	-13221
ovich	-13222
▁Nazi	-13223
▁rows	-13224
▁chains	-13225
children	-13226
▁forming	-13227
▁trading	-13228
iterranean	-13229
▁Development	-13230
ayed	-13231
ilia	-13232
▁Roxy	-13233
▁perf	-13234
▁angels	-13235
▁squash	-13236
▁shallow	-13237
▁Muhammad	-13238
bons	-13239
olds	-13240
▁Case	-13241
▁Tall	-13242
▁swam	-13243
erella	-13244
▁Bruno	-13245
▁Trent	-13246
▁shovel	-13247
▁sincere	-13248
▁protested	-13249
Tis	-13250
URE	-13251
ulp	-13252
▁Alt	-13253
▁Opp	-13254
||0||	-13255
▁1964	-13256
▁Rest	-13257
▁ling	-13258
▁Ethel	-13259
▁packing	-13260
▁cheering	-13261
MS	-13262
sea	-13263
▁ew	-13264
coat	-13265
doll	-13266
icia	-13267
ione	-13268
▁Aub	-13269
▁Yam	-13270
▁Dwww	-13271
sounds	-13272
▁therm	-13273
speaking	-13274
▁crushed	-13275
▁horizon	-13276
▁realise	-13277
▁storage	-13278
Am	-13279
uda	-13280
▁Il	-13281
illery	-13282
▁Tamil	-13283
▁Buster	-13284
▁knives	-13285
▁triump	-13286
▁vacuum	-13287
▁Finland	-13288
▁allowing	-13289
▁guardian	-13290
▁spelling	-13291
NIK	-13292
▁jazz	-13293
▁Cleve	-13294
▁Clinton	-13295
▁disposed	-13296
▁lollipop	-13297
▁musicians	-13298
▁introduction	-13299
iege	-13300
▁Kind	-13301
▁herd	-13302
cillor	-13303
▁Evans	-13304
▁denied	-13305
▁clients	-13306
▁overboard	-13307
enz	-13308
term	-13309
▁Heb	-13310
onsin	-13311
▁Bron	-13312
ighbor	-13313
▁chums	-13314
▁pluck	-13315
▁Pippin	-13316
▁Chester	-13317
▁clatter	-13318
▁controls	-13319
99	-13320
inge	-13321
▁fet	-13322
movie	-13323
▁locks	-13324
▁poems	-13325
▁telesc	-13326
▁qualified	-13327
▁foundation	-13328
▁Use	-13329
▁jus	-13330
▁(195	-13331
▁Till	-13332
▁Murray	-13333
▁excess	-13334
▁Gregory	-13335
▁harbour	-13336
▁spotted	-13337
▁contempt	-13338
▁opportun	-13339
▁mathematics	-13340
Cha	-13341
▁kit	-13342
grand	-13343
iques	-13344
rophy	-13345
▁bolt	-13346
prints	-13347
▁alter	-13348
▁sting	-13349
▁worms	-13350
▁artific	-13351
▁devices	-13352
▁narrative	-13353
▁compliment	-13354
▁coo	-13355
white	-13356
▁hamm	-13357
▁stem	-13358
▁lakes	-13359
▁cleaner	-13360
▁magical	-13361
▁overwhel	-13362
venth	-13363
▁lump	-13364
▁bowed	-13365
▁ninth	-13366
▁pinch	-13367
▁sleeve	-13368
▁renamed	-13369
▁borrowed	-13370
▁crackers	-13371
ieth	-13372
▁10.	-13373
▁Upon	-13374
▁corre	-13375
▁rates	-13376
▁linked	-13377
▁Forgive	-13378
▁Thought	-13379
▁pursued	-13380
▁recognition	-13381
ht	-13382
▁Loc	-13383
▁float	-13384
▁Leader	-13385
▁Wright	-13386
▁Broadway	-13387
▁concerns	-13388
▁excitedly	-13389
▁Clear	-13390
▁funds	-13391
▁moder	-13392
▁Madrid	-13393
▁convent	-13394
▁beautifully	-13395
▁institution	-13396
avin	-13397
softly	-13398
▁Raven	-13399
▁scarf	-13400
▁hosted	-13401
▁Iranian	-13402
▁impatient	-13403
▁struggled	-13404
▁zip	-13405
ammar	-13406
▁adap	-13407
▁Azerb	-13408
▁Dragon	-13409
▁extract	-13410
▁relatively	-13411
▁Mediterranean	-13412
▁BR	-13413
azed	-13414
▁DAD	-13415
▁Vas	-13416
▁lin	-13417
▁Farm	-13418
▁coke	-13419
▁neur	-13420
▁Azerbai	-13421
▁bacteria	-13422
robe	-13423
▁Ana	-13424
▁Joel	-13425
▁Railway	-13426
▁Marjorie	-13427
▁achieved	-13428
▁producing	-13429
▁Kra	-13430
acker	-13431
inate	-13432
▁dealt	-13433
▁biting	-13434
▁sorted	-13435
▁essential	-13436
▁objection	-13437
PA	-13438
▁cm	-13439
cups	-13440
▁bol	-13441
enson	-13442
▁Fish	-13443
▁disl	-13444
▁Fritz	-13445
▁parted	-13446
▁correctly	-13447
esy	-13448
▁Ahm	-13449
▁recy	-13450
▁1995.	-13451
▁Homer	-13452
▁WOMAN	-13453
▁rider	-13454
▁ponies	-13455
▁pennies	-13456
▁streams	-13457
▁severely	-13458
▁describes	-13459
▁satellite	-13460
▁countenance	-13461
rac	-13462
▁{\	-13463
▁Tag	-13464
▁Shem	-13465
▁bead	-13466
▁Event	-13467
▁Medic	-13468
▁analy	-13469
▁punish	-13470
isconsin	-13471
▁barrels	-13472
▁bending	-13473
▁congrat	-13474
▁lobster	-13475
La	-13476
mine	-13477
uela	-13478
▁rud	-13479
▁advise	-13480
▁pupils	-13481
▁visual	-13482
▁extinct	-13483
▁reserve	-13484
▁intellect	-13485
▁playdough	-13486
▁thoughtful	-13487
▁[_	-13488
rust	-13489
peech	-13490
▁stub	-13491
▁Brenda	-13492
▁Nature	-13493
▁Ursula	-13494
▁posted	-13495
▁recoll	-13496
▁angrily	-13497
▁rubbing	-13498
▁betrayed	-13499
▁tomatoes	-13500
▁spreading	-13501
ju	-13502
▁Ku	-13503
▁Exam	-13504
▁VIII	-13505
▁manif	-13506
▁Yellow	-13507
▁shares	-13508
▁patterns	-13509
mble	-13510
▁wob	-13511
▁1979	-13512
▁Kids	-13513
▁obed	-13514
▁Scout	-13515
▁Venez	-13516
▁eagle	-13517
▁brains	-13518
▁condem	-13519
▁franch	-13520
▁gravity	-13521
▁sentiment	-13522
cj	-13523
▁Hud	-13524
▁Inn	-13525
▁wah	-13526
ascal	-13527
▁damn	-13528
▁bloke	-13529
▁ruins	-13530
▁Archie	-13531
▁cracked	-13532
▁frequent	-13533
▁scrambled	-13534
▁playground	-13535
cus	-13536
arer	-13537
▁dur	-13538
▁1968	-13539
▁1982	-13540
ingham	-13541
▁bewild	-13542
▁stages	-13543
▁tricky	-13544
TY	-13545
▁Mam	-13546
▁chef	-13547
▁immigr	-13548
▁maiden	-13549
▁pottie	-13550
▁berries	-13551
word	-13552
▁Nah	-13553
ressing	-13554
▁calmly	-13555
▁random	-13556
▁trunks	-13557
imitates	-13558
▁Wisconsin	-13559
▁convenient	-13560
▁neighbourhood	-13561
MC	-13562
END	-13563
▁wi	-13564
irie	-13565
thod	-13566
▁NAS	-13567
▁WHY	-13568
▁Shin	-13569
▁vary	-13570
▁Miami	-13571
▁Believe	-13572
▁speakers	-13573
▁cheerfully	-13574
/5	-13575
ANS	-13576
▁Op	-13577
▁Eth	-13578
▁FBI	-13579
▁Dest	-13580
▁Food	-13581
▁Serb	-13582
▁Alber	-13583
▁curse	-13584
mingham	-13585
▁fantasy	-13586
▁switched	-13587
▁necessity	-13588
MED	-13589
lies	-13590
▁foe	-13591
▁phen	-13592
▁Maisy	-13593
▁ridge	-13594
▁divine	-13595
▁Century	-13596
▁consciousness	-13597
emp	-13598
ipsy	-13599
yers	-13600
iator	-13601
▁punk	-13602
▁hence	-13603
▁slides	-13604
▁cameras	-13605
▁delayed	-13606
▁slender	-13607
ís	-13608
anka	-13609
edee	-13610
▁geo	-13611
glass	-13612
paper	-13613
▁Bran	-13614
▁dese	-13615
▁dumb	-13616
kisses	-13617
▁2001,	-13618
▁attic	-13619
uctions	-13620
▁Stadium	-13621
▁sinking	-13622
▁Seriously	-13623
▁standards	-13624
hend	-13625
repe	-13626
▁Gus	-13627
▁dorm	-13628
indeer	-13629
▁badge	-13630
▁boast	-13631
▁ropes	-13632
▁sovere	-13633
▁Ministry	-13634
▁lemonade	-13635
▁conquered	-13636
Give	-13637
icky	-13638
▁rhyme	-13639
▁Miguel	-13640
▁armies	-13641
▁longed	-13642
▁sequel	-13643
▁Cameron	-13644
▁Friends	-13645
nonspeech	-13646
▁ventured	-13647
Was	-13648
haus	-13649
imet	-13650
neum	-13651
▁Dob	-13652
▁rav	-13653
▁Glen	-13654
▁ghosts	-13655
▁Leonard	-13656
▁determine	-13657
49	-13658
DIS	-13659
Our	-13660
leen	-13661
▁Bou	-13662
▁fir	-13663
Child	-13664
▁Plus	-13665
▁2000.	-13666
▁flags	-13667
▁wander	-13668
▁Iceland	-13669
▁blocked	-13670
▁Picardie	-13671
ERY	-13672
▁Las	-13673
apped	-13674
truck	-13675
walks	-13676
▁reun	-13677
▁Disco	-13678
▁users	-13679
▁Orange	-13680
▁Rhodes	-13681
▁Watson	-13682
▁deputy	-13683
▁robbed	-13684
▁welcom	-13685
elic	-13686
▁nod	-13687
eight	-13688
▁Viol	-13689
▁odds	-13690
▁taps	-13691
▁Eagle	-13692
▁moist	-13693
▁nicer	-13694
▁Airlines	-13695
▁acquired	-13696
▁landscape	-13697
▁cautiously	-13698
IRE	-13699
ORN	-13700
▁Ya	-13701
▁Bag	-13702
▁Perfect	-13703
▁elderly	-13704
▁gesture	-13705
▁channels	-13706
▁dramatic	-13707
▁wrestler	-13708
▁embarrassed	-13709
ooke	-13710
▁Tib	-13711
▁Bunk	-13712
▁lace	-13713
▁slim	-13714
▁Seems	-13715
▁Malays	-13716
▁parlor	-13717
▁growled	-13718
▁starving	-13719
▁displayed	-13720
both	-13721
▁Gas	-13722
aders	-13723
▁COMP	-13724
▁heed	-13725
▁Palest	-13726
KING	-13727
▁BACK	-13728
▁paws	-13729
▁Phoen	-13730
▁roared	-13731
▁Madison	-13732
▁cracker	-13733
▁flashing	-13734
▁mythology	-13735
ès	-13736
▁178	-13737
▁Cold	-13738
▁Maid	-13739
▁gran	-13740
itated	-13741
chester	-13742
▁sleeps	-13743
▁Protest	-13744
▁vanilla	-13745
▁applause	-13746
▁MP	-13747
▁Wee	-13748
ieves	-13749
▁Barn	-13750
▁teapot	-13751
▁Following	-13752
▁Norwegian	-13753
▁dismissed	-13754
▁pretended	-13755
▁nevertheless	-13756
39	-13757
aco	-13758
ede	-13759
idy	-13760
▁yogh	-13761
▁lined	-13762
▁panel	-13763
sie	-13764
▁TE	-13765
issy	-13766
▁OVER	-13767
houses	-13768
▁Guinea	-13769
▁rounds	-13770
▁Houston	-13771
▁cavalry	-13772
▁cheaper	-13773
▁experiments	-13774
'-	-13775
▁Hm	-13776
such	-13777
▁Pir	-13778
iries	-13779
nette	-13780
▁tort	-13781
flower	-13782
shaped	-13783
▁femin	-13784
▁Duncan	-13785
▁fossil	-13786
▁factors	-13787
▁priests	-13788
▁restless	-13789
▁confessed	-13790
bul	-13791
▁Vo	-13792
folk	-13793
▁1974	-13794
▁beats	-13795
aration	-13796
▁notion	-13797
▁Collins	-13798
▁telegram	-13799
▁acknowled	-13800
▁participated	-13801
uter	-13802
amite	-13803
imony	-13804
▁syll	-13805
▁COULD	-13806
▁dentist	-13807
▁plunged	-13808
▁Campbell	-13809
▁Baltimore	-13810
▁preserved	-13811
▁provision	-13812
▁Cro	-13813
▁FIR	-13814
anese	-13815
iency	-13816
▁moss	-13817
▁lowest	-13818
▁retain	-13819
▁squeal	-13820
▁Doug	-13821
▁Noah	-13822
▁wider	-13823
▁premie	-13824
▁stirred	-13825
▁assembled	-13826
▁colleagues	-13827
pos	-13828
▁65	-13829
▁♪♪	-13830
eeds	-13831
▁Flip	-13832
▁steak	-13833
unction	-13834
▁surviv	-13835
▁tigers	-13836
▁urgent	-13837
▁designs	-13838
▁stepping	-13839
▁facilities	-13840
▁exclamation	-13841
▁remembering	-13842
▁FE	-13843
essa	-13844
sets	-13845
▁adj	-13846
▁1977	-13847
agraph	-13848
begins	-13849
liness	-13850
strong	-13851
▁Bennie	-13852
▁phones	-13853
▁wholly	-13854
▁gallant	-13855
▁quicker	-13856
▁thoughtfully	-13857
00,	-13858
oki	-13859
bble	-13860
▁Pom	-13861
▁Dong	-13862
▁melt	-13863
▁Punjab	-13864
▁halted	-13865
▁baskets	-13866
▁definite	-13867
Poor	-13868
▁Dod	-13869
▁Lim	-13870
faced	-13871
▁brow	-13872
▁makin	-13873
because	-13874
whining	-13875
▁Mummie	-13876
▁mining	-13877
▁removes	-13878
▁diagnosed	-13879
▁secondary	-13880
nity	-13881
▁Mau	-13882
▁Rat	-13883
▁Ugh	-13884
▁Grey	-13885
▁Plot	-13886
▁bail	-13887
▁manip	-13888
▁scrap	-13889
▁shaft	-13890
▁playin	-13891
▁freezing	-13892
▁Jefferson	-13893
▁commenced	-13894
▁investigate	-13895
pie	-13896
tra	-13897
feld	-13898
▁Fab	-13899
▁Hein	-13900
▁Holmes	-13901
▁freight	-13902
▁rooster	-13903
▁academic	-13904
Jan	-13905
▁ic	-13906
▁kat	-13907
▁nib	-13908
▁1978	-13909
▁Lynn	-13910
▁Nope	-13911
inkling	-13912
▁Annabel	-13913
▁placing	-13914
▁tragedy	-13915
▁Brothers	-13916
▁supplied	-13917
▁compelled	-13918
pse	-13919
acre	-13920
itis	-13921
▁mall	-13922
▁reci	-13923
cribed	-13924
ubbies	-13925
▁tasted	-13926
▁robbery	-13927
▁rubbish	-13928
▁squares	-13929
▁encourage	-13930
▁oat	-13931
miral	-13932
anting	-13933
▁Pedro	-13934
▁Singh	-13935
▁limits	-13936
▁cupcake	-13937
▁organizations	-13938
owl	-13939
John	-13940
neys	-13941
oddy	-13942
▁Leb	-13943
power	-13944
▁Nanny	-13945
▁Bureau	-13946
▁Darwin	-13947
▁mortal	-13948
▁united	-13949
▁Theodore	-13950
▁Communist	-13951
▁Birmingham	-13952
BR	-13953
CLI	-13954
osc	-13955
ester	-13956
▁Gail	-13957
▁plum	-13958
▁Harriet	-13959
▁Premier	-13960
▁courses	-13961
▁sickness	-13962
▁universities	-13963
iqu	-13964
oro	-13965
stop	-13966
celer	-13967
▁Exec	-13968
speech	-13969
▁atoms	-13970
▁ignore	-13971
▁grasped	-13972
▁Cinderella	-13973
▁impressive	-13974
obi	-13975
▁via	-13976
arter	-13977
erver	-13978
ouched	-13979
▁drums	-13980
▁tanks	-13981
endment	-13982
▁Julian	-13983
▁shiver	-13984
▁diamonds	-13985
▁concentration	-13986
Her	-13987
bean	-13988
▁Lala	-13989
▁user	-13990
▁revolver	-13991
▁substant	-13992
▁prevented	-13993
▁witnesses	-13994
▁discussing	-13995
▁programming	-13996
yan	-13997
ablo	-13998
▁Ara	-13999
▁mol	-14000
▁Rice	-14001
▁1999.	-14002
▁pills	-14003
▁beliefs	-14004
▁crashing	-14005
▁nomination	-14006
usions	-14007
▁Barbie	-14008
▁meadow	-14009
▁stamps	-14010
▁toothbrush	-14011
▁advertising	-14012
▁civilization	-14013
="	-14014
ih	-14015
assy	-14016
▁177	-14017
▁Lud	-14018
▁mmm	-14019
▁Nort	-14020
▁Sold	-14021
▁TELL	-14022
sister	-14023
▁cloak	-14024
▁Cousin	-14025
▁upward	-14026
▁merrily	-14027
▁quarrel	-14028
▁screams	-14029
demon	-14030
omers	-14031
▁Curt	-14032
school	-14033
▁farms	-14034
▁kills	-14035
▁inject	-14036
▁portray	-14037
▁brushing	-14038
▁emotional	-14039
cht	-14040
equ	-14041
lee	-14042
unci	-14043
posed	-14044
▁Inst	-14045
▁yacht	-14046
▁treaty	-14047
▁scandal	-14048
▁opponent	-14049
▁protecting	-14050
▁registered	-14051
65	-14052
DON	-14053
ITE	-14054
▁fist	-14055
hattan	-14056
▁robot	-14057
▁cultiv	-14058
Mrs	-14059
ido	-14060
▁sor	-14061
cheon	-14062
rived	-14063
▁calf	-14064
▁Idaho	-14065
▁borne	-14066
▁Farmer	-14067
▁dances	-14068
▁hermit	-14069
▁stored	-14070
▁luggage	-14071
▁wealthy	-14072
▁emotions	-14073
▁requires	-14074
▁prominent	-14075
rill	-14076
ylon	-14077
▁(),	-14078
▁junk	-14079
▁Horse	-14080
▁vital	-14081
▁Danish	-14082
▁Member	-14083
▁jewels	-14084
▁sleeves	-14085
▁exhibition	-14086
▁announcement	-14087
▁opportunities	-14088
Joe	-14089
▁Tot	-14090
▁dil	-14091
acter	-14092
urned	-14093
▁Doub	-14094
▁Herr	-14095
▁shirts	-14096
▁sponge	-14097
▁alarmed	-14098
▁volcano	-14099
▁peasants	-14100
▁whistling	-14101
▁Afghanistan	-14102
atar	-14103
▁fella	-14104
▁Fortun	-14105
▁destro	-14106
▁habits	-14107
▁nickel	-14108
▁demands	-14109
▁emphasis	-14110
▁requested	-14111
▁signature	-14112
hey	-14113
ileen	-14114
▁Remi	-14115
ifting	-14116
trying	-14117
▁Momma	-14118
▁Justin	-14119
▁Israeli	-14120
▁Away	-14121
▁Sull	-14122
▁ramp	-14123
▁Dance	-14124
▁Hebrew	-14125
▁Laurie	-14126
▁expense	-14127
▁nowadays	-14128
▁resulted	-14129
▁sunlight	-14130
ITY	-14131
▁Kit	-14132
▁Deck	-14133
achelor	-14134
▁Honest	-14135
▁pickle	-14136
▁amounts	-14137
▁equival	-14138
▁quantity	-14139
ifications	-14140
▁swallowed	-14141
aux	-14142
oga	-14143
▁DAY	-14144
▁Rosa	-14145
▁alle	-14146
▁ware	-14147
▁Mamma	-14148
▁scent	-14149
naments	-14150
▁Liberal	-14151
▁amusing	-14152
▁fitting	-14153
▁handful	-14154
▁clapping	-14155
▁jet	-14156
ERING	-14157
ccoli	-14158
ronic	-14159
▁1975	-14160
▁Gerva	-14161
iggling	-14162
▁Hilary	-14163
▁encounter	-14164
▁occasional	-14165
-8	-14166
▁Ath	-14167
balls	-14168
▁surve	-14169
▁rhythm	-14170
▁unemploy	-14171
▁Cleveland	-14172
▁concealed	-14173
▁sentenced	-14174
▁spaceship	-14175
29	-14176
cray	-14177
▁Mah	-14178
▁WAY	-14179
iland	-14180
▁prints	-14181
▁Sheriff	-14182
▁subsequ	-14183
▁Humphrey	-14184
▁promotion	-14185
▁Conservative	-14186
)]	-14187
page	-14188
▁argu	-14189
▁Years	-14190
igation	-14191
▁builder	-14192
▁generations	-14193
▁preparation	-14194
▁Tun	-14195
cloth	-14196
uerto	-14197
▁Bark	-14198
▁fres	-14199
▁bonds	-14200
▁Within	-14201
▁summit	-14202
▁fireplace	-14203
);	-14204
ât	-14205
rug	-14206
▁Jour	-14207
▁Owen	-14208
▁prev	-14209
idency	-14210
▁Chase	-14211
▁Orleans	-14212
▁Roberts	-14213
▁initial	-14214
▁torture	-14215
▁whining	-14216
▁hurrying	-14217
▁penguins	-14218
▁Hungarian	-14219
▁procession	-14220
▁Hob	-14221
David	-14222
▁Wasn	-14223
▁rosy	-14224
▁toot	-14225
▁dizzy	-14226
▁masters	-14227
▁detailed	-14228
▁persuade	-14229
▁destination	-14230
▁TR	-14231
alia	-14232
▁Dom	-14233
▁git	-14234
▁synd	-14235
ration	-14236
▁Ghost	-14237
▁brisk	-14238
▁Already	-14239
▁Express	-14240
▁Library	-14241
▁confront	-14242
▁garments	-14243
▁graduate	-14244
▁greeting	-14245
▁screamed	-14246
▁Nevertheless	-14247
gered	-14248
▁Hood	-14249
▁inval	-14250
removes	-14251
▁cradle	-14252
▁butcher	-14253
▁tobacco	-14254
▁humanity	-14255
▁literary	-14256
▁Paralympics	-14257
ais	-14258
Fran	-14259
▁heh	-14260
▁ssh	-14261
pling	-14262
would	-14263
▁idle	-14264
▁outta	-14265
natured	-14266
▁Unlike	-14267
▁trigger	-14268
▁diseases	-14269
▁parallel	-14270
Har	-14271
belt	-14272
▁Disc	-14273
▁shat	-14274
believ	-14275
▁crops	-14276
▁cement	-14277
▁lyrics	-14278
something	-14279
▁backward	-14280
▁deliberately	-14281
INT	-14282
uffs	-14283
hanks	-14284
▁Bren	-14285
▁Chel	-14286
▁ming	-14287
▁Caleb	-14288
▁Ricky	-14289
▁assess	-14290
▁luxury	-14291
ographic	-14292
▁Notting	-14293
▁concrete	-14294
▁passport	-14295
▁Hurricane	-14296
Ger	-14297
IFE	-14298
▁Mak	-14299
▁Mes	-14300
▁bash	-14301
▁1998.	-14302
▁pains	-14303
▁pinea	-14304
▁errand	-14305
▁gladly	-14306
▁overse	-14307
▁caravan	-14308
▁garbage	-14309
Pe	-14310
pow	-14311
ften	-14312
▁XXX	-14313
▁Ward	-14314
▁blah	-14315
▁cans	-14316
orship	-14317
rained	-14318
▁alley	-14319
▁discour	-14320
▁fascinating	-14321
”?	-14322
Cap	-14323
ibi	-14324
oni	-14325
▁Dee	-14326
▁[3.	-14327
▁mop	-14328
▁Poly	-14329
ouncer	-14330
▁glove	-14331
▁Taiwan	-14332
▁factor	-14333
▁reveal	-14334
▁midship	-14335
▁Melbourne	-14336
▁specially	-14337
bby	-14338
osa	-14339
rix	-14340
▁Goo	-14341
▁Pin	-14342
aired	-14343
▁gale	-14344
▁pies	-14345
taking	-14346
▁1992.	-14347
▁explo	-14348
▁stalk	-14349
▁yonder	-14350
▁Theatre	-14351
▁smashed	-14352
▁reindeer	-14353
▁Ent	-14354
▁Rah	-14355
▁YES	-14356
▁sod	-14357
diary	-14358
▁evac	-14359
▁ties	-14360
▁MUSIC	-14361
▁judges	-14362
▁Medical	-14363
▁handled	-14364
▁arriving	-14365
▁collabor	-14366
▁corridor	-14367
▁protests	-14368
▁qualities	-14369
▁neighbours	-14370
▁volleyball	-14371
33	-14372
://	-14373
▁mi	-14374
airy	-14375
beat	-14376
izer	-14377
▁Sau	-14378
first	-14379
▁Rita	-14380
▁slid	-14381
▁sund	-14382
▁blade	-14383
▁crush	-14384
▁deleg	-14385
sneezes	-14386
▁escort	-14387
uttering	-14388
▁genetic	-14389
▁gracious	-14390
▁treasures	-14391
▁candidates	-14392
."]	-14393
cor	-14394
bear	-14395
▁phoned	-14396
▁skating	-14397
▁divisions	-14398
▁(_	-14399
apse	-14400
rine	-14401
izard	-14402
▁scrib	-14403
▁mouths	-14404
▁rifles	-14405
▁bouncing	-14406
▁principles	-14407
▁reass	-14408
▁boiled	-14409
▁sleigh	-14410
▁conquer	-14411
▁Champion	-14412
▁Indonesia	-14413
▁purchased	-14414
imm	-14415
rin	-14416
▁49	-14417
lete	-14418
Sighs	-14419
▁loaf	-14420
▁obsc	-14421
market	-14422
cluding	-14423
▁Apollo	-14424
▁shores	-14425
▁crawled	-14426
▁Henderson	-14427
▁consisted	-14428
▁popularity	-14429
?’	-14430
▁["	-14431
▁mr	-14432
▁SPE	-14433
▁1952	-14434
▁Rico	-14435
▁exit	-14436
▁reef	-14437
▁mates	-14438
▁polar	-14439
▁insane	-14440
▁presum	-14441
▁customs	-14442
%.	-14443
▁ll	-14444
▁Jar	-14445
▁Buzz	-14446
▁pail	-14447
omeday	-14448
▁quote	-14449
▁Selena	-14450
▁scouts	-14451
▁hunters	-14452
▁chuckled	-14453
▁hospitals	-14454
▁raspberry	-14455
His	-14456
bad	-14457
▁47	-14458
▁fib	-14459
▁tatt	-14460
▁Stars	-14461
▁decre	-14462
▁Munich	-14463
▁cocoon	-14464
▁believing	-14465
▁sensation	-14466
▁situations	-14467
Tom	-14468
▁Cock	-14469
▁Either	-14470
▁wildly	-14471
▁Affairs	-14472
▁cunning	-14473
▁slipping	-14474
▁reflection	-14475
hun	-14476
oko	-14477
immer	-14478
▁Dian	-14479
▁resent	-14480
ographical	-14481
pronounced	-14482
⌉?	-14483
]⌋.	-14484
▁181	-14485
▁Kur	-14486
▁Mis	-14487
▁Rev	-14488
every	-14489
▁Lost	-14490
▁sins	-14491
▁1994.	-14492
▁safer	-14493
▁aroused	-14494
▁promises	-14495
▁sweeties	-14496
▁primarily	-14497
▁strongest	-14498
▁technique	-14499
oux	-14500
oise	-14501
▁Alger	-14502
▁Carib	-14503
▁Puerto	-14504
▁liking	-14505
▁wretched	-14506
▁franchise	-14507
▁photographer	-14508
etry	-14509
offs	-14510
avier	-14511
igenous	-14512
▁therapy	-14513
▁accurate	-14514
!_	-14515
KE	-14516
ORT	-14517
▁Au	-14518
roid	-14519
▁Poll	-14520
▁Corps	-14521
▁procl	-14522
▁Hudson	-14523
▁argued	-14524
▁motive	-14525
▁pilgrim	-14526
▁highchair	-14527
-7	-14528
Em	-14529
elli	-14530
pack	-14531
stad	-14532
▁Lett	-14533
▁ants	-14534
▁carn	-14535
oubted	-14536
▁Pruss	-14537
▁attach	-14538
▁courts	-14539
▁titled	-14540
▁Teacher	-14541
▁winding	-14542
▁performances	-14543
ooo	-14544
▁ou	-14545
oker	-14546
bourg	-14547
heard	-14548
▁Edin	-14549
▁Emer	-14550
▁2003,	-14551
writing	-14552
▁Deedee	-14553
▁novels	-14554
▁prizes	-14555
▁Honours	-14556
▁businesses	-14557
gow	-14558
▁1969	-14559
▁Gener	-14560
▁wharf	-14561
▁skiing	-14562
demonstr	-14563
▁Strange	-14564
▁crystal	-14565
▁savages	-14566
▁villain	-14567
▁sections	-14568
▁kilometers	-14569
AC	-14570
cot	-14571
▁Dw	-14572
▁Oz	-14573
After	-14574
▁halt	-14575
▁Croat	-14576
▁torch	-14577
▁burial	-14578
▁hunted	-14579
▁exhibit	-14580
▁scarlet	-14581
▁deserved	-14582
▁handling	-14583
▁Manhattan	-14584
▁confession	-14585
▁definition	-14586
bil	-14587
eze	-14588
▁ly	-14589
Right	-14590
▁vari	-14591
before	-14592
▁crawls	-14593
▁engage	-14594
▁misery	-14595
▁facility	-14596
▁terrified	-14597
arus	-14598
cale	-14599
ATTER	-14600
▁gymn	-14601
mighty	-14602
▁1997.	-14603
natural	-14604
▁chapel	-14605
▁floated	-14606
▁praised	-14607
▁travels	-14608
▁tumbled	-14609
▁Gervaise	-14610
▁Lastname	-14611
iji	-14612
omo	-14613
▁blues	-14614
▁buses	-14615
▁ketch	-14616
▁lovers	-14617
▁approve	-14618
▁harness	-14619
▁accidentally	-14620
kie	-14621
uto	-14622
▁Od	-14623
gard	-14624
▁Obs	-14625
▁Seb	-14626
▁jaw	-14627
inals	-14628
sized	-14629
Little	-14630
▁2019)	-14631
▁attent	-14632
▁whence	-14633
▁flowing	-14634
▁teasing	-14635
▁trolley	-14636
▁category	-14637
▁reporter	-14638
▁contented	-14639
▁determination	-14640
does	-14641
resa	-14642
uchi	-14643
▁1956	-14644
▁Rect	-14645
▁brut	-14646
▁gent	-14647
▁sulf	-14648
INGING	-14649
haired	-14650
uccess	-14651
▁Krist	-14652
arrison	-14653
ributed	-14654
▁welcomed	-14655
▁Confederate	-14656
▁communicate	-14657
▁specifically	-14658
Ma	-14659
imi	-14660
▁BU	-14661
▁Viv	-14662
▁cul	-14663
▁Freud	-14664
lymouth	-14665
▁ragged	-14666
▁towers	-14667
▁compare	-14668
▁frighten	-14669
▁Wa	-14670
rons	-14671
hammed	-14672
uously	-14673
▁basin	-14674
▁Chamber	-14675
▁Gir	-14676
▁Tab	-14677
▁1973	-14678
▁Been	-14679
▁Suff	-14680
▁Relax	-14681
▁lists	-14682
▁minimum	-14683
▁paragraph	-14684
▁pocketbook	-14685
gb	-14686
▁2:	-14687
▁HO	-14688
cied	-14689
▁Saf	-14690
▁catal	-14691
▁essay	-14692
▁paddle	-14693
▁produces	-14694
▁furnished	-14695
▁Fu	-14696
vate	-14697
shire	-14698
▁bats	-14699
sniffs	-14700
▁Track	-14701
▁tract	-14702
▁ensure	-14703
▁dolphin	-14704
▁cheating	-14705
▁finishes	-14706
▁scratched	-14707
▁maintained	-14708
▁sufficiently	-14709
umi	-14710
gans	-14711
▁SOM	-14712
▁mrs	-14713
birds	-14714
▁grocer	-14715
▁honored	-14716
▁desperately	-14717
"--	-14718
rus	-14719
▁Haz	-14720
▁[.7	-14721
▁pea	-14722
▁Conc	-14723
▁Catal	-14724
▁tenth	-14725
▁archer	-14726
▁someday	-14727
▁brightly	-14728
▁receiver	-14729
▁retorted	-14730
▁molecules	-14731
▁marvellous	-14732
▁q	-14733
spr	-14734
wyn	-14735
ñor	-14736
post	-14737
hesis	-14738
▁Ella	-14739
▁loop	-14740
▁1991.	-14741
▁Belgian	-14742
▁appoint	-14743
▁pumpkins	-14744
▁attending	-14745
umbo	-14746
▁unl	-14747
ucking	-14748
▁Bella	-14749
▁Flight	-14750
▁Murphy	-14751
▁clasped	-14752
▁destiny	-14753
▁oatmeal	-14754
▁physician	-14755
44	-14756
TON	-14757
▁1:	-14758
Ross	-14759
ippy	-14760
▁$1.	-14761
ansom	-14762
▁Aran	-14763
▁bait	-14764
change	-14765
penter	-14766
▁pipes	-14767
▁Leices	-14768
speechplay	-14769
▁concentrate	-14770
INS	-14771
▁Von	-14772
maker	-14773
▁Lill	-14774
▁diving	-14775
▁stroll	-14776
▁acceler	-14777
▁peanuts	-14778
▁Montreal	-14779
▁expenses	-14780
▁Obviously	-14781
▁commented	-14782
▁inspection	-14783
▁governments	-14784
▁relationships	-14785
▁DVD	-14786
▁Fitz	-14787
▁Imag	-14788
▁foul	-14789
▁parks	-14790
▁messed	-14791
aug	-14792
hoe	-14793
▁Ru	-14794
Tony	-14795
etes	-14796
▁182	-14797
▁MAY	-14798
▁iii	-14799
bound	-14800
▁Lyon	-14801
▁bapt	-14802
▁render	-14803
▁sealed	-14804
▁Admiral	-14805
▁adapted	-14806
▁Colombia	-14807
▁bitterly	-14808
▁treacher	-14809
▁Prefecture	-14810
▁succession	-14811
ić	-14812
idel	-14813
▁cho	-14814
▁eru	-14815
draws	-14816
▁1948	-14817
▁fain	-14818
▁Dadda	-14819
▁crest	-14820
▁slack	-14821
▁Minnie	-14822
▁checks	-14823
▁unfair	-14824
▁Mistress	-14825
▁dragging	-14826
▁artillery	-14827
▁bothering	-14828
▁sentences	-14829
▁artificial	-14830
oqu	-14831
▁Ko	-14832
oral	-14833
names	-14834
▁fury	-14835
▁Wells	-14836
▁smugg	-14837
▁Hawaii	-14838
▁boundary	-14839
▁Territory	-14840
▁typically	-14841
▁PG	-14842
ivan	-14843
wait	-14844
▁Esc	-14845
▁HAD	-14846
▁Amaz	-14847
▁CHAR	-14848
▁Hale	-14849
▁Kurd	-14850
▁Cheer	-14851
▁piled	-14852
▁wrath	-14853
▁ignorant	-14854
▁rendered	-14855
▁Edinburgh	-14856
fam	-14857
ifies	-14858
▁1934	-14859
▁crow	-14860
▁Labor	-14861
▁Newton	-14862
▁humili	-14863
▁resort	-14864
▁runner	-14865
▁scores	-14866
▁Thunder	-14867
MENT	-14868
esame	-14869
▁1919	-14870
▁fret	-14871
▁jeep	-14872
▁wont	-14873
ensions	-14874
▁Butter	-14875
▁Season	-14876
▁depths	-14877
▁toothp	-14878
▁emerged	-14879
sim	-14880
▁1945	-14881
▁spit	-14882
▁Shoot	-14883
▁Gloria	-14884
▁broccoli	-14885
▁structures	-14886
▁constructed	-14887
Isn	-14888
ulus	-14889
Chris	-14890
attie	-14891
built	-14892
▁Chad	-14893
▁flap	-14894
▁heir	-14895
▁lays	-14896
▁saint	-14897
▁sizes	-14898
amental	-14899
▁Report	-14900
▁backed	-14901
▁enable	-14902
▁prayed	-14903
▁density	-14904
▁kittens	-14905
▁plaster	-14906
ét	-14907
isle	-14908
know	-14909
mist	-14910
▁Bub	-14911
▁1936	-14912
▁DOWN	-14913
▁Side	-14914
▁Ridge	-14915
▁skate	-14916
▁mixing	-14917
▁storms	-14918
▁Indiana	-14919
▁frankly	-14920
▁agricultural	-14921
MM	-14922
court	-14923
▁Claud	-14924
▁Merry	-14925
▁plums	-14926
▁coughing	-14927
▁landlord	-14928
SR	-14929
uu	-14930
▁Ins	-14931
▁Sic	-14932
▁sunk	-14933
ortion	-14934
verend	-14935
▁ambit	-14936
▁intim	-14937
▁rapper	-14938
▁unlock	-14939
▁grocery	-14940
▁roaring	-14941
▁Examples	-14942
30.	-14943
▁55	-14944
ishi	-14945
▁Fay	-14946
▁Face	-14947
▁bully	-14948
▁faded	-14949
▁fluid	-14950
▁pneum	-14951
rington	-14952
▁Rogers	-14953
▁consol	-14954
▁ribbit	-14955
▁proudly	-14956
▁gardener	-14957
▁measuring	-14958
▁educational	-14959
oper	-14960
green	-14961
▁Fairy	-14962
▁marine	-14963
▁Lettice	-14964
▁arrives	-14965
▁precisely	-14966
En	-14967
▁AC	-14968
▁IX	-14969
adder	-14970
▁1967	-14971
▁2023.	-14972
▁fract	-14973
▁melted	-14974
▁Charley	-14975
▁yoghurt	-14976
igo	-14977
yram	-14978
▁tan	-14979
claps	-14980
▁Reed	-14981
Indeed	-14982
▁1993.	-14983
▁Often	-14984
▁frown	-14985
▁Kipper	-14986
▁satisfy	-14987
▁rejected	-14988
▁DC	-14989
▁Sik	-14990
▁XXV	-14991
black	-14992
melon	-14993
owser	-14994
▁Tsar	-14995
▁1996.	-14996
▁Mills	-14997
▁franc	-14998
▁solic	-14999
▁Ronnie	-15000
▁Taking	-15001
▁arguing	-15002
▁strikes	-15003
▁democracy	-15004
JER	-15005
agi	-15006
▁Ohh	-15007
▁auto	-15008
▁gover	-15009
▁cinema	-15010
▁darker	-15011
▁Bradley	-15012
▁Freeman	-15013
▁begging	-15014
▁continuing	-15015
▁questioning	-15016
▁Ki	-15017
arded	-15018
forms	-15019
▁Kirk	-15020
▁Peru	-15021
▁leak	-15022
▁wept	-15023
encing	-15024
▁risen	-15025
▁Hunter	-15026
▁Getting	-15027
▁panting	-15028
▁tourist	-15029
▁absorbed	-15030
▁secretly	-15031
▁electrons	-15032
▁wilderness	-15033
▁considerably	-15034
VIR	-15035
eland	-15036
▁"...	-15037
▁1966	-15038
▁Mitc	-15039
▁slam	-15040
resses	-15041
▁Whose	-15042
▁crumbs	-15043
▁torped	-15044
▁warmly	-15045
▁rejoined	-15046
believable	-15047
▁triumphant	-15048
cs	-15049
orns	-15050
▁Eug	-15051
▁fug	-15052
aines	-15053
▁BEEN	-15054
▁Jama	-15055
▁synt	-15056
ternal	-15057
▁fewer	-15058
▁rains	-15059
audible	-15060
uscript	-15061
▁verses	-15062
▁Crawford	-15063
▁Universe	-15064
▁accomplish	-15065
▁suggesting	-15066
GB	-15067
anya	-15068
erts	-15069
shop	-15070
▁Pel	-15071
▁TWO	-15072
▁Bros	-15073
celona	-15074
▁uhhum	-15075
▁vigor	-15076
attempt	-15077
discards	-15078
▁brushed	-15079
▁colonies	-15080
31	-15081
QU	-15082
aba	-15083
||6	-15084
ogen	-15085
▁DIS	-15086
▁fried	-15087
▁flavor	-15088
▁admiral	-15089
▁historian	-15090
▁comfortably	-15091
wart	-15092
ainty	-15093
▁2000,	-15094
▁Works	-15095
related	-15096
▁darted	-15097
▁jingle	-15098
▁unclear	-15099
▁Smarties	-15100
▁Christine	-15101
▁countryside	-15102
igi	-15103
▁46	-15104
▁TOO	-15105
▁cod	-15106
▁Syria	-15107
▁stare	-15108
kissing	-15109
▁climbs	-15110
▁trifle	-15111
atiently	-15112
riptions	-15113
▁loyalty	-15114
▁predict	-15115
hang	-15116
▁Bot	-15117
SIGHS	-15118
boards	-15119
▁exert	-15120
▁Vermont	-15121
▁exhaust	-15122
▁periods	-15123
▁reverse	-15124
▁designer	-15125
▁graceful	-15126
▁respectable	-15127
aca	-15128
seen	-15129
usty	-15130
▁Bond	-15131
▁envy	-15132
porary	-15133
▁Megan	-15134
▁chrom	-15135
▁flats	-15136
▁Quebec	-15137
▁volunt	-15138
▁Stephan	-15139
▁promote	-15140
▁applications	-15141
Two	-15142
wife	-15143
▁asc	-15144
ounces	-15145
▁tackle	-15146
▁Randall	-15147
▁closest	-15148
▁kidnapped	-15149
demonstrates	-15150
asa	-15151
lest	-15152
▁(17	-15153
▁Luck	-15154
ishers	-15155
worthy	-15156
▁Rocky	-15157
▁deeds	-15158
▁Bulgar	-15159
▁Foster	-15160
▁bravely	-15161
▁scholar	-15162
▁lighting	-15163
▁persuaded	-15164
▁stretching	-15165
▁exceedingly	-15166
nia	-15167
etta	-15168
Alpes	-15169
isons	-15170
▁robe	-15171
▁wink	-15172
braska	-15173
▁fishes	-15174
▁awright	-15175
▁comprom	-15176
▁downtown	-15177
oka	-15178
uman	-15179
▁poles	-15180
▁fancied	-15181
▁Salzburg	-15182
▁cemetery	-15183
▁recovery	-15184
▁remainder	-15185
▁explaining	-15186
▁establishment	-15187
oya	-15188
crow	-15189
ooks	-15190
arten	-15191
eties	-15192
▁1971	-15193
▁Mick	-15194
▁Staff	-15195
▁Ginger	-15196
▁whatcha	-15197
▁summoned	-15198
▁automatic	-15199
▁promising	-15200
▁southwestern	-15201
pit	-15202
uru	-15203
weed	-15204
xual	-15205
▁Equ	-15206
▁cuc	-15207
▁sis	-15208
▁THEM	-15209
▁Twww	-15210
▁jest	-15211
▁lass	-15212
▁sped	-15213
wealth	-15214
▁raced	-15215
▁Marvel	-15216
▁cliffs	-15217
▁casting	-15218
▁mammals	-15219
▁Building	-15220
▁curiously	-15221
▁distinguish	-15222
RAT	-15223
iche	-15224
▁1947	-15225
▁empt	-15226
queline	-15227
▁Weston	-15228
▁saucer	-15229
▁theories	-15230
▁Pittsburgh	-15231
▁Grandfather	-15232
abe	-15233
eae	-15234
▁Cec	-15235
▁FRI	-15236
▁Wik	-15237
erals	-15238
table	-15239
▁Mong	-15240
ainian	-15241
▁dispute	-15242
▁internet	-15243
▁foam	-15244
▁Glenn	-15245
▁Moroc	-15246
▁buggy	-15247
▁plains	-15248
▁distinctly	-15249
.!	-15250
SP	-15251
▁Ö	-15252
GMO	-15253
nin	-15254
▁9.	-15255
July	-15256
step	-15257
▁Lux	-15258
MEDIA	-15259
celled	-15260
wright	-15261
▁Liter	-15262
▁smash	-15263
section	-15264
▁Grover	-15265
▁nurses	-15266
oubtedly	-15267
▁flights	-15268
▁ironing	-15269
▁stacker	-15270
▁Caribbean	-15271
KEN	-15272
aude	-15273
harm	-15274
▁Kor	-15275
▁cri	-15276
plete	-15277
▁Gust	-15278
▁2002,	-15279
▁EVERY	-15280
▁guilt	-15281
ossibly	-15282
▁Forces	-15283
▁Freddy	-15284
▁banned	-15285
▁grandson	-15286
▁QU	-15287
▁	-15288
e	-15289
t	-15290
o	-15291
a	-15292
n	-15293
i	-15294
h	-15295
s	-15296
r	-15297
l	-15298
d	-15299
u	-15300
.	-15301
y	-15302
m	-15303
w	-15304
c	-15305
g	-15306
f	-15307
p	-15308
:	-15309
b	-15310
I	-15311
*	-15312
,	-15313
k	-15314
T	-15315
'	-15316
M	-15317
v	-15318
O	-15319
H	-15320
C	-15321
?	-15322
A	-15323
S	-15324
"	-15325
-	-15326
N	-15327
x	-15328
W	-15329
B	-15330
=	-15331
]	-15332
[	-15333
E	-15334
R	-15335
D	-15336
P	-15337
!	-15338
F	-15339
Y	-15340
1	-15341
L	-15342
G	-15343
j	-15344
0	-15345
V	-15346
2	-15347
J	-15348
z	-15349
9	-15350
U	-15351
q	-15352
K	-15353
)	-15354
(	-15355
;	-15356
3	-15357
“	-15358
”	-15359
’	-15360
8	-15361
5	-15362
4	-15363
7	-15364
6	-15365
_	-15366
X	-15367
%	-15368
/	-15369
|	-15370
♪	-15371
Z	-15372
–	-15373
Q	-15374
—	-15375
+	-15376
é	-15377
#	-15378
$	-15379
á	-15380
&	-15381
‘	-15382
í	-15383
⌋	-15384
⌈	-15385
⌊	-15386
⌉	-15387
→	-15388
ü	-15389
~	-15390
ö	-15391
è	-15392
ó	-15393
`	-15394
¶	-15395
ä	-15396
}	-15397
―	-15398
°	-15399
ñ	-15400
ō	-15401
{	-15402
ú	-15403
─	-15404
\	-15405
ô	-15406
✿	-15407
â	-15408
ç	-15409
æ	-15410
ā	-15411
ã	-15412
É	-15413
Ö	-15414
£	-15415
ć	-15416
•	-15417
š	-15418
ū	-15419
́	-15420
à	-15421
↗	-15422
ø	-15423
ê	-15424
↫	-15425
@	-15426
ë	-15427
ł	-15428
å	-15429
♫	-15430
ß	-15431
č	-15432
Á	-15433
§	-15434
ă	-15435
⁄	-15436
œ	-15437
ï	-15438
ı	-15439
ş	-15440
	-15441
ī	-15442
×	-15443
¡	-15444
î	-15445
ì	-15446
·	-15447
¿	-15448
Æ	-15449
©	-15450
ž	-15451
ș	-15452
ń	-15453
ð	-15454
Î	-15455
^	-15456
−	-15457
€	-15458
Ç	-15459
ý	-15460
′	-15461
ò	-15462
Š	-15463
¤	-15464
	-15465
∆	-15466
∙	-15467
Ō	-15468
Ü	-15469
Å	-15470
ř	-15471
­	-15472
[...]
