<pad>	0
<unk>	0
<s>	0
</s>	0
[PAD]	0
[UNK]	0
[CLS]	0
[SEP]	0
[MASK]	0
▁t	-0
he	-1
▁a	-2
in	-3
▁w	-4
▁the	-5
▁*	-6
ou	-7
▁s	-8
re	-9
▁o	-10
ha	-11
er	-12
nd	-13
▁b	-14
it	-15
is	-16
▁c	-17
▁m	-18
▁y	-19
▁d	-20
on	-21
ing	-22
▁f	-23
▁I	-24
ll	-25
▁to	-26
OT	-27
MOT	-28
▁you	-29
an	-30
ed	-31
or	-32
es	-33
▁p	-34
hat	-35
en	-36
▁g	-37
▁l	-38
▁and	-39
CH	-40
CHI	-41
▁n	-42
ar	-43
▁of	-44
as	-45
▁in	-46
at	-47
om	-48
▁he	-49
ow	-50
▁h	-51
▁it	-52
ot	-53
▁ha	-54
et	-55
ve	-56
le	-57
▁that	-58
ay	-59
▁th	-60
▁on	-61
▁T	-62
ic	-63
us	-64
gh	-65
▁be	-66
id	-67
▁is	-68
▁A	-69
▁we	-70
▁e	-71
ld	-72
ut	-73
al	-74
oo	-75
▁S	-76
▁was	-77
▁M	-78
im	-79
ac	-80
ke	-81
ad	-82
..	-83
▁do	-84
ver	-85
▁re	-86
▁=	-87
▁r	-88
▁W	-89
ght	-90
▁u	-91
▁[	-92
▁B	-93
▁for	-94
ir	-95
se	-96
ly	-97
▁H	-98
▁st	-99
ent	-100
ion	-101
am	-102
out	-103
▁C	-104
st	-105
▁"	-106
▁k	-107
ith	-108
▁me	-109
ight	-110
▁The	-111
ea	-112
▁an	-113
▁what	-114
▁with	-115
her	-116
▁wh	-117
ome	-118
ur	-119
▁se	-120
▁go	-121
all	-122
▁Y	-123
▁as	-124
▁not	-125
▁this	-126
ter	-127
ch	-128
▁at	-129
ill	-130
▁li	-131
▁have	-132
▁-	-133
ould	-134
ro	-135
▁are	-136
▁D	-137
▁no	-138
ce	-139
▁kn	-140
▁N	-141
▁there	-142
ri	-143
▁P	-144
▁can	-145
ook	-146
ust	-147
▁they	-148
if	-149
il	-150
ant	-151
▁O	-152
▁one	-153
▁his	-154
un	-155
ct	-156
▁whe	-157
ain	-158
▁so	-159
...	-160
▁G	-161
▁know	-162
▁j	-163
▁L	-164
op	-165
ell	-166
▁don	-167
▁up	-168
▁she	-169
eah	-170
▁her	-171
▁ne	-172
and	-173
ore	-174
um	-175
▁all	-176
xx	-177
ie	-178
▁your	-179
▁F	-180
▁my	-181
▁had	-182
IN	-183
ge	-184
▁fr	-185
pp	-186
▁R	-187
▁J	-188
our	-189
▁sh	-190
▁but	-191
▁sa	-192
▁like	-193
ab	-194
▁1	-195
ack	-196
▁He	-197
▁E	-198
ood	-199
▁out	-200
▁de	-201
art	-202
ol	-203
INV	-204
▁It	-205
ul	-206
▁him	-207
▁pl	-208
▁al	-209
ink	-210
ry	-211
▁ab	-212
ake	-213
▁get	-214
▁see	-215
▁from	-216
▁did	-217
th	-218
ig	-219
▁look	-220
red	-221
ers	-222
el	-223
very	-224
▁or	-225
han	-226
ation	-227
▁here	-228
ess	-229
▁were	-230
ck	-231
ound	-232
est	-233
AT	-234
▁by	-235
▁You	-236
▁oh	-237
▁yeah	-238
ist	-239
▁su	-240
qu	-241
ind	-242
ame	-243
ra	-244
ard	-245
os	-246
▁them	-247
ong	-248
own	-249
▁got	-250
nt	-251
▁some	-252
itt	-253
one	-254
ak	-255
▁com	-256
▁just	-257
▁about	-258
▁think	-259
▁who	-260
▁wor	-261
▁want	-262
▁us	-263
ast	-264
▁sp	-265
▁right	-266
▁2	-267
res	-268
na	-269
ive	-270
ally	-271
▁now	-272
ep	-273
em	-274
▁would	-275
▁said	-276
▁(	-277
▁v	-278
ice	-279
ap	-280
▁if	-281
FAT	-282
od	-283
].	-284
ate	-285
▁ex	-286
▁when	-287
▁then	-288
▁con	-289
▁any	-290
ick	-291
ber	-292
▁man	-293
ime	-294
ough	-295
▁tw	-296
ort	-297
▁say	-298
hing	-299
ine	-300
ich	-301
fe	-302
ven	-303
use	-304
▁will	-305
▁bo	-306
kay	-307
other	-308
ide	-309
▁tr	-310
▁put	-311
▁And	-312
xxx	-313
▁where	-314
hi	-315
▁xxx	-316
▁good	-317
ear	-318
ag	-319
▁“	-320
▁int	-321
ittle	-322
▁down	-323
ous	-324
ther	-325
ies	-326
way	-327
▁back	-328
▁ag	-329
▁K	-330
."	-331
▁pro	-332
ost	-333
▁going	-334
ca	-335
▁cl	-336
au	-337
▁little	-338
▁been	-339
ose	-340
▁time	-341
▁could	-342
▁more	-343
▁well	-344
▁has	-345
▁ar	-346
▁over	-347
▁U	-348
▁come	-349
▁br	-350
▁'	-351
--	-352
▁very	-353
end	-354
▁which	-355
▁19	-356
▁too	-357
▁two	-358
ace	-359
▁off	-360
▁What	-361
▁their	-362
ove	-363
▁20	-364
ity	-365
lf	-366
▁pe	-367
▁okay	-368
ree	-369
ite	-370
▁Th	-371
▁how	-372
▁qu	-373
cause	-374
▁other	-375
▁play	-376
ure	-377
▁af	-378
▁fe	-379
ish	-380
are	-381
ond	-382
▁let	-383
▁thing	-384
▁yes	-385
▁le	-386
▁gr	-387
ud	-388
alk	-389
ft	-390
▁St	-391
reat	-392
,"	-393
▁than	-394
▁bl	-395
▁We	-396
orn	-397
▁No	-398
▁But	-399
▁ro	-400
ue	-401
age	-402
▁In	-403
omet	-404
urn	-405
my	-406
hed	-407
▁does	-408
ment	-409
▁into	-410
ought	-411
ian	-412
pl	-413
▁er	-414
AR	-415
▁again	-416
ople	-417
irst	-418
ass	-419
iv	-420
▁way	-421
ty	-422
▁Yeah	-423
▁make	-424
▁Oh	-425
ade	-426
ia	-427
▁She	-428
ase	-429
▁tell	-430
▁en	-431
ble	-432
▁somet	-433
ire	-434
ect	-435
ps	-436
onna	-437
▁work	-438
▁take	-439
ater	-440
▁people	-441
▁pr	-442
ary	-443
iss	-444
ount	-445
▁gonna	-446
▁sha	-447
▁call	-448
▁car	-449
▁day	-450
▁co	-451
▁fl	-452
▁am	-453
▁That	-454
ov	-455
▁first	-456
add	-457
int	-458
▁They	-459
ci	-460
▁need	-461
pt	-462
per	-463
ran	-464
▁after	-465
ng	-466
ys	-467
▁mean	-468
ord	-469
▁uh	-470
▁Mr	-471
uch	-472
▁bet	-473
▁hand	-474
ise	-475
▁only	-476
ne	-477
▁part	-478
▁thr	-479
▁our	-480
▁because	-481
▁should	-482
▁every	-483
ull	-484
self	-485
▁V	-486
fore	-487
ather	-488
nder	-489
ff	-490
wn	-491
act	-492
mer	-493
uh	-494
so	-495
▁ch	-496
▁didn	-497
ark	-498
iz	-499
ouse	-500
ach	-501
▁So	-502
av	-503
we	-504
▁un	-505
▁Well	-506
▁these	-507
▁much	-508
ub	-509
ock	-510
▁cha	-511
ob	-512
uck	-513
▁happ	-514
▁something	-515
thing	-516
ress	-517
augh	-518
▁pre	-519
able	-520
▁Wh	-521
ady	-522
les	-523
▁big	-524
▁made	-525
ren	-526
▁really	-527
▁te	-528
▁year	-529
ting	-530
▁long	-531
ile	-532
▁gu	-533
ool	-534
▁ad	-535
man	-536
og	-537
irl	-538
old	-539
▁why	-540
▁sm	-541
day	-542
▁This	-543
▁chi	-544
▁away	-545
oc	-546
▁talk	-547
ew	-548
▁dis	-549
▁po	-550
ied	-551
ory	-552
cl	-553
▁ke	-554
be	-555
ip	-556
ated	-557
▁before	-558
hes	-559
ict	-560
▁may	-561
▁under	-562
ions	-563
cc	-564
▁rem	-565
▁went	-566
▁wr	-567
anna	-568
ody	-569
▁sc	-570
▁im	-571
ence	-572
hen	-573
ang	-574
ving	-575
▁There	-576
▁hel	-577
▁cr	-578
▁sec	-579
▁old	-580
▁never	-581
▁three	-582
▁girl	-583
ix	-584
oll	-585
ward	-586
▁those	-587
▁turn	-588
▁wanna	-589
▁um	-590
▁doing	-591
▁ask	-592
riend	-593
▁child	-594
00	-595
PAR	-596
▁app	-597
▁came	-598
▁home	-599
tain	-600
ful	-601
here	-602
▁act	-603
▁thought	-604
▁also	-605
▁Yes	-606
atch	-607
ny	-608
?"	-609
▁per	-610
▁bab	-611
▁Ch	-612
▁eat	-613
▁must	-614
▁new	-615
pen	-616
hm	-617
▁even	-618
ors	-619
ons	-620
▁another	-621
▁find	-622
▁things	-623
gg	-624
▁book	-625
ath	-626
▁through	-627
▁house	-628
ried	-629
▁give	-630
akes	-631
▁great	-632
ks	-633
EX	-634
ance	-635
▁ple	-636
▁bu	-637
▁head	-638
ious	-639
▁help	-640
▁many	-641
▁start	-642
ved	-643
EXP	-644
ait	-645
▁still	-646
ings	-647
▁comp	-648
ily	-649
get	-650
▁won	-651
ans	-652
▁lea	-653
▁last	-654
oh	-655
▁sl	-656
ail	-657
ave	-658
pe	-659
▁Un	-660
land	-661
ign	-662
▁try	-663
▁love	-664
ru	-665
▁done	-666
oy	-667
▁found	-668
igh	-669
laugh	-670
▁show	-671
TE	-672
▁%	-673
▁happen	-674
▁called	-675
▁night	-676
▁mom	-677
▁How	-678
aking	-679
oot	-680
▁boy	-681
air	-682
▁bit	-683
▁might	-684
▁cont	-685
▁isn	-686
xt	-687
▁201	-688
▁lot	-689
rd	-690
▁el	-691
▁bel	-692
ves	-693
▁min	-694
▁res	-695
▁chan	-696
▁name	-697
up	-698
▁ser	-699
▁baby	-700
ling	-701
ult	-702
body	-703
▁friend	-704
.”	-705
side	-706
ms	-707
▁bot	-708
med	-709
▁Mum	-710
ates	-711
▁che	-712
ars	-713
▁around	-714
ild	-715
ee	-716
▁dif	-717
aw	-718
als	-719
ually	-720
oss	-721
iver	-722
oney	-723
▁open	-724
▁gl	-725
▁If	-726
▁its	-727
chool	-728
▁care	-729
▁Br	-730
▁better	-731
▁own	-732
.]	-733
▁kind	-734
te	-735
▁mov	-736
yes	-737
ember	-738
▁water	-739
▁sure	-740
▁most	-741
▁comm	-742
▁count	-743
▁Al	-744
▁end	-745
▁rec	-746
ever	-747
IS	-748
ope	-749
▁nice	-750
▁place	-751
▁mhm	-752
▁Is	-753
▁feel	-754
rent	-755
ces	-756
▁An	-757
▁years	-758
imes	-759
▁four	-760
ways	-761
▁keep	-762
ah	-763
▁As	-764
▁anything	-765
▁Do	-766
ph	-767
ical	-768
▁used	-769
port	-770
,”	-771
ww	-772
▁cour	-773
▁looks	-774
▁doesn	-775
AN	-776
ited	-777
▁being	-778
led	-779
▁mother	-780
inn	-781
▁3	-782
▁att	-783
ens	-784
ince	-785
▁life	-786
▁else	-787
▁while	-788
▁run	-789
!"	-790
▁such	-791
ont	-792
ere	-793
▁All	-794
▁same	-795
▁room	-796
▁fin	-797
▁beg	-798
▁shall	-799
▁wait	-800
▁bre	-801
amp	-802
▁des	-803
▁dr	-804
▁sit	-805
▁supp	-806
ute	-807
▁Mar	-808
▁.	-809
▁next	-810
orry	-811
laughs	-812
▁sw	-813
▁bus	-814
▁school	-815
▁Be	-816
row	-817
▁told	-818
atter	-819
▁please	-820
▁TH	-821
RO	-822
▁saw	-823
▁stop	-824
AD	-825
▁always	-826
▁left	-827
ations	-828
orm	-829
ird	-830
▁bec	-831
ition	-832
▁far	-833
▁hold	-834
▁set	-835
▁cle	-836
addy	-837
uc	-838
ss	-839
▁word	-840
▁wee	-841
▁Now	-842
▁read	-843
und	-844
▁Don	-845
ident	-846
▁pret	-847
▁Why	-848
aught	-849
▁Mummy	-850
meric	-851
arly	-852
leep	-853
▁diffe	-854
▁father	-855
▁Ar	-856
▁men	-857
oon	-858
▁col	-859
ins	-860
▁ever	-861
▁hard	-862
▁mon	-863
outh	-864
▁num	-865
ung	-866
▁Then	-867
ye	-868
▁gone	-869
▁ele	-870
▁fam	-871
▁ball	-872
▁ah	-873
ream	-874
ta	-875
ction	-876
▁use	-877
▁unt	-878
▁fun	-879
▁took	-880
ister	-881
ug	-882
mp	-883
ness	-884
▁When	-885
▁pres	-886
▁money	-887
oun	-888
▁point	-889
▁door	-890
vel	-891
▁Americ	-892
▁coming	-893
▁pol	-894
raw	-895
ump	-896
orning	-897
▁erm	-898
▁enough	-899
▁walk	-900
▁goes	-901
▁gre	-902
▁bed	-903
▁huh	-904
▁Fran	-905
▁200	-906
▁Cha	-907
▁ac	-908
anc	-909
vent	-910
▁five	-911
▁though	-912
▁hear	-913
▁box	-914
▁ind	-915
ished	-916
erson	-917
▁On	-918
ows	-919
▁ob	-920
▁sur	-921
▁says	-922
pect	-923
▁_	-924
mber	-925
▁nothing	-926
The	-927
▁ret	-928
ts	-929
▁sing	-930
ower	-931
▁war	-932
right	-933
ib	-934
▁side	-935
▁eyes	-936
▁acc	-937
▁mar	-938
▁young	-939
▁stand	-940
▁watch	-941
▁until	-942
▁real	-943
▁morning	-944
▁str	-945
ec	-946
".	-947
▁hm	-948
▁wom	-949
uff	-950
▁belie	-951
ier	-952
▁quite	-953
▁course	-954
▁light	-955
the	-956
▁pass	-957
oup	-958
▁thank	-959
▁asked	-960
▁Come	-961
az	-962
▁seen	-963
ER	-964
▁looking	-965
▁red	-966
▁stay	-967
▁reg	-968
▁My	-969
ired	-970
ger	-971
▁ph	-972
ross	-973
▁pick	-974
TEA	-975
ets	-976
ES	-977
ret	-978
▁remember	-979
▁De	-980
▁few	-981
▁dist	-982
▁six	-983
bab	-984
gr	-985
▁At	-986
ible	-987
▁Let	-988
▁best	-989
▁second	-990
▁round	-991
▁different	-992
▁dog	-993
▁world	-994
ial	-995
▁Gr	-996
▁small	-997
gether	-998
▁once	-999
ased	-1000
▁For	-1001
▁together	-1002
oor	-1003
eak	-1004
tle	-1005
▁sound	-1006
▁ent	-1007
ton	-1008
▁leave	-1009
une	-1010
ank	-1011
▁Not	-1012
▁hur	-1013
▁♪	-1014
ween	-1015
▁fell	-1016
ike	-1017
oe	-1018
▁mil	-1019
▁face	-1020
MA	-1021
▁pie	-1022
▁wind	-1023
▁sorry	-1024
ational	-1025
ning	-1026
▁yet	-1027
▁list	-1028
▁known	-1029
▁dear	-1030
MCH	-1031
▁getting	-1032
▁today	-1033
aster	-1034
▁soon	-1035
▁sleep	-1036
mb	-1037
uring	-1038
▁hands	-1039
SIS	-1040
ctor	-1041
▁both	-1042
huh	-1043
▁heard	-1044
▁sk	-1045
ents	-1046
▁mind	-1047
▁rel	-1048
ten	-1049
▁char	-1050
ollow	-1051
▁202	-1052
▁each	-1053
▁fall	-1054
▁mm	-1055
▁fire	-1056
▁children	-1057
▁cap	-1058
▁bro	-1059
ush	-1060
▁train	-1061
▁Sp	-1062
ener	-1063
▁ter	-1064
▁Okay	-1065
▁sn	-1066
▁Mrs	-1067
▁Than	-1068
ered	-1069
▁4	-1070
ures	-1071
▁Can	-1072
▁without	-1073
▁dri	-1074
OU	-1075
▁number	-1076
ash	-1077
ject	-1078
▁ready	-1079
▁bad	-1080
),	-1081
▁rest	-1082
fta	-1083
▁between	-1084
ason	-1085
▁hafta	-1086
▁May	-1087
▁himself	-1088
▁Miss	-1089
▁Chr	-1090
▁upon	-1091
▁Cl	-1092
▁Er	-1093
iet	-1094
▁pict	-1095
ries	-1096
▁New	-1097
).	-1098
▁happened	-1099
▁wanted	-1100
▁person	-1101
arl	-1102
▁Eng	-1103
ane	-1104
ics	-1105
▁ca	-1106
orth	-1107
ats	-1108
ged	-1109
▁Af	-1110
▁haven	-1111
fect	-1112
its	-1113
▁looked	-1114
▁18	-1115
ating	-1116
▁foot	-1117
ohn	-1118
ina	-1119
▁hat	-1120
▁Hey	-1121
ife	-1122
▁half	-1123
any	-1124
1:	-1125
ames	-1126
▁God	-1127
eter	-1128
▁having	-1129
cle	-1130
ines	-1131
▁high	-1132
▁pap	-1133
der	-1134
▁dec	-1135
▁mus	-1136
pped	-1137
▁later	-1138
less	-1139
▁Fr	-1140
▁matter	-1141
▁knew	-1142
▁inst	-1143
oice	-1144
most	-1145
▁along	-1146
GMA	-1147
io	-1148
unt	-1149
▁sort	-1150
▁heart	-1151
▁talking	-1152
ched	-1153
▁air	-1154
▁story	-1155
▁move	-1156
▁everything	-1157
▁wond	-1158
▁pretty	-1159
stand	-1160
▁lar	-1161
ale	-1162
▁John	-1163
▁THE	-1164
▁follow	-1165
▁pop	-1166
▁Just	-1167
▁dep	-1168
eth	-1169
osed	-1170
▁top	-1171
ork	-1172
▁maybe	-1173
BRO	-1174
ertain	-1175
▁cons	-1176
▁Mm	-1177
▁5	-1178
sel	-1179
ma	-1180
▁hour	-1181
lic	-1182
dd	-1183
▁Mom	-1184
▁ans	-1185
▁hor	-1186
cha	-1187
▁Re	-1188
ball	-1189
▁days	-1190
▁Bl	-1191
▁United	-1192
▁inter	-1193
▁live	-1194
cial	-1195
▁Ind	-1196
▁making	-1197
▁boys	-1198
▁gave	-1199
me	-1200
▁against	-1201
▁American	-1202
▁Go	-1203
rew	-1204
by	-1205
▁break	-1206
▁tra	-1207
▁table	-1208
aut	-1209
▁bring	-1210
▁wasn	-1211
iness	-1212
▁dire	-1213
▁199	-1214
▁drink	-1215
▁Z	-1216
▁Uh	-1217
▁alright	-1218
idd	-1219
cept	-1220
▁Daddy	-1221
vers	-1222
▁miss	-1223
▁inv	-1224
▁anim	-1225
▁city	-1226
▁Where	-1227
ither	-1228
ual	-1229
▁sir	-1230
▁Ma	-1231
ING	-1232
bo	-1233
ped	-1234
▁believe	-1235
▁family	-1236
",	-1237
pr	-1238
ully	-1239
▁Right	-1240
▁died	-1241
▁Christ	-1242
ised	-1243
▁blue	-1244
▁since	-1245
?”	-1246
ern	-1247
▁Who	-1248
uth	-1249
▁kill	-1250
ters	-1251
▁sy	-1252
▁Pr	-1253
You	-1254
clud	-1255
▁His	-1256
oint	-1257
▁aw	-1258
▁id	-1259
▁cut	-1260
enty	-1261
▁add	-1262
▁whole	-1263
▁born	-1264
▁moment	-1265
▁noise	-1266
▁tri	-1267
erest	-1268
oud	-1269
ision	-1270
▁return	-1271
▁started	-1272
ok	-1273
br	-1274
▁close	-1275
▁town	-1276
▁actually	-1277
▁cur	-1278
▁stud	-1279
orrow	-1280
▁ste	-1281
ced	-1282
ery	-1283
▁Good	-1284
----	-1285
ric	-1286
aken	-1287
▁meet	-1288
wards	-1289
▁doll	-1290
▁wonder	-1291
▁sub	-1292
to	-1293
▁wouldn	-1294
▁food	-1295
▁saying	-1296
▁swe	-1297
sh	-1298
▁chair	-1299
▁trying	-1300
ready	-1301
▁hot	-1302
ular	-1303
bably	-1304
oke	-1305
▁white	-1306
▁laugh	-1307
vern	-1308
hip	-1309
▁cent	-1310
▁Are	-1311
ield	-1312
▁black	-1313
▁Ger	-1314
▁near	-1315
▁song	-1316
▁friends	-1317
▁understand	-1318
▁hey	-1319
▁comes	-1320
▁almost	-1321
▁Thom	-1322
ole	-1323
▁One	-1324
▁cat	-1325
▁dro	-1326
▁land	-1327
▁interest	-1328
ote	-1329
uss	-1330
▁imp	-1331
▁CHI	-1332
▁quest	-1333
▁floor	-1334
▁game	-1335
▁inf	-1336
▁wrong	-1337
▁build	-1338
▁disc	-1339
zz	-1340
▁Q	-1341
||	-1342
▁pull	-1343
ony	-1344
▁green	-1345
▁team	-1346
▁feet	-1347
▁eight	-1348
ches	-1349
cess	-1350
▁playing	-1351
▁Com	-1352
EN	-1353
ustr	-1354
▁already	-1355
ative	-1356
▁minute	-1357
▁sign	-1358
ined	-1359
▁brother	-1360
▁ref	-1361
▁squ	-1362
aces	-1363
app	-1364
ted	-1365
read	-1366
▁Look	-1367
▁job	-1368
▁rep	-1369
ocal	-1370
ON	-1371
▁met	-1372
oes	-1373
▁poss	-1374
▁beaut	-1375
▁Bob	-1376
ants	-1377
▁became	-1378
www	-1379
aid	-1380
▁Tom	-1381
▁draw	-1382
▁sil	-1383
▁guess	-1384
▁sent	-1385
▁country	-1386
▁pain	-1387
▁began	-1388
▁happy	-1389
▁ten	-1390
▁hair	-1391
▁pay	-1392
▁Thomas	-1393
▁eas	-1394
ives	-1395
eed	-1396
▁Sh	-1397
▁Will	-1398
▁quick	-1399
▁States	-1400
▁Me	-1401
▁times	-1402
▁Did	-1403
▁beh	-1404
▁Jack	-1405
▁kid	-1406
▁idea	-1407
▁speak	-1408
eb	-1409
▁To	-1410
▁6	-1411
undred	-1412
ison	-1413
ama	-1414
ying	-1415
where	-1416
▁son	-1417
▁paper	-1418
▁exc	-1419
▁lost	-1420
▁Sc	-1421
ize	-1422
▁pur	-1423
▁fact	-1424
▁gotta	-1425
elt	-1426
▁listen	-1427
hy	-1428
▁played	-1429
ues	-1430
▁198	-1431
▁fine	-1432
▁probably	-1433
ages	-1434
▁lead	-1435
▁yell	-1436
▁–	-1437
▁gi	-1438
▁includ	-1439
ital	-1440
ik	-1441
▁ass	-1442
▁leg	-1443
ities	-1444
▁front	-1445
ple	-1446
▁tre	-1447
ene	-1448
▁picture	-1449
ring	-1450
ared	-1451
▁behind	-1452
olog	-1453
ner	-1454
▁makes	-1455
▁music	-1456
ster	-1457
airs	-1458
no	-1459
▁woman	-1460
▁coll	-1461
ipp	-1462
▁color	-1463
ivers	-1464
ently	-1465
ises	-1466
ots	-1467
▁hundred	-1468
▁fight	-1469
▁hope	-1470
▁brought	-1471
▁cook	-1472
▁mine	-1473
▁hum	-1474
▁certain	-1475
▁girls	-1476
▁,	-1477
ouch	-1478
ape	-1479
▁during	-1480
It	-1481
▁full	-1482
▁conf	-1483
LL	-1484
▁contin	-1485
▁Thank	-1486
▁7	-1487
utes	-1488
▁voice	-1489
▁MOT	-1490
OR	-1491
haps	-1492
▁aren	-1493
wer	-1494
▁plan	-1495
▁stuff	-1496
▁party	-1497
▁Har	-1498
▁means	-1499
ober	-1500
▁month	-1501
▁outside	-1502
▁turned	-1503
ey	-1504
▁ran	-1505
▁ext	-1506
▁sat	-1507
ury	-1508
▁After	-1509
▁seemed	-1510
▁week	-1511
iful	-1512
▁expl	-1513
lish	-1514
▁poor	-1515
rib	-1516
▁8	-1517
cy	-1518
▁couldn	-1519
tern	-1520
▁del	-1521
ouble	-1522
19	-1523
key	-1524
▁wants	-1525
▁short	-1526
▁Some	-1527
ax	-1528
▁movie	-1529
▁inc	-1530
▁prom	-1531
ense	-1532
▁stick	-1533
itting	-1534
▁sun	-1535
ete	-1536
RA	-1537
▁compl	-1538
▁able	-1539
▁lear	-1540
▁dead	-1541
ided	-1542
▁gener	-1543
▁proble	-1544
▁cup	-1545
▁sim	-1546
▁Her	-1547
▁late	-1548
▁hell	-1549
ured	-1550
▁bar	-1551
▁taken	-1552
room	-1553
unch	-1554
▁offic	-1555
▁often	-1556
inner	-1557
▁record	-1558
▁import	-1559
▁197	-1560
▁fore	-1561
ese	-1562
▁horse	-1563
▁i	-1564
▁bird	-1565
▁es	-1566
son	-1567
▁ones	-1568
▁piece	-1569
ides	-1570
▁form	-1571
ned	-1572
ert	-1573
ief	-1574
▁myself	-1575
fully	-1576
rying	-1577
▁Ph	-1578
for	-1579
▁Car	-1580
▁rock	-1581
!”	-1582
▁business	-1583
0,	-1584
▁Your	-1585
▁prod	-1586
▁stre	-1587
▁Pro	-1588
iam	-1589
ards	-1590
▁fro	-1591
▁dress	-1592
▁!	-1593
▁pu	-1594
▁Ge	-1595
▁German	-1596
▁minutes	-1597
iew	-1598
▁With	-1599
cted	-1600
▁words	-1601
▁King	-1602
▁vis	-1603
Oh	-1604
▁clot	-1605
▁sister	-1606
▁Here	-1607
2:	-1608
▁bear	-1609
▁yourself	-1610
▁Le	-1611
▁repl	-1612
▁taking	-1613
▁less	-1614
ments	-1615
lease	-1616
irth	-1617
NAN	-1618
ized	-1619
illy	-1620
ones	-1621
▁eng	-1622
▁large	-1623
▁mag	-1624
▁ed	-1625
aur	-1626
▁line	-1627
▁death	-1628
used	-1629
▁inside	-1630
▁grand	-1631
head	-1632
▁Fl	-1633
▁dark	-1634
ask	-1635
What	-1636
▁Chi	-1637
▁med	-1638
men	-1639
▁rather	-1640
selves	-1641
ublic	-1642
ention	-1643
LO	-1644
▁Ab	-1645
gan	-1646
▁pen	-1647
▁cold	-1648
▁ev	-1649
▁felt	-1650
ming	-1651
▁beautiful	-1652
ific	-1653
▁tele	-1654
1.	-1655
▁road	-1656
ider	-1657
ney	-1658
dy	-1659
▁wife	-1660
▁Ex	-1661
▁lady	-1662
▁main	-1663
ze	-1664
ald	-1665
▁9	-1666
not	-1667
arent	-1668
bit	-1669
▁tree	-1670
▁sometimes	-1671
oub	-1672
▁yellow	-1673
▁ago	-1674
▁cir	-1675
▁Ad	-1676
▁age	-1677
▁case	-1678
▁art	-1679
▁sweet	-1680
▁guy	-1681
▁alone	-1682
LD	-1683
▁toys	-1684
aughter	-1685
▁given	-1686
▁funny	-1687
▁?	-1688
amed	-1689
aim	-1690
ution	-1691
els	-1692
▁present	-1693
▁Char	-1694
morrow	-1695
▁someone	-1696
▁boat	-1697
wh	-1698
aj	-1699
born	-1700
▁strong	-1701
▁reac	-1702
▁change	-1703
▁Or	-1704
ator	-1705
rig	-1706
ists	-1707
rench	-1708
▁twenty	-1709
▁power	-1710
▁Count	-1711
▁serv	-1712
rest	-1713
▁Pe	-1714
▁page	-1715
▁state	-1716
▁ins	-1717
▁YOU	-1718
▁till	-1719
DS	-1720
▁Te	-1721
▁either	-1722
0.	-1723
▁wood	-1724
▁English	-1725
▁birth	-1726
▁Ed	-1727
▁milk	-1728
▁true	-1729
ham	-1730
▁wear	-1731
▁important	-1732
▁bag	-1733
▁past	-1734
▁mess	-1735
▁Jan	-1736
▁196	-1737
owing	-1738
▁mot	-1739
▁others	-1740
▁lik	-1741
range	-1742
▁mark	-1743
ffe	-1744
▁body	-1745
▁occ	-1746
▁Grand	-1747
▁wish	-1748
▁mommy	-1749
▁ground	-1750
artment	-1751
▁fast	-1752
▁pri	-1753
ising	-1754
UR	-1755
gy	-1756
icha	-1757
▁across	-1758
DAD	-1759
▁least	-1760
▁hello	-1761
▁class	-1762
▁fif	-1763
▁seven	-1764
▁em	-1765
▁tea	-1766
We	-1767
▁gets	-1768
iously	-1769
▁forg	-1770
▁fav	-1771
▁fair	-1772
▁Bar	-1773
▁trans	-1774
▁govern	-1775
▁working	-1776
▁Mommy	-1777
▁buy	-1778
atur	-1779
▁Cap	-1780
▁Pl	-1781
▁order	-1782
iving	-1783
▁fish	-1784
ians	-1785
ara	-1786
▁hurt	-1787
umb	-1788
▁lay	-1789
▁hon	-1790
▁IN	-1791
▁uhhuh	-1792
▁Per	-1793
▁question	-1794
▁X	-1795
ained	-1796
idge	-1797
itc	-1798
▁early	-1799
▁dar	-1800
arth	-1801
▁adv	-1802
ley	-1803
▁Ben	-1804
ately	-1805
Yes	-1806
▁jump	-1807
2.	-1808
ature	-1809
▁prov	-1810
▁sea	-1811
ops	-1812
▁deal	-1813
▁news	-1814
fic	-1815
ges	-1816
▁sever	-1817
ken	-1818
ism	-1819
▁#	-1820
▁clean	-1821
▁France	-1822
▁El	-1823
pri	-1824
▁Brit	-1825
▁finished	-1826
ello	-1827
▁law	-1828
▁animals	-1829
▁area	-1830
▁Every	-1831
▁ty	-1832
rence	-1833
▁Tr	-1834
▁creat	-1835
ety	-1836
▁dinner	-1837
fort	-1838
▁gun	-1839
▁star	-1840
iting	-1841
▁win	-1842
MAR	-1843
iding	-1844
▁Con	-1845
▁several	-1846
▁Hel	-1847
▁z	-1848
▁Wor	-1849
▁rece	-1850
▁group	-1851
raid	-1852
▁...	-1853
▁somebody	-1854
▁Tw	-1855
▁pos	-1856
▁tried	-1857
ummer	-1858
▁glad	-1859
▁expect	-1860
▁ice	-1861
▁guys	-1862
erv	-1863
▁fig	-1864
ering	-1865
▁hung	-1866
▁lo	-1867
▁prot	-1868
▁quiet	-1869
▁free	-1870
▁herself	-1871
irty	-1872
]?	-1873
▁bur	-1874
▁thinking	-1875
▁wall	-1876
▁exp	-1877
stem	-1878
▁roll	-1879
▁Sha	-1880
isc	-1881
ened	-1882
▁egg	-1883
ains	-1884
▁write	-1885
inging	-1886
▁By	-1887
▁daddy	-1888
▁mill	-1889
PAT	-1890
ana	-1891
1,	-1892
sc	-1893
iff	-1894
▁mouth	-1895
ept	-1896
ilt	-1897
▁reason	-1898
▁Because	-1899
▁sold	-1900
▁toy	-1901
▁jo	-1902
▁pat	-1903
overed	-1904
▁Ah	-1905
▁Am	-1906
▁company	-1907
imb	-1908
▁Se	-1909
▁women	-1910
ices	-1911
▁War	-1912
▁stra	-1913
▁cried	-1914
uly	-1915
▁chance	-1916
▁takes	-1917
000	-1918
▁Joe	-1919
uary	-1920
▁French	-1921
▁mod	-1922
No	-1923
iter	-1924
▁camp	-1925
▁opp	-1926
▁send	-1927
owed	-1928
▁da	-1929
▁Of	-1930
▁Man	-1931
eared	-1932
angu	-1933
urch	-1934
acher	-1935
aced	-1936
att	-1937
▁polit	-1938
▁spe	-1939
ead	-1940
fess	-1941
▁York	-1942
▁Jap	-1943
▁rele	-1944
oof	-1945
▁Dr	-1946
osp	-1947
▁pot	-1948
ued	-1949
icks	-1950
▁partic	-1951
ement	-1952
ousand	-1953
mon	-1954
▁ear	-1955
▁held	-1956
▁These	-1957
▁living	-1958
II	-1959
ounds	-1960
rict	-1961
▁become	-1962
raph	-1963
▁trouble	-1964
▁corn	-1965
▁among	-1966
EL	-1967
entle	-1968
TER	-1969
▁afraid	-1970
▁sitting	-1971
▁darling	-1972
ls	-1973
▁books	-1974
▁hit	-1975
▁phone	-1976
▁step	-1977
▁running	-1978
▁ap	-1979
▁Dad	-1980
▁fly	-1981
▁window	-1982
▁kept	-1983
▁doctor	-1984
▁vill	-1985
▁Jim	-1986
▁sal	-1987
▁tomorrow	-1988
▁truck	-1989
▁surpr	-1990
eng	-1991
▁fix	-1992
▁conc	-1993
olly	-1994
but	-1995
Well	-1996
enn	-1997
▁lived	-1998
ived	-1999
And	-2000
▁soft	-2001
▁cor	-2002
▁hi	-2003
▁ra	-2004
▁football	-2005
▁Geor	-2006
ford	-2007
▁15	-2008
▁AN	-2009
ping	-2010
ium	-2011
▁adm	-2012
▁ju	-2013
band	-2014
▁Please	-2015
iversity	-2016
▁195	-2017
▁ship	-2018
▁def	-2019
▁fur	-2020
▁fing	-2021
20	-2022
▁lov	-2023
yl	-2024
But	-2025
▁letter	-2026
▁Have	-2027
inning	-2028
▁par	-2029
UN	-2030
▁Dav	-2031
anger	-2032
▁Japan	-2033
▁17	-2034
▁usually	-2035
▁arm	-2036
▁Get	-2037
cil	-2038
alth	-2039
▁resp	-2040
▁thousand	-2041
▁catch	-2042
arch	-2043
▁answer	-2044
▁stood	-2045
irt	-2046
itten	-2047
▁married	-2048
de	-2049
▁birthday	-2050
▁ya	-2051
▁County	-2052
▁band	-2053
▁World	-2054
dden	-2055
▁[1	-2056
CDS	-2057
▁cond	-2058
▁lad	-2059
RI	-2060
▁Eur	-2061
▁ton	-2062
▁frog	-2063
ically	-2064
unk	-2065
LOI	-2066
▁touch	-2067
▁attack	-2068
oth	-2069
rie	-2070
▁sand	-2071
▁dad	-2072
▁hours	-2073
look	-2074
▁cross	-2075
2,	-2076
▁shop	-2077
▁heav	-2078
owers	-2079
ears	-2080
▁check	-2081
▁March	-2082
ange	-2083
▁June	-2084
▁bath	-2085
3.	-2086
aul	-2087
▁January	-2088
▁system	-2089
▁Gu	-2090
▁sudden	-2091
▁choo	-2092
▁nine	-2093
▁object	-2094
▁194	-2095
▁10	-2096
▁problem	-2097
▁fil	-2098
▁clear	-2099
▁lots	-2100
ode	-2101
▁Sw	-2102
▁perhaps	-2103
ox	-2104
mas	-2105
iddle	-2106
▁Sam	-2107
teen	-2108
▁Col	-2109
▁ord	-2110
▁Frank	-2111
▁exper	-2112
bum	-2113
ional	-2114
net	-2115
▁suppose	-2116
ract	-2117
▁Phil	-2118
▁hist	-2119
▁tired	-2120
▁special	-2121
▁king	-2122
urs	-2123
▁block	-2124
▁north	-2125
▁kiss	-2126
▁ann	-2127
▁seems	-2128
▁TO	-2129
▁tem	-2130
▁named	-2131
ility	-2132
▁mer	-2133
▁Hello	-2134
GRA	-2135
▁report	-2136
▁langu	-2137
aint	-2138
▁daughter	-2139
▁appro	-2140
ient	-2141
▁killed	-2142
▁clothes	-2143
asure	-2144
▁points	-2145
▁Ne	-2146
com	-2147
▁gra	-2148
▁mount	-2149
▁hus	-2150
ugust	-2151
▁knows	-2152
▁yours	-2153
over	-2154
▁dream	-2155
ccess	-2156
▁forget	-2157
▁press	-2158
ude	-2159
pril	-2160
oman	-2161
▁blood	-2162
▁post	-2163
▁everybody	-2164
wered	-2165
ored	-2166
▁rain	-2167
▁mum	-2168
▁gentle	-2169
▁easy	-2170
ADU	-2171
though	-2172
▁themselves	-2173
point	-2174
▁dra	-2175
RE	-2176
▁Erm	-2177
▁replied	-2178
ality	-2179
▁low	-2180
▁released	-2181
▁straight	-2182
▁waiting	-2183
That	-2184
▁CH	-2185
▁Captain	-2186
▁lovely	-2187
▁eating	-2188
ott	-2189
ron	-2190
lly	-2191
▁dat	-2192
amer	-2193
▁months	-2194
▁eye	-2195
▁Any	-2196
▁throw	-2197
ories	-2198
▁South	-2199
▁answered	-2200
vision	-2201
velop	-2202
▁coup	-2203
▁series	-2204
ays	-2205
▁shoes	-2206
itch	-2207
makes	-2208
▁hors	-2209
inal	-2210
▁Pres	-2211
▁lives	-2212
▁Par	-2213
▁ill	-2214
FCH	-2215
actly	-2216
▁Bet	-2217
▁hop	-2218
▁har	-2219
▁tonight	-2220
amb	-2221
▁within	-2222
▁deep	-2223
▁hang	-2224
▁nose	-2225
▁kids	-2226
▁sounds	-2227
raz	-2228
more	-2229
5.	-2230
▁British	-2231
▁ain	-2232
AP	-2233
▁whether	-2234
▁fit	-2235
▁possible	-2236
▁sail	-2237
ler	-2238
▁album	-2239
▁16	-2240
▁careful	-2241
▁husband	-2242
▁sca	-2243
▁government	-2244
▁gold	-2245
▁worked	-2246
gue	-2247
▁charac	-2248
▁spec	-2249
▁moved	-2250
aged	-2251
4.	-2252
▁cow	-2253
uit	-2254
▁duck	-2255
stairs	-2256
▁juice	-2257
▁August	-2258
ager	-2259
▁cannot	-2260
▁passed	-2261
3:	-2262
▁Cal	-2263
par	-2264
▁div	-2265
rol	-2266
ctober	-2267
arden	-2268
▁forgot	-2269
que	-2270
unic	-2271
▁Ste	-2272
▁North	-2273
▁fa	-2274
▁field	-2275
▁event	-2276
fast	-2277
cient	-2278
ek	-2279
▁police	-2280
hant	-2281
▁proper	-2282
uts	-2283
▁safe	-2284
▁putting	-2285
▁danger	-2286
▁luck	-2287
che	-2288
ances	-2289
▁doub	-2290
NA	-2291
▁diffic	-2292
▁]	-2293
▁Peter	-2294
3,	-2295
▁couple	-2296
▁slow	-2297
urd	-2298
▁Europe	-2299
ovember	-2300
▁broken	-2301
▁single	-2302
▁const	-2303
▁noises	-2304
AL	-2305
ulation	-2306
▁Mary	-2307
▁forward	-2308
▁Mc	-2309
▁Maybe	-2310
▁river	-2311
▁however	-2312
▁longer	-2313
AS	-2314
▁puts	-2315
reed	-2316
joy	-2317
pes	-2318
eptember	-2319
CHILD	-2320
hern	-2321
▁quickly	-2322
▁above	-2323
▁arms	-2324
▁Dan	-2325
▁Was	-2326
friend	-2327
CHILDES	-2328
▁childes	-2329
▁ring	-2330
cember	-2331
▁toward	-2332
ardon	-2333
▁favor	-2334
▁April	-2335
▁success	-2336
▁shot	-2337
7.	-2338
ai	-2339
▁office	-2340
▁Je	-2341
▁193	-2342
▁member	-2343
ffect	-2344
▁board	-2345
▁England	-2346
▁evening	-2347
▁October	-2348
▁breat	-2349
▁towards	-2350
unny	-2351
▁excl	-2352
omb	-2353
▁Min	-2354
▁seem	-2355
▁pretend	-2356
ging	-2357
He	-2358
gas	-2359
8.	-2360
come	-2361
▁knock	-2362
▁det	-2363
▁var	-2364
gram	-2365
▁bott	-2366
lex	-2367
▁chick	-2368
aser	-2369
▁arri	-2370
▁anyway	-2371
ral	-2372
6.	-2373
ior	-2374
▁cos	-2375
aimed	-2376
▁national	-2377
▁wow	-2378
ruary	-2379
ebruary	-2380
▁wat	-2381
▁mist	-2382
ience	-2383
▁reached	-2384
9.	-2385
▁glass	-2386
▁la	-2387
ining	-2388
▁caught	-2389
▁November	-2390
▁See	-2391
▁grow	-2392
▁building	-2393
▁ve	-2394
▁orange	-2395
▁seat	-2396
▁needs	-2397
▁elect	-2398
▁sight	-2399
udd	-2400
rat	-2401
4,	-2402
▁July	-2403
▁feeling	-2404
▁Lea	-2405
attle	-2406
▁third	-2407
▁nearly	-2408
▁Christmas	-2409
fer	-2410
▁drive	-2411
▁cool	-2412
▁Mart	-2413
▁equ	-2414
▁visit	-2415
▁September	-2416
▁whose	-2417
▁oper	-2418
▁snow	-2419
▁ahead	-2420
▁common	-2421
▁station	-2422
▁million	-2423
▁abs	-2424
phone	-2425
▁esc	-2426
terday	-2427
▁treat	-2428
yn	-2429
let	-2430
▁Su	-2431
▁cry	-2432
▁department	-2433
▁December	-2434
▁Qu	-2435
▁engine	-2436
▁shar	-2437
▁OF	-2438
▁clos	-2439
ggest	-2440
▁David	-2441
itchen	-2442
▁telling	-2443
you	-2444
▁worry	-2445
▁From	-2446
▁former	-2447
con	-2448
▁effect	-2449
gest	-2450
▁whatever	-2451
rop	-2452
▁places	-2453
▁dest	-2454
▁parent	-2455
▁returned	-2456
▁cray	-2457
▁orig	-2458
vocal	-2459
▁circ	-2460
▁warm	-2461
▁human	-2462
▁lie	-2463
ograph	-2464
ondon	-2465
▁Carl	-2466
ills	-2467
▁suggest	-2468
▁standing	-2469
▁Sir	-2470
▁Ke	-2471
▁trees	-2472
▁television	-2473
▁cover	-2474
uced	-2475
▁hungry	-2476
▁sol	-2477
▁February	-2478
▁Paul	-2479
ample	-2480
▁changed	-2481
▁shout	-2482
▁stat	-2483
▁cal	-2484
ED	-2485
▁cake	-2486
▁broke	-2487
IC	-2488
▁stopped	-2489
ien	-2490
▁enjoy	-2491
noon	-2492
▁stri	-2493
▁develop	-2494
▁ride	-2495
▁instead	-2496
emy	-2497
▁club	-2498
▁anyone	-2499
▁public	-2500
ander	-2501
▁Che	-2502
▁val	-2503
▁climb	-2504
▁strange	-2505
▁kitchen	-2506
rod	-2507
▁breakfast	-2508
▁meant	-2509
▁eh	-2510
▁cause	-2511
▁bye	-2512
▁Pat	-2513
ips	-2514
iny	-2515
▁cost	-2516
▁fear	-2517
5,	-2518
▁built	-2519
▁village	-2520
IT	-2521
▁bow	-2522
▁Gl	-2523
▁London	-2524
▁push	-2525
▁Em	-2526
▁player	-2527
▁disapp	-2528
▁tick	-2529
llustr	-2530
▁University	-2531
▁view	-2532
▁Rep	-2533
--------	-2534
▁organ	-2535
▁bread	-2536
▁pupp	-2537
▁Comm	-2538
▁Helen	-2539
▁super	-2540
▁region	-2541
▁decided	-2542
▁profess	-2543
▁est	-2544
▁Mark	-2545
▁opened	-2546
▁fill	-2547
uct	-2548
▁Thanks	-2549
▁carry	-2550
rible	-2551
▁yesterday	-2552
▁swim	-2553
ffic	-2554
▁wild	-2555
▁(19	-2556
▁supposed	-2557
uce	-2558
▁bes	-2559
▁dem	-2560
▁tape	-2561
▁teacher	-2562
▁led	-2563
▁support	-2564
▁afternoon	-2565
▁island	-2566
▁butter	-2567
▁direct	-2568
ology	-2569
▁save	-2570
▁exactly	-2571
▁Mother	-2572
▁test	-2573
▁perfect	-2574
▁followed	-2575
▁Ital	-2576
▁2020	-2577
ause	-2578
▁nin	-2579
oops	-2580
▁written	-2581
▁Ele	-2582
▁career	-2583
▁fellow	-2584
unity	-2585
ustral	-2586
▁track	-2587
hile	-2588
▁West	-2589
▁store	-2590
▁Fraser	-2591
mbers	-2592
▁season	-2593
▁prison	-2594
.'	-2595
▁indeed	-2596
co	-2597
cially	-2598
▁Gre	-2599
een	-2600
▁Great	-2601
▁turns	-2602
idence	-2603
vol	-2604
▁bright	-2605
▁whom	-2606
▁heavy	-2607
▁12	-2608
ospital	-2609
▁whis	-2610
▁Lord	-2611
8,	-2612
▁pack	-2613
ror	-2614
▁ow	-2615
▁av	-2616
▁position	-2617
▁weeks	-2618
▁miles	-2619
▁garden	-2620
▁Cr	-2621
▁pieces	-2622
▁learn	-2623
▁desc	-2624
ET	-2625
mother	-2626
ffee	-2627
▁park	-2628
bor	-2629
▁George	-2630
▁Like	-2631
▁sick	-2632
▁smil	-2633
ceed	-2634
▁cre	-2635
▁middle	-2636
▁works	-2637
▁Mad	-2638
▁Take	-2639
▁ir	-2640
▁ban	-2641
▁except	-2642
▁following	-2643
uel	-2644
▁Austral	-2645
▁Sm	-2646
▁using	-2647
▁protect	-2648
▁rad	-2649
OM	-2650
9,	-2651
ases	-2652
▁Russ	-2653
▁First	-2654
oul	-2655
▁ru	-2656
▁Two	-2657
▁brown	-2658
▁AND	-2659
▁City	-2660
ended	-2661
▁certainly	-2662
gen	-2663
▁requ	-2664
▁secret	-2665
▁ut	-2666
▁quar	-2667
▁mis	-2668
▁Wait	-2669
bles	-2670
▁sus	-2671
▁bought	-2672
▁hasn	-2673
▁belong	-2674
7,	-2675
▁added	-2676
▁happens	-2677
▁maj	-2678
▁National	-2679
▁ang	-2680
▁inform	-2681
▁stuck	-2682
▁Mag	-2683
▁farm	-2684
▁finish	-2685
▁Hi	-2686
▁truth	-2687
GH	-2688
▁complete	-2689
omin	-2690
go	-2691
▁giving	-2692
▁appear	-2693
uk	-2694
gar	-2695
ician	-2696
ushed	-2697
▁di	-2698
▁pardon	-2699
ales	-2700
night	-2701
empt	-2702
LE	-2703
▁program	-2704
ula	-2705
▁decl	-2706
▁pract	-2707
uthor	-2708
▁bottom	-2709
▁fort	-2710
▁street	-2711
▁cast	-2712
▁Indian	-2713
▁earth	-2714
▁watching	-2715
▁wrote	-2716
▁President	-2717
'.	-2718
▁lunch	-2719
▁worth	-2720
▁south	-2721
▁somewhere	-2722
ground	-2723
bed	-2724
▁lau	-2725
▁holding	-2726
▁Lou	-2727
▁Nor	-2728
board	-2729
▁doubt	-2730
iday	-2731
▁mad	-2732
▁language	-2733
▁Part	-2734
▁anybody	-2735
nel	-2736
▁OK	-2737
▁figure	-2738
▁shoot	-2739
singing	-2740
andy	-2741
6,	-2742
lie	-2743
▁List	-2744
▁Aunt	-2745
▁leaving	-2746
▁honey	-2747
ichael	-2748
▁ooh	-2749
igg	-2750
▁vi	-2751
ishing	-2752
ege	-2753
▁legs	-2754
▁general	-2755
▁district	-2756
▁Pol	-2757
▁Somet	-2758
▁members	-2759
▁example	-2760
▁base	-2761
fl	-2762
▁ought	-2763
▁church	-2764
▁lift	-2765
▁prop	-2766
▁dev	-2767
▁captain	-2768
ouncil	-2769
▁coffee	-2770
▁emp	-2771
▁loc	-2772
▁hol	-2773
▁tast	-2774
▁service	-2775
dom	-2776
ray	-2777
▁busy	-2778
tered	-2779
bur	-2780
child	-2781
▁sell	-2782
▁everyone	-2783
▁$	-2784
▁hig	-2785
▁mach	-2786
▁level	-2787
▁elep	-2788
box	-2789
▁bas	-2790
▁cop	-2791
▁‘	-2792
SI	-2793
▁flowers	-2794
▁character	-2795
▁neck	-2796
izz	-2797
▁fail	-2798
▁Sorry	-2799
▁space	-2800
▁anymore	-2801
▁summer	-2802
▁difficult	-2803
ille	-2804
resent	-2805
ogn	-2806
▁Even	-2807
▁Bill	-2808
▁However	-2809
▁history	-2810
▁consider	-2811
iers	-2812
gu	-2813
▁laughs	-2814
hold	-2815
▁neigh	-2816
▁moving	-2817
▁received	-2818
▁exclaimed	-2819
▁ce	-2820
▁pictures	-2821
▁master	-2822
▁tail	-2823
▁imag	-2824
oop	-2825
time	-2826
Th	-2827
▁Tell	-2828
▁thirty	-2829
APTER	-2830
US	-2831
itted	-2832
▁Black	-2833
ified	-2834
▁Ell	-2835
▁cab	-2836
▁parents	-2837
nect	-2838
▁fifty	-2839
work	-2840
▁reach	-2841
▁trust	-2842
▁defe	-2843
aff	-2844
nie	-2845
▁hole	-2846
ressed	-2847
ancy	-2848
▁thanks	-2849
▁spir	-2850
erry	-2851
▁sad	-2852
▁Rea	-2853
af	-2854
▁cars	-2855
Why	-2856
▁Rober	-2857
▁suddenly	-2858
▁carried	-2859
▁including	-2860
ounter	-2861
▁sense	-2862
▁America	-2863
▁result	-2864
▁CHAPTER	-2865
▁hospital	-2866
▁WH	-2867
▁bottle	-2868
eal	-2869
▁cheese	-2870
itty	-2871
ift	-2872
ording	-2873
▁commune	-2874
▁Hen	-2875
▁Brown	-2876
▁lock	-2877
ky	-2878
▁Cent	-2879
▁spoke	-2880
▁card	-2881
▁rising	-2882
bye	-2883
▁compan	-2884
▁burn	-2885
▁tot	-2886
▁major	-2887
pecially	-2888
▁stru	-2889
▁weren	-2890
▁animal	-2891
▁Michael	-2892
mpions	-2893
that	-2894
lin	-2895
kes	-2896
uation	-2897
▁port	-2898
▁comfort	-2899
▁mix	-2900
▁accept	-2901
▁James	-2902
▁population	-2903
eddy	-2904
▁chicken	-2905
,--	-2906
king	-2907
▁appeared	-2908
uty	-2909
▁yep	-2910
AY	-2911
▁plays	-2912
ocol	-2913
▁loud	-2914
▁beginning	-2915
ti	-2916
ino	-2917
▁further	-2918
▁William	-2919
ada	-2920
rupt	-2921
▁mat	-2922
rel	-2923
iger	-2924
cent	-2925
▁Uncle	-2926
Illustr	-2927
▁convers	-2928
▁horses	-2929
mm	-2930
▁pink	-2931
points	-2932
view	-2933
mie	-2934
ination	-2935
hel	-2936
▁bank	-2937
▁compet	-2938
resh	-2939
▁Mon	-2940
▁walking	-2941
▁Mama	-2942
▁race	-2943
bers	-2944
▁Sar	-2945
▁allowed	-2946
▁puzz	-2947
▁spot	-2948
▁rul	-2949
▁contain	-2950
▁vol	-2951
house	-2952
cer	-2953
lo	-2954
riage	-2955
▁recogn	-2956
iod	-2957
har	-2958
▁current	-2959
▁rab	-2960
▁feed	-2961
gasps	-2962
▁collect	-2963
OW	-2964
▁god	-2965
▁crying	-2966
▁seeing	-2967
▁corner	-2968
form	-2969
sings	-2970
▁gas	-2971
▁design	-2972
▁although	-2973
▁pounds	-2974
acing	-2975
estern	-2976
▁Harry	-2977
▁walked	-2978
▁IT	-2979
Illustration	-2980
▁dropped	-2981
▁likes	-2982
▁lose	-2983
▁self	-2984
▁hast	-2985
ization	-2986
▁vide	-2987
ghed	-2988
▁192	-2989
ume	-2990
▁prin	-2991
▁natur	-2992
▁grass	-2993
▁Ser	-2994
iced	-2995
ggy	-2996
asket	-2997
▁pock	-2998
▁camer	-2999
▁moon	-3000
▁continued	-3001
▁Nin	-3002
▁dry	-3003
▁games	-3004
▁obs	-3005
▁meeting	-3006
roll	-3007
▁jour	-3008
▁wash	-3009
▁En	-3010
▁bra	-3011
like	-3012
▁mid	-3013
▁remark	-3014
▁apple	-3015
▁spend	-3016
▁Sec	-3017
▁letters	-3018
▁priv	-3019
▁wide	-3020
▁beat	-3021
▁dance	-3022
▁term	-3023
ades	-3024
lished	-3025
acy	-3026
izes	-3027
▁dam	-3028
▁account	-3029
asant	-3030
▁tall	-3031
▁attention	-3032
ounced	-3033
ya	-3034
olute	-3035
▁Afric	-3036
cell	-3037
clock	-3038
▁danc	-3039
▁president	-3040
▁Billy	-3041
▁fle	-3042
play	-3043
what	-3044
how	-3045
▁tor	-3046
▁entire	-3047
▁picks	-3048
▁teeth	-3049
▁jack	-3050
▁wonderful	-3051
▁Rob	-3052
AM	-3053
▁Que	-3054
▁ate	-3055
▁Father	-3056
▁vict	-3057
gie	-3058
▁holds	-3059
▁distance	-3060
roy	-3061
There	-3062
well	-3063
rit	-3064
▁author	-3065
▁gen	-3066
whis	-3067
▁plate	-3068
▁respect	-3069
▁Ag	-3070
▁wet	-3071
▁local	-3072
ID	-3073
unicip	-3074
uture	-3075
▁People	-3076
▁shape	-3077
▁nobody	-3078
▁Mot	-3079
▁Roman	-3080
oose	-3081
▁information	-3082
ript	-3083
▁Span	-3084
▁Jul	-3085
▁leaves	-3086
▁cream	-3087
▁created	-3088
▁county	-3089
▁itself	-3090
wood	-3091
▁necess	-3092
now	-3093
▁based	-3094
ida	-3095
▁shouldn	-3096
▁century	-3097
▁popular	-3098
▁lab	-3099
▁health	-3100
▁yum	-3101
ission	-3102
▁type	-3103
bert	-3104
▁14	-3105
▁delight	-3106
itions	-3107
▁Mor	-3108
vin	-3109
▁silence	-3110
▁control	-3111
▁match	-3112
ius	-3113
▁laughed	-3114
▁favorite	-3115
▁liked	-3116
aven	-3117
elve	-3118
light	-3119
▁nor	-3120
▁11	-3121
▁uhoh	-3122
aves	-3123
ression	-3124
ala	-3125
olved	-3126
▁eggs	-3127
▁interesting	-3128
▁Germany	-3129
aps	-3130
rian	-3131
▁..	-3132
▁writing	-3133
por	-3134
▁Stop	-3135
noise	-3136
▁ears	-3137
▁shut	-3138
medi	-3139
gel	-3140
▁Sy	-3141
▁hide	-3142
off	-3143
str	-3144
▁Really	-3145
itive	-3146
▁wel	-3147
▁capital	-3148
▁Bobby	-3149
▁period	-3150
▁Nothing	-3151
▁interested	-3152
chan	-3153
cher	-3154
itz	-3155
▁mention	-3156
▁sky	-3157
▁jud	-3158
looks	-3159
bs	-3160
▁dig	-3161
pered	-3162
▁die	-3163
ounded	-3164
▁vers	-3165
▁famous	-3166
▁key	-3167
▁grew	-3168
▁13	-3169
▁silver	-3170
chn	-3171
ston	-3172
VE	-3173
▁perfor	-3174
ato	-3175
▁force	-3176
iller	-3177
arr	-3178
▁Red	-3179
▁parts	-3180
▁stars	-3181
ads	-3182
icy	-3183
uge	-3184
ipe	-3185
▁questions	-3186
▁laughing	-3187
oom	-3188
▁paid	-3189
raft	-3190
ilar	-3191
▁leng	-3192
osaur	-3193
▁chocol	-3194
▁Give	-3195
▁drop	-3196
▁norm	-3197
ply	-3198
▁hall	-3199
ashed	-3200
▁cell	-3201
rs	-3202
CAR	-3203
▁bell	-3204
▁future	-3205
▁serious	-3206
▁crayon	-3207
▁Jo	-3208
het	-3209
▁finally	-3210
▁Park	-3211
ires	-3212
iment	-3213
▁names	-3214
▁alive	-3215
▁command	-3216
astic	-3217
lt	-3218
▁phot	-3219
▁starts	-3220
▁Ant	-3221
▁army	-3222
icro	-3223
RY	-3224
field	-3225
▁pet	-3226
▁Sure	-3227
▁smell	-3228
▁needed	-3229
▁anx	-3230
▁pub	-3231
▁Dor	-3232
▁incre	-3233
▁Robert	-3234
How	-3235
ustom	-3236
▁Betty	-3237
▁aut	-3238
▁gives	-3239
▁showed	-3240
▁exam	-3241
▁reading	-3242
owd	-3243
ivil	-3244
▁birds	-3245
ipped	-3246
Don	-3247
▁mur	-3248
eneral	-3249
name	-3250
▁singing	-3251
▁Alex	-3252
iforn	-3253
▁Would	-3254
sp	-3255
val	-3256
▁tur	-3257
▁loved	-3258
▁Act	-3259
▁surprise	-3260
▁charge	-3261
isted	-3262
▁attempt	-3263
▁sle	-3264
rap	-3265
▁lying	-3266
▁elephant	-3267
▁Luc	-3268
▁⌊	-3269
▁clever	-3270
▁sheep	-3271
▁mem	-3272
▁closed	-3273
▁INV	-3274
▁hous	-3275
▁bridge	-3276
▁plant	-3277
itary	-3278
▁Maj	-3279
▁officer	-3280
▁House	-3281
_,	-3282
▁rub	-3283
If	-3284
viously	-3285
▁wheel	-3286
irm	-3287
▁	-3288
e	-3289
t	-3290
o	-3291
a	-3292
n	-3293
i	-3294
h	-3295
s	-3296
r	-3297
l	-3298
d	-3299
u	-3300
.	-3301
y	-3302
m	-3303
w	-3304
c	-3305
g	-3306
f	-3307
p	-3308
:	-3309
b	-3310
I	-3311
*	-3312
,	-3313
k	-3314
T	-3315
'	-3316
M	-3317
v	-3318
O	-3319
H	-3320
C	-3321
?	-3322
A	-3323
S	-3324
"	-3325
-	-3326
N	-3327
x	-3328
W	-3329
B	-3330
=	-3331
]	-3332
[	-3333
E	-3334
R	-3335
D	-3336
P	-3337
!	-3338
F	-3339
Y	-3340
1	-3341
L	-3342
G	-3343
j	-3344
0	-3345
V	-3346
2	-3347
J	-3348
z	-3349
9	-3350
U	-3351
q	-3352
K	-3353
)	-3354
(	-3355
;	-3356
3	-3357
“	-3358
”	-3359
’	-3360
8	-3361
5	-3362
4	-3363
7	-3364
6	-3365
_	-3366
X	-3367
%	-3368
/	-3369
|	-3370
♪	-3371
Z	-3372
–	-3373
Q	-3374
—	-3375
+	-3376
é	-3377
#	-3378
$	-3379
á	-3380
&	-3381
‘	-3382
í	-3383
⌋	-3384
⌈	-3385
⌊	-3386
⌉	-3387
→	-3388
ü	-3389
~	-3390
ö	-3391
è	-3392
ó	-3393
`	-3394
¶	-3395
ä	-3396
}	-3397
―	-3398
°	-3399
ñ	-3400
ō	-3401
{	-3402
ú	-3403
─	-3404
\	-3405
ô	-3406
✿	-3407
â	-3408
ç	-3409
æ	-3410
ā	-3411
ã	-3412
É	-3413
Ö	-3414
£	-3415
ć	-3416
•	-3417
š	-3418
ū	-3419
́	-3420
à	-3421
↗	-3422
ø	-3423
ê	-3424
↫	-3425
@	-3426
ë	-3427
ł	-3428
å	-3429
♫	-3430
ß	-3431
č	-3432
Á	-3433
§	-3434
ă	-3435
⁄	-3436
œ	-3437
ï	-3438
ı	-3439
ş	-3440
	-3441
ī	-3442
×	-3443
¡	-3444
î	-3445
ì	-3446
·	-3447
¿	-3448
Æ	-3449
©	-3450
ž	-3451
ș	-3452
ń	-3453
ð	-3454
Î	-3455
^	-3456
−	-3457
€	-3458
Ç	-3459
ý	-3460
′	-3461
ò	-3462
Š	-3463
¤	-3464
	-3465
∆	-3466
∙	-3467
Ō	-3468
Ü	-3469
Å	-3470
ř	-3471
­	-3472
û	-3473
ğ	-3474
ˈ	-3475
ː	-3476
þ	-3477
ě	-3478
⁎	-3479
ù	-3480
ə	-3481
õ	-3482
ē	-3483
ś	-3484
	-3485
À	-3486
ț	-3487
Ó	-3488
Đ	-3489
İ	-3490
Ä	-3491
Ã	-3492
ő	-3493
Ú	-3494
ę	-3495
¢	-3496
ą	-3497
ʻ	-3498
Ł	-3499
Č	-3500
Ş	-3501
ţ	-3502
Ž	-3503
±	-3504
Â	-3505
Ś	-3506
Í	-3507
„	-3508
‡	-3509
Ý	-3510
ż	-3511
ả	-3512
ʼ	-3513
Η	-3514
È	-3515
ṯ	-3516
Ø	-3517
ṟ	-3518
ɛ	-3519
ɪ	-3520
ệ	-3521
ė	-3522
ṭ	-3523
®	-3524
Ñ	-3525
÷	-3526
ー	-3527
»	-3528
Ì	-3529
ồ	-3530
đ	-3531
ư	-3532
̶	-3533
ź	-3534
†	-3535
	-3536
«	-3537
>	-3538
ʿ	-3539
Ð	-3540
Ô	-3541
ṣ	-3542
¦	-3543
ṉ	-3544
ň	-3545
ĕ	-3546
ọ	-3547
Ê	-3548
ḥ	-3549
‭	-3550
ɑ	-3551
Þ	-3552
▔	-3553
་	-3554
ů	-3555
ǎ	-3556
	-3557
Ï	-3558
॥	-3559
ÿ	-3560
ũ	-3561
Ò	-3562
←	-3563
¬	-3564
ẩ	-3565
ŋ	-3566
ɔ	-3567
ʊ	-3568
	-3569
Ż	-3570
ạ	-3571
ʾ	-3572
Ḥ	-3573
Ā	-3574
ṇ	-3575
ʃ	-3576
Α	-3577
ờ	-3578
ế	-3579
ễ	-3580
ứ	-3581
	-3582
¥	-3583
ν	-3584
∇	-3585
Ë	-3586
ˌ	-3587
ŵ	-3588
・	-3589
ŭ	-3590
ơ	-3591
♭	-3592
ộ	-3593
₹	-3594
ņ	-3595
‐	-3596
○	-3597
⟨	-3598
⟩	-3599
ṃ	-3600
ʒ	-3601
Ј	-3602
।	-3603
ố	-3604
Ć	-3605
ĩ	-3606
Ε	-3607
٤	-3608
ị	-3609
∞	-3610
<	-3611
Ù	-3612
ŏ	-3613
١	-3614
ġ	-3615
ĭ	-3616
ǔ	-3617
ǫ	-3618
ề	-3619
█	-3620
⬄	-3621
Œ	-3622
ɐ	-3623
؟	-3624
ḍ	-3625
‚	-3626
	-3627
	-3628
Ķ	-3629
ƒ	-3630
Ș	-3631
ʌ	-3632
ʔ	-3633
ο	-3634
Õ	-3635
ŷ	-3636
∴	-3637
į	-3638
ɣ	-3639
ɾ	-3640
Τ	-3641
ـ	-3642
٧	-3643
٨	-3644
ḻ	-3645
	-3646
ť	-3647
Ÿ	-3648
ǐ	-3649
ɘ	-3650
ɡ	-3651
٢	-3652
٥	-3653
↑	-3654
ď	-3655
Ē	-3656
ʁ	-3657
།	-3658
₤	-3659
≤	-3660
≥	-3661
	-3662
	-3663
Ľ	-3664
Ț	-3665
ɫ	-3666
Υ	-3667
ớ	-3668
⁂	-3669
₩	-3670
☆	-3671
♯	-3672
	-3673
	-3674
ǒ	-3675
ɒ	-3676
ɦ	-3677
ˆ	-3678
१	-3679
Ṭ	-3680
ữ	-3681
‍	-3682
√	-3683
≈	-3684
☺	-3685
	-3686
	-3687
ĝ	-3688
ű	-3689
ǁ	-3690
ɨ	-3691
ɹ	-3692
ʋ	-3693
ʘ	-3694
٦	-3695
٩	-3696
ṅ	-3697
ẓ	-3698
ậ	-3699
ẻ	-3700
ụ	-3701
	-3702
	-3703
ĥ	-3704
ļ	-3705
Ř	-3706
ɕ	-3707
ʏ	-3708
ḷ	-3709
Ṣ	-3710
ủ	-3711
ỹ	-3712
⁠	-3713
★	-3714
✡	-3715
、	-3716
	-3717
ħ	-3718
ľ	-3719
ǝ	-3720
ɯ	-3721
ɲ	-3722
ṓ	-3723
ắ	-3724
∂	-3725
∗	-3726
∘	-3727
⋅	-3728
●	-3729
♥	-3730
	-3731
	-3732
ĉ	-3733
ĵ	-3734
ŝ	-3735
Ū	-3736
ǂ	-3737
ǚ	-3738
ǵ	-3739
ɜ	-3740
ɩ	-3741
ʎ	-3742
˧	-3743
ව	-3744
ḫ	-3745
ấ	-3746
ầ	-3747
ẽ	-3748
ổ	-3749
ử	-3750
ỳ	-3751
‖	-3752
‬	-3753
※	-3754
₱	-3755
₵	-3756
∈	-3757
≠	-3758
Û	-3759
Ğ	-3760
Ī	-3761
Ţ	-3762
Ə	-3763
ȁ	-3764
ɳ	-3765
ʇ	-3766
ʕ	-3767
ˊ	-3768
ˋ	-3769
״	-3770
ṁ	-3771
ṛ	-3772
ẏ	-3773
ằ	-3774
ẹ	-3775
ỉ	-3776
ợ	-3777
‰	-3778
∝	-3779
∼	-3780
≡	-3781
❌	-3782
「	-3783
」	-3784
	-3785
	-3786
Ĉ	-3787
Ę	-3788
Ě	-3789
ģ	-3790
Ļ	-3791
Ŝ	-3792
Ť	-3793
Ŧ	-3794
Ź	-3795
Ƌ	-3796
ƿ	-3797
ǃ	-3798
ǣ	-3799
ǩ	-3800
ȝ	-3801
ʂ	-3802
ʈ	-3803
ʐ	-3804
ʹ	-3805
ˀ	-3806
ˇ	-3807
а	-3808
б	-3809
с	-3810
२	-3811
३	-3812
४	-3813
५	-3814
ය	-3815
ා	-3816
ේ	-3817
၁	-3818
ḗ	-3819
ḿ	-3820
ṙ	-3821
Ṯ	-3822
Ẓ	-3823
ẵ	-3824
Ẹ	-3825
ể	-3826
ỗ	-3827
ở	-3828
ự	-3829
⊙	-3830
◉	-3831
☃	-3832
☉	-3833
☻	-3834
♠	-3835
✅	-3836
✙	-3837
。	-3838
〜	-3839
ꞯ	-3840
	-3841
Ă	-3842
Ą	-3843
Ĕ	-3844
Ė	-3845
Ĝ	-3846
Ĥ	-3847
Ħ	-3848
ķ	-3849
ĺ	-3850
Ń	-3851
Ő	-3852
ŕ	-3853
ŗ	-3854
ų	-3855
Ƅ	-3856
ƌ	-3857
Ǝ	-3858
Ǧ	-3859
ǧ	-3860
ǹ	-3861
ȃ	-3862
Ȝ	-3863
Ɂ	-3864
ɂ	-3865
ɖ	-3866
ɗ	-3867
ɝ	-3868
ɟ	-3869
ɥ	-3870
ɮ	-3871
ɶ	-3872
ɷ	-3873
ɸ	-3874
ɺ	-3875
ʑ	-3876
ʙ	-3877
ʝ	-3878
ʟ	-3879
ʧ	-3880
ʽ	-3881
˥	-3882
˦	-3883
˩	-3884
̈	-3885
Β	-3886
М	-3887
й	-3888
к	-3889
о	-3890
у	-3891
ш	-3892
я	-3893
־	-3894
،	-3895
۞	-3896
۰	-3897
०	-3898
६	-3899
७	-3900
८	-3901
९	-3902
ආ	-3903
ජ	-3904
බ	-3905
ු	-3906
ෝ	-3907
၀	-3908
၂	-3909
၃	-3910
၄	-3911
၅	-3912
၆	-3913
၇	-3914
၈	-3915
၉	-3916
᚛	-3917
᚜	-3918
០	-3919
១	-3920
២	-3921
៣	-3922
៤	-3923
៥	-3924
៦	-3925
៧	-3926
៨	-3927
៩	-3928
ḋ	-3929
Ḍ	-3930
ḏ	-3931
Ḡ	-3932
Ḩ	-3933
ḱ	-3934
ḵ	-3935
Ṃ	-3936
ṗ	-3937
ṫ	-3938
Ṳ	-3939
ṹ	-3940
ẞ	-3941
ặ	-3942
Ế	-3943
Ọ	-3944
ỏ	-3945
‿	-3946
⁣	-3947
₡	-3948
₣	-3949
₿	-3950
↊	-3951
↋	-3952
∉	-3953
≒	-3954
▼	-3955
◊	-3956
☐	-3957
☚	-3958
☛	-3959
☣	-3960
☭	-3961
☯	-3962
♄	-3963
♑	-3964
♒	-3965
♡	-3966
♣	-3967
♦	-3968
♮	-3969
✚	-3970
❤	-3971
❦	-3972
⬱	-3973
ⱡ	-3974
⿰	-3975
⿱	-3976
⿺	-3977
〉	-3978
《	-3979
》	-3980
『	-3981
』	-3982
Ꜧ	-3983
ꜧ	-3984
꞉	-3985
ꞌ	-3986
	-3987
	-3988
	-3989
𝄆	-3990
