<pad>	0
<unk>	0
<s>	0
</s>	0
[PAD]	0
[UNK]	0
[CLS]	0
[SEP]	0
[MASK]	0
en	-0
▁t	-1
er	-2
▁d	-3
an	-4
in	-5
▁*	-6
he	-7
▁w	-8
▁o	-9
at	-10
▁s	-11
▁m	-12
▁b	-13
▁a	-14
▁i	-15
et	-16
▁g	-17
ou	-18
▁v	-19
el	-20
▁.	-21
or	-22
▁h	-23
ij	-24
ar	-25
▁n	-26
OT	-27
MOT	-28
▁he	-29
es	-30
▁th	-31
▁the	-32
▁de	-33
on	-34
▁y	-35
CH	-36
ch	-37
▁l	-38
▁I	-39
CHI	-40
ing	-41
▁p	-42
▁j	-43
▁e	-44
it	-45
▁z	-46
▁k	-47
and	-48
re	-49
▁c	-50
▁in	-51
ie	-52
st	-53
▁you	-54
ll	-55
om	-56
ed	-57
aar	-58
▁to	-59
▁f	-60
▁je	-61
is	-62
▁is	-63
oor	-64
oo	-65
▁een	-66
▁on	-67
▁het	-68
▁[	-69
al	-70
▁wh	-71
▁it	-72
ig	-73
▁u	-74
▁and	-75
▁D	-76
ere	-77
as	-78
ot	-79
▁do	-80
▁W	-81
▁that	-82
ra	-83
le	-84
▁van	-85
▁en	-86
▁,	-87
▁we	-88
id	-89
▁H	-90
▁of	-91
ak	-92
ut	-93
ay	-94
▁st	-95
..	-96
▁op	-97
▁M	-98
ow	-99
ad	-100
▁ge	-101
▁be	-102
ve	-103
ro	-104
cht	-105
▁me	-106
iet	-107
gen	-108
ver	-109
den	-110
▁ver	-111
▁er	-112
am	-113
ijn	-114
de	-115
▁S	-116
il	-117
ur	-118
▁A	-119
▁?	-120
▁-	-121
▁te	-122
un	-123
ent	-124
ee	-125
se	-126
oe	-127
▁E	-128
▁what	-129
▁r	-130
▁dat	-131
ijk	-132
ik	-133
▁go	-134
▁B	-135
ic	-136
▁niet	-137
▁J	-138
ag	-139
▁'	-140
▁no	-141
ol	-142
der	-143
ant	-144
▁Ik	-145
▁N	-146
▁re	-147
est	-148
ea	-149
▁ik	-150
▁al	-151
▁T	-152
▁voor	-153
▁O	-154
ken	-155
ell	-156
▁was	-157
ap	-158
ven	-159
▁met	-160
ht	-161
im	-162
ft	-163
eah	-164
ct	-165
ook	-166
op	-167
▁ha	-168
▁...	-169
▁heb	-170
▁zijn	-171
all	-172
aat	-173
▁this	-174
▁G	-175
▁mo	-176
AT	-177
ier	-178
ir	-179
▁all	-180
▁ze	-181
xx	-182
ers	-183
▁K	-184
ight	-185
IN	-186
ck	-187
INV	-188
us	-189
▁over	-190
▁there	-191
▁V	-192
▁De	-193
▁Z	-194
▁die	-195
FAT	-196
em	-197
▁for	-198
▁uit	-199
▁L	-200
▁they	-201
▁C	-202
▁aan	-203
ze	-204
ome	-205
▁wat	-206
▁can	-207
ind	-208
▁kn	-209
▁"	-210
▁ju	-211
ld	-212
▁wor	-213
▁at	-214
aan	-215
ill	-216
ge	-217
rij	-218
▁le	-219
▁one	-220
ien	-221
je	-222
▁om	-223
▁an	-224
ink	-225
▁don	-226
▁yeah	-227
na	-228
au	-229
ru	-230
ith	-231
▁Je	-232
ion	-233
eel	-234
▁Y	-235
▁pl	-236
ok	-237
▁sp	-238
ab	-239
▁P	-240
▁have	-241
].	-242
nd	-243
▁know	-244
ike	-245
▁look	-246
▁with	-247
nen	-248
ist	-249
▁oh	-250
sen	-251
th	-252
▁up	-253
▁like	-254
▁Het	-255
▁R	-256
▁are	-257
▁get	-258
▁1	-259
▁sch	-260
eer	-261
▁tw	-262
▁naar	-263
ould	-264
▁bij	-265
ood	-266
aal	-267
ce	-268
aak	-269
kay	-270
▁not	-271
▁kun	-272
ter	-273
▁als	-274
▁so	-275
▁here	-276
ast	-277
ul	-278
▁wer	-279
sch	-280
te	-281
elijk	-282
▁she	-283
um	-284
pen	-285
▁zo	-286
...	-287
ang	-288
▁mak	-289
▁sh	-290
▁moet	-291
▁see	-292
out	-293
▁Wat	-294
ond	-295
▁okay	-296
▁dan	-297
os	-298
▁bl	-299
ly	-300
elk	-301
▁your	-302
▁but	-303
▁ne	-304
▁ch	-305
ten	-306
oord	-307
een	-308
eld	-309
eren	-310
ek	-311
▁maar	-312
xxx	-313
▁xxx	-314
▁put	-315
▁did	-316
▁got	-317
ies	-318
▁waar	-319
rou	-320
▁out	-321
▁think	-322
ff	-323
▁pro	-324
▁or	-325
ack	-326
▁We	-327
gh	-328
art	-329
racht	-330
▁ook	-331
che	-332
▁door	-333
ank	-334
▁goed	-335
▁ab	-336
▁bo	-337
▁kan	-338
▁geb	-339
▁In	-340
▁deze	-341
▁want	-342
▁had	-343
ingen	-344
▁ben	-345
ep	-346
▁as	-347
int	-348
ry	-349
ich	-350
uit	-351
▁nog	-352
ore	-353
omm	-354
▁2	-355
eft	-356
her	-357
▁En	-358
ip	-359
▁then	-360
ijd	-361
▁F	-362
▁!	-363
▁her	-364
▁some	-365
acht	-366
wn	-367
▁my	-368
elf	-369
▁just	-370
▁right	-371
▁hij	-372
▁Dat	-373
▁pr	-374
▁onder	-375
ard	-376
ben	-377
ide	-378
▁man	-379
▁=	-380
▁(	-381
ets	-382
uur	-383
▁af	-384
▁them	-385
▁wil	-386
▁gr	-387
▁say	-388
▁fr	-389
▁Al	-390
▁wel	-391
eg	-392
ally	-393
elen	-394
ive	-395
▁about	-396
▁hier	-397
▁where	-398
▁kom	-399
ort	-400
▁se	-401
itt	-402
▁kl	-403
▁if	-404
▁men	-405
ess	-406
dracht	-407
▁heeft	-408
ine	-409
og	-410
."	-411
▁Yeah	-412
ick	-413
▁gon	-414
▁hebben	-415
oon	-416
▁Er	-417
▁bet	-418
▁dit	-419
orm	-420
▁now	-421
oorden	-422
▁word	-423
▁vol	-424
▁sa	-425
ug	-426
uw	-427
od	-428
ste	-429
uk	-430
▁down	-431
iv	-432
▁St	-433
▁let	-434
zen	-435
▁well	-436
▁con	-437
icht	-438
oek	-439
ite	-440
ings	-441
▁br	-442
up	-443
oot	-444
ame	-445
land	-446
eder	-447
▁good	-448
atie	-449
eten	-450
▁Hij	-451
our	-452
▁hu	-453
▁meer	-454
▁sl	-455
▁wan	-456
▁dr	-457
aten	-458
▁mijn	-459
▁who	-460
▁Ze	-461
▁any	-462
▁Een	-463
▁gonna	-464
▁Th	-465
ause	-466
llie	-467
▁geen	-468
wer	-469
▁back	-470
▁does	-471
▁ex	-472
▁hand	-473
qu	-474
▁daar	-475
oed	-476
▁how	-477
▁nu	-478
ation	-479
▁ro	-480
▁when	-481
jes	-482
▁bed	-483
ain	-484
▁hoe	-485
▁Als	-486
ong	-487
▁vra	-488
ice	-489
ake	-490
ool	-491
▁would	-492
pl	-493
ber	-494
▁erm	-495
ele	-496
▁gaan	-497
▁Waar	-498
▁hou	-499
▁gaat	-500
ure	-501
one	-502
amen	-503
▁uh	-504
be	-505
▁two	-506
▁Hoe	-507
▁his	-508
▁jij	-509
▁more	-510
▁wordt	-511
lijk	-512
▁Oh	-513
ose	-514
▁cl	-515
▁yes	-516
cause	-517
▁werk	-518
▁going	-519
▁hem	-520
ruik	-521
gt	-522
▁from	-523
▁play	-524
ust	-525
▁will	-526
oc	-527
ittle	-528
ige	-529
▁hebt	-530
other	-531
▁best	-532
▁beg	-533
hing	-534
ouw	-535
▁wanna	-536
add	-537
▁doen	-538
▁car	-539
els	-540
▁opdracht	-541
▁maken	-542
alk	-543
▁Ch	-544
enk	-545
▁kunnen	-546
▁little	-547
▁som	-548
▁worden	-549
▁gew	-550
hm	-551
▁come	-552
▁And	-553
bl	-554
elke	-555
▁weet	-556
▁veel	-557
▁bab	-558
▁Wh	-559
▁Maar	-560
▁com	-561
▁said	-562
▁hun	-563
▁um	-564
ound	-565
ther	-566
▁ont	-567
▁off	-568
▁him	-569
woord	-570
▁ar	-571
▁jullie	-572
ef	-573
ost	-574
▁%	-575
men	-576
igen	-577
▁ter	-578
ime	-579
▁haar	-580
▁3	-581
eb	-582
00	-583
innen	-584
▁were	-585
▁zou	-586
.]	-587
ree	-588
▁very	-589
augh	-590
▁ga	-591
▁na	-592
▁looks	-593
du	-594
onder	-595
▁min	-596
heid	-597
ert	-598
rijf	-599
▁pe	-600
▁un	-601
▁baby	-602
mp	-603
▁Sch	-604
▁U	-605
▁bel	-606
aakt	-607
▁book	-608
iek	-609
age	-610
ull	-611
▁eer	-612
ty	-613
way	-614
▁hel	-615
▁el	-616
▁sec	-617
mer	-618
▁bent	-619
▁somet	-620
▁us	-621
▁gel	-622
▁mensen	-623
oop	-624
to	-625
ker	-626
esch	-627
▁Op	-628
beel	-629
▁prob	-630
oof	-631
▁iets	-632
ild	-633
aren	-634
sp	-635
urn	-636
▁ag	-637
old	-638
als	-639
▁volgen	-640
oint	-641
▁The	-642
▁No	-643
rouw	-644
▁mean	-645
ate	-646
▁land	-647
▁gev	-648
▁time	-649
▁tell	-650
ach	-651
▁tijd	-652
▁other	-653
▁make	-654
▁ra	-655
▁could	-656
omen	-657
▁water	-658
▁sn	-659
ri	-660
NA	-661
▁because	-662
dig	-663
▁twee	-664
▁gebruik	-665
▁fl	-666
▁has	-667
▁by	-668
▁these	-669
▁zien	-670
ieuw	-671
▁di	-672
ederland	-673
ommy	-674
esp	-675
▁eens	-676
▁It	-677
▁even	-678
dat	-679
oel	-680
laugh	-681
▁Well	-682
▁kunt	-683
act	-684
AR	-685
▁Dit	-686
▁eat	-687
ief	-688
eed	-689
ark	-690
SI	-691
▁per	-692
▁Nederland	-693
air	-694
▁mij	-695
▁really	-696
▁too	-697
▁zit	-698
▁take	-699
▁tot	-700
▁Ja	-701
▁mhm	-702
ende	-703
▁""	-704
▁ged	-705
iz	-706
▁ons	-707
▁why	-708
▁elk	-709
kst	-710
ople	-711
▁gra	-712
▁mu	-713
▁vragen	-714
voor	-715
erd	-716
▁du	-717
beeld	-718
▁act	-719
ys	-720
enn	-721
▁tegen	-722
▁gen	-723
▁Nee	-724
per	-725
ellen	-726
av	-727
iss	-728
▁something	-729
▁people	-730
▁zal	-731
ke	-732
▁versch	-733
▁You	-734
▁weer	-735
▁big	-736
▁krij	-737
▁volgende	-738
▁weg	-739
ock	-740
▁4	-741
▁Daar	-742
af	-743
gel	-744
▁vind	-745
▁Le	-746
▁vert	-747
ass	-748
ect	-749
ces	-750
▁ball	-751
▁thou	-752
▁gem	-753
ob	-754
▁Mm	-755
ix	-756
ise	-757
oud	-758
▁which	-759
appen	-760
▁school	-761
▁tekst	-762
ater	-763
▁moeten	-764
oh	-765
▁zelf	-766
▁didn	-767
▁huh	-768
▁Is	-769
▁those	-770
ggen	-771
chter	-772
woorden	-773
ne	-774
alen	-775
oun	-776
sl	-777
ase	-778
oen	-779
ting	-780
▁need	-781
▁woorden	-782
▁way	-783
▁turn	-784
▁ever	-785
ijken	-786
▁been	-787
▁open	-788
of	-789
▁komt	-790
pp	-791
if	-792
▁Maak	-793
▁ant	-794
eur	-795
▁qu	-796
day	-797
ma	-798
oll	-799
▁samen	-800
ia	-801
oren	-802
▁again	-803
ud	-804
▁kle	-805
▁gez	-806
▁work	-807
▁terug	-808
▁nieuw	-809
▁three	-810
ult	-811
cent	-812
▁gro	-813
én	-814
▁andere	-815
▁read	-816
▁alleen	-817
ear	-818
▁Voor	-819
hu	-820
▁nodig	-821
end	-822
▁mee	-823
laughs	-824
ire	-825
ict	-826
iend	-827
▁tra	-828
ger	-829
▁staat	-830
▁leven	-831
ieren	-832
▁komen	-833
▁Yes	-834
SIS	-835
▁So	-836
▁part	-837
▁dra	-838
ied	-839
▁heel	-840
ische	-841
ord	-842
ussen	-843
▁laat	-844
▁mag	-845
ment	-846
▁jaar	-847
▁elkaar	-848
▁doing	-849
▁eigen	-850
ght	-851
zelf	-852
ijf	-853
▁ple	-854
▁Ver	-855
ote	-856
rijk	-857
onden	-858
inder	-859
▁CHI	-860
▁zich	-861
rek	-862
▁inter	-863
me	-864
▁Schrijf	-865
▁hele	-866
▁kw	-867
▁echt	-868
▁5	-869
▁box	-870
irst	-871
rop	-872
▁hm	-873
▁pap	-874
eden	-875
round	-876
▁kind	-877
▁lang	-878
ving	-879
▁sit	-880
▁What	-881
▁Waarom	-882
▁should	-883
▁else	-884
▁bu	-885
akes	-886
ont	-887
▁alle	-888
able	-889
form	-890
▁sc	-891
oog	-892
▁talk	-893
ale	-894
▁thing	-895
▁All	-896
▁lot	-897
duct	-898
▁gek	-899
XP	-900
vol	-901
▁Kom	-902
ish	-903
open	-904
ew	-905
elt	-906
▁may	-907
pt	-908
▁tr	-909
ië	-910
▁another	-911
we	-912
▁That	-913
NAN	-914
▁into	-915
bo	-916
ren	-917
▁ad	-918
gens	-919
▁jou	-920
ans	-921
▁mm	-922
▁denk	-923
RO	-924
iteit	-925
▁things	-926
▁On	-927
thing	-928
over	-929
aart	-930
bod	-931
▁sm	-932
EXP	-933
atuur	-934
yes	-935
▁cont	-936
▁toch	-937
één	-938
xt	-939
▁sle	-940
▁vl	-941
bij	-942
ace	-943
ning	-944
▁their	-945
▁try	-946
▁pers	-947
veel	-948
▁verd	-949
right	-950
▁bit	-951
idd	-952
cl	-953
▁één	-954
oofd	-955
oort	-956
ary	-957
▁every	-958
ooit	-959
▁rem	-960
▁four	-961
gelijk	-962
app	-963
▁Hier	-964
tijd	-965
▁Ga	-966
ub	-967
▁much	-968
row	-969
▁vr	-970
ous	-971
▁house	-972
ually	-973
red	-974
ina	-975
▁plaat	-976
▁our	-977
emand	-978
▁alles	-979
▁verschill	-980
▁ah	-981
▁Die	-982
▁went	-983
rijven	-984
▁eind	-985
ennis	-986
ity	-987
▁Heb	-988
read	-989
▁doesn	-990
ens	-991
eter	-992
ue	-993
▁Stap	-994
▁bot	-995
▁mil	-996
upp	-997
org	-998
eerd	-999
▁ma	-1000
▁But	-1001
▁point	-1002
LO	-1003
▁An	-1004
▁goes	-1005
off	-1006
agen	-1007
▁Mr	-1008
ble	-1009
▁gebeur	-1010
oem	-1011
inden	-1012
are	-1013
ister	-1014
erk	-1015
▁Bij	-1016
▁wr	-1017
addy	-1018
ader	-1019
▁che	-1020
man	-1021
▁vraag	-1022
▁zie	-1023
▁lu	-1024
▁start	-1025
▁child	-1026
eest	-1027
▁give	-1028
▁woord	-1029
▁goede	-1030
▁[1	-1031
▁vo	-1032
▁str	-1033
sh	-1034
▁zw	-1035
▁Zo	-1036
▁He	-1037
▁tussen	-1038
arm	-1039
▁won	-1040
▁klas	-1041
▁nooit	-1042
▁gre	-1043
▁Sp	-1044
ideo	-1045
▁pick	-1046
▁MOT	-1047
▁day	-1048
▁dis	-1049
▁staan	-1050
ci	-1051
orgen	-1052
▁welke	-1053
▁Kijk	-1054
▁dog	-1055
▁hold	-1056
▁first	-1057
▁fun	-1058
▁five	-1059
▁drie	-1060
eken	-1061
▁blij	-1062
▁only	-1063
body	-1064
MAR	-1065
▁help	-1066
▁last	-1067
▁kon	-1068
ely	-1069
▁weten	-1070
▁stu	-1071
ift	-1072
▁Lees	-1073
▁away	-1074
ember	-1075
stand	-1076
eling	-1077
ade	-1078
ath	-1079
▁Be	-1080
▁call	-1081
ijden	-1082
edere	-1083
▁Mommy	-1084
ta	-1085
PAT	-1086
▁year	-1087
▁dag	-1088
▁done	-1089
▁beh	-1090
▁Dan	-1091
geven	-1092
▁achter	-1093
▁belang	-1094
▁dus	-1095
issch	-1096
▁huis	-1097
unt	-1098
wij	-1099
▁week	-1100
▁altijd	-1101
vo	-1102
uren	-1103
ins	-1104
▁verl	-1105
get	-1106
ah	-1107
▁aft	-1108
aag	-1109
pr	-1110
▁pol	-1111
▁net	-1112
oeken	-1113
eef	-1114
▁Fr	-1115
▁alright	-1116
aam	-1117
▁mom	-1118
▁iemand	-1119
▁keer	-1120
▁verk	-1121
ocal	-1122
no	-1123
ange	-1124
▁kinder	-1125
▁stop	-1126
▁inform	-1127
haal	-1128
amer	-1129
ude	-1130
▁gu	-1131
▁col	-1132
▁around	-1133
van	-1134
raag	-1135
▁cra	-1136
isschien	-1137
▁maak	-1138
ile	-1139
▁zegt	-1140
oeg	-1141
▁werd	-1142
amp	-1143
▁gl	-1144
fta	-1145
isch	-1146
▁hafta	-1147
▁minut	-1148
efen	-1149
esl	-1150
ches	-1151
▁bro	-1152
▁les	-1153
wh	-1154
▁waren	-1155
▁show	-1156
elijke	-1157
▁jouw	-1158
▁proble	-1159
▁six	-1160
▁home	-1161
LOI	-1162
ny	-1163
▁nice	-1164
ruk	-1165
▁Kl	-1166
▁thank	-1167
allen	-1168
▁diff	-1169
▁fil	-1170
uiten	-1171
rough	-1172
ves	-1173
▁app	-1174
iden	-1175
▁doe	-1176
▁hoofd	-1177
▁ide	-1178
▁belangrijk	-1179
ullen	-1180
aken	-1181
▁head	-1182
reek	-1183
▁besch	-1184
▁pict	-1185
▁still	-1186
▁happen	-1187
▁verschillende	-1188
room	-1189
▁through	-1190
▁eerste	-1191
▁laten	-1192
▁moo	-1193
▁zeggen	-1194
▁geld	-1195
▁ac	-1196
▁grote	-1197
ons	-1198
▁vinden	-1199
▁sort	-1200
ram	-1201
▁Jij	-1202
▁vast	-1203
▁onze	-1204
▁:	-1205
eeds	-1206
▁groot	-1207
▁meest	-1208
▁vrouw	-1209
les	-1210
pro	-1211
▁Om	-1212
emaal	-1213
▁6	-1214
oss	-1215
▁gemaakt	-1216
▁maybe	-1217
▁stra	-1218
ders	-1219
▁Deze	-1220
▁naam	-1221
side	-1222
▁wa	-1223
▁binnen	-1224
▁red	-1225
▁comp	-1226
ough	-1227
▁verb	-1228
▁wereld	-1229
▁bez	-1230
▁cup	-1231
werk	-1232
ner	-1233
▁num	-1234
▁jon	-1235
ES	-1236
▁zin	-1237
▁boy	-1238
▁uur	-1239
▁pie	-1240
ijkt	-1241
▁remember	-1242
▁find	-1243
▁under	-1244
huh	-1245
▁lo	-1246
ac	-1247
▁Aan	-1248
▁video	-1249
▁Erm	-1250
AD	-1251
▁actually	-1252
▁steeds	-1253
oney	-1254
orry	-1255
ké	-1256
).	-1257
▁cat	-1258
enty	-1259
▁sche	-1260
▁toe	-1261
▁Niet	-1262
▁aut	-1263
▁20	-1264
▁pre	-1265
▁doll	-1266
ward	-1267
▁spe	-1268
▁aant	-1269
▁next	-1270
▁nieuwe	-1271
ject	-1272
▁Wie	-1273
werp	-1274
▁kinderen	-1275
ors	-1276
BRO	-1277
▁Br	-1278
▁after	-1279
▁Met	-1280
▁says	-1281
▁page	-1282
▁leuk	-1283
▁comm	-1284
▁Ben	-1285
▁wij	-1286
assen	-1287
▁waarom	-1288
▁lig	-1289
ence	-1290
io	-1291
▁table	-1292
irl	-1293
etje	-1294
▁erg	-1295
▁maakt	-1296
▁doet	-1297
ms	-1298
anten	-1299
▁oefen	-1300
▁anything	-1301
ga	-1302
fore	-1303
▁stand	-1304
emen	-1305
▁ten	-1306
▁isn	-1307
iel	-1308
▁leer	-1309
▁zei	-1310
▁Welke	-1311
▁Laat	-1312
▁Mijn	-1313
ounds	-1314
ions	-1315
▁nee	-1316
▁paper	-1317
▁bre	-1318
▁eerst	-1319
▁niets	-1320
▁deel	-1321
▁lea	-1322
edereen	-1323
▁new	-1324
▁rec	-1325
deel	-1326
▁long	-1327
oten	-1328
own	-1329
zz	-1330
▁pres	-1331
▁19	-1332
ird	-1333
eep	-1334
▁am	-1335
▁informatie	-1336
▁hard	-1337
ster	-1338
▁zitten	-1339
▁ke	-1340
bank	-1341
▁chair	-1342
sel	-1343
▁walk	-1344
'.	-1345
▁Goed	-1346
▁gewoon	-1347
▁mon	-1348
▁girl	-1349
▁Right	-1350
▁room	-1351
komen	-1352
▁thought	-1353
pe	-1354
ape	-1355
▁zoals	-1356
mo	-1357
▁plan	-1358
▁allemaal	-1359
ib	-1360
oos	-1361
▁wie	-1362
▁mommy	-1363
eek	-1364
gie	-1365
anden	-1366
▁eight	-1367
iding	-1368
▁willen	-1369
▁antwoord	-1370
ory	-1371
▁ask	-1372
?"	-1373
ye	-1374
▁use	-1375
log	-1376
▁than	-1377
urt	-1378
alf	-1379
▁ru	-1380
▁snel	-1381
hone	-1382
▁geh	-1383
voorbeeld	-1384
vl	-1385
▁ziet	-1386
▁Bed	-1387
▁top	-1388
▁vader	-1389
▁name	-1390
point	-1391
ekijk	-1392
▁anders	-1393
ument	-1394
▁night	-1395
▁/	-1396
▁might	-1397
▁geven	-1398
▁hey	-1399
▁vriend	-1400
etten	-1401
▁dood	-1402
geb	-1403
▁tru	-1404
▁uhhuh	-1405
maal	-1406
▁picture	-1407
vocal	-1408
vel	-1409
▁Bekijk	-1410
▁juist	-1411
▁reg	-1412
ars	-1413
▁cook	-1414
▁fin	-1415
amil	-1416
ijt	-1417
▁sure	-1418
ush	-1419
▁Van	-1420
igh	-1421
▁before	-1422
▁gedaan	-1423
▁toen	-1424
uite	-1425
ss	-1426
vers	-1427
oemen	-1428
▁ind	-1429
ikk	-1430
oes	-1431
iviteit	-1432
▁floor	-1433
▁watch	-1434
▁toys	-1435
▁gebruiken	-1436
erent	-1437
▁teken	-1438
chten	-1439
▁q	-1440
▁Duit	-1441
EN	-1442
▁ob	-1443
ennisbank	-1444
▁Gr	-1445
▁pret	-1446
▁moeder	-1447
baar	-1448
▁omdat	-1449
▁eten	-1450
Ik	-1451
dred	-1452
▁paar	-1453
▁su	-1454
iem	-1455
hes	-1456
ount	-1457
▁7	-1458
▁cos	-1459
gr	-1460
▁kijken	-1461
▁par	-1462
isten	-1463
▁oor	-1464
▁beter	-1465
ds	-1466
▁verhaal	-1467
▁bas	-1468
ADU	-1469
uis	-1470
▁better	-1471
▁stad	-1472
▁hundred	-1473
▁God	-1474
▁wilt	-1475
zelfde	-1476
▁Tw	-1477
net	-1478
izen	-1479
▁Chi	-1480
▁hi	-1481
▁used	-1482
neer	-1483
▁ging	-1484
▁bus	-1485
▁Mar	-1486
urop	-1487
▁Nu	-1488
aad	-1489
zoek	-1490
▁Weet	-1491
ian	-1492
the	-1493
▁They	-1494
ple	-1495
▁klasgen	-1496
LD	-1497
▁nou	-1498
▁ber	-1499
▁natuur	-1500
▁today	-1501
▁many	-1502
aps	-1503
▁quite	-1504
ably	-1505
▁drink	-1506
ese	-1507
cha	-1508
▁zij	-1509
▁Ju	-1510
alt	-1511
▁Bl	-1512
▁gesch	-1513
▁stuk	-1514
▁toy	-1515
▁product	-1516
my	-1517
ling	-1518
▁pu	-1519
opdracht	-1520
▁10	-1521
▁stuff	-1522
▁krijgen	-1523
ather	-1524
akken	-1525
▁sw	-1526
ance	-1527
▁dingen	-1528
▁plaats	-1529
imes	-1530
▁wind	-1531
▁zinnen	-1532
▁please	-1533
rip	-1534
▁cray	-1535
▁Wil	-1536
▁uitle	-1537
▁famil	-1538
]?	-1539
▁verand	-1540
elling	-1541
reken	-1542
▁end	-1543
▁made	-1544
ron	-1545
▁aantal	-1546
oto	-1547
▁vaak	-1548
▁vier	-1549
▁keep	-1550
▁different	-1551
aas	-1552
▁werken	-1553
▁same	-1554
ream	-1555
ouden	-1556
self	-1557
enken	-1558
▁kaart	-1559
▁ken	-1560
▁wait	-1561
▁half	-1562
▁rest	-1563
▁mot	-1564
▁vrij	-1565
ieden	-1566
ulp	-1567
▁never	-1568
▁bew	-1569
fr	-1570
▁cle	-1571
▁manier	-1572
antwoord	-1573
▁docent	-1574
▁looking	-1575
rist	-1576
eet	-1577
▁whe	-1578
ama	-1579
▁buiten	-1580
lo	-1581
▁Na	-1582
▁lie	-1583
▁moest	-1584
▁Doe	-1585
▁8	-1586
ragen	-1587
▁Oké	-1588
houd	-1589
aking	-1590
▁bev	-1591
▁run	-1592
▁krijgt	-1593
▁color	-1594
▁twenty	-1595
""	-1596
rect	-1597
▁mogelijk	-1598
▁pop	-1599
ids	-1600
▁Kennisbank	-1601
▁res	-1602
▁Dus	-1603
▁gotta	-1604
▁anim	-1605
▁vorm	-1606
heden	-1607
▁onge	-1608
▁getting	-1609
roeg	-1610
▁wilde	-1611
▁later	-1612
000	-1613
▁She	-1614
▁puts	-1615
▁present	-1616
ious	-1617
▁boek	-1618
erm	-1619
▁Kun	-1620
▁came	-1621
ways	-1622
▁feel	-1623
ips	-1624
▁kop	-1625
▁bep	-1626
▁Act	-1627
▁uw	-1628
▁money	-1629
itie	-1630
ated	-1631
▁pretty	-1632
▁houden	-1633
De	-1634
uss	-1635
▁haven	-1636
bs	-1637
▁verz	-1638
▁food	-1639
▁imp	-1640
tra	-1641
▁hor	-1642
▁elke	-1643
▁person	-1644
▁real	-1645
▁antwoorden	-1646
▁Europ	-1647
▁talking	-1648
omst	-1649
eeft	-1650
▁Geef	-1651
▁ris	-1652
▁pull	-1653
▁helemaal	-1654
▁boven	-1655
▁ve	-1656
▁points	-1657
door	-1658
itch	-1659
▁cour	-1660
att	-1661
▁groep	-1662
▁rond	-1663
▁draw	-1664
▁cent	-1665
gest	-1666
▁side	-1667
▁klaar	-1668
▁cr	-1669
its	-1670
gaan	-1671
▁vindt	-1672
▁ser	-1673
rie	-1674
ail	-1675
ijst	-1676
achten	-1677
▁landen	-1678
▁Ook	-1679
▁sleep	-1680
▁gebruikt	-1681
▁Daddy	-1682
vorm	-1683
▁iedereen	-1684
▁moe	-1685
▁meis	-1686
veer	-1687
CHILD	-1688
▁tre	-1689
CHILDES	-1690
▁childes	-1691
▁grond	-1692
▁bad	-1693
iemand	-1694
▁job	-1695
▁mor	-1696
inet	-1697
vent	-1698
slag	-1699
▁bloed	-1700
▁past	-1701
▁Zet	-1702
▁zonder	-1703
▁persoon	-1704
ps	-1705
▁fall	-1706
▁lezen	-1707
▁fift	-1708
▁old	-1709
▁probably	-1710
ats	-1711
▁gest	-1712
▁onderwerp	-1713
rag	-1714
▁hoor	-1715
▁verder	-1716
▁recht	-1717
▁zoek	-1718
▁bang	-1719
▁moment	-1720
gan	-1721
▁int	-1722
▁horen	-1723
▁round	-1724
▁stick	-1725
▁milk	-1726
ement	-1727
outh	-1728
▁daddy	-1729
ilence	-1730
▁helpen	-1731
▁pupp	-1732
▁vak	-1733
▁vand	-1734
ern	-1735
▁bijvoorbeeld	-1736
▁klasgenoot	-1737
ung	-1738
▁gesp	-1739
▁supp	-1740
▁gezien	-1741
▁must	-1742
▁coming	-1743
kijken	-1744
onnen	-1745
▁cut	-1746
▁zeker	-1747
iving	-1748
▁always	-1749
▁Of	-1750
tje	-1751
▁Do	-1752
▁bedoel	-1753
idelijk	-1754
arde	-1755
▁ander	-1756
▁Ar	-1757
blad	-1758
hed	-1759
▁ing	-1760
▁mis	-1761
▁noise	-1762
▁Misschien	-1763
▁hands	-1764
con	-1765
schap	-1766
▁throw	-1767
vocaliz	-1768
ged	-1769
▁med	-1770
▁auto	-1771
▁though	-1772
aard	-1773
▁Jullie	-1774
val	-1775
▁dieren	-1776
bb	-1777
olog	-1778
▁€	-1779
▁pa	-1780
▁cor	-1781
▁voed	-1782
gether	-1783
▁bott	-1784
put	-1785
▁together	-1786
▁green	-1787
▁Kan	-1788
▁kwam	-1789
auw	-1790
cle	-1791
iks	-1792
▁Tijd	-1793
▁ou	-1794
▁pot	-1795
▁zullen	-1796
▁move	-1797
sta	-1798
▁pra	-1799
▁tele	-1800
▁train	-1801
▁ster	-1802
uld	-1803
▁genoeg	-1804
points	-1805
▁There	-1806
▁fact	-1807
▁aard	-1808
▁blijven	-1809
ha	-1810
▁Onder	-1811
ize	-1812
▁kr	-1813
▁sy	-1814
ks	-1815
▁Pro	-1816
▁piece	-1817
stof	-1818
▁ready	-1819
▁Duits	-1820
▁called	-1821
▁Ste	-1822
ijdens	-1823
▁being	-1824
▁houd	-1825
ives	-1826
▁wasn	-1827
▁din	-1828
▁Best	-1829
ises	-1830
▁hot	-1831
▁sk	-1832
▁leg	-1833
ellow	-1834
eede	-1835
ters	-1836
▁ap	-1837
▁ya	-1838
▁ontst	-1839
▁ein	-1840
▁groe	-1841
▁graag	-1842
▁Kies	-1843
ates	-1844
▁dacht	-1845
▁Ter	-1846
▁idee	-1847
▁ongeveer	-1848
▁heet	-1849
▁comes	-1850
iew	-1851
▁Lu	-1852
▁course	-1853
▁Pr	-1854
▁Vraag	-1855
▁Me	-1856
oelen	-1857
ankt	-1858
▁toets	-1859
▁Amer	-1860
▁geeft	-1861
▁Eind	-1862
▁foto	-1863
ocht	-1864
▁vertellen	-1865
▁Now	-1866
boek	-1867
▁El	-1868
▁lucht	-1869
▁blue	-1870
cess	-1871
▁Geen	-1872
▁kleine	-1873
TE	-1874
▁ear	-1875
▁hear	-1876
noise	-1877
▁Geb	-1878
ames	-1879
blie	-1880
cies	-1881
ines	-1882
▁15	-1883
▁verg	-1884
zicht	-1885
▁vlie	-1886
eert	-1887
▁rel	-1888
▁quest	-1889
oy	-1890
▁daarna	-1891
oopt	-1892
▁ligt	-1893
▁rust	-1894
▁Zijn	-1895
kken	-1896
▁Re	-1897
product	-1898
blieft	-1899
▁letter	-1900
▁also	-1901
▁front	-1902
▁geweest	-1903
▁zorgen	-1904
▁bren	-1905
▁years	-1906
▁saying	-1907
▁organ	-1908
▁Hall	-1909
ounc	-1910
▁zon	-1911
▁ninet	-1912
▁Ma	-1913
▁Activiteit	-1914
▁slecht	-1915
▁Joh	-1916
ues	-1917
▁voel	-1918
▁bar	-1919
mm	-1920
▁ho	-1921
▁hoog	-1922
▁saw	-1923
cept	-1924
▁midd	-1925
atter	-1926
▁begrij	-1927
wel	-1928
ton	-1929
▁mother	-1930
▁cir	-1931
▁crayon	-1932
kend	-1933
▁gone	-1934
▁hat	-1935
▁set	-1936
irty	-1937
▁second	-1938
▁link	-1939
la	-1940
ijna	-1941
port	-1942
▁own	-1943
gram	-1944
lijke	-1945
ph	-1946
▁stay	-1947
▁makes	-1948
▁squ	-1949
▁vis	-1950
enen	-1951
▁takes	-1952
▁werden	-1953
▁Mot	-1954
▁co	-1955
▁praten	-1956
▁Sorry	-1957
kelijk	-1958
▁vijf	-1959
▁⌈	-1960
▁Sh	-1961
ots	-1962
▁morning	-1963
▁hadden	-1964
ever	-1965
vis	-1966
look	-1967
ane	-1968
uid	-1969
▁playing	-1970
▁der	-1971
▁minder	-1972
CAR	-1973
▁stap	-1974
king	-1975
▁laatste	-1976
▁klein	-1977
▁ja	-1978
▁tape	-1979
▁bestaat	-1980
▁lad	-1981
elde	-1982
uurt	-1983
▁beetje	-1984
▁brief	-1985
,'	-1986
▁seven	-1987
ww	-1988
kl	-1989
▁⌊	-1990
▁neem	-1991
igd	-1992
▁great	-1993
▁while	-1994
▁pen	-1995
reven	-1996
▁Opdracht	-1997
▁lief	-1998
▁happened	-1999
▁trying	-2000
▁schrijven	-2001
▁beste	-2002
▁truck	-2003
▁verm	-2004
▁hoort	-2005
▁vroeg	-2006
▁ger	-2007
▁toward	-2008
▁turns	-2009
▁light	-2010
zeg	-2011
▁Ha	-2012
▁bird	-2013
▁duidelijk	-2014
cial	-2015
ash	-2016
▁hop	-2017
str	-2018
▁slag	-2019
▁art	-2020
▁pag	-2021
▁bere	-2022
▁win	-2023
▁place	-2024
▁Ge	-2025
▁duck	-2026
▁kant	-2027
ures	-2028
delen	-2029
▁onderzoek	-2030
ande	-2031
.'	-2032
▁9	-2033
▁verw	-2034
▁lik	-2035
▁nine	-2036
mee	-2037
ieve	-2038
▁picks	-2039
br	-2040
▁fig	-2041
▁Denk	-2042
▁block	-2043
▁foot	-2044
▁wouldn	-2045
ruct	-2046
▁hair	-2047
▁Alleen	-2048
▁oo	-2049
ump	-2050
▁Mo	-2051
bouw	-2052
imaat	-2053
▁lich	-2054
ork	-2055
▁Over	-2056
dy	-2057
ekent	-2058
▁Christ	-2059
▁Ex	-2060
angen	-2061
▁niks	-2062
▁yellow	-2063
RS	-2064
▁bepaal	-2065
▁number	-2066
ident	-2067
▁dicht	-2068
udeer	-2069
▁thuis	-2070
▁misschien	-2071
▁bring	-2072
▁thema	-2073
dem	-2074
▁extra	-2075
gg	-2076
apen	-2077
▁write	-2078
▁zeg	-2079
▁If	-2080
▁interest	-2081
▁woon	-2082
ring	-2083
aches	-2084
▁Door	-2085
▁begin	-2086
uin	-2087
▁Was	-2088
▁wist	-2089
box	-2090
stuk	-2091
▁Zoek	-2092
▁soort	-2093
▁rising	-2094
unten	-2095
nie	-2096
ikt	-2097
▁leren	-2098
▁Gebruik	-2099
▁Mark	-2100
▁werkt	-2101
▁noemen	-2102
rift	-2103
ffect	-2104
offen	-2105
▁201	-2106
cy	-2107
▁cow	-2108
ouch	-2109
ergie	-2110
▁laugh	-2111
▁uhoh	-2112
ating	-2113
ign	-2114
▁far	-2115
iger	-2116
▁sing	-2117
▁Hoeveel	-2118
▁sla	-2119
oven	-2120
▁ring	-2121
▁bag	-2122
▁dad	-2123
▁krijg	-2124
▁mark	-2125
ider	-2126
▁betekent	-2127
▁filmp	-2128
▁wanted	-2129
▁geluk	-2130
▁mooi	-2131
▁cons	-2132
▁friend	-2133
▁high	-2134
▁most	-2135
▁spijt	-2136
▁enk	-2137
▁vond	-2138
▁juiste	-2139
▁making	-2140
isme	-2141
▁John	-2142
mat	-2143
urs	-2144
▁left	-2145
▁bear	-2146
▁story	-2147
▁jongen	-2148
iezen	-2149
irt	-2150
▁Dank	-2151
gro	-2152
ctor	-2153
▁lijkt	-2154
▁inst	-2155
▁air	-2156
ika	-2157
▁em	-2158
aces	-2159
▁outside	-2160
▁heen	-2161
▁des	-2162
ator	-2163
▁Okay	-2164
▁object	-2165
▁uitleggen	-2166
▁everything	-2167
opt	-2168
▁fire	-2169
▁animals	-2170
▁wonder	-2171
▁How	-2172
▁black	-2173
ilijk	-2174
ular	-2175
akt	-2176
▁Hou	-2177
▁love	-2178
▁somebody	-2179
TEA	-2180
▁direct	-2181
▁nemen	-2182
zij	-2183
uck	-2184
▁lichaam	-2185
▁buy	-2186
erst	-2187
ries	-2188
▁ones	-2189
▁break	-2190
eth	-2191
▁Men	-2192
▁gebeurt	-2193
▁gegeven	-2194
▁close	-2195
▁ontw	-2196
urg	-2197
▁juice	-2198
▁yet	-2199
▁ty	-2200
--	-2201
▁both	-2202
ower	-2203
aties	-2204
▁dec	-2205
ations	-2206
ife	-2207
▁roll	-2208
▁form	-2209
▁bijna	-2210
oep	-2211
▁Nou	-2212
▁oorlog	-2213
lingen	-2214
rekken	-2215
iver	-2216
▁Zij	-2217
sn	-2218
ën	-2219
apt	-2220
▁Mhm	-2221
▁funny	-2222
▁clos	-2223
URS	-2224
▁having	-2225
ition	-2226
▁enough	-2227
▁holds	-2228
▁aarde	-2229
sc	-2230
ummy	-2231
ijnen	-2232
▁Mom	-2233
▁opdrachten	-2234
▁gezeg	-2235
▁moeilijk	-2236
▁arm	-2237
plaat	-2238
▁warm	-2239
gave	-2240
icks	-2241
▁tab	-2242
bed	-2243
▁Welk	-2244
▁yep	-2245
▁wants	-2246
▁told	-2247
▁hart	-2248
ross	-2249
▁Wacht	-2250
▁Let	-2251
▁ij	-2252
waar	-2253
▁Uit	-2254
▁Don	-2255
▁afbeeld	-2256
▁To	-2257
▁Wij	-2258
▁Pl	-2259
▁small	-2260
▁pounds	-2261
▁speel	-2262
▁sup	-2263
▁leave	-2264
iets	-2265
▁gelijk	-2266
▁18	-2267
▁gets	-2268
▁gehe	-2269
▁geweld	-2270
unch	-2271
▁Hallo	-2272
▁pay	-2273
ved	-2274
▁lek	-2275
▁nothing	-2276
▁fout	-2277
▁+	-2278
▁post	-2279
▁mouth	-2280
ial	-2281
▁ee	-2282
vocalizes	-2283
▁Mag	-2284
▁Not	-2285
▁mine	-2286
▁comput	-2287
ball	-2288
oemd	-2289
▁los	-2290
▁spelen	-2291
▁sounds	-2292
ieke	-2293
rijd	-2294
▁licht	-2295
▁kijk	-2296
ilig	-2297
▁halen	-2298
rippen	-2299
▁Vol	-2300
▁kost	-2301
▁phone	-2302
▁disc	-2303
▁Will	-2304
ilver	-2305
ipp	-2306
▁mens	-2307
▁zet	-2308
eerde	-2309
▁hen	-2310
▁meisje	-2311
roken	-2312
▁waarin	-2313
▁sound	-2314
▁seen	-2315
▁0	-2316
▁Bestudeer	-2317
by	-2318
▁hoeveel	-2319
ants	-2320
itty	-2321
ica	-2322
▁schrijf	-2323
aw	-2324
▁zee	-2325
▁Toen	-2326
ical	-2327
▁whole	-2328
▁noises	-2329
▁Ah	-2330
ful	-2331
▁hell	-2332
▁riv	-2333
▁miss	-2334
▁sorry	-2335
ering	-2336
▁oefening	-2337
▁zoeken	-2338
ready	-2339
▁tijdens	-2340
▁beoord	-2341
appy	-2342
▁Zeg	-2343
▁eyes	-2344
▁fifty	-2345
▁12	-2346
huis	-2347
avond	-2348
▁Can	-2349
▁jaren	-2350
▁Veel	-2351
▁denken	-2352
▁1.	-2353
ooi	-2354
conom	-2355
hand	-2356
ept	-2357
aa	-2358
▁Zorg	-2359
▁face	-2360
sand	-2361
▁wow	-2362
▁soms	-2363
▁already	-2364
▁houdt	-2365
anen	-2366
ruis	-2367
▁lid	-2368
▁plek	-2369
▁Te	-2370
▁horse	-2371
▁thousand	-2372
gy	-2373
▁ton	-2374
▁mar	-2375
▁kre	-2376
▁coll	-2377
ieten	-2378
▁ice	-2379
▁minute	-2380
▁minuten	-2381
▁jump	-2382
midd	-2383
▁[2	-2384
▁niemand	-2385
▁count	-2386
▁mind	-2387
▁probleem	-2388
▁onderdeel	-2389
▁jongens	-2390
▁found	-2391
raak	-2392
esten	-2393
eem	-2394
▁fav	-2395
idden	-2396
▁schrij	-2397
▁Or	-2398
ient	-2399
ops	-2400
Het	-2401
▁av	-2402
ienden	-2403
uh	-2404
▁meeste	-2405
▁ogen	-2406
▁Tot	-2407
beelden	-2408
▁ruim	-2409
omme	-2410
ween	-2411
deren	-2412
▁took	-2413
▁inside	-2414
aur	-2415
▁welk	-2416
fl	-2417
▁ooit	-2418
oorten	-2419
▁druk	-2420
rijs	-2421
▁aw	-2422
▁thirty	-2423
looks	-2424
▁Rome	-2425
izz	-2426
▁bi	-2427
▁Hé	-2428
▁Ro	-2429
iën	-2430
▁oude	-2431
▁gar	-2432
olen	-2433
ium	-2434
amera	-2435
▁zom	-2436
atten	-2437
▁build	-2438
▁bouw	-2439
het	-2440
ouse	-2441
▁program	-2442
▁voorbeeld	-2443
▁sur	-2444
kt	-2445
ls	-2446
▁vre	-2447
vragen	-2448
▁natuurlijk	-2449
oms	-2450
▁ontwikk	-2451
Wat	-2452
SIB	-2453
▁keu	-2454
jeblieft	-2455
▁push	-2456
anneer	-2457
▁tom	-2458
▁zag	-2459
▁Ad	-2460
orie	-2461
gry	-2462
▁denkt	-2463
▁pos	-2464
ched	-2465
itting	-2466
▁geef	-2467
ucht	-2468
RY	-2469
rog	-2470
und	-2471
▁resp	-2472
aul	-2473
▁beteken	-2474
iller	-2475
▁Bedenk	-2476
zet	-2477
▁bath	-2478
▁Ind	-2479
duc	-2480
whis	-2481
▁acc	-2482
▁lees	-2483
▁beginnen	-2484
▁milj	-2485
▁dagen	-2486
▁regen	-2487
▁kitty	-2488
▁Klik	-2489
▁wanneer	-2490
▁aren	-2491
antie	-2492
where	-2493
▁spoon	-2494
sten	-2495
▁ste	-2496
▁mannen	-2497
▁each	-2498
▁hulp	-2499
▁meet	-2500
espreek	-2501
▁contro	-2502
ommige	-2503
▁wonen	-2504
▁Terug	-2505
▁koning	-2506
elect	-2507
▁film	-2508
▁gevol	-2509
RYA	-2510
▁few	-2511
dag	-2512
▁besl	-2513
▁Bedankt	-2514
▁chi	-2515
▁zelfs	-2516
iter	-2517
▁hang	-2518
▁planten	-2519
?'	-2520
▁zouden	-2521
▁puppet	-2522
▁shoes	-2523
▁sim	-2524
▁nam	-2525
▁wink	-2526
▁noem	-2527
▁Peter	-2528
.000	-2529
▁eigenlijk	-2530
anc	-2531
▁its	-2532
▁opge	-2533
mb	-2534
▁Afr	-2535
▁cover	-2536
▁gesl	-2537
▁couldn	-2538
gas	-2539
eeuw	-2540
▁contin	-2541
do	-2542
ual	-2543
▁liggen	-2544
ziek	-2545
▁pur	-2546
arl	-2547
▁filmpje	-2548
▁hetzelfde	-2549
▁exc	-2550
▁pas	-2551
isteren	-2552
vrouw	-2553
▁geleden	-2554
ocol	-2555
▁spel	-2556
▁preten	-2557
▁leerlingen	-2558
In	-2559
▁jack	-2560
▁Frank	-2561
▁egg	-2562
▁blad	-2563
▁precies	-2564
ows	-2565
-1	-2566
inig	-2567
▁inv	-2568
foon	-2569
▁oud	-2570
▁Beg	-2571
⌉.	-2572
▁opl	-2573
sche	-2574
▁Omdat	-2575
ertain	-2576
▁partic	-2577
▁anyway	-2578
▁gevonden	-2579
JEN	-2580
▁between	-2581
MCH	-2582
▁Alles	-2583
itten	-2584
▁Wanneer	-2585
]!	-2586
▁teach	-2587
▁deed	-2588
orn	-2589
▁situ	-2590
▁lopen	-2591
ding	-2592
⌋.	-2593
▁sometimes	-2594
▁energie	-2595
▁jezelf	-2596
▁happy	-2597
rew	-2598
▁dem	-2599
▁sub	-2600
▁vandaag	-2601
▁taal	-2602
aling	-2603
▁begint	-2604
sk	-2605
ret	-2606
leiding	-2607
▁meneer	-2608
▁Vert	-2609
▁jong	-2610
▁orange	-2611
▁hers	-2612
▁tien	-2613
gument	-2614
zaam	-2615
airs	-2616
▁Sc	-2617
▁feet	-2618
▁gere	-2619
▁eeuw	-2620
▁kort	-2621
▁gebied	-2622
▁via	-2623
aft	-2624
▁conc	-2625
▁camera	-2626
ric	-2627
icken	-2628
▁clot	-2629
▁feest	-2630
aring	-2631
zer	-2632
▁hello	-2633
▁idea	-2634
▁internet	-2635
▁bezig	-2636
▁familie	-2637
▁Neem	-2638
▁dezelfde	-2639
▁Werk	-2640
▁rij	-2641
▁tweede	-2642
▁lekker	-2643
▁wrong	-2644
▁passen	-2645
▁fix	-2646
▁kennis	-2647
▁fing	-2648
▁effect	-2649
▁hoop	-2650
antwoorden	-2651
▁clean	-2652
▁zat	-2653
▁publ	-2654
ekt	-2655
▁opn	-2656
▁enige	-2657
▁eruit	-2658
▁polit	-2659
ax	-2660
▁children	-2661
pect	-2662
takes	-2663
staande	-2664
vert	-2665
▁dier	-2666
une	-2667
gaven	-2668
ible	-2669
▁gener	-2670
▁letters	-2671
▁ziek	-2672
ming	-2673
▁Daarom	-2674
▁game	-2675
▁mach	-2676
pos	-2677
▁producten	-2678
▁plant	-2679
▁norm	-2680
aden	-2681
cces	-2682
▁vrienden	-2683
▁brand	-2684
▁guess	-2685
▁uitge	-2686
▁ouders	-2687
▁listen	-2688
▁eating	-2689
▁war	-2690
▁pat	-2691
ished	-2692
▁bun	-2693
orrow	-2694
▁gebeurd	-2695
lijst	-2696
▁park	-2697
oke	-2698
Peter	-2699
▁fell	-2700
▁verschil	-2701
▁nose	-2702
▁blijft	-2703
▁ervoor	-2704
onen	-2705
▁Un	-2706
▁bottle	-2707
▁rol	-2708
▁mic	-2709
druk	-2710
▁rijk	-2711
▁nacht	-2712
▁wacht	-2713
▁butter	-2714
tre	-2715
vin	-2716
▁Nederlandse	-2717
ijl	-2718
▁beantwoorden	-2719
▁tekening	-2720
rying	-2721
verd	-2722
▁fish	-2723
aanse	-2724
nod	-2725
EL	-2726
werken	-2727
▁computer	-2728
wijs	-2729
▁vooral	-2730
▁certain	-2731
▁Duitsland	-2732
▁guy	-2733
iff	-2734
uro	-2735
ither	-2736
leur	-2737
▁doel	-2738
houden	-2739
▁Luister	-2740
inds	-2741
▁hungry	-2742
pers	-2743
▁cookie	-2744
▁ass	-2745
▁att	-2746
▁gezegd	-2747
▁weinig	-2748
▁ding	-2749
zin	-2750
▁ref	-2751
▁gi	-2752
RA	-2753
▁voedsel	-2754
fect	-2755
til	-2756
uil	-2757
min	-2758
▁grot	-2759
▁morgen	-2760
reep	-2761
▁kamer	-2762
vious	-2763
▁2.	-2764
zien	-2765
uig	-2766
▁Har	-2767
▁gele	-2768
▁econom	-2769
use	-2770
▁Am	-2771
name	-2772
▁Eng	-2773
▁inc	-2774
▁pagina	-2775
▁kijkt	-2776
aut	-2777
▁dur	-2778
weg	-2779
▁maat	-2780
ouncil	-2781
▁fit	-2782
▁stem	-2783
▁eas	-2784
▁einde	-2785
▁commun	-2786
▁swe	-2787
▁Hel	-2788
▁temp	-2789
▁Thank	-2790
▁books	-2791
inken	-2792
▁geloof	-2793
ones	-2794
▁voort	-2795
▁kopen	-2796
▁spreek	-2797
most	-2798
▁tel	-2799
vloed	-2800
ente	-2801
▁ate	-2802
irth	-2803
▁soft	-2804
▁reken	-2805
▁Leg	-2806
puts	-2807
reg	-2808
▁brengen	-2809
IS	-2810
▁Nog	-2811
▁Laten	-2812
▁chicken	-2813
▁Mama	-2814
oman	-2815
arn	-2816
ER	-2817
20	-2818
▁Europa	-2819
▁chocol	-2820
dent	-2821
▁kans	-2822
▁Natuur	-2823
filler	-2824
▁once	-2825
▁words	-2826
▁zoveel	-2827
▁im	-2828
ason	-2829
▁Af	-2830
▁fe	-2831
▁begrippen	-2832
▁verst	-2833
▁genoemd	-2834
▁month	-2835
▁This	-2836
bare	-2837
▁pizz	-2838
▁punten	-2839
order	-2840
iest	-2841
▁hour	-2842
ket	-2843
▁cou	-2844
ress	-2845
gem	-2846
chn	-2847
werpen	-2848
▁hurt	-2849
CO	-2850
di	-2851
ikel	-2852
▁Bel	-2853
▁Q	-2854
▁enkele	-2855
▁Vul	-2856
kig	-2857
▁bru	-2858
▁boom	-2859
▁putting	-2860
annen	-2861
haps	-2862
▁zodat	-2863
ities	-2864
▁reden	-2865
▁birth	-2866
kom	-2867
▁Bespreek	-2868
iken	-2869
▁hieronder	-2870
ances	-2871
ific	-2872
res	-2873
rum	-2874
1:	-2875
▁knock	-2876
orden	-2877
▁behind	-2878
▁question	-2879
▁aange	-2880
▁Terugkijken	-2881
▁stond	-2882
▁taking	-2883
lex	-2884
▁near	-2885
▁beeld	-2886
▁bek	-2887
▁cake	-2888
water	-2889
▁kids	-2890
▁[3	-2891
▁klimaat	-2892
eng	-2893
inen	-2894
ily	-2895
▁omsch	-2896
▁zetten	-2897
▁kap	-2898
▁Did	-2899
rouwen	-2900
view	-2901
▁New	-2902
▁tv	-2903
▁sug	-2904
halen	-2905
▁favor	-2906
ared	-2907
▁tea	-2908
ey	-2909
▁werkblad	-2910
zo	-2911
▁bal	-2912
ping	-2913
▁var	-2914
▁working	-2915
▁Sn	-2916
▁times	-2917
CAT	-2918
▁whether	-2919
ness	-2920
silence	-2921
key	-2922
▁nad	-2923
ards	-2924
▁nieuws	-2925
cc	-2926
▁white	-2927
▁cheese	-2928
ents	-2929
issen	-2930
ai	-2931
▁und	-2932
▁16	-2933
▁ol	-2934
▁langs	-2935
▁almost	-2936
▁vergelijk	-2937
▁able	-2938
▁macht	-2939
head	-2940
▁mogen	-2941
ann	-2942
▁prot	-2943
▁started	-2944
standig	-2945
▁silence	-2946
▁minutes	-2947
▁Wer	-2948
▁def	-2949
▁stroom	-2950
AU	-2951
▁telefoon	-2952
▁adult	-2953
'?	-2954
▁funct	-2955
ichting	-2956
ateri	-2957
▁ontstaan	-2958
AN	-2959
▁bank	-2960
▁veilig	-2961
▁road	-2962
schapp	-2963
▁regel	-2964
sing	-2965
▁Dav	-2966
stelling	-2967
▁webs	-2968
▁convers	-2969
▁bye	-2970
picks	-2971
▁pass	-2972
▁Just	-2973
▁kol	-2974
▁Se	-2975
oenen	-2976
▁hè	-2977
▁omge	-2978
▁everybody	-2979
▁wand	-2980
itchen	-2981
▁cold	-2982
▁feed	-2983
▁gevaar	-2984
▁beantwoord	-2985
▁starts	-2986
▁vor	-2987
▁volg	-2988
▁geleerd	-2989
▁betalen	-2990
▁Cos	-2991
▁doc	-2992
ichten	-2993
ule	-2994
▁sal	-2995
svorm	-2996
▁pizza	-2997
,5	-2998
iting	-2999
▁Sar	-3000
▁import	-3001
▁Paul	-3002
▁delen	-3003
▁kitchen	-3004
heen	-3005
▁ans	-3006
dra	-3007
▁vraagt	-3008
met	-3009
▁birthday	-3010
▁live	-3011
▁Eindopdracht	-3012
▁kor	-3013
▁da	-3014
▁verslag	-3015
naam	-3016
eph	-3017
▁gesprek	-3018
▁days	-3019
elsel	-3020
▁Daarna	-3021
ima	-3022
▁either	-3023
▁betaal	-3024
▁cool	-3025
▁11	-3026
▁full	-3027
JES	-3028
▁kiezen	-3029
mother	-3030
▁event	-3031
▁aand	-3032
▁Echt	-3033
▁kent	-3034
▁vle	-3035
▁result	-3036
▁likes	-3037
▁puzz	-3038
▁rock	-3039
▁dro	-3040
ris	-3041
▁Zie	-3042
▁reaches	-3043
▁duur	-3044
▁coff	-3045
▁valt	-3046
iging	-3047
▁Why	-3048
▁particular	-3049
anger	-3050
▁Sam	-3051
▁argument	-3052
▁rug	-3053
▁eindproduct	-3054
iday	-3055
▁sand	-3056
▁gehad	-3057
▁York	-3058
▁forty	-3059
erv	-3060
yy	-3061
ler	-3062
▁leerd	-3063
▁hol	-3064
ante	-3065
▁understand	-3066
▁mooie	-3067
laughing	-3068
▁onderdelen	-3069
▁ow	-3070
▁ham	-3071
▁pak	-3072
▁gebouw	-3073
▁voorbeelden	-3074
▁hors	-3075
Dat	-3076
▁record	-3077
Je	-3078
▁eh	-3079
enny	-3080
▁ph	-3081
▁mening	-3082
▁yyy	-3083
▁heard	-3084
igde	-3085
▁dun	-3086
oorlog	-3087
▁grou	-3088
let	-3089
▁Ed	-3090
▁touch	-3091
▁shall	-3092
mas	-3093
▁line	-3094
▁syst	-3095
▁voet	-3096
aura	-3097
▁acht	-3098
▁blocks	-3099
▁wet	-3100
akker	-3101
aught	-3102
hold	-3103
▁Klaar	-3104
▁mum	-3105
bel	-3106
▁echte	-3107
▁Gro	-3108
▁problem	-3109
inea	-3110
▁neer	-3111
▁team	-3112
lijn	-3113
▁zoon	-3114
▁across	-3115
▁organis	-3116
▁god	-3117
▁lunch	-3118
▁drop	-3119
▁Prob	-3120
▁test	-3121
▁compl	-3122
voc	-3123
▁zorg	-3124
ienst	-3125
▁means	-3126
▁whatever	-3127
▁hond	-3128
▁oog	-3129
ald	-3130
▁spreken	-3131
reet	-3132
▁moves	-3133
▁document	-3134
▁..	-3135
▁basis	-3136
▁sitting	-3137
▁Wel	-3138
raf	-3139
▁mus	-3140
▁vrouwen	-3141
▁tomorrow	-3142
▁Iedereen	-3143
▁wed	-3144
▁loopt	-3145
oer	-3146
▁aller	-3147
ene	-3148
kel	-3149
▁honey	-3150
▁ontmo	-3151
▁area	-3152
▁One	-3153
▁wachten	-3154
stoffen	-3155
schappen	-3156
▁lady	-3157
▁matter	-3158
raaf	-3159
▁schrift	-3160
▁[$	-3161
uigen	-3162
ham	-3163
▁glass	-3164
▁rivier	-3165
▁shop	-3166
▁Samen	-3167
▁soorten	-3168
▁add	-3169
▁catch	-3170
▁Car	-3171
▁zes	-3172
▁schat	-3173
▁coffee	-3174
aars	-3175
komst	-3176
▁silver	-3177
▁farm	-3178
▁tree	-3179
▁First	-3180
▁inhoud	-3181
illy	-3182
teen	-3183
▁25	-3184
whisper	-3185
ove	-3186
▁towards	-3187
ana	-3188
▁intro	-3189
▁Alle	-3190
ologie	-3191
▁onderstaande	-3192
▁reis	-3193
/0	-3194
▁Soms	-3195
kn	-3196
▁boot	-3197
▁until	-3198
▁Word	-3199
▁perhaps	-3200
orp	-3201
ffic	-3202
▁gave	-3203
▁frog	-3204
▁Cl	-3205
oeld	-3206
▁vij	-3207
▁eleph	-3208
owing	-3209
▁geweldig	-3210
ational	-3211
zie	-3212
▁Beantwoord	-3213
▁cream	-3214
▁pijn	-3215
leven	-3216
▁sta	-3217
▁Mc	-3218
▁clear	-3219
▁foll	-3220
vern	-3221
▁ontde	-3222
▁ninety	-3223
urns	-3224
▁nummer	-3225
volut	-3226
▁change	-3227
ices	-3228
▁mama	-3229
▁Vertel	-3230
won	-3231
▁tit	-3232
▁Pap	-3233
▁peek	-3234
▁Mrs	-3235
▁Natuurlijk	-3236
imaal	-3237
▁plate	-3238
▁pretend	-3239
ney	-3240
▁twel	-3241
▁bunny	-3242
▁check	-3243
▁...-	-3244
▁yup	-3245
▁buurt	-3246
ijs	-3247
▁kracht	-3248
elingen	-3249
rib	-3250
▁lots	-3251
ozen	-3252
▁looked	-3253
anje	-3254
▁arbe	-3255
▁ie	-3256
▁prof	-3257
vangen	-3258
▁200	-3259
ired	-3260
▁sport	-3261
▁Have	-3262
ages	-3263
ging	-3264
▁X	-3265
zoeken	-3266
▁base	-3267
oth	-3268
oest	-3269
ummer	-3270
ention	-3271
▁finished	-3272
urger	-3273
▁maand	-3274
▁pus	-3275
▁shape	-3276
ides	-3277
▁Miss	-3278
astic	-3279
▁euro	-3280
bout	-3281
imin	-3282
▁gas	-3283
▁apple	-3284
▁expl	-3285
▁ergens	-3286
▁kleur	-3287
▁conversation	-3288
▁quick	-3289
▁problemen	-3290
▁eet	-3291
com	-3292
▁werkwoord	-3293
▁handen	-3294
▁schema	-3295
ital	-3296
',	-3297
▁et	-3298
co	-3299
▁Man	-3300
sluit	-3301
▁Par	-3302
▁del	-3303
▁Ross	-3304
▁vakantie	-3305
▁[.	-3306
▁bedrijf	-3307
ield	-3308
▁mod	-3309
▁verv	-3310
acter	-3311
▁dinner	-3312
▁serv	-3313
▁belangrijkste	-3314
egd	-3315
▁guys	-3316
nem	-3317
▁17	-3318
▁Opgave	-3319
Een	-3320
▁someone	-3321
▁punt	-3322
▁yourself	-3323
▁rather	-3324
niet	-3325
▁caref	-3326
▁band	-3327
▁toek	-3328
sm	-3329
▁Laura	-3330
▁Nederlands	-3331
▁nineteen	-3332
▁meteen	-3333
▁Where	-3334
▁draa	-3335
inn	-3336
▁cost	-3337
▁clothes	-3338
▁Gel	-3339
rokken	-3340
schijn	-3341
▁kil	-3342
ivers	-3343
▁kiss	-3344
oppen	-3345
ony	-3346
▁dear	-3347
▁asked	-3348
▁stappen	-3349
orde	-3350
▁verschillen	-3351
▁couple	-3352
▁party	-3353
led	-3354
▁bow	-3355
ikken	-3356
▁steden	-3357
▁voice	-3358
▁namen	-3359
▁uitleg	-3360
▁David	-3361
die	-3362
▁kreeg	-3363
▁ret	-3364
nods	-3365
▁Are	-3366
▁stukje	-3367
▁3.	-3368
▁gezicht	-3369
▁Jack	-3370
▁along	-3371
▁hoeft	-3372
▁dress	-3373
▁dik	-3374
▁blank	-3375
▁Wereld	-3376
▁grand	-3377
▁such	-3378
▁taken	-3379
▁life	-3380
ads	-3381
oft	-3382
aste	-3383
▁winkel	-3384
▁proberen	-3385
▁afbeelding	-3386
▁mat	-3387
▁class	-3388
▁polic	-3389
▁West	-3390
▁deur	-3391
GRA	-3392
leg	-3393
ilt	-3394
▁log	-3395
ROZ	-3396
itte	-3397
▁Sarah	-3398
▁bijz	-3399
ley	-3400
ative	-3401
▁fast	-3402
merken	-3403
vocalize	-3404
reng	-3405
▁order	-3406
iedenis	-3407
raat	-3408
▁14	-3409
▁fab	-3410
▁holding	-3411
▁choo	-3412
▁leeft	-3413
kant	-3414
▁cars	-3415
olut	-3416
entie	-3417
▁When	-3418
osten	-3419
▁ride	-3420
▁erbij	-3421
las	-3422
ratie	-3423
▁muziek	-3424
▁dist	-3425
▁pound	-3426
▁belangrijke	-3427
erc	-3428
ees	-3429
▁Heeft	-3430
▁lange	-3431
pel	-3432
▁fly	-3433
esterd	-3434
▁oké	-3435
yst	-3436
▁Dad	-3437
▁avond	-3438
▁needs	-3439
▁meter	-3440
▁eindopdracht	-3441
got	-3442
inkt	-3443
▁100	-3444
▁volgens	-3445
yn	-3446
▁Blijf	-3447
▁herken	-3448
maar	-3449
▁stof	-3450
makes	-3451
▁zzz	-3452
▁reger	-3453
stellen	-3454
ract	-3455
▁Dr	-3456
dule	-3457
werkt	-3458
wegen	-3459
stelsel	-3460
eens	-3461
,-	-3462
kun	-3463
wijl	-3464
vraag	-3465
esterday	-3466
▁wall	-3467
ott	-3468
▁Su	-3469
▁alsof	-3470
ince	-3471
▁ervan	-3472
▁eng	-3473
anken	-3474
▁ieder	-3475
▁Engel	-3476
▁report	-3477
▁la	-3478
▁elekt	-3479
▁sweet	-3480
▁val	-3481
komt	-3482
▁[4	-3483
▁song	-3484
▁anderen	-3485
▁Bob	-3486
▁examen	-3487
▁vul	-3488
▁leerdoelen	-3489
2:	-3490
▁[1.	-3491
▁Want	-3492
We	-3493
▁ago	-3494
▁chang	-3495
▁Per	-3496
▁walks	-3497
▁makkelijk	-3498
andy	-3499
▁char	-3500
clus	-3501
▁ooh	-3502
▁zu	-3503
ersch	-3504
▁family	-3505
▁vog	-3506
▁Sl	-3507
▁bell	-3508
▁konden	-3509
iep	-3510
dio	-3511
▁answer	-3512
▁presentatie	-3513
▁kruis	-3514
▁grootste	-3515
▁kwamen	-3516
zak	-3517
ekend	-3518
▁beneden	-3519
hor	-3520
uf	-3521
vallen	-3522
▁bevol	-3523
▁overheid	-3524
rucht	-3525
▁yesterday	-3526
▁shirt	-3527
▁special	-3528
▁shoe	-3529
▁prijs	-3530
▁gehoord	-3531
▁30	-3532
come	-3533
sung	-3534
enten	-3535
▁kennen	-3536
▁Heel	-3537
▁hole	-3538
▁mond	-3539
▁sold	-3540
▁Child	-3541
▁window	-3542
ueel	-3543
▁believe	-3544
▁nat	-3545
▁bepaalde	-3546
▁Her	-3547
▁werkwoorden	-3548
Ch	-3549
▁boeken	-3550
▁bes	-3551
▁bekijken	-3552
!'	-3553
▁Fl	-3554
ruit	-3555
▁bra	-3556
illen	-3557
▁broer	-3558
▁twelve	-3559
▁bread	-3560
▁anybody	-3561
ciale	-3562
▁13	-3563
▁case	-3564
▁important	-3565
▁hope	-3566
cont	-3567
▁cre	-3568
▁regels	-3569
▁zak	-3570
▁happens	-3571
▁cult	-3572
voer	-3573
elden	-3574
▁leest	-3575
▁ruimte	-3576
▁miljoen	-3577
viously	-3578
▁vormen	-3579
tter	-3580
ining	-3581
▁fair	-3582
achte	-3583
▁mess	-3584
repen	-3585
▁usually	-3586
▁view	-3587
▁website	-3588
▁spell	-3589
▁yours	-3590
eps	-3591
▁verzam	-3592
▁veranderen	-3593
▁vliegt	-3594
▁"'	-3595
▁less	-3596
ral	-3597
▁offic	-3598
rom	-3599
ng	-3600
▁toekomst	-3601
▁Duitse	-3602
▁gingen	-3603
▁apart	-3604
▁vanaf	-3605
▁finish	-3606
▁module	-3607
▁oefenen	-3608
zeker	-3609
▁speak	-3610
gang	-3611
▁bos	-3612
genomen	-3613
▁keuze	-3614
▁tabel	-3615
▁politie	-3616
▁beide	-3617
aire	-3618
▁afsp	-3619
▁eerder	-3620
▁bedoeld	-3621
ieu	-3622
▁voordat	-3623
▁pract	-3624
▁Gen	-3625
▁invloed	-3626
▁abs	-3627
▁orde	-3628
▁papier	-3629
▁without	-3630
gesch	-3631
ov	-3632
▁dou	-3633
▁geval	-3634
▁kinda	-3635
▁vallen	-3636
▁swim	-3637
▁dinos	-3638
▁perfect	-3639
10	-3640
▁geloven	-3641
orgt	-3642
▁lost	-3643
▁clown	-3644
▁weren	-3645
▁Probeer	-3646
▁vergeten	-3647
erence	-3648
▁sign	-3649
▁Amerik	-3650
loop	-3651
▁Net	-3652
▁geschreven	-3653
▁towel	-3654
▁oops	-3655
▁Ne	-3656
arte	-3657
ited	-3658
ought	-3659
▁drive	-3660
▁neemt	-3661
▁laughs	-3662
more	-3663
▁det	-3664
▁sterk	-3665
▁chocolate	-3666
▁Con	-3667
maken	-3668
▁agen	-3669
▁tick	-3670
▁Christmas	-3671
▁Jon	-3672
▁schuld	-3673
▁ges	-3674
icult	-3675
▁pieces	-3676
▁fine	-3677
▁local	-3678
▁overal	-3679
▁Hieronder	-3680
▁peas	-3681
▁As	-3682
voeg	-3683
reden	-3684
▁voorbij	-3685
raken	-3686
▁pracht	-3687
▁tap	-3688
▁ko	-3689
ilder	-3690
▁Verd	-3691
▁project	-3692
▁gep	-3693
▁geworden	-3694
▁verdw	-3695
▁At	-3696
velop	-3697
▁vers	-3698
▁Ken	-3699
▁Adam	-3700
▁boeren	-3701
▁oefeningen	-3702
▁pig	-3703
▁Brit	-3704
▁boat	-3705
bal	-3706
▁tro	-3707
▁vreem	-3708
Ja	-3709
▁den	-3710
▁wear	-3711
▁behulp	-3712
▁besp	-3713
▁lijst	-3714
▁Che	-3715
▁Who	-3716
▁discuss	-3717
▁Bro	-3718
ukt	-3719
▁hy	-3720
eller	-3721
▁parag	-3722
▁questions	-3723
▁Gew	-3724
▁activiteit	-3725
ped	-3726
ically	-3727
▁vroeger	-3728
▁cel	-3729
▁snap	-3730
▁beschrijven	-3731
bab	-3732
ubl	-3733
▁50	-3734
▁short	-3735
▁vertelt	-3736
▁Twee	-3737
line	-3738
▁poss	-3739
loos	-3740
▁hit	-3741
▁wash	-3742
vat	-3743
▁straat	-3744
ete	-3745
ager	-3746
cri	-3747
cel	-3748
▁conf	-3749
▁temper	-3750
▁figure	-3751
▁trek	-3752
▁techn	-3753
▁stoppen	-3754
▁exper	-3755
ijen	-3756
▁dollar	-3757
▁eighty	-3758
▁gebeuren	-3759
oordat	-3760
▁Mother	-3761
"]	-3762
▁react	-3763
▁programma	-3764
▁against	-3765
▁places	-3766
oom	-3767
▁arr	-3768
▁voorkomen	-3769
▁ban	-3770
▁graf	-3771
▁nest	-3772
ateriaal	-3773
fast	-3774
▁ijs	-3775
▁slapen	-3776
▁goin	-3777
▁zuur	-3778
▁fiets	-3779
▁Bar	-3780
▁reason	-3781
▁const	-3782
▁drinken	-3783
▁Zw	-3784
▁contact	-3785
▁Ph	-3786
▁leert	-3787
▁bekend	-3788
iders	-3789
▁Good	-3790
▁world	-3791
▁gekomen	-3792
▁percent	-3793
▁voll	-3794
▁ongel	-3795
isc	-3796
▁zus	-3797
ole	-3798
play	-3799
orst	-3800
stairs	-3801
bles	-3802
KAR	-3803
▁whoa	-3804
▁lift	-3805
▁schrijft	-3806
▁Firstname	-3807
grond	-3808
▁Zoals	-3809
eeg	-3810
▁motor	-3811
▁meisjes	-3812
▁lach	-3813
▁Da	-3814
aarten	-3815
▁suppose	-3816
▁elephant	-3817
▁koff	-3818
▁straight	-3819
akte	-3820
▁Niemand	-3821
▁careful	-3822
▁gevangen	-3823
▁middel	-3824
▁KB	-3825
▁sun	-3826
▁dig	-3827
aardig	-3828
▁regering	-3829
▁artikel	-3830
),	-3831
▁Mon	-3832
▁ble	-3833
▁star	-3834
▁betekenis	-3835
hoog	-3836
ander	-3837
ienen	-3838
▁enorm	-3839
ox	-3840
▁Stop	-3841
eding	-3842
▁spr	-3843
voud	-3844
▁huid	-3845
▁stud	-3846
▁forward	-3847
▁learn	-3848
▁sixty	-3849
▁iedere	-3850
▁fijn	-3851
iles	-3852
▁wol	-3853
▁paint	-3854
ester	-3855
▁Moet	-3856
▁praat	-3857
MA	-3858
mhm	-3859
▁Ho	-3860
▁kerk	-3861
uut	-3862
▁seem	-3863
▁voldo	-3864
▁indust	-3865
gesl	-3866
▁verkl	-3867
ession	-3868
urk	-3869
▁leng	-3870
▁Sun	-3871
▁daarom	-3872
▁alsjeblieft	-3873
▁doggie	-3874
▁babies	-3875
▁Ber	-3876
▁naast	-3877
▁tonight	-3878
ogen	-3879
ache	-3880
▁titel	-3881
▁Tweede	-3882
▁midden	-3883
▁persoonsvorm	-3884
onding	-3885
▁teksten	-3886
▁winter	-3887
▁bronnen	-3888
▁meestal	-3889
strijd	-3890
child	-3891
▁zaken	-3892
▁laag	-3893
▁bestaan	-3894
▁theorie	-3895
▁late	-3896
▁..."	-3897
ivid	-3898
epen	-3899
▁baas	-3900
▁schoon	-3901
iness	-3902
▁Bijvoorbeeld	-3903
▁burg	-3904
▁uhuh	-3905
cellen	-3906
▁Gaat	-3907
▁Zuid	-3908
----	-3909
achter	-3910
▁stuck	-3911
alve	-3912
band	-3913
▁appl	-3914
▁groter	-3915
▁pakken	-3916
▁beoordelen	-3917
▁Ooh	-3918
▁hon	-3919
veren	-3920
igheid	-3921
▁vervol	-3922
▁volgorde	-3923
untary	-3924
▁circle	-3925
rug	-3926
▁zwem	-3927
▁dom	-3928
▁forgot	-3929
▁Mich	-3930
▁rode	-3931
lei	-3932
▁mill	-3933
▁tuin	-3934
▁utter	-3935
▁care	-3936
▁geschiedenis	-3937
erde	-3938
▁Gre	-3939
▁crayons	-3940
▁nope	-3941
▁pictures	-3942
alth	-3943
zel	-3944
▁thinking	-3945
iam	-3946
▁voelt	-3947
▁Had	-3948
ried	-3949
▁Vind	-3950
ground	-3951
▁Noord	-3952
▁certainly	-3953
▁bite	-3954
▁stil	-3955
onde	-3956
▁pause	-3957
▁probeer	-3958
▁“	-3959
▁[5	-3960
groep	-3961
▁waarbij	-3962
az	-3963
oops	-3964
▁airpl	-3965
▁Mensen	-3966
▁leef	-3967
▁pulls	-3968
▁gekozen	-3969
▁hum	-3970
▁favorite	-3971
▁sheep	-3972
ivity	-3973
▁verteld	-3974
▁knew	-3975
▁korte	-3976
▁Naar	-3977
▁manieren	-3978
▁omschrijven	-3979
▁sat	-3980
▁group	-3981
▁reading	-3982
COL	-3983
▁Zelf	-3984
rot	-3985
mail	-3986
goed	-3987
▁Eén	-3988
▁Video	-3989
▁lar	-3990
▁leger	-3991
▁Stel	-3992
▁begrijpen	-3993
▁omgeving	-3994
aboo	-3995
RI	-3996
▁bottom	-3997
gebied	-3998
▁running	-3999
▁lay	-4000
weer	-4001
▁brown	-4002
ois	-4003
▁Pak	-4004
▁item	-4005
▁Inhoud	-4006
▁living	-4007
▁rep	-4008
outen	-4009
▁soon	-4010
rophone	-4011
▁plaatsen	-4012
▁vanavond	-4013
▁Jan	-4014
▁nut	-4015
▁stat	-4016
▁links	-4017
▁seems	-4018
▁breakfast	-4019
▁ain	-4020
▁moesten	-4021
elijkheid	-4022
▁gegevens	-4023
▁store	-4024
▁Volgens	-4025
owers	-4026
▁krant	-4027
holds	-4028
▁Kon	-4029
▁gevoel	-4030
▁opnieuw	-4031
rans	-4032
zetten	-4033
▁teacher	-4034
▁zorgt	-4035
eech	-4036
ermen	-4037
▁press	-4038
▁Ger	-4039
ror	-4040
bei	-4041
ossing	-4042
▁brother	-4043
▁Wereldoorlog	-4044
▁Big	-4045
▁camp	-4046
▁Jul	-4047
beg	-4048
▁public	-4049
▁stellen	-4050
odigd	-4051
▁Onderdeel	-4052
ced	-4053
▁since	-4054
▁football	-4055
▁obviously	-4056
▁langer	-4057
▁baan	-4058
schijnlijk	-4059
▁friends	-4060
▁Pas	-4061
▁opt	-4062
Als	-4063
ett	-4064
ounty	-4065
▁boer	-4066
...-	-4067
▁lijn	-4068
voeren	-4069
rat	-4070
gasps	-4071
▁Because	-4072
omp	-4073
load	-4074
▁liefde	-4075
▁comb	-4076
▁vandaan	-4077
▁kunst	-4078
▁finger	-4079
▁country	-4080
bere	-4081
▁defin	-4082
plant	-4083
iode	-4084
otte	-4085
▁sir	-4086
ode	-4087
▁type	-4088
▁Amerika	-4089
ïn	-4090
geet	-4091
▁speelt	-4092
▁cookies	-4093
▁Any	-4094
▁gevolgen	-4095
▁inde	-4096
▁gaf	-4097
orth	-4098
▁Sat	-4099
esent	-4100
▁goo	-4101
ardon	-4102
▁trou	-4103
▁knows	-4104
▁bought	-4105
best	-4106
bre	-4107
ffen	-4108
plaats	-4109
zijde	-4110
▁erop	-4111
▁govern	-4112
▁grap	-4113
ury	-4114
▁verwacht	-4115
▁zwaar	-4116
imb	-4117
oegen	-4118
▁groeien	-4119
voluntary	-4120
▁rabb	-4121
▁succes	-4122
▁My	-4123
▁waarop	-4124
▁begrijp	-4125
▁Ten	-4126
▁teeth	-4127
▁Aye	-4128
aus	-4129
▁Step	-4130
▁maanden	-4131
▁dank	-4132
▁weeks	-4133
ael	-4134
tjes	-4135
▁pan	-4136
involuntary	-4137
▁Jo	-4138
aster	-4139
▁Comm	-4140
vere	-4141
▁zeer	-4142
▁ahead	-4143
ato	-4144
arts	-4145
elings	-4146
▁televis	-4147
▁Dag	-4148
▁wou	-4149
bert	-4150
nemen	-4151
▁somewhere	-4152
▁score	-4153
TV	-4154
oody	-4155
▁least	-4156
▁zen	-4157
▁oper	-4158
▁sits	-4159
▁magnet	-4160
▁difficult	-4161
▁voldoende	-4162
iment	-4163
▁sister	-4164
▁circ	-4165
▁gast	-4166
▁support	-4167
erecht	-4168
▁tries	-4169
asting	-4170
turns	-4171
▁bron	-4172
▁dere	-4173
▁Toch	-4174
iers	-4175
▁clock	-4176
rought	-4177
▁stam	-4178
▁afbeeldingen	-4179
omma	-4180
▁Col	-4181
▁For	-4182
punt	-4183
▁pour	-4184
lag	-4185
ieken	-4186
▁Go	-4187
▁meester	-4188
www	-4189
▁vuur	-4190
▁doden	-4191
▁inkomen	-4192
▁Gra	-4193
oute	-4194
▁zult	-4195
regen	-4196
▁spra	-4197
▁rechts	-4198
▁mevrouw	-4199
jaar	-4200
▁ele	-4201
▁Charl	-4202
ics	-4203
ico	-4204
▁loud	-4205
▁Sommige	-4206
▁appar	-4207
▁woont	-4208
▁alinea	-4209
any	-4210
KF	-4211
inse	-4212
▁sig	-4213
▁weken	-4214
▁Hen	-4215
▁Jim	-4216
▁quiet	-4217
▁airplane	-4218
len	-4219
▁mam	-4220
▁Activiteiten	-4221
ari	-4222
erry	-4223
▁deb	-4224
▁Bra	-4225
pointing	-4226
riek	-4227
▁Mat	-4228
▁eraan	-4229
▁gezond	-4230
30	-4231
LI	-4232
▁Sm	-4233
less	-4234
▁kwijt	-4235
50	-4236
hank	-4237
▁Fran	-4238
▁dok	-4239
▁plastic	-4240
▁allerlei	-4241
eks	-4242
oet	-4243
▁heer	-4244
En	-4245
ara	-4246
ippen	-4247
ommen	-4248
▁mail	-4249
▁exact	-4250
▁myself	-4251
▁father	-4252
▁Down	-4253
▁boos	-4254
igg	-4255
▁onto	-4256
▁gebieden	-4257
gra	-4258
unk	-4259
afel	-4260
ately	-4261
▁interesting	-4262
▁memb	-4263
▁maakte	-4264
▁interview	-4265
kens	-4266
schrift	-4267
plan	-4268
▁schip	-4269
▁doctor	-4270
Op	-4271
uwen	-4272
▁slim	-4273
▁Veren	-4274
▁middle	-4275
son	-4276
▁moon	-4277
uff	-4278
cessary	-4279
▁whis	-4280
igt	-4281
▁brought	-4282
!"	-4283
cer	-4284
Waar	-4285
kort	-4286
▁recorder	-4287
▁rijden	-4288
ette	-4289
▁fur	-4290
▁Ke	-4291
.)	-4292
▁Iemand	-4293
ellingen	-4294
▁correct	-4295
▁verleden	-4296
▁cijf	-4297
oef	-4298
onal	-4299
sport	-4300
▁aangeven	-4301
derd	-4302
▁months	-4303
▁government	-4304
▁ill	-4305
geld	-4306
▁gemidd	-4307
▁given	-4308
raal	-4309
isa	-4310
▁Em	-4311
▁Tim	-4312
▁control	-4313
▁walking	-4314
▁liter	-4315
▁rot	-4316
volutie	-4317
rs	-4318
▁gemak	-4319
▁Zou	-4320
nina	-4321
▁bood	-4322
lement	-4323
bra	-4324
▁eye	-4325
▁main	-4326
▁straks	-4327
▁sommige	-4328
▁wilden	-4329
▁within	-4330
▁haal	-4331
▁fant	-4332
▁slide	-4333
▁writing	-4334
cks	-4335
ford	-4336
▁boo	-4337
inner	-4338
▁business	-4339
▁tired	-4340
▁jo	-4341
▁sen	-4342
da	-4343
▁Europese	-4344
zier	-4345
iny	-4346
okken	-4347
▁feit	-4348
▁hog	-4349
▁x	-4350
▁Frankrijk	-4351
kamer	-4352
ipe	-4353
deeld	-4354
▁ker	-4355
▁members	-4356
▁bud	-4357
▁true	-4358
sterd	-4359
▁ene	-4360
▁boys	-4361
itter	-4362
naal	-4363
kop	-4364
▁doin	-4365
▁bigger	-4366
▁vlucht	-4367
ja	-4368
▁kolon	-4369
werking	-4370
▁yum	-4371
moves	-4372
Nee	-4373
▁machine	-4374
clock	-4375
▁animal	-4376
▁gevolg	-4377
▁super	-4378
▁button	-4379
▁monkey	-4380
▁puzzle	-4381
▁bepaald	-4382
▁4.	-4383
▁zeven	-4384
▁Sim	-4385
gelopen	-4386
▁colors	-4387
▁herkennen	-4388
▁gives	-4389
▁Elke	-4390
osp	-4391
▁Tom	-4392
▁klopt	-4393
▁SIS	-4394
▁vliegen	-4395
amb	-4396
▁Michael	-4397
ised	-4398
pervl	-4399
▁redden	-4400
not	-4401
▁blijf	-4402
▁Rob	-4403
stu	-4404
que	-4405
▁dorp	-4406
ooid	-4407
▁leans	-4408
▁site	-4409
▁contain	-4410
▁spullen	-4411
▁waardoor	-4412
idge	-4413
ience	-4414
ility	-4415
iste	-4416
▁allebei	-4417
haald	-4418
▁system	-4419
..."	-4420
eddy	-4421
▁volk	-4422
▁broke	-4423
arr	-4424
▁broken	-4425
▁eil	-4426
▁Council	-4427
▁cur	-4428
▁kast	-4429
▁Afronding	-4430
▁lied	-4431
vie	-4432
▁tail	-4433
atsy	-4434
pril	-4435
selves	-4436
▁peekaboo	-4437
dere	-4438
ully	-4439
▁Les	-4440
oordeling	-4441
▁stom	-4442
▁himself	-4443
part	-4444
▁Eer	-4445
▁kat	-4446
house	-4447
▁music	-4448
oeien	-4449
▁afge	-4450
▁deal	-4451
▁Sunday	-4452
▁levens	-4453
aper	-4454
▁har	-4455
ysteem	-4456
GLO	-4457
icit	-4458
▁zuurstof	-4459
ites	-4460
cil	-4461
▁adv	-4462
▁behand	-4463
aker	-4464
ouder	-4465
uurd	-4466
▁free	-4467
▁develop	-4468
▁[6	-4469
vely	-4470
fer	-4471
▁vriendin	-4472
▁oma	-4473
▁suggest	-4474
kk	-4475
▁Qu	-4476
ekst	-4477
▁vermoord	-4478
▁trans	-4479
▁played	-4480
▁lesuren	-4481
ently	-4482
▁young	-4483
▁poster	-4484
▁cap	-4485
▁equ	-4486
whispered	-4487
▁pink	-4488
ugen	-4489
voerd	-4490
hel	-4491
▁zul	-4492
▁koud	-4493
▁thanks	-4494
▁sluit	-4495
▁straw	-4496
singing	-4497
cribed	-4498
▁luisteren	-4499
ex	-4500
▁Vl	-4501
▁sent	-4502
▁China	-4503
▁kies	-4504
onger	-4505
▁building	-4506
▁interested	-4507
toe	-4508
▁inge	-4509
▁terwijl	-4510
▁schilder	-4511
gesp	-4512
▁Hebben	-4513
▁opens	-4514
sterdam	-4515
▁during	-4516
▁moving	-4517
▁[7	-4518
▁begon	-4519
bers	-4520
▁Rep	-4521
▁beaut	-4522
▁easy	-4523
▁lap	-4524
▁liever	-4525
sluiting	-4526
▁Alsjeblieft	-4527
▁landbouw	-4528
▁ner	-4529
urday	-4530
▁dw	-4531
▁Kleur	-4532
▁amb	-4533
▁needta	-4534
organ	-4535
elijks	-4536
etjes	-4537
ouches	-4538
go	-4539
▁Meer	-4540
▁dunno	-4541
▁trouw	-4542
▁40	-4543
zaak	-4544
▁using	-4545
▁vanuit	-4546
▁plaatje	-4547
▁Min	-4548
atief	-4549
▁rid	-4550
▁wheel	-4551
▁tax	-4552
▁loop	-4553
▁slaap	-4554
▁beschermen	-4555
hr	-4556
▁prima	-4557
MEL	-4558
ioen	-4559
▁adem	-4560
ts	-4561
kin	-4562
rel	-4563
stead	-4564
▁forget	-4565
▁(1	-4566
▁periode	-4567
inter	-4568
▁legs	-4569
▁droom	-4570
ses	-4571
▁kern	-4572
▁luister	-4573
recht	-4574
▁radio	-4575
▁sou	-4576
gelegd	-4577
▁gebeurten	-4578
▁overzicht	-4579
▁bedenken	-4580
▁dochter	-4581
▁microphone	-4582
▁versl	-4583
▁daarbij	-4584
▁imm	-4585
▁inn	-4586
▁aanp	-4587
▁pump	-4588
▁stack	-4589
▁Onze	-4590
▁tips	-4591
▁goodness	-4592
-2	-4593
vak	-4594
role	-4595
▁Ital	-4596
▁turned	-4597
▁Rust	-4598
▁gang	-4599
▁pens	-4600
▁temperatuur	-4601
ying	-4602
osta	-4603
▁bevolking	-4604
▁pack	-4605
rijving	-4606
▁)	-4607
▁meeting	-4608
▁dinosaur	-4609
▁mass	-4610
▁till	-4611
kracht	-4612
▁bedrijven	-4613
ometer	-4614
▁zichzelf	-4615
wich	-4616
▁erin	-4617
▁cause	-4618
woners	-4619
▁zomer	-4620
▁trekken	-4621
▁gelukkig	-4622
zing	-4623
tro	-4624
venty	-4625
▁barn	-4626
▁pitch	-4627
▁hoef	-4628
▁waarmee	-4629
YN	-4630
inc	-4631
▁rood	-4632
▁Grote	-4633
▁Meneer	-4634
▁geheim	-4635
▁Amsterdam	-4636
▁24	-4637
▁vorige	-4638
indelijk	-4639
▁priv	-4640
▁dokter	-4641
▁Ont	-4642
▁pet	-4643
owed	-4644
back	-4645
▁wakker	-4646
▁Staten	-4647
▁problems	-4648
ephone	-4649
▁weekend	-4650
▁Beoordeling	-4651
▁klasgenoten	-4652
▁alien	-4653
▁girls	-4654
▁detail	-4655
▁individ	-4656
▁buitenland	-4657
▁May	-4658
▁handel	-4659
▁Alex	-4660
▁ground	-4661
▁rabbit	-4662
▁grapp	-4663
▁often	-4664
▁beweg	-4665
▁bellen	-4666
▁cellen	-4667
▁plezier	-4668
abel	-4669
estig	-4670
▁pages	-4671
orge	-4672
▁Max	-4673
▁lag	-4674
▁Spanje	-4675
iefd	-4676
▁lovely	-4677
▁Saturday	-4678
▁klinkt	-4679
▁continues	-4680
aald	-4681
▁brood	-4682
▁elect	-4683
▁seat	-4684
▁tent	-4685
▁sinds	-4686
teken	-4687
▁puppy	-4688
▁rustig	-4689
▁cop	-4690
dr	-4691
▁typ	-4692
▁Oost	-4693
▁derde	-4694
▁liet	-4695
▁Eindproduct	-4696
anut	-4697
▁drawing	-4698
uzz	-4699
▁iss	-4700
▁tried	-4701
nis	-4702
▁veroor	-4703
▁ed	-4704
igin	-4705
▁trein	-4706
▁waarde	-4707
▁minimaal	-4708
toys	-4709
▁winnen	-4710
▁beoordeling	-4711
book	-4712
ived	-4713
osed	-4714
▁Vergelijk	-4715
▁standing	-4716
ei	-4717
xtra	-4718
▁geluid	-4719
▁hoofdstuk	-4720
▁versp	-4721
▁kool	-4722
▁yay	-4723
▁hoge	-4724
reaches	-4725
▁mem	-4726
▁plays	-4727
ases	-4728
▁expect	-4729
iker	-4730
ti	-4731
ample	-4732
▁huizen	-4733
kende	-4734
▁recl	-4735
▁ist	-4736
LYN	-4737
▁ins	-4738
▁Verenigde	-4739
AP	-4740
▁trouble	-4741
stad	-4742
wassen	-4743
▁surpr	-4744
DE	-4745
rand	-4746
▁Pre	-4747
ules	-4748
▁verkopen	-4749
▁president	-4750
nes	-4751
stublieft	-4752
MB	-4753
alm	-4754
▁nood	-4755
arkt	-4756
▁eerlijk	-4757
▁papa	-4758
▁works	-4759
▁crying	-4760
▁Alright	-4761
▁namelijk	-4762
ille	-4763
▁steen	-4764
ello	-4765
▁neg	-4766
onalds	-4767
▁bevat	-4768
▁kenmerken	-4769
▁Mond	-4770
▁gedrag	-4771
vaart	-4772
odigdheden	-4773
▁plus	-4774
▁omhoog	-4775
rr	-4776
▁das	-4777
▁ears	-4778
▁activiteiten	-4779
▁spl	-4780
▁port	-4781
oude	-4782
▁bezoek	-4783
12	-4784
boven	-4785
▁Haar	-4786
▁Friday	-4787
▁Pardon	-4788
▁nobody	-4789
teren	-4790
zijn	-4791
▁rub	-4792
▁club	-4793
▁sterven	-4794
zaken	-4795
▁fruit	-4796
▁council	-4797
gele	-4798
voice	-4799
uc	-4800
.""	-4801
shakes	-4802
▁absolut	-4803
▁aardig	-4804
▁emp	-4805
JO	-4806
iod	-4807
▁Open	-4808
▁muur	-4809
▁brush	-4810
▁swing	-4811
▁background	-4812
pill	-4813
vatting	-4814
▁police	-4815
ielen	-4816
5]	-4817
▁Bet	-4818
▁Oefen	-4819
LAU	-4820
▁respect	-4821
▁list	-4822
▁rain	-4823
▁Come	-4824
▁Hoi	-4825
▁tri	-4826
▁kopie	-4827
▁diep	-4828
▁melk	-4829
▁snow	-4830
iful	-4831
▁meerdere	-4832
.'"	-4833
▁mix	-4834
1.	-4835
▁corn	-4836
▁cups	-4837
▁bewegen	-4838
9]	-4839
▁bladzijde	-4840
▁seventy	-4841
▁argumenten	-4842
▁sposta	-4843
1]	-4844
▁bug	-4845
▁[8	-4846
eeld	-4847
spel	-4848
itein	-4849
▁overt	-4850
▁market	-4851
▁stoffen	-4852
▁women	-4853
dien	-4854
▁space	-4855
▁handle	-4856
imm	-4857
ments	-4858
▁vechten	-4859
▁situatie	-4860
cream	-4861
groot	-4862
▁hasn	-4863
▁voeren	-4864
▁naamwoord	-4865
wet	-4866
▁incre	-4867
▁vertel	-4868
gar	-4869
▁terms	-4870
▁telephone	-4871
Hoe	-4872
onderd	-4873
▁protest	-4874
ella	-4875
▁ongeluk	-4876
▁aandacht	-4877
kw	-4878
▁Even	-4879
erslag	-4880
hoek	-4881
▁dol	-4882
▁grow	-4883
▁exactly	-4884
sy	-4885
ppen	-4886
▁yummy	-4887
▁anymore	-4888
▁popul	-4889
▁opgaven	-4890
▁plat	-4891
▁Succes	-4892
▁cultuur	-4893
▁gekregen	-4894
▁bijzonder	-4895
▁falls	-4896
dam	-4897
rijden	-4898
▁shake	-4899
▁ang	-4900
▁utterances	-4901
▁geboren	-4902
▁oplossing	-4903
hin	-4904
eker	-4905
▁card	-4906
AI	-4907
ilen	-4908
illed	-4909
lopen	-4910
▁June	-4911
▁Lisa	-4912
▁koop	-4913
▁draag	-4914
▁controle	-4915
▁Mart	-4916
▁horsie	-4917
▁whoops	-4918
▁arms	-4919
▁Henry	-4920
▁stel	-4921
▁information	-4922
ized	-4923
▁send	-4924
oost	-4925
▁Jap	-4926
aterpill	-4927
▁Romeinse	-4928
FAD	-4929
▁term	-4930
▁training	-4931
ittee	-4932
▁Noem	-4933
▁blok	-4934
inding	-4935
▁hoorde	-4936
▁kosten	-4937
▁sna	-4938
vreden	-4939
▁lachen	-4940
▁struct	-4941
staan	-4942
▁194	-4943
▁gelezen	-4944
▁verandert	-4945
▁desk	-4946
▁fot	-4947
▁Pol	-4948
▁purple	-4949
izer	-4950
▁step	-4951
▁tafel	-4952
vang	-4953
keken	-4954
▁early	-4955
▁garage	-4956
▁voornaam	-4957
▁opa	-4958
▁bereken	-4959
▁fifteen	-4960
▁plaatjes	-4961
▁maj	-4962
▁concern	-4963
▁vervolgens	-4964
zes	-4965
ateg	-4966
▁Two	-4967
▁nap	-4968
▁zomaar	-4969
eester	-4970
olle	-4971
▁level	-4972
▁paard	-4973
▁telling	-4974
▁bowl	-4975
▁fiet	-4976
▁spec	-4977
▁toest	-4978
rian	-4979
ploy	-4980
zichtig	-4981
▁afstand	-4982
▁voorwerp	-4983
▁Tra	-4984
onstr	-4985
▁insp	-4986
▁prov	-4987
▁power	-4988
▁leggen	-4989
▁terecht	-4990
raad	-4991
▁prom	-4992
▁leerling	-4993
iot	-4994
toets	-4995
▁milieu	-4996
▁schrijver	-4997
illa	-4998
▁zoo	-4999
▁icecream	-5000
▁1:	-5001
▁overe	-5002
▁koffie	-5003
▁instead	-5004
veld	-5005
▁Ant	-5006
▁Joe	-5007
empt	-5008
very	-5009
▁bodem	-5010
▁blanket	-5011
ided	-5012
par	-5013
uch	-5014
ciaal	-5015
▁gemakkelijk	-5016
bron	-5017
ubliek	-5018
gesteld	-5019
▁cond	-5020
istische	-5021
▁eggs	-5022
▁Teken	-5023
▁voelen	-5024
▁mir	-5025
▁enkel	-5026
▁glasses	-5027
doel	-5028
▁held	-5029
▁totaal	-5030
vr	-5031
▁Papa	-5032
▁Inter	-5033
▁cm	-5034
uist	-5035
▁moder	-5036
▁body	-5037
▁zand	-5038
▁consider	-5039
gene	-5040
▁meen	-5041
▁stij	-5042
aged	-5043
▁bouwen	-5044
▁fingers	-5045
▁bescherm	-5046
▁geslacht	-5047
▁paragraaf	-5048
nel	-5049
iveau	-5050
▁meth	-5051
▁veranderd	-5052
edig	-5053
▁vent	-5054
▁dansen	-5055
▁beautiful	-5056
▁hist	-5057
ansport	-5058
▁Rustig	-5059
▁tas	-5060
▁begrijpt	-5061
▁vliegtuig	-5062
▁Help	-5063
▁waard	-5064
ugd	-5065
▁hours	-5066
▁leuke	-5067
pped	-5068
▁bat	-5069
wezen	-5070
▁Wees	-5071
▁taak	-5072
▁crack	-5073
▁period	-5074
▁kleding	-5075
▁getallen	-5076
▁carry	-5077
▁fight	-5078
stel	-5079
achine	-5080
▁kwaad	-5081
▁Welkom	-5082
gew	-5083
idt	-5084
▁medic	-5085
▁uitsp	-5086
▁wedstrijd	-5087
▁groepje	-5088
▁pock	-5089
ET	-5090
▁neus	-5091
▁Fre	-5092
▁bloody	-5093
oul	-5094
ains	-5095
esse	-5096
▁hosp	-5097
▁service	-5098
ym	-5099
▁Kar	-5100
▁exerc	-5101
ior	-5102
▁example	-5103
▁vlees	-5104
wijzen	-5105
azen	-5106
▁Leer	-5107
2.	-5108
assing	-5109
▁fol	-5110
▁mer	-5111
▁exam	-5112
▁dragen	-5113
▁Tijdens	-5114
▁School	-5115
▁kleren	-5116
overl	-5117
▁sleeping	-5118
▁slot	-5119
▁invol	-5120
▁race	-5121
▁drops	-5122
▁ontstaat	-5123
▁strong	-5124
ges	-5125
isatie	-5126
▁bathroom	-5127
▁Cal	-5128
▁Willem	-5129
▁personen	-5130
4]	-5131
uele	-5132
▁board	-5133
▁ermee	-5134
▁basket	-5135
aterpillar	-5136
▁waarschijnlijk	-5137
▁byeb	-5138
▁wish	-5139
▁Look	-5140
▁toeg	-5141
▁Which	-5142
rab	-5143
▁accept	-5144
▁cere	-5145
▁Rich	-5146
▁vlak	-5147
▁quack	-5148
▁roept	-5149
▁gevaarlijk	-5150
3]	-5151
▁flat	-5152
▁hall	-5153
ragment	-5154
▁Engels	-5155
▁advert	-5156
▁Aha	-5157
uture	-5158
middelen	-5159
▁daarmee	-5160
▁kleuren	-5161
▁pencil	-5162
▁mezelf	-5163
▁mouse	-5164
rict	-5165
urch	-5166
oogle	-5167
itched	-5168
▁pushes	-5169
▁zaak	-5170
▁street	-5171
▁waarheid	-5172
inst	-5173
▁ident	-5174
▁Romeinen	-5175
▁Voorbeeld	-5176
▁rece	-5177
▁woest	-5178
▁bacter	-5179
▁garden	-5180
atis	-5181
▁ving	-5182
▁#	-5183
▁zoekt	-5184
▁dienst	-5185
raph	-5186
▁key	-5187
ondon	-5188
▁flowers	-5189
eltje	-5190
▁Mary	-5191
▁hout	-5192
▁functie	-5193
zus	-5194
▁zieken	-5195
▁Mil	-5196
▁peanut	-5197
▁Gl	-5198
schaps	-5199
▁George	-5200
▁Sla	-5201
▁heav	-5202
▁tekenen	-5203
UN	-5204
▁visit	-5205
oken	-5206
▁origin	-5207
mbo	-5208
▁eleven	-5209
▁reag	-5210
achtig	-5211
▁mention	-5212
▁instruct	-5213
▁voorbere	-5214
icum	-5215
shire	-5216
▁tegenwoord	-5217
▁gol	-5218
▁occ	-5219
berry	-5220
kaart	-5221
▁hom	-5222
▁social	-5223
ogn	-5224
2]	-5225
ijnt	-5226
▁afle	-5227
▁byebye	-5228
▁rechter	-5229
olf	-5230
▁es	-5231
ec	-5232
GAI	-5233
pot	-5234
ction	-5235
7]	-5236
▁Eerst	-5237
ened	-5238
▁onderwerpen	-5239
▁Pat	-5240
▁giving	-5241
▁fir	-5242
gegeven	-5243
▁monster	-5244
6]	-5245
▁kru	-5246
▁helpt	-5247
▁station	-5248
▁daarvoor	-5249
▁erv	-5250
▁zaad	-5251
keur	-5252
▁Cont	-5253
▁kaarten	-5254
▁verdienen	-5255
Chi	-5256
cing	-5257
▁spend	-5258
kunde	-5259
▁neck	-5260
▁prins	-5261
▁bepalen	-5262
▁hoogte	-5263
▁bedankt	-5264
▁activity	-5265
▁pad	-5266
vocalization	-5267
▁viel	-5268
▁vres	-5269
▁Monday	-5270
inderen	-5271
▁voedings	-5272
adea	-5273
▁stands	-5274
▁interess	-5275
▁watching	-5276
▁Tr	-5277
▁poor	-5278
▁tong	-5279
▁ratt	-5280
▁honger	-5281
▁lijken	-5282
▁policy	-5283
▁throws	-5284
though	-5285
▁large	-5286
▁inwoners	-5287
ertje	-5288
▁bestu	-5289
▁Ty	-5290
▁duurt	-5291
▁trots	-5292
▁London	-5293
▁supposed	-5294
▁geme	-5295
▁heren	-5296
▁strip	-5297
▁politieke	-5298
mond	-5299
naar	-5300
▁kamp	-5301
▁ye	-5302
omet	-5303
▁mob	-5304
agram	-5305
Hij	-5306
▁km	-5307
▁meat	-5308
▁2:	-5309
▁Mooi	-5310
▁vmbo	-5311
heer	-5312
▁verliefd	-5313
▁Amerikaanse	-5314
8]	-5315
▁veg	-5316
▁length	-5317
▁Russ	-5318
▁Sov	-5319
▁stuur	-5320
ray	-5321
▁Hun	-5322
ennen	-5323
▁saf	-5324
▁gedicht	-5325
fort	-5326
▁max	-5327
▁third	-5328
▁duh	-5329
▁verloren	-5330
noon	-5331
gende	-5332
▁reach	-5333
owel	-5334
▁Nieuw	-5335
▁afternoon	-5336
iber	-5337
▁Haal	-5338
▁bomen	-5339
▁lion	-5340
▁gun	-5341
ellig	-5342
▁felt	-5343
▁Europe	-5344
eds	-5345
▁1,	-5346
▁oom	-5347
▁quar	-5348
speech	-5349
▁elimin	-5350
▁sneller	-5351
▁Bab	-5352
▁digit	-5353
▁gevraag	-5354
gebruik	-5355
▁haat	-5356
▁produc	-5357
apens	-5358
▁probeert	-5359
lish	-5360
athan	-5361
▁Intro	-5362
▁James	-5363
wards	-5364
▁Mummy	-5365
▁pil	-5366
▁Patsy	-5367
▁map	-5368
▁woordenboek	-5369
▁kwal	-5370
▁grappig	-5371
▁Chair	-5372
▁bestuur	-5373
▁→	-5374
berg	-5375
▁ran	-5376
▁driving	-5377
▁Uw	-5378
▁Examen	-5379
▁suit	-5380
▁innit	-5381
▁21	-5382
▁uite	-5383
▁ontmoet	-5384
AUN	-5385
▁closer	-5386
▁wis	-5387
▁Phil	-5388
zingen	-5389
▁jonge	-5390
ume	-5391
iele	-5392
▁Pers	-5393
▁minst	-5394
▁lastig	-5395
▁afgelopen	-5396
▁kilometer	-5397
▁author	-5398
▁slechte	-5399
kingen	-5400
▁[9	-5401
ening	-5402
aid	-5403
▁Grand	-5404
▁collect	-5405
kist	-5406
▁prachtig	-5407
zig	-5408
▁ei	-5409
▁overl	-5410
▁position	-5411
▁beurt	-5412
▁gegaan	-5413
hankelijk	-5414
▁benoemen	-5415
▁zelfstandig	-5416
nam	-5417
orten	-5418
mers	-5419
▁wood	-5420
▁shouldn	-5421
lly	-5422
▁comment	-5423
▁upstairs	-5424
car	-5425
▁vet	-5426
▁www	-5427
ouwen	-5428
present	-5429
▁bestand	-5430
SS	-5431
reed	-5432
▁dry	-5433
▁square	-5434
▁general	-5435
yl	-5436
cul	-5437
doen	-5438
▁turt	-5439
▁sugar	-5440
oci	-5441
▁sandwich	-5442
▁See	-5443
▁helft	-5444
▁wapen	-5445
huizen	-5446
▁gezin	-5447
▁health	-5448
▁Ol	-5449
aghet	-5450
▁pijl	-5451
▁proces	-5452
▁Drie	-5453
ranscribed	-5454
▁[?	-5455
anda	-5456
ural	-5457
▁law	-5458
▁woof	-5459
gaat	-5460
rible	-5461
▁hield	-5462
joy	-5463
▁web	-5464
▁fouten	-5465
▁scared	-5466
▁Mel	-5467
tekst	-5468
necessary	-5469
hah	-5470
▁Wal	-5471
▁tool	-5472
▁hotel	-5473
▁begins	-5474
▁positie	-5475
▁cross	-5476
▁select	-5477
▁economie	-5478
aalf	-5479
aien	-5480
▁pocket	-5481
esh	-5482
▁haha	-5483
▁intern	-5484
pert	-5485
▁keys	-5486
▁climb	-5487
board	-5488
▁Achter	-5489
▁leaves	-5490
▁naartoe	-5491
Maar	-5492
orgd	-5493
▁town	-5494
eeuwen	-5495
▁sense	-5496
▁eiland	-5497
▁bloemen	-5498
JW	-5499
▁grens	-5500
▁restaur	-5501
ius	-5502
▁woman	-5503
▁0,	-5504
▁Tekst	-5505
▁recogn	-5506
▁string	-5507
wat	-5508
kent	-5509
▁Iets	-5510
pens	-5511
▁kar	-5512
▁Eerste	-5513
St	-5514
jet	-5515
▁Japan	-5516
▁Weg	-5517
▁lab	-5518
▁toep	-5519
▁tweet	-5520
▁zenuw	-5521
ureau	-5522
derdaad	-5523
▁klim	-5524
▁volt	-5525
▁vergelijken	-5526
ijdt	-5527
▁Rijk	-5528
▁Jezus	-5529
ieus	-5530
June	-5531
▁silly	-5532
▁bedacht	-5533
3.	-5534
eloos	-5535
non	-5536
▁fan	-5537
▁buur	-5538
places	-5539
▁Vragen	-5540
▁lessen	-5541
▁glad	-5542
▁mist	-5543
▁verwij	-5544
▁grafiek	-5545
▁berg	-5546
atieve	-5547
anta	-5548
▁aud	-5549
▁sick	-5550
▁Zelfs	-5551
▁movie	-5552
▁eventueel	-5553
▁tekeningen	-5554
▁à	-5555
▁raad	-5556
onk	-5557
wiss	-5558
ongen	-5559
▁hoger	-5560
▁kerst	-5561
bren	-5562
▁bak	-5563
▁Niets	-5564
▁daarvan	-5565
▁paid	-5566
▁wint	-5567
▁smell	-5568
▁container	-5569
▁rustling	-5570
▁Kruis	-5571
▁oppervl	-5572
ya	-5573
izend	-5574
▁Bird	-5575
▁donker	-5576
▁verzeker	-5577
▁eliminated	-5578
FCH	-5579
▁cry	-5580
ukkig	-5581
▁witte	-5582
▁gereed	-5583
▁herself	-5584
eman	-5585
▁corner	-5586
auwe	-5587
▁wha	-5588
▁Extra	-5589
▁sleut	-5590
▁gebeurde	-5591
ased	-5592
sver	-5593
▁Lois	-5594
▁verr	-5595
rieken	-5596
▁brengt	-5597
aghetti	-5598
▁jongeren	-5599
▁couch	-5600
▁everyone	-5601
▁steek	-5602
▁stops	-5603
▁craw	-5604
▁hangt	-5605
▁amount	-5606
roe	-5607
▁christ	-5608
▁gesproken	-5609
▁low	-5610
iende	-5611
▁maan	-5612
▁Kle	-5613
▁kregen	-5614
▁vreemd	-5615
▁rob	-5616
▁cute	-5617
▁situation	-5618
▁caterpillar	-5619
▁kiest	-5620
▁further	-5621
▁groepen	-5622
▁rivieren	-5623
▁Nederlanders	-5624
inde	-5625
▁ler	-5626
▁woo	-5627
▁Bron	-5628
▁Nina	-5629
ije	-5630
▁screw	-5631
▁ziekte	-5632
▁Download	-5633
unnecessary	-5634
regel	-5635
schuw	-5636
▁vulk	-5637
▁rekening	-5638
▁gevraagd	-5639
▁hug	-5640
▁Lord	-5641
▁ideeën	-5642
▁burgers	-5643
▁nesting	-5644
▁singing	-5645
▁difference	-5646
roll	-5647
▁account	-5648
otter	-5649
▁gras	-5650
bit	-5651
▁Cor	-5652
▁Ray	-5653
▁geg	-5654
▁Aust	-5655
▁onth	-5656
▁ouder	-5657
▁liked	-5658
▁taste	-5659
▁bike	-5660
bie	-5661
▁worked	-5662
▁normaal	-5663
▁swimming	-5664
▁trees	-5665
▁Vooruit	-5666
▁concent	-5667
▁gebracht	-5668
▁hospital	-5669
fil	-5670
wing	-5671
▁verniet	-5672
▁hersenen	-5673
fly	-5674
▁markt	-5675
▁parents	-5676
▁Benodigdheden	-5677
▁nauw	-5678
▁droog	-5679
icky	-5680
▁Exc	-5681
▁kennisbank	-5682
▁Mac	-5683
▁million	-5684
▁Bo	-5685
▁tie	-5686
hal	-5687
▁muse	-5688
▁schoenen	-5689
press	-5690
▁picked	-5691
▁laughing	-5692
▁kid	-5693
▁tiny	-5694
▁enjoy	-5695
riciteit	-5696
ript	-5697
▁Oor	-5698
▁route	-5699
▁batter	-5700
▁except	-5701
▁erachter	-5702
zy	-5703
▁slaan	-5704
▁self	-5705
▁Marky	-5706
▁gemeen	-5707
▁begonnen	-5708
ision	-5709
ossen	-5710
▁office	-5711
▁ent	-5712
▁oth	-5713
iling	-5714
▁zoiets	-5715
▁dans	-5716
▁handig	-5717
▁volwassen	-5718
▁numbers	-5719
▁communic	-5720
▁sol	-5721
▁oppos	-5722
▁procent	-5723
udden	-5724
▁dead	-5725
▁slow	-5726
▁contract	-5727
▁goud	-5728
▁trouwen	-5729
▁text	-5730
▁pants	-5731
ouwd	-5732
▁Boven	-5733
▁verhalen	-5734
Ze	-5735
eak	-5736
eland	-5737
▁Zonder	-5738
▁bor	-5739
▁sturen	-5740
▁balloon	-5741
burg	-5742
▁Houd	-5743
▁Part	-5744
▁democ	-5745
▁gepro	-5746
rust	-5747
▁aye	-5748
▁Then	-5749
▁dream	-5750
▁negen	-5751
▁cadea	-5752
▁neat	-5753
ationale	-5754
▁tun	-5755
athol	-5756
▁provin	-5757
▁wit	-5758
▁qual	-5759
▁verj	-5760
dienst	-5761
▁appro	-5762
▁company	-5763
▁holiday	-5764
ism	-5765
▁ev	-5766
▁seks	-5767
▁univers	-5768
▁hé	-5769
▁Mam	-5770
▁mocht	-5771
▁Wed	-5772
gemaakt	-5773
▁spannen	-5774
▁bereiken	-5775
▁beginning	-5776
ky	-5777
oede	-5778
▁sneeuw	-5779
▁happening	-5780
▁Reg	-5781
▁reclame	-5782
▁minister	-5783
▁names	-5784
▁cereal	-5785
▁Jouw	-5786
vatten	-5787
ON	-5788
▁haalt	-5789
▁richting	-5790
▁spaghetti	-5791
ograf	-5792
▁Bill	-5793
▁Mike	-5794
▁dam	-5795
▁vac	-5796
tegen	-5797
▁wegen	-5798
▁lim	-5799
▁kam	-5800
koop	-5801
vuld	-5802
alent	-5803
issing	-5804
▁lives	-5805
▁vertrouwen	-5806
zi	-5807
▁bom	-5808
▁vonden	-5809
▁leeftijd	-5810
▁following	-5811
▁kust	-5812
▁hasta	-5813
▁zwarte	-5814
▁veget	-5815
astisch	-5816
enkomst	-5817
▁Kn	-5818
▁Nad	-5819
▁Roman	-5820
▁Anders	-5821
bar	-5822
uses	-5823
▁lem	-5824
boden	-5825
▁Mad	-5826
▁dak	-5827
▁teddy	-5828
▁listening	-5829
ammer	-5830
landen	-5831
tens	-5832
▁est	-5833
▁dark	-5834
icking	-5835
▁gramm	-5836
anna	-5837
▁mit	-5838
▁purse	-5839
▁others	-5840
▁Charlie	-5841
va	-5842
licht	-5843
ooster	-5844
▁groen	-5845
▁bericht	-5846
gets	-5847
▁EU	-5848
▁major	-5849
▁Afrika	-5850
anning	-5851
▁bother	-5852
▁tevreden	-5853
ruim	-5854
▁Mick	-5855
bro	-5856
bus	-5857
▁ba	-5858
▁Eigen	-5859
▁heavy	-5860
▁quickly	-5861
▁Gram	-5862
▁soup	-5863
▁Hoofd	-5864
cky	-5865
▁Du	-5866
riet	-5867
▁dogs	-5868
▁requ	-5869
▁hoek	-5870
vall	-5871
▁Schiet	-5872
▁wheels	-5873
▁publiek	-5874
▁verspre	-5875
▁herinner	-5876
▁neerslag	-5877
▁dubb	-5878
▁dar	-5879
▁loc	-5880
▁spoor	-5881
▁leiden	-5882
▁Verdomme	-5883
21	-5884
▁Holl	-5885
▁knop	-5886
wege	-5887
▁Kat	-5888
▁broek	-5889
▁overle	-5890
▁signaal	-5891
iven	-5892
esident	-5893
▁Kim	-5894
▁worth	-5895
▁mirror	-5896
▁leeg	-5897
▁genomen	-5898
ute	-5899
▁incl	-5900
▁oink	-5901
▁pool	-5902
▁Rus	-5903
▁raken	-5904
▁closed	-5905
ills	-5906
▁inf	-5907
▁gelukt	-5908
▁sell	-5909
▁lever	-5910
▁hierbij	-5911
heids	-5912
iegel	-5913
▁gods	-5914
eltjes	-5915
▁micro	-5916
▁possible	-5917
ör	-5918
▁Sis	-5919
▁mad	-5920
▁Hoor	-5921
cket	-5922
▁prem	-5923
▁ontmoeten	-5924
▁ontsn	-5925
▁rings	-5926
▁quarter	-5927
▁welcome	-5928
ka	-5929
▁non	-5930
▁share	-5931
▁Street	-5932
▁vrucht	-5933
▁verdomme	-5934
aris	-5935
▁gesloten	-5936
▁glas	-5937
▁samenvatting	-5938
schat	-5939
▁Besch	-5940
▁speciale	-5941
▁Hey	-5942
▁Hello	-5943
▁vlieg	-5944
▁partij	-5945
▁bestuderen	-5946
pa	-5947
mon	-5948
ooh	-5949
abet	-5950
ieven	-5951
▁dikke	-5952
▁missed	-5953
▁softly	-5954
▁vooruit	-5955
▁verantwoord	-5956
▁22	-5957
▁Vand	-5958
▁kept	-5959
▁afval	-5960
▁although	-5961
verb	-5962
▁age	-5963
matig	-5964
▁stage	-5965
▁conclus	-5966
▁Eh	-5967
▁speaking	-5968
▁fles	-5969
▁proper	-5970
▁definit	-5971
ils	-5972
▁Reken	-5973
▁fence	-5974
▁changed	-5975
5.	-5976
lang	-5977
▁Hit	-5978
▁tur	-5979
▁date	-5980
Er	-5981
▁IN	-5982
▁owl	-5983
▁bedroom	-5984
▁reactie	-5985
▁sad	-5986
▁indeed	-5987
▁strand	-5988
▁subject	-5989
▁5.	-5990
▁figuur	-5991
▁strijd	-5992
item	-5993
▁Gar	-5994
▁hur	-5995
erend	-5996
ums	-5997
▁wee	-5998
▁beweging	-5999
ijm	-6000
▁Water	-6001
rit	-6002
amel	-6003
inda	-6004
▁Roy	-6005
▁dump	-6006
▁verp	-6007
▁Engeland	-6008
rown	-6009
ught	-6010
rouwd	-6011
▁Belg	-6012
▁hemel	-6013
▁watches	-6014
▁[$=	-6015
▁nergens	-6016
▁soldaten	-6017
ula	-6018
▁agree	-6019
▁moved	-6020
▁aspect	-6021
kers	-6022
▁toil	-6023
▁doggy	-6024
▁heart	-6025
▁60	-6026
sters	-6027
▁Lang	-6028
▁gezet	-6029
ino	-6030
ories	-6031
▁nogal	-6032
▁Richard	-6033
▁hoeveelheid	-6034
▁spot	-6035
▁vogel	-6036
▁volgt	-6037
▁voorz	-6038
▁liep	-6039
▁shows	-6040
lect	-6041
▁Mum	-6042
▁bedenk	-6043
LL	-6044
agers	-6045
▁resultaat	-6046
igers	-6047
▁size	-6048
▁sweetie	-6049
▁Ra	-6050
ising	-6051
▁national	-6052
▁vertelde	-6053
▁suc	-6054
▁Some	-6055
▁coat	-6056
▁toer	-6057
▁Den	-6058
▁Pop	-6059
whispers	-6060
▁uitdruk	-6061
▁Mcd	-6062
▁Mic	-6063
▁autom	-6064
▁gebouwd	-6065
▁afspraak	-6066
uts	-6067
▁streep	-6068
OR	-6069
rows	-6070
▁rib	-6071
▁blik	-6072
▁imag	-6073
▁ahhah	-6074
▁Franse	-6075
ür	-6076
asing	-6077
SL	-6078
▁Abe	-6079
▁moed	-6080
▁Woorden	-6081
▁Ann	-6082
▁trad	-6083
▁proef	-6084
vir	-6085
▁meant	-6086
▁absolutely	-6087
▁particularly	-6088
▁anyone	-6089
▁butterfly	-6090
▁Bew	-6091
▁Leuk	-6092
▁Brian	-6093
▁rele	-6094
▁Jenny	-6095
▁bedoelt	-6096
Ind	-6097
ada	-6098
itu	-6099
▁English	-6100
dan	-6101
igr	-6102
▁Zal	-6103
gramma	-6104
▁benef	-6105
14	-6106
▁bord	-6107
▁waiting	-6108
▁bloem	-6109
▁asking	-6110
▁turtle	-6111
umn	-6112
▁Does	-6113
▁spreekt	-6114
schapskist	-6115
▁cris	-6116
▁offer	-6117
wek	-6118
▁worry	-6119
▁etc	-6120
▁lock	-6121
▁dolls	-6122
▁Cla	-6123
▁turning	-6124
▁dre	-6125
uesday	-6126
▁blauw	-6127
▁ur	-6128
ocument	-6129
▁gisteren	-6130
Dit	-6131
vou	-6132
sect	-6133
▁kopje	-6134
▁verkeerd	-6135
uim	-6136
rent	-6137
▁media	-6138
▁Vergeet	-6139
▁verh	-6140
▁storm	-6141
untranscribed	-6142
▁Fred	-6143
▁uitv	-6144
▁schieten	-6145
▁uiteindelijk	-6146
tig	-6147
tern	-6148
▁pin	-6149
ukken	-6150
▁Trek	-6151
▁aanwe	-6152
anks	-6153
ursday	-6154
▁Brand	-6155
▁deden	-6156
▁lookee	-6157
▁voorzien	-6158
▁bump	-6159
▁Harry	-6160
ini	-6161
▁king	-6162
▁sett	-6163
▁geest	-6164
▁verband	-6165
rik	-6166
Europ	-6167
▁lukt	-6168
▁Daardoor	-6169
▁Republiek	-6170
▁Deel	-6171
▁grass	-6172
▁lines	-6173
boy	-6174
▁vir	-6175
aders	-6176
▁gevallen	-6177
MBO	-6178
laag	-6179
▁Midd	-6180
▁lets	-6181
▁ziel	-6182
▁Kunnen	-6183
▁runs	-6184
ologische	-6185
▁inleiding	-6186
▁oop	-6187
▁lamp	-6188
▁draait	-6189
▁gewonnen	-6190
eta	-6191
▁objects	-6192
▁Three	-6193
▁figures	-6194
▁Gelukkig	-6195
ave	-6196
▁County	-6197
iële	-6198
agon	-6199
▁combin	-6200
▁falling	-6201
▁verkocht	-6202
uth	-6203
▁Land	-6204
▁code	-6205
▁tall	-6206
▁betekenen	-6207
uwe	-6208
asure	-6209
nesday	-6210
formatie	-6211
▁onderzoeken	-6212
VO	-6213
din	-6214
▁Sup	-6215
▁juf	-6216
▁zingen	-6217
schappij	-6218
▁gezegde	-6219
▁planning	-6220
ares	-6221
kere	-6222
▁suiker	-6223
▁hiervoor	-6224
▁machines	-6225
▁tanden	-6226
▁waarvan	-6227
ours	-6228
▁save	-6229
▁filmpjes	-6230
▁ontwikkeling	-6231
▁aff	-6232
▁VMBO	-6233
▁olie	-6234
▁begrip	-6235
hy	-6236
gers	-6237
▁tooth	-6238
dom	-6239
vig	-6240
▁kapot	-6241
▁vermoorden	-6242
▁colle	-6243
▁wapens	-6244
▁woestijn	-6245
rol	-6246
rijp	-6247
machine	-6248
▁museum	-6249
▁gehaald	-6250
▁langzaam	-6251
▁ziekenhuis	-6252
hip	-6253
voudig	-6254
pool	-6255
▁Ich	-6256
tries	-6257
▁Bear	-6258
▁cho	-6259
▁Tegen	-6260
▁longer	-6261
▁dropped	-6262
▁Thursday	-6263
med	-6264
▁honden	-6265
▁verjaard	-6266
HV	-6267
▁VS	-6268
eaan	-6269
▁bub	-6270
empts	-6271
▁Google	-6272
▁traffic	-6273
▁elektriciteit	-6274
ws	-6275
bad	-6276
▁eighteen	-6277
▁Andy	-6278
▁klik	-6279
▁sluiten	-6280
▁transport	-6281
you	-6282
cher	-6283
zame	-6284
hands	-6285
▁enorme	-6286
work	-6287
▁erover	-6288
gesloten	-6289
elly	-6290
ists	-6291
▁fac	-6292
▁aliens	-6293
oepen	-6294
▁tower	-6295
▁Sovjet	-6296
▁houses	-6297
▁Ox	-6298
▁employ	-6299
▁recent	-6300
▁Very	-6301
contin	-6302
haling	-6303
▁vogels	-6304
▁betaald	-6305
▁educ	-6306
moving	-6307
▁Chris	-6308
▁explain	-6309
arbe	-6310
soft	-6311
▁Sus	-6312
▁Klopt	-6313
▁involved	-6314
▁Wednesday	-6315
TAP	-6316
arp	-6317
aser	-6318
▁Nan	-6319
▁agent	-6320
▁kwart	-6321
▁rolls	-6322
▁engine	-6323
▁British	-6324
▁Fil	-6325
▁keizer	-6326
▁VO	-6327
ogel	-6328
▁zonn	-6329
burger	-6330
▁items	-6331
▁propos	-6332
ilige	-6333
▁vern	-6334
▁bekijk	-6335
▁flower	-6336
stellingen	-6337
▁deelwoord	-6338
win	-6339
vingen	-6340
▁candy	-6341
▁posit	-6342
▁ruzie	-6343
▁online	-6344
▁themselves	-6345
lier	-6346
leving	-6347
▁voorstellen	-6348
▁Rusland	-6349
▁seconden	-6350
▁eats	-6351
▁kra	-6352
▁Chairman	-6353
maat	-6354
▁Morgen	-6355
pag	-6356
rugs	-6357
▁wijk	-6358
▁reizen	-6359
▁Get	-6360
ipper	-6361
cially	-6362
▁nicht	-6363
11	-6364
sname	-6365
ogelijk	-6366
▁[2.	-6367
ijven	-6368
▁kranten	-6369
▁stukken	-6370
▁Mcdonalds	-6371
▁Bas	-6372
▁busy	-6373
▁belasting	-6374
ait	-6375
oeie	-6376
emming	-6377
minste	-6378
▁Sue	-6379
oemde	-6380
60	-6381
iol	-6382
▁Ab	-6383
▁Here	-6384
▁Sur	-6385
▁refer	-6386
▁eindelijk	-6387
▁practicum	-6388
▁Kennisbankitem	-6389
nst	-6390
breken	-6391
▁vertrekken	-6392
▁DE	-6393
▁Thom	-6394
▁meeg	-6395
genaam	-6396
▁actie	-6397
▁areas	-6398
▁beads	-6399
▁kloot	-6400
▁War	-6401
▁Heer	-6402
▁drank	-6403
▁verlaten	-6404
MU	-6405
oughs	-6406
▁built	-6407
brengen	-6408
▁Hitler	-6409
HSL	-6410
▁Jos	-6411
HSLLD	-6412
▁roof	-6413
slagen	-6414
▁Bobby	-6415
▁ziens	-6416
Sch	-6417
tes	-6418
toy	-6419
▁Com	-6420
▁Jes	-6421
apping	-6422
indt	-6423
▁indruk	-6424
▁slight	-6425
▁slechts	-6426
▁materiaal	-6427
feest	-6428
ianen	-6429
reekt	-6430
▁getal	-6431
▁Verder	-6432
▁future	-6433
cries	-6434
▁Santa	-6435
▁schiet	-6436
▁verjaardag	-6437
▁eigenschappen	-6438
rok	-6439
aughter	-6440
▁noorden	-6441
▁therefore	-6442
isen	-6443
▁erf	-6444
▁pitcher	-6445
bling	-6446
ijker	-6447
▁jour	-6448
▁caught	-6449
iti	-6450
▁stairs	-6451
leep	-6452
▁bee	-6453
▁Childsname	-6454
was	-6455
zee	-6456
▁toast	-6457
▁summer	-6458
obby	-6459
▁Eve	-6460
▁jar	-6461
intig	-6462
▁ought	-6463
▁pointing	-6464
▁Red	-6465
staat	-6466
▁Eric	-6467
▁trade	-6468
standigheden	-6469
ery	-6470
ipped	-6471
▁gebeurtenissen	-6472
▁ich	-6473
▁jas	-6474
▁alone	-6475
▁groene	-6476
▁keuken	-6477
▁fabriek	-6478
▁legt	-6479
▁verbet	-6480
▁vari	-6481
struct	-6482
▁Vanaf	-6483
▁Geweld	-6484
▁graden	-6485
▁allowed	-6486
▁examenvragen	-6487
"".	-6488
ube	-6489
ican	-6490
▁hadta	-6491
▁schad	-6492
▁simple	-6493
bt	-6494
iki	-6495
▁23	-6496
veral	-6497
▁Anne	-6498
▁vrije	-6499
▁whisper	-6500
bet	-6501
▁spring	-6502
▁restaurant	-6503
nl	-6504
ras	-6505
etch	-6506
▁Rea	-6507
▁tand	-6508
▁whose	-6509
▁budget	-6510
▁redenen	-6511
▁lijden	-6512
▁clearly	-6513
▁Zeker	-6514
▁concerned	-6515
▁vreselijk	-6516
hoe	-6517
begins	-6518
▁zacht	-6519
ekeningen	-6520
▁vijand	-6521
ffe	-6522
pet	-6523
▁sets	-6524
▁Toe	-6525
aving	-6526
▁Cent	-6527
▁chairs	-6528
▁flink	-6529
▁lights	-6530
reef	-6531
▁netjes	-6532
▁strateg	-6533
▁gemiddelde	-6534
▁II	-6535
gasp	-6536
▁games	-6537
▁Engelse	-6538
▁attention	-6539
dd	-6540
▁pea	-6541
▁son	-6542
▁Rock	-6543
▁rent	-6544
--------	-6545
▁199	-6546
ommel	-6547
▁cone	-6548
▁zwak	-6549
▁Noteer	-6550
▁blauwe	-6551
▁Tony	-6552
wit	-6553
▁vel	-6554
▁Breng	-6555
▁breng	-6556
▁dirty	-6557
▁toilet	-6558
imum	-6559
tend	-6560
▁500	-6561
▁Ser	-6562
▁hammer	-6563
▁verliezen	-6564
▁dru	-6565
▁hok	-6566
▁zins	-6567
▁ontwikkelings	-6568
▁©	-6569
grootte	-6570
▁fabrieken	-6571
▁double	-6572
▁Tuesday	-6573
▁relatie	-6574
New	-6575
▁wal	-6576
ooft	-6577
▁Jesus	-6578
duce	-6579
▁mas	-6580
oorte	-6581
▁ondersche	-6582
▁Snel	-6583
aint	-6584
ively	-6585
slaan	-6586
▁dance	-6587
▁gewerkt	-6588
lop	-6589
▁Bere	-6590
▁trap	-6591
▁herinn	-6592
▁sociale	-6593
ison	-6594
wijk	-6595
gemeen	-6596
▁verander	-6597
▁Sec	-6598
EV	-6599
middel	-6600
▁chips	-6601
▁Jess	-6602
▁maag	-6603
▁exercise	-6604
ouders	-6605
▁zicht	-6606
▁gedacht	-6607
asten	-6608
▁steun	-6609
▁stier	-6610
▁trekt	-6611
▁complet	-6612
ookie	-6613
▁Verb	-6614
▁shap	-6615
icy	-6616
ilar	-6617
▁ways	-6618
▁North	-6619
▁koopt	-6620
▁economische	-6621
▁onbe	-6622
▁eentje	-6623
▁wearing	-6624
▁uitvoeren	-6625
iggles	-6626
regelen	-6627
▁excuse	-6628
▁pitched	-6629
she	-6630
▁idi	-6631
besch	-6632
sound	-6633
▁boun	-6634
▁coun	-6635
illing	-6636
▁horses	-6637
▁sprake	-6638
▁voeten	-6639
▁fietsen	-6640
▁stopped	-6641
▁shopping	-6642
▁cal	-6643
nemers	-6644
▁onver	-6645
▁staff	-6646
▁gratis	-6647
▁alstublieft	-6648
▁price	-6649
▁getrouwd	-6650
aai	-6651
▁Pe	-6652
▁beloof	-6653
▁kaartje	-6654
▁gedachten	-6655
lin	-6656
tin	-6657
▁Sy	-6658
▁vele	-6659
▁possib	-6660
▁slaven	-6661
▁gehouden	-6662
ushes	-6663
▁draaien	-6664
▁grandma	-6665
ero	-6666
uken	-6667
▁cart	-6668
▁hangen	-6669
▁Dra	-6670
etsen	-6671
▁effects	-6672
ieën	-6673
▁hadn	-6674
▁South	-6675
▁geheel	-6676
▁missen	-6677
▁earlier	-6678
▁gekocht	-6679
▁vertrek	-6680
▁basically	-6681
Best	-6682
▁meal	-6683
rant	-6684
▁Baby	-6685
▁mann	-6686
Waarom	-6687
▁sterke	-6688
▁IJ	-6689
heek	-6690
iety	-6691
▁minstens	-6692
▁Lab	-6693
▁hig	-6694
essor	-6695
immer	-6696
▁uitz	-6697
▁moeite	-6698
▁superm	-6699
▁Fijn	-6700
▁wake	-6701
▁draws	-6702
▁zebra	-6703
▁biologie	-6704
irect	-6705
▁process	-6706
▁revolutie	-6707
▁fort	-6708
▁extre	-6709
▁become	-6710
▁Got	-6711
▁groei	-6712
▁church	-6713
▁secret	-6714
▁decided	-6715
▁politiek	-6716
▁belt	-6717
▁raar	-6718
▁field	-6719
KAT	-6720
eters	-6721
▁kick	-6722
chtend	-6723
▁Excuse	-6724
▁plekken	-6725
▁yo	-6726
rijzen	-6727
▁loves	-6728
▁match	-6729
▁toege	-6730
▁ladder	-6731
▁itself	-6732
LU	-6733
des	-6734
boom	-6735
time	-6736
▁respons	-6737
▁boodschap	-6738
kings	-6739
orpen	-6740
▁vide	-6741
▁Leerd	-6742
▁anywhere	-6743
▁daardoor	-6744
▁keek	-6745
dieren	-6746
▁vaste	-6747
▁bacteriën	-6748
▁dollhouse	-6749
▁lengthened	-6750
▁aantekeningen	-6751
onse	-6752
▁rijt	-6753
▁symb	-6754
▁wild	-6755
▁depen	-6756
▁gewone	-6757
▁unless	-6758
indingen	-6759
▁definitely	-6760
▁merk	-6761
▁circus	-6762
mend	-6763
▁zwart	-6764
▁bijvoeg	-6765
▁protect	-6766
▁schools	-6767
programma	-6768
iënt	-6769
▁plannen	-6770
▁tegelijk	-6771
▁beach	-6772
▁pumpkin	-6773
▁botten	-6774
aans	-6775
▁cijfers	-6776
▁gent	-6777
▁shower	-6778
▁kaartjes	-6779
cles	-6780
pull	-6781
▁Vader	-6782
▁insect	-6783
▁committee	-6784
▁Oxford	-6785
▁vrijheid	-6786
olie	-6787
▁Robert	-6788
wed	-6789
rale	-6790
▁west	-6791
▁zout	-6792
▁arbeids	-6793
▁verdient	-6794
▁controleren	-6795
rap	-6796
▁arme	-6797
▁beoor	-6798
▁sevent	-6799
▁verdeeld	-6800
▁huw	-6801
▁empty	-6802
▁banana	-6803
▁werkloos	-6804
dad	-6805
▁auf	-6806
▁shoul	-6807
▁breath	-6808
▁burger	-6809
▁recept	-6810
▁stukjes	-6811
”.	-6812
▁Rijn	-6813
▁Steve	-6814
▁straf	-6815
ationaal	-6816
▁geschikt	-6817
▁Goedem	-6818
▁verover	-6819
▁speciaal	-6820
▁represent	-6821
▁afsluiting	-6822
▁ta	-6823
▁Vis	-6824
▁carri	-6825
▁kinds	-6826
▁doordat	-6827
▁student	-6828
▁probeerde	-6829
▁samenleving	-6830
uze	-6831
ization	-6832
▁upside	-6833
▁meervoud	-6834
▁chess	-6835
▁details	-6836
▁several	-6837
▁systeem	-6838
▁arbeiders	-6839
▁Jean	-6840
▁bleef	-6841
▁uiter	-6842
▁Parijs	-6843
▁element	-6844
▁stroomt	-6845
cie	-6846
tons	-6847
▁smiles	-6848
richt	-6849
▁Bert	-6850
▁geïn	-6851
▁Kamer	-6852
▁jeugd	-6853
▁princ	-6854
looking	-6855
past	-6856
▁above	-6857
▁Zullen	-6858
▁motion	-6859
▁Indones	-6860
llen	-6861
▁aanv	-6862
idence	-6863
▁overleven	-6864
▁programme	-6865
▁pill	-6866
▁groeit	-6867
▁centraal	-6868
▁feedback	-6869
▁development	-6870
▁Egy	-6871
ional	-6872
▁rook	-6873
plicht	-6874
▁gered	-6875
▁twijf	-6876
▁bergen	-6877
▁aardapp	-6878
▁betaalt	-6879
aim	-6880
▁Lie	-6881
mogelijk	-6882
▁continu	-6883
▁voltooid	-6884
eelt	-6885
continues	-6886
okk	-6887
▁Gu	-6888
meer	-6889
▁mult	-6890
▁simp	-6891
▁koningin	-6892
nacht	-6893
▁chance	-6894
▁success	-6895
cake	-6896
ikker	-6897
viron	-6898
▁mummy	-6899
▁Oorlog	-6900
▁Samenvatten	-6901
heers	-6902
▁birds	-6903
▁Thomas	-6904
▁twaalf	-6905
80	-6906
▁dollars	-6907
▁response	-6908
ref	-6909
valu	-6910
wink	-6911
▁jun	-6912
▁meid	-6913
▁serious	-6914
▁verbrand	-6915
ibr	-6916
▁rijke	-6917
▁President	-6918
lam	-6919
▁Tip	-6920
▁easier	-6921
▁oven	-6922
▁Binnen	-6923
atoes	-6924
▁sees	-6925
▁aardbe	-6926
▁sticks	-6927
▁sterren	-6928
▁&	-6929
▁gren	-6930
▁spin	-6931
▁model	-6932
▁penny	-6933
▁voelde	-6934
▁rekenen	-6935
ftig	-6936
▁Sche	-6937
atteland	-6938
▁voorzichtig	-6939
wise	-6940
▁vaker	-6941
▁stenen	-6942
▁socks	-6943
▁stelt	-6944
▁kleiner	-6945
hol	-6946
▁Jongens	-6947
▁persoonlijk	-6948
▁ess	-6949
gives	-6950
▁Jane	-6951
▁Wist	-6952
eating	-6953
▁Martin	-6954
gebieden	-6955
▁televisie	-6956
vormen	-6957
▁beroep	-6958
▁county	-6959
ID	-6960
chen	-6961
klimaat	-6962
▁flying	-6963
▁drinking	-6964
Bra	-6965
adem	-6966
raid	-6967
babble	-6968
▁partner	-6969
schuld	-6970
▁wort	-6971
elicit	-6972
preten	-6973
▁indic	-6974
▁goederen	-6975
▁Lou	-6976
vriend	-6977
▁Scott	-6978
▁Would	-6979
gl	-6980
reen	-6981
▁smart	-6982
vironment	-6983
▁introduct	-6984
gev	-6985
sych	-6986
▁Cas	-6987
ulier	-6988
▁German	-6989
▁single	-6990
▁opening	-6991
▁schepen	-6992
▁fre	-6993
ceaan	-6994
▁...?	-6995
gekomen	-6996
▁vissen	-6997
▁volledig	-6998
▁mentioned	-6999
▁brug	-7000
▁Gener	-7001
▁feeling	-7002
yle	-7003
elet	-7004
▁Sir	-7005
▁tip	-7006
▁Port	-7007
osc	-7008
rels	-7009
▁BRO	-7010
▁Hop	-7011
beurt	-7012
naast	-7013
▁Berlijn	-7014
kle	-7015
imit	-7016
about	-7017
wacht	-7018
▁nina	-7019
▁older	-7020
▁normally	-7021
▁div	-7022
▁zware	-7023
▁Vandaag	-7024
▁Pot	-7025
uring	-7026
wagen	-7027
▁kantoor	-7028
uits	-7029
▁chem	-7030
izenden	-7031
▁echter	-7032
▁Inv	-7033
ressed	-7034
▁tenminste	-7035
▁experiment	-7036
▁interessant	-7037
▁Bru	-7038
▁Chin	-7039
▁hide	-7040
roeger	-7041
▁cannot	-7042
▁leek	-7043
▁raam	-7044
▁momma	-7045
▁written	-7046
▁ok	-7047
▁dromen	-7048
▁invest	-7049
▁nearly	-7050
▁formule	-7051
▁bracht	-7052
▁hoeven	-7053
▁paarden	-7054
▁ec	-7055
chie	-7056
ribut	-7057
▁milit	-7058
▁Mickey	-7059
▁belong	-7060
▁27	-7061
▁iron	-7062
planten	-7063
tw	-7064
ooien	-7065
▁factoren	-7066
ugust	-7067
▁muis	-7068
▁shut	-7069
48	-7070
abul	-7071
▁meed	-7072
▁wen	-7073
▁remo	-7074
▁issue	-7075
▁column	-7076
▁sixteen	-7077
▁stemmen	-7078
▁accident	-7079
▁platteland	-7080
▁hus	-7081
▁nak	-7082
▁tante	-7083
▁various	-7084
▁impro	-7085
▁Aanbod	-7086
▁lieverd	-7087
materiaal	-7088
▁overeenkomst	-7089
edi	-7090
▁kaas	-7091
▁gaten	-7092
▁squee	-7093
▁Kennis	-7094
▁daarin	-7095
▁schaal	-7096
▁touches	-7097
isters	-7098
punten	-7099
▁slacht	-7100
▁spieren	-7101
▁stelling	-7102
aagd	-7103
▁Elk	-7104
▁Urs	-7105
▁gentle	-7106
▁dichter	-7107
DEM	-7108
▁3:	-7109
▁fuss	-7110
▁wife	-7111
ikbaar	-7112
▁benen	-7113
▁closes	-7114
▁sleutel	-7115
▁vervangen	-7116
elaar	-7117
▁Hand	-7118
▁bits	-7119
▁leaf	-7120
roleer	-7121
▁dolly	-7122
▁digitale	-7123
▁naamwoorden	-7124
kan	-7125
laten	-7126
▁Jose	-7127
▁arrang	-7128
▁favoriet	-7129
▁San	-7130
▁beep	-7131
▁scher	-7132
▁fourteen	-7133
even	-7134
ables	-7135
▁actual	-7136
▁6.	-7137
talk	-7138
▁dek	-7139
▁sum	-7140
▁uitgaven	-7141
entje	-7142
▁angst	-7143
▁risico	-7144
prijs	-7145
banken	-7146
▁afraid	-7147
ells	-7148
▁slaat	-7149
▁CO	-7150
▁boerder	-7151
bon	-7152
maak	-7153
▁blz	-7154
▁toneel	-7155
angle	-7156
▁news	-7157
▁cards	-7158
▁supper	-7159
▁Austral	-7160
▁Grieken	-7161
▁ochtend	-7162
▁kapitein	-7163
▁werkstuk	-7164
▁Jac	-7165
sings	-7166
▁Komt	-7167
▁organen	-7168
▁films	-7169
▁noemt	-7170
▁stoel	-7171
▁driver	-7172
wald	-7173
▁aanb	-7174
▁tray	-7175
▁Sinds	-7176
erschap	-7177
vaardig	-7178
SC	-7179
onken	-7180
▁print	-7181
overlap	-7182
▁Geweldig	-7183
kins	-7184
▁Pooh	-7185
fouten	-7186
▁tiger	-7187
▁Groeps	-7188
HE	-7189
▁geldt	-7190
▁cijfer	-7191
▁farmer	-7192
bor	-7193
sdoel	-7194
▁dien	-7195
AVO	-7196
olang	-7197
▁leider	-7198
▁verkoop	-7199
▁somethin	-7200
brief	-7201
▁schree	-7202
bur	-7203
▁armen	-7204
▁stijl	-7205
▁Aanbodsdoel	-7206
?]	-7207
UNK	-7208
streep	-7209
▁salad	-7210
▁prachtige	-7211
roon	-7212
keren	-7213
bronnen	-7214
▁mogelijkheden	-7215
pak	-7216
Daar	-7217
waarde	-7218
▁tight	-7219
geschreven	-7220
ship	-7221
▁tast	-7222
▁Groot	-7223
▁useta	-7224
▁crisis	-7225
▁tractor	-7226
▁downstairs	-7227
what	-7228
▁died	-7229
▁jobs	-7230
geving	-7231
▁Could	-7232
▁België	-7233
▁coc	-7234
corder	-7235
▁plane	-7236
▁vrede	-7237
centrum	-7238
▁bucket	-7239
▁feiten	-7240
▁verded	-7241
▁zuiden	-7242
eptember	-7243
▁William	-7244
▁eenvoudig	-7245
rikk	-7246
▁Ster	-7247
▁bestude	-7248
erg	-7249
▁Mor	-7250
▁nag	-7251
▁tend	-7252
▁thir	-7253
▁compet	-7254
▁planeet	-7255
▁starting	-7256
Europa	-7257
▁awful	-7258
▁named	-7259
▁resultaten	-7260
coh	-7261
6.	-7262
fol	-7263
▁Yep	-7264
rijft	-7265
▁breed	-7266
▁concur	-7267
▁warmte	-7268
,.	-7269
▁Unie	-7270
ecially	-7271
▁camping	-7272
▁hiervan	-7273
▁geweldige	-7274
▁Dun	-7275
▁schu	-7276
▁minuut	-7277
▁zwemmen	-7278
▁voortplant	-7279
heb	-7280
▁Bi	-7281
thur	-7282
▁bur	-7283
▁productie	-7284
▁organismen	-7285
ipt	-7286
knop	-7287
▁Begin	-7288
▁Toets	-7289
▁keeps	-7290
▁honderd	-7291
▁lk	-7292
▁tar	-7293
▁buik	-7294
▁draagt	-7295
▁Monster	-7296
▁gevangenis	-7297
nic	-7298
onn	-7299
▁28	-7300
ikte	-7301
leet	-7302
▁veren	-7303
▁kruisje	-7304
▁verzamelen	-7305
45	-7306
tie	-7307
▁thee	-7308
▁vloe	-7309
▁yuck	-7310
ocabul	-7311
▁erger	-7312
▁zowel	-7313
rechten	-7314
jar	-7315
▁Aut	-7316
▁gauw	-7317
ondere	-7318
▁verkeerde	-7319
hum	-7320
▁lose	-7321
▁kerel	-7322
▁betrokken	-7323
▁80	-7324
leggen	-7325
plaatst	-7326
▁buttons	-7327
▁loon	-7328
▁dames	-7329
▁television	-7330
ature	-7331
▁noord	-7332
▁geboorte	-7333
▁soap	-7334
▁balls	-7335
▁betre	-7336
▁favour	-7337
elend	-7338
▁diam	-7339
▁Really	-7340
▁gemiddeld	-7341
Die	-7342
set	-7343
kund	-7344
▁mei	-7345
neath	-7346
▁...(	-7347
▁opgel	-7348
▁presenteren	-7349
▁[1]	-7350
▁meow	-7351
▁soep	-7352
uchten	-7353
▁schimm	-7354
▁dressed	-7355
-3	-7356
oph	-7357
gend	-7358
▁blijkt	-7359
rak	-7360
groe	-7361
wijze	-7362
▁fairly	-7363
▁onderste	-7364
jo	-7365
friend	-7366
gestelde	-7367
opp	-7368
rië	-7369
▁prep	-7370
gu	-7371
▁Dar	-7372
▁Kap	-7373
▁hiel	-7374
▁Nathan	-7375
jam	-7376
rees	-7377
vels	-7378
▁veld	-7379
▁neigh	-7380
▁snack	-7381
▁experience	-7382
▁oppervlakte	-7383
hem	-7384
rench	-7385
▁With	-7386
▁wens	-7387
▁wijn	-7388
▁Super	-7389
▁bedre	-7390
▁bladeren	-7391
▁Begrippen	-7392
wen	-7393
ined	-7394
▁opsch	-7395
verhaal	-7396
▁paying	-7397
▁married	-7398
iced	-7399
▁oren	-7400
▁trop	-7401
▁langu	-7402
▁parts	-7403
rekenen	-7404
lyn	-7405
ampen	-7406
▁Turk	-7407
▁verra	-7408
ca	-7409
"",	-7410
▁city	-7411
▁schade	-7412
▁Grammat	-7413
▁vergeet	-7414
15	-7415
▁Az	-7416
▁Zod	-7417
▁Ron	-7418
▁Wilt	-7419
▁psych	-7420
▁harder	-7421
▁maakten	-7422
ora	-7423
▁hay	-7424
ogram	-7425
▁doors	-7426
▁picking	-7427
ipl	-7428
aats	-7429
cohol	-7430
▁kang	-7431
berries	-7432
▁Londen	-7433
▁evening	-7434
▁slightly	-7435
rein	-7436
roat	-7437
▁helps	-7438
▁talks	-7439
▁walked	-7440
▁Daarnaast	-7441
touches	-7442
▁wetenschapp	-7443
isy	-7444
uke	-7445
steen	-7446
▁Norm	-7447
▁boots	-7448
▁missing	-7449
▁specific	-7450
IC	-7451
Amer	-7452
eball	-7453
opter	-7454
▁Your	-7455
▁anal	-7456
▁schak	-7457
▁shakes	-7458
▁husband	-7459
▁underneath	-7460
xide	-7461
▁Sta	-7462
▁lok	-7463
▁pau	-7464
▁Anna	-7465
▁kasteel	-7466
▁bedoeling	-7467
▁cab	-7468
▁dum	-7469
▁snake	-7470
▁vocht	-7471
▁tickle	-7472
▁similar	-7473
gesproken	-7474
▁groepjes	-7475
▁veiligheid	-7476
▁Mal	-7477
▁Mex	-7478
▁oorzaak	-7479
18	-7480
▁FAT	-7481
issel	-7482
utsch	-7483
▁dishes	-7484
▁niveau	-7485
▁Groepsgrootte	-7486
zw	-7487
ita	-7488
loaden	-7489
regels	-7490
document	-7491
▁feestje	-7492
▁vergelijking	-7493
▁pep	-7494
▁Vond	-7495
silver	-7496
houding	-7497
▁26	-7498
▁45	-7499
...?	-7500
▁fork	-7501
▁rondje	-7502
▁Ros	-7503
▁Dave	-7504
▁lead	-7505
▁vreemde	-7506
bak	-7507
balk	-7508
ebru	-7509
▁upon	-7510
▁Labour	-7511
▁betere	-7512
▁Begrepen	-7513
▁services	-7514
IE	-7515
ners	-7516
▁wezen	-7517
▁player	-7518
▁dey	-7519
▁lived	-7520
▁>	-7521
inks	-7522
ograph	-7523
has	-7524
▁Co	-7525
▁opw	-7526
▁pic	-7527
▁sep	-7528
▁medel	-7529
▁computers	-7530
▁hamburger	-7531
▁uitgelegd	-7532
chan	-7533
oose	-7534
▁Bea	-7535
▁richt	-7536
▁rijdt	-7537
▁Johnny	-7538
▁Matthe	-7539
▁Vooral	-7540
▁berekenen	-7541
walk	-7542
▁DNA	-7543
▁gat	-7544
▁Cookie	-7545
▁Chinese	-7546
▁Frans	-7547
▁Karel	-7548
▁colour	-7549
▁tijden	-7550
zil	-7551
unde	-7552
uster	-7553
iteria	-7554
▁raakt	-7555
▁opstand	-7556
pte	-7557
▁Ag	-7558
▁wijs	-7559
genoot	-7560
▁design	-7561
▁histor	-7562
▁scream	-7563
▁Mevrouw	-7564
▁onderwijs	-7565
baan	-7566
erende	-7567
treden	-7568
▁Maggie	-7569
▁bekeken	-7570
▁sticker	-7571
▁welvaart	-7572
▁bespreken	-7573
▁sudden	-7574
▁begrepen	-7575
Rat	-7576
nal	-7577
▁sex	-7578
▁vuil	-7579
▁boxes	-7580
▁steps	-7581
▁sector	-7582
▁thinks	-7583
▁collage	-7584
▁opzoeken	-7585
▁passende	-7586
▁Goedemorgen	-7587
▁gef	-7588
geeft	-7589
quest	-7590
▁magn	-7591
▁ontdek	-7592
▁EXP	-7593
▁Vaak	-7594
▁notice	-7595
▁voornaamwoord	-7596
40	-7597
▁sau	-7598
▁Stra	-7599
▁Simon	-7600
25	-7601
▁35	-7602
▁onaf	-7603
▁Praat	-7604
▁danger	-7605
lle	-7606
udy	-7607
▁bon	-7608
▁doos	-7609
Newman	-7610
Ratner	-7611
▁union	-7612
▁Joseph	-7613
▁higher	-7614
emeester	-7615
▁beschreven	-7616
NewmanRatner	-7617
▁Ok	-7618
▁gestolen	-7619
markt	-7620
▁regelen	-7621
weet	-7622
▁bol	-7623
▁hal	-7624
vecht	-7625
▁gira	-7626
▁waff	-7627
▁Lever	-7628
▁domin	-7629
▁talked	-7630
erdag	-7631
edia	-7632
▁hook	-7633
▁beans	-7634
▁Gewoon	-7635
aves	-7636
hoor	-7637
eelte	-7638
▁forth	-7639
▁scrat	-7640
▁carr	-7641
▁lenen	-7642
▁shapes	-7643
▁voetbal	-7644
▁vertrouw	-7645
▁statement	-7646
▁persoonlijke	-7647
fen	-7648
oli	-7649
▁cy	-7650
eefd	-7651
▁Gal	-7652
▁leen	-7653
agement	-7654
▁tijdje	-7655
▁klootzak	-7656
dier	-7657
▁App	-7658
▁Every	-7659
▁fantastisch	-7660
hang	-7661
vlies	-7662
▁Duitsers	-7663
oris	-7664
▁Roz	-7665
▁reck	-7666
▁warme	-7667
komsten	-7668
▁jumped	-7669
▁quality	-7670
▁tegenover	-7671
▁2,	-7672
▁grabs	-7673
▁salt	-7674
▁sens	-7675
▁enter	-7676
▁cooking	-7677
▁eine	-7678
▁bedrag	-7679
▁degene	-7680
▁rechten	-7681
▁relig	-7682
▁lengte	-7683
▁ontdekt	-7684
▁spannend	-7685
/4	-7686
gn	-7687
aaf	-7688
▁lemme	-7689
▁Twenty	-7690
▁puzzel	-7691
dur	-7692
map	-7693
ura	-7694
vaten	-7695
▁known	-7696
▁normal	-7697
▁gekleur	-7698
▁TV	-7699
romos	-7700
▁gelu	-7701
oets	-7702
▁"."	-7703
▁cash	-7704
▁deep	-7705
▁maal	-7706
▁opger	-7707
▁Voordat	-7708
▁wiskunde	-7709
▁recording	-7710
for	-7711
anges	-7712
▁trip	-7713
trecht	-7714
▁borst	-7715
▁potty	-7716
▁begrippenlijst	-7717
▁alarm	-7718
▁holes	-7719
▁|	-7720
▁sie	-7721
▁rand	-7722
▁prikk	-7723
gedachte	-7724
eemt	-7725
▁esp	-7726
ollen	-7727
ikelen	-7728
gelaten	-7729
▁terrible	-7730
▁bijzondere	-7731
oning	-7732
▁Power	-7733
▁demonstr	-7734
iner	-7735
zaakt	-7736
▁mate	-7737
▁Carol	-7738
▁zagen	-7739
▁eieren	-7740
▁vangen	-7741
▁vaardig	-7742
▁washing	-7743
▁Wor	-7744
▁stok	-7745
▁decide	-7746
/5	-7747
abl	-7748
▁lamb	-7749
ishing	-7750
▁rattle	-7751
▁automat	-7752
▁ann	-7753
pulls	-7754
▁Like	-7755
▁gene	-7756
▁hoed	-7757
▁slachtoff	-7758
ieel	-7759
meel	-7760
pose	-7761
portun	-7762
unwald	-7763
▁Juist	-7764
▁smaak	-7765
▁zulke	-7766
▁beelden	-7767
ED	-7768
ns	-7769
▁Bat	-7770
whines	-7771
▁separ	-7772
▁vracht	-7773
▁Precies	-7774
can	-7775
lymp	-7776
Braunwald	-7777
-4	-7778
hij	-7779
ope	-7780
oluut	-7781
▁Nick	-7782
▁Karen	-7783
▁Univers	-7784
▁afspraken	-7785
▁Vroeger	-7786
▁gebroken	-7787
bef	-7788
onds	-7789
used	-7790
ommend	-7791
▁atlas	-7792
▁Thanks	-7793
▁ineens	-7794
▁marker	-7795
▁opened	-7796
gebracht	-7797
plaatsen	-7798
ifer	-7799
ires	-7800
roep	-7801
ictie	-7802
night	-7803
istisch	-7804
▁bridge	-7805
▁werking	-7806
agn	-7807
▁36	-7808
alis	-7809
hangen	-7810
▁April	-7811
▁onzin	-7812
▁grenzen	-7813
orven	-7814
▁zover	-7815
▁relation	-7816
▁thirteen	-7817
▁samenwerking	-7818
geen	-7819
▁platte	-7820
WO	-7821
oty	-7822
sigh	-7823
strom	-7824
▁ship	-7825
▁Griek	-7826
▁ernst	-7827
▁winst	-7828
▁Tussen	-7829
▁liedje	-7830
▁functies	-7831
▁wonderful	-7832
▁environment	-7833
▁Cons	-7834
▁klok	-7835
▁pian	-7836
throws	-7837
▁batht	-7838
▁scary	-7839
▁leiding	-7840
▁increase	-7841
▁Leerdoelen	-7842
▁maatregelen	-7843
17	-7844
ena	-7845
...)	-7846
Kijk	-7847
▁Mus	-7848
▁City	-7849
▁infl	-7850
▁spier	-7851
▁Ry	-7852
agne	-7853
▁poo	-7854
▁nods	-7855
ounced	-7856
▁total	-7857
▁Moeder	-7858
▁verboden	-7859
▁fa	-7860
gress	-7861
ology	-7862
▁Four	-7863
rolijk	-7864
▁shout	-7865
▁slice	-7866
sluiten	-7867
▁Matthew	-7868
▁Abs	-7869
▁centre	-7870
▁born	-7871
coughs	-7872
▁knife	-7873
▁leraar	-7874
▁gestuurd	-7875
fte	-7876
▁koek	-7877
▁spoons	-7878
▁stuffed	-7879
▁afhankelijk	-7880
disc	-7881
este	-7882
▁1,5	-7883
▁Fin	-7884
▁chap	-7885
▁behoe	-7886
▁Utrecht	-7887
▁concentr	-7888
óó	-7889
▁Pa	-7890
aptop	-7891
▁avail	-7892
opgaven	-7893
▁tegenwoordig	-7894
▁•	-7895
bled	-7896
▁zint	-7897
▁twice	-7898
▁vocabul	-7899
▁oplossen	-7900
▁directeur	-7901
/2	-7902
▁Mod	-7903
▁ijzer	-7904
▁scherm	-7905
▁register	-7906
▁voedingsstoffen	-7907
omi	-7908
ser	-7909
Unie	-7910
beerd	-7911
moeder	-7912
▁overtuigen	-7913
▁regelmatig	-7914
reis	-7915
▁Prof	-7916
▁groups	-7917
▁district	-7918
▁language	-7919
▁Sk	-7920
▁rollen	-7921
▁voorsp	-7922
▁bekijkt	-7923
▁serieus	-7924
▁vanwege	-7925
emd	-7926
corn	-7927
▁Kop	-7928
▁bril	-7929
▁prakt	-7930
▁verbeteren	-7931
lor	-7932
ians	-7933
olon	-7934
▁lijnen	-7935
▁koolstof	-7936
case	-7937
▁Vijf	-7938
▁[$=1	-7939
▁touw	-7940
▁India	-7941
▁bewon	-7942
▁charge	-7943
▁aantrek	-7944
▁imagine	-7945
▁wetenschap	-7946
mber	-7947
opens	-7948
▁gift	-7949
▁pair	-7950
▁confl	-7951
Bestand	-7952
bericht	-7953
▁opportun	-7954
IJ	-7955
▁Six	-7956
▁Jimmy	-7957
▁apples	-7958
▁cowboy	-7959
▁plates	-7960
▁showing	-7961
▁winkels	-7962
▁spelling	-7963
▁education	-7964
9.	-7965
ady	-7966
zorg	-7967
▁...'	-7968
▁arch	-7969
▁includ	-7970
▁switch	-7971
▁Samenvattend	-7972
ola	-7973
pict	-7974
ruck	-7975
▁Moo	-7976
arily	-7977
▁Koning	-7978
▁Potato	-7979
▁carrot	-7980
▁folder	-7981
▁middag	-7982
▁gegeten	-7983
▁nummers	-7984
▁ontwerp	-7985
▁Indonesië	-7986
▁shoot	-7987
▁ontvangen	-7988
Mijn	-7989
olly	-7990
orter	-7991
rische	-7992
▁bless	-7993
▁heerlijk	-7994
▁veroorzaakt	-7995
▁Ü	-7996
▁elf	-7997
oking	-7998
▁claim	-7999
▁Midden	-8000
▁seeing	-8001
▁trucks	-8002
▁briefly	-8003
▁Gere	-8004
▁muff	-8005
baarheid	-8006
▁geraakt	-8007
▁mooiste	-8008
▁taalfouten	-8009
stal	-8010
▁Verl	-8011
▁vill	-8012
▁Arthur	-8013
▁tongue	-8014
▁address	-8015
eliciteerd	-8016
▁Bos	-8017
▁cand	-8018
ody	-8019
▁adm	-8020
▁pow	-8021
▁Park	-8022
▁blind	-8023
inkrijk	-8024
▁Eigenlijk	-8025
imme	-8026
rukt	-8027
▁Jer	-8028
▁mes	-8029
▁quid	-8030
▁goden	-8031
▁minus	-8032
▁centrum	-8033
▁nadenken	-8034
ba	-8035
urele	-8036
▁jurk	-8037
▁wolf	-8038
tussen	-8039
▁Prima	-8040
▁klass	-8041
▁skelet	-8042
▁concurr	-8043
▁opnemen	-8044
▁onderweg	-8045
▁recommend	-8046
ales	-8047
▁bin	-8048
halve	-8049
▁Road	-8050
▁evenw	-8051
▁fixed	-8052
adering	-8053
▁honest	-8054
▁Overleg	-8055
▁besloten	-8056
▁gebruikte	-8057
▁oce	-8058
▁emot	-8059
▁initi	-8060
▁aanbod	-8061
▁werkte	-8062
TD	-8063
maals	-8064
etting	-8065
web	-8066
▁enz	-8067
▁Ging	-8068
▁Weer	-8069
▁bier	-8070
▁Andrew	-8071
▁Mister	-8072
otterdam	-8073
ROG	-8074
ify	-8075
mes	-8076
issa	-8077
eleid	-8078
▁King	-8079
▁fill	-8080
▁toel	-8081
vember	-8082
▁Hoezo	-8083
▁state	-8084
▁changes	-8085
▁verdriet	-8086
▁completely	-8087
ilde	-8088
▁dame	-8089
rument	-8090
▁nadat	-8091
▁zaten	-8092
▁appear	-8093
▁follow	-8094
pretends	-8095
▁bevrucht	-8096
▁direction	-8097
,,	-8098
woud	-8099
imeter	-8100
▁proced	-8101
▁stress	-8102
▁westen	-8103
VI	-8104
▁Maj	-8105
▁gram	-8106
▁koude	-8107
LIN	-8108
▁Past	-8109
winkel	-8110
▁goeie	-8111
▁sky	-8112
▁data	-8113
▁horm	-8114
▁meiden	-8115
partment	-8116
▁goedkop	-8117
▁conclusie	-8118
▁boodschappen	-8119
4.	-8120
▁Rad	-8121
actie	-8122
shows	-8123
▁kolom	-8124
▁rennen	-8125
▁schatje	-8126
▁twintig	-8127
ores	-8128
▁ast	-8129
▁rit	-8130
antal	-8131
▁voer	-8132
▁Little	-8133
▁schilderij	-8134
ira	-8135
mel	-8136
▁Rom	-8137
▁grij	-8138
▁partijen	-8139
▁favoriete	-8140
enth	-8141
▁Put	-8142
ocial	-8143
▁pakt	-8144
ission	-8145
▁Start	-8146
▁debat	-8147
▁gemeente	-8148
voed	-8149
▁dial	-8150
▁materi	-8151
▁return	-8152
bu	-8153
bye	-8154
aven	-8155
nemer	-8156
▁darm	-8157
▁wees	-8158
▁needed	-8159
▁geregeld	-8160
ays	-8161
▁Hart	-8162
▁none	-8163
▁ramp	-8164
▁seconds	-8165
▁Rotterdam	-8166
pad	-8167
▁0,5	-8168
▁hate	-8169
systeem	-8170
hi	-8171
iture	-8172
▁bewijs	-8173
▁alcohol	-8174
▁calling	-8175
▁industrie	-8176
▁geprobeerd	-8177
izes	-8178
will	-8179
zocht	-8180
▁cats	-8181
▁robot	-8182
▁bureau	-8183
KEN	-8184
icle	-8185
friger	-8186
pagina	-8187
▁heten	-8188
▁prinses	-8189
iant	-8190
uiling	-8191
▁streng	-8192
▁bathtub	-8193
▁surprised	-8194
70	-8195
ekker	-8196
▁Gaan	-8197
▁miles	-8198
▁sorts	-8199
▁invullen	-8200
▁Controleer	-8201
lu	-8202
▁enqu	-8203
▁Angel	-8204
ouncill	-8205
▁section	-8206
ère	-8207
zuur	-8208
▁Emma	-8209
▁Marc	-8210
ballen	-8211
▁opgenomen	-8212
,""	-8213
RIC	-8214
▁Gem	-8215
▁Test	-8216
▁Eddie	-8217
▁adres	-8218
▁gooien	-8219
▁verdie	-8220
▁structure	-8221
Is	-8222
unts	-8223
▁gedood	-8224
▁vinger	-8225
▁stomach	-8226
▁gum	-8227
▁East	-8228
itions	-8229
▁Bereken	-8230
▁oorzaken	-8231
pap	-8232
▁opp	-8233
▁droge	-8234
▁hoofdlet	-8235
iler	-8236
ensie	-8237
ified	-8238
oring	-8239
▁STAP	-8240
▁magaz	-8241
▁gehoor	-8242
▁Helemaal	-8243
cin	-8244
▁?[	-8245
▁Goede	-8246
▁voren	-8247
ety	-8248
▁Vier	-8249
▁Polen	-8250
▁Andere	-8251
▁kathol	-8252
▁baseball	-8253
EG	-8254
▁Spe	-8255
▁Zee	-8256
▁bran	-8257
▁cast	-8258
athing	-8259
groepen	-8260
geslagen	-8261
nonspeech	-8262
▁available	-8263
'...	-8264
omde	-8265
tering	-8266
▁huilen	-8267
▁longen	-8268
▁vulkaan	-8269
▁huwelijk	-8270
▁reageren	-8271
vle	-8272
kker	-8273
▁Nat	-8274
▁doo	-8275
▁clip	-8276
ashion	-8277
▁beper	-8278
▁sites	-8279
igratie	-8280
▁finally	-8281
▁construct	-8282
zijd	-8283
▁Maria	-8284
▁worst	-8285
▁jacket	-8286
itted	-8287
▁copy	-8288
▁krit	-8289
▁ware	-8290
▁Visit	-8291
▁platen	-8292
▁knocked	-8293
▁aanwezig	-8294
▁function	-8295
Dan	-8296
▁sea	-8297
▁stayed	-8298
▁opposite	-8299
▁‘	-8300
aap	-8301
▁GT	-8302
▁huur	-8303
▁picnic	-8304
▁pulling	-8305
▁verschrikk	-8306
zinn	-8307
▁Voer	-8308
▁harde	-8309
▁reckon	-8310
▁daughter	-8311
▁Char	-8312
▁dode	-8313
▁lieve	-8314
▁member	-8315
▁verhuizen	-8316
▁Tre	-8317
▁Brook	-8318
▁leden	-8319
▁rente	-8320
▁verwerkt	-8321
▁Ged	-8322
▁fra	-8323
anker	-8324
earch	-8325
istert	-8326
frigerator	-8327
▁Voorbeelden	-8328
▁weergegeven	-8329
ulk	-8330
feer	-8331
gebre	-8332
▁burn	-8333
▁overw	-8334
▁command	-8335
▁decision	-8336
▁insecten	-8337
▁baa	-8338
logen	-8339
▁bill	-8340
▁dert	-8341
▁Ernie	-8342
▁allen	-8343
▁evalu	-8344
▁Kinder	-8345
▁community	-8346
▁situaties	-8347
▁verdwenen	-8348
▁zond	-8349
▁gebeld	-8350
▁simply	-8351
▁behalve	-8352
rafen	-8353
verse	-8354
▁boord	-8355
▁piggy	-8356
▁Fraser	-8357
▁action	-8358
▁continue	-8359
▁ü	-8360
unct	-8361
▁Serv	-8362
eerden	-8363
ulance	-8364
▁papers	-8365
▁manager	-8366
▁bevatten	-8367
▁Carl	-8368
▁Pete	-8369
▁beer	-8370
voering	-8371
▁hoogste	-8372
▁moeilijke	-8373
zone	-8374
▁Sal	-8375
▁bark	-8376
▁golf	-8377
▁zakken	-8378
▁schreef	-8379
▁dichtbij	-8380
▁Beschrijf	-8381
▁verhaaltje	-8382
lt	-8383
▁fat	-8384
▁yeh	-8385
field	-8386
▁Shem	-8387
▁fits	-8388
▁nurs	-8389
▁hurry	-8390
▁laptop	-8391
▁seemed	-8392
▁spread	-8393
indy	-8394
▁woonden	-8395
▁rap	-8396
▁sink	-8397
▁profession	-8398
li	-8399
▁kg	-8400
izoen	-8401
▁gold	-8402
▁Robin	-8403
giggles	-8404
▁choice	-8405
▁grotere	-8406
▁samenwerken	-8407
);	-8408
▁_	-8409
belt	-8410
▁Bye	-8411
▁eic	-8412
▁mid	-8413
▁kont	-8414
▁advoc	-8415
▁likely	-8416
▁spreekbeurt	-8417
alo	-8418
pten	-8419
▁McD	-8420
▁leid	-8421
arning	-8422
▁Sally	-8423
genheid	-8424
▁tunnel	-8425
▁herinneren	-8426
kie	-8427
wood	-8428
▁kip	-8429
▁knap	-8430
▁skin	-8431
picture	-8432
▁idioot	-8433
▁staart	-8434
▁bewoners	-8435
▁gebouwen	-8436
▁verdwijnen	-8437
cry	-8438
▁bem	-8439
ictor	-8440
pushes	-8441
▁vieren	-8442
▁werkloosheid	-8443
▁woordenlijst	-8444
▁7.	-8445
▁1000	-8446
▁opgeb	-8447
▁prijzen	-8448
▁websites	-8449
▁burgemeester	-8450
Voor	-8451
aroo	-8452
merk	-8453
oween	-8454
zamel	-8455
risten	-8456
uleren	-8457
▁arbeid	-8458
▁rijtje	-8459
▁uitdag	-8460
▁personal	-8461
▁boerderij	-8462
▁gezondheid	-8463
cra	-8464
Niet	-8465
iedt	-8466
rupt	-8467
light	-8468
▁fries	-8469
▁throat	-8470
▁especially	-8471
chair	-8472
▁Volg	-8473
▁quiz	-8474
Mother	-8475
handel	-8476
idelijke	-8477
▁Raymond	-8478
▁hierheen	-8479
▁beschrijving	-8480
On	-8481
▁Olymp	-8482
▁feels	-8483
▁uncle	-8484
▁riding	-8485
▁optreden	-8486
▁vriendje	-8487
kiss	-8488
▁Win	-8489
▁crash	-8490
▁wrote	-8491
▁afford	-8492
▁$	-8493
óór	-8494
lich	-8495
cript	-8496
▁Hoog	-8497
▁Stil	-8498
▁whee	-8499
gedaan	-8500
▁duren	-8501
▁hobby	-8502
erecorder	-8503
▁gebeurtenis	-8504
▁La	-8505
haar	-8506
▁beest	-8507
holding	-8508
▁character	-8509
GMA	-8510
vast	-8511
rukte	-8512
▁...,	-8513
afdruk	-8514
▁tells	-8515
▁United	-8516
▁hiding	-8517
▁stomme	-8518
▁verkie	-8519
wa	-8520
CLI	-8521
iev	-8522
ipping	-8523
▁asleep	-8524
▁mochten	-8525
aurs	-8526
▁Lar	-8527
▁jan	-8528
▁spent	-8529
▁princip	-8530
▁verkeer	-8531
▁snelheid	-8532
▁inderdaad	-8533
?""	-8534
keer	-8535
otten	-8536
soort	-8537
▁aanval	-8538
▁levend	-8539
▁moderne	-8540
▁regular	-8541
▁Excuseer	-8542
▁tijdschrift	-8543
rick	-8544
▁Gef	-8545
▁Bloed	-8546
▁gemist	-8547
▁fragment	-8548
▁meenemen	-8549
zal	-8550
bord	-8551
▁195	-8552
▁heu	-8553
veilig	-8554
▁spaar	-8555
▁affect	-8556
sdag	-8557
▁Nor	-8558
ching	-8559
ropri	-8560
▁repe	-8561
▁Donald	-8562
▁cirkel	-8563
ingo	-8564
▁Mer	-8565
▁exist	-8566
▁snoep	-8567
▁management	-8568
mis	-8569
club	-8570
▁mop	-8571
versch	-8572
soorten	-8573
▁Nathaniel	-8574
▁—	-8575
▁las	-8576
under	-8577
uckles	-8578
▁stonden	-8579
verdeling	-8580
▁maximaal	-8581
▁verwerken	-8582
GR	-8583
Van	-8584
▁fro	-8585
▁rat	-8586
▁Susan	-8587
▁openen	-8588
▁verplicht	-8589
Home	-8590
nect	-8591
rijg	-8592
▁previous	-8593
▁stir	-8594
▁calls	-8595
▁miljard	-8596
▁natuurlijke	-8597
▁shot	-8598
ochten	-8599
▁koken	-8600
▁Geloof	-8601
▁client	-8602
▁settlement	-8603
▁strawberry	-8604
bow	-8605
▁chew	-8606
boeken	-8607
▁stove	-8608
▁gasten	-8609
▁Present	-8610
▁deliver	-8611
▁bewijzen	-8612
assa	-8613
▁Nap	-8614
tract	-8615
▁Nooit	-8616
▁Party	-8617
▁overd	-8618
▁behoor	-8619
▁luistert	-8620
▁mogelijke	-8621
▁198	-8622
▁emb	-8623
▁pony	-8624
▁Leven	-8625
▁treat	-8626
▁Spreek	-8627
▁advies	-8628
ala	-8629
mal	-8630
pend	-8631
▁Hol	-8632
▁chim	-8633
▁zuid	-8634
▁pir	-8635
▁dish	-8636
▁bewust	-8637
▁gelooft	-8638
▁veranderingen	-8639
▁akk	-8640
achen	-8641
iform	-8642
▁Linda	-8643
▁massa	-8644
▁Gereed	-8645
▁ontbij	-8646
▁klanten	-8647
dro	-8648
▁Lot	-8649
▁Bent	-8650
▁studie	-8651
▁jumping	-8652
▁gedeelte	-8653
▁possibly	-8654
cr	-8655
ami	-8656
eik	-8657
pol	-8658
ups	-8659
cray	-8660
▁bum	-8661
mogen	-8662
usten	-8663
▁cows	-8664
▁Kerst	-8665
iteiten	-8666
▁letten	-8667
▁Informatie	-8668
▁onderzoeks	-8669
krant	-8670
▁rubber	-8671
▁spider	-8672
▁pension	-8673
▁godsdienst	-8674
DIS	-8675
▁tim	-8676
▁saus	-8677
▁toes	-8678
▁halve	-8679
▁moord	-8680
pensive	-8681
▁rooster	-8682
eke	-8683
iten	-8684
▁Ach	-8685
▁2013	-8686
▁enth	-8687
▁phot	-8688
bestand	-8689
▁gewicht	-8690
▁potatoes	-8691
▁miljoenen	-8692
▁tegenwoordige	-8693
col	-8694
▁Ir	-8695
▁196	-8696
▁fle	-8697
endom	-8698
▁vote	-8699
▁weird	-8700
▁liefst	-8701
matische	-8702
▁dancing	-8703
▁popcorn	-8704
▁policeman	-8705
▁uitspraak	-8706
7.	-8707
apped	-8708
▁rare	-8709
▁meten	-8710
▁attack	-8711
▁hiermee	-8712
▁supermarkt	-8713
▁due	-8714
▁menu	-8715
▁breken	-8716
▁totdat	-8717
▁excited	-8718
tegenwoord	-8719
▁Inleiding	-8720
▁provincie	-8721
▁verandering	-8722
onna	-8723
iefde	-8724
arming	-8725
▁vroom	-8726
ïnvloed	-8727
▁consument	-8728
):	-8729
mic	-8730
kamp	-8731
omer	-8732
▁jud	-8733
asons	-8734
▁Vers	-8735
▁applic	-8736
▁nachts	-8737
▁American	-8738
▁gym	-8739
uzzel	-8740
▁Meester	-8741
▁dinosaurs	-8742
Lees	-8743
eegt	-8744
icul	-8745
▁Stan	-8746
▁mole	-8747
▁weight	-8748
▁grammat	-8749
▁complete	-8750
Zo	-8751
comm	-8752
▁nur	-8753
▁von	-8754
aakte	-8755
diary	-8756
▁Cour	-8757
▁Deed	-8758
▁Brown	-8759
▁taart	-8760
▁missie	-8761
▁Begrijp	-8762
▁Christus	-8763
▁Kinderen	-8764
▁geheugen	-8765
▁Onderzoek	-8766
▁Grammatica	-8767
▁Kw	-8768
laat	-8769
▁Dor	-8770
▁Stu	-8771
▁[13	-8772
▁rom	-8773
▁wide	-8774
cheiden	-8775
▁cadeau	-8776
▁Grandma	-8777
▁telkens	-8778
▁maatschappij	-8779
dagen	-8780
known	-8781
▁cust	-8782
▁rough	-8783
▁bereikt	-8784
▁leefden	-8785
▁huiswerk	-8786
▁otherwise	-8787
fe	-8788
cho	-8789
school	-8790
▁Kevin	-8791
▁doubt	-8792
▁dozen	-8793
▁voert	-8794
▁Britain	-8795
▁smaller	-8796
▁grondwet	-8797
▁werkelijkheid	-8798
irit	-8799
▁INV	-8800
▁kok	-8801
▁rad	-8802
akers	-8803
▁wagen	-8804
▁Italië	-8805
▁Victor	-8806
▁illust	-8807
▁magnets	-8808
▁toeristen	-8809
▁hoofdgedachte	-8810
▁Kor	-8811
▁odd	-8812
kring	-8813
▁allow	-8814
▁Anyway	-8815
verzeker	-8816
▁onthouden	-8817
▁beschikbaar	-8818
▁Ur	-8819
▁study	-8820
▁tools	-8821
▁altern	-8822
▁modern	-8823
▁noticed	-8824
▁triangle	-8825
⌉?	-8826
]⌋.	-8827
fig	-8828
▁70	-8829
vlie	-8830
etter	-8831
▁Green	-8832
▁mijne	-8833
▁trunk	-8834
▁teleur	-8835
▁dubbele	-8836
▁zaterdag	-8837
ih	-8838
asie	-8839
foto	-8840
▁exp	-8841
thern	-8842
scream	-8843
▁Marie	-8844
▁leidt	-8845
▁schild	-8846
▁lijstje	-8847
▁wo	-8848
ware	-8849
nieuw	-8850
ellijk	-8851
▁Staat	-8852
▁ducks	-8853
▁authority	-8854
▁individual	-8855
ims	-8856
▁li	-8857
zels	-8858
▁Ons	-8859
▁These	-8860
▁newsp	-8861
▁beïnvloed	-8862
auff	-8863
▁fru	-8864
▁raak	-8865
icious	-8866
matige	-8867
▁Recht	-8868
persoon	-8869
▁brings	-8870
▁bekende	-8871
▁duizend	-8872
▁methode	-8873
▁plaatsv	-8874
▁Kapitein	-8875
▁Bon	-8876
▁Dood	-8877
▁repl	-8878
▁costs	-8879
▁haast	-8880
▁choose	-8881
▁kangaroo	-8882
▁bestudeer	-8883
▁hoofdstad	-8884
vey	-8885
▁Niks	-8886
▁dict	-8887
▁pond	-8888
▁pops	-8889
▁eisen	-8890
▁lacht	-8891
▁vullen	-8892
demonstr	-8893
▁totally	-8894
▁landschap	-8895
cou	-8896
dri	-8897
▁mol	-8898
▁Meest	-8899
▁earth	-8900
▁pillow	-8901
▁handels	-8902
▁duidelijke	-8903
▁irr	-8904
▁chip	-8905
▁lijk	-8906
▁Niger	-8907
Schrijf	-8908
▁dachten	-8909
▁klimaten	-8910
▁surprise	-8911
▁expensive	-8912
▁everywhere	-8913
▁fris	-8914
▁safe	-8915
Amerika	-8916
▁arrangement	-8917
▁omstandigheden	-8918
▁por	-8919
▁Excel	-8920
▁pulled	-8921
▁families	-8922
▁hierboven	-8923
▁strawberries	-8924
vy	-8925
ega	-8926
kwam	-8927
ocks	-8928
▁Has	-8929
▁Val	-8930
▁Zit	-8931
▁range	-8932
removes	-8933
▁strange	-8934
▁comments	-8935
▁getekend	-8936
za	-8937
volg	-8938
▁hut	-8939
auffeur	-8940
▁bevolkings	-8941
▁]	-8942
▁verzet	-8943
urance	-8944
genoten	-8945
▁Oosten	-8946
▁bespreek	-8947
▁artikelen	-8948
opl	-8949
▁Log	-8950
▁Via	-8951
ffort	-8952
▁wolken	-8953
▁voorwerpen	-8954
],	-8955
how	-8956
bliot	-8957
Opgave	-8958
▁Jacob	-8959
▁drugs	-8960
▁vecht	-8961
▁alweer	-8962
▁dagelijks	-8963
▁ontdekken	-8964
▁aangegeven	-8965
omt	-8966
▁pi	-8967
iley	-8968
▁Tex	-8969
tocht	-8970
▁ours	-8971
▁rang	-8972
zaamheid	-8973
▁tank	-8974
▁final	-8975
▁wetten	-8976
▁wisten	-8977
▁zwaard	-8978
▁carrots	-8979
▁;	-8980
▁[.7	-8981
▁woke	-8982
▁Schat	-8983
▁opeens	-8984
▁America	-8985
▁housing	-8986
▁ordered	-8987
▁eindtoets	-8988
juist	-8989
raven	-8990
starts	-8991
▁mater	-8992
▁occas	-8993
▁vocal	-8994
▁onmogelijk	-8995
19	-8996
ban	-8997
iana	-8998
broek	-8999
▁knees	-9000
▁Deutsch	-9001
▁ambulance	-9002
SA	-9003
sey	-9004
ival	-9005
leed	-9006
▁Voed	-9007
speechplay	-9008
word	-9009
▁disapp	-9010
▁cupcake	-9011
▁Kennisbanken	-9012
meld	-9013
lecht	-9014
▁HAVO	-9015
▁Vrij	-9016
▁cheap	-9017
▁stierf	-9018
▁welkom	-9019
▁geslachts	-9020
▁tweetallen	-9021
▁makkelijker	-9022
)?	-9023
▁Morgan	-9024
▁leveren	-9025
▁onderbouw	-9026
sem	-9027
▁pod	-9028
▁Head	-9029
▁teveel	-9030
▁organisme	-9031
ench	-9032
umpt	-9033
▁tak	-9034
▁grab	-9035
beelding	-9036
▁zwembad	-9037
ANN	-9038
week	-9039
▁Del	-9040
▁row	-9041
achel	-9042
bevol	-9043
ctors	-9044
gever	-9045
zovoor	-9046
▁Brazil	-9047
▁ontstond	-9048
▁springen	-9049
▁aanpassen	-9050
▁vocabulary	-9051
▁29	-9052
▁soc	-9053
lezen	-9054
▁gate	-9055
▁worse	-9056
▁Ursula	-9057
▁giraffe	-9058
▁verbeter	-9059
▁Alstublieft	-9060
uari	-9061
ukte	-9062
▁Tel	-9063
▁Jeff	-9064
▁foss	-9065
deling	-9066
▁stopt	-9067
▁provide	-9068
▁Hierdoor	-9069
▁teachers	-9070
▁duizenden	-9071
-5	-9072
gon	-9073
▁note	-9074
▁panc	-9075
▁cloth	-9076
▁financ	-9077
▁koeien	-9078
ropriate	-9079
▁gevecht	-9080
whispering	-9081
▁bloedcellen	-9082
▁po	-9083
▁durf	-9084
▁eraf	-9085
▁Black	-9086
▁volume	-9087
▁brieven	-9088
estigator	-9089
▁apparaat	-9090
▁Nederlanden	-9091
▁Mu	-9092
icycle	-9093
▁gimme	-9094
▁piano	-9095
hington	-9096
▁Doctor	-9097
▁comfort	-9098
▁pushing	-9099
▁generaal	-9100
▁waarvoor	-9101
▁taperecorder	-9102
EVA	-9103
ieer	-9104
▁beat	-9105
▁uren	-9106
▁spiegel	-9107
▁democratie	-9108
itut	-9109
omin	-9110
otype	-9111
▁Coll	-9112
▁donder	-9113
gehouden	-9114
▁geheime	-9115
▁leaving	-9116
outs	-9117
▁cro	-9118
istof	-9119
staand	-9120
▁squeak	-9121
▁nadelen	-9122
▁krachten	-9123
▁(2	-9124
▁Ob	-9125
oond	-9126
▁zaden	-9127
▁common	-9128
▁vanzelf	-9129
▁pensioen	-9130
▁practice	-9131
rens	-9132
▁cha	-9133
▁nek	-9134
▁uses	-9135
ringen	-9136
▁track	-9137
▁afsche	-9138
controle	-9139
▁Ve	-9140
iere	-9141
▁Eth	-9142
▁vit	-9143
hoofd	-9144
emaakt	-9145
▁aware	-9146
▁finan	-9147
▁stijgt	-9148
▁schelen	-9149
▁constant	-9150
ona	-9151
▁300	-9152
▁Scot	-9153
▁rate	-9154
▁below	-9155
▁buying	-9156
bury	-9157
erve	-9158
epaal	-9159
these	-9160
uther	-9161
utter	-9162
▁Stud	-9163
aliteit	-9164
▁National	-9165
▁uitgevoerd	-9166
ago	-9167
▁noch	-9168
kennen	-9169
▁verle	-9170
ooflijk	-9171
▁drawer	-9172
▁pushed	-9173
atherine	-9174
Gel	-9175
ede	-9176
urf	-9177
athy	-9178
gier	-9179
olom	-9180
▁Mind	-9181
▁imit	-9182
abriek	-9183
▁Bijna	-9184
▁tummy	-9185
▁vleug	-9186
▁levert	-9187
▁appoint	-9188
▁benefit	-9189
▁backwards	-9190
▁verklaren	-9191
▁(=	-9192
arch	-9193
wers	-9194
▁bod	-9195
▁glob	-9196
enties	-9197
▁Easter	-9198
▁export	-9199
34	-9200
aagt	-9201
▁2000	-9202
▁nick	-9203
▁lucky	-9204
▁nature	-9205
discards	-9206
▁armoede	-9207
▁windows	-9208
▁Daarvoor	-9209
▁Üb	-9210
sighs	-9211
▁Koude	-9212
▁bubbles	-9213
▁eindigt	-9214
▁doorgaan	-9215
del	-9216
ida	-9217
oper	-9218
▁Dou	-9219
▁Ren	-9220
▁Form	-9221
▁Wind	-9222
limaat	-9223
▁Naast	-9224
▁sheet	-9225
▁wooden	-9226
▁brandstof	-9227
▁evenwicht	-9228
Ver	-9229
▁Ham	-9230
▁tire	-9231
▁grown	-9232
▁wegge	-9233
▁assist	-9234
▁Holland	-9235
▁gevoelen	-9236
▁toestemming	-9237
75	-9238
rimin	-9239
▁Piet	-9240
middag	-9241
oefening	-9242
▁Amerikanen	-9243
VIR	-9244
gent	-9245
▁Mir	-9246
▁2012	-9247
▁kilo	-9248
blijven	-9249
▁gouden	-9250
''	-9251
dog	-9252
som	-9253
▁Art	-9254
cious	-9255
driver	-9256
▁besta	-9257
▁bezit	-9258
▁klank	-9259
▁pauze	-9260
▁slaapt	-9261
▁Meestal	-9262
▁motorcy	-9263
wol	-9264
fully	-9265
▁load	-9266
▁Famil	-9267
▁boter	-9268
▁sides	-9269
▁plenty	-9270
▁voldoen	-9271
▁Bovendien	-9272
▁8.	-9273
izing	-9274
atters	-9275
▁speed	-9276
▁drinks	-9277
▁sleepy	-9278
▁komende	-9279
▁bezoeken	-9280
▁overstrom	-9281
▁plattegrond	-9282
COU	-9283
▁4:	-9284
samen	-9285
▁opgew	-9286
▁lossen	-9287
▁European	-9288
▁sentence	-9289
▁gevoelens	-9290
US	-9291
gek	-9292
voert	-9293
▁Crom	-9294
▁file	-9295
▁Colin	-9296
▁Steven	-9297
▁stelen	-9298
▁briefje	-9299
ugs	-9300
baby	-9301
kool	-9302
▁Hem	-9303
▁libr	-9304
▁Momma	-9305
▁Speel	-9306
▁roken	-9307
▁shift	-9308
angrijk	-9309
waarden	-9310
▁birdie	-9311
▁scholen	-9312
▁behandeld	-9313
▁zenuwstelsel	-9314
▁Der	-9315
▁jam	-9316
▁plak	-9317
aptain	-9318
▁sharp	-9319
▁vierde	-9320
onounced	-9321
▁afkomst	-9322
▁microsc	-9323
mos	-9324
clip	-9325
▁onv	-9326
▁sail	-9327
denten	-9328
uurlijk	-9329
▁katten	-9330
volution	-9331
boot	-9332
intje	-9333
moord	-9334
▁sock	-9335
▁Mandy	-9336
▁strom	-9337
achelijk	-9338
▁figuren	-9339
▁patient	-9340
EX	-9341
▁3,	-9342
stap	-9343
▁cit	-9344
▁Kent	-9345
▁geel	-9346
▁Di	-9347
▁hoo	-9348
▁buzz	-9349
andering	-9350
▁eenmaal	-9351
▁waarschuw	-9352
AL	-9353
rey	-9354
lace	-9355
elder	-9356
irsty	-9357
▁furn	-9358
▁schr	-9359
▁Billy	-9360
▁bears	-9361
▁expert	-9362
▁roepen	-9363
▁januari	-9364
▁trouwens	-9365
egen	-9366
text	-9367
▁Rem	-9368
ially	-9369
ogels	-9370
▁Soph	-9371
▁Tell	-9372
▁verf	-9373
▁kende	-9374
▁ruimt	-9375
▁Iedere	-9376
▁helder	-9377
▁bepaalt	-9378
▁college	-9379
▁toepassen	-9380
zers	-9381
▁fas	-9382
anies	-9383
▁caus	-9384
▁Alsof	-9385
▁Lezen	-9386
▁wagon	-9387
ibility	-9388
organis	-9389
▁french	-9390
▁issues	-9391
▁mechan	-9392
▁changing	-9393
uel	-9394
▁32	-9395
Maak	-9396
houdt	-9397
ellent	-9398
▁Dames	-9399
▁Genoeg	-9400
▁Versch	-9401
▁broeik	-9402
▁kitten	-9403
▁woning	-9404
▁consult	-9405
▁vingers	-9406
▁voorzets	-9407
▁Washington	-9408
ïs	-9409
▁misl	-9410
oelang	-9411
leveren	-9412
▁opbouw	-9413
▁beroemd	-9414
▁gekeken	-9415
▁Allemaal	-9416
▁nietwaar	-9417
▁ade	-9418
waardig	-9419
▁winters	-9420
▁populair	-9421
▁Gefeliciteerd	-9422
hop	-9423
uct	-9424
meal	-9425
draws	-9426
oging	-9427
▁shel	-9428
Wie	-9429
▁ca	-9430
▁Arab	-9431
▁pale	-9432
▁islam	-9433
▁England	-9434
▁Terwijl	-9435
▁gesteld	-9436
▁moorden	-9437
▁reasons	-9438
▁stacker	-9439
▁worried	-9440
!""	-9441
steken	-9442
ultuur	-9443
▁email	-9444
▁starten	-9445
▁village	-9446
pje	-9447
Ross	-9448
▁pup	-9449
▁2016	-9450
▁mede	-9451
▁vlag	-9452
▁zeiden	-9453
▁Persoon	-9454
▁betrouw	-9455
▁meedoen	-9456
▁nauwelijks	-9457
ned	-9458
lant	-9459
ament	-9460
▁huge	-9461
▁avont	-9462
▁metal	-9463
▁capital	-9464
▁middelen	-9465
rops	-9466
▁deg	-9467
▁Joden	-9468
▁human	-9469
▁speech	-9470
▁ervaring	-9471
▁Es	-9472
aadje	-9473
▁viol	-9474
verslag	-9475
▁merken	-9476
otel	-9477
▁chop	-9478
▁clim	-9479
▁misd	-9480
▁riep	-9481
erland	-9482
bedrijf	-9483
▁hiernaast	-9484
▁screwdriver	-9485
iar	-9486
▁Lee	-9487
▁koe	-9488
▁Rond	-9489
▁Span	-9490
▁Later	-9491
kundige	-9492
▁concert	-9493
demonstrates	-9494
▁Hi	-9495
▁Rog	-9496
▁kook	-9497
▁vóór	-9498
▁based	-9499
▁muren	-9500
▁sings	-9501
▁uitnod	-9502
▁goodbye	-9503
▁voortplanting	-9504
▁[.6	-9505
andra	-9506
▁Lieve	-9507
▁threw	-9508
▁Cromer	-9509
▁Margar	-9510
▁ballet	-9511
▁oosten	-9512
▁showed	-9513
▁tijdvak	-9514
▁evidence	-9515
▁recently	-9516
▁opgebouwd	-9517
▁blow	-9518
▁lager	-9519
▁Goeden	-9520
▁tabblad	-9521
▁toegang	-9522
middellijk	-9523
gez	-9524
nee	-9525
stok	-9526
ucose	-9527
▁deter	-9528
▁struik	-9529
▁tennis	-9530
▁helping	-9531
▁research	-9532
gere	-9533
iërs	-9534
▁Pal	-9535
▁Pep	-9536
▁VWO	-9537
▁[.8	-9538
▁Azië	-9539
▁toon	-9540
alling	-9541
▁Jerry	-9542
illiant	-9543
▁Mexico	-9544
▁Daarmee	-9545
▁vluchtelingen	-9546
mar	-9547
rif	-9548
▁[12	-9549
▁soll	-9550
achtige	-9551
terings	-9552
▁removes	-9553
▁voordeel	-9554
illon	-9555
▁fold	-9556
▁becom	-9557
volgens	-9558
▁spaces	-9559
▁attract	-9560
gels	-9561
atives	-9562
▁Spelen	-9563
▁besluit	-9564
▁fashion	-9565
▁schijnt	-9566
isteravond	-9567
yse	-9568
▁Read	-9569
▁Smith	-9570
▁shops	-9571
▁unknown	-9572
▁properly	-9573
▁seventeen	-9574
▁internationale	-9575
8.	-9576
IT	-9577
▁hek	-9578
umber	-9579
▁bond	-9580
▁pipe	-9581
▁grapje	-9582
▁cartoon	-9583
▁connect	-9584
▁elephants	-9585
▁grondstoffen	-9586
UD	-9587
verg	-9588
▁Nana	-9589
▁Claus	-9590
▁magic	-9591
playing	-9592
▁region	-9593
▁steken	-9594
▁versie	-9595
▁Griekse	-9596
▁zwanger	-9597
▁industry	-9598
▁omschrijving	-9599
ju	-9600
iër	-9601
▁Off	-9602
▁glim	-9603
stroom	-9604
voudige	-9605
ynthese	-9606
▁attempts	-9607
▁tt	-9608
onge	-9609
▁aqu	-9610
duces	-9611
gemen	-9612
▁Face	-9613
▁oder	-9614
▁rout	-9615
▁Surin	-9616
▁prior	-9617
▁regard	-9618
▁testen	-9619
▁cutting	-9620
▁nogmaals	-9621
▁voorbereid	-9622
▁organisatie	-9623
issie	-9624
oster	-9625
▁lege	-9626
morgen	-9627
▁Danny	-9628
▁sporen	-9629
▁stevig	-9630
▁weather	-9631
▁medeleer	-9632
▁produceren	-9633
▁achtergrond	-9634
▁vernietigen	-9635
▁Ba	-9636
been	-9637
▁Jenn	-9638
nummer	-9639
puzzel	-9640
▁allig	-9641
▁vergr	-9642
▁dronken	-9643
▁private	-9644
▁enzovoor	-9645
▁verdelen	-9646
BR	-9647
aalt	-9648
ivel	-9649
▁(20	-9650
▁kab	-9651
▁wijst	-9652
ochtend	-9653
▁volled	-9654
▁soldaat	-9655
Na	-9656
Bij	-9657
▁én	-9658
blok	-9659
▁Los	-9660
▁ork	-9661
deelt	-9662
wereld	-9663
▁hypot	-9664
▁trick	-9665
▁eeuwen	-9666
▁tradition	-9667
▁[3.	-9668
▁wipe	-9669
▁bunch	-9670
▁lifts	-9671
▁varen	-9672
ferring	-9673
▁electric	-9674
OS	-9675
Heb	-9676
▁ew	-9677
pakt	-9678
stra	-9679
▁Sie	-9680
▁aus	-9681
▁Aard	-9682
▁keus	-9683
vernij	-9684
▁Franc	-9685
▁ocean	-9686
▁turkey	-9687
▁necklace	-9688
▁verdomde	-9689
▁discussion	-9690
▁bijvoeglijk	-9691
MW	-9692
▁sj	-9693
oses	-9694
▁Meg	-9695
olpen	-9696
▁tour	-9697
▁Helen	-9698
gesprek	-9699
▁Commun	-9700
▁French	-9701
▁Nigeria	-9702
ING	-9703
▁ouch	-9704
▁Eight	-9705
▁Stuur	-9706
▁rocks	-9707
ommigen	-9708
▁aanwij	-9709
▁bereid	-9710
▁kisses	-9711
▁interact	-9712
▁concurrentie	-9713
/020	-9714
iens	-9715
vest	-9716
▁150	-9717
▁Gab	-9718
▁Jwww	-9719
▁Nomi	-9720
▁lage	-9721
▁ontsp	-9722
▁ronde	-9723
▁laatst	-9724
▁Oefening	-9725
▁bringing	-9726
▁opleiding	-9727
tu	-9728
aud	-9729
▁ach	-9730
▁Great	-9731
▁Thema	-9732
▁cheer	-9733
▁jacht	-9734
▁keren	-9735
▁actief	-9736
▁beloofd	-9737
▁hanging	-9738
▁algemeen	-9739
An	-9740
ano	-9741
god	-9742
ault	-9743
cijf	-9744
▁10.	-9745
▁lat	-9746
▁mut	-9747
▁auch	-9748
▁geur	-9749
▁taxi	-9750
▁World	-9751
▁kring	-9752
▁Dieren	-9753
▁Kleine	-9754
▁Wissel	-9755
▁necess	-9756
▁simpel	-9757
▁counter	-9758
▁thirsty	-9759
▁schuldig	-9760
Indië	-9761
▁Jawel	-9762
▁appel	-9763
kelijke	-9764
▁linker	-9765
▁huidige	-9766
▁speelgoed	-9767
90	-9768
don	-9769
▁VOC	-9770
▁cloud	-9771
▁oorsp	-9772
▁beiden	-9773
▁daarop	-9774
▁onderaan	-9775
cu	-9776
▁31	-9777
▁für	-9778
vader	-9779
▁Ryan	-9780
ources	-9781
picking	-9782
▁effort	-9783
▁klikken	-9784
▁verhuis	-9785
▁Russische	-9786
mie	-9787
kast	-9788
type	-9789
well	-9790
genda	-9791
▁clap	-9792
▁kopp	-9793
▁zwang	-9794
▁totale	-9795
▁carried	-9796
▁diagram	-9797
▁growing	-9798
▁individu	-9799
▁pressure	-9800
▁besproken	-9801
fin	-9802
▁fem	-9803
▁shh	-9804
papier	-9805
▁Nadat	-9806
▁heette	-9807
▁Margaret	-9808
▁compleet	-9809
▁uitgebre	-9810
AM	-9811
aasd	-9812
nger	-9813
kering	-9814
ulatie	-9815
▁Micro	-9816
dioxide	-9817
ikiwijs	-9818
▁bounce	-9819
▁kussen	-9820
▁ontslagen	-9821
Afr	-9822
ozz	-9823
▁Ap	-9824
Kracht	-9825
rongen	-9826
▁spill	-9827
▁middeleeuwen	-9828
blik	-9829
glas	-9830
▁drum	-9831
▁tonen	-9832
▁medicine	-9833
▁Tru	-9834
iënten	-9835
▁Teddy	-9836
▁volle	-9837
▁Turkije	-9838
▁presents	-9839
▁materialen	-9840
ici	-9841
aron	-9842
▁flew	-9843
▁neef	-9844
▁Emily	-9845
▁ingew	-9846
▁mount	-9847
▁smoke	-9848
▁split	-9849
ilities	-9850
▁agreed	-9851
▁painting	-9852
▁techniek	-9853
ön	-9854
Jij	-9855
Oké	-9856
▁lob	-9857
▁dief	-9858
▁klap	-9859
▁weef	-9860
▁covered	-9861
▁elkaars	-9862
KN	-9863
gin	-9864
elle	-9865
▁Ein	-9866
▁spre	-9867
▁über	-9868
▁rocket	-9869
▁vrolijk	-9870
kenmerken	-9871
▁vijanden	-9872
▁apparaten	-9873
▁interesse	-9874
▁personeel	-9875
▁tegenstand	-9876
▁boe	-9877
▁nah	-9878
emper	-9879
▁pist	-9880
grunts	-9881
▁Ieder	-9882
▁fourth	-9883
wisseling	-9884
▁Yorkshire	-9885
▁opportunity	-9886
▁uitdrukkingen	-9887
oze	-9888
▁Eet	-9889
▁Vor	-9890
iplom	-9891
▁bevel	-9892
▁central	-9893
▁ontbijt	-9894
▁ontdekk	-9895
▁geholpen	-9896
▁officers	-9897
▁schreeuw	-9898
▁ourselves	-9899
vrij	-9900
▁fox	-9901
bergen	-9902
eeling	-9903
▁encou	-9904
ruchten	-9905
▁orgaan	-9906
▁balance	-9907
▁SchoolTV	-9908
▁driehoek	-9909
▁furniture	-9910
▁uitdaging	-9911
overn	-9912
▁effic	-9913
▁horiz	-9914
▁potato	-9915
▁Halloween	-9916
▁necessary	-9917
▁Wr	-9918
mijn	-9919
odel	-9920
▁oct	-9921
▁Last	-9922
▁Taal	-9923
▁edge	-9924
▁scheme	-9925
▁chimney	-9926
▁Charlotte	-9927
▁onderscheiden	-9928
anie	-9929
oned	-9930
▁nic	-9931
▁Doel	-9932
▁Snap	-9933
▁prim	-9934
▁rapp	-9935
ential	-9936
wijzer	-9937
▁advan	-9938
▁schil	-9939
▁Übung	-9940
▁Health	-9941
▁memory	-9942
▁zondag	-9943
otseling	-9944
▁bewaren	-9945
▁verbonden	-9946
▁verrassing	-9947
cir	-9948
umb	-9949
▁Five	-9950
▁beds	-9951
▁buit	-9952
boekje	-9953
▁ideas	-9954
▁measure	-9955
ouncillor	-9956
▁Werkblad	-9957
▁discussie	-9958
▁opgeschreven	-9959
LA	-9960
Kom	-9961
give	-9962
mpje	-9963
Duits	-9964
▁bend	-9965
▁curt	-9966
▁hipp	-9967
wijken	-9968
▁Oranje	-9969
▁journal	-9970
osynthese	-9971
▁companies	-9972
▁veranderde	-9973
▁vaardigheden	-9974
fact	-9975
▁role	-9976
▁Daniel	-9977
▁arrest	-9978
▁betreft	-9979
▁oranges	-9980
▁meningen	-9981
▁recognize	-9982
!!	-9983
fa	-9984
▁Dem	-9985
agues	-9986
▁2021	-9987
▁zoom	-9988
gemene	-9989
▁Wordt	-9990
▁Uitleg	-9991
▁download	-9992
▁gekleurde	-9993
▁ExamenKracht	-9994
bin	-9995
unny	-9996
wand	-9997
▁kou	-9998
▁opin	-9999
straat	-10000
▁biedt	-10001
▁bound	-10002
▁klant	-10003
▁vervoer	-10004
llis	-10005
▁Jord	-10006
▁dies	-10007
▁hits	-10008
▁suff	-10009
▁snapt	-10010
▁value	-10011
▁associ	-10012
▁kloppen	-10013
▁Brandaan	-10014
Goed	-10015
▁IJs	-10016
▁Raad	-10017
pleegd	-10018
▁gewond	-10019
▁require	-10020
referring	-10021
▁gespeeld	-10022
▁pumpkins	-10023
▁verstand	-10024
dle	-10025
▁Leo	-10026
▁aim	-10027
▁[1.5	-10028
▁cage	-10029
▁dest	-10030
aching	-10031
▁reads	-10032
▁darling	-10033
▁verzorg	-10034
▁conflict	-10035
▁inkomsten	-10036
?,	-10037
▁Ca	-10038
▁tha	-10039
▁pile	-10040
▁force	-10041
▁zolang	-10042
▁improve	-10043
▁Brooklyn	-10044
▁pretends	-10045
▁behoorlijk	-10046
ipen	-10047
▁mush	-10048
▁besmet	-10049
▁kanten	-10050
▁tellen	-10051
▁weergeven	-10052
▁verklaring	-10053
ingt	-10054
iloft	-10055
itect	-10056
▁Leon	-10057
▁Rocky	-10058
▁Totaal	-10059
▁patter	-10060
erkracht	-10061
▁Bronnen	-10062
▁coloring	-10063
▁apparently	-10064
▁nieuwsgier	-10065
▁[14	-10066
gezet	-10067
iforn	-10068
▁umbr	-10069
▁yard	-10070
▁Georg	-10071
▁liber	-10072
▁lower	-10073
▁lying	-10074
▁beside	-10075
▁realize	-10076
▁vrijwill	-10077
▁instructies	-10078
essert	-10079
vision	-10080
▁april	-10081
▁shoulder	-10082
▁Nic	-10083
▁bull	-10084
▁cred	-10085
ijsver	-10086
zonder	-10087
▁ruikt	-10088
▁crimin	-10089
▁satell	-10090
▁uitzen	-10091
▁library	-10092
▁spilled	-10093
▁stories	-10094
▁Revolutie	-10095
▁Vervangen	-10096
▁negatieve	-10097
oni	-10098
▁Han	-10099
raagt	-10100
weten	-10101
▁stamp	-10102
▁gevorm	-10103
▁prepared	-10104
tot	-10105
icus	-10106
▁borrow	-10107
▁puppets	-10108
▁verlies	-10109
iw	-10110
aff	-10111
asse	-10112
▁lol	-10113
ators	-10114
▁High	-10115
▁join	-10116
▁saai	-10117
▁About	-10118
▁bench	-10119
▁gettin	-10120
▁fireman	-10121
▁gestopt	-10122
▁klassen	-10123
▁zinsdelen	-10124
loud	-10125
ston	-10126
▁cru	-10127
▁Bruce	-10128
▁sales	-10129
putting	-10130
▁safety	-10131
▁Verdeel	-10132
Nederland	-10133
▁uitzoeken	-10134
▁appropriate	-10135
▁Begrippenlijst	-10136
16	-10137
ecut	-10138
ained	-10139
arium	-10140
▁ends	-10141
▁angry	-10142
▁kwalijk	-10143
▁voordelen	-10144
▁beoordeeld	-10145
▁motorcycle	-10146
▁ontsnappen	-10147
▁christendom	-10148
:"	-10149
Om	-10150
zine	-10151
▁Jam	-10152
▁caf	-10153
ronen	-10154
▁Arbe	-10155
▁Inst	-10156
▁dust	-10157
▁taps	-10158
▁rules	-10159
▁wijze	-10160
aringen	-10161
▁oceaan	-10162
igranten	-10163
▁concept	-10164
▁eigenaar	-10165
▁standpunt	-10166
MC	-10167
Deze	-10168
just	-10169
loze	-10170
▁Hans	-10171
▁Luke	-10172
▁ment	-10173
▁cases	-10174
▁jagen	-10175
aardige	-10176
▁Luther	-10177
▁Sophie	-10178
▁tweeën	-10179
▁perform	-10180
▁toetsen	-10181
▁carrying	-10182
▁dangerous	-10183
”!	-10184
Met	-10185
▁Bu	-10186
park	-10187
▁alt	-10188
geant	-10189
iëren	-10190
▁Thor	-10191
crying	-10192
softly	-10193
▁decor	-10194
▁vloer	-10195
▁waste	-10196
▁Lekker	-10197
▁quietly	-10198
▁pretending	-10199
▁90	-10200
film	-10201
▁Pan	-10202
oever	-10203
▁Sluit	-10204
▁bieden	-10205
▁powder	-10206
▁dessert	-10207
▁Catherine	-10208
▁political	-10209
▁grammatica	-10210
▁onmiddellijk	-10211
▁Ru	-10212
▁Das	-10213
▁Med	-10214
▁mode	-10215
ipedia	-10216
▁Gesch	-10217
▁Nieuwe	-10218
▁inspect	-10219
▁mindmap	-10220
▁scratch	-10221
▁Inderdaad	-10222
▁ontwikkelen	-10223
▁signaalwoorden	-10224
rest	-10225
▁oil	-10226
ammen	-10227
voegd	-10228
gedrag	-10229
▁poten	-10230
▁Bepaal	-10231
▁Egypte	-10232
▁jagers	-10233
▁Meander	-10234
▁vrijdag	-10235
onderzoek	-10236
hist	-10237
ooth	-10238
▁activ	-10239
▁draad	-10240
▁Govern	-10241
▁promot	-10242
▁Behalve	-10243
▁beschad	-10244
▁history	-10245
addressed	-10246
▁financial	-10247
DS	-10248
ao	-10249
breng	-10250
▁ouwe	-10251
▁notes	-10252
bliotheek	-10253
▁vriendelijk	-10254
ado	-10255
oei	-10256
sque	-10257
uzen	-10258
tober	-10259
▁Kate	-10260
crayon	-10261
▁regio	-10262
▁subst	-10263
▁broertje	-10264
▁gebleven	-10265
▁webquest	-10266
ynn	-10267
▁fen	-10268
▁oat	-10269
▁tub	-10270
assingen	-10271
▁bezorgd	-10272
▁buurman	-10273
▁speelde	-10274
▁intellig	-10275
▁delicious	-10276
ias	-10277
chel	-10278
rage	-10279
song	-10280
▁lul	-10281
maakt	-10282
▁radi	-10283
vallig	-10284
▁Helaas	-10285
▁leefde	-10286
▁noemde	-10287
chuckles	-10288
richting	-10289
▁Californ	-10290
▁indeling	-10291
▁regenwoud	-10292
schappelijke	-10293
fter	-10294
itor	-10295
tegr	-10296
▁sto	-10297
brand	-10298
illam	-10299
useum	-10300
▁Bang	-10301
▁juli	-10302
efully	-10303
▁Somet	-10304
▁Middel	-10305
▁immedi	-10306
▁paniek	-10307
uls	-10308
alls	-10309
beren	-10310
iaanse	-10311
▁Weten	-10312
▁lezer	-10313
▁kippen	-10314
▁regent	-10315
ikipedia	-10316
▁indianen	-10317
▁throwing	-10318
auto	-10319
rede	-10320
▁Tien	-10321
▁baar	-10322
▁crit	-10323
▁jelly	-10324
▁ruiken	-10325
▁aandoen	-10326
▁depends	-10327
▁bruiloft	-10328
▁meegenomen	-10329
13	-10330
pas	-10331
ured	-10332
▁Lat	-10333
keuze	-10334
risch	-10335
▁2014	-10336
▁Isra	-10337
▁wiss	-10338
▁zoet	-10339
zakken	-10340
▁Tommy	-10341
▁bloke	-10342
▁buddy	-10343
RE	-10344
wikk	-10345
▁Viet	-10346
ustrie	-10347
▁raden	-10348
▁agenda	-10349
▁hardop	-10350
▁slides	-10351
▁weggaan	-10352
▁utterance	-10353
▁refrigerator	-10354
py	-10355
▁Ple	-10356
▁mel	-10357
▁ecos	-10358
▁gosh	-10359
▁telt	-10360
▁amend	-10361
▁bounc	-10362
▁dwars	-10363
▁Deedee	-10364
▁loudly	-10365
▁geïnter	-10366
▁chickens	-10367
▁hierover	-10368
▁opgericht	-10369
verandering	-10370
▁193	-10371
istic	-10372
▁fail	-10373
▁havo	-10374
▁hurts	-10375
middels	-10376
▁talent	-10377
▁afr	-10378
drops	-10379
▁plac	-10380
iseren	-10381
▁whoop	-10382
▁napkin	-10383
▁stuurt	-10384
romosomen	-10385
▁umbrella	-10386
obb	-10387
odes	-10388
▁Cam	-10389
▁virt	-10390
others	-10391
▁gezocht	-10392
▁lijdend	-10393
▁nauwkeur	-10394
▁woonplaats	-10395
istr	-10396
▁wip	-10397
maker	-10398
▁Duck	-10399
▁frogs	-10400
ografie	-10401
▁income	-10402
▁wensen	-10403
▁Charles	-10404
▁maandag	-10405
▁whatcha	-10406
▁Minister	-10407
hen	-10408
ijp	-10409
verl	-10410
▁Des	-10411
▁nep	-10412
duced	-10413
▁Gary	-10414
▁rice	-10415
aining	-10416
smiles	-10417
▁Zodra	-10418
attempts	-10419
▁society	-10420
▁straten	-10421
▁beoordelings	-10422
▁tu	-10423
isie	-10424
pijn	-10425
stij	-10426
sister	-10427
▁dough	-10428
▁genet	-10429
jaarden	-10430
▁cherry	-10431
▁raakte	-10432
▁schatt	-10433
▁sterker	-10434
▁kwaliteit	-10435
▁schimmels	-10436
fan	-10437
▁ama	-10438
annah	-10439
▁crib	-10440
▁hill	-10441
▁phys	-10442
blemen	-10443
▁bleek	-10444
▁graan	-10445
▁types	-10446
velings	-10447
▁crawls	-10448
▁ribbit	-10449
▁oatmeal	-10450
▁learning	-10451
▁verstaan	-10452
▁nin	-10453
ached	-10454
▁Matt	-10455
▁truc	-10456
ronken	-10457
▁Krijg	-10458
▁lesuur	-10459
▁sprook	-10460
▁context	-10461
▁kunsten	-10462
structuur	-10463
▁voorkomt	-10464
dus	-10465
▁Comp	-10466
▁cell	-10467
spraak	-10468
▁Rachel	-10469
▁Secret	-10470
▁zilver	-10471
▁Planten	-10472
▁schaduw	-10473
▁commentaar	-10474
code	-10475
goes	-10476
sequ	-10477
▁400	-10478
▁geë	-10479
▁pal	-10480
▁rac	-10481
▁Huis	-10482
▁buren	-10483
▁rijst	-10484
▁mostly	-10485
▁bedanken	-10486
▁McDonalds	-10487
▁nationaal	-10488
]⌉.	-10489
wor	-10490
moet	-10491
▁hee	-10492
▁pud	-10493
ishes	-10494
fortun	-10495
slotte	-10496
ituatie	-10497
whining	-10498
▁minimum	-10499
▁produce	-10500
▁bedoelde	-10501
▁Australië	-10502
▁vergadering	-10503
▁Vin	-10504
▁ond	-10505
▁Alan	-10506
voegen	-10507
▁Ongel	-10508
▁eicel	-10509
▁fancy	-10510
screams	-10511
▁Buiten	-10512
▁wassen	-10513
▁Spaanse	-10514
▁grammar	-10515
▁beslissing	-10516
▁SLU	-10517
antha	-10518
elled	-10519
aloers	-10520
graven	-10521
▁babys	-10522
▁einen	-10523
▁upset	-10524
▁zonne	-10525
tingham	-10526
ugustus	-10527
▁intake	-10528
▁konijn	-10529
▁returns	-10530
▁suddenly	-10531
▁breathing	-10532
▁necessarily	-10533
fit	-10534
ften	-10535
▁mud	-10536
ozzol	-10537
riële	-10538
▁Lucy	-10539
▁olif	-10540
aseffect	-10541
▁officer	-10542
▁raining	-10543
▁Facebook	-10544
▁vluchten	-10545
opdrachten	-10546
iteindelijk	-10547
▁percentage	-10548
▁vertegenwoord	-10549
▁OP	-10550
▁bead	-10551
▁lips	-10552
houder	-10553
▁Mouse	-10554
▁north	-10555
▁helped	-10556
▁keuzes	-10557
▁slotte	-10558
▁verslaan	-10559
▁toneelstuk	-10560
▁werknemers	-10561
22	-10562
▁By	-10563
▁ext	-10564
estie	-10565
uilen	-10566
▁Next	-10567
▁Verg	-10568
▁blood	-10569
▁toren	-10570
▁complex	-10571
▁opzicht	-10572
▁separate	-10573
▁Committee	-10574
▁verslagen	-10575
▁uitspraken	-10576
-,	-10577
ila	-10578
oit	-10579
rad	-10580
▁Hu	-10581
wind	-10582
▁knee	-10583
▁lijf	-10584
▁rijen	-10585
▁Jammer	-10586
▁debate	-10587
▁omgaan	-10588
▁prefer	-10589
▁werkten	-10590
auf	-10591
anas	-10592
mmet	-10593
▁Mos	-10594
▁dut	-10595
oured	-10596
▁Voel	-10597
illian	-10598
▁Straks	-10599
▁intens	-10600
▁vakken	-10601
▁however	-10602
▁Wegwezen	-10603
▁verkoopt	-10604
rob	-10605
▁sus	-10606
▁Cong	-10607
▁Tips	-10608
▁teen	-10609
▁datum	-10610
▁cocoon	-10611
▁teaching	-10612
▁ontwikkeld	-10613
▁authorities	-10614
▁belachelijk	-10615
▁elektrische	-10616
▁schematische	-10617
acy	-10618
stru	-10619
▁Bart	-10620
▁Disc	-10621
▁cous	-10622
▁erom	-10623
▁kist	-10624
pakken	-10625
oensdag	-10626
▁Streep	-10627
▁spoken	-10628
▁dagboek	-10629
▁reflect	-10630
▁advocaat	-10631
▁ingevuld	-10632
▁verhouding	-10633
▁advertentie	-10634
▁."	-10635
trek	-10636
▁Res	-10637
April	-10638
selen	-10639
▁juni	-10640
arbeid	-10641
sounds	-10642
▁lukken	-10643
▁mitten	-10644
▁romant	-10645
▁uniform	-10646
▁Generaal	-10647
▁medicijnen	-10648
HH	-10649
iaan	-10650
▁Aven	-10651
▁arts	-10652
▁poes	-10653
▁task	-10654
▁virus	-10655
▁Studio	-10656
▁accent	-10657
▁access	-10658
▁grocer	-10659
▁gericht	-10660
▁carriage	-10661
▁Eindelijk	-10662
▁voornaamwoorden	-10663
Aan	-10664
ague	-10665
▁Hal	-10666
▁dese	-10667
▁munt	-10668
▁river	-10669
▁inspir	-10670
▁liefje	-10671
▁beweegt	-10672
▁express	-10673
▁glucose	-10674
▁zogenaam	-10675
▁Leerlingen	-10676
▁Nottingham	-10677
▁aantrekkelijk	-10678
pre	-10679
leid	-10680
▁bid	-10681
▁Ziet	-10682
▁rule	-10683
Gillam	-10684
▁fresh	-10685
▁dertig	-10686
▁christen	-10687
▁eilanden	-10688
▁eindigen	-10689
▁gewassen	-10690
▁Professor	-10691
▁verkiezingen	-10692
cca	-10693
▁9.	-10694
isje	-10695
ples	-10696
▁250	-10697
brush	-10698
inker	-10699
oloog	-10700
volle	-10701
▁whoo	-10702
vering	-10703
▁stock	-10704
▁Afsluiting	-10705
▁Uiteindelijk	-10706
anne	-10707
high	-10708
moed	-10709
vant	-10710
▁sho	-10711
▁wir	-10712
apper	-10713
vings	-10714
▁cuts	-10715
▁excellent	-10716
▁verspreid	-10717
▁kruiswoord	-10718
⌋?	-10719
▁ep	-10720
▁homo	-10721
eering	-10722
▁priest	-10723
▁zipper	-10724
tekening	-10725
▁verzorgd	-10726
▁vegetables	-10727
▁verwachten	-10728
ierd	-10729
▁Jun	-10730
aaien	-10731
ccoli	-10732
▁kauw	-10733
▁vest	-10734
▁tapes	-10735
onderden	-10736
terusten	-10737
▁standard	-10738
▁studenten	-10739
.,	-10740
och	-10741
Hier	-10742
▁Gooi	-10743
jarige	-10744
▁Marokk	-10745
▁ontvang	-10746
wedstrijd	-10747
▁instance	-10748
▁onschuld	-10749
▁wandelen	-10750
emperatuur	-10751
-19	-10752
isl	-10753
lood	-10754
spect	-10755
▁Loop	-10756
▁stars	-10757
▁opgave	-10758
▁staats	-10759
▁gevormd	-10760
▁genieten	-10761
▁spanning	-10762
▁slavernij	-10763
pret	-10764
▁Lin	-10765
▁Luc	-10766
▁Aunt	-10767
▁Hang	-10768
▁honk	-10769
▁helic	-10770
▁privé	-10771
▁cracker	-10772
▁pleased	-10773
▁vijftig	-10774
▁addition	-10775
▁brilliant	-10776
▁structuur	-10777
▁zichtbaar	-10778
▁communicatie	-10779
opend	-10780
▁Noor	-10781
▁pain	-10782
zinnig	-10783
▁lagen	-10784
▁afkort	-10785
▁ballen	-10786
▁zorgde	-10787
ossingen	-10788
▁33	-10789
phone	-10790
▁Dada	-10791
▁Home	-10792
▁Shit	-10793
stenen	-10794
▁drupp	-10795
▁scale	-10796
▁avonds	-10797
▁easily	-10798
▁sparen	-10799
▁waffle	-10800
▁watched	-10801
rijvingen	-10802
▁waarover	-10803
▁eventuele	-10804
bell	-10805
lets	-10806
▁Ass	-10807
▁Bre	-10808
▁Oke	-10809
chema	-10810
oleon	-10811
▁Fort	-10812
▁brak	-10813
▁pant	-10814
▁voeg	-10815
atures	-10816
▁sprak	-10817
▁bright	-10818
▁ernstig	-10819
▁begraven	-10820
▁generally	-10821
▁department	-10822
▁Ee	-10823
▁ven	-10824
kleur	-10825
opher	-10826
shirt	-10827
▁loll	-10828
▁zone	-10829
▁dunne	-10830
▁flats	-10831
▁naged	-10832
▁whats	-10833
▁review	-10834
▁Hierbij	-10835
▁bestond	-10836
vaardigheid	-10837
▁meegemaakt	-10838
▁BB	-10839
want	-10840
▁Bud	-10841
▁koo	-10842
▁bisc	-10843
▁coal	-10844
ertijd	-10845
ippers	-10846
▁Betty	-10847
▁lookin	-10848
▁grandpa	-10849
▁signific	-10850
▁lievelings	-10851
▁Opa	-10852
lucht	-10853
▁Star	-10854
▁chef	-10855
▁curs	-10856
▁knie	-10857
▁chest	-10858
▁vorst	-10859
▁Claire	-10860
▁rolling	-10861
▁gedragen	-10862
▁verdiend	-10863
▁Ku	-10864
aning	-10865
rings	-10866
▁firm	-10867
schema	-10868
▁pilot	-10869
▁repar	-10870
▁Module	-10871
▁ridder	-10872
▁slowly	-10873
▁diensten	-10874
▁kampioen	-10875
▁countries	-10876
▁verzinnen	-10877
▁volledige	-10878
▁behandelen	-10879
they	-10880
vige	-10881
▁Far	-10882
▁surf	-10883
zinnen	-10884
▁manip	-10885
igingen	-10886
▁Brazilië	-10887
▁paragraph	-10888
cast	-10889
keys	-10890
▁hap	-10891
▁rooms	-10892
▁vervolg	-10893
▁beroemde	-10894
▁drinkwater	-10895
▁identiteit	-10896
-6	-10897
edy	-10898
▁pub	-10899
▁tij	-10900
▁koel	-10901
▁vies	-10902
▁Chine	-10903
▁court	-10904
▁jammer	-10905
▁architect	-10906
▁Woordenlijst	-10907
▁overeenkomsten	-10908
doek	-10909
oeps	-10910
▁Son	-10911
▁ren	-10912
urende	-10913
velden	-10914
▁coach	-10915
▁zusje	-10916
▁Aantal	-10917
▁Britse	-10918
▁Plaats	-10919
▁orders	-10920
▁excuses	-10921
▁keeping	-10922
▁rattling	-10923
▁afgesproken	-10924
▁Bal	-10925
▁Dis	-10926
bomen	-10927
ördin	-10928
▁pest	-10929
▁toss	-10930
.000,-	-10931
Afrika	-10932
▁loads	-10933
somloop	-10934
▁lesson	-10935
▁leugen	-10936
▁evenaar	-10937
▁oktober	-10938
▁microscoop	-10939
▁ruil	-10940
▁atoom	-10941
ability	-10942
▁myster	-10943
▁gerecht	-10944
▁Suriname	-10945
▁throughout	-10946
bek	-10947
rial	-10948
▁sem	-10949
▁fase	-10950
ffrouw	-10951
▁veert	-10952
▁Father	-10953
▁duurde	-10954
▁geplaatst	-10955
▁Government	-10956
▁Oostenrijk	-10957
▁uitdrukking	-10958
▁brandstoffen	-10959
▁samenstelling	-10960
BO	-10961
pat	-10962
▁75	-10963
▁cd	-10964
▁2011	-10965
lijnen	-10966
▁death	-10967
▁pence	-10968
▁stone	-10969
▁useful	-10970
▁benzine	-10971
▁Jennifer	-10972
▁cleaning	-10973
▁particip	-10974
CI	-10975
/20	-10976
acon	-10977
selk	-10978
▁Mur	-10979
▁VAN	-10980
▁smer	-10981
▁haren	-10982
▁Select	-10983
▁barrel	-10984
▁remind	-10985
▁warmer	-10986
▁naamval	-10987
▁Jonathan	-10988
▁monsters	-10989
▁bestaande	-10990
▁combinatie	-10991
▁Up	-10992
▁alf	-10993
▁Mars	-10994
▁vere	-10995
oefend	-10996
▁profit	-10997
▁catches	-10998
▁enthous	-10999
▁waaraan	-11000
▁marketing	-11001
▁uitrekenen	-11002
eurs	-11003
itel	-11004
teit	-11005
▁Dec	-11006
reeks	-11007
▁balk	-11008
▁prices	-11009
▁verbaasd	-11010
▁terugkomen	-11011
▁verbinding	-11012
Nou	-11013
Wij	-11014
here	-11015
▁Typ	-11016
▁gal	-11017
▁Geld	-11018
▁Kunt	-11019
▁afsch	-11020
▁zodra	-11021
clusief	-11022
▁carpet	-11023
▁feeding	-11024
▁session	-11025
▁younger	-11026
▁ontwerpen	-11027
▁Voorzichtig	-11028
jack	-11029
▁esc	-11030
▁kus	-11031
ieuze	-11032
lands	-11033
▁Take	-11034
▁witch	-11035
▁streek	-11036
▁bevrijd	-11037
▁modules	-11038
▁seizoen	-11039
industrie	-11040
▁beroepen	-11041
▁alligator	-11042
▁spelletjes	-11043
▁mogelijkheid	-11044
▁Sean	-11045
▁House	-11046
illende	-11047
▁current	-11048
▁ingewikk	-11049
▁highchair	-11050
▁bevruchting	-11051
▁Waarschijnlijk	-11052
Bed	-11053
▁wc	-11054
ijft	-11055
▁Pau	-11056
Welke	-11057
stein	-11058
▁Bern	-11059
ifmeel	-11060
▁Uncle	-11061
▁Witte	-11062
▁karak	-11063
onation	-11064
▁speaks	-11065
▁eenheid	-11066
▁selling	-11067
;.	-11068
▁ign	-11069
iland	-11070
eeland	-11071
▁kleed	-11072
▁queen	-11073
▁Justin	-11074
▁swings	-11075
▁kopieer	-11076
▁overleden	-11077
boel	-11078
ulden	-11079
▁1848	-11080
▁sher	-11081
▁sich	-11082
ducent	-11083
ushing	-11084
▁regul	-11085
▁shell	-11086
reement	-11087
▁lelijk	-11088
▁passed	-11089
▁snelle	-11090
▁Melissa	-11091
▁waarden	-11092
▁Katie	-11093
▁miner	-11094
▁shark	-11095
▁stool	-11096
▁Verwerk	-11097
▁logisch	-11098
▁stromen	-11099
▁Napoleon	-11100
▁doorlopen	-11101
▁koolstofdioxide	-11102
Ben	-11103
▁48	-11104
appe	-11105
▁Vak	-11106
blijf	-11107
heart	-11108
raden	-11109
▁brut	-11110
▁kalm	-11111
▁equip	-11112
horende	-11113
▁spijker	-11114
▁wortels	-11115
▁menselijk	-11116
----------------	-11117
ikke	-11118
this	-11119
▁Mij	-11120
▁Osc	-11121
▁oef	-11122
▁enig	-11123
▁rail	-11124
▁Sport	-11125
▁Steph	-11126
▁champ	-11127
▁hopen	-11128
▁mixed	-11129
▁octop	-11130
▁dorpen	-11131
▁graven	-11132
▁beheers	-11133
▁learned	-11134
▁sticking	-11135
▁zintuigen	-11136
ün	-11137
▁Cle	-11138
▁klus	-11139
kosten	-11140
▁Organ	-11141
▁belde	-11142
▁cries	-11143
▁vitam	-11144
eschool	-11145
▁fright	-11146
▁steekt	-11147
▁squeeze	-11148
▁bescherming	-11149
▁Investigator	-11150
mus	-11151
bang	-11152
▁dir	-11153
▁klad	-11154
▁sind	-11155
groeid	-11156
▁sloeg	-11157
▁dienen	-11158
▁schoen	-11159
▁opgeslagen	-11160
ava	-11161
uum	-11162
▁ce	-11163
osie	-11164
sels	-11165
▁Bouw	-11166
▁expr	-11167
aneous	-11168
▁diagn	-11169
▁Gouden	-11170
▁Komaan	-11171
▁glances	-11172
▁opgelost	-11173
mate	-11174
▁Ang	-11175
▁Top	-11176
ampoo	-11177
aries	-11178
schip	-11179
▁math	-11180
wering	-11181
▁Cindy	-11182
▁Terry	-11183
▁merry	-11184
▁sciss	-11185
▁dijken	-11186
▁jaloers	-11187
▁verpest	-11188
▁broccoli	-11189
]...	-11190
▁bec	-11191
annel	-11192
▁Only	-11193
▁Alice	-11194
▁apply	-11195
▁cough	-11196
▁faster	-11197
▁overleef	-11198
1,	-11199
▁Ce	-11200
rong	-11201
▁Mey	-11202
▁Give	-11203
▁Hong	-11204
▁ontb	-11205
▁faces	-11206
▁poort	-11207
▁zweer	-11208
▁parent	-11209
▁scherp	-11210
▁tekort	-11211
▁banging	-11212
▁illustr	-11213
▁verstopt	-11214
▁professor	-11215
▁gisteravond	-11216
▁onderstaand	-11217
sle	-11218
▁Ele	-11219
▁Old	-11220
inten	-11221
▁cents	-11222
▁slang	-11223
▁smile	-11224
▁bossen	-11225
▁offered	-11226
▁leerdoel	-11227
▁sollicit	-11228
▁verschijn	-11229
▁Christopher	-11230
tr	-11231
ams	-11232
▁34	-11233
▁Fift	-11234
▁kalk	-11235
▁gooit	-11236
esterse	-11237
gelijke	-11238
▁variab	-11239
▁newspaper	-11240
▁verschrikkelijk	-11241
vonden	-11242
▁leerde	-11243
▁lippen	-11244
▁digitaal	-11245
▁movement	-11246
▁vee	-11247
urity	-11248
ingsre	-11249
object	-11250
zettend	-11251
▁broers	-11252
▁extrem	-11253
▁woonde	-11254
▁proeven	-11255
▁springt	-11256
▁Cra	-11257
▁nod	-11258
walks	-11259
▁Chic	-11260
▁Hebt	-11261
▁Annie	-11262
▁behoort	-11263
fst	-11264
imal	-11265
loge	-11266
▁197	-11267
▁Cap	-11268
▁among	-11269
▁bijbe	-11270
▁afloop	-11271
▁helaas	-11272
fragment	-11273
▁bedenkt	-11274
▁branden	-11275
▁trappen	-11276
▁afscheid	-11277
TA	-11278
tape	-11279
▁Wend	-11280
▁desp	-11281
strateg	-11282
▁Dillon	-11283
▁facing	-11284
▁schaam	-11285
schappelijk	-11286
▁verdedigen	-11287
yd	-11288
▁[15	-11289
▁ras	-11290
ooter	-11291
osaur	-11292
plays	-11293
▁stru	-11294
trying	-11295
▁White	-11296
▁aansp	-11297
▁knuff	-11298
▁uitst	-11299
▁munten	-11300
▁collega	-11301
▁watermel	-11302
▁nagedacht	-11303
▁september	-11304
▁vervelend	-11305
▁bestudeert	-11306
▁menselijke	-11307
▁oplossingen	-11308
anny	-11309
▁Rot	-11310
▁duw	-11311
still	-11312
▁zero	-11313
proces	-11314
conomie	-11315
duizend	-11316
▁Overal	-11317
▁staying	-11318
▁aankomen	-11319
▁verschillend	-11320
LE	-11321
ekens	-11322
▁Eliz	-11323
▁haak	-11324
▁symp	-11325
▁therm	-11326
▁centrale	-11327
▁doorheen	-11328
▁toevallig	-11329
▁eventually	-11330
AK	-11331
nu	-11332
The	-11333
run	-11334
while	-11335
▁Make	-11336
▁gepl	-11337
bellen	-11338
▁Zwits	-11339
▁aankl	-11340
▁jarig	-11341
▁gerust	-11342
▁waaruit	-11343
▁afkomstig	-11344
▁vertrokken	-11345
66	-11346
▁Onge	-11347
▁anti	-11348
▁dose	-11349
▁Julia	-11350
▁spots	-11351
▁symbool	-11352
▁winnaar	-11353
▁afterwards	-11354
nog	-11355
oscoop	-11356
stands	-11357
▁Mooie	-11358
▁Canada	-11359
▁Slecht	-11360
▁purpose	-11361
▁fighting	-11362
▁tropisch	-11363
▁Schrijven	-11364
▁equipment	-11365
▁insurance	-11366
▁bibliotheek	-11367
omb	-11368
erij	-11369
▁Sel	-11370
andid	-11371
▁Barb	-11372
▁Wauw	-11373
▁knul	-11374
▁mkay	-11375
▁mosl	-11376
▁weeg	-11377
▁draai	-11378
▁plans	-11379
▁demand	-11380
▁lieten	-11381
▁finding	-11382
▁duurzame	-11383
▁Vervolgens	-11384
jij	-11385
▁Kenn	-11386
▁lect	-11387
▁Never	-11388
▁Stand	-11389
▁belly	-11390
▁frequ	-11391
▁komst	-11392
▁smelt	-11393
▁veront	-11394
▁answers	-11395
▁moeders	-11396
▁Hopelijk	-11397
▁students	-11398
▁studeren	-11399
▁eenvoudige	-11400
▁leerkracht	-11401
▁voorstelling	-11402
cut	-11403
mag	-11404
oots	-11405
▁Cub	-11406
▁Ian	-11407
▁aap	-11408
▁git	-11409
fight	-11410
▁Roll	-11411
▁plug	-11412
opgave	-11413
▁truth	-11414
▁Altijd	-11415
▁enters	-11416
▁ophalen	-11417
▁Verzamel	-11418
▁42	-11419
Weet	-11420
nood	-11421
▁pee	-11422
abeth	-11423
oende	-11424
netjes	-11425
▁illeg	-11426
olution	-11427
▁Grover	-11428
▁uitzien	-11429
▁verdere	-11430
▁gezellig	-11431
▁vloeistof	-11432
▁bloedsomloop	-11433
HEI	-11434
▁Ath	-11435
beweg	-11436
▁klei	-11437
athers	-11438
kijker	-11439
▁Marcus	-11440
▁nuttig	-11441
▁propert	-11442
▁uitgang	-11443
▁goedkoop	-11444
▁positive	-11445
▁vertrekt	-11446
▁centimeter	-11447
▁deelvragen	-11448
▁voorbereiden	-11449
/3	-11450
hof	-11451
Welk	-11452
fish	-11453
icing	-11454
istan	-11455
waart	-11456
▁meub	-11457
iament	-11458
▁Parag	-11459
▁Trouw	-11460
▁chick	-11461
▁spons	-11462
winning	-11463
▁advice	-11464
▁geweer	-11465
▁Jessica	-11466
▁alfabet	-11467
▁grootte	-11468
▁heilige	-11469
▁overleg	-11470
▁Hoofdstuk	-11471
▁formulier	-11472
▁broeikaseffect	-11473
▁samenstellingen	-11474
erie	-11475
roet	-11476
vies	-11477
▁suk	-11478
Patsy	-11479
▁Doen	-11480
▁bags	-11481
▁fund	-11482
alisme	-11483
▁Those	-11484
▁leeuw	-11485
▁rondom	-11486
▁Dankzij	-11487
duidelijk	-11488
▁Probably	-11489
▁Volgende	-11490
▁tijdlijn	-11491
▁goedkoper	-11492
▁standaard	-11493
▁provincies	-11494
Sp	-11495
AAR	-11496
imp	-11497
▁ego	-11498
▁Play	-11499
▁asiel	-11500
▁haben	-11501
▁kogel	-11502
▁nurse	-11503
▁zijde	-11504
orteren	-11505
▁stares	-11506
▁Vietnam	-11507
▁bounces	-11508
▁seconde	-11509
▁voeding	-11510
▁criteria	-11511
▁horrible	-11512
▁carefully	-11513
▁enzovoort	-11514
DR	-11515
wr	-11516
cup	-11517
ored	-11518
▁Say	-11519
▁vie	-11520
▁bakker	-11521
▁bevest	-11522
▁washed	-11523
▁pistool	-11524
▁Biologie	-11525
▁Samantha	-11526
▁perfecte	-11527
▁praktijk	-11528
lem	-11529
▁Vr	-11530
oria	-11531
rank	-11532
▁Arn	-11533
▁Oma	-11534
▁Pet	-11535
▁Ref	-11536
andel	-11537
older	-11538
sting	-11539
▁gord	-11540
▁helm	-11541
▁wast	-11542
▁vijft	-11543
▁Perhaps	-11544
▁Vanavond	-11545
▁daarover	-11546
▁beschermd	-11547
▁verbranding	-11548
sw	-11549
!'"	-11550
▁).	-11551
iche	-11552
uten	-11553
▁foc	-11554
▁pit	-11555
▁zwe	-11556
oting	-11557
▁sale	-11558
▁Maakt	-11559
▁gaven	-11560
▁sigar	-11561
▁volks	-11562
▁whist	-11563
ebruari	-11564
▁sprong	-11565
▁Captain	-11566
▁gestorven	-11567
bes	-11568
rid	-11569
▁hof	-11570
▁kub	-11571
▁lip	-11572
adden	-11573
omdat	-11574
ville	-11575
vlees	-11576
▁monn	-11577
entuin	-11578
▁Office	-11579
▁deuren	-11580
▁terror	-11581
▁travel	-11582
▁material	-11583
▁aanvallen	-11584
Weis	-11585
ebed	-11586
erkt	-11587
etta	-11588
▁Ban	-11589
Ellis	-11590
poort	-11591
stijd	-11592
▁lood	-11593
▁meld	-11594
▁stim	-11595
clears	-11596
Weismer	-11597
▁tentoon	-11598
▁vulkanen	-11599
▁ontbreken	-11600
EllisWeismer	-11601
▁bijbehorende	-11602
▁ontwikkelingen	-11603
IA	-11604
cod	-11605
▁dod	-11606
leden	-11607
ooper	-11608
pping	-11609
▁2015	-11610
▁keel	-11611
▁luck	-11612
▁pears	-11613
chester	-11614
▁liegen	-11615
▁sterft	-11616
▁vanilla	-11617
▁approach	-11618
▁beslissen	-11619
▁helicopter	-11620
▁schilderijen	-11621
GT	-11622
él	-11623
ags	-11624
▁["	-11625
▁ey	-11626
▁eth	-11627
cribe	-11628
▁Sher	-11629
▁behe	-11630
▁ener	-11631
▁jury	-11632
▁gewend	-11633
genodigd	-11634
▁circles	-11635
▁geluids	-11636
▁mailbox	-11637
bee	-11638
orf	-11639
▁Amy	-11640
▁uns	-11641
culen	-11642
reads	-11643
kisses	-11644
▁frustr	-11645
▁zwakke	-11646
▁Daarbij	-11647
▁verwoest	-11648
▁chauffeur	-11649
▁continuous	-11650
kru	-11651
dough	-11652
puter	-11653
zamer	-11654
▁Gods	-11655
▁unit	-11656
oningen	-11657
▁closet	-11658
▁kolonie	-11659
▁bestudeerd	-11660
▁Goedenavond	-11661
irk	-11662
mot	-11663
▁Fox	-11664
▁paus	-11665
▁sloot	-11666
ilanden	-11667
▁kamers	-11668
▁kikker	-11669
▁taught	-11670
▁shampoo	-11671
▁twijfel	-11672
▁Secretary	-11673
▁instrument	-11674
ïne	-11675
▁--	-11676
opte	-11677
unks	-11678
ungle	-11679
▁Gold	-11680
▁Ruim	-11681
▁equal	-11682
▁sauce	-11683
▁helmet	-11684
▁schuur	-11685
▁verkle	-11686
cription	-11687
▁distance	-11688
▁incident	-11689
▁universiteit	-11690
vi	-11691
▁Cr	-11692
▁Tod	-11693
antje	-11694
▁Gord	-11695
▁perm	-11696
▁vlug	-11697
▁Licht	-11698
▁gross	-11699
▁alvast	-11700
▁bleven	-11701
▁covers	-11702
▁seesaw	-11703
▁Conserv	-11704
▁natural	-11705
▁Waardoor	-11706
▁Waarvoor	-11707
▁voorstel	-11708
▁September	-11709
▁eigenschap	-11710
▁vasthouden	-11711
▁gevaarlijke	-11712
▁verplaatsen	-11713
▁Arm	-11714
▁Bank	-11715
▁Naut	-11716
giving	-11717
inders	-11718
▁forms	-11719
▁grant	-11720
▁rusten	-11721
▁Greater	-11722
producten	-11723
▁positief	-11724
▁aardappel	-11725
▁wondering	-11726
▁literatuur	-11727
mu	-11728
verv	-11729
zaal	-11730
▁Bev	-11731
▁Jas	-11732
iemen	-11733
paste	-11734
▁Jake	-11735
▁snee	-11736
▁worm	-11737
Gelman	-11738
aseerd	-11739
hebben	-11740
▁atmos	-11741
▁bends	-11742
▁chees	-11743
▁squir	-11744
▁wings	-11745
esseerd	-11746
▁betoog	-11747
▁boring	-11748
▁credit	-11749
▁diplom	-11750
▁immers	-11751
▁Francis	-11752
▁dankzij	-11753
▁sweater	-11754
▁absoluut	-11755
▁magazine	-11756
▁original	-11757
▁aangepast	-11758
▁positieve	-11759
▁Tegenwoord	-11760
▁Onderstreep	-11761
▁fotosynthese	-11762
3,	-11763
haven	-11764
▁Vorm	-11765
▁bevr	-11766
▁mort	-11767
▁rich	-11768
▁2021-	-11769
▁Draai	-11770
▁Zeven	-11771
▁opmer	-11772
trekken	-11773
▁diverse	-11774
▁houding	-11775
▁lobster	-11776
▁geslagen	-11777
▁koloniën	-11778
▁woensdag	-11779
verzekering	-11780
▁dichterbij	-11781
**	-11782
,50	-11783
gies	-11784
▁Boo	-11785
▁Sub	-11786
▁len	-11787
▁lic	-11788
print	-11789
▁aver	-11790
▁wond	-11791
buiten	-11792
esteit	-11793
▁Geeft	-11794
▁nerve	-11795
▁France	-11796
▁Hannah	-11797
▁dubbel	-11798
▁glazen	-11799
▁klasse	-11800
oldoende	-11801
▁levende	-11802
▁portret	-11803
▁gescheiden	-11804
Nu	-11805
bbel	-11806
okes	-11807
uile	-11808
▁Chr	-11809
▁afb	-11810
dicht	-11811
▁Eens	-11812
▁Heren	-11813
▁inged	-11814
▁relax	-11815
▁prettig	-11816
▁uitziet	-11817
▁vleugels	-11818
▁referring	-11819
▁uitgenodigd	-11820
▁belangrijker	-11821
▁concentratie	-11822
▁construction	-11823
▁introduction	-11824
▁nieuwsgierig	-11825
ili	-11826
wee	-11827
atic	-11828
▁hah	-11829
appar	-11830
▁bicycle	-11831
▁heleboel	-11832
)"	-11833
ilj	-11834
wns	-11835
▁Fe	-11836
▁Hy	-11837
mper	-11838
wijd	-11839
▁"""	-11840
▁lux	-11841
Inter	-11842
zeren	-11843
▁Jong	-11844
▁Name	-11845
bureau	-11846
inking	-11847
kennis	-11848
stukken	-11849
zigheid	-11850
▁plants	-11851
▁varken	-11852
▁gevolgd	-11853
▁brothers	-11854
▁scissors	-11855
AB	-11856
▁Ts	-11857
uary	-11858
rolls	-11859
▁Hoewel	-11860
▁Klimaat	-11861
▁groente	-11862
schrijven	-11863
▁friendly	-11864
▁meetings	-11865
▁reacties	-11866
▁procedure	-11867
▁uiterlijk	-11868
▁zelfmoord	-11869
▁Olympische	-11870
▁ecosysteem	-11871
▁aanwijzingen	-11872
ios	-11873
▁Law	-11874
▁2018	-11875
undaire	-11876
▁impact	-11877
▁reduct	-11878
▁healthy	-11879
▁progress	-11880
▁shoulders	-11881
▁5:	-11882
▁Ash	-11883
clown	-11884
groei	-11885
isjes	-11886
▁asks	-11887
▁bone	-11888
▁stre	-11889
elende	-11890
▁south	-11891
getrouw	-11892
▁Steeds	-11893
▁became	-11894
▁hierin	-11895
▁integr	-11896
▁versche	-11897
▁familiar	-11898
▁hopefully	-11899
▁aardbeving	-11900
4-	-11901
/010	-11902
that	-11903
▁Sky	-11904
eenth	-11905
insdag	-11906
▁Anton	-11907
▁ontpl	-11908
▁verbr	-11909
honderd	-11910
▁hersen	-11911
▁killed	-11912
▁lening	-11913
▁sausage	-11914
▁spijsver	-11915
▁agreement	-11916
▁persoonsvormen	-11917
99	-11918
oi	-11919
sex	-11920
▁''	-11921
bour	-11922
employ	-11923
▁Prins	-11924
▁alive	-11925
▁dolph	-11926
▁ordin	-11927
▁yucky	-11928
talking	-11929
▁analys	-11930
▁supply	-11931
▁logboek	-11932
Duitsland	-11933
▁contribut	-11934
▁spaceship	-11935
▁Downloaden	-11936
▁Welterusten	-11937
▁taalgebruik	-11938
itude	-11939
omers	-11940
onade	-11941
▁Flor	-11942
▁subs	-11943
▁trok	-11944
▁basic	-11945
▁augustus	-11946
▁stuifmeel	-11947
▁protection	-11948
▁stellingen	-11949
hoop	-11950
▁Sen	-11951
▁led	-11952
ashed	-11953
▁lijm	-11954
▁ruff	-11955
▁stab	-11956
▁Grond	-11957
▁Louis	-11958
▁Marsh	-11959
▁uhhum	-11960
▁People	-11961
▁manage	-11962
▁policies	-11963
▁resources	-11964
▁verbouwen	-11965
fortunately	-11966
bijvoorbeeld	-11967
ario	-11968
▁Zes	-11969
elten	-11970
▁Cody	-11971
▁Mont	-11972
▁Wood	-11973
ouwing	-11974
ruimen	-11975
▁huish	-11976
▁talen	-11977
reading	-11978
▁omlaag	-11979
▁spirit	-11980
▁bottles	-11981
▁weleens	-11982
ification	-11983
▁bothered	-11984
▁parlement	-11985
▁vliegtuigen	-11986
▁hoofdletters	-11987
▁responsibility	-11988
JE	-11989
▁SI	-11990
chte	-11991
deur	-11992
▁His	-11993
▁Didn	-11994
▁penn	-11995
ruimte	-11996
▁appre	-11997
▁willn	-11998
vorming	-11999
▁podium	-12000
▁recensie	-12001
▁discrimin	-12002
▁spelletje	-12003
oden	-12004
spro	-12005
schak	-12006
▁Dist	-12007
▁goal	-12008
▁tryin	-12009
wekkend	-12010
▁paleis	-12011
▁pickle	-12012
▁stapel	-12013
beginsel	-12014
▁science	-12015
▁balloons	-12016
▁reageert	-12017
▁origineel	-12018
▁conditions	-12019
▁automatisch	-12020
▁Bir	-12021
▁eit	-12022
overs	-12023
▁Care	-12024
▁harm	-12025
▁Graag	-12026
▁March	-12027
▁advis	-12028
erences	-12029
▁hogere	-12030
▁specif	-12031
▁horloge	-12032
▁nauwkeurig	-12033
▁192	-12034
▁Fant	-12035
▁zette	-12036
achines	-12037
▁Winnie	-12038
▁assess	-12039
▁sheriff	-12040
▁pancakes	-12041
▁berichten	-12042
▁officieel	-12043
▁verdwijnt	-12044
▁Councillor	-12045
▁ontzettend	-12046
zu	-12047
igar	-12048
▁Wol	-12049
atlas	-12050
stoel	-12051
▁2019	-12052
▁Kerk	-12053
▁deer	-12054
▁sque	-12055
▁Colle	-12056
▁afger	-12057
▁knocks	-12058
ificatie	-12059
▁indepen	-12060
▁message	-12061
▁rapport	-12062
▁Gisteren	-12063
▁spending	-12064
pronounced	-12065
▁Selecteer	-12066
▁gesprekje	-12067
▁greenbelt	-12068
▁uitvinding	-12069
▁watermelon	-12070
▁37	-12071
▁Fat	-12072
sharp	-12073
▁tied	-12074
▁bruin	-12075
ikaanse	-12076
▁Chicago	-12077
▁Perfect	-12078
▁aspecten	-12079
▁geoefend	-12080
▁vervoeren	-12081
▁production	-12082
ques	-12083
zint	-12084
▁Moh	-12085
arden	-12086
▁2010	-12087
▁meas	-12088
ording	-12089
▁Again	-12090
▁maart	-12091
▁astron	-12092
▁diaper	-12093
▁factor	-12094
▁oefent	-12095
▁skills	-12096
▁vaders	-12097
▁voices	-12098
▁karakter	-12099
▁honderden	-12100
95	-12101
ël	-12102
von	-12103
boog	-12104
▁Vir	-12105
imale	-12106
risis	-12107
▁nast	-12108
▁Beste	-12109
▁liegt	-12110
▁piram	-12111
▁thick	-12112
▁vormt	-12113
▁houten	-12114
▁koffer	-12115
▁parrot	-12116
▁Hoelang	-12117
▁nakijken	-12118
▁occasion	-12119
▁klassieke	-12120
▁bijvoeglijke	-12121
mt	-12122
zt	-12123
.00	-12124
▁38	-12125
bage	-12126
ammed	-12127
illes	-12128
ource	-12129
▁From	-12130
▁Haag	-12131
▁Plan	-12132
▁Spen	-12133
▁spul	-12134
ikkers	-12135
▁bijeen	-12136
▁potlood	-12137
▁wedding	-12138
▁voedselk	-12139
eme	-12140
▁Kay	-12141
▁tut	-12142
adres	-12143
folio	-12144
▁Wort	-12145
▁heus	-12146
opbouw	-12147
▁Pract	-12148
▁bubble	-12149
▁wijzen	-12150
▁beroeps	-12151
▁donkere	-12152
▁mistake	-12153
▁controleer	-12154
▁organiseren	-12155
rond	-12156
▁Oct	-12157
▁Zei	-12158
▁Iron	-12159
▁Vuur	-12160
aarden	-12161
ertjes	-12162
father	-12163
▁comin	-12164
▁eaten	-12165
▁humor	-12166
▁stads	-12167
▁drinkt	-12168
▁eeuwig	-12169
▁package	-12170
▁sporten	-12171
▁december	-12172
rekt	-12173
▁Hat	-12174
▁Mid	-12175
eless	-12176
zoals	-12177
▁dirt	-12178
▁grey	-12179
▁kart	-12180
geleid	-12181
▁giant	-12182
▁landed	-12183
▁lollip	-12184
▁metaal	-12185
▁minste	-12186
▁pepper	-12187
▁strugg	-12188
▁primaire	-12189
▁schattig	-12190
▁doelgroep	-12191
▁exercises	-12192
▁sweetheart	-12193
▁verschijnt	-12194
-0	-12195
zik	-12196
cycl	-12197
usie	-12198
▁zip	-12199
▁happ	-12200
▁zwer	-12201
▁koelk	-12202
richten	-12203
▁passag	-12204
▁termin	-12205
uitenant	-12206
▁advance	-12207
▁drankje	-12208
▁kwestie	-12209
▁colleagues	-12210
▁photograph	-12211
▁zogenaamde	-12212
▁slachtoffer	-12213
cue	-12214
coll	-12215
▁Oom	-12216
eders	-12217
genen	-12218
▁oost	-12219
mannen	-12220
▁drawn	-12221
▁shelf	-12222
fabriek	-12223
▁Bewaar	-12224
▁posters	-12225
▁democrat	-12226
▁Wikipedia	-12227
▁militaire	-12228
▁afgesloten	-12229
Al	-12230
▁Seth	-12231
▁Soci	-12232
▁anno	-12233
▁daad	-12234
▁jeep	-12235
cyclus	-12236
▁categ	-12237
▁gekke	-12238
▁Person	-12239
▁walvis	-12240
▁washer	-12241
produces	-12242
▁bewaard	-12243
▁legenda	-12244
▁prevent	-12245
Hé	-12246
gab	-12247
▁GE	-12248
▁Rel	-12249
▁bok	-12250
ledge	-12251
▁boel	-12252
blazen	-12253
waarts	-12254
▁genen	-12255
▁homes	-12256
▁jaart	-12257
▁stays	-12258
ination	-12259
vechten	-12260
▁August	-12261
▁Willen	-12262
▁aanpak	-12263
▁detect	-12264
▁tastes	-12265
▁gezeten	-12266
▁beveilig	-12267
▁openbaar	-12268
▁vannacht	-12269
▁extremely	-12270
NT	-12271
host	-12272
iast	-12273
ikes	-12274
umps	-12275
▁Our	-12276
▁[.5	-12277
▁gan	-12278
▁peg	-12279
▁grie	-12280
closes	-12281
entjes	-12282
rijksk	-12283
▁joint	-12284
▁Walter	-12285
▁beslist	-12286
▁envelop	-12287
▁hielden	-12288
▁reports	-12289
▁troepen	-12290
▁vermeld	-12291
▁Scotland	-12292
▁aanwijzen	-12293
▁tegenhouden	-12294
▁Universiteit	-12295
▁voorzieningen	-12296
ohn	-12297
vaar	-12298
▁nor	-12299
Roman	-12300
▁opzij	-12301
elefoon	-12302
▁Moeten	-12303
▁ergste	-12304
▁drukken	-12305
chnologie	-12306
▁fantasie	-12307
▁handelen	-12308
▁bewegingen	-12309
▁plotseling	-12310
▁consumenten	-12311
OW	-12312
▁4,	-12313
▁lui	-12314
▁unt	-12315
acing	-12316
▁atta	-12317
▁roze	-12318
▁stew	-12319
▁vroe	-12320
▁Holly	-12321
▁Shall	-12322
▁foute	-12323
▁gliml	-12324
▁zocht	-12325
▁extent	-12326
▁drijven	-12327
▁opinion	-12328
▁exciting	-12329
▁vermogen	-12330
▁medeleerling	-12331
ivil	-12332
▁Est	-12333
▁ihr	-12334
▁nul	-12335
▁Rose	-12336
▁blijk	-12337
▁getra	-12338
▁sniff	-12339
▁calcul	-12340
sverslag	-12341
▁Energie	-12342
▁stijgen	-12343
▁oorspron	-12344
▁partners	-12345
▁industrial	-12346
▁koninkrijk	-12347
▁ondersteun	-12348
▁reasonable	-12349
▁verdrietig	-12350
▁communistische	-12351
▁energiebronnen	-12352
▁onderzoeksvraag	-12353
Br	-12354
SLI	-12355
▁Fro	-12356
Point	-12357
▁crazy	-12358
▁fijne	-12359
▁firet	-12360
▁koers	-12361
▁typen	-12362
▁vorig	-12363
▁appels	-12364
▁biggest	-12365
▁trailer	-12366
▁uitgest	-12367
▁onafhank	-12368
▁NI	-12369
kels	-12370
pupp	-12371
ommer	-12372
rokod	-12373
▁mini	-12374
▁tiss	-12375
▁fifth	-12376
▁spion	-12377
▁wraak	-12378
▁branch	-12379
▁workers	-12380
▁touching	-12381
▁westerse	-12382
▁letterlijk	-12383
isse	-12384
kunst	-12385
ockey	-12386
umably	-12387
▁leuker	-12388
▁reminds	-12389
▁schouder	-12390
▁verzamel	-12391
▁rechthoek	-12392
▁intonation	-12393
▁pocketbook	-12394
▁schoonheid	-12395
RUS	-12396
▁Str	-12397
▁nuh	-12398
etera	-12399
stijl	-12400
zones	-12401
▁CHIs	-12402
▁bake	-12403
▁bijl	-12404
▁kann	-12405
▁mike	-12406
▁beled	-12407
▁hokje	-12408
▁makin	-12409
▁Daarin	-12410
▁kandid	-12411
▁diamond	-12412
alisering	-12413
▁november	-12414
▁Groningen	-12415
▁dierentuin	-12416
▁immediately	-12417
▁bovenstaande	-12418
aast	-12419
uzzy	-12420
▁tal	-12421
▁ages	-12422
elland	-12423
social	-12424
▁hardly	-12425
▁series	-12426
▁carrière	-12427
▁climbing	-12428
▁woordjes	-12429
▁operation	-12430
▁significant	-12431
RR	-12432
rig	-12433
down	-12434
▁Tar	-12435
▁Rode	-12436
▁mand	-12437
▁teams	-12438
werkend	-12439
▁Future	-12440
▁afmaken	-12441
▁Tuurlijk	-12442
▁Onderwerp	-12443
▁bestanden	-12444
▁schrijvers	-12445
▁voorbereiding	-12446
zem	-12447
cken	-12448
▁Hav	-12449
▁sin	-12450
itive	-12451
▁duik	-12452
▁male	-12453
▁seal	-12454
aatsen	-12455
▁bacon	-12456
▁crawl	-12457
▁nucle	-12458
▁schel	-12459
▁lawaai	-12460
▁levels	-12461
▁phoned	-12462
omgeving	-12463
▁prehist	-12464
▁verliest	-12465
▁vrouwelijke	-12466
▁slachtoffers	-12467
lok	-12468
bird	-12469
eler	-12470
▁Tab	-12471
▁Bond	-12472
▁lust	-12473
▁stro	-12474
▁Febru	-12475
▁marks	-12476
▁plank	-12477
▁trust	-12478
▁Oceaan	-12479
▁center	-12480
▁circum	-12481
▁kanker	-12482
▁octopus	-12483
▁Ongeveer	-12484
▁evenveel	-12485
▁februari	-12486
▁ophouden	-12487
▁toevoegen	-12488
omstandigheden	-12489
▁wetenschappers	-12490
hun	-12491
kte	-12492
▁bib	-12493
bleem	-12494
▁Ruth	-12495
▁hert	-12496
▁rope	-12497
▁tone	-12498
▁zeep	-12499
▁After	-12500
▁Sammy	-12501
▁verse	-12502
▁Thirty	-12503
▁rommel	-12504
▁achieve	-12505
▁average	-12506
▁schapen	-12507
ultaneous	-12508
▁whispers	-12509
▁uitzonder	-12510
▁conference	-12511
▁toothbrush	-12512
▁zwangerschap	-12513
OO	-12514
Gen	-12515
▁Cat	-12516
erson	-12517
▁Geoff	-12518
▁komma	-12519
▁repet	-12520
▁tekens	-12521
▁herhaal	-12522
▁ketting	-12523
▁tweeling	-12524
Ga	-12525
All	-12526
▁(3	-12527
▁Sof	-12528
▁gru	-12529
▁nar	-12530
▁Lynn	-12531
orrels	-12532
▁Jones	-12533
▁Oscar	-12534
▁Raven	-12535
▁helik	-12536
▁joden	-12537
▁kelder	-12538
▁surely	-12539
▁vermen	-12540
namelijk	-12541
▁vuilnis	-12542
▁including	-12543
'!	-12544
LLL	-12545
ask	-12546
ros	-12547
tle	-12548
aamd	-12549
▁Erg	-12550
armen	-12551
▁July	-12552
atoren	-12553
▁Cheer	-12554
▁raket	-12555
▁gepakt	-12556
▁locked	-12557
▁remove	-12558
▁install	-12559
▁machtig	-12560
▁homework	-12561
▁lollipop	-12562
esc	-12563
itz	-12564
▁Ly	-12565
▁Wo	-12566
ieur	-12567
▁Fel	-12568
▁sis	-12569
▁Neil	-12570
▁cord	-12571
▁slee	-12572
▁tran	-12573
▁lente	-12574
▁plums	-12575
▁duivel	-12576
▁mister	-12577
rekening	-12578
▁enjoyed	-12579
▁matters	-12580
▁absolute	-12581
▁aanbieden	-12582
▁katholieke	-12583
▁slaapkamer	-12584
▁buitenlandse	-12585
▁voedselketen	-12586
elta	-12587
▁Ell	-12588
▁nuts	-12589
eleven	-12590
▁Voort	-12591
▁finds	-12592
babbles	-12593
▁Albert	-12594
▁tekent	-12595
▁behaald	-12596
▁gemeent	-12597
▁gepraat	-12598
▁kolommen	-12599
▁verbanden	-12600
JJ	-12601
edt	-12602
yed	-12603
▁ic	-12604
lift	-12605
▁PCI	-12606
ublic	-12607
▁gunst	-12608
formule	-12609
▁bananas	-12610
▁breedte	-12611
▁Antwoord	-12612
▁erfelijke	-12613
▁Leervragen	-12614
▁overstromingen	-12615
CT	-12616
▁hyp	-12617
imate	-12618
pleeg	-12619
▁Stad	-12620
▁keur	-12621
▁slip	-12622
imburg	-12623
staten	-12624
▁Aarde	-12625
▁Bailey	-12626
▁maximum	-12627
▁pouring	-12628
▁stuurde	-12629
bevolking	-12630
▁verdieping	-12631
▁biologische	-12632
ène	-12633
▁Cy	-12634
some	-12635
▁1945	-12636
▁heat	-12637
ilatie	-12638
▁flauw	-12639
▁satis	-12640
▁Hierin	-12641
▁Pracht	-12642
▁aanget	-12643
▁forest	-12644
▁mooier	-12645
▁status	-12646
▁ticket	-12647
▁Hiermee	-12648
▁Spelling	-12649
▁benefits	-12650
▁ordinary	-12651
▁stickers	-12652
▁interpret	-12653
emp	-12654
hre	-12655
pop	-12656
▁py	-12657
hond	-12658
▁cas	-12659
▁veh	-12660
geten	-12661
itaal	-12662
▁Hulp	-12663
▁luid	-12664
binnen	-12665
▁Wales	-12666
▁serie	-12667
diagram	-12668
▁season	-12669
▁normale	-12670
▁examines	-12671
▁papieren	-12672
▁overkomen	-12673
▁moeilijker	-12674
▁aangevallen	-12675
-7	-12676
cep	-12677
lab	-12678
turn	-12679
ziet	-12680
▁Ram	-12681
▁thre	-12682
▁Joost	-12683
▁Texas	-12684
▁durft	-12685
▁Intern	-12686
▁managed	-12687
▁ontsnapt	-12688
▁operatie	-12689
▁Paragraaf	-12690
▁deelonder	-12691
▁Griekenland	-12692
GRF	-12693
aya	-12694
top	-12695
▁65	-12696
▁gif	-12697
▁risk	-12698
ricult	-12699
▁Allen	-12700
▁heads	-12701
▁seeds	-12702
▁filled	-12703
▁impress	-12704
Interview	-12705
▁verbranden	-12706
OM	-12707
▁Jen	-12708
▁Mit	-12709
▁Vel	-12710
▁fys	-12711
▁gee	-12712
aarde	-12713
igvuld	-12714
witten	-12715
▁broom	-12716
elletje	-12717
estival	-12718
▁commit	-12719
▁vooraf	-12720
▁Fransen	-12721
▁lesboek	-12722
▁ringing	-12723
▁District	-12724
▁beantwoordt	-12725
▁onafhankelijk	-12726
▁geïnteresseerd	-12727
▁overzichtelijk	-12728
lad	-12729
acks	-12730
inct	-12731
resp	-12732
becca	-12733
▁Kees	-12734
▁kidd	-12735
▁veer	-12736
direct	-12737
▁Freud	-12738
▁Radio	-12739
▁chalk	-12740
▁oogst	-12741
▁Dennis	-12742
▁Stefan	-12743
▁target	-12744
▁zevent	-12745
▁StudioW	-12746
▁setting	-12747
▁trainen	-12748
▁whining	-12749
▁opstellen	-12750
▁verborgen	-12751
▁voetafdruk	-12752
NL	-12753
?'"	-12754
allo	-12755
▁[1.2	-12756
▁horn	-12757
▁scen	-12758
▁Jason	-12759
▁fault	-12760
▁index	-12761
▁jumps	-12762
organen	-12763
stekend	-12764
▁Oliver	-12765
▁herfst	-12766
▁script	-12767
▁enkelvoud	-12768
▁historische	-12769
orb	-12770
▁EN	-12771
▁flu	-12772
hoorn	-12773
▁surv	-12774
▁chain	-12775
▁bakken	-12776
entially	-12777
▁tickets	-12778
▁horizont	-12779
▁maaltijd	-12780
▁whenever	-12781
▁zonlicht	-12782
▁Belangrijk	-12783
▁onderzocht	-12784
▁revolution	-12785
▁Tegenwoordig	-12786
▁00	-12787
roud	-12788
▁Cel	-12789
▁gig	-12790
pause	-12791
place	-12792
▁Druk	-12793
▁Naam	-12794
▁chin	-12795
▁banen	-12796
▁toven	-12797
▁method	-12798
▁oudste	-12799
▁playin	-12800
▁screen	-12801
espiegel	-12802
▁becomes	-12803
▁eronder	-12804
▁hierdoor	-12805
▁relationship	-12806
kou	-12807
Geen	-12808
▁Day	-12809
▁Wim	-12810
▁gezel	-12811
draaien	-12812
▁breekt	-12813
▁Doordat	-12814
▁Nothing	-12815
▁coördin	-12816
▁sociaal	-12817
▁agricult	-12818
▁economic	-12819
▁gestoord	-12820
▁voortdur	-12821
00,-	-12822
bbie	-12823
heim	-12824
plic	-12825
▁Boek	-12826
▁weig	-12827
▁wine	-12828
arters	-12829
rijpen	-12830
▁roads	-12831
▁Israël	-12832
▁bruine	-12833
▁gelijke	-12834
▁kritiek	-12835
▁opkomst	-12836
▁unclear	-12837
▁varkens	-12838
▁begrafen	-12839
▁vruchten	-12840
▁vriendschap	-12841
Pl	-12842
alie	-12843
ynam	-12844
bloed	-12845
keers	-12846
onald	-12847
urken	-12848
▁chat	-12849
▁Offic	-12850
▁weder	-12851
▁ademen	-12852
▁schoot	-12853
ologisch	-12854
▁challen	-12855
▁majority	-12856
▁verstandig	-12857
tv	-12858
ête	-12859
▁Sw	-12860
skar	-12861
spre	-12862
▁syn	-12863
jamas	-12864
oorde	-12865
shake	-12866
ulsen	-12867
voren	-12868
▁emer	-12869
▁gaaf	-12870
aarwel	-12871
enters	-12872
▁Larry	-12873
▁ramen	-12874
plieden	-12875
▁appreci	-12876
▁dringen	-12877
▁Internet	-12878
▁basissch	-12879
▁verwijst	-12880
▁werkelijk	-12881
▁zakelijke	-12882
1/	-12883
▁↫	-12884
iool	-12885
ique	-12886
▁taf	-12887
nings	-12888
▁Hill	-12889
▁beet	-12890
▁sect	-12891
▁Diana	-12892
▁grabb	-12893
▁hormonen	-12894
▁inmiddels	-12895
▁verzameling	-12896
▁vriendinnen	-12897
4,	-12898
Le	-12899
bum	-12900
fon	-12901
...'	-12902
Child	-12903
▁Show	-12904
▁trav	-12905
tended	-12906
▁Chief	-12907
▁Julie	-12908
▁Miche	-12909
▁puber	-12910
▁shock	-12911
▁troep	-12912
central	-12913
▁akkers	-12914
▁cheque	-12915
▁feesten	-12916
▁follows	-12917
geschoten	-12918
▁gebruikten	-12919
aks	-12920
▁Whe	-12921
▁aer	-12922
▁Democ	-12923
▁irrit	-12924
ignment	-12925
▁besloot	-12926
▁lekkere	-12927
▁plakken	-12928
▁popular	-12929
▁vermoed	-12930
▁selectie	-12931
▁chocolade	-12932
▁gebaseerd	-12933
▁verwijderen	-12934
CHT	-12935
Laat	-12936
team	-12937
▁-->	-12938
▁opv	-12939
▁fear	-12940
▁trui	-12941
rijgen	-12942
▁Waren	-12943
▁drove	-12944
▁loved	-12945
▁opged	-12946
▁raise	-12947
▁scare	-12948
▁spoke	-12949
melding	-12950
▁Portug	-12951
▁blanke	-12952
▁modder	-12953
▁January	-12954
▁Patrick	-12955
▁verlaat	-12956
▁crackers	-12957
▁geluiden	-12958
▁PowerPoint	-12959
▁volwassenen	-12960
▁tentoonstelling	-12961
ivia	-12962
▁Hug	-12963
▁obs	-12964
▁sil	-12965
▁...;	-12966
▁Germ	-12967
▁Plak	-12968
pakket	-12969
speler	-12970
▁bangs	-12971
▁commer	-12972
gedrukte	-12973
schieten	-12974
▁woordenschat	-12975
IL	-12976
pé	-12977
▁Ac	-12978
cker	-12979
▁Veg	-12980
▁tum	-12981
helps	-12982
icket	-12983
▁Roos	-12984
▁coke	-12985
▁flip	-12986
▁rais	-12987
▁bruid	-12988
elijkse	-12989
▁uitbre	-12990
diensten	-12991
▁nursery	-12992
▁stammen	-12993
▁penvriend	-12994
gelegenheid	-12995
▁toegevoegd	-12996
SB	-12997
▁fam	-12998
leans	-12999
oorts	-13000
▁Were	-13001
▁neut	-13002
▁zaal	-13003
▁imper	-13004
▁shoel	-13005
▁tough	-13006
▁bezitt	-13007
▁flinke	-13008
schoenen	-13009
▁scooter	-13010
▁February	-13011
▁algemene	-13012
▁geselect	-13013
▁jaarlijk	-13014
▁forgotten	-13015
▁zekerheid	-13016
▁StudioWozzol	-13017
acu	-13018
cke	-13019
fth	-13020
zond	-13021
▁Hum	-13022
icked	-13023
▁Hung	-13024
▁sein	-13025
roting	-13026
▁boats	-13027
▁embry	-13028
▁icoon	-13029
▁prest	-13030
▁cooked	-13031
gebroken	-13032
▁agenten	-13033
▁geweten	-13034
▁pattern	-13035
▁snowman	-13036
▁avontuur	-13037
▁bovenaan	-13038
▁grafieken	-13039
▁verzameld	-13040
ME	-13041
ibt	-13042
lie	-13043
rix	-13044
iaal	-13045
▁Mill	-13046
energie	-13047
▁Vanuit	-13048
▁airport	-13049
▁cadeaut	-13050
▁consequ	-13051
▁parkeer	-13052
▁circumst	-13053
▁gedichten	-13054
▁vliegveld	-13055
▁Afbeelding	-13056
but	-13057
▁wi	-13058
▁Post	-13059
ffende	-13060
wongen	-13061
▁Volks	-13062
▁autor	-13063
▁schut	-13064
▁zuster	-13065
▁Rebecca	-13066
▁gemeten	-13067
▁determin	-13068
▁stroming	-13069
II	-13070
pass	-13071
rive	-13072
ituut	-13073
▁Most	-13074
roepen	-13075
▁kroon	-13076
▁sixth	-13077
▁steel	-13078
ementen	-13079
▁crocod	-13080
▁energy	-13081
▁gelegd	-13082
▁gevuld	-13083
▁grijze	-13084
▁mijnheer	-13085
▁increasing	-13086
▁environmental	-13087
una	-13088
▁AB	-13089
▁ere	-13090
ivier	-13091
▁Daan	-13092
▁Rand	-13093
▁blah	-13094
▁Kaart	-13095
▁Links	-13096
▁Seven	-13097
▁losse	-13098
▁sneak	-13099
▁cheeseb	-13100
▁Sommigen	-13101
▁uitkomst	-13102
▁opgegeten	-13103
tel	-13104
guin	-13105
▁dev	-13106
▁glo	-13107
amers	-13108
▁1500	-13109
▁doss	-13110
▁logo	-13111
▁moer	-13112
▁viss	-13113
making	-13114
▁Polit	-13115
▁schon	-13116
▁Filips	-13117
▁padden	-13118
▁fishing	-13119
▁genezen	-13120
▁expected	-13121
▁bijgehouden	-13122
▁hoofdpersoon	-13123
DEN	-13124
snee	-13125
▁Rec	-13126
▁[.9	-13127
▁Long	-13128
▁army	-13129
▁poet	-13130
▁poot	-13131
▁skat	-13132
▁stal	-13133
▁torn	-13134
member	-13135
ulling	-13136
▁Quite	-13137
▁Still	-13138
▁omgek	-13139
ellende	-13140
kissing	-13141
▁Wilson	-13142
▁advant	-13143
▁bedekt	-13144
▁belast	-13145
▁fridge	-13146
▁helden	-13147
▁rights	-13148
aadpleegd	-13149
▁Kerstmis	-13150
▁Noordpool	-13151
▁whispered	-13152
▁secundaire	-13153
▁Verderkijker	-13154
LT	-13155
▁➜	-13156
hua	-13157
tige	-13158
▁phr	-13159
▁slu	-13160
▁Meen	-13161
▁Merc	-13162
▁Onth	-13163
▁alph	-13164
▁rots	-13165
▁gedoe	-13166
▁Church	-13167
▁koppel	-13168
▁vielen	-13169
▁waters	-13170
criteria	-13171
▁Germany	-13172
▁inzicht	-13173
▁aandelen	-13174
▁beschrijft	-13175
▁employment	-13176
▁verzekering	-13177
oln	-13178
like	-13179
▁Bry	-13180
▁Gek	-13181
attle	-13182
ufact	-13183
▁nach	-13184
▁Cliff	-13185
▁Liber	-13186
▁Maybe	-13187
▁Mocht	-13188
▁Woody	-13189
▁eikel	-13190
meester	-13191
rekking	-13192
▁Atlant	-13193
▁Jackie	-13194
▁Listen	-13195
▁ingest	-13196
▁katoen	-13197
▁sticky	-13198
standige	-13199
struatie	-13200
▁mobiele	-13201
belasting	-13202
▁koelkast	-13203
▁gevochten	-13204
▁comfortable	-13205
72	-13206
STAP	-13207
doll	-13208
ofte	-13209
oodse	-13210
▁Euro	-13211
▁admin	-13212
▁faith	-13213
▁fuzzy	-13214
▁strak	-13215
▁verwerk	-13216
▁kleinere	-13217
microphone	-13218
▁oppervlak	-13219
▁mannelijke	-13220
Kl	-13221
pie	-13222
leen	-13223
wijf	-13224
▁Dam	-13225
▁Dok	-13226
▁Haw	-13227
loopt	-13228
▁Ricky	-13229
▁campa	-13230
▁gemen	-13231
▁weers	-13232
▁opeten	-13233
▁zomers	-13234
▁tweetal	-13235
▁toestand	-13236
▁vijftien	-13237
▁activities	-13238
▁grondwater	-13239
▁uitgebreid	-13240
▁voorzetsel	-13241
▁Verschillende	-13242
▁werkwoordelijk	-13243
jer	-13244
lse	-13245
ancy	-13246
clam	-13247
sets	-13248
show	-13249
ether	-13250
model	-13251
▁Greg	-13252
arrest	-13253
istent	-13254
▁Roger	-13255
▁ladyb	-13256
▁nakom	-13257
izigers	-13258
▁donkey	-13259
▁gitaar	-13260
▁Marokko	-13261
▁Vrouwen	-13262
▁barrels	-13263
▁locatie	-13264
▁existing	-13265
▁disappear	-13266
▁investment	-13267
▁opschrijven	-13268
▁tegenstelling	-13269
wo	-13270
End	-13271
LUK	-13272
uge	-13273
▁39	-13274
▁Im	-13275
ippy	-13276
▁[4.	-13277
dings	-13278
▁...2	-13279
▁vaat	-13280
▁hallo	-13281
▁ladies	-13282
▁muffin	-13283
reaching	-13284
▁verwijs	-13285
▁bovenste	-13286
▁achterkant	-13287
▁bloedvaten	-13288
▁instructie	-13289
aca	-13290
hib	-13291
▁creë	-13292
doelen	-13293
etchup	-13294
gegaan	-13295
inkers	-13296
▁Beter	-13297
▁akker	-13298
▁plain	-13299
▁vakje	-13300
▁Please	-13301
▁Summer	-13302
▁douche	-13303
▁prepar	-13304
▁lesstof	-13305
▁penguin	-13306
▁mushroom	-13307
Interviews	-13308
▁achteruit	-13309
▁beoordeelt	-13310
▁voorzitter	-13311
▁whispering	-13312
▁kopieerblad	-13313
▁veroorzaken	-13314
IG	-13315
so	-13316
▁Ta	-13317
Mark	-13318
iale	-13319
▁Erin	-13320
▁mile	-13321
iction	-13322
vakken	-13323
ziekte	-13324
▁bruik	-13325
▁frame	-13326
▁Indian	-13327
▁jungle	-13328
▁salami	-13329
▁gepland	-13330
▁groeide	-13331
▁nerveus	-13332
▁pudding	-13333
▁toegest	-13334
▁bacterie	-13335
▁etcetera	-13336
▁migratie	-13337
▁ondernem	-13338
▁stamboom	-13339
▁generatie	-13340
▁preschool	-13341
▁begrafenis	-13342
▁berekening	-13343
▁zeespiegel	-13344
ebo	-13345
▁5,	-13346
mans	-13347
▁Ven	-13348
▁fed	-13349
antel	-13350
▁Maas	-13351
▁Octo	-13352
▁Sara	-13353
▁hydro	-13354
▁omzet	-13355
▁geleid	-13356
▁cheaper	-13357
▁kilomet	-13358
▁geslapen	-13359
▁batteries	-13360
▁ministers	-13361
▁Middelland	-13362
▁binnenkort	-13363
▁benodigdheden	-13364
▁mispronounced	-13365
iß	-13366
brug	-13367
long	-13368
▁mal	-13369
iches	-13370
paper	-13371
▁bomb	-13372
▁heks	-13373
▁path	-13374
▁poop	-13375
▁zoog	-13376
Oosten	-13377
▁Matty	-13378
▁spare	-13379
▁tocht	-13380
▁fallen	-13381
▁huisje	-13382
▁oranje	-13383
▁Absolut	-13384
▁omgezet	-13385
▁November	-13386
▁slechter	-13387
▁firefight	-13388
▁meerkeuze	-13389
▁technologie	-13390
ERI	-13391
MIC	-13392
esar	-13393
mark	-13394
okay	-13395
▁Aus	-13396
blaas	-13397
iekem	-13398
schot	-13399
▁Inde	-13400
▁belie	-13401
▁loose	-13402
▁rebus	-13403
▁Zimmer	-13404
▁gehele	-13405
▁grapes	-13406
▁maatje	-13407
▁oudere	-13408
▁amazing	-13409
bedrijven	-13410
▁Verander	-13411
▁beschuld	-13412
▁division	-13413
▁herhalen	-13414
▁verderop	-13415
▁Alexander	-13416
▁provision	-13417
▁Auf	-13418
▁Joey	-13419
▁Wall	-13420
▁mank	-13421
letter	-13422
▁pannen	-13423
▁splash	-13424
▁doctors	-13425
▁matches	-13426
▁stoelen	-13427
▁Bosatlas	-13428
▁Mohammed	-13429
▁perspect	-13430
▁received	-13431
▁amendment	-13432
▁steenkool	-13433
▁Koninkrijk	-13434
▁leestekens	-13435
▁probeerden	-13436
▁vernietigd	-13437
▁Spanjaarden	-13438
urb	-13439
▁Web	-13440
▁wra	-13441
stick	-13442
▁Dere	-13443
▁Gall	-13444
▁Kort	-13445
▁pred	-13446
▁recy	-13447
▁ruit	-13448
isions	-13449
▁fluit	-13450
▁stood	-13451
kaarten	-13452
▁bidden	-13453
▁liepen	-13454
▁shovel	-13455
▁squared	-13456
▁zonnest	-13457
▁dankbaar	-13458
▁tijdbalk	-13459
▁vergeven	-13460
▁bestrijden	-13461
▁successful	-13462
nut	-13463
edie	-13464
▁Air	-13465
▁Sha	-13466
▁Tes	-13467
▁mug	-13468
avier	-13469
reerd	-13470
▁Bram	-13471
▁bush	-13472
▁peel	-13473
▁tref	-13474
▁Donna	-13475
▁einem	-13476
▁occur	-13477
streeks	-13478
▁Latijn	-13479
▁Mannen	-13480
▁clever	-13481
▁duinen	-13482
▁execut	-13483
▁heuvel	-13484
▁dealing	-13485
▁gezonde	-13486
▁realized	-13487
▁chromosomen	-13488
▁bijzonderheden	-13489
AG	-13490
KEL	-13491
▁55	-13492
bott	-13493
▁DDR	-13494
▁tin	-13495
affen	-13496
arken	-13497
▁Half	-13498
▁Turn	-13499
▁hete	-13500
ograaf	-13501
▁Kelly	-13502
▁accep	-13503
▁graaf	-13504
▁hekel	-13505
▁peace	-13506
▁labour	-13507
▁strike	-13508
▁kolonel	-13509
▁opgeven	-13510
▁uitvoer	-13511
▁cupboard	-13512
▁mountain	-13513
▁voorlezen	-13514
2,	-13515
zon	-13516
erse	-13517
nest	-13518
▁yog	-13519
▁boog	-13520
▁hose	-13521
▁nail	-13522
▁wire	-13523
▁Basis	-13524
▁Wendy	-13525
▁waves	-13526
▁premie	-13527
▁slimme	-13528
▁manipul	-13529
▁besturen	-13530
▁explains	-13531
▁planeten	-13532
▁tandarts	-13533
▁Christian	-13534
▁onderhand	-13535
▁satelliet	-13536
▁verbergen	-13537
▁vreselijke	-13538
urd	-13539
▁6,	-13540
▁Ot	-13541
ookt	-13542
uige	-13543
▁Nij	-13544
namen	-13545
omein	-13546
▁2017	-13547
▁Burg	-13548
▁syll	-13549
▁vals	-13550
gewoon	-13551
refers	-13552
▁bezet	-13553
▁tover	-13554
▁begele	-13555
▁relief	-13556
▁speler	-13557
▁tranen	-13558
▁Product	-13559
▁gelaten	-13560
▁smoking	-13561
▁bewonder	-13562
▁followed	-13563
▁genoemde	-13564
▁mensheid	-13565
▁vierkant	-13566
▁firetruck	-13567
▁proposals	-13568
▁suggested	-13569
▁application	-13570
AS	-13571
NN	-13572
UR	-13573
.).	-13574
spe	-13575
▁fo	-13576
gage	-13577
kust	-13578
▁Sab	-13579
▁Linc	-13580
▁Muur	-13581
▁Johan	-13582
▁flash	-13583
▁waait	-13584
erentie	-13585
imenten	-13586
▁Nummer	-13587
▁beleefd	-13588
▁bevindt	-13589
▁afdeling	-13590
▁familiel	-13591
▁scheiden	-13592
▁schitter	-13593
▁condition	-13594
▁favourite	-13595
▁vanmorgen	-13596
▁responsible	-13597
hn	-13598
▁47	-13599
inem	-13600
▁Tan	-13601
▁Wes	-13602
▁cam	-13603
aging	-13604
ingle	-13605
plein	-13606
▁Eeuw	-13607
▁Hulk	-13608
▁Lief	-13609
▁Voeg	-13610
▁cock	-13611
▁pomp	-13612
▁wiel	-13613
▁bones	-13614
▁flies	-13615
▁foods	-13616
sopgave	-13617
▁emphas	-13618
▁equals	-13619
▁hoping	-13620
▁parall	-13621
▁wortel	-13622
▁geopend	-13623
▁verzoek	-13624
▁attached	-13625
▁vervoerd	-13626
▁winkelen	-13627
▁communisme	-13628
!)	-13629
cro	-13630
▁Av	-13631
inky	-13632
/2014	-13633
▁crow	-13634
▁dent	-13635
▁prec	-13636
hoeken	-13637
▁schot	-13638
▁schud	-13639
▁versn	-13640
oppervl	-13641
stappen	-13642
▁gelden	-13643
▁leader	-13644
▁schone	-13645
getrouwe	-13646
▁Lieverd	-13647
▁battery	-13648
▁richten	-13649
▁rondjes	-13650
▁theater	-13651
▁Michelle	-13652
▁mannetje	-13653
iwi	-13654
▁Py	-13655
grow	-13656
wiel	-13657
▁Dom	-13658
▁gut	-13659
▁obl	-13660
▁roep	-13661
roffen	-13662
▁beker	-13663
▁goose	-13664
▁pinea	-13665
▁Bedoel	-13666
▁Moskou	-13667
▁leidde	-13668
▁tosses	-13669
▁writes	-13670
▁opslaan	-13671
▁tomaten	-13672
centrales	-13673
▁behoefte	-13674
▁discover	-13675
▁donderdag	-13676
▁uitgevonden	-13677
▁2)	-13678
ampt	-13679
aver	-13680
▁bef	-13681
▁ens	-13682
▁fee	-13683
langs	-13684
▁Hist	-13685
▁Week	-13686
▁guid	-13687
ashing	-13688
▁Oskar	-13689
▁droeg	-13690
brengst	-13691
▁Discuss	-13692
▁blowing	-13693
▁examens	-13694
▁oorlogs	-13695
▁security	-13696
▁gedurende	-13697
▁beïnvloeden	-13698
▁Kennisbankitems	-13699
ends	-13700
page	-13701
post	-13702
ulen	-13703
▁dee	-13704
korst	-13705
▁bugs	-13706
▁dure	-13707
▁flex	-13708
▁Groep	-13709
▁Keith	-13710
▁State	-13711
▁domme	-13712
▁rates	-13713
▁reser	-13714
artikel	-13715
▁Stuart	-13716
▁fictie	-13717
▁Lincoln	-13718
▁patiënt	-13719
▁players	-13720
▁whereas	-13721
▁Actually	-13722
▁genoegen	-13723
▁inleveren	-13724
▁aanleiding	-13725
▁helikopter	-13726
▁uitzending	-13727
ata	-13728
weef	-13729
▁awoh	-13730
icated	-13731
▁arrow	-13732
▁engel	-13733
▁files	-13734
▁allerg	-13735
▁geduld	-13736
▁behoren	-13737
▁closing	-13738
▁smiling	-13739
▁terrein	-13740
▁verbind	-13741
▁interrupt	-13742
▁opgesloten	-13743
▁schreeuwen	-13744
▁toepassing	-13745
▁Examenopgaven	-13746
hh	-13747
IDS	-13748
bond	-13749
cuul	-13750
oeid	-13751
oerd	-13752
ulde	-13753
▁Isn	-13754
▁avo	-13755
neemt	-13756
vogel	-13757
▁Fair	-13758
▁Lady	-13759
▁Rick	-13760
▁reed	-13761
▁stuw	-13762
▁Chuck	-13763
▁began	-13764
anderen	-13765
▁States	-13766
▁dragon	-13767
▁uiteen	-13768
▁Jackson	-13769
▁herkent	-13770
▁obvious	-13771
arbeiders	-13772
▁duurzaam	-13773
▁sleutels	-13774
▁voortgang	-13775
▁Middellandse	-13776
▁circumstances	-13777
Me	-13778
Wil	-13779
mol	-13780
Lois	-13781
hout	-13782
▁Bol	-13783
▁Way	-13784
▁unc	-13785
Wacht	-13786
gency	-13787
meren	-13788
▁Ooit	-13789
▁pron	-13790
▁natte	-13791
svormen	-13792
▁subsid	-13793
▁trokken	-13794
▁verloor	-13795
▁fossiele	-13796
▁militair	-13797
▁negatief	-13798
▁oorlogen	-13799
▁suitcase	-13800
▁werkplan	-13801
▁verzonnen	-13802
▁baarmoeder	-13803
SSS	-13804
."""	-13805
▁Doc	-13806
aming	-13807
ights	-13808
▁Swww	-13809
werker	-13810
▁Alpen	-13811
▁Derek	-13812
▁kluis	-13813
▁zucht	-13814
▁bewaar	-13815
▁haalde	-13816
▁pardon	-13817
▁related	-13818
▁afgerond	-13819
▁beschermt	-13820
▁mineralen	-13821
▁1)	-13822
Diff	-13823
pack	-13824
▁cob	-13825
eeper	-13826
essen	-13827
ompen	-13828
▁ther	-13829
▁knikt	-13830
▁noisy	-13831
▁However	-13832
▁conserv	-13833
▁depress	-13834
▁Trouwens	-13835
▁alphabet	-13836
▁provided	-13837
▁unemploy	-13838
▁blijkbaar	-13839
▁independent	-13840
▁verspreiden	-13841
▁ongelooflijk	-13842
▁stripverhaal	-13843
▁examenopgaven	-13844
Ar	-13845
▁·	-13846
▁(5	-13847
rice	-13848
▁ram	-13849
▁Blue	-13850
▁zeek	-13851
▁Queen	-13852
▁entir	-13853
▁shown	-13854
▁ummhm	-13855
▁Freder	-13856
▁clouds	-13857
▁ingred	-13858
▁ketchup	-13859
▁klinken	-13860
▁encourag	-13861
▁negative	-13862
▁gezelschap	-13863
▁appointment	-13864
▁enthousiast	-13865
▁interessante	-13866
ki	-13867
Tube	-13868
apot	-13869
▁KGT	-13870
▁Lor	-13871
▁aha	-13872
▁lam	-13873
▁Lane	-13874
▁joke	-13875
▁wave	-13876
▁wrap	-13877
/2014-	-13878
IndDiff	-13879
▁Burger	-13880
▁Edward	-13881
▁heaven	-13882
astische	-13883
▁eenzaam	-13884
▁geloofde	-13885
▁holidays	-13886
▁bestellen	-13887
▁veroveren	-13888
▁ontstonden	-13889
-9	-13890
yer	-13891
▁HET	-13892
using	-13893
▁Pear	-13894
▁Exact	-13895
▁Megan	-13896
▁Watch	-13897
▁neder	-13898
▁pakte	-13899
drukken	-13900
▁raised	-13901
▁voegen	-13902
fficient	-13903
▁General	-13904
▁klimmen	-13905
▁December	-13906
▁bepaling	-13907
▁huisdier	-13908
▁knocking	-13909
▁Elizabeth	-13910
▁aangelegd	-13911
▁beschrijf	-13912
⌋,	-13913
ulf	-13914
zit	-13915
▁Coc	-13916
alley	-13917
erkte	-13918
ersen	-13919
ieuwd	-13920
there	-13921
▁Java	-13922
▁click	-13923
▁kubus	-13924
▁vaart	-13925
duceerd	-13926
▁Rennen	-13927
▁aparte	-13928
▁ballon	-13929
▁opties	-13930
▁popped	-13931
▁sorted	-13932
▁Service	-13933
▁duurder	-13934
▁underst	-13935
▁Nadenken	-13936
▁paspoort	-13937
▁chemische	-13938
▁University	-13939
▁toothpaste	-13940
/6	-13941
▁au	-13942
▁120	-13943
▁VER	-13944
▁pip	-13945
oeder	-13946
▁Camp	-13947
▁Club	-13948
▁bees	-13949
▁decl	-13950
▁kooi	-13951
▁Hotel	-13952
▁Think	-13953
▁carav	-13954
▁prooi	-13955
▁serve	-13956
▁accomm	-13957
▁doelen	-13958
▁indian	-13959
▁offers	-13960
▁groeten	-13961
▁onzicht	-13962
▁spinnen	-13963
▁zakgeld	-13964
▁bioscoop	-13965
▁counting	-13966
▁produced	-13967
▁resident	-13968
▁continent	-13969
▁downloaden	-13970
▁moordenaar	-13971
▁voortdurend	-13972
Ju	-13973
▁Pé	-13974
▁ku	-13975
cell	-13976
char	-13977
roef	-13978
sits	-13979
▁eek	-13980
▁ped	-13981
▁ssh	-13982
▁mobi	-13983
▁fully	-13984
▁messy	-13985
ference	-13986
▁Caesar	-13987
▁pointed	-13988
▁receive	-13989
TO	-13990
rus	-13991
wis	-13992
wolk	-13993
▁Enk	-13994
▁Mec	-13995
▁wah	-13996
▁Prot	-13997
▁afwe	-13998
▁reus	-13999
cirkel	-14000
gevers	-14001
pberry	-14002
▁Becky	-14003
▁gemat	-14004
▁thumb	-14005
geraakt	-14006
▁staten	-14007
▁symmet	-14008
▁bliksem	-14009
▁koekjes	-14010
▁Hiervoor	-14011
▁afleiden	-14012
▁nachtmer	-14013
▁aflevering	-14014
▁population	-14015
▁informatieve	-14016
▁rekenmachine	-14017
▁voornamelijk	-14018
ät	-14019
kra	-14020
lip	-14021
mom	-14022
mum	-14023
▁JE	-14024
ades	-14025
adow	-14026
oekt	-14027
raft	-14028
▁Joy	-14029
▁Bost	-14030
▁Zack	-14031
▁gooi	-14032
▁loss	-14033
▁zest	-14034
▁Clark	-14035
▁geste	-14036
▁Keizer	-14037
▁neuken	-14038
▁senten	-14039
centrale	-14040
voorzien	-14041
▁blaadje	-14042
▁olifant	-14043
▁pretzel	-14044
▁results	-14045
▁twelfth	-14046
▁aquarium	-14047
▁badkamer	-14048
▁gedachte	-14049
▁klooster	-14050
▁behoeften	-14051
▁lichaamst	-14052
▁gesprekken	-14053
▁Middeleeuwen	-14054
▁nakomelingen	-14055
6,	-14056
▁×	-14057
irm	-14058
pan	-14059
sec	-14060
▁bv	-14061
velt	-14062
▁arg	-14063
ijpen	-14064
storm	-14065
▁Mees	-14066
▁Ring	-14067
▁damp	-14068
▁fans	-14069
▁zons	-14070
▁Kolon	-14071
▁dorst	-14072
▁influ	-14073
▁Tenzij	-14074
▁degree	-14075
▁letterg	-14076
▁netwerk	-14077
▁zenuwen	-14078
▁verraden	-14079
▁woningen	-14080
▁elementen	-14081
▁nationale	-14082
▁hoofdvraag	-14083
▁tekstsoort	-14084
opy	-14085
ardo	-14086
iled	-14087
jour	-14088
athes	-14089
cakes	-14090
▁claw	-14091
▁kiwi	-14092
▁meng	-14093
▁migr	-14094
▁scra	-14095
incess	-14096
▁beman	-14097
▁lonen	-14098
▁castle	-14099
▁sloten	-14100
▁trains	-14101
▁vijfde	-14102
▁Familie	-14103
▁prikkel	-14104
▁vergele	-14105
▁volgend	-14106
▁manufact	-14107
▁werkboek	-14108
▁reference	-14109
▁unfortunately	-14110
rang	-14111
atory	-14112
front	-14113
▁fore	-14114
godact	-14115
▁eatin	-14116
▁goods	-14117
▁sweep	-14118
▁vieze	-14119
oordeel	-14120
▁Russen	-14121
▁Social	-14122
▁louder	-14123
▁movies	-14124
▁zestig	-14125
▁chairman	-14126
▁gezinnen	-14127
▁property	-14128
▁verzorgen	-14129
▁christenen	-14130
▁vergeleken	-14131
▁verstoppen	-14132
▁gereedschap	-14133
▁zenuwachtig	-14134
▁![	-14135
▁(19	-14136
▁Boy	-14137
▁fal	-14138
arant	-14139
arent	-14140
▁Doet	-14141
▁Nine	-14142
▁rise	-14143
jongen	-14144
▁nasty	-14145
▁Xavier	-14146
▁active	-14147
▁hokjes	-14148
▁uitged	-14149
▁closely	-14150
▁dinsdag	-14151
▁records	-14152
▁uitvoert	-14153
▁betekende	-14154
▁evaluation	-14155
▁remembered	-14156
▁Zwitserland	-14157
▁herinneringen	-14158
oopy	-14159
▁Rod	-14160
rable	-14161
▁Cass	-14162
▁Judy	-14163
▁Math	-14164
▁dijk	-14165
▁sexy	-14166
▁tear	-14167
Jullie	-14168
change	-14169
meisje	-14170
parent	-14171
▁beleid	-14172
▁heelal	-14173
▁schuil	-14174
▁zanger	-14175
▁deeltjes	-14176
▁zachtjes	-14177
▁vergroten	-14178
▁uitvoering	-14179
▁basisschool	-14180
▁behandeling	-14181
FRI	-14182
ugel	-14183
▁tee	-14184
▁Ball	-14185
▁Corn	-14186
▁Vlie	-14187
▁boss	-14188
▁café	-14189
ucking	-14190
▁diepe	-14191
▁heden	-14192
werkers	-14193
▁Valent	-14194
▁piloot	-14195
▁sewing	-14196
ostische	-14197
▁entirely	-14198
vervuiling	-14199
▁georganis	-14200
▁tenslotte	-14201
▁waarnemen	-14202
cal	-14203
▁si	-14204
arah	-14205
gedy	-14206
pple	-14207
grens	-14208
ikers	-14209
▁goat	-14210
▁reet	-14211
▁shit	-14212
▁stek	-14213
bidden	-14214
gaande	-14215
▁zingt	-14216
▁Disney	-14217
▁Spring	-14218
▁famous	-14219
▁krokod	-14220
▁muizen	-14221
▁outfit	-14222
▁schaar	-14223
▁aardige	-14224
▁leiders	-14225
▁rainbow	-14226
▁stiekem	-14227
▁aardolie	-14228
▁differenti	-14229
iert	-14230
toen	-14231
▁Bla	-14232
▁rum	-14233
agina	-14234
ietje	-14235
▁Cory	-14236
▁sted	-14237
bewijs	-14238
▁alloc	-14239
▁schoo	-14240
▁Debbie	-14241
▁Should	-14242
▁acties	-14243
▁perman	-14244
▁cheerle	-14245
▁campaign	-14246
▁eiwitten	-14247
▁uitgeven	-14248
bas	-14249
isp	-14250
now	-14251
snel	-14252
brood	-14253
▁Conn	-14254
▁drug	-14255
▁geht	-14256
▁lens	-14257
▁zeil	-14258
▁awake	-14259
▁maths	-14260
▁Potter	-14261
▁clowns	-14262
▁recycl	-14263
▁respond	-14264
▁weefsel	-14265
▁FutureNL	-14266
▁Sergeant	-14267
▁voorkeur	-14268
▁schouders	-14269
▁toegestaan	-14270
bol	-14271
gom	-14272
ted	-14273
anes	-14274
lozen	-14275
undry	-14276
▁Oude	-14277
▁Snow	-14278
▁bung	-14279
▁dada	-14280
▁gran	-14281
▁Ethan	-14282
▁Mount	-14283
▁verre	-14284
ogether	-14285
stromen	-14286
▁Zoiets	-14287
▁dapper	-14288
▁kanaal	-14289
▁racing	-14290
▁YouTube	-14291
▁ceiling	-14292
▁greater	-14293
▁moslims	-14294
▁ridders	-14295
▁waffles	-14296
sluitende	-14297
▁mustache	-14298
▁aardkorst	-14299
▁lidwoorden	-14300
▁Samenvatting	-14301
cur	-14302
ued	-14303
▁Us	-14304
Nina	-14305
▁ski	-14306
eking	-14307
eraal	-14308
neden	-14309
▁Cher	-14310
▁mest	-14311
▁Drink	-14312
▁deelt	-14313
▁reput	-14314
▁scrib	-14315
atively	-14316
▁Gloria	-14317
▁Spider	-14318
▁cousin	-14319
▁mainly	-14320
▁melden	-14321
▁wezens	-14322
▁wanting	-14323
▁Absoluut	-14324
▁beheerst	-14325
▁monument	-14326
▁reaching	-14327
▁voortaan	-14328
▁wherever	-14329
▁hoofdletter	-14330
▁Geraadpleegd	-14331
▁sleepoefening	-14332
▁Sol	-14333
▁mur	-14334
▁pik	-14335
▁sar	-14336
inger	-14337
jaars	-14338
▁Raak	-14339
vinden	-14340
burgers	-14341
▁appart	-14342
▁gather	-14343
▁laying	-14344
activity	-14345
▁Barbara	-14346
▁Florida	-14347
▁economy	-14348
▁liefdes	-14349
▁reached	-14350
▁vlakbij	-14351
▁seriously	-14352
▁verplaatst	-14353
▁prehistorie	-14354
▁uitnodiging	-14355
uus	-14356
▁Sa	-14357
ceed	-14358
fuss	-14359
umes	-14360
▁bah	-14361
▁onb	-14362
Hallo	-14363
▁...3	-14364
renzen	-14365
▁magie	-14366
ziekten	-14367
▁Zwarte	-14368
▁artist	-14369
▁ingang	-14370
▁learnt	-14371
issingen	-14372
▁Exactly	-14373
▁helpful	-14374
▁trommel	-14375
▁verdien	-14376
▁Prachtig	-14377
▁voorraad	-14378
▁crocodile	-14379
▁verdeling	-14380
▁herstellen	-14381
▁paragrafen	-14382
▁presumably	-14383
maatschappij	-14384
▁Deutschland	-14385
▁competition	-14386
▁onvoldoende	-14387
Les	-14388
▁Ms	-14389
oegt	-14390
▁ugh	-14391
▁chase	-14392
▁energ	-14393
▁graph	-14394
▁stoom	-14395
▁stort	-14396
schuwen	-14397
▁Athene	-14398
▁carbon	-14399
▁establ	-14400
▁reclam	-14401
geslacht	-14402
▁Japanse	-14403
▁gelopen	-14404
▁cheeseburger	-14405
yo	-14406
▁Tay	-14407
▁nom	-14408
lopig	-14409
tends	-14410
▁Jill	-14411
▁Kyle	-14412
▁Tara	-14413
▁proud	-14414
▁draken	-14415
▁fellow	-14416
▁knieën	-14417
▁attempt	-14418
▁buitenk	-14419
▁opstaan	-14420
▁verkeers	-14421
▁milkshake	-14422
▁basketball	-14423
▁gevangenen	-14424
▁university	-14425
zooi	-14426
▁tou	-14427
▁aunt	-14428
▁poll	-14429
▁scru	-14430
▁soda	-14431
omming	-14432
▁Schip	-14433
▁judge	-14434
▁spook	-14435
▁wages	-14436
zoekers	-14437
▁Econom	-14438
▁Veilig	-14439
▁drives	-14440
▁master	-14441
▁pirate	-14442
▁belongs	-14443
▁daaraan	-14444
▁veilige	-14445
▁juffrouw	-14446
▁lichaams	-14447
▁opzichte	-14448
▁relevant	-14449
▁verloopt	-14450
▁voorkant	-14451
rijkskunde	-14452
▁aanpakken	-14453
▁providing	-14454
▁sentences	-14455
▁verzekerings	-14456
▁ontdekkingsre	-14457
alin	-14458
meth	-14459
▁Dub	-14460
▁Wis	-14461
▁ink	-14462
burgh	-14463
▁Brad	-14464
▁Nice	-14465
▁aank	-14466
▁isol	-14467
wiches	-14468
▁reist	-14469
▁rende	-14470
▁golven	-14471
▁hotdog	-14472
▁tissue	-14473
▁enquête	-14474
▁genaamd	-14475
▁snijden	-14476
▁impulsen	-14477
▁strategy	-14478
▁zeewater	-14479
▁astronaut	-14480
▁ontworpen	-14481
▁secretary	-14482
▁verrassen	-14483
▁plaatsvindt	-14484
4)	-14485
MR	-14486
ramp	-14487
voet	-14488
▁Zag	-14489
▁jus	-14490
▁oer	-14491
▁Theo	-14492
brings	-14493
vlucht	-14494
▁Write	-14495
▁dient	-14496
▁gezag	-14497
▁maint	-14498
▁onged	-14499
▁views	-14500
▁kerken	-14501
▁lokaal	-14502
▁ability	-14503
▁blokken	-14504
▁century	-14505
▁overall	-14506
▁speaker	-14507
▁groenten	-14508
▁screaming	-14509
▁tijdelijk	-14510
▁overwinning	-14511
/1	-14512
SAR	-14513
aky	-14514
▁3)	-14515
does	-14516
eels	-14517
ense	-14518
iels	-14519
oont	-14520
▁Ted	-14521
immen	-14522
▁Time	-14523
▁baba	-14524
▁ijsk	-14525
▁zwij	-14526
bridge	-14527
gebouw	-14528
iagram	-14529
▁civil	-14530
▁divid	-14531
atische	-14532
halings	-14533
▁dieper	-14534
▁poppen	-14535
▁muffins	-14536
▁ziektes	-14537
atuurlijk	-14538
▁accepted	-14539
▁redelijk	-14540
▁according	-14541
▁spellings	-14542
▁procedures	-14543
Echt	-14544
rupp	-14545
▁Gam	-14546
▁gor	-14547
▁lawn	-14548
▁peep	-14549
▁stak	-14550
▁waan	-14551
▁alter	-14552
▁beleg	-14553
▁opzet	-14554
▁Direct	-14555
▁Zolang	-14556
▁kostte	-14557
▁ruggen	-14558
▁sommen	-14559
▁wijken	-14560
beweging	-14561
▁Zeeland	-14562
▁laundry	-14563
▁verliep	-14564
▁crawling	-14565
▁patients	-14566
▁definitie	-14567
▁kooplieden	-14568
▁communiceren	-14569
jas	-14570
cult	-14571
ishm	-14572
kige	-14573
roup	-14574
▁flo	-14575
▁nab	-14576
aalde	-14577
ician	-14578
▁parl	-14579
▁prop	-14580
figuur	-14581
▁Beide	-14582
▁aanra	-14583
▁whale	-14584
▁woods	-14585
ourable	-14586
▁Course	-14587
▁Simone	-14588
▁bedrie	-14589
▁fietst	-14590
▁fixing	-14591
▁tomato	-14592
▁besteed	-14593
▁duister	-14594
▁typisch	-14595
▁accommod	-14596
▁cupcakes	-14597
▁gevoelig	-14598
▁hartslag	-14599
▁onderver	-14600
▁treasure	-14601
▁vertaling	-14602
▁passagiers	-14603
▁°	-14604
BRI	-14605
asel	-14606
roog	-14607
▁Jud	-14608
▁Mol	-14609
▁nib	-14610
▁Joep	-14611
▁Moon	-14612
▁acid	-14613
▁beef	-14614
▁dots	-14615
▁pure	-14616
▁adopt	-14617
▁telly	-14618
ofelijk	-14619
▁Indust	-14620
▁hoefde	-14621
▁pesten	-14622
▁besides	-14623
▁include	-14624
▁pajamas	-14625
▁samenge	-14626
▁sandbox	-14627
▁sisters	-14628
▁Herinner	-14629
▁bovendien	-14630
▁journalist	-14631
▁professional	-14632
▁zelfstandige	-14633
had	-14634
eful	-14635
kind	-14636
▁(10	-14637
▁AOW	-14638
▁Hor	-14639
Sarah	-14640
ghurt	-14641
klier	-14642
merkt	-14643
uizen	-14644
▁[1.1	-14645
▁adel	-14646
ffiche	-14647
noises	-14648
▁Jamie	-14649
▁diner	-14650
▁grape	-14651
▁orden	-14652
geboren	-14653
▁opvall	-14654
▁liefste	-14655
▁stretch	-14656
▁uitslag	-14657
▁proposed	-14658
▁christmas	-14659
▁populatie	-14660
▁kennisclip	-14661
▁opgewonden	-14662
IV	-14663
OP	-14664
▁{	-14665
ded	-14666
uto	-14667
▁ay	-14668
yond	-14669
zeug	-14670
▁Fer	-14671
▁Gil	-14672
▁gob	-14673
▁ops	-14674
▁tow	-14675
agent	-14676
woner	-14677
▁buck	-14678
▁edel	-14679
▁gekn	-14680
aughty	-14681
honden	-14682
▁kocht	-14683
▁Enkele	-14684
▁aanleg	-14685
▁bijdra	-14686
▁discip	-14687
verbanden	-14688
▁basisles	-14689
▁besteden	-14690
▁additional	-14691
▁teleurgesteld	-14692
hee	-14693
oofy	-14694
zoon	-14695
▁Bef	-14696
▁rip	-14697
eloze	-14698
icles	-14699
örter	-14700
▁Talk	-14701
▁ping	-14702
▁Court	-14703
▁klikt	-14704
▁tient	-14705
osaurus	-14706
verband	-14707
▁kopjes	-14708
▁whisky	-14709
▁factory	-14710
▁hormoon	-14711
▁godsnaam	-14712
▁gedronken	-14713
bi	-14714
avi	-14715
beh	-14716
rei	-14717
▁Au	-14718
▁HE	-14719
ompt	-14720
▁abc	-14721
▁wre	-14722
mouth	-14723
rence	-14724
zymen	-14725
▁Vast	-14726
▁[1.3	-14727
▁gall	-14728
▁puin	-14729
ouding	-14730
▁Sandy	-14731
▁mamma	-14732
▁panel	-14733
drawing	-14734
▁Norman	-14735
▁Schule	-14736
▁kansen	-14737
▁machin	-14738
▁multip	-14739
▁theory	-14740
▁vakant	-14741
▁October	-14742
▁beesten	-14743
▁checked	-14744
▁ouderen	-14745
▁rocking	-14746
▁verloop	-14747
imitating	-14748
▁onderzoekt	-14749
▁voetballen	-14750
▁wereldwijd	-14751
ekl	-14752
iry	-14753
aust	-14754
megen	-14755
▁Adem	-14756
▁Book	-14757
▁Walk	-14758
bergte	-14759
stikke	-14760
▁Slaap	-14761
▁ghost	-14762
▁skirt	-14763
▁stapt	-14764
▁sterf	-14765
▁propag	-14766
▁Maarten	-14767
▁dolphin	-14768
▁grocery	-14769
formulier	-14770
▁Wikiwijs	-14771
▁bewerken	-14772
▁boterham	-14773
▁thankyou	-14774
▁rechtbank	-14775
▁Absolutely	-14776
▁aangeboden	-14777
▁considered	-14778
kap	-14779
ango	-14780
lief	-14781
nast	-14782
▁Hmm	-14783
▁eis	-14784
akeld	-14785
erden	-14786
▁Duur	-14787
▁Dwww	-14788
▁Mein	-14789
▁Town	-14790
▁quot	-14791
▁wolk	-14792
bottle	-14793
eeuwse	-14794
gerust	-14795
kanaal	-14796
▁Royal	-14797
▁Vrouw	-14798
▁Zodat	-14799
▁macar	-14800
▁Harold	-14801
▁Jordan	-14802
▁Verzin	-14803
▁Zweden	-14804
▁beseft	-14805
▁konink	-14806
▁sports	-14807
ological	-14808
▁meaning	-14809
▁rustles	-14810
▁bijdrage	-14811
▁election	-14812
▁opruimen	-14813
▁achtergelaten	-14814
/030	-14815
avia	-14816
▁Bag	-14817
▁Sno	-14818
igend	-14819
▁Been	-14820
▁Maur	-14821
▁appe	-14822
▁mice	-14823
▁pole	-14824
▁zeld	-14825
malige	-14826
▁admit	-14827
▁cried	-14828
▁staal	-14829
▁vuile	-14830
▁hoopte	-14831
▁nuhhuh	-14832
strijden	-14833
▁noodzak	-14834
▁andersom	-14835
▁medicijn	-14836
ografische	-14837
▁Practicum	-14838
▁distribut	-14839
▁scheiding	-14840
▁gezondheids	-14841
▁waarschuwen	-14842
8,	-14843
än	-14844
/11	-14845
Veel	-14846
aafd	-14847
aved	-14848
igan	-14849
verk	-14850
▁Out	-14851
▁Tor	-14852
going	-14853
tooid	-14854
▁habe	-14855
▁thin	-14856
▁dynam	-14857
▁hielp	-14858
▁Harris	-14859
▁Number	-14860
▁treden	-14861
▁Tijdvak	-14862
▁gevaren	-14863
▁hitting	-14864
▁animatie	-14865
▁klachten	-14866
▁sprookje	-14867
instrument	-14868
▁selecteren	-14869
▁aanwezigheid	-14870
▁kinderarbeid	-14871
ANG	-14872
pir	-14873
▁ug	-14874
merg	-14875
▁Pim	-14876
asapp	-14877
▁Benj	-14878
▁boll	-14879
▁veen	-14880
screen	-14881
▁Goeie	-14882
▁limit	-14883
▁Author	-14884
▁Robbie	-14885
▁overge	-14886
▁stelde	-14887
▁teapot	-14888
▁gelogen	-14889
▁vooraan	-14890
▁enormous	-14891
▁momenten	-14892
▁stations	-14893
▁tabellen	-14894
▁Something	-14895
▁decisions	-14896
▁sandwiches	-14897
otechnologie	-14898
▁industriële	-14899
Em	-14900
TER	-14901
low	-14902
wil	-14903
▁54	-14904
tain	-14905
tuce	-14906
▁Els	-14907
ootje	-14908
▁Check	-14909
▁cheek	-14910
▁jouwe	-14911
borough	-14912
▁Before	-14913
▁Wonder	-14914
▁contra	-14915
▁waterd	-14916
▁Vincent	-14917
▁aanhang	-14918
▁fussing	-14919
▁gewacht	-14920
▁vandoor	-14921
▁attitude	-14922
▁restrict	-14923
▁bezoekers	-14924
▁vanmiddag	-14925
▁meewerkend	-14926
Doe	-14927
Hoi	-14928
boo	-14929
tap	-14930
Toen	-14931
hood	-14932
ords	-14933
▁Rub	-14934
inson	-14935
▁pear	-14936
itaire	-14937
niveau	-14938
▁Lucht	-14939
▁cigar	-14940
▁crime	-14941
▁rozen	-14942
▁weegt	-14943
▁zweet	-14944
▁dreams	-14945
▁getuige	-14946
▁musical	-14947
▁sliding	-14948
schriften	-14949
▁inkomens	-14950
▁schimmel	-14951
▁knowledge	-14952
okt	-14953
Werk	-14954
plet	-14955
▁Oud	-14956
▁dot	-14957
aufen	-14958
engte	-14959
esame	-14960
iepen	-14961
klaar	-14962
talks	-14963
▁Hend	-14964
▁geit	-14965
▁toot	-14966
▁uitk	-14967
iseerd	-14968
taking	-14969
unning	-14970
zitten	-14971
▁Aaron	-14972
▁Grant	-14973
▁Kloot	-14974
▁klote	-14975
▁kraan	-14976
▁penis	-14977
▁steak	-14978
▁embryo	-14979
▁legisl	-14980
▁toeval	-14981
▁parties	-14982
▁bedoelen	-14983
▁docenten	-14984
▁grappige	-14985
▁schudden	-14986
▁gentleman	-14987
▁vermenigvuld	-14988
zed	-14989
▁Sj	-14990
adel	-14991
▁mos	-14992
braak	-14993
stone	-14994
▁Cool	-14995
▁plas	-14996
shouts	-14997
▁cakes	-14998
▁koper	-14999
▁twist	-15000
▁units	-15001
▁Darwin	-15002
▁Klinkt	-15003
▁Second	-15004
▁Wadden	-15005
▁lading	-15006
▁gezamen	-15007
▁opposed	-15008
▁profiel	-15009
▁Verbeter	-15010
▁breaking	-15011
organisatie	-15012
▁aangenomen	-15013
▁financiële	-15014
▁ingewikkeld	-15015
▁onderscheid	-15016
-)	-15017
▁é	-15018
uif	-15019
yeah	-15020
▁Ali	-15021
▁Hin	-15022
▁Lea	-15023
▁aid	-15024
▁laf	-15025
▁Anth	-15026
▁Arme	-15027
▁Must	-15028
▁buff	-15029
▁dolf	-15030
▁tack	-15031
aadjes	-15032
▁drukt	-15033
▁legal	-15034
▁nomin	-15035
▁rapid	-15036
▁songs	-15037
▁spect	-15038
▁vloog	-15039
spreken	-15040
weefsel	-15041
▁Graham	-15042
▁beyond	-15043
▁mobile	-15044
▁ruilen	-15045
▁vleerm	-15046
▁salaris	-15047
▁antwoordt	-15048
▁increased	-15049
▁pineapple	-15050
stil	-15051
▁dia	-15052
▁vat	-15053
bbers	-15054
iculty	-15055
veling	-15056
▁bonen	-15057
▁gradu	-15058
▁huren	-15059
▁maten	-15060
▁oblig	-15061
▁style	-15062
▁suppl	-15063
▁tempo	-15064
stekens	-15065
▁Howard	-15066
▁noteer	-15067
inaasapp	-15068
▁shaking	-15069
▁toolbox	-15070
▁eenheden	-15071
▁opnoemen	-15072
▁piramide	-15073
▁prikkels	-15074
▁regional	-15075
▁vuurwerk	-15076
▁luchtdruk	-15077
▁potential	-15078
▁aangekomen	-15079
▁opschieten	-15080
▁onderstreep	-15081
▁stappenplan	-15082
35	-15083
89	-15084
ST	-15085
MAL	-15086
hard	-15087
ints	-15088
oeit	-15089
▁Ama	-15090
▁lun	-15091
craft	-15092
macht	-15093
▁duim	-15094
▁ezel	-15095
▁kett	-15096
▁Tante	-15097
▁aside	-15098
▁deleg	-15099
▁engin	-15100
mingham	-15101
ormonen	-15102
▁gigant	-15103
▁hemels	-15104
▁lokale	-15105
▁ervaren	-15106
▁ondanks	-15107
▁Schiphol	-15108
▁batterij	-15109
▁lidwoord	-15110
▁required	-15111
▁verhuisd	-15112
▁eruitziet	-15113
▁Birmingham	-15114
▁frightened	-15115
▁uitvindingen	-15116
cat	-15117
apers	-15118
▁Buzz	-15119
▁Pépé	-15120
▁hals	-15121
▁hats	-15122
▁laid	-15123
ichter	-15124
▁dried	-15125
▁ended	-15126
▁patty	-15127
▁female	-15128
▁lettuce	-15129
▁Avengers	-15130
▁Congress	-15131
▁aannemen	-15132
▁vrouwtje	-15133
▁perfectly	-15134
▁schrikken	-15135
▁difficulty	-15136
▁52	-15137
▁ox	-15138
beer	-15139
▁EEN	-15140
▁Len	-15141
▁Squ	-15142
▁Maat	-15143
▁blows	-15144
▁scene	-15145
figuren	-15146
▁schijf	-15147
▁schrik	-15148
▁bananen	-15149
▁snelweg	-15150
▁zintuig	-15151
▁zojuist	-15152
▁zwaarte	-15153
▁konijnen	-15154
▁software	-15155
▁instellen	-15156
▁countryside	-15157
▁sollicitatie	-15158
▁spijkerbroek	-15159
▁werkgelegenheid	-15160
sens	-15161
eraad	-15162
uitar	-15163
▁Acht	-15164
▁Kalm	-15165
▁cola	-15166
▁eend	-15167
▁lanc	-15168
▁luxe	-15169
bleven	-15170
labial	-15171
steden	-15172
zonden	-15173
▁Colum	-15174
▁slaaf	-15175
mendous	-15176
▁knappe	-15177
▁survey	-15178
▁naughty	-15179
▁plassen	-15180
▁promise	-15181
▁rabbits	-15182
vermelding	-15183
▁langzamer	-15184
▁onderling	-15185
▁puberteit	-15186
▁schoolkrant	-15187
▁aardbevingen	-15188
▁geproduceerd	-15189
sim	-15190
alog	-15191
▁Eva	-15192
▁Gas	-15193
break	-15194
istry	-15195
▁3000	-15196
▁Work	-15197
▁slap	-15198
▁Prezi	-15199
▁brain	-15200
▁schol	-15201
▁Africa	-15202
▁ambten	-15203
▁banden	-15204
▁snakes	-15205
illingen	-15206
▁aardgas	-15207
▁cabinet	-15208
▁journey	-15209
▁spelers	-15210
houdingen	-15211
▁Nijmegen	-15212
▁referred	-15213
▁verkoper	-15214
▁begroting	-15215
▁geselecteerd	-15216
▁eindproducten	-15217
-15	-15218
bos	-15219
kat	-15220
vor	-15221
vre	-15222
▁OK	-15223
▁pv	-15224
hydr	-15225
riel	-15226
▁wid	-15227
chnie	-15228
mpjes	-15229
▁Zeke	-15230
▁glue	-15231
▁keen	-15232
▁knip	-15233
▁zuin	-15234
muziek	-15235
▁Happy	-15236
▁genie	-15237
▁grade	-15238
▁naald	-15239
icester	-15240
▁dining	-15241
▁infect	-15242
▁pottie	-15243
▁smaakt	-15244
▁uitgek	-15245
▁zielig	-15246
chnieken	-15247
▁Spreken	-15248
▁forever	-15249
▁funding	-15250
▁hersens	-15251
▁leukste	-15252
▁ontslag	-15253
[...]
