<pad>	0
<unk>	0
<s>	0
</s>	0
[PAD]	0
[UNK]	0
[CLS]	0
[SEP]	0
[MASK]	0
en	-0
▁t	-1
er	-2
▁d	-3
an	-4
in	-5
▁*	-6
he	-7
▁w	-8
▁o	-9
at	-10
▁s	-11
▁m	-12
▁b	-13
▁a	-14
▁i	-15
et	-16
▁g	-17
ou	-18
▁v	-19
el	-20
▁.	-21
or	-22
▁h	-23
ij	-24
ar	-25
▁n	-26
OT	-27
MOT	-28
▁he	-29
es	-30
▁th	-31
▁the	-32
▁de	-33
on	-34
▁y	-35
CH	-36
ch	-37
▁l	-38
▁I	-39
CHI	-40
ing	-41
▁p	-42
▁j	-43
▁e	-44
it	-45
▁z	-46
▁k	-47
and	-48
re	-49
▁c	-50
▁in	-51
ie	-52
st	-53
▁you	-54
ll	-55
om	-56
ed	-57
aar	-58
▁to	-59
▁f	-60
▁je	-61
is	-62
▁is	-63
oor	-64
oo	-65
▁een	-66
▁on	-67
▁het	-68
▁[	-69
al	-70
▁wh	-71
▁it	-72
ig	-73
▁u	-74
▁and	-75
▁D	-76
ere	-77
as	-78
ot	-79
▁do	-80
▁W	-81
▁that	-82
ra	-83
le	-84
▁van	-85
▁en	-86
▁,	-87
▁we	-88
id	-89
▁H	-90
▁of	-91
ak	-92
ut	-93
ay	-94
▁st	-95
..	-96
▁op	-97
▁M	-98
ow	-99
ad	-100
▁ge	-101
▁be	-102
ve	-103
ro	-104
cht	-105
▁me	-106
iet	-107
gen	-108
ver	-109
den	-110
▁ver	-111
▁er	-112
am	-113
ijn	-114
de	-115
▁S	-116
il	-117
ur	-118
▁A	-119
▁?	-120
▁-	-121
▁te	-122
un	-123
ent	-124
ee	-125
se	-126
oe	-127
▁E	-128
▁what	-129
▁r	-130
▁dat	-131
ijk	-132
ik	-133
▁go	-134
▁B	-135
ic	-136
▁niet	-137
▁J	-138
ag	-139
▁'	-140
▁no	-141
ol	-142
der	-143
ant	-144
▁Ik	-145
▁N	-146
▁re	-147
est	-148
ea	-149
▁ik	-150
▁al	-151
▁T	-152
▁voor	-153
▁O	-154
ken	-155
ell	-156
▁was	-157
ap	-158
ven	-159
▁met	-160
ht	-161
im	-162
ft	-163
eah	-164
ct	-165
ook	-166
op	-167
▁ha	-168
▁...	-169
▁heb	-170
▁zijn	-171
all	-172
aat	-173
▁this	-174
▁G	-175
▁mo	-176
AT	-177
ier	-178
ir	-179
▁all	-180
▁ze	-181
xx	-182
ers	-183
▁K	-184
ight	-185
IN	-186
ck	-187
INV	-188
us	-189
▁over	-190
▁there	-191
▁V	-192
▁De	-193
▁Z	-194
▁die	-195
FAT	-196
em	-197
▁for	-198
▁uit	-199
▁L	-200
▁they	-201
▁C	-202
▁aan	-203
ze	-204
ome	-205
▁wat	-206
▁can	-207
ind	-208
▁kn	-209
▁"	-210
▁ju	-211
ld	-212
▁wor	-213
▁at	-214
aan	-215
ill	-216
ge	-217
rij	-218
▁le	-219
▁one	-220
ien	-221
je	-222
▁om	-223
▁an	-224
ink	-225
▁don	-226
▁yeah	-227
na	-228
au	-229
ru	-230
ith	-231
▁Je	-232
ion	-233
eel	-234
▁Y	-235
▁pl	-236
ok	-237
▁sp	-238
ab	-239
▁P	-240
▁have	-241
].	-242
nd	-243
▁know	-244
ike	-245
▁look	-246
▁with	-247
nen	-248
ist	-249
▁oh	-250
sen	-251
th	-252
▁up	-253
▁like	-254
▁Het	-255
▁R	-256
▁are	-257
▁get	-258
▁1	-259
▁sch	-260
eer	-261
▁tw	-262
▁naar	-263
ould	-264
▁bij	-265
ood	-266
aal	-267
ce	-268
aak	-269
kay	-270
▁not	-271
▁kun	-272
ter	-273
▁als	-274
▁so	-275
▁here	-276
ast	-277
ul	-278
▁wer	-279
sch	-280
te	-281
elijk	-282
▁she	-283
um	-284
pen	-285
▁zo	-286
...	-287
ang	-288
▁mak	-289
▁sh	-290
▁moet	-291
▁see	-292
out	-293
▁Wat	-294
ond	-295
▁okay	-296
▁dan	-297
os	-298
▁bl	-299
ly	-300
elk	-301
▁your	-302
▁but	-303
▁ne	-304
▁ch	-305
ten	-306
oord	-307
een	-308
eld	-309
eren	-310
ek	-311
▁maar	-312
xxx	-313
▁xxx	-314
▁put	-315
▁did	-316
▁got	-317
ies	-318
▁waar	-319
rou	-320
▁out	-321
▁think	-322
ff	-323
▁pro	-324
▁or	-325
ack	-326
▁We	-327
gh	-328
art	-329
racht	-330
▁ook	-331
che	-332
▁door	-333
ank	-334
▁goed	-335
▁ab	-336
▁bo	-337
▁kan	-338
▁geb	-339
▁In	-340
▁deze	-341
▁want	-342
▁had	-343
ingen	-344
▁ben	-345
ep	-346
▁as	-347
int	-348
ry	-349
ich	-350
uit	-351
▁nog	-352
ore	-353
omm	-354
▁2	-355
eft	-356
her	-357
▁En	-358
ip	-359
▁then	-360
ijd	-361
▁F	-362
▁!	-363
▁her	-364
▁some	-365
acht	-366
wn	-367
▁my	-368
elf	-369
▁just	-370
▁right	-371
▁hij	-372
▁Dat	-373
▁pr	-374
▁onder	-375
ard	-376
ben	-377
ide	-378
▁man	-379
▁=	-380
▁(	-381
ets	-382
uur	-383
▁af	-384
▁them	-385
▁wil	-386
▁gr	-387
▁say	-388
▁fr	-389
▁Al	-390
▁wel	-391
eg	-392
ally	-393
elen	-394
ive	-395
▁about	-396
▁hier	-397
▁where	-398
▁kom	-399
ort	-400
▁se	-401
itt	-402
▁kl	-403
▁if	-404
▁men	-405
ess	-406
dracht	-407
▁heeft	-408
ine	-409
og	-410
."	-411
▁Yeah	-412
ick	-413
▁gon	-414
▁hebben	-415
oon	-416
▁Er	-417
▁bet	-418
▁dit	-419
orm	-420
▁now	-421
oorden	-422
▁word	-423
▁vol	-424
▁sa	-425
ug	-426
uw	-427
od	-428
ste	-429
uk	-430
▁down	-431
iv	-432
▁St	-433
▁let	-434
zen	-435
▁well	-436
▁con	-437
icht	-438
oek	-439
ite	-440
ings	-441
▁br	-442
up	-443
oot	-444
ame	-445
land	-446
eder	-447
▁good	-448
atie	-449
eten	-450
▁Hij	-451
our	-452
▁hu	-453
▁meer	-454
▁sl	-455
▁wan	-456
▁dr	-457
aten	-458
▁mijn	-459
▁who	-460
▁Ze	-461
▁any	-462
▁Een	-463
▁gonna	-464
▁Th	-465
ause	-466
llie	-467
▁geen	-468
wer	-469
▁back	-470
▁does	-471
▁ex	-472
▁hand	-473
qu	-474
▁daar	-475
oed	-476
▁how	-477
▁nu	-478
ation	-479
▁ro	-480
▁when	-481
jes	-482
▁bed	-483
ain	-484
▁hoe	-485
▁Als	-486
ong	-487
▁vra	-488
ice	-489
ake	-490
ool	-491
▁would	-492
pl	-493
ber	-494
▁erm	-495
ele	-496
▁gaan	-497
▁Waar	-498
▁hou	-499
▁gaat	-500
ure	-501
one	-502
amen	-503
▁uh	-504
be	-505
▁two	-506
▁Hoe	-507
▁his	-508
▁jij	-509
▁more	-510
▁wordt	-511
lijk	-512
▁Oh	-513
ose	-514
▁cl	-515
▁yes	-516
cause	-517
▁werk	-518
▁going	-519
▁hem	-520
ruik	-521
gt	-522
▁from	-523
▁play	-524
ust	-525
▁will	-526
oc	-527
ittle	-528
ige	-529
▁hebt	-530
other	-531
▁best	-532
▁beg	-533
hing	-534
ouw	-535
▁wanna	-536
add	-537
▁doen	-538
▁car	-539
els	-540
▁opdracht	-541
▁maken	-542
alk	-543
▁Ch	-544
enk	-545
▁kunnen	-546
▁little	-547
▁som	-548
▁worden	-549
▁gew	-550
hm	-551
▁come	-552
▁And	-553
bl	-554
elke	-555
▁weet	-556
▁veel	-557
▁bab	-558
▁Wh	-559
▁Maar	-560
▁com	-561
▁said	-562
▁hun	-563
▁um	-564
ound	-565
ther	-566
▁ont	-567
▁off	-568
▁him	-569
woord	-570
▁ar	-571
▁jullie	-572
ef	-573
ost	-574
▁%	-575
men	-576
igen	-577
▁ter	-578
ime	-579
▁haar	-580
▁3	-581
eb	-582
00	-583
innen	-584
▁were	-585
▁zou	-586
.]	-587
ree	-588
▁very	-589
augh	-590
▁ga	-591
▁na	-592
▁looks	-593
du	-594
onder	-595
▁min	-596
heid	-597
ert	-598
rijf	-599
▁pe	-600
▁un	-601
▁baby	-602
mp	-603
▁Sch	-604
▁U	-605
▁bel	-606
aakt	-607
▁book	-608
iek	-609
age	-610
ull	-611
▁eer	-612
ty	-613
way	-614
▁hel	-615
▁el	-616
▁sec	-617
mer	-618
▁bent	-619
▁somet	-620
▁us	-621
▁gel	-622
▁mensen	-623
oop	-624
to	-625
ker	-626
esch	-627
▁Op	-628
beel	-629
▁prob	-630
oof	-631
▁iets	-632
ild	-633
aren	-634
sp	-635
urn	-636
▁ag	-637
old	-638
als	-639
▁volgen	-640
oint	-641
▁The	-642
▁No	-643
rouw	-644
▁mean	-645
ate	-646
▁land	-647
▁我	-648
▁gev	-649
▁time	-650
▁tell	-651
ach	-652
▁tijd	-653
▁other	-654
▁make	-655
▁ra	-656
▁could	-657
omen	-658
▁water	-659
▁sn	-660
NA	-661
ri	-662
▁because	-663
dig	-664
▁twee	-665
▁gebruik	-666
▁fl	-667
▁has	-668
▁by	-669
▁these	-670
▁zien	-671
ieuw	-672
▁di	-673
ederland	-674
ommy	-675
esp	-676
▁eens	-677
▁It	-678
▁even	-679
dat	-680
oel	-681
laugh	-682
▁Well	-683
▁kunt	-684
act	-685
AR	-686
▁Dit	-687
▁eat	-688
ief	-689
eed	-690
ark	-691
SI	-692
▁per	-693
▁Nederland	-694
air	-695
▁mij	-696
▁really	-697
▁too	-698
▁zit	-699
▁take	-700
▁tot	-701
▁Ja	-702
▁mhm	-703
ende	-704
▁""	-705
▁ged	-706
iz	-707
▁ons	-708
▁why	-709
▁elk	-710
kst	-711
ople	-712
▁gra	-713
▁mu	-714
▁vragen	-715
voor	-716
erd	-717
▁du	-718
beeld	-719
▁act	-720
ys	-721
enn	-722
▁tegen	-723
▁gen	-724
▁Nee	-725
per	-726
ellen	-727
av	-728
iss	-729
▁something	-730
▁people	-731
▁zal	-732
ke	-733
▁versch	-734
▁You	-735
▁weer	-736
▁big	-737
▁krij	-738
▁volgende	-739
▁weg	-740
ock	-741
▁4	-742
▁Daar	-743
af	-744
gel	-745
▁vind	-746
▁Le	-747
▁vert	-748
ass	-749
ect	-750
ces	-751
▁ball	-752
▁thou	-753
▁gem	-754
ob	-755
▁Mm	-756
ix	-757
ise	-758
oud	-759
▁which	-760
appen	-761
▁school	-762
▁tekst	-763
ater	-764
▁moeten	-765
oh	-766
▁zelf	-767
▁didn	-768
▁huh	-769
▁Is	-770
▁those	-771
ggen	-772
chter	-773
woorden	-774
ne	-775
alen	-776
oun	-777
sl	-778
ase	-779
oen	-780
ting	-781
▁need	-782
▁woorden	-783
▁way	-784
▁turn	-785
▁ever	-786
ijken	-787
▁been	-788
▁open	-789
of	-790
▁komt	-791
pp	-792
if	-793
▁Maak	-794
▁ant	-795
eur	-796
▁qu	-797
day	-798
ma	-799
oll	-800
▁samen	-801
ia	-802
oren	-803
▁again	-804
ud	-805
▁kle	-806
▁gez	-807
▁work	-808
▁terug	-809
▁nieuw	-810
▁three	-811
ult	-812
cent	-813
▁gro	-814
én	-815
▁andere	-816
▁read	-817
▁alleen	-818
ear	-819
▁Voor	-820
hu	-821
▁nodig	-822
end	-823
▁mee	-824
laughs	-825
ire	-826
ict	-827
iend	-828
▁tra	-829
ger	-830
▁staat	-831
▁leven	-832
ieren	-833
▁komen	-834
▁Yes	-835
SIS	-836
▁So	-837
▁part	-838
▁dra	-839
ied	-840
▁heel	-841
ische	-842
ord	-843
ussen	-844
▁laat	-845
▁mag	-846
ment	-847
▁jaar	-848
▁elkaar	-849
▁doing	-850
▁eigen	-851
ght	-852
zelf	-853
ijf	-854
▁ple	-855
▁Ver	-856
ote	-857
rijk	-858
onden	-859
inder	-860
▁CHI	-861
▁zich	-862
rek	-863
▁inter	-864
me	-865
▁Schrijf	-866
▁hele	-867
▁kw	-868
▁echt	-869
▁5	-870
▁box	-871
irst	-872
rop	-873
▁hm	-874
▁pap	-875
eden	-876
round	-877
▁kind	-878
▁lang	-879
ving	-880
▁sit	-881
▁What	-882
▁Waarom	-883
▁should	-884
▁else	-885
▁bu	-886
akes	-887
ont	-888
▁alle	-889
able	-890
form	-891
▁sc	-892
oog	-893
▁talk	-894
ale	-895
▁thing	-896
▁All	-897
▁lot	-898
duct	-899
▁gek	-900
XP	-901
vol	-902
▁Kom	-903
ish	-904
open	-905
ew	-906
elt	-907
▁may	-908
pt	-909
▁tr	-910
ië	-911
▁another	-912
we	-913
▁That	-914
NAN	-915
▁into	-916
bo	-917
ren	-918
▁ad	-919
gens	-920
▁jou	-921
ans	-922
▁mm	-923
▁denk	-924
RO	-925
iteit	-926
▁things	-927
▁On	-928
thing	-929
over	-930
aart	-931
bod	-932
▁sm	-933
EXP	-934
atuur	-935
yes	-936
▁cont	-937
▁toch	-938
één	-939
xt	-940
▁sle	-941
▁vl	-942
bij	-943
ace	-944
ning	-945
一个	-946
▁their	-947
▁try	-948
▁pers	-949
veel	-950
▁这	-951
▁verd	-952
right	-953
▁bit	-954
idd	-955
cl	-956
▁één	-957
oofd	-958
oort	-959
ary	-960
▁every	-961
ooit	-962
▁rem	-963
▁four	-964
gelijk	-965
app	-966
▁Hier	-967
tijd	-968
▁Ga	-969
ub	-970
▁much	-971
row	-972
▁vr	-973
ous	-974
▁house	-975
ually	-976
red	-977
ina	-978
▁plaat	-979
▁our	-980
emand	-981
▁alles	-982
▁verschill	-983
▁ah	-984
▁Die	-985
▁went	-986
rijven	-987
▁eind	-988
ennis	-989
ity	-990
▁Heb	-991
read	-992
▁doesn	-993
ens	-994
eter	-995
ue	-996
▁Stap	-997
▁bot	-998
▁mil	-999
upp	-1000
org	-1001
eerd	-1002
LO	-1003
▁ma	-1004
▁But	-1005
▁point	-1006
▁An	-1007
▁goes	-1008
off	-1009
agen	-1010
▁Mr	-1011
ble	-1012
▁gebeur	-1013
oem	-1014
inden	-1015
are	-1016
ister	-1017
erk	-1018
▁Bij	-1019
▁wr	-1020
addy	-1021
ader	-1022
▁che	-1023
man	-1024
▁vraag	-1025
▁zie	-1026
▁lu	-1027
▁start	-1028
▁child	-1029
eest	-1030
▁give	-1031
▁woord	-1032
▁他	-1033
▁goede	-1034
▁[1	-1035
▁vo	-1036
▁str	-1037
sh	-1038
▁zw	-1039
▁Zo	-1040
▁He	-1041
▁tussen	-1042
arm	-1043
▁won	-1044
▁klas	-1045
▁nooit	-1046
▁gre	-1047
▁Sp	-1048
ideo	-1049
▁pick	-1050
▁MOT	-1051
▁day	-1052
▁dis	-1053
▁staan	-1054
ci	-1055
orgen	-1056
▁welke	-1057
▁Kijk	-1058
▁dog	-1059
▁hold	-1060
▁first	-1061
▁fun	-1062
▁five	-1063
▁drie	-1064
eken	-1065
▁blij	-1066
▁only	-1067
body	-1068
MAR	-1069
▁help	-1070
▁last	-1071
▁kon	-1072
ely	-1073
▁weten	-1074
▁stu	-1075
ift	-1076
▁Lees	-1077
▁away	-1078
ember	-1079
stand	-1080
eling	-1081
ade	-1082
ath	-1083
▁Be	-1084
▁call	-1085
ijden	-1086
edere	-1087
▁Mommy	-1088
ta	-1089
PAT	-1090
▁year	-1091
▁dag	-1092
▁done	-1093
▁beh	-1094
▁Dan	-1095
geven	-1096
▁achter	-1097
▁belang	-1098
▁dus	-1099
issch	-1100
▁huis	-1101
unt	-1102
wij	-1103
▁week	-1104
▁altijd	-1105
vo	-1106
uren	-1107
ins	-1108
▁verl	-1109
get	-1110
ah	-1111
▁aft	-1112
aag	-1113
pr	-1114
▁pol	-1115
▁net	-1116
oeken	-1117
eef	-1118
▁Fr	-1119
▁alright	-1120
aam	-1121
▁mom	-1122
▁iemand	-1123
▁keer	-1124
▁verk	-1125
ocal	-1126
no	-1127
ange	-1128
▁kinder	-1129
▁stop	-1130
▁inform	-1131
haal	-1132
amer	-1133
ude	-1134
▁gu	-1135
▁col	-1136
▁around	-1137
van	-1138
raag	-1139
▁cra	-1140
isschien	-1141
▁maak	-1142
ile	-1143
▁zegt	-1144
▁你	-1145
oeg	-1146
▁werd	-1147
amp	-1148
▁gl	-1149
fta	-1150
isch	-1151
▁hafta	-1152
▁minut	-1153
efen	-1154
esl	-1155
ches	-1156
▁bro	-1157
▁les	-1158
wh	-1159
▁waren	-1160
▁show	-1161
elijke	-1162
▁jouw	-1163
▁proble	-1164
▁six	-1165
▁home	-1166
LOI	-1167
ny	-1168
▁nice	-1169
ruk	-1170
▁Kl	-1171
▁thank	-1172
allen	-1173
▁diff	-1174
▁fil	-1175
uiten	-1176
rough	-1177
ves	-1178
▁app	-1179
iden	-1180
▁doe	-1181
▁hoofd	-1182
▁ide	-1183
▁belangrijk	-1184
百分	-1185
ullen	-1186
aken	-1187
▁head	-1188
reek	-1189
▁besch	-1190
▁pict	-1191
▁still	-1192
▁happen	-1193
▁verschillende	-1194
room	-1195
▁through	-1196
▁eerste	-1197
▁laten	-1198
▁moo	-1199
▁zeggen	-1200
▁geld	-1201
▁ac	-1202
▁grote	-1203
ons	-1204
▁vinden	-1205
▁sort	-1206
ram	-1207
▁Jij	-1208
▁vast	-1209
▁onze	-1210
▁:	-1211
eeds	-1212
▁groot	-1213
▁meest	-1214
▁vrouw	-1215
les	-1216
pro	-1217
▁Om	-1218
emaal	-1219
▁6	-1220
oss	-1221
▁gemaakt	-1222
▁maybe	-1223
▁stra	-1224
ders	-1225
▁Deze	-1226
▁naam	-1227
side	-1228
▁wa	-1229
▁binnen	-1230
▁red	-1231
百分之	-1232
▁comp	-1233
ough	-1234
▁verb	-1235
▁wereld	-1236
▁bez	-1237
▁cup	-1238
werk	-1239
ES	-1240
ner	-1241
▁num	-1242
▁jon	-1243
▁zin	-1244
▁boy	-1245
▁uur	-1246
▁pie	-1247
就是	-1248
ijkt	-1249
▁remember	-1250
▁find	-1251
▁under	-1252
huh	-1253
▁lo	-1254
ac	-1255
▁Aan	-1256
▁video	-1257
AD	-1258
▁Erm	-1259
▁actually	-1260
▁steeds	-1261
oney	-1262
orry	-1263
ké	-1264
).	-1265
▁cat	-1266
enty	-1267
▁sche	-1268
▁toe	-1269
▁Niet	-1270
▁aut	-1271
▁20	-1272
▁pre	-1273
▁doll	-1274
ward	-1275
▁spe	-1276
▁aant	-1277
▁next	-1278
▁nieuwe	-1279
ject	-1280
▁Wie	-1281
werp	-1282
▁kinderen	-1283
ors	-1284
BRO	-1285
▁Br	-1286
▁after	-1287
▁Met	-1288
▁says	-1289
▁page	-1290
▁leuk	-1291
▁comm	-1292
▁Ben	-1293
▁wij	-1294
assen	-1295
▁waarom	-1296
▁lig	-1297
ence	-1298
io	-1299
▁table	-1300
irl	-1301
etje	-1302
▁erg	-1303
▁maakt	-1304
▁doet	-1305
ms	-1306
anten	-1307
▁oefen	-1308
自己	-1309
▁anything	-1310
ga	-1311
fore	-1312
我们	-1313
▁stand	-1314
emen	-1315
▁ten	-1316
▁isn	-1317
iel	-1318
▁leer	-1319
▁zei	-1320
▁Welke	-1321
▁Laat	-1322
▁Mijn	-1323
ounds	-1324
ions	-1325
▁nee	-1326
▁paper	-1327
▁bre	-1328
▁eerst	-1329
▁niets	-1330
▁deel	-1331
▁lea	-1332
edereen	-1333
▁new	-1334
▁rec	-1335
deel	-1336
▁long	-1337
oten	-1338
own	-1339
zz	-1340
▁pres	-1341
▁19	-1342
ird	-1343
eep	-1344
▁am	-1345
▁informatie	-1346
▁hard	-1347
ster	-1348
▁zitten	-1349
▁ke	-1350
bank	-1351
▁chair	-1352
sel	-1353
▁walk	-1354
'.	-1355
▁Goed	-1356
▁gewoon	-1357
▁mon	-1358
▁girl	-1359
▁Right	-1360
▁room	-1361
komen	-1362
▁thought	-1363
pe	-1364
ape	-1365
▁zoals	-1366
mo	-1367
▁那	-1368
▁plan	-1369
▁allemaal	-1370
ib	-1371
oos	-1372
▁wie	-1373
▁mommy	-1374
eek	-1375
gie	-1376
anden	-1377
▁eight	-1378
iding	-1379
▁willen	-1380
▁antwoord	-1381
ory	-1382
▁ask	-1383
?"	-1384
ye	-1385
▁use	-1386
log	-1387
▁than	-1388
urt	-1389
alf	-1390
▁ru	-1391
▁snel	-1392
hone	-1393
▁geh	-1394
voorbeeld	-1395
vl	-1396
▁ziet	-1397
▁Bed	-1398
▁top	-1399
▁vader	-1400
▁name	-1401
point	-1402
ekijk	-1403
▁anders	-1404
ument	-1405
▁night	-1406
▁/	-1407
▁might	-1408
▁geven	-1409
▁hey	-1410
▁vriend	-1411
etten	-1412
▁dood	-1413
geb	-1414
▁tru	-1415
▁uhhuh	-1416
maal	-1417
▁picture	-1418
vocal	-1419
vel	-1420
▁Bekijk	-1421
▁juist	-1422
▁reg	-1423
ars	-1424
▁cook	-1425
▁fin	-1426
amil	-1427
ijt	-1428
▁sure	-1429
ush	-1430
▁Van	-1431
igh	-1432
▁before	-1433
▁gedaan	-1434
▁toen	-1435
uite	-1436
ss	-1437
vers	-1438
oemen	-1439
▁ind	-1440
ikk	-1441
oes	-1442
iviteit	-1443
▁floor	-1444
▁watch	-1445
▁toys	-1446
▁gebruiken	-1447
erent	-1448
▁teken	-1449
chten	-1450
▁q	-1451
EN	-1452
▁Duit	-1453
▁ob	-1454
ennisbank	-1455
▁Gr	-1456
▁pret	-1457
▁moeder	-1458
baar	-1459
▁omdat	-1460
▁eten	-1461
Ik	-1462
dred	-1463
▁paar	-1464
▁su	-1465
iem	-1466
▁小	-1467
hes	-1468
ount	-1469
▁7	-1470
▁cos	-1471
gr	-1472
什么	-1473
▁kijken	-1474
▁par	-1475
isten	-1476
▁oor	-1477
▁beter	-1478
ds	-1479
▁verhaal	-1480
▁bas	-1481
ADU	-1482
uis	-1483
▁better	-1484
▁stad	-1485
▁hundred	-1486
▁God	-1487
▁wilt	-1488
zelfde	-1489
▁Tw	-1490
net	-1491
izen	-1492
▁Chi	-1493
▁hi	-1494
▁used	-1495
neer	-1496
▁ging	-1497
▁bus	-1498
▁Mar	-1499
▁不	-1500
urop	-1501
▁Nu	-1502
aad	-1503
zoek	-1504
▁Weet	-1505
ian	-1506
the	-1507
▁They	-1508
ple	-1509
▁klasgen	-1510
LD	-1511
▁nou	-1512
▁ber	-1513
▁natuur	-1514
▁today	-1515
▁many	-1516
aps	-1517
▁quite	-1518
ably	-1519
▁drink	-1520
ese	-1521
cha	-1522
▁zij	-1523
▁Ju	-1524
alt	-1525
▁Bl	-1526
▁gesch	-1527
▁stuk	-1528
▁toy	-1529
▁product	-1530
这个	-1531
my	-1532
ling	-1533
▁pu	-1534
opdracht	-1535
▁10	-1536
▁stuff	-1537
▁krijgen	-1538
ather	-1539
akken	-1540
▁sw	-1541
二十	-1542
ance	-1543
▁dingen	-1544
▁plaats	-1545
imes	-1546
▁wind	-1547
▁zinnen	-1548
▁please	-1549
rip	-1550
▁cray	-1551
▁Wil	-1552
▁uitle	-1553
▁famil	-1554
]?	-1555
▁verand	-1556
elling	-1557
reken	-1558
▁end	-1559
▁made	-1560
ron	-1561
▁aantal	-1562
oto	-1563
▁vaak	-1564
▁vier	-1565
▁keep	-1566
▁一	-1567
▁different	-1568
aas	-1569
▁werken	-1570
▁same	-1571
ream	-1572
ouden	-1573
self	-1574
enken	-1575
▁kaart	-1576
▁ken	-1577
▁wait	-1578
▁half	-1579
没有	-1580
▁rest	-1581
▁mot	-1582
▁vrij	-1583
ieden	-1584
ulp	-1585
▁never	-1586
▁bew	-1587
fr	-1588
▁cle	-1589
▁manier	-1590
antwoord	-1591
▁docent	-1592
▁looking	-1593
rist	-1594
eet	-1595
▁但	-1596
▁whe	-1597
ama	-1598
▁buiten	-1599
lo	-1600
▁Na	-1601
▁lie	-1602
▁moest	-1603
▁Doe	-1604
▁8	-1605
ragen	-1606
▁Oké	-1607
houd	-1608
aking	-1609
▁bev	-1610
▁run	-1611
▁krijgt	-1612
▁color	-1613
▁twenty	-1614
""	-1615
rect	-1616
▁mogelijk	-1617
▁pop	-1618
ids	-1619
▁Kennisbank	-1620
▁res	-1621
▁Dus	-1622
▁gotta	-1623
▁anim	-1624
▁vorm	-1625
heden	-1626
▁onge	-1627
▁getting	-1628
roeg	-1629
▁wilde	-1630
▁later	-1631
000	-1632
▁She	-1633
▁puts	-1634
▁present	-1635
ious	-1636
▁boek	-1637
erm	-1638
▁Kun	-1639
▁came	-1640
可以	-1641
ways	-1642
▁feel	-1643
ips	-1644
▁kop	-1645
▁bep	-1646
▁Act	-1647
▁uw	-1648
▁money	-1649
itie	-1650
ated	-1651
▁pretty	-1652
▁我们	-1653
▁houden	-1654
De	-1655
uss	-1656
▁haven	-1657
bs	-1658
▁verz	-1659
▁food	-1660
▁imp	-1661
tra	-1662
▁hor	-1663
▁elke	-1664
▁person	-1665
▁real	-1666
▁antwoorden	-1667
▁Europ	-1668
▁talking	-1669
omst	-1670
eeft	-1671
▁Geef	-1672
▁ris	-1673
▁pull	-1674
▁helemaal	-1675
▁boven	-1676
二零	-1677
▁ve	-1678
▁points	-1679
door	-1680
itch	-1681
▁cour	-1682
att	-1683
▁groep	-1684
▁rond	-1685
▁draw	-1686
▁cent	-1687
gest	-1688
▁side	-1689
▁klaar	-1690
▁在	-1691
▁cr	-1692
its	-1693
gaan	-1694
▁vindt	-1695
▁ser	-1696
rie	-1697
ail	-1698
ijst	-1699
achten	-1700
▁landen	-1701
▁Ook	-1702
▁sleep	-1703
▁gebruikt	-1704
▁Daddy	-1705
vorm	-1706
▁iedereen	-1707
▁moe	-1708
▁meis	-1709
veer	-1710
CHILD	-1711
▁tre	-1712
CHILDES	-1713
▁childes	-1714
▁grond	-1715
▁bad	-1716
iemand	-1717
▁job	-1718
▁mor	-1719
inet	-1720
vent	-1721
slag	-1722
▁bloed	-1723
▁past	-1724
▁Zet	-1725
▁zonder	-1726
▁persoon	-1727
ps	-1728
▁fall	-1729
▁lezen	-1730
▁fift	-1731
▁old	-1732
▁probably	-1733
ats	-1734
▁gest	-1735
▁onderwerp	-1736
rag	-1737
▁hoor	-1738
▁verder	-1739
▁recht	-1740
▁zoek	-1741
▁bang	-1742
▁moment	-1743
gan	-1744
▁int	-1745
▁horen	-1746
▁round	-1747
▁stick	-1748
▁milk	-1749
ement	-1750
outh	-1751
▁daddy	-1752
ilence	-1753
▁helpen	-1754
▁pupp	-1755
▁vak	-1756
▁vand	-1757
ern	-1758
▁bijvoorbeeld	-1759
▁klasgenoot	-1760
ung	-1761
▁gesp	-1762
▁supp	-1763
▁gezien	-1764
▁must	-1765
▁coming	-1766
kijken	-1767
onnen	-1768
▁cut	-1769
▁zeker	-1770
iving	-1771
▁always	-1772
▁Of	-1773
tje	-1774
▁Do	-1775
▁bedoel	-1776
idelijk	-1777
arde	-1778
▁ander	-1779
▁Ar	-1780
blad	-1781
hed	-1782
▁ing	-1783
▁mis	-1784
▁noise	-1785
▁Misschien	-1786
▁hands	-1787
con	-1788
schap	-1789
▁throw	-1790
vocaliz	-1791
ged	-1792
▁med	-1793
▁auto	-1794
▁though	-1795
aard	-1796
▁Jullie	-1797
val	-1798
▁dieren	-1799
bb	-1800
olog	-1801
▁€	-1802
▁pa	-1803
▁cor	-1804
▁voed	-1805
gether	-1806
▁bott	-1807
put	-1808
▁together	-1809
▁green	-1810
▁Kan	-1811
▁kwam	-1812
auw	-1813
cle	-1814
iks	-1815
▁Tijd	-1816
▁ou	-1817
▁pot	-1818
▁zullen	-1819
▁move	-1820
sta	-1821
▁pra	-1822
▁tele	-1823
▁train	-1824
▁ster	-1825
uld	-1826
▁genoeg	-1827
points	-1828
▁There	-1829
▁fact	-1830
▁aard	-1831
▁blijven	-1832
ha	-1833
时候	-1834
▁Onder	-1835
ize	-1836
▁kr	-1837
▁sy	-1838
ks	-1839
▁Pro	-1840
▁piece	-1841
stof	-1842
▁ready	-1843
▁Duits	-1844
▁called	-1845
▁Ste	-1846
▁有	-1847
ijdens	-1848
▁being	-1849
▁houd	-1850
ives	-1851
▁wasn	-1852
▁din	-1853
▁Best	-1854
ises	-1855
▁hot	-1856
▁sk	-1857
▁leg	-1858
ellow	-1859
eede	-1860
ters	-1861
▁ap	-1862
▁ya	-1863
▁ontst	-1864
▁ein	-1865
▁groe	-1866
▁graag	-1867
▁Kies	-1868
公司	-1869
ates	-1870
▁dacht	-1871
▁Ter	-1872
▁idee	-1873
▁ongeveer	-1874
▁heet	-1875
▁comes	-1876
iew	-1877
▁Lu	-1878
▁course	-1879
▁Pr	-1880
▁Vraag	-1881
▁Me	-1882
oelen	-1883
ankt	-1884
▁toets	-1885
▁Amer	-1886
▁geeft	-1887
▁Eind	-1888
▁foto	-1889
ocht	-1890
▁vertellen	-1891
▁Now	-1892
boek	-1893
▁El	-1894
▁lucht	-1895
▁blue	-1896
cess	-1897
▁Geen	-1898
▁kleine	-1899
TE	-1900
▁ear	-1901
▁hear	-1902
noise	-1903
▁Geb	-1904
ames	-1905
blie	-1906
cies	-1907
ines	-1908
▁15	-1909
▁verg	-1910
zicht	-1911
▁vlie	-1912
eert	-1913
▁rel	-1914
▁quest	-1915
oy	-1916
▁daarna	-1917
oopt	-1918
▁ligt	-1919
▁rust	-1920
▁Zijn	-1921
kken	-1922
▁Re	-1923
product	-1924
blieft	-1925
▁letter	-1926
▁also	-1927
▁front	-1928
▁geweest	-1929
▁zorgen	-1930
▁bren	-1931
▁years	-1932
▁saying	-1933
▁organ	-1934
▁Hall	-1935
ounc	-1936
▁zon	-1937
▁ninet	-1938
▁Ma	-1939
▁Activiteit	-1940
▁slecht	-1941
▁Joh	-1942
ues	-1943
▁voel	-1944
▁bar	-1945
mm	-1946
▁ho	-1947
▁hoog	-1948
▁saw	-1949
cept	-1950
▁midd	-1951
atter	-1952
▁begrij	-1953
wel	-1954
ton	-1955
▁mother	-1956
▁cir	-1957
▁crayon	-1958
kend	-1959
▁gone	-1960
▁hat	-1961
▁set	-1962
irty	-1963
▁second	-1964
▁link	-1965
la	-1966
ijna	-1967
port	-1968
▁own	-1969
gram	-1970
lijke	-1971
ph	-1972
▁stay	-1973
▁makes	-1974
▁squ	-1975
▁vis	-1976
enen	-1977
▁takes	-1978
▁werden	-1979
▁Mot	-1980
▁co	-1981
▁praten	-1982
▁Sorry	-1983
kelijk	-1984
▁vijf	-1985
▁⌈	-1986
▁Sh	-1987
ots	-1988
▁morning	-1989
▁hadden	-1990
ever	-1991
vis	-1992
look	-1993
ane	-1994
uid	-1995
▁playing	-1996
▁der	-1997
▁minder	-1998
CAR	-1999
朋友	-2000
▁stap	-2001
king	-2002
▁laatste	-2003
▁klein	-2004
▁ja	-2005
▁tape	-2006
▁bestaat	-2007
▁lad	-2008
elde	-2009
uurt	-2010
▁beetje	-2011
▁brief	-2012
,'	-2013
▁seven	-2014
ww	-2015
kl	-2016
▁⌊	-2017
▁neem	-2018
igd	-2019
▁great	-2020
▁while	-2021
▁pen	-2022
reven	-2023
▁Opdracht	-2024
▁lief	-2025
▁happened	-2026
▁trying	-2027
▁schrijven	-2028
▁beste	-2029
▁truck	-2030
▁verm	-2031
▁hoort	-2032
▁vroeg	-2033
▁ger	-2034
▁而	-2035
▁toward	-2036
▁turns	-2037
▁light	-2038
zeg	-2039
▁Ha	-2040
▁bird	-2041
▁duidelijk	-2042
cial	-2043
ash	-2044
▁hop	-2045
str	-2046
▁slag	-2047
▁art	-2048
▁pag	-2049
▁bere	-2050
▁win	-2051
▁place	-2052
▁Ge	-2053
▁duck	-2054
▁kant	-2055
ures	-2056
delen	-2057
▁onderzoek	-2058
ande	-2059
.'	-2060
的人	-2061
▁9	-2062
▁verw	-2063
▁lik	-2064
▁nine	-2065
mee	-2066
ieve	-2067
▁picks	-2068
br	-2069
▁fig	-2070
▁Denk	-2071
▁block	-2072
▁foot	-2073
▁wouldn	-2074
ruct	-2075
▁hair	-2076
▁Alleen	-2077
▁oo	-2078
ump	-2079
▁Mo	-2080
bouw	-2081
imaat	-2082
▁lich	-2083
ork	-2084
▁Over	-2085
dy	-2086
ekent	-2087
▁Christ	-2088
▁Ex	-2089
angen	-2090
▁niks	-2091
▁yellow	-2092
RS	-2093
▁bepaal	-2094
▁number	-2095
ident	-2096
▁dicht	-2097
udeer	-2098
▁thuis	-2099
▁misschien	-2100
▁bring	-2101
▁thema	-2102
dem	-2103
▁extra	-2104
gg	-2105
apen	-2106
▁write	-2107
▁zeg	-2108
▁If	-2109
▁interest	-2110
▁woon	-2111
ring	-2112
aches	-2113
▁Door	-2114
▁就	-2115
▁begin	-2116
uin	-2117
▁Was	-2118
▁wist	-2119
box	-2120
stuk	-2121
▁Zoek	-2122
▁soort	-2123
▁rising	-2124
unten	-2125
nie	-2126
ikt	-2127
▁leren	-2128
▁Gebruik	-2129
▁Mark	-2130
▁werkt	-2131
▁noemen	-2132
rift	-2133
ffect	-2134
offen	-2135
▁201	-2136
cy	-2137
▁cow	-2138
ouch	-2139
ergie	-2140
▁laugh	-2141
▁uhoh	-2142
ating	-2143
ign	-2144
▁far	-2145
iger	-2146
▁sing	-2147
▁Hoeveel	-2148
▁sla	-2149
市场	-2150
oven	-2151
▁ring	-2152
故事	-2153
▁bag	-2154
▁dad	-2155
▁krijg	-2156
▁mark	-2157
ider	-2158
▁betekent	-2159
▁filmp	-2160
▁wanted	-2161
▁geluk	-2162
▁mooi	-2163
▁cons	-2164
▁friend	-2165
▁high	-2166
▁most	-2167
▁spijt	-2168
▁enk	-2169
▁vond	-2170
▁juiste	-2171
▁making	-2172
isme	-2173
▁John	-2174
mat	-2175
urs	-2176
▁left	-2177
大家	-2178
▁bear	-2179
▁story	-2180
▁jongen	-2181
iezen	-2182
irt	-2183
▁Dank	-2184
gro	-2185
ctor	-2186
▁lijkt	-2187
▁inst	-2188
▁air	-2189
ika	-2190
▁em	-2191
aces	-2192
▁outside	-2193
▁heen	-2194
▁des	-2195
ator	-2196
▁Okay	-2197
▁object	-2198
▁uitleggen	-2199
▁everything	-2200
opt	-2201
▁fire	-2202
▁animals	-2203
▁wonder	-2204
▁How	-2205
▁black	-2206
ilijk	-2207
ular	-2208
akt	-2209
▁Hou	-2210
▁love	-2211
▁somebody	-2212
TEA	-2213
▁direct	-2214
▁nemen	-2215
▁也	-2216
zij	-2217
uck	-2218
▁lichaam	-2219
▁buy	-2220
erst	-2221
ries	-2222
▁ones	-2223
▁break	-2224
eth	-2225
▁Men	-2226
▁gebeurt	-2227
▁gegeven	-2228
▁close	-2229
▁ontw	-2230
urg	-2231
▁juice	-2232
▁yet	-2233
▁ty	-2234
--	-2235
▁both	-2236
ower	-2237
aties	-2238
▁dec	-2239
ations	-2240
ife	-2241
▁roll	-2242
▁form	-2243
▁bijna	-2244
oep	-2245
▁Nou	-2246
▁oorlog	-2247
lingen	-2248
rekken	-2249
iver	-2250
▁Zij	-2251
sn	-2252
ën	-2253
apt	-2254
▁Mhm	-2255
▁funny	-2256
▁clos	-2257
URS	-2258
▁having	-2259
ition	-2260
▁今	-2261
▁enough	-2262
▁holds	-2263
▁aarde	-2264
sc	-2265
ummy	-2266
ijnen	-2267
▁Mom	-2268
▁opdrachten	-2269
亿元	-2270
▁gezeg	-2271
▁moeilijk	-2272
▁arm	-2273
plaat	-2274
▁warm	-2275
gave	-2276
icks	-2277
▁tab	-2278
bed	-2279
▁Welk	-2280
▁yep	-2281
▁wants	-2282
▁told	-2283
到了	-2284
▁hart	-2285
ross	-2286
▁Wacht	-2287
▁Let	-2288
▁ij	-2289
waar	-2290
▁Uit	-2291
▁Don	-2292
▁afbeeld	-2293
▁To	-2294
如果	-2295
▁Wij	-2296
▁Pl	-2297
▁small	-2298
▁pounds	-2299
▁speel	-2300
因为	-2301
▁sup	-2302
▁leave	-2303
iets	-2304
▁gelijk	-2305
▁18	-2306
▁gets	-2307
▁gehe	-2308
▁geweld	-2309
unch	-2310
▁Hallo	-2311
▁pay	-2312
ved	-2313
知道	-2314
▁lek	-2315
▁nothing	-2316
▁fout	-2317
▁+	-2318
▁post	-2319
▁mouth	-2320
ial	-2321
▁ee	-2322
vocalizes	-2323
▁Mag	-2324
▁Not	-2325
▁mine	-2326
▁comput	-2327
ball	-2328
oemd	-2329
▁los	-2330
▁spelen	-2331
▁sounds	-2332
ieke	-2333
rijd	-2334
▁licht	-2335
▁kijk	-2336
ilig	-2337
▁halen	-2338
rippen	-2339
▁Vol	-2340
▁kost	-2341
▁phone	-2342
▁disc	-2343
▁Will	-2344
▁其	-2345
ilver	-2346
ipp	-2347
▁mens	-2348
▁zet	-2349
eerde	-2350
▁hen	-2351
▁meisje	-2352
roken	-2353
▁waarin	-2354
▁sound	-2355
▁seen	-2356
▁0	-2357
▁Bestudeer	-2358
by	-2359
▁hoeveel	-2360
ants	-2361
itty	-2362
ica	-2363
▁schrijf	-2364
aw	-2365
▁zee	-2366
▁Toen	-2367
ical	-2368
▁whole	-2369
▁noises	-2370
▁Ah	-2371
ful	-2372
▁hell	-2373
▁riv	-2374
▁miss	-2375
▁sorry	-2376
ering	-2377
▁oefening	-2378
▁zoeken	-2379
ready	-2380
▁tijdens	-2381
▁beoord	-2382
appy	-2383
▁Zeg	-2384
▁eyes	-2385
▁fifty	-2386
▁12	-2387
huis	-2388
avond	-2389
▁Can	-2390
▁jaren	-2391
▁Veel	-2392
▁denken	-2393
▁1.	-2394
ooi	-2395
conom	-2396
hand	-2397
ept	-2398
aa	-2399
▁Zorg	-2400
▁face	-2401
sand	-2402
▁wow	-2403
▁soms	-2404
▁already	-2405
▁houdt	-2406
anen	-2407
ruis	-2408
▁lid	-2409
▁plek	-2410
▁Te	-2411
▁horse	-2412
▁thousand	-2413
gy	-2414
▁ton	-2415
▁mar	-2416
▁kre	-2417
▁coll	-2418
ieten	-2419
▁ice	-2420
▁minute	-2421
▁minuten	-2422
▁jump	-2423
midd	-2424
▁[2	-2425
▁niemand	-2426
▁count	-2427
▁mind	-2428
▁probleem	-2429
▁onderdeel	-2430
妈妈	-2431
▁jongens	-2432
▁found	-2433
raak	-2434
esten	-2435
中国	-2436
eem	-2437
▁fav	-2438
idden	-2439
▁schrij	-2440
▁Or	-2441
ient	-2442
ops	-2443
Het	-2444
▁av	-2445
ienden	-2446
uh	-2447
▁meeste	-2448
▁ogen	-2449
时间	-2450
▁Tot	-2451
beelden	-2452
▁ruim	-2453
omme	-2454
ween	-2455
deren	-2456
▁took	-2457
▁inside	-2458
aur	-2459
▁welk	-2460
fl	-2461
▁ooit	-2462
oorten	-2463
▁druk	-2464
rijs	-2465
▁aw	-2466
▁thirty	-2467
looks	-2468
▁Rome	-2469
izz	-2470
▁bi	-2471
▁Hé	-2472
▁Ro	-2473
iën	-2474
▁oude	-2475
▁gar	-2476
olen	-2477
ium	-2478
amera	-2479
▁zom	-2480
atten	-2481
▁build	-2482
▁bouw	-2483
het	-2484
ouse	-2485
▁program	-2486
▁voorbeeld	-2487
▁sur	-2488
kt	-2489
ls	-2490
▁vre	-2491
vragen	-2492
▁natuurlijk	-2493
oms	-2494
▁ontwikk	-2495
Wat	-2496
SIB	-2497
▁keu	-2498
jeblieft	-2499
▁push	-2500
anneer	-2501
▁tom	-2502
▁zag	-2503
▁Ad	-2504
orie	-2505
gry	-2506
▁denkt	-2507
▁pos	-2508
一点	-2509
ched	-2510
itting	-2511
▁geef	-2512
ucht	-2513
RY	-2514
rog	-2515
und	-2516
▁resp	-2517
aul	-2518
▁beteken	-2519
iller	-2520
▁Bedenk	-2521
▁还	-2522
zet	-2523
▁bath	-2524
▁Ind	-2525
duc	-2526
whis	-2527
▁acc	-2528
▁lees	-2529
▁beginnen	-2530
▁milj	-2531
▁dagen	-2532
▁regen	-2533
▁kitty	-2534
▁Klik	-2535
▁wanneer	-2536
▁可	-2537
▁aren	-2538
antie	-2539
where	-2540
▁spoon	-2541
sten	-2542
▁ste	-2543
▁mannen	-2544
▁each	-2545
▁hulp	-2546
▁meet	-2547
espreek	-2548
▁contro	-2549
ommige	-2550
▁wonen	-2551
▁Terug	-2552
▁koning	-2553
elect	-2554
▁film	-2555
▁gevol	-2556
RYA	-2557
▁few	-2558
dag	-2559
▁besl	-2560
▁Bedankt	-2561
已经	-2562
▁chi	-2563
▁zelfs	-2564
iter	-2565
▁hang	-2566
▁planten	-2567
?'	-2568
▁zouden	-2569
▁puppet	-2570
▁shoes	-2571
▁sim	-2572
▁nam	-2573
▁wink	-2574
▁noem	-2575
三十	-2576
▁Peter	-2577
.000	-2578
▁eigenlijk	-2579
anc	-2580
▁its	-2581
▁opge	-2582
mb	-2583
▁Afr	-2584
▁cover	-2585
的时候	-2586
▁gesl	-2587
▁couldn	-2588
gas	-2589
表示	-2590
eeuw	-2591
▁contin	-2592
do	-2593
ual	-2594
▁liggen	-2595
ziek	-2596
▁pur	-2597
怎么	-2598
arl	-2599
▁filmpje	-2600
▁hetzelfde	-2601
▁exc	-2602
▁pas	-2603
isteren	-2604
vrouw	-2605
▁geleden	-2606
ocol	-2607
▁spel	-2608
▁preten	-2609
▁leerlingen	-2610
In	-2611
▁jack	-2612
▁Frank	-2613
▁egg	-2614
▁blad	-2615
▁precies	-2616
不是	-2617
ows	-2618
-1	-2619
inig	-2620
▁inv	-2621
foon	-2622
▁oud	-2623
▁Beg	-2624
⌉.	-2625
▁opl	-2626
sche	-2627
▁Omdat	-2628
ertain	-2629
▁partic	-2630
▁anyway	-2631
▁gevonden	-2632
▁所	-2633
JEN	-2634
▁between	-2635
MCH	-2636
▁Alles	-2637
itten	-2638
▁Wanneer	-2639
]!	-2640
▁teach	-2641
▁deed	-2642
orn	-2643
▁situ	-2644
▁lopen	-2645
ding	-2646
⌋.	-2647
▁sometimes	-2648
▁energie	-2649
▁jezelf	-2650
▁happy	-2651
rew	-2652
▁dem	-2653
▁sub	-2654
▁vandaag	-2655
▁taal	-2656
aling	-2657
▁begint	-2658
sk	-2659
ret	-2660
leiding	-2661
▁meneer	-2662
▁Vert	-2663
▁jong	-2664
▁orange	-2665
▁hers	-2666
▁tien	-2667
gument	-2668
zaam	-2669
airs	-2670
▁Sc	-2671
▁feet	-2672
▁gere	-2673
▁eeuw	-2674
▁kort	-2675
一些	-2676
▁gebied	-2677
▁via	-2678
aft	-2679
▁conc	-2680
▁camera	-2681
ric	-2682
icken	-2683
▁clot	-2684
▁feest	-2685
aring	-2686
zer	-2687
▁hello	-2688
▁idea	-2689
▁internet	-2690
▁bezig	-2691
▁familie	-2692
▁Neem	-2693
▁dezelfde	-2694
▁Werk	-2695
▁rij	-2696
▁tweede	-2697
▁lekker	-2698
▁wrong	-2699
▁passen	-2700
▁fix	-2701
▁kennis	-2702
▁fing	-2703
▁effect	-2704
▁hoop	-2705
antwoorden	-2706
这些	-2707
▁clean	-2708
▁zat	-2709
▁publ	-2710
ekt	-2711
▁opn	-2712
▁enige	-2713
▁eruit	-2714
▁polit	-2715
ax	-2716
▁children	-2717
pect	-2718
takes	-2719
staande	-2720
vert	-2721
▁dier	-2722
une	-2723
gaven	-2724
ible	-2725
▁gener	-2726
▁letters	-2727
▁ziek	-2728
ming	-2729
▁Daarom	-2730
▁game	-2731
▁mach	-2732
pos	-2733
▁producten	-2734
▁plant	-2735
▁norm	-2736
aden	-2737
cces	-2738
▁vrienden	-2739
▁brand	-2740
▁guess	-2741
▁uitge	-2742
▁ouders	-2743
▁listen	-2744
▁eating	-2745
▁war	-2746
▁pat	-2747
ished	-2748
▁bun	-2749
orrow	-2750
▁gebeurd	-2751
lijst	-2752
▁park	-2753
oke	-2754
Peter	-2755
▁fell	-2756
▁verschil	-2757
▁nose	-2758
▁blijft	-2759
▁ervoor	-2760
onen	-2761
▁Un	-2762
▁bottle	-2763
▁rol	-2764
EL	-2765
▁mic	-2766
▁如果	-2767
druk	-2768
▁rijk	-2769
▁nacht	-2770
▁wacht	-2771
▁butter	-2772
tre	-2773
vin	-2774
▁Nederlandse	-2775
ijl	-2776
▁beantwoorden	-2777
▁tekening	-2778
rying	-2779
verd	-2780
▁fish	-2781
aanse	-2782
nod	-2783
werken	-2784
▁computer	-2785
wijs	-2786
▁vooral	-2787
▁certain	-2788
▁Duitsland	-2789
▁guy	-2790
iff	-2791
uro	-2792
ither	-2793
leur	-2794
▁doel	-2795
houden	-2796
▁Luister	-2797
inds	-2798
▁hungry	-2799
pers	-2800
▁cookie	-2801
▁ass	-2802
▁att	-2803
▁gezegd	-2804
▁weinig	-2805
▁ding	-2806
zin	-2807
▁ref	-2808
RA	-2809
▁gi	-2810
▁voedsel	-2811
fect	-2812
▁是	-2813
til	-2814
uil	-2815
min	-2816
▁grot	-2817
▁morgen	-2818
了一	-2819
reep	-2820
▁kamer	-2821
vious	-2822
▁2.	-2823
zien	-2824
uig	-2825
▁Har	-2826
▁gele	-2827
二零一	-2828
▁econom	-2829
use	-2830
▁Am	-2831
name	-2832
▁Eng	-2833
▁inc	-2834
▁pagina	-2835
▁kijkt	-2836
aut	-2837
▁dur	-2838
weg	-2839
▁maat	-2840
ouncil	-2841
▁fit	-2842
▁stem	-2843
▁eas	-2844
▁einde	-2845
▁commun	-2846
▁swe	-2847
▁Hel	-2848
▁temp	-2849
▁Thank	-2850
▁books	-2851
inken	-2852
▁geloof	-2853
ones	-2854
▁voort	-2855
▁kopen	-2856
▁spreek	-2857
most	-2858
▁tel	-2859
vloed	-2860
ente	-2861
▁ate	-2862
irth	-2863
▁soft	-2864
▁reken	-2865
▁Leg	-2866
puts	-2867
IS	-2868
reg	-2869
▁brengen	-2870
▁Nog	-2871
▁Laten	-2872
▁chicken	-2873
▁Mama	-2874
oman	-2875
arn	-2876
ER	-2877
可能	-2878
20	-2879
▁Europa	-2880
▁chocol	-2881
dent	-2882
▁kans	-2883
▁Natuur	-2884
filler	-2885
▁但是	-2886
▁once	-2887
▁words	-2888
▁zoveel	-2889
生活	-2890
▁im	-2891
ason	-2892
▁Af	-2893
▁fe	-2894
▁begrippen	-2895
▁verst	-2896
▁genoemd	-2897
▁month	-2898
▁This	-2899
bare	-2900
▁pizz	-2901
▁punten	-2902
order	-2903
iest	-2904
▁hour	-2905
ket	-2906
▁cou	-2907
ress	-2908
gem	-2909
chn	-2910
werpen	-2911
现在	-2912
CO	-2913
▁hurt	-2914
di	-2915
▁Q	-2916
ikel	-2917
▁Bel	-2918
▁enkele	-2919
▁Vul	-2920
kig	-2921
▁bru	-2922
▁boom	-2923
▁putting	-2924
annen	-2925
haps	-2926
▁zodat	-2927
ities	-2928
▁reden	-2929
▁birth	-2930
kom	-2931
▁Bespreek	-2932
iken	-2933
▁hieronder	-2934
ances	-2935
ific	-2936
res	-2937
rum	-2938
1:	-2939
▁knock	-2940
orden	-2941
▁behind	-2942
▁question	-2943
▁aange	-2944
▁Terugkijken	-2945
▁stond	-2946
▁taking	-2947
lex	-2948
▁near	-2949
▁beeld	-2950
▁bek	-2951
▁cake	-2952
water	-2953
▁kids	-2954
▁[3	-2955
▁klimaat	-2956
eng	-2957
inen	-2958
ily	-2959
▁omsch	-2960
▁zetten	-2961
▁kap	-2962
▁Did	-2963
投资	-2964
rouwen	-2965
view	-2966
▁New	-2967
▁tv	-2968
▁sug	-2969
halen	-2970
▁favor	-2971
ared	-2972
▁tea	-2973
ey	-2974
▁werkblad	-2975
zo	-2976
▁bal	-2977
ping	-2978
▁var	-2979
▁working	-2980
▁Sn	-2981
▁times	-2982
CAT	-2983
企业	-2984
▁whether	-2985
ness	-2986
silence	-2987
key	-2988
▁nad	-2989
ards	-2990
▁nieuws	-2991
cc	-2992
▁white	-2993
▁cheese	-2994
ents	-2995
issen	-2996
ai	-2997
▁und	-2998
▁16	-2999
▁ol	-3000
▁langs	-3001
▁对	-3002
▁almost	-3003
▁vergelijk	-3004
▁able	-3005
▁macht	-3006
head	-3007
▁mogen	-3008
ann	-3009
▁prot	-3010
▁started	-3011
standig	-3012
▁silence	-3013
▁minutes	-3014
▁Wer	-3015
▁def	-3016
▁stroom	-3017
AU	-3018
▁telefoon	-3019
▁adult	-3020
'?	-3021
AN	-3022
▁funct	-3023
ichting	-3024
ateri	-3025
▁ontstaan	-3026
▁bank	-3027
▁veilig	-3028
▁road	-3029
schapp	-3030
▁regel	-3031
sing	-3032
▁Dav	-3033
stelling	-3034
▁webs	-3035
▁convers	-3036
▁bye	-3037
picks	-3038
▁pass	-3039
▁Just	-3040
▁kol	-3041
这样	-3042
▁Se	-3043
oenen	-3044
▁hè	-3045
▁omge	-3046
▁everybody	-3047
▁wand	-3048
itchen	-3049
▁cold	-3050
工作	-3051
▁feed	-3052
▁所以	-3053
起来	-3054
▁我是	-3055
▁gevaar	-3056
▁beantwoord	-3057
▁starts	-3058
▁vor	-3059
▁volg	-3060
▁geleerd	-3061
▁betalen	-3062
▁Cos	-3063
▁doc	-3064
ichten	-3065
自己的	-3066
ule	-3067
▁sal	-3068
svorm	-3069
▁pizza	-3070
,5	-3071
iting	-3072
▁Sar	-3073
▁import	-3074
▁Paul	-3075
▁delen	-3076
▁kitchen	-3077
heen	-3078
▁ans	-3079
dra	-3080
▁vraagt	-3081
▁从	-3082
met	-3083
▁birthday	-3084
▁live	-3085
▁Eindopdracht	-3086
▁kor	-3087
▁da	-3088
▁verslag	-3089
naam	-3090
eph	-3091
▁gesprek	-3092
▁days	-3093
elsel	-3094
▁Daarna	-3095
ima	-3096
▁either	-3097
▁betaal	-3098
▁cool	-3099
▁11	-3100
▁full	-3101
JES	-3102
▁kiezen	-3103
mother	-3104
▁event	-3105
▁aand	-3106
的小	-3107
▁Echt	-3108
▁kent	-3109
▁vle	-3110
▁result	-3111
▁likes	-3112
▁puzz	-3113
▁rock	-3114
▁dro	-3115
ris	-3116
▁Zie	-3117
▁reaches	-3118
▁duur	-3119
▁coff	-3120
▁valt	-3121
iging	-3122
▁Why	-3123
▁particular	-3124
▁那么	-3125
anger	-3126
▁Sam	-3127
▁argument	-3128
▁rug	-3129
▁eindproduct	-3130
iday	-3131
▁当	-3132
▁sand	-3133
▁gehad	-3134
▁York	-3135
▁forty	-3136
erv	-3137
yy	-3138
ler	-3139
▁leerd	-3140
▁hol	-3141
ante	-3142
▁understand	-3143
▁mooie	-3144
laughing	-3145
▁onderdelen	-3146
▁大	-3147
▁ow	-3148
▁ham	-3149
▁pak	-3150
▁gebouw	-3151
▁voorbeelden	-3152
▁hors	-3153
Dat	-3154
▁record	-3155
Je	-3156
▁eh	-3157
enny	-3158
▁ph	-3159
▁mening	-3160
▁yyy	-3161
▁heard	-3162
▁它	-3163
igde	-3164
▁dun	-3165
oorlog	-3166
▁grou	-3167
let	-3168
▁Ed	-3169
▁touch	-3170
▁shall	-3171
mas	-3172
他们	-3173
▁line	-3174
▁syst	-3175
▁voet	-3176
aura	-3177
▁acht	-3178
▁blocks	-3179
▁wet	-3180
akker	-3181
aught	-3182
hold	-3183
▁Klaar	-3184
▁mum	-3185
bel	-3186
▁echte	-3187
▁Gro	-3188
▁problem	-3189
inea	-3190
▁neer	-3191
▁team	-3192
lijn	-3193
▁zoon	-3194
▁across	-3195
▁organis	-3196
▁god	-3197
▁lunch	-3198
▁drop	-3199
▁Prob	-3200
▁test	-3201
▁compl	-3202
voc	-3203
▁zorg	-3204
ienst	-3205
▁means	-3206
▁whatever	-3207
▁hond	-3208
▁oog	-3209
ald	-3210
▁spreken	-3211
reet	-3212
▁moves	-3213
▁document	-3214
▁..	-3215
▁basis	-3216
▁sitting	-3217
▁Wel	-3218
raf	-3219
▁mus	-3220
▁vrouwen	-3221
▁tomorrow	-3222
▁Iedereen	-3223
▁wed	-3224
▁loopt	-3225
oer	-3226
▁aller	-3227
ene	-3228
kel	-3229
▁honey	-3230
▁ontmo	-3231
▁area	-3232
▁One	-3233
▁wachten	-3234
stoffen	-3235
schappen	-3236
▁lady	-3237
▁matter	-3238
raaf	-3239
▁schrift	-3240
▁[$	-3241
uigen	-3242
ham	-3243
▁glass	-3244
▁rivier	-3245
▁shop	-3246
▁Samen	-3247
▁soorten	-3248
▁add	-3249
▁catch	-3250
▁Car	-3251
▁zes	-3252
▁schat	-3253
▁coffee	-3254
aars	-3255
komst	-3256
▁silver	-3257
▁farm	-3258
▁tree	-3259
▁First	-3260
▁inhoud	-3261
illy	-3262
teen	-3263
▁25	-3264
whisper	-3265
ove	-3266
▁towards	-3267
ana	-3268
▁intro	-3269
▁Alle	-3270
ologie	-3271
▁onderstaande	-3272
增长	-3273
▁reis	-3274
/0	-3275
▁Soms	-3276
kn	-3277
▁boot	-3278
▁until	-3279
▁Word	-3280
▁perhaps	-3281
orp	-3282
ffic	-3283
▁gave	-3284
▁frog	-3285
▁Cl	-3286
oeld	-3287
▁vij	-3288
▁eleph	-3289
owing	-3290
▁geweldig	-3291
ational	-3292
zie	-3293
▁Beantwoord	-3294
▁cream	-3295
▁pijn	-3296
leven	-3297
▁sta	-3298
▁Mc	-3299
▁clear	-3300
▁foll	-3301
vern	-3302
▁ontde	-3303
▁ninety	-3304
urns	-3305
▁nummer	-3306
volut	-3307
▁change	-3308
ices	-3309
▁mama	-3310
▁Vertel	-3311
won	-3312
▁tit	-3313
▁Pap	-3314
▁peek	-3315
▁Mrs	-3316
▁Natuurlijk	-3317
imaal	-3318
▁plate	-3319
▁pretend	-3320
ney	-3321
▁twel	-3322
人的	-3323
▁bunny	-3324
▁check	-3325
▁...-	-3326
▁yup	-3327
▁buurt	-3328
ijs	-3329
▁kracht	-3330
elingen	-3331
rib	-3332
▁lots	-3333
ozen	-3334
▁looked	-3335
anje	-3336
▁arbe	-3337
▁ie	-3338
▁prof	-3339
vangen	-3340
▁200	-3341
ired	-3342
▁sport	-3343
▁Have	-3344
疫情	-3345
ages	-3346
ging	-3347
▁X	-3348
一刻	-3349
▁今天	-3350
zoeken	-3351
孩子	-3352
▁base	-3353
oth	-3354
oest	-3355
ummer	-3356
ention	-3357
▁finished	-3358
urger	-3359
觉得	-3360
▁maand	-3361
▁pus	-3362
▁shape	-3363
ides	-3364
▁Miss	-3365
一百	-3366
astic	-3367
▁euro	-3368
bout	-3369
imin	-3370
▁gas	-3371
▁apple	-3372
▁expl	-3373
▁ergens	-3374
▁kleur	-3375
▁conversation	-3376
▁quick	-3377
▁problemen	-3378
▁eet	-3379
com	-3380
▁werkwoord	-3381
▁handen	-3382
▁schema	-3383
ital	-3384
',	-3385
▁et	-3386
co	-3387
▁Man	-3388
sluit	-3389
▁Par	-3390
▁del	-3391
▁Ross	-3392
▁vakantie	-3393
▁[.	-3394
▁bedrijf	-3395
▁同	-3396
ield	-3397
▁mod	-3398
▁verv	-3399
acter	-3400
很多	-3401
▁dinner	-3402
开始	-3403
▁serv	-3404
▁belangrijkste	-3405
egd	-3406
▁guys	-3407
nem	-3408
▁17	-3409
▁Opgave	-3410
Een	-3411
▁someone	-3412
▁punt	-3413
中医	-3414
▁yourself	-3415
▁rather	-3416
▁人	-3417
niet	-3418
▁caref	-3419
▁band	-3420
▁toek	-3421
显示	-3422
sm	-3423
的是	-3424
▁Laura	-3425
▁Nederlands	-3426
▁nineteen	-3427
▁meteen	-3428
▁Where	-3429
▁draa	-3430
inn	-3431
▁cost	-3432
▁clothes	-3433
更多	-3434
▁Gel	-3435
rokken	-3436
schijn	-3437
▁kil	-3438
ivers	-3439
▁kiss	-3440
十五	-3441
oppen	-3442
▁然	-3443
ony	-3444
▁dear	-3445
▁asked	-3446
▁stappen	-3447
orde	-3448
▁verschillen	-3449
▁couple	-3450
▁party	-3451
led	-3452
▁bow	-3453
ikken	-3454
▁steden	-3455
▁voice	-3456
▁namen	-3457
▁uitleg	-3458
▁David	-3459
die	-3460
▁kreeg	-3461
▁ret	-3462
nods	-3463
▁Are	-3464
▁stukje	-3465
经济	-3466
▁3.	-3467
▁gezicht	-3468
▁Jack	-3469
▁along	-3470
▁hoeft	-3471
▁dress	-3472
▁dik	-3473
▁blank	-3474
▁Wereld	-3475
▁grand	-3476
▁such	-3477
▁taken	-3478
▁life	-3479
ads	-3480
oft	-3481
aste	-3482
▁winkel	-3483
▁proberen	-3484
▁afbeelding	-3485
▁以	-3486
▁mat	-3487
▁class	-3488
▁因为	-3489
▁polic	-3490
▁West	-3491
▁deur	-3492
GRA	-3493
leg	-3494
ilt	-3495
▁log	-3496
ROZ	-3497
itte	-3498
▁Sarah	-3499
▁bijz	-3500
ley	-3501
ative	-3502
▁fast	-3503
merken	-3504
vocalize	-3505
reng	-3506
▁order	-3507
iedenis	-3508
raat	-3509
▁14	-3510
▁fab	-3511
▁holding	-3512
▁choo	-3513
▁leeft	-3514
kant	-3515
▁cars	-3516
olut	-3517
entie	-3518
十二	-3519
▁When	-3520
osten	-3521
▁ride	-3522
▁erbij	-3523
的一	-3524
las	-3525
ratie	-3526
▁muziek	-3527
▁dist	-3528
▁pound	-3529
▁belangrijke	-3530
erc	-3531
ees	-3532
▁Heeft	-3533
▁lange	-3534
pel	-3535
▁fly	-3536
esterd	-3537
▁oké	-3538
yst	-3539
▁Dad	-3540
▁avond	-3541
▁needs	-3542
▁meter	-3543
▁eindopdracht	-3544
got	-3545
inkt	-3546
▁100	-3547
▁volgens	-3548
yn	-3549
▁Blijf	-3550
▁herken	-3551
maar	-3552
▁stof	-3553
makes	-3554
▁zzz	-3555
▁reger	-3556
stellen	-3557
ract	-3558
喜欢	-3559
▁Dr	-3560
dule	-3561
werkt	-3562
wegen	-3563
stelsel	-3564
都是	-3565
eens	-3566
,-	-3567
kun	-3568
wijl	-3569
vraag	-3570
esterday	-3571
▁wall	-3572
ott	-3573
▁Su	-3574
▁alsof	-3575
ince	-3576
▁ervan	-3577
▁eng	-3578
anken	-3579
▁ieder	-3580
▁Engel	-3581
▁report	-3582
▁la	-3583
▁elekt	-3584
▁sweet	-3585
▁val	-3586
▁就是	-3587
komt	-3588
▁[4	-3589
▁song	-3590
▁anderen	-3591
▁Bob	-3592
▁examen	-3593
▁vul	-3594
▁leerdoelen	-3595
2:	-3596
▁[1.	-3597
▁Want	-3598
问题	-3599
We	-3600
▁ago	-3601
▁chang	-3602
▁Per	-3603
▁walks	-3604
▁makkelijk	-3605
andy	-3606
▁char	-3607
clus	-3608
▁ooh	-3609
▁他们	-3610
▁zu	-3611
ersch	-3612
▁family	-3613
▁vog	-3614
▁Sl	-3615
▁bell	-3616
▁konden	-3617
▁只	-3618
iep	-3619
dio	-3620
▁answer	-3621
▁presentatie	-3622
▁kruis	-3623
▁grootste	-3624
▁kwamen	-3625
zak	-3626
进行	-3627
ekend	-3628
▁beneden	-3629
hor	-3630
uf	-3631
▁为	-3632
vallen	-3633
美国	-3634
▁bevol	-3635
▁overheid	-3636
rucht	-3637
▁yesterday	-3638
▁shirt	-3639
▁special	-3640
▁shoe	-3641
▁prijs	-3642
▁gehoord	-3643
▁30	-3644
come	-3645
sung	-3646
enten	-3647
▁kennen	-3648
▁Heel	-3649
▁hole	-3650
▁mond	-3651
▁sold	-3652
▁Child	-3653
▁window	-3654
ueel	-3655
▁believe	-3656
▁nat	-3657
▁bepaalde	-3658
▁Her	-3659
▁werkwoorden	-3660
Ch	-3661
▁boeken	-3662
▁bes	-3663
▁bekijken	-3664
!'	-3665
▁Fl	-3666
ruit	-3667
▁bra	-3668
illen	-3669
▁broer	-3670
▁twelve	-3671
▁bread	-3672
▁anybody	-3673
ciale	-3674
▁13	-3675
▁case	-3676
▁important	-3677
▁hope	-3678
cont	-3679
▁cre	-3680
▁regels	-3681
▁zak	-3682
▁happens	-3683
▁cult	-3684
voer	-3685
elden	-3686
▁leest	-3687
▁ruimte	-3688
▁miljoen	-3689
viously	-3690
▁vormen	-3691
tter	-3692
ining	-3693
▁fair	-3694
achte	-3695
▁mess	-3696
repen	-3697
▁usually	-3698
▁view	-3699
▁website	-3700
▁spell	-3701
▁yours	-3702
eps	-3703
▁然后	-3704
▁verzam	-3705
▁veranderen	-3706
▁vliegt	-3707
▁"'	-3708
▁less	-3709
ral	-3710
▁offic	-3711
rom	-3712
ng	-3713
▁toekomst	-3714
▁Duitse	-3715
▁gingen	-3716
▁apart	-3717
月二十	-3718
▁vanaf	-3719
▁finish	-3720
▁module	-3721
方面	-3722
▁oefenen	-3723
zeker	-3724
▁speak	-3725
gang	-3726
▁bos	-3727
genomen	-3728
▁keuze	-3729
▁tabel	-3730
▁politie	-3731
▁beide	-3732
aire	-3733
▁afsp	-3734
▁eerder	-3735
▁bedoeld	-3736
ieu	-3737
▁voordat	-3738
▁pract	-3739
▁Gen	-3740
▁invloed	-3741
数据	-3742
▁abs	-3743
▁orde	-3744
▁papier	-3745
▁without	-3746
gesch	-3747
ov	-3748
▁dou	-3749
▁geval	-3750
▁kinda	-3751
▁vallen	-3752
▁swim	-3753
▁dinos	-3754
▁perfect	-3755
10	-3756
▁geloven	-3757
orgt	-3758
▁lost	-3759
▁clown	-3760
▁weren	-3761
▁Probeer	-3762
▁vergeten	-3763
erence	-3764
▁sign	-3765
▁Amerik	-3766
loop	-3767
▁Net	-3768
▁geschreven	-3769
▁towel	-3770
▁oops	-3771
▁Ne	-3772
arte	-3773
ited	-3774
ought	-3775
▁drive	-3776
▁neemt	-3777
▁laughs	-3778
more	-3779
▁det	-3780
好的	-3781
▁sterk	-3782
▁chocolate	-3783
▁Con	-3784
maken	-3785
▁agen	-3786
▁tick	-3787
▁Christmas	-3788
▁Jon	-3789
▁schuld	-3790
▁ges	-3791
icult	-3792
▁pieces	-3793
▁fine	-3794
▁local	-3795
▁overal	-3796
▁Hieronder	-3797
▁peas	-3798
▁As	-3799
voeg	-3800
reden	-3801
▁voorbij	-3802
raken	-3803
▁pracht	-3804
▁tap	-3805
▁ko	-3806
ilder	-3807
▁Verd	-3808
▁project	-3809
▁gep	-3810
▁geworden	-3811
▁verdw	-3812
▁At	-3813
velop	-3814
▁vers	-3815
▁并	-3816
▁Ken	-3817
▁Adam	-3818
▁boeren	-3819
▁oefeningen	-3820
▁pig	-3821
▁Brit	-3822
▁boat	-3823
bal	-3824
▁tro	-3825
▁vreem	-3826
Ja	-3827
来的	-3828
▁den	-3829
▁wear	-3830
▁behulp	-3831
▁besp	-3832
▁lijst	-3833
▁Che	-3834
▁Who	-3835
▁discuss	-3836
▁Bro	-3837
ukt	-3838
▁hy	-3839
eller	-3840
▁parag	-3841
▁questions	-3842
▁Gew	-3843
▁activiteit	-3844
ped	-3845
非常	-3846
ically	-3847
▁vroeger	-3848
▁cel	-3849
▁snap	-3850
▁beschrijven	-3851
bab	-3852
ubl	-3853
▁50	-3854
▁short	-3855
▁vertelt	-3856
▁Twee	-3857
line	-3858
▁poss	-3859
loos	-3860
▁hit	-3861
▁wash	-3862
vat	-3863
需要	-3864
▁straat	-3865
ete	-3866
ager	-3867
cri	-3868
cel	-3869
▁conf	-3870
▁temper	-3871
▁figure	-3872
情况	-3873
▁每	-3874
▁trek	-3875
▁techn	-3876
▁stoppen	-3877
▁exper	-3878
ijen	-3879
▁dollar	-3880
▁eighty	-3881
▁gebeuren	-3882
oordat	-3883
▁Mother	-3884
"]	-3885
▁react	-3886
▁programma	-3887
发现	-3888
▁against	-3889
▁places	-3890
oom	-3891
出现	-3892
的话	-3893
▁arr	-3894
▁voorkomen	-3895
▁ban	-3896
▁graf	-3897
▁nest	-3898
ateriaal	-3899
fast	-3900
▁ijs	-3901
▁slapen	-3902
▁goin	-3903
▁zuur	-3904
▁fiets	-3905
▁Bar	-3906
▁reason	-3907
▁const	-3908
▁drinken	-3909
▁Zw	-3910
▁contact	-3911
▁Ph	-3912
▁leert	-3913
▁bekend	-3914
iders	-3915
▁Good	-3916
▁world	-3917
▁gekomen	-3918
▁percent	-3919
▁voll	-3920
▁ongel	-3921
isc	-3922
▁zus	-3923
ole	-3924
play	-3925
orst	-3926
stairs	-3927
▁这个	-3928
bles	-3929
KAR	-3930
▁whoa	-3931
▁lift	-3932
▁schrijft	-3933
▁Firstname	-3934
grond	-3935
▁Zoals	-3936
eeg	-3937
▁motor	-3938
▁meisjes	-3939
大的	-3940
▁lach	-3941
▁Da	-3942
aarten	-3943
▁suppose	-3944
▁elephant	-3945
▁koff	-3946
▁straight	-3947
akte	-3948
▁Niemand	-3949
▁careful	-3950
▁gevangen	-3951
▁middel	-3952
▁KB	-3953
▁sun	-3954
▁dig	-3955
aardig	-3956
▁regering	-3957
▁artikel	-3958
),	-3959
▁Mon	-3960
▁ble	-3961
目前	-3962
▁star	-3963
▁betekenis	-3964
hoog	-3965
ander	-3966
ienen	-3967
▁enorm	-3968
ox	-3969
▁Stop	-3970
eding	-3971
发布	-3972
▁spr	-3973
资讯	-3974
voud	-3975
▁huid	-3976
美元	-3977
▁stud	-3978
▁forward	-3979
▁learn	-3980
财经	-3981
▁sixty	-3982
▁iedere	-3983
▁fijn	-3984
iles	-3985
▁wol	-3986
▁paint	-3987
MA	-3988
ester	-3989
▁Moet	-3990
▁praat	-3991
mhm	-3992
▁Ho	-3993
▁kerk	-3994
uut	-3995
▁seem	-3996
▁voldo	-3997
▁indust	-3998
gesl	-3999
▁verkl	-4000
ession	-4001
urk	-4002
▁leng	-4003
▁Sun	-4004
▁daarom	-4005
▁alsjeblieft	-4006
▁doggie	-4007
▁babies	-4008
还是	-4009
▁Ber	-4010
▁naast	-4011
▁tonight	-4012
ogen	-4013
ache	-4014
▁titel	-4015
▁Tweede	-4016
▁midden	-4017
▁persoonsvorm	-4018
onding	-4019
▁teksten	-4020
▁winter	-4021
▁bronnen	-4022
▁meestal	-4023
strijd	-4024
child	-4025
▁zaken	-4026
▁laag	-4027
▁bestaan	-4028
▁theorie	-4029
▁late	-4030
▁..."	-4031
ivid	-4032
epen	-4033
▁baas	-4034
▁schoon	-4035
iness	-4036
▁Bijvoorbeeld	-4037
关注	-4038
▁burg	-4039
▁uhuh	-4040
cellen	-4041
▁Gaat	-4042
▁Zuid	-4043
----	-4044
achter	-4045
▁stuck	-4046
银行	-4047
alve	-4048
band	-4049
▁appl	-4050
▁groter	-4051
▁pakken	-4052
▁beoordelen	-4053
▁Ooh	-4054
▁hon	-4055
veren	-4056
igheid	-4057
▁vervol	-4058
▁volgorde	-4059
untary	-4060
▁circle	-4061
rug	-4062
▁zwem	-4063
▁dom	-4064
▁forgot	-4065
▁最	-4066
▁Mich	-4067
▁rode	-4068
lei	-4069
▁mill	-4070
▁tuin	-4071
▁utter	-4072
▁care	-4073
▁geschiedenis	-4074
erde	-4075
▁Gre	-4076
▁crayons	-4077
▁nope	-4078
▁pictures	-4079
alth	-4080
zel	-4081
▁thinking	-4082
iam	-4083
▁voelt	-4084
▁Had	-4085
ried	-4086
▁Vind	-4087
ground	-4088
▁Noord	-4089
这种	-4090
▁certainly	-4091
▁bite	-4092
▁stil	-4093
onde	-4094
▁pause	-4095
▁probeer	-4096
▁“	-4097
▁[5	-4098
groep	-4099
▁waarbij	-4100
az	-4101
oops	-4102
▁airpl	-4103
▁Mensen	-4104
一定	-4105
▁leef	-4106
▁pulls	-4107
▁gekozen	-4108
▁hum	-4109
五十	-4110
▁favorite	-4111
▁sheep	-4112
ivity	-4113
▁verteld	-4114
▁knew	-4115
▁korte	-4116
▁Naar	-4117
▁manieren	-4118
▁omschrijven	-4119
▁sat	-4120
▁group	-4121
▁reading	-4122
COL	-4123
▁Zelf	-4124
rot	-4125
mail	-4126
goed	-4127
▁Eén	-4128
▁Video	-4129
▁lar	-4130
▁leger	-4131
▁Stel	-4132
▁begrijpen	-4133
RI	-4134
▁omgeving	-4135
aboo	-4136
▁bottom	-4137
gebied	-4138
健康	-4139
▁running	-4140
▁lay	-4141
weer	-4142
▁brown	-4143
ois	-4144
▁Pak	-4145
▁item	-4146
▁Inhoud	-4147
▁living	-4148
▁rep	-4149
outen	-4150
▁soon	-4151
rophone	-4152
▁plaatsen	-4153
▁vanavond	-4154
▁Jan	-4155
是一	-4156
▁nut	-4157
▁stat	-4158
▁links	-4159
▁seems	-4160
▁breakfast	-4161
▁ain	-4162
▁moesten	-4163
elijkheid	-4164
▁gegevens	-4165
▁store	-4166
▁Volgens	-4167
owers	-4168
▁krant	-4169
holds	-4170
▁Kon	-4171
▁gevoel	-4172
▁opnieuw	-4173
rans	-4174
zetten	-4175
▁teacher	-4176
东西	-4177
▁zorgt	-4178
eech	-4179
ermen	-4180
▁press	-4181
▁Ger	-4182
ror	-4183
bei	-4184
ossing	-4185
▁brother	-4186
▁Wereldoorlog	-4187
了解	-4188
▁Big	-4189
财经资讯	-4190
▁camp	-4191
影响	-4192
▁Jul	-4193
beg	-4194
▁public	-4195
▁stellen	-4196
odigd	-4197
▁Onderdeel	-4198
ced	-4199
▁since	-4200
▁football	-4201
▁obviously	-4202
▁langer	-4203
▁baan	-4204
schijnlijk	-4205
▁friends	-4206
月十	-4207
认为	-4208
▁Pas	-4209
▁opt	-4210
欢迎	-4211
Als	-4212
ett	-4213
ounty	-4214
身边	-4215
一起	-4216
▁boer	-4217
...-	-4218
▁lijn	-4219
voeren	-4220
rat	-4221
gasps	-4222
▁Because	-4223
omp	-4224
load	-4225
▁liefde	-4226
▁comb	-4227
▁vandaan	-4228
▁kunst	-4229
▁finger	-4230
▁country	-4231
bere	-4232
▁defin	-4233
plant	-4234
iode	-4235
国家	-4236
otte	-4237
▁sir	-4238
ode	-4239
▁type	-4240
▁Amerika	-4241
ïn	-4242
geet	-4243
▁speelt	-4244
▁cookies	-4245
▁Any	-4246
▁gevolgen	-4247
▁inde	-4248
或者	-4249
▁gaf	-4250
orth	-4251
▁Sat	-4252
esent	-4253
▁goo	-4254
ardon	-4255
▁trou	-4256
▁knows	-4257
▁bought	-4258
best	-4259
bre	-4260
你的	-4261
ffen	-4262
plaats	-4263
zijde	-4264
▁erop	-4265
▁govern	-4266
七点	-4267
▁grap	-4268
ury	-4269
▁verwacht	-4270
▁zwaar	-4271
imb	-4272
oegen	-4273
▁groeien	-4274
voluntary	-4275
▁rabb	-4276
▁succes	-4277
▁My	-4278
▁waarop	-4279
▁begrijp	-4280
▁Ten	-4281
▁teeth	-4282
▁Aye	-4283
aus	-4284
▁Step	-4285
▁maanden	-4286
世界	-4287
▁dank	-4288
▁weeks	-4289
ael	-4290
tjes	-4291
▁pan	-4292
involuntary	-4293
▁Jo	-4294
aster	-4295
▁Comm	-4296
vere	-4297
▁zeer	-4298
▁ahead	-4299
ato	-4300
arts	-4301
elings	-4302
▁televis	-4303
▁Dag	-4304
▁wou	-4305
bert	-4306
nemen	-4307
▁somewhere	-4308
▁score	-4309
TV	-4310
oody	-4311
▁least	-4312
▁zen	-4313
▁oper	-4314
▁sits	-4315
▁magnet	-4316
▁difficult	-4317
▁voldoende	-4318
iment	-4319
▁sister	-4320
他的	-4321
▁circ	-4322
▁gast	-4323
▁support	-4324
erecht	-4325
▁tries	-4326
asting	-4327
turns	-4328
▁bron	-4329
▁dere	-4330
行业	-4331
▁Toch	-4332
我的	-4333
超过	-4334
iers	-4335
▁clock	-4336
rought	-4337
▁stam	-4338
▁afbeeldingen	-4339
omma	-4340
▁Col	-4341
▁For	-4342
punt	-4343
▁pour	-4344
lag	-4345
西安	-4346
ieken	-4347
▁Go	-4348
▁meester	-4349
▁好	-4350
www	-4351
▁vuur	-4352
▁doden	-4353
▁inkomen	-4354
▁Gra	-4355
oute	-4356
▁zult	-4357
regen	-4358
▁spra	-4359
▁rechts	-4360
之后	-4361
▁mevrouw	-4362
jaar	-4363
▁ele	-4364
▁Charl	-4365
ics	-4366
ico	-4367
▁loud	-4368
▁Sommige	-4369
▁appar	-4370
▁woont	-4371
▁alinea	-4372
any	-4373
KF	-4374
个人	-4375
你们	-4376
inse	-4377
▁sig	-4378
▁weken	-4379
▁Hen	-4380
▁Jim	-4381
▁quiet	-4382
▁airplane	-4383
len	-4384
▁mam	-4385
▁Activiteiten	-4386
ari	-4387
erry	-4388
▁deb	-4389
▁Bra	-4390
pointing	-4391
LI	-4392
riek	-4393
▁Mat	-4394
▁eraan	-4395
▁gezond	-4396
30	-4397
▁Sm	-4398
less	-4399
▁kwijt	-4400
50	-4401
hank	-4402
▁Fran	-4403
▁dok	-4404
▁plastic	-4405
▁allerlei	-4406
▁三	-4407
eks	-4408
oet	-4409
▁heer	-4410
En	-4411
ara	-4412
ippen	-4413
ommen	-4414
▁mail	-4415
▁exact	-4416
基金	-4417
▁myself	-4418
▁father	-4419
▁Down	-4420
▁boos	-4421
igg	-4422
▁onto	-4423
▁gebieden	-4424
gra	-4425
unk	-4426
afel	-4427
ately	-4428
▁interesting	-4429
▁memb	-4430
▁maakte	-4431
不会	-4432
▁interview	-4433
kens	-4434
schrift	-4435
plan	-4436
▁schip	-4437
▁doctor	-4438
Op	-4439
uwen	-4440
▁slim	-4441
▁Veren	-4442
▁middle	-4443
son	-4444
▁moon	-4445
新闻	-4446
uff	-4447
cessary	-4448
▁whis	-4449
igt	-4450
▁brought	-4451
!"	-4452
一千	-4453
cer	-4454
Waar	-4455
kort	-4456
▁recorder	-4457
▁rijden	-4458
ette	-4459
▁fur	-4460
▁Ke	-4461
.)	-4462
▁Iemand	-4463
ellingen	-4464
▁correct	-4465
▁verleden	-4466
▁cijf	-4467
oef	-4468
onal	-4469
sport	-4470
▁aangeven	-4471
derd	-4472
▁months	-4473
▁government	-4474
▁ill	-4475
geld	-4476
▁gemidd	-4477
▁given	-4478
raal	-4479
isa	-4480
▁Em	-4481
▁Tim	-4482
▁control	-4483
▁walking	-4484
▁liter	-4485
▁rot	-4486
volutie	-4487
▁比	-4488
rs	-4489
▁gemak	-4490
不能	-4491
▁Zou	-4492
nina	-4493
▁bood	-4494
lement	-4495
bra	-4496
第一	-4497
▁eye	-4498
▁main	-4499
▁straks	-4500
▁sommige	-4501
分享	-4502
▁wilden	-4503
▁within	-4504
消费	-4505
▁haal	-4506
▁要	-4507
▁fant	-4508
▁slide	-4509
▁writing	-4510
cks	-4511
ford	-4512
▁boo	-4513
inner	-4514
▁business	-4515
▁tired	-4516
▁jo	-4517
▁sen	-4518
da	-4519
▁Europese	-4520
zier	-4521
iny	-4522
okken	-4523
▁feit	-4524
▁hog	-4525
▁x	-4526
▁Frankrijk	-4527
四十	-4528
kamer	-4529
ipe	-4530
deeld	-4531
▁ker	-4532
▁members	-4533
▁bud	-4534
▁true	-4535
sterd	-4536
▁ene	-4537
▁boys	-4538
itter	-4539
naal	-4540
kop	-4541
资金	-4542
▁doin	-4543
▁bigger	-4544
▁vlucht	-4545
ja	-4546
▁kolon	-4547
werking	-4548
▁yum	-4549
moves	-4550
Nee	-4551
▁machine	-4552
clock	-4553
▁animal	-4554
▁gevolg	-4555
▁super	-4556
▁button	-4557
▁monkey	-4558
▁puzzle	-4559
▁bepaald	-4560
▁4.	-4561
▁zeven	-4562
▁Sim	-4563
gelopen	-4564
▁colors	-4565
▁herkennen	-4566
特别	-4567
▁gives	-4568
▁Elke	-4569
osp	-4570
▁Tom	-4571
▁klopt	-4572
▁SIS	-4573
▁vliegen	-4574
amb	-4575
▁Michael	-4576
ised	-4577
pervl	-4578
▁redden	-4579
价格	-4580
not	-4581
▁blijf	-4582
▁Rob	-4583
stu	-4584
que	-4585
▁dorp	-4586
ooid	-4587
▁leans	-4588
▁site	-4589
▁contain	-4590
▁spullen	-4591
▁waardoor	-4592
idge	-4593
ience	-4594
ility	-4595
这里	-4596
iste	-4597
▁allebei	-4598
haald	-4599
九年	-4600
▁system	-4601
..."	-4602
eddy	-4603
▁volk	-4604
▁broke	-4605
arr	-4606
▁broken	-4607
▁欢迎	-4608
▁eil	-4609
▁Council	-4610
姐姐	-4611
▁cur	-4612
▁kast	-4613
▁Afronding	-4614
▁lied	-4615
vie	-4616
▁tail	-4617
atsy	-4618
pril	-4619
selves	-4620
▁peekaboo	-4621
dere	-4622
ully	-4623
▁Les	-4624
oordeling	-4625
▁stom	-4626
▁himself	-4627
part	-4628
▁Eer	-4629
▁kat	-4630
house	-4631
▁music	-4632
oeien	-4633
▁afge	-4634
▁deal	-4635
▁Sunday	-4636
▁levens	-4637
aper	-4638
▁har	-4639
ysteem	-4640
GLO	-4641
icit	-4642
▁zuurstof	-4643
再见	-4644
相关	-4645
ites	-4646
cil	-4647
▁adv	-4648
▁behand	-4649
aker	-4650
ouder	-4651
uurd	-4652
▁free	-4653
▁develop	-4654
今天	-4655
▁[6	-4656
vely	-4657
一样	-4658
fer	-4659
▁vriendin	-4660
▁oma	-4661
▁suggest	-4662
kk	-4663
▁Qu	-4664
ekst	-4665
▁vermoord	-4666
▁trans	-4667
▁played	-4668
▁lesuren	-4669
ently	-4670
▁young	-4671
▁poster	-4672
▁cap	-4673
▁equ	-4674
whispered	-4675
▁pink	-4676
ugen	-4677
voerd	-4678
hel	-4679
▁zul	-4680
▁koud	-4681
▁thanks	-4682
▁sluit	-4683
▁straw	-4684
singing	-4685
cribed	-4686
▁luisteren	-4687
ex	-4688
▁Vl	-4689
▁sent	-4690
▁China	-4691
▁kies	-4692
发展	-4693
onger	-4694
▁building	-4695
▁interested	-4696
toe	-4697
▁inge	-4698
▁其中	-4699
▁terwijl	-4700
▁schilder	-4701
gesp	-4702
▁Hebben	-4703
▁opens	-4704
sterdam	-4705
▁during	-4706
▁moving	-4707
▁[7	-4708
▁begon	-4709
服务	-4710
bers	-4711
政策	-4712
来了	-4713
▁Rep	-4714
▁beaut	-4715
▁easy	-4716
▁lap	-4717
▁liever	-4718
sluiting	-4719
▁Alsjeblieft	-4720
▁landbouw	-4721
▁ner	-4722
urday	-4723
来看	-4724
▁dw	-4725
▁Kleur	-4726
▁amb	-4727
▁needta	-4728
organ	-4729
elijks	-4730
etjes	-4731
ouches	-4732
go	-4733
▁Meer	-4734
▁dunno	-4735
▁trouw	-4736
部分	-4737
▁40	-4738
zaak	-4739
▁using	-4740
▁vanuit	-4741
▁plaatje	-4742
▁Min	-4743
atief	-4744
成为	-4745
▁可是	-4746
▁rid	-4747
▁wheel	-4748
▁tax	-4749
▁loop	-4750
▁slaap	-4751
▁beschermen	-4752
hr	-4753
▁prima	-4754
MEL	-4755
ioen	-4756
▁adem	-4757
ts	-4758
kin	-4759
rel	-4760
stead	-4761
▁forget	-4762
▁(1	-4763
▁periode	-4764
inter	-4765
▁legs	-4766
▁droom	-4767
ses	-4768
▁kern	-4769
▁luister	-4770
recht	-4771
▁radio	-4772
▁sou	-4773
gelegd	-4774
▁gebeurten	-4775
▁overzicht	-4776
▁bedenken	-4777
▁dochter	-4778
▁microphone	-4779
▁versl	-4780
▁daarbij	-4781
▁imm	-4782
▁inn	-4783
▁aanp	-4784
▁pump	-4785
▁stack	-4786
▁Onze	-4787
▁tips	-4788
▁goodness	-4789
-2	-4790
消息	-4791
vak	-4792
role	-4793
▁Ital	-4794
▁turned	-4795
▁Rust	-4796
▁gang	-4797
▁pens	-4798
▁temperatuur	-4799
ying	-4800
osta	-4801
▁bevolking	-4802
▁pack	-4803
rijving	-4804
▁)	-4805
▁meeting	-4806
▁dinosaur	-4807
▁mass	-4808
▁till	-4809
kracht	-4810
▁bedrijven	-4811
ometer	-4812
▁想	-4813
▁zichzelf	-4814
wich	-4815
▁erin	-4816
▁cause	-4817
woners	-4818
▁zomer	-4819
▁trekken	-4820
▁gelukkig	-4821
zing	-4822
tro	-4823
venty	-4824
▁barn	-4825
▁pitch	-4826
▁hoef	-4827
▁waarmee	-4828
YN	-4829
inc	-4830
▁rood	-4831
▁Grote	-4832
▁Meneer	-4833
▁geheim	-4834
▁Amsterdam	-4835
城市	-4836
▁24	-4837
▁vorige	-4838
indelijk	-4839
那个	-4840
▁priv	-4841
▁dokter	-4842
▁Ont	-4843
▁pet	-4844
owed	-4845
back	-4846
▁wakker	-4847
▁Staten	-4848
▁problems	-4849
证券	-4850
的故事	-4851
ephone	-4852
▁weekend	-4853
▁Beoordeling	-4854
▁klasgenoten	-4855
▁alien	-4856
▁girls	-4857
▁detail	-4858
▁individ	-4859
▁buitenland	-4860
▁May	-4861
▁handel	-4862
通过	-4863
▁Alex	-4864
▁ground	-4865
▁rabbit	-4866
继续	-4867
▁grapp	-4868
▁often	-4869
▁beweg	-4870
▁bellen	-4871
▁cellen	-4872
▁plezier	-4873
abel	-4874
estig	-4875
▁pages	-4876
▁让	-4877
orge	-4878
▁Max	-4879
▁lag	-4880
▁Spanje	-4881
能够	-4882
iefd	-4883
▁lovely	-4884
▁Saturday	-4885
▁klinkt	-4886
▁continues	-4887
aald	-4888
▁brood	-4889
▁elect	-4890
▁seat	-4891
▁tent	-4892
▁sinds	-4893
teken	-4894
▁puppy	-4895
▁rustig	-4896
▁cop	-4897
dr	-4898
▁typ	-4899
▁Oost	-4900
▁derde	-4901
▁liet	-4902
▁Eindproduct	-4903
anut	-4904
▁drawing	-4905
uzz	-4906
▁iss	-4907
▁tried	-4908
nis	-4909
▁veroor	-4910
播报	-4911
▁ed	-4912
igin	-4913
▁trein	-4914
▁waarde	-4915
▁minimaal	-4916
toys	-4917
▁winnen	-4918
有一	-4919
▁beoordeling	-4920
AP	-4921
book	-4922
ived	-4923
osed	-4924
▁Vergelijk	-4925
▁standing	-4926
ei	-4927
xtra	-4928
▁geluid	-4929
▁hoofdstuk	-4930
▁versp	-4931
▁kool	-4932
▁yay	-4933
▁hoge	-4934
reaches	-4935
▁mem	-4936
▁plays	-4937
▁下	-4938
ases	-4939
▁expect	-4940
iker	-4941
ti	-4942
ample	-4943
▁huizen	-4944
kende	-4945
▁recl	-4946
▁ist	-4947
LYN	-4948
▁ins	-4949
▁中	-4950
▁Verenigde	-4951
▁trouble	-4952
stad	-4953
DE	-4954
wassen	-4955
▁surpr	-4956
比较	-4957
rand	-4958
▁Pre	-4959
ules	-4960
▁verkopen	-4961
▁president	-4962
nes	-4963
stublieft	-4964
MB	-4965
alm	-4966
▁nood	-4967
arkt	-4968
▁eerlijk	-4969
▁papa	-4970
▁works	-4971
▁crying	-4972
▁Alright	-4973
▁namelijk	-4974
ille	-4975
▁steen	-4976
ello	-4977
▁neg	-4978
onalds	-4979
▁bevat	-4980
▁kenmerken	-4981
▁Mond	-4982
▁gedrag	-4983
vaart	-4984
odigdheden	-4985
▁plus	-4986
▁omhoog	-4987
rr	-4988
▁das	-4989
▁ears	-4990
▁activiteiten	-4991
▁spl	-4992
▁port	-4993
也是	-4994
oude	-4995
▁bezoek	-4996
12	-4997
boven	-4998
▁Haar	-4999
▁Friday	-5000
▁Pardon	-5001
▁nobody	-5002
teren	-5003
zijn	-5004
▁rub	-5005
▁club	-5006
▁sterven	-5007
主要	-5008
zaken	-5009
▁fruit	-5010
▁council	-5011
gele	-5012
voice	-5013
uc	-5014
.""	-5015
shakes	-5016
▁absolut	-5017
▁aardig	-5018
JO	-5019
应该	-5020
▁emp	-5021
iod	-5022
▁Open	-5023
▁muur	-5024
▁brush	-5025
▁swing	-5026
▁background	-5027
pill	-5028
vatting	-5029
爸爸	-5030
▁police	-5031
ielen	-5032
5]	-5033
▁Bet	-5034
▁Oefen	-5035
LAU	-5036
▁respect	-5037
▁list	-5038
▁rain	-5039
▁Come	-5040
▁Hoi	-5041
▁tri	-5042
▁kopie	-5043
▁diep	-5044
▁melk	-5045
▁snow	-5046
上的	-5047
看到	-5048
iful	-5049
▁meerdere	-5050
.'"	-5051
▁mix	-5052
1.	-5053
▁corn	-5054
▁cups	-5055
▁bewegen	-5056
9]	-5057
▁bladzijde	-5058
南方	-5059
▁seventy	-5060
▁argumenten	-5061
人员	-5062
▁sposta	-5063
1]	-5064
事情	-5065
全国	-5066
▁bug	-5067
▁[8	-5068
eeld	-5069
spel	-5070
itein	-5071
▁overt	-5072
▁market	-5073
▁stoffen	-5074
重要	-5075
二零一九年	-5076
▁women	-5077
dien	-5078
▁space	-5079
▁handle	-5080
imm	-5081
ments	-5082
▁vechten	-5083
这么	-5084
▁situatie	-5085
cream	-5086
groot	-5087
▁hasn	-5088
▁voeren	-5089
▁naamwoord	-5090
wet	-5091
▁incre	-5092
▁vertel	-5093
gar	-5094
▁terms	-5095
▁telephone	-5096
Hoe	-5097
onderd	-5098
▁protest	-5099
ella	-5100
▁ongeluk	-5101
▁aandacht	-5102
kw	-5103
▁Even	-5104
erslag	-5105
科技	-5106
hoek	-5107
▁dol	-5108
▁grow	-5109
▁exactly	-5110
sy	-5111
ppen	-5112
▁yummy	-5113
▁anymore	-5114
▁popul	-5115
▁opgaven	-5116
▁plat	-5117
▁Succes	-5118
▁cultuur	-5119
▁gekregen	-5120
▁bijzonder	-5121
▁来	-5122
▁falls	-5123
dam	-5124
rijden	-5125
▁shake	-5126
▁ang	-5127
▁utterances	-5128
AI	-5129
▁geboren	-5130
▁oplossing	-5131
hin	-5132
eker	-5133
▁card	-5134
ilen	-5135
illed	-5136
lopen	-5137
▁June	-5138
▁Lisa	-5139
▁koop	-5140
▁draag	-5141
▁controle	-5142
▁Mart	-5143
▁horsie	-5144
▁whoops	-5145
▁arms	-5146
▁Henry	-5147
管理	-5148
▁stel	-5149
▁information	-5150
第二	-5151
ized	-5152
▁send	-5153
oost	-5154
▁Jap	-5155
aterpill	-5156
▁Romeinse	-5157
地方	-5158
FAD	-5159
▁term	-5160
▁training	-5161
ittee	-5162
▁Noem	-5163
▁blok	-5164
inding	-5165
▁hoorde	-5166
▁kosten	-5167
▁sna	-5168
vreden	-5169
▁lachen	-5170
▁struct	-5171
staan	-5172
▁194	-5173
▁gelezen	-5174
▁verandert	-5175
▁desk	-5176
▁fot	-5177
▁Pol	-5178
▁purple	-5179
izer	-5180
▁step	-5181
▁tafel	-5182
vang	-5183
keken	-5184
▁early	-5185
▁garage	-5186
▁voornaam	-5187
▁opa	-5188
▁bereken	-5189
▁fifteen	-5190
▁plaatjes	-5191
▁maj	-5192
▁concern	-5193
▁vervolgens	-5194
zes	-5195
ateg	-5196
▁Two	-5197
▁nap	-5198
▁zomaar	-5199
eester	-5200
olle	-5201
▁level	-5202
▁paard	-5203
▁telling	-5204
▁bowl	-5205
▁fiet	-5206
▁spec	-5207
▁toest	-5208
的一个	-5209
rian	-5210
ploy	-5211
季度	-5212
zichtig	-5213
▁afstand	-5214
▁voorwerp	-5215
▁Tra	-5216
onstr	-5217
▁insp	-5218
▁prov	-5219
▁power	-5220
▁leggen	-5221
▁terecht	-5222
raad	-5223
▁prom	-5224
▁leerling	-5225
南都	-5226
iot	-5227
toets	-5228
▁milieu	-5229
▁schrijver	-5230
illa	-5231
▁zoo	-5232
▁icecream	-5233
▁1:	-5234
▁overe	-5235
▁koffie	-5236
▁instead	-5237
veld	-5238
▁Ant	-5239
▁Joe	-5240
empt	-5241
very	-5242
▁bodem	-5243
▁blanket	-5244
ided	-5245
三点	-5246
par	-5247
uch	-5248
ciaal	-5249
▁gemakkelijk	-5250
▁据	-5251
bron	-5252
ubliek	-5253
gesteld	-5254
▁cond	-5255
istische	-5256
▁eggs	-5257
▁Teken	-5258
产品	-5259
▁voelen	-5260
▁mir	-5261
▁enkel	-5262
▁glasses	-5263
doel	-5264
▁held	-5265
▁totaal	-5266
vr	-5267
▁Papa	-5268
▁Inter	-5269
▁cm	-5270
uist	-5271
▁moder	-5272
▁body	-5273
▁zand	-5274
▁consider	-5275
gene	-5276
▁meen	-5277
▁stij	-5278
▁其实	-5279
aged	-5280
▁bouwen	-5281
▁fingers	-5282
▁bescherm	-5283
▁geslacht	-5284
▁paragraaf	-5285
nel	-5286
iveau	-5287
▁meth	-5288
▁这是	-5289
▁veranderd	-5290
edig	-5291
▁vent	-5292
▁dansen	-5293
▁beautiful	-5294
▁hist	-5295
别人	-5296
ansport	-5297
▁Rustig	-5298
▁tas	-5299
▁begrijpt	-5300
▁vliegtuig	-5301
▁Help	-5302
▁waard	-5303
月份	-5304
ugd	-5305
▁hours	-5306
▁leuke	-5307
▁上	-5308
pped	-5309
▁bat	-5310
wezen	-5311
▁Wees	-5312
▁taak	-5313
▁crack	-5314
▁period	-5315
▁kleding	-5316
▁getallen	-5317
▁carry	-5318
▁fight	-5319
stel	-5320
achine	-5321
▁kwaad	-5322
▁Welkom	-5323
gew	-5324
idt	-5325
▁medic	-5326
▁uitsp	-5327
▁wedstrijd	-5328
ET	-5329
▁groepje	-5330
▁pock	-5331
▁neus	-5332
▁Fre	-5333
▁bloody	-5334
oul	-5335
ains	-5336
esse	-5337
▁hosp	-5338
▁service	-5339
ym	-5340
一下	-5341
▁Kar	-5342
▁exerc	-5343
ior	-5344
▁example	-5345
▁vlees	-5346
wijzen	-5347
azen	-5348
▁Leer	-5349
2.	-5350
研究	-5351
assing	-5352
在您	-5353
▁fol	-5354
▁mer	-5355
▁exam	-5356
▁dragen	-5357
▁Tijdens	-5358
人民	-5359
▁School	-5360
▁kleren	-5361
overl	-5362
▁sleeping	-5363
▁slot	-5364
▁invol	-5365
▁race	-5366
▁drops	-5367
▁ontstaat	-5368
▁strong	-5369
ges	-5370
isatie	-5371
▁bathroom	-5372
▁大家	-5373
▁Cal	-5374
▁Willem	-5375
▁personen	-5376
4]	-5377
uele	-5378
▁board	-5379
▁ermee	-5380
▁basket	-5381
在您身边	-5382
aterpillar	-5383
▁waarschijnlijk	-5384
▁还有	-5385
▁byeb	-5386
▁wish	-5387
▁Look	-5388
▁toeg	-5389
▁Which	-5390
rab	-5391
▁accept	-5392
年的	-5393
▁cere	-5394
▁Rich	-5395
▁vlak	-5396
全球	-5397
▁quack	-5398
▁roept	-5399
▁gevaarlijk	-5400
3]	-5401
▁flat	-5402
▁hall	-5403
ragment	-5404
▁Engels	-5405
▁advert	-5406
出来	-5407
▁Aha	-5408
uture	-5409
middelen	-5410
▁daarmee	-5411
▁kleuren	-5412
▁pencil	-5413
▁mezelf	-5414
▁mouse	-5415
十一	-5416
▁中国	-5417
rict	-5418
urch	-5419
oogle	-5420
itched	-5421
▁pushes	-5422
▁zaak	-5423
▁street	-5424
▁waarheid	-5425
医院	-5426
inst	-5427
▁ident	-5428
▁Romeinen	-5429
▁Voorbeeld	-5430
信息	-5431
▁rece	-5432
▁woest	-5433
▁bacter	-5434
▁garden	-5435
atis	-5436
▁ving	-5437
▁#	-5438
▁zoekt	-5439
▁dienst	-5440
raph	-5441
▁key	-5442
ondon	-5443
▁flowers	-5444
eltje	-5445
▁Mary	-5446
▁hout	-5447
▁functie	-5448
也不	-5449
zus	-5450
▁zieken	-5451
▁Mil	-5452
▁peanut	-5453
▁Gl	-5454
schaps	-5455
朋友们	-5456
UN	-5457
▁George	-5458
▁Sla	-5459
▁heav	-5460
▁tekenen	-5461
▁visit	-5462
oken	-5463
▁origin	-5464
mbo	-5465
▁eleven	-5466
▁reag	-5467
achtig	-5468
▁mention	-5469
▁instruct	-5470
▁voorbere	-5471
icum	-5472
shire	-5473
▁tegenwoord	-5474
▁gol	-5475
▁occ	-5476
berry	-5477
kaart	-5478
▁hom	-5479
▁social	-5480
ogn	-5481
2]	-5482
ijnt	-5483
▁afle	-5484
▁byebye	-5485
▁rechter	-5486
olf	-5487
▁es	-5488
ec	-5489
GAI	-5490
pot	-5491
ction	-5492
7]	-5493
▁Eerst	-5494
都市	-5495
ened	-5496
▁onderwerpen	-5497
▁Pat	-5498
▁giving	-5499
机构	-5500
▁fir	-5501
gegeven	-5502
▁monster	-5503
6]	-5504
▁kru	-5505
▁helpt	-5506
▁station	-5507
▁daarvoor	-5508
▁erv	-5509
▁zaad	-5510
keur	-5511
▁Cont	-5512
▁kaarten	-5513
指数	-5514
▁verdienen	-5515
Chi	-5516
cing	-5517
▁spend	-5518
kunde	-5519
▁neck	-5520
▁prins	-5521
▁bepalen	-5522
▁hoogte	-5523
▁bedankt	-5524
▁activity	-5525
▁pad	-5526
vocalization	-5527
▁viel	-5528
▁vres	-5529
▁Monday	-5530
▁一个	-5531
inderen	-5532
▁voedings	-5533
金融	-5534
adea	-5535
▁stands	-5536
▁interess	-5537
▁watching	-5538
▁Tr	-5539
▁poor	-5540
▁tong	-5541
▁ratt	-5542
▁honger	-5543
▁lijken	-5544
▁policy	-5545
▁throws	-5546
though	-5547
▁large	-5548
▁inwoners	-5549
晚安	-5550
ertje	-5551
▁bestu	-5552
▁Ty	-5553
▁duurt	-5554
▁trots	-5555
▁London	-5556
▁supposed	-5557
规模	-5558
▁geme	-5559
▁heren	-5560
▁strip	-5561
▁politieke	-5562
六十	-5563
mond	-5564
naar	-5565
▁kamp	-5566
▁ye	-5567
omet	-5568
▁mob	-5569
agram	-5570
上市	-5571
Hij	-5572
▁km	-5573
二零二零	-5574
▁meat	-5575
▁2:	-5576
▁Mooi	-5577
▁vmbo	-5578
热点	-5579
heer	-5580
▁verliefd	-5581
▁Amerikaanse	-5582
8]	-5583
都市报	-5584
▁veg	-5585
▁length	-5586
▁Russ	-5587
▁Sov	-5588
▁stuur	-5589
ray	-5590
▁Hun	-5591
ennen	-5592
南方都市报	-5593
▁saf	-5594
▁gedicht	-5595
fort	-5596
▁max	-5597
▁third	-5598
▁duh	-5599
▁verloren	-5600
noon	-5601
gende	-5602
▁reach	-5603
owel	-5604
▁Nieuw	-5605
▁afternoon	-5606
▁老	-5607
▁同比	-5608
iber	-5609
就是这些	-5610
▁Haal	-5611
▁bomen	-5612
▁lion	-5613
▁gun	-5614
ellig	-5615
上涨	-5616
▁felt	-5617
▁Europe	-5618
正在	-5619
eds	-5620
▁1,	-5621
▁oom	-5622
▁quar	-5623
speech	-5624
▁elimin	-5625
▁sneller	-5626
▁Bab	-5627
▁digit	-5628
▁gevraag	-5629
gebruik	-5630
▁haat	-5631
▁produc	-5632
apens	-5633
▁probeert	-5634
lish	-5635
athan	-5636
▁Intro	-5637
▁James	-5638
wards	-5639
▁Mummy	-5640
▁pil	-5641
▁Patsy	-5642
▁map	-5643
▁woordenboek	-5644
▁kwal	-5645
▁grappig	-5646
▁Chair	-5647
▁bestuur	-5648
▁→	-5649
berg	-5650
根据	-5651
▁ran	-5652
▁driving	-5653
▁Uw	-5654
▁Examen	-5655
▁suit	-5656
增长百分之	-5657
▁innit	-5658
▁21	-5659
▁uite	-5660
▁ontmoet	-5661
AUN	-5662
▁closer	-5663
▁wis	-5664
▁Phil	-5665
zingen	-5666
▁jonge	-5667
ume	-5668
iele	-5669
▁Pers	-5670
▁minst	-5671
▁lastig	-5672
▁afgelopen	-5673
▁kilometer	-5674
▁author	-5675
▁slechte	-5676
kingen	-5677
以后	-5678
▁[9	-5679
ening	-5680
aid	-5681
▁Grand	-5682
▁collect	-5683
kist	-5684
▁prachtig	-5685
一步	-5686
股份	-5687
zig	-5688
▁ei	-5689
▁overl	-5690
▁position	-5691
▁beurt	-5692
▁gegaan	-5693
hankelijk	-5694
▁benoemen	-5695
▁zelfstandig	-5696
下降	-5697
nam	-5698
orten	-5699
mers	-5700
▁wood	-5701
▁shouldn	-5702
lly	-5703
▁comment	-5704
▁upstairs	-5705
SS	-5706
car	-5707
▁vet	-5708
▁www	-5709
ouwen	-5710
present	-5711
▁bestand	-5712
reed	-5713
▁dry	-5714
▁square	-5715
▁general	-5716
yl	-5717
cul	-5718
doen	-5719
北京	-5720
▁turt	-5721
▁sugar	-5722
oci	-5723
▁sandwich	-5724
▁See	-5725
▁helft	-5726
▁wapen	-5727
huizen	-5728
▁gezin	-5729
▁health	-5730
▁把	-5731
三百	-5732
▁Ol	-5733
aghet	-5734
▁pijl	-5735
▁proces	-5736
▁又	-5737
发生	-5738
▁Drie	-5739
ranscribed	-5740
▁[?	-5741
anda	-5742
ural	-5743
▁law	-5744
▁woof	-5745
gaat	-5746
rible	-5747
▁hield	-5748
joy	-5749
零点	-5750
▁web	-5751
▁fouten	-5752
▁scared	-5753
▁Mel	-5754
tekst	-5755
necessary	-5756
▁截	-5757
hah	-5758
▁Wal	-5759
▁tool	-5760
▁hotel	-5761
▁begins	-5762
交易	-5763
▁positie	-5764
四点	-5765
▁cross	-5766
▁select	-5767
▁economie	-5768
aalf	-5769
aien	-5770
▁pocket	-5771
esh	-5772
▁haha	-5773
▁intern	-5774
pert	-5775
▁keys	-5776
▁climb	-5777
board	-5778
▁Achter	-5779
▁leaves	-5780
▁naartoe	-5781
Maar	-5782
orgd	-5783
▁town	-5784
eeuwen	-5785
▁sense	-5786
▁eiland	-5787
▁bloemen	-5788
JW	-5789
所有	-5790
▁grens	-5791
▁restaur	-5792
下来	-5793
ius	-5794
▁woman	-5795
▁0,	-5796
▁Tekst	-5797
▁recogn	-5798
▁string	-5799
wat	-5800
kent	-5801
▁Iets	-5802
pens	-5803
▁kar	-5804
▁Eerste	-5805
St	-5806
jet	-5807
▁Japan	-5808
▁Weg	-5809
▁lab	-5810
▁toep	-5811
▁tweet	-5812
▁zenuw	-5813
两个	-5814
ureau	-5815
derdaad	-5816
▁klim	-5817
▁volt	-5818
▁vergelijken	-5819
ijdt	-5820
▁Rijk	-5821
▁Jezus	-5822
ieus	-5823
June	-5824
▁silly	-5825
▁bedacht	-5826
3.	-5827
eloos	-5828
non	-5829
▁fan	-5830
▁buur	-5831
places	-5832
▁Vragen	-5833
▁lessen	-5834
▁glad	-5835
▁mist	-5836
▁verwij	-5837
▁grafiek	-5838
▁berg	-5839
atieve	-5840
anta	-5841
▁aud	-5842
▁sick	-5843
▁Zelfs	-5844
▁movie	-5845
▁eventueel	-5846
▁tekeningen	-5847
▁à	-5848
▁raad	-5849
业务	-5850
onk	-5851
wiss	-5852
ongen	-5853
晚上	-5854
▁hoger	-5855
▁kerst	-5856
bren	-5857
▁bak	-5858
▁Niets	-5859
▁daarvan	-5860
容易	-5861
▁paid	-5862
▁wint	-5863
▁smell	-5864
▁container	-5865
▁rustling	-5866
▁Kruis	-5867
▁oppervl	-5868
ya	-5869
izend	-5870
▁Bird	-5871
▁donker	-5872
▁verzeker	-5873
▁eliminated	-5874
▁看	-5875
FCH	-5876
▁cry	-5877
ukkig	-5878
▁witte	-5879
▁gereed	-5880
▁herself	-5881
eman	-5882
▁corner	-5883
增加	-5884
auwe	-5885
▁wha	-5886
▁Extra	-5887
▁sleut	-5888
▁gebeurde	-5889
ased	-5890
sver	-5891
▁Lois	-5892
▁verr	-5893
rieken	-5894
▁brengt	-5895
aghetti	-5896
▁jongeren	-5897
▁couch	-5898
▁everyone	-5899
▁steek	-5900
▁stops	-5901
出了	-5902
希望	-5903
▁craw	-5904
▁hangt	-5905
▁amount	-5906
roe	-5907
▁christ	-5908
▁gesproken	-5909
▁low	-5910
iende	-5911
▁maan	-5912
▁Kle	-5913
▁kregen	-5914
▁vreemd	-5915
▁rob	-5916
▁cute	-5917
▁situation	-5918
▁caterpillar	-5919
▁kiest	-5920
▁further	-5921
▁groepen	-5922
▁rivieren	-5923
▁Nederlanders	-5924
inde	-5925
▁ler	-5926
▁woo	-5927
▁Bron	-5928
▁Nina	-5929
ije	-5930
▁screw	-5931
▁ziekte	-5932
▁Download	-5933
unnecessary	-5934
包括	-5935
regel	-5936
schuw	-5937
▁vulk	-5938
▁rekening	-5939
▁gevraagd	-5940
▁hug	-5941
▁Lord	-5942
▁ideeën	-5943
▁burgers	-5944
▁nesting	-5945
▁singing	-5946
▁difference	-5947
roll	-5948
▁account	-5949
otter	-5950
▁gras	-5951
bit	-5952
▁Cor	-5953
▁Ray	-5954
▁geg	-5955
▁Aust	-5956
▁onth	-5957
▁ouder	-5958
▁liked	-5959
▁taste	-5960
过去	-5961
▁bike	-5962
bie	-5963
▁worked	-5964
▁normaal	-5965
▁swimming	-5966
就会	-5967
的大	-5968
▁说	-5969
▁trees	-5970
▁Vooruit	-5971
▁concent	-5972
▁gebracht	-5973
▁hospital	-5974
▁新	-5975
fil	-5976
wing	-5977
▁verniet	-5978
▁hersenen	-5979
fly	-5980
▁markt	-5981
▁parents	-5982
▁Benodigdheden	-5983
▁nauw	-5984
▁droog	-5985
九点	-5986
icky	-5987
▁Exc	-5988
▁kennisbank	-5989
▁Mac	-5990
▁million	-5991
▁Bo	-5992
▁tie	-5993
hal	-5994
▁你们	-5995
▁muse	-5996
▁schoenen	-5997
press	-5998
▁picked	-5999
▁laughing	-6000
▁kid	-6001
▁tiny	-6002
▁enjoy	-6003
riciteit	-6004
ript	-6005
▁Oor	-6006
▁route	-6007
▁batter	-6008
▁except	-6009
▁erachter	-6010
zy	-6011
▁国	-6012
▁slaan	-6013
五百	-6014
▁self	-6015
▁Marky	-6016
▁gemeen	-6017
▁begonnen	-6018
ision	-6019
ossen	-6020
▁office	-6021
▁ent	-6022
▁oth	-6023
iling	-6024
▁zoiets	-6025
▁dans	-6026
▁handig	-6027
▁volwassen	-6028
▁numbers	-6029
▁communic	-6030
真的	-6031
这一	-6032
▁sol	-6033
▁oppos	-6034
▁procent	-6035
病毒	-6036
udden	-6037
▁dead	-6038
▁slow	-6039
▁contract	-6040
▁goud	-6041
▁trouwen	-6042
▁text	-6043
▁pants	-6044
▁本	-6045
ouwd	-6046
▁Boven	-6047
▁verhalen	-6048
Ze	-6049
eak	-6050
eland	-6051
▁Zonder	-6052
▁bor	-6053
▁sturen	-6054
▁balloon	-6055
burg	-6056
▁Houd	-6057
▁Part	-6058
▁democ	-6059
▁gepro	-6060
那么	-6061
rust	-6062
▁aye	-6063
▁Then	-6064
▁dream	-6065
▁negen	-6066
▁cadea	-6067
▁neat	-6068
ationale	-6069
▁tun	-6070
athol	-6071
▁provin	-6072
成了	-6073
▁wit	-6074
▁qual	-6075
▁verj	-6076
dienst	-6077
▁appro	-6078
▁company	-6079
▁holiday	-6080
ism	-6081
▁ev	-6082
▁seks	-6083
▁univers	-6084
▁hé	-6085
▁Mam	-6086
▁mocht	-6087
告诉	-6088
▁Wed	-6089
gemaakt	-6090
▁spannen	-6091
▁bereiken	-6092
ON	-6093
▁beginning	-6094
ky	-6095
oede	-6096
▁sneeuw	-6097
▁happening	-6098
▁Reg	-6099
▁reclame	-6100
▁minister	-6101
▁names	-6102
▁cereal	-6103
▁Jouw	-6104
vatten	-6105
▁haalt	-6106
▁richting	-6107
▁spaghetti	-6108
ograf	-6109
▁Bill	-6110
▁Mike	-6111
七十	-6112
▁dam	-6113
▁vac	-6114
tegen	-6115
▁wegen	-6116
以来	-6117
▁lim	-6118
▁kam	-6119
koop	-6120
vuld	-6121
alent	-6122
issing	-6123
▁lives	-6124
▁vertrouwen	-6125
zi	-6126
▁bom	-6127
▁vonden	-6128
▁leeftijd	-6129
▁following	-6130
▁kust	-6131
▁hasta	-6132
▁zwarte	-6133
▁veget	-6134
▁该	-6135
astisch	-6136
enkomst	-6137
▁Kn	-6138
六点	-6139
▁Nad	-6140
▁Roman	-6141
▁Anders	-6142
bar	-6143
uses	-6144
▁lem	-6145
boden	-6146
▁Mad	-6147
▁dak	-6148
▁teddy	-6149
▁listening	-6150
社会	-6151
ammer	-6152
二零二零年	-6153
landen	-6154
tens	-6155
▁est	-6156
实现	-6157
持续	-6158
▁dark	-6159
icking	-6160
▁gramm	-6161
anna	-6162
▁mit	-6163
▁purse	-6164
▁others	-6165
▁Charlie	-6166
va	-6167
licht	-6168
ooster	-6169
▁groen	-6170
▁bericht	-6171
gets	-6172
▁EU	-6173
▁major	-6174
▁Afrika	-6175
anning	-6176
▁bother	-6177
▁tevreden	-6178
ruim	-6179
▁Mick	-6180
八十	-6181
bro	-6182
bus	-6183
▁ba	-6184
▁Eigen	-6185
▁heavy	-6186
▁quickly	-6187
▁Gram	-6188
▁soup	-6189
▁Hoofd	-6190
▁无	-6191
选择	-6192
cky	-6193
▁Du	-6194
▁现在	-6195
riet	-6196
▁dogs	-6197
▁requ	-6198
▁hoek	-6199
vall	-6200
▁Schiet	-6201
▁wheels	-6202
▁publiek	-6203
▁verspre	-6204
▁herinner	-6205
▁neerslag	-6206
▁dubb	-6207
分析	-6208
▁dar	-6209
▁loc	-6210
▁spoor	-6211
▁leiden	-6212
▁Verdomme	-6213
21	-6214
▁Holl	-6215
▁knop	-6216
wege	-6217
▁Kat	-6218
▁broek	-6219
▁overle	-6220
▁signaal	-6221
iven	-6222
esident	-6223
八点	-6224
未来	-6225
▁Kim	-6226
▁worth	-6227
▁mirror	-6228
亿美元	-6229
还有	-6230
▁leeg	-6231
▁genomen	-6232
ute	-6233
▁incl	-6234
▁oink	-6235
▁pool	-6236
▁Rus	-6237
▁raken	-6238
▁closed	-6239
▁再	-6240
ills	-6241
▁inf	-6242
▁gelukt	-6243
▁sell	-6244
▁lever	-6245
▁hierbij	-6246
风险	-6247
▁目前	-6248
heids	-6249
iegel	-6250
▁gods	-6251
eltjes	-6252
▁micro	-6253
▁possible	-6254
ör	-6255
大学	-6256
▁Sis	-6257
▁mad	-6258
▁Hoor	-6259
cket	-6260
▁prem	-6261
▁ontmoeten	-6262
▁ontsn	-6263
▁rings	-6264
▁quarter	-6265
▁welcome	-6266
ka	-6267
▁non	-6268
▁share	-6269
▁Street	-6270
▁vrucht	-6271
▁verdomme	-6272
aris	-6273
▁gesloten	-6274
▁glas	-6275
▁samenvatting	-6276
schat	-6277
▁Besch	-6278
▁speciale	-6279
▁Hey	-6280
▁Hello	-6281
▁vlieg	-6282
▁partij	-6283
▁bestuderen	-6284
pa	-6285
事儿	-6286
关系	-6287
mon	-6288
ooh	-6289
▁比如	-6290
我们的	-6291
abet	-6292
ieven	-6293
▁dikke	-6294
▁missed	-6295
▁softly	-6296
▁vooruit	-6297
▁verantwoord	-6298
▁22	-6299
▁Vand	-6300
▁kept	-6301
▁afval	-6302
▁although	-6303
verb	-6304
▁age	-6305
matig	-6306
▁stage	-6307
▁conclus	-6308
▁Eh	-6309
▁speaking	-6310
计划	-6311
▁fles	-6312
▁proper	-6313
▁definit	-6314
ils	-6315
▁Reken	-6316
▁fence	-6317
▁changed	-6318
5.	-6319
平台	-6320
▁IN	-6321
lang	-6322
▁Hit	-6323
▁tur	-6324
▁date	-6325
Er	-6326
以及	-6327
▁owl	-6328
▁bedroom	-6329
▁reactie	-6330
▁sad	-6331
▁indeed	-6332
▁strand	-6333
▁subject	-6334
▁5.	-6335
▁figuur	-6336
▁strijd	-6337
item	-6338
▁Gar	-6339
▁hur	-6340
erend	-6341
ums	-6342
▁wee	-6343
▁beweging	-6344
达到	-6345
ijm	-6346
▁Water	-6347
rit	-6348
amel	-6349
inda	-6350
▁Roy	-6351
▁dump	-6352
▁verp	-6353
▁Engeland	-6354
rown	-6355
ught	-6356
rouwd	-6357
▁Belg	-6358
▁hemel	-6359
▁watches	-6360
▁[$=	-6361
▁nergens	-6362
▁soldaten	-6363
ula	-6364
▁agree	-6365
▁moved	-6366
▁aspect	-6367
我是	-6368
kers	-6369
▁toil	-6370
▁doggy	-6371
▁heart	-6372
OR	-6373
▁60	-6374
sters	-6375
▁Lang	-6376
▁gezet	-6377
ino	-6378
ories	-6379
▁nogal	-6380
▁Richard	-6381
▁hoeveelheid	-6382
▁spot	-6383
▁vogel	-6384
▁volgt	-6385
▁voorz	-6386
▁liep	-6387
▁shows	-6388
集团	-6389
lect	-6390
▁Mum	-6391
▁bedenk	-6392
LL	-6393
agers	-6394
▁resultaat	-6395
igers	-6396
▁size	-6397
▁sweetie	-6398
▁Ra	-6399
ising	-6400
▁national	-6401
▁vertelde	-6402
▁suc	-6403
▁Some	-6404
▁coat	-6405
▁toer	-6406
▁Den	-6407
▁Pop	-6408
whispers	-6409
▁uitdruk	-6410
汽车	-6411
表现	-6412
▁Mcd	-6413
▁Mic	-6414
▁autom	-6415
▁gebouwd	-6416
▁afspraak	-6417
uts	-6418
▁streep	-6419
rows	-6420
▁rib	-6421
▁blik	-6422
▁imag	-6423
▁ahhah	-6424
▁Franse	-6425
ür	-6426
asing	-6427
SL	-6428
新官	-6429
▁Abe	-6430
▁moed	-6431
▁Woorden	-6432
▁而且	-6433
▁Ann	-6434
▁trad	-6435
▁proef	-6436
vir	-6437
▁meant	-6438
▁absolutely	-6439
▁particularly	-6440
销售	-6441
▁anyone	-6442
▁butterfly	-6443
▁天	-6444
▁Bew	-6445
▁Leuk	-6446
▁Brian	-6447
▁rele	-6448
▁Jenny	-6449
▁bedoelt	-6450
Ind	-6451
ada	-6452
itu	-6453
▁English	-6454
九十	-6455
dan	-6456
igr	-6457
▁Zal	-6458
gramma	-6459
▁benef	-6460
14	-6461
▁bord	-6462
▁waiting	-6463
▁没有	-6464
▁bloem	-6465
▁asking	-6466
▁turtle	-6467
先生	-6468
umn	-6469
▁Does	-6470
▁spreekt	-6471
schapskist	-6472
政府	-6473
▁cris	-6474
▁offer	-6475
wek	-6476
▁worry	-6477
里面	-6478
▁etc	-6479
▁lock	-6480
▁dolls	-6481
▁Cla	-6482
▁turning	-6483
板块	-6484
▁dre	-6485
uesday	-6486
▁blauw	-6487
▁ur	-6488
ocument	-6489
▁gisteren	-6490
Dit	-6491
vou	-6492
sect	-6493
▁kopje	-6494
▁verkeerd	-6495
uim	-6496
rent	-6497
▁media	-6498
▁Vergeet	-6499
▁verh	-6500
▁storm	-6501
untranscribed	-6502
不要	-6503
▁Fred	-6504
▁uitv	-6505
▁schieten	-6506
▁uiteindelijk	-6507
tig	-6508
到这里	-6509
tern	-6510
▁pin	-6511
ukken	-6512
▁Trek	-6513
▁aanwe	-6514
▁妈妈	-6515
anks	-6516
ursday	-6517
一次	-6518
资产	-6519
▁Brand	-6520
▁deden	-6521
▁lookee	-6522
▁voorzien	-6523
▁bump	-6524
▁Harry	-6525
ini	-6526
▁king	-6527
▁sett	-6528
▁geest	-6529
▁verband	-6530
rik	-6531
Europ	-6532
▁lukt	-6533
▁Daardoor	-6534
▁Republiek	-6535
▁Deel	-6536
▁grass	-6537
▁lines	-6538
宝贝	-6539
boy	-6540
▁vir	-6541
aders	-6542
▁gevallen	-6543
一天	-6544
MBO	-6545
一直	-6546
动物	-6547
laag	-6548
▁Midd	-6549
▁lets	-6550
▁ziel	-6551
▁Kunnen	-6552
▁runs	-6553
ologische	-6554
▁inleiding	-6555
▁oop	-6556
▁lamp	-6557
▁draait	-6558
▁gewonnen	-6559
eta	-6560
▁objects	-6561
▁将	-6562
▁今年	-6563
数据显示	-6564
▁Three	-6565
▁figures	-6566
▁Gelukkig	-6567
▁都	-6568
ave	-6569
▁County	-6570
iële	-6571
agon	-6572
▁combin	-6573
▁falling	-6574
▁verkocht	-6575
uth	-6576
▁Land	-6577
▁code	-6578
▁tall	-6579
▁betekenen	-6580
uwe	-6581
asure	-6582
nesday	-6583
formatie	-6584
▁onderzoeken	-6585
VO	-6586
收入	-6587
din	-6588
▁Sup	-6589
▁juf	-6590
▁zingen	-6591
schappij	-6592
▁gezegde	-6593
▁planning	-6594
ares	-6595
kere	-6596
▁suiker	-6597
▁hiervoor	-6598
▁machines	-6599
▁tanden	-6600
▁waarvan	-6601
ours	-6602
▁save	-6603
▁filmpjes	-6604
▁ontwikkeling	-6605
来说	-6606
▁aff	-6607
▁VMBO	-6608
▁olie	-6609
▁begrip	-6610
hy	-6611
gers	-6612
▁tooth	-6613
▁万	-6614
dom	-6615
vig	-6616
▁kapot	-6617
▁vermoorden	-6618
▁colle	-6619
▁wapens	-6620
▁woestijn	-6621
rol	-6622
rijp	-6623
machine	-6624
▁museum	-6625
▁gehaald	-6626
▁langzaam	-6627
▁ziekenhuis	-6628
hip	-6629
voudig	-6630
pool	-6631
▁Ich	-6632
tries	-6633
▁Bear	-6634
▁cho	-6635
▁Tegen	-6636
▁longer	-6637
▁dropped	-6638
▁Thursday	-6639
才能	-6640
收听	-6641
med	-6642
▁honden	-6643
▁verjaard	-6644
HV	-6645
▁VS	-6646
eaan	-6647
▁bub	-6648
empts	-6649
▁Google	-6650
▁traffic	-6651
▁elektriciteit	-6652
ws	-6653
bad	-6654
▁eighteen	-6655
▁Andy	-6656
▁klik	-6657
▁sluiten	-6658
▁transport	-6659
you	-6660
cher	-6661
zame	-6662
hands	-6663
▁enorme	-6664
两千	-6665
当中	-6666
work	-6667
▁erover	-6668
gesloten	-6669
elly	-6670
ists	-6671
▁fac	-6672
▁aliens	-6673
能力	-6674
oepen	-6675
▁tower	-6676
▁Sovjet	-6677
▁houses	-6678
▁Ox	-6679
▁employ	-6680
▁recent	-6681
宝宝	-6682
▁Very	-6683
contin	-6684
haling	-6685
▁vogels	-6686
▁betaald	-6687
▁educ	-6688
moving	-6689
▁Chris	-6690
▁explain	-6691
arbe	-6692
soft	-6693
▁Sus	-6694
▁Klopt	-6695
▁involved	-6696
▁Wednesday	-6697
TAP	-6698
arp	-6699
aser	-6700
▁Nan	-6701
▁agent	-6702
▁kwart	-6703
▁rolls	-6704
▁engine	-6705
▁British	-6706
▁Fil	-6707
▁keizer	-6708
▁VO	-6709
ogel	-6710
▁zonn	-6711
burger	-6712
▁items	-6713
▁propos	-6714
ilige	-6715
▁vern	-6716
▁bekijk	-6717
▁flower	-6718
stellingen	-6719
▁deelwoord	-6720
里的	-6721
win	-6722
vingen	-6723
▁candy	-6724
▁posit	-6725
▁ruzie	-6726
▁online	-6727
▁themselves	-6728
lier	-6729
leving	-6730
▁voorstellen	-6731
▁Rusland	-6732
▁seconden	-6733
▁此	-6734
▁eats	-6735
▁kra	-6736
▁Chairman	-6737
maat	-6738
▁Morgen	-6739
发行	-6740
pag	-6741
rugs	-6742
▁wijk	-6743
▁reizen	-6744
结果	-6745
▁Get	-6746
ipper	-6747
cially	-6748
▁nicht	-6749
11	-6750
三个	-6751
二点	-6752
努力	-6753
sname	-6754
ogelijk	-6755
▁[2.	-6756
ijven	-6757
▁kranten	-6758
▁stukken	-6759
▁Mcdonalds	-6760
▁Bas	-6761
▁busy	-6762
▁belasting	-6763
ait	-6764
oeie	-6765
emming	-6766
minste	-6767
南方都市报播报	-6768
▁Sue	-6769
oemde	-6770
60	-6771
iol	-6772
▁Ab	-6773
▁Here	-6774
▁DE	-6775
▁Sur	-6776
▁refer	-6777
▁eindelijk	-6778
▁practicum	-6779
▁Kennisbankitem	-6780
nst	-6781
breken	-6782
▁vertrekken	-6783
▁Thom	-6784
▁meeg	-6785
genaam	-6786
▁actie	-6787
▁areas	-6788
▁beads	-6789
▁kloot	-6790
MU	-6791
方式	-6792
▁War	-6793
▁Heer	-6794
▁drank	-6795
▁verlaten	-6796
oughs	-6797
▁built	-6798
brengen	-6799
▁Hitler	-6800
▁四	-6801
虽然	-6802
HSL	-6803
为什么	-6804
▁Jos	-6805
HSLLD	-6806
▁roof	-6807
slagen	-6808
▁Bobby	-6809
▁ziens	-6810
Sch	-6811
tes	-6812
toy	-6813
▁Com	-6814
▁Jes	-6815
apping	-6816
indt	-6817
▁indruk	-6818
▁slight	-6819
▁slechts	-6820
▁materiaal	-6821
feest	-6822
ianen	-6823
reekt	-6824
▁getal	-6825
▁Verder	-6826
▁future	-6827
报告	-6828
cries	-6829
▁Santa	-6830
▁schiet	-6831
▁verjaardag	-6832
▁eigenschappen	-6833
rok	-6834
aughter	-6835
▁noorden	-6836
▁therefore	-6837
isen	-6838
▁erf	-6839
▁pitcher	-6840
bling	-6841
ijker	-6842
▁jour	-6843
▁caught	-6844
中心	-6845
iti	-6846
▁stairs	-6847
leep	-6848
▁bee	-6849
▁Childsname	-6850
▁总	-6851
身体	-6852
was	-6853
zee	-6854
▁toast	-6855
▁summer	-6856
obby	-6857
▁Eve	-6858
▁jar	-6859
intig	-6860
▁ought	-6861
▁pointing	-6862
投资者	-6863
▁Red	-6864
staat	-6865
▁Eric	-6866
▁trade	-6867
standigheden	-6868
ery	-6869
是一个	-6870
ipped	-6871
▁gebeurtenissen	-6872
技术	-6873
▁可以	-6874
▁ich	-6875
▁jas	-6876
▁alone	-6877
▁groene	-6878
▁keuken	-6879
▁fabriek	-6880
▁legt	-6881
▁verbet	-6882
▁vari	-6883
struct	-6884
▁Vanaf	-6885
▁Geweld	-6886
▁graden	-6887
▁allowed	-6888
▁examenvragen	-6889
任何	-6890
分别	-6891
"".	-6892
ube	-6893
ican	-6894
▁hadta	-6895
▁schad	-6896
▁simple	-6897
bt	-6898
iki	-6899
▁23	-6900
veral	-6901
▁Anne	-6902
▁vrije	-6903
▁whisper	-6904
bet	-6905
▁spring	-6906
▁restaurant	-6907
nl	-6908
ras	-6909
etch	-6910
▁Rea	-6911
▁tand	-6912
▁whose	-6913
▁budget	-6914
▁redenen	-6915
决定	-6916
治疗	-6917
▁lijden	-6918
▁clearly	-6919
▁Zeker	-6920
▁concerned	-6921
▁vreselijk	-6922
hoe	-6923
begins	-6924
▁zacht	-6925
ekeningen	-6926
▁vijand	-6927
ffe	-6928
pet	-6929
▁sets	-6930
▁Toe	-6931
aving	-6932
▁Cent	-6933
▁chairs	-6934
▁原	-6935
▁flink	-6936
▁lights	-6937
给你	-6938
reef	-6939
▁netjes	-6940
▁strateg	-6941
▁gemiddelde	-6942
▁II	-6943
gasp	-6944
▁games	-6945
▁Engelse	-6946
▁attention	-6947
dd	-6948
▁pea	-6949
▁son	-6950
▁Rock	-6951
▁rent	-6952
--------	-6953
▁于	-6954
不同	-6955
预计	-6956
▁199	-6957
ommel	-6958
▁cone	-6959
▁zwak	-6960
▁Noteer	-6961
▁blauwe	-6962
▁Tony	-6963
wit	-6964
▁vel	-6965
▁Breng	-6966
▁breng	-6967
▁dirty	-6968
▁toilet	-6969
▁广	-6970
imum	-6971
tend	-6972
▁500	-6973
▁Ser	-6974
▁hammer	-6975
▁verliezen	-6976
记者	-6977
▁dru	-6978
▁hok	-6979
▁zins	-6980
▁ontwikkelings	-6981
▁©	-6982
提供	-6983
grootte	-6984
▁fabrieken	-6985
▁double	-6986
▁Tuesday	-6987
▁relatie	-6988
New	-6989
▁wal	-6990
ooft	-6991
▁Jesus	-6992
▁真	-6993
duce	-6994
▁mas	-6995
oorte	-6996
▁ondersche	-6997
▁Snel	-6998
准备	-6999
aint	-7000
ively	-7001
slaan	-7002
▁dance	-7003
▁gewerkt	-7004
肺炎	-7005
lop	-7006
▁Bere	-7007
▁trap	-7008
▁herinn	-7009
▁sociale	-7010
ison	-7011
wijk	-7012
gemeen	-7013
▁verander	-7014
EV	-7015
▁Sec	-7016
middel	-7017
▁chips	-7018
国际	-7019
甚至	-7020
再见吧	-7021
▁Jess	-7022
▁maag	-7023
▁exercise	-7024
ouders	-7025
▁zicht	-7026
▁gedacht	-7027
对于	-7028
asten	-7029
▁steun	-7030
▁stier	-7031
▁trekt	-7032
办法	-7033
▁complet	-7034
了解更多	-7035
ookie	-7036
▁Verb	-7037
▁shap	-7038
安全	-7039
icy	-7040
ilar	-7041
▁ways	-7042
▁North	-7043
▁koopt	-7044
▁economische	-7045
地产	-7046
▁onbe	-7047
▁eentje	-7048
▁wearing	-7049
▁uitvoeren	-7050
iggles	-7051
regelen	-7052
▁excuse	-7053
▁pitched	-7054
▁二	-7055
she	-7056
▁idi	-7057
besch	-7058
sound	-7059
▁boun	-7060
▁coun	-7061
illing	-7062
▁horses	-7063
▁sprake	-7064
▁voeten	-7065
▁fietsen	-7066
▁stopped	-7067
▁shopping	-7068
每天	-7069
▁cal	-7070
nemers	-7071
▁onver	-7072
▁staff	-7073
▁gratis	-7074
▁alstublieft	-7075
今年	-7076
作为	-7077
▁price	-7078
▁getrouwd	-7079
利润	-7080
aai	-7081
▁Pe	-7082
▁beloof	-7083
▁kaartje	-7084
▁gedachten	-7085
lin	-7086
tin	-7087
▁Sy	-7088
▁vele	-7089
▁possib	-7090
▁slaven	-7091
▁gehouden	-7092
ushes	-7093
▁draaien	-7094
▁grandma	-7095
ero	-7096
uken	-7097
▁cart	-7098
▁hangen	-7099
▁Dra	-7100
etsen	-7101
▁effects	-7102
ieën	-7103
▁hadn	-7104
▁South	-7105
▁geheel	-7106
▁missen	-7107
▁earlier	-7108
▁gekocht	-7109
作用	-7110
▁或者	-7111
▁vertrek	-7112
▁basically	-7113
进入	-7114
Best	-7115
▁meal	-7116
rant	-7117
▁Baby	-7118
▁mann	-7119
Waarom	-7120
▁sterke	-7121
▁IJ	-7122
heek	-7123
iety	-7124
▁minstens	-7125
利率	-7126
▁Lab	-7127
▁hig	-7128
essor	-7129
immer	-7130
▁uitz	-7131
热点财经资讯	-7132
▁moeite	-7133
▁superm	-7134
▁Fijn	-7135
▁wake	-7136
▁draws	-7137
▁zebra	-7138
▁biologie	-7139
irect	-7140
▁process	-7141
▁revolutie	-7142
▁fort	-7143
▁extre	-7144
▁become	-7145
项目	-7146
▁Got	-7147
▁groei	-7148
▁church	-7149
▁secret	-7150
▁decided	-7151
▁politiek	-7152
▁belt	-7153
▁raar	-7154
▁field	-7155
KAT	-7156
eters	-7157
▁kick	-7158
chtend	-7159
▁Excuse	-7160
▁plekken	-7161
▁yo	-7162
rijzen	-7163
▁loves	-7164
▁match	-7165
▁toege	-7166
▁ladder	-7167
▁itself	-7168
LU	-7169
des	-7170
boom	-7171
time	-7172
▁respons	-7173
▁boodschap	-7174
使用	-7175
报道	-7176
进一步	-7177
kings	-7178
orpen	-7179
▁vide	-7180
▁Leerd	-7181
▁anywhere	-7182
▁daardoor	-7183
▁keek	-7184
dieren	-7185
▁vaste	-7186
▁bacteriën	-7187
▁dollhouse	-7188
▁lengthened	-7189
▁aantekeningen	-7190
onse	-7191
▁这一刻	-7192
▁rijt	-7193
▁symb	-7194
▁wild	-7195
▁depen	-7196
▁gewone	-7197
▁unless	-7198
indingen	-7199
▁definitely	-7200
其他	-7201
▁merk	-7202
▁circus	-7203
医生	-7204
资本	-7205
mend	-7206
▁zwart	-7207
▁bijvoeg	-7208
▁protect	-7209
▁schools	-7210
programma	-7211
iënt	-7212
▁plannen	-7213
▁tegelijk	-7214
注意	-7215
▁beach	-7216
▁pumpkin	-7217
建议	-7218
▁botten	-7219
aans	-7220
▁cijfers	-7221
要求	-7222
▁这样	-7223
▁gent	-7224
▁shower	-7225
▁kaartjes	-7226
cles	-7227
pull	-7228
▁Vader	-7229
▁insect	-7230
▁committee	-7231
▁Oxford	-7232
▁vrijheid	-7233
olie	-7234
▁Robert	-7235
wed	-7236
rale	-7237
▁west	-7238
▁zout	-7239
▁arbeids	-7240
▁verdient	-7241
▁controleren	-7242
rap	-7243
▁arme	-7244
▁beoor	-7245
▁sevent	-7246
▁verdeeld	-7247
▁huw	-7248
▁empty	-7249
▁banana	-7250
▁werkloos	-7251
主任	-7252
dad	-7253
▁auf	-7254
▁shoul	-7255
▁breath	-7256
▁burger	-7257
▁recept	-7258
▁stukjes	-7259
”.	-7260
▁Rijn	-7261
▁Steve	-7262
▁straf	-7263
ationaal	-7264
▁geschikt	-7265
生产	-7266
▁Goedem	-7267
▁verover	-7268
▁speciaal	-7269
▁represent	-7270
▁afsluiting	-7271
▁ta	-7272
▁Vis	-7273
▁carri	-7274
▁kinds	-7275
▁doordat	-7276
▁student	-7277
▁probeerde	-7278
▁samenleving	-7279
uze	-7280
ization	-7281
▁upside	-7282
▁meervoud	-7283
▁chess	-7284
▁details	-7285
▁several	-7286
▁systeem	-7287
▁arbeiders	-7288
▁Jean	-7289
▁bleef	-7290
▁uiter	-7291
▁Parijs	-7292
▁element	-7293
▁stroomt	-7294
cie	-7295
tons	-7296
▁smiles	-7297
内容	-7298
richt	-7299
▁Bert	-7300
▁geïn	-7301
▁Kamer	-7302
▁jeugd	-7303
▁princ	-7304
looking	-7305
导致	-7306
past	-7307
▁above	-7308
▁Zullen	-7309
▁motion	-7310
▁Indones	-7311
llen	-7312
▁aanv	-7313
idence	-7314
▁overleven	-7315
▁programme	-7316
▁pill	-7317
▁groeit	-7318
▁centraal	-7319
▁feedback	-7320
▁development	-7321
▁Egy	-7322
ional	-7323
▁rook	-7324
plicht	-7325
▁gered	-7326
▁twijf	-7327
▁bergen	-7328
▁aardapp	-7329
▁betaalt	-7330
aim	-7331
▁Lie	-7332
mogelijk	-7333
▁continu	-7334
▁voltooid	-7335
陕西	-7336
eelt	-7337
continues	-7338
okk	-7339
▁Gu	-7340
meer	-7341
▁mult	-7342
▁simp	-7343
▁koningin	-7344
为了	-7345
nacht	-7346
▁chance	-7347
▁success	-7348
▁根据	-7349
cake	-7350
ikker	-7351
viron	-7352
▁mummy	-7353
▁Oorlog	-7354
▁Samenvatten	-7355
heers	-7356
▁birds	-7357
▁Thomas	-7358
▁twaalf	-7359
80	-7360
▁dollars	-7361
▁response	-7362
ref	-7363
valu	-7364
wink	-7365
▁jun	-7366
▁meid	-7367
▁serious	-7368
▁verbrand	-7369
ibr	-7370
▁rijke	-7371
▁President	-7372
二百	-7373
lam	-7374
▁Tip	-7375
▁easier	-7376
▁oven	-7377
▁Binnen	-7378
atoes	-7379
▁sees	-7380
▁aardbe	-7381
▁sticks	-7382
▁sterren	-7383
▁&	-7384
▁gren	-7385
▁spin	-7386
▁model	-7387
▁penny	-7388
▁voelde	-7389
▁rekenen	-7390
历史	-7391
ftig	-7392
▁Sche	-7393
atteland	-7394
▁voorzichtig	-7395
wise	-7396
▁vaker	-7397
▁stenen	-7398
▁socks	-7399
▁stelt	-7400
▁kleiner	-7401
ID	-7402
hol	-7403
▁Jongens	-7404
▁persoonlijk	-7405
▁ess	-7406
gives	-7407
▁Jane	-7408
▁Wist	-7409
eating	-7410
▁Martin	-7411
gebieden	-7412
▁televisie	-7413
不到	-7414
好了	-7415
早知道	-7416
vormen	-7417
▁beroep	-7418
▁county	-7419
一号	-7420
chen	-7421
klimaat	-7422
▁flying	-7423
▁drinking	-7424
Bra	-7425
adem	-7426
raid	-7427
babble	-7428
▁partner	-7429
产业	-7430
schuld	-7431
▁与	-7432
了一个	-7433
▁wort	-7434
elicit	-7435
preten	-7436
▁indic	-7437
▁goederen	-7438
▁Lou	-7439
vriend	-7440
▁Scott	-7441
▁Would	-7442
gl	-7443
reen	-7444
▁smart	-7445
vironment	-7446
▁introduct	-7447
▁快	-7448
患者	-7449
gev	-7450
sych	-7451
▁Cas	-7452
ulier	-7453
▁German	-7454
▁single	-7455
▁opening	-7456
▁schepen	-7457
▁fre	-7458
零一	-7459
ceaan	-7460
▁...?	-7461
gekomen	-7462
▁vissen	-7463
▁volledig	-7464
▁mentioned	-7465
基本	-7466
▁brug	-7467
▁Gener	-7468
▁feeling	-7469
yle	-7470
elet	-7471
▁BRO	-7472
▁Sir	-7473
▁tip	-7474
▁Port	-7475
需求	-7476
osc	-7477
rels	-7478
▁Hop	-7479
beurt	-7480
naast	-7481
▁Berlijn	-7482
kle	-7483
imit	-7484
about	-7485
wacht	-7486
▁nina	-7487
▁older	-7488
▁normally	-7489
▁div	-7490
▁zware	-7491
▁Vandaag	-7492
▁对于	-7493
▁Pot	-7494
uring	-7495
wagen	-7496
▁kantoor	-7497
uits	-7498
▁chem	-7499
izenden	-7500
▁echter	-7501
▁截至	-7502
▁Inv	-7503
ressed	-7504
▁tenminste	-7505
▁experiment	-7506
▁interessant	-7507
其实	-7508
▁Bru	-7509
▁Chin	-7510
▁hide	-7511
roeger	-7512
▁cannot	-7513
▁leek	-7514
▁raam	-7515
▁momma	-7516
▁written	-7517
▁ok	-7518
▁dromen	-7519
▁invest	-7520
▁nearly	-7521
▁formule	-7522
教育	-7523
▁bracht	-7524
▁hoeven	-7525
▁paarden	-7526
随着	-7527
▁ec	-7528
chie	-7529
ribut	-7530
▁milit	-7531
▁Mickey	-7532
▁belong	-7533
▁27	-7534
▁iron	-7535
planten	-7536
tw	-7537
ooien	-7538
▁factoren	-7539
ugust	-7540
▁muis	-7541
▁shut	-7542
48	-7543
abul	-7544
▁meed	-7545
▁wen	-7546
▁remo	-7547
▁issue	-7548
▁column	-7549
▁sixteen	-7550
▁stemmen	-7551
▁accident	-7552
▁platteland	-7553
▁hus	-7554
▁nak	-7555
▁tante	-7556
▁various	-7557
▁却	-7558
贷款	-7559
▁impro	-7560
▁Aanbod	-7561
▁lieverd	-7562
materiaal	-7563
▁overeenkomst	-7564
万元	-7565
edi	-7566
百分之十	-7567
▁kaas	-7568
▁gaten	-7569
▁squee	-7570
▁Kennis	-7571
▁daarin	-7572
▁schaal	-7573
▁touches	-7574
▁用	-7575
isters	-7576
punten	-7577
▁slacht	-7578
▁spieren	-7579
▁stelling	-7580
aagd	-7581
▁Elk	-7582
▁Urs	-7583
一刻再见吧	-7584
▁gentle	-7585
▁dichter	-7586
DEM	-7587
▁3:	-7588
▁fuss	-7589
▁wife	-7590
ikbaar	-7591
▁benen	-7592
▁closes	-7593
▁sleutel	-7594
▁vervangen	-7595
▁我们下	-7596
elaar	-7597
▁Hand	-7598
▁bits	-7599
▁leaf	-7600
roleer	-7601
▁dolly	-7602
▁digitale	-7603
▁naamwoorden	-7604
八年	-7605
去了	-7606
狐狸	-7607
kan	-7608
laten	-7609
▁Jose	-7610
▁arrang	-7611
▁favoriet	-7612
保持	-7613
▁San	-7614
▁beep	-7615
▁scher	-7616
▁fourteen	-7617
不好	-7618
的这个	-7619
even	-7620
ables	-7621
▁actual	-7622
▁6.	-7623
talk	-7624
▁dek	-7625
▁sum	-7626
▁uitgaven	-7627
那些	-7628
entje	-7629
▁angst	-7630
▁risico	-7631
存在	-7632
▁CO	-7633
prijs	-7634
banken	-7635
▁afraid	-7636
▁多	-7637
ells	-7638
▁slaat	-7639
▁boerder	-7640
四百	-7641
bon	-7642
maak	-7643
▁blz	-7644
▁toneel	-7645
中的	-7646
眼睛	-7647
angle	-7648
▁news	-7649
▁cards	-7650
▁supper	-7651
▁Austral	-7652
▁Grieken	-7653
▁ochtend	-7654
▁kapitein	-7655
▁werkstuk	-7656
马拉	-7657
▁这些	-7658
▁Jac	-7659
sings	-7660
▁Komt	-7661
▁organen	-7662
SC	-7663
▁films	-7664
▁noemt	-7665
▁stoel	-7666
▁driver	-7667
wald	-7668
▁aanb	-7669
▁tray	-7670
▁Sinds	-7671
erschap	-7672
vaardig	-7673
原因	-7674
onken	-7675
▁print	-7676
overlap	-7677
了解更多财经资讯	-7678
▁Geweldig	-7679
HE	-7680
手机	-7681
kins	-7682
▁Pooh	-7683
fouten	-7684
▁tiger	-7685
▁Groeps	-7686
▁没	-7687
▁geldt	-7688
▁cijfer	-7689
▁farmer	-7690
bor	-7691
sdoel	-7692
▁dien	-7693
股票	-7694
AVO	-7695
olang	-7696
▁leider	-7697
▁verkoop	-7698
▁somethin	-7699
阅读	-7700
brief	-7701
▁schree	-7702
bur	-7703
▁armen	-7704
▁stijl	-7705
▁Aanbodsdoel	-7706
?]	-7707
UNK	-7708
streep	-7709
▁salad	-7710
▁prachtige	-7711
roon	-7712
keren	-7713
bronnen	-7714
▁mogelijkheden	-7715
▁两	-7716
▁自	-7717
睡觉	-7718
pak	-7719
▁于是	-7720
Daar	-7721
waarde	-7722
▁tight	-7723
geschreven	-7724
半年	-7725
涨停	-7726
ship	-7727
▁tast	-7728
▁Groot	-7729
▁useta	-7730
▁crisis	-7731
▁tractor	-7732
▁downstairs	-7733
▁五	-7734
what	-7735
▁died	-7736
▁jobs	-7737
geving	-7738
▁Could	-7739
▁België	-7740
▁coc	-7741
corder	-7742
▁plane	-7743
▁vrede	-7744
centrum	-7745
▁bucket	-7746
▁feiten	-7747
▁verded	-7748
▁zuiden	-7749
eptember	-7750
▁William	-7751
▁eenvoudig	-7752
rikk	-7753
▁Ster	-7754
▁bestude	-7755
erg	-7756
▁Mor	-7757
▁nag	-7758
▁tend	-7759
▁thir	-7760
▁compet	-7761
▁planeet	-7762
▁starting	-7763
Europa	-7764
▁awful	-7765
▁named	-7766
▁resultaten	-7767
coh	-7768
6.	-7769
fol	-7770
▁Yep	-7771
rijft	-7772
▁breed	-7773
▁concur	-7774
▁warmte	-7775
,.	-7776
实际	-7777
▁Unie	-7778
ecially	-7779
▁camping	-7780
▁hiervan	-7781
▁geweldige	-7782
恢复	-7783
▁Dun	-7784
▁schu	-7785
▁minuut	-7786
▁zwemmen	-7787
▁voortplant	-7788
heb	-7789
▁Bi	-7790
▁美国	-7791
thur	-7792
▁bur	-7793
▁productie	-7794
▁organismen	-7795
ipt	-7796
knop	-7797
▁Begin	-7798
▁Toets	-7799
▁keeps	-7800
▁honderd	-7801
▁到	-7802
▁lk	-7803
▁tar	-7804
▁buik	-7805
▁draagt	-7806
▁Monster	-7807
▁gevangenis	-7808
nic	-7809
onn	-7810
▁28	-7811
ikte	-7812
leet	-7813
▁veren	-7814
▁kruisje	-7815
▁verzamelen	-7816
45	-7817
如何	-7818
调整	-7819
tie	-7820
▁thee	-7821
▁vloe	-7822
▁yuck	-7823
ocabul	-7824
▁erger	-7825
▁zowel	-7826
rechten	-7827
▁做	-7828
支持	-7829
jar	-7830
▁Aut	-7831
▁gauw	-7832
ondere	-7833
▁verkeerde	-7834
hum	-7835
▁lose	-7836
▁kerel	-7837
▁betrokken	-7838
文章	-7839
▁80	-7840
leggen	-7841
plaatst	-7842
▁buttons	-7843
▁loon	-7844
▁dames	-7845
▁television	-7846
性的	-7847
ature	-7848
▁noord	-7849
▁geboorte	-7850
▁由	-7851
▁soap	-7852
▁balls	-7853
▁betre	-7854
▁favour	-7855
之前	-7856
elend	-7857
▁diam	-7858
▁Really	-7859
▁gemiddeld	-7860
期间	-7861
Die	-7862
set	-7863
kund	-7864
▁mei	-7865
neath	-7866
▁...(	-7867
▁opgel	-7868
▁presenteren	-7869
地说	-7870
感染	-7871
▁[1]	-7872
▁meow	-7873
▁soep	-7874
uchten	-7875
▁schimm	-7876
▁dressed	-7877
-3	-7878
回家	-7879
oph	-7880
gend	-7881
▁blijkt	-7882
感谢	-7883
rak	-7884
groe	-7885
wijze	-7886
▁fairly	-7887
▁onderste	-7888
jo	-7889
friend	-7890
gestelde	-7891
兔子	-7892
opp	-7893
rië	-7894
▁prep	-7895
gu	-7896
▁各	-7897
▁Dar	-7898
▁Kap	-7899
▁hiel	-7900
▁Nathan	-7901
会有	-7902
jam	-7903
rees	-7904
vels	-7905
▁veld	-7906
▁neigh	-7907
▁snack	-7908
▁experience	-7909
▁oppervlakte	-7910
hem	-7911
▁这一	-7912
rench	-7913
▁With	-7914
▁wens	-7915
▁wijn	-7916
▁Super	-7917
▁bedre	-7918
▁bladeren	-7919
▁Begrippen	-7920
获得	-7921
行为	-7922
wen	-7923
ined	-7924
▁opsch	-7925
verhaal	-7926
▁paying	-7927
▁married	-7928
iced	-7929
▁oren	-7930
▁trop	-7931
▁langu	-7932
▁parts	-7933
rekenen	-7934
lyn	-7935
ampen	-7936
▁Turk	-7937
▁verra	-7938
ca	-7939
"",	-7940
▁city	-7941
▁schade	-7942
▁Grammat	-7943
▁vergeet	-7944
15	-7945
▁Az	-7946
喜马拉	-7947
▁Zod	-7948
喜马拉雅	-7949
▁Ron	-7950
▁Wilt	-7951
▁psych	-7952
▁harder	-7953
▁热点财经资讯	-7954
▁maakten	-7955
活动	-7956
ora	-7957
▁hay	-7958
ogram	-7959
▁doors	-7960
▁picking	-7961
IC	-7962
微信	-7963
ipl	-7964
一个人	-7965
aats	-7966
cohol	-7967
▁kang	-7968
berries	-7969
▁Londen	-7970
▁evening	-7971
▁slightly	-7972
rein	-7973
roat	-7974
▁helps	-7975
▁talks	-7976
▁walked	-7977
▁Daarnaast	-7978
明显	-7979
touches	-7980
▁wetenschapp	-7981
isy	-7982
uke	-7983
steen	-7984
▁Norm	-7985
▁boots	-7986
▁missing	-7987
▁specific	-7988
Amer	-7989
eball	-7990
opter	-7991
▁Your	-7992
▁anal	-7993
▁schak	-7994
▁shakes	-7995
▁husband	-7996
▁underneath	-7997
xide	-7998
▁Sta	-7999
▁lok	-8000
▁pau	-8001
▁Anna	-8002
▁kasteel	-8003
▁bedoeling	-8004
▁cab	-8005
▁dum	-8006
▁snake	-8007
▁vocht	-8008
▁tickle	-8009
▁similar	-8010
gesproken	-8011
▁groepjes	-8012
▁veiligheid	-8013
都不	-8014
▁不过	-8015
▁Mal	-8016
▁Mex	-8017
▁oorzaak	-8018
18	-8019
▁FAT	-8020
issel	-8021
utsch	-8022
▁dishes	-8023
▁niveau	-8024
▁Groepsgrootte	-8025
zw	-8026
ita	-8027
loaden	-8028
regels	-8029
document	-8030
▁feestje	-8031
▁vergelijking	-8032
货币	-8033
▁pep	-8034
▁Vond	-8035
silver	-8036
houding	-8037
▁听	-8038
▁26	-8039
▁45	-8040
▁同时	-8041
...?	-8042
▁fork	-8043
▁rondje	-8044
▁Ros	-8045
▁Dave	-8046
▁lead	-8047
▁vreemde	-8048
bak	-8049
的东西	-8050
balk	-8051
ebru	-8052
▁upon	-8053
▁Labour	-8054
▁betere	-8055
▁Begrepen	-8056
部门	-8057
▁services	-8058
IE	-8059
ners	-8060
百分之二十	-8061
▁wezen	-8062
▁player	-8063
压力	-8064
过程	-8065
▁dey	-8066
▁lived	-8067
▁>	-8068
▁高	-8069
累计	-8070
inks	-8071
ograph	-8072
has	-8073
▁Co	-8074
▁opw	-8075
▁pic	-8076
▁sep	-8077
▁medel	-8078
▁computers	-8079
▁hamburger	-8080
▁uitgelegd	-8081
完成	-8082
chan	-8083
oose	-8084
▁Bea	-8085
▁richt	-8086
▁rijdt	-8087
▁Johnny	-8088
▁Matthe	-8089
▁Vooral	-8090
▁berekenen	-8091
感觉	-8092
walk	-8093
▁DNA	-8094
▁gat	-8095
▁Cookie	-8096
▁Chinese	-8097
来越	-8098
▁Frans	-8099
▁Karel	-8100
▁colour	-8101
▁tijden	-8102
zil	-8103
unde	-8104
uster	-8105
百分之零点	-8106
iteria	-8107
▁raakt	-8108
▁opstand	-8109
▁更	-8110
建设	-8111
pte	-8112
▁Ag	-8113
▁wijs	-8114
genoot	-8115
▁design	-8116
▁histor	-8117
▁scream	-8118
▁Mevrouw	-8119
▁onderwijs	-8120
病例	-8121
baan	-8122
erende	-8123
treden	-8124
▁Maggie	-8125
▁bekeken	-8126
▁sticker	-8127
▁welvaart	-8128
▁bespreken	-8129
▁sudden	-8130
▁begrepen	-8131
电影	-8132
Rat	-8133
nal	-8134
▁西安	-8135
▁sex	-8136
▁vuil	-8137
▁boxes	-8138
▁steps	-8139
▁sector	-8140
▁thinks	-8141
▁collage	-8142
▁opzoeken	-8143
▁passende	-8144
▁Goedemorgen	-8145
▁另	-8146
▁gef	-8147
geeft	-8148
quest	-8149
▁magn	-8150
▁ontdek	-8151
▁EXP	-8152
▁Vaak	-8153
▁notice	-8154
▁voornaamwoord	-8155
40	-8156
这样的	-8157
▁sau	-8158
▁Stra	-8159
▁Simon	-8160
25	-8161
▁35	-8162
▁而是	-8163
▁onaf	-8164
▁Praat	-8165
▁danger	-8166
lle	-8167
udy	-8168
▁bon	-8169
▁doos	-8170
Newman	-8171
Ratner	-8172
▁union	-8173
▁Joseph	-8174
▁higher	-8175
emeester	-8176
▁beschreven	-8177
NewmanRatner	-8178
▁Ok	-8179
▁gestolen	-8180
越来越	-8181
markt	-8182
▁regelen	-8183
▁南都	-8184
weet	-8185
▁bol	-8186
▁hal	-8187
vecht	-8188
▁gira	-8189
▁waff	-8190
▁Lever	-8191
▁domin	-8192
▁talked	-8193
主播	-8194
erdag	-8195
▁别	-8196
edia	-8197
▁hook	-8198
▁beans	-8199
▁Gewoon	-8200
▁后	-8201
去年	-8202
同时	-8203
aves	-8204
hoor	-8205
eelte	-8206
▁forth	-8207
▁scrat	-8208
五点	-8209
以上	-8210
▁carr	-8211
▁lenen	-8212
▁shapes	-8213
▁voetbal	-8214
▁vertrouw	-8215
▁statement	-8216
▁persoonlijke	-8217
fen	-8218
oli	-8219
▁cy	-8220
eefd	-8221
▁Gal	-8222
▁leen	-8223
agement	-8224
▁tijdje	-8225
▁klootzak	-8226
dier	-8227
▁App	-8228
▁Every	-8229
▁fantastisch	-8230
hang	-8231
vlies	-8232
▁Duitsers	-8233
▁经	-8234
地区	-8235
的时间	-8236
oris	-8237
▁Roz	-8238
▁reck	-8239
▁warme	-8240
komsten	-8241
▁jumped	-8242
▁quality	-8243
▁tegenover	-8244
突然	-8245
▁2,	-8246
▁grabs	-8247
▁salt	-8248
▁sens	-8249
▁enter	-8250
▁cooking	-8251
机会	-8252
▁eine	-8253
▁bedrag	-8254
▁degene	-8255
▁rechten	-8256
▁很	-8257
▁relig	-8258
▁lengte	-8259
▁ontdekt	-8260
▁spannend	-8261
/4	-8262
gn	-8263
▁太	-8264
aaf	-8265
▁lemme	-8266
▁Twenty	-8267
▁puzzel	-8268
▁心	-8269
帮助	-8270
措施	-8271
dur	-8272
map	-8273
ura	-8274
vaten	-8275
▁known	-8276
▁normal	-8277
▁gekleur	-8278
▁TV	-8279
romos	-8280
▁gelu	-8281
除了	-8282
oets	-8283
▁"."	-8284
▁cash	-8285
▁deep	-8286
▁maal	-8287
七点早知道	-8288
▁opger	-8289
▁Voordat	-8290
▁wiskunde	-8291
▁recording	-8292
for	-8293
▁来自	-8294
anges	-8295
▁trip	-8296
trecht	-8297
▁borst	-8298
▁potty	-8299
▁begrippenlijst	-8300
提升	-8301
水平	-8302
▁alarm	-8303
▁holes	-8304
▁|	-8305
▁sie	-8306
▁rand	-8307
▁prikk	-8308
gedachte	-8309
eemt	-8310
▁esp	-8311
ollen	-8312
ikelen	-8313
gelaten	-8314
▁terrible	-8315
▁bijzondere	-8316
oning	-8317
▁Power	-8318
▁demonstr	-8319
iner	-8320
zaakt	-8321
▁mate	-8322
▁Carol	-8323
▁zagen	-8324
▁eieren	-8325
▁vangen	-8326
▁vaardig	-8327
▁washing	-8328
▁Wor	-8329
▁stok	-8330
▁decide	-8331
/5	-8332
abl	-8333
▁lamb	-8334
ishing	-8335
▁rattle	-8336
▁automat	-8337
▁ann	-8338
pulls	-8339
▁Like	-8340
▁gene	-8341
▁hoed	-8342
▁slachtoff	-8343
ED	-8344
学习	-8345
ieel	-8346
meel	-8347
pose	-8348
portun	-8349
unwald	-8350
▁Juist	-8351
▁smaak	-8352
▁zulke	-8353
▁beelden	-8354
ns	-8355
打开	-8356
▁Bat	-8357
whines	-8358
▁separ	-8359
▁vracht	-8360
▁Precies	-8361
人士	-8362
can	-8363
lymp	-8364
Braunwald	-8365
-4	-8366
环境	-8367
hij	-8368
ope	-8369
oluut	-8370
▁Nick	-8371
▁Karen	-8372
▁Univers	-8373
▁afspraken	-8374
之间	-8375
▁Vroeger	-8376
▁gebroken	-8377
成功	-8378
给我	-8379
bef	-8380
onds	-8381
used	-8382
ommend	-8383
▁atlas	-8384
▁Thanks	-8385
▁ineens	-8386
▁marker	-8387
▁opened	-8388
gebracht	-8389
plaatsen	-8390
ifer	-8391
ires	-8392
roep	-8393
ictie	-8394
night	-8395
istisch	-8396
▁bridge	-8397
▁werking	-8398
创业	-8399
agn	-8400
▁36	-8401
alis	-8402
hangen	-8403
▁April	-8404
▁onzin	-8405
▁grenzen	-8406
orven	-8407
▁zover	-8408
▁relation	-8409
▁thirteen	-8410
▁samenwerking	-8411
WO	-8412
▁七	-8413
geen	-8414
▁platte	-8415
oty	-8416
sigh	-8417
strom	-8418
▁ship	-8419
▁Griek	-8420
▁ernst	-8421
▁winst	-8422
▁Tussen	-8423
▁liedje	-8424
▁functies	-8425
▁wonderful	-8426
▁environment	-8427
▁Cons	-8428
▁klok	-8429
▁pian	-8430
throws	-8431
▁batht	-8432
▁scary	-8433
▁leiding	-8434
▁increase	-8435
▁Leerdoelen	-8436
▁maatregelen	-8437
17	-8438
口罩	-8439
网络	-8440
ena	-8441
...)	-8442
Kijk	-8443
▁Mus	-8444
▁City	-8445
▁infl	-8446
▁spier	-8447
▁Ry	-8448
agne	-8449
▁poo	-8450
▁nods	-8451
ounced	-8452
▁total	-8453
▁Moeder	-8454
▁verboden	-8455
▁fa	-8456
gress	-8457
ology	-8458
▁Four	-8459
rolijk	-8460
▁shout	-8461
▁slice	-8462
sluiten	-8463
▁Matthew	-8464
▁这一刻就是这些	-8465
▁美	-8466
一种	-8467
▁Abs	-8468
▁centre	-8469
涨幅	-8470
▁born	-8471
coughs	-8472
▁knife	-8473
▁leraar	-8474
▁gestuurd	-8475
色的	-8476
长期	-8477
fte	-8478
▁koek	-8479
▁spoons	-8480
▁stuffed	-8481
▁afhankelijk	-8482
三千	-8483
改变	-8484
disc	-8485
este	-8486
▁1,5	-8487
▁Fin	-8488
▁chap	-8489
▁behoe	-8490
▁Utrecht	-8491
▁concentr	-8492
óó	-8493
关于	-8494
找到	-8495
统计	-8496
▁Pa	-8497
aptop	-8498
▁avail	-8499
opgaven	-8500
▁tegenwoordig	-8501
▁•	-8502
bled	-8503
▁zint	-8504
▁twice	-8505
▁vocabul	-8506
▁oplossen	-8507
▁directeur	-8508
/2	-8509
▁Mod	-8510
▁ijzer	-8511
▁scherm	-8512
▁register	-8513
▁voedingsstoffen	-8514
明白	-8515
omi	-8516
ser	-8517
Unie	-8518
beerd	-8519
moeder	-8520
▁overtuigen	-8521
▁regelmatig	-8522
reis	-8523
▁Prof	-8524
▁groups	-8525
▁district	-8526
▁language	-8527
▁Sk	-8528
▁rollen	-8529
▁voorsp	-8530
▁bekijkt	-8531
▁serieus	-8532
▁vanwege	-8533
emd	-8534
corn	-8535
▁Kop	-8536
▁bril	-8537
▁prakt	-8538
▁verbeteren	-8539
▁即	-8540
lor	-8541
ians	-8542
olon	-8543
▁lijnen	-8544
▁koolstof	-8545
case	-8546
▁Vijf	-8547
▁[$=1	-8548
▁touw	-8549
▁India	-8550
▁bewon	-8551
▁charge	-8552
▁aantrek	-8553
▁imagine	-8554
▁wetenschap	-8555
mber	-8556
opens	-8557
▁gift	-8558
▁pair	-8559
▁confl	-8560
Bestand	-8561
bericht	-8562
▁opportun	-8563
IJ	-8564
公布	-8565
名医	-8566
情绪	-8567
▁Six	-8568
▁Jimmy	-8569
▁apples	-8570
▁cowboy	-8571
▁plates	-8572
▁showing	-8573
▁winkels	-8574
▁spelling	-8575
▁education	-8576
9.	-8577
ady	-8578
zorg	-8579
▁...'	-8580
▁arch	-8581
▁includ	-8582
▁switch	-8583
▁Samenvattend	-8584
国内	-8585
ola	-8586
pict	-8587
ruck	-8588
▁Moo	-8589
arily	-8590
▁Koning	-8591
▁Potato	-8592
▁carrot	-8593
▁folder	-8594
▁middag	-8595
▁gegeten	-8596
▁nummers	-8597
▁ontwerp	-8598
▁Indonesië	-8599
▁shoot	-8600
▁ontvangen	-8601
业绩	-8602
Mijn	-8603
olly	-8604
orter	-8605
rische	-8606
▁bless	-8607
▁heerlijk	-8608
▁veroorzaakt	-8609
▁Ü	-8610
▁elf	-8611
oking	-8612
▁claim	-8613
▁Midden	-8614
▁seeing	-8615
▁trucks	-8616
▁briefly	-8617
▁Gere	-8618
▁muff	-8619
baarheid	-8620
▁geraakt	-8621
▁mooiste	-8622
▁taalfouten	-8623
stal	-8624
▁Verl	-8625
▁vill	-8626
▁Arthur	-8627
▁tongue	-8628
▁address	-8629
eliciteerd	-8630
▁Bos	-8631
▁cand	-8632
不得	-8633
ody	-8634
▁adm	-8635
▁pow	-8636
▁Park	-8637
▁blind	-8638
inkrijk	-8639
▁Eigenlijk	-8640
imme	-8641
rukt	-8642
▁Jer	-8643
▁mes	-8644
▁为什么	-8645
▁quid	-8646
▁goden	-8647
▁minus	-8648
▁centrum	-8649
▁nadenken	-8650
ba	-8651
urele	-8652
▁jurk	-8653
▁wolf	-8654
tussen	-8655
▁Prima	-8656
▁klass	-8657
▁skelet	-8658
▁concurr	-8659
▁opnemen	-8660
▁onderweg	-8661
▁recommend	-8662
ales	-8663
▁bin	-8664
halve	-8665
▁Road	-8666
▁evenw	-8667
▁fixed	-8668
▁七点早知道	-8669
adering	-8670
▁honest	-8671
▁Overleg	-8672
▁besloten	-8673
▁gebruikte	-8674
▁oce	-8675
▁emot	-8676
▁initi	-8677
▁aanbod	-8678
▁werkte	-8679
TD	-8680
直接	-8681
maals	-8682
etting	-8683
web	-8684
▁enz	-8685
▁Ging	-8686
▁Weer	-8687
▁bier	-8688
▁Andrew	-8689
▁Mister	-8690
otterdam	-8691
子里	-8692
新的	-8693
ROG	-8694
ify	-8695
mes	-8696
issa	-8697
eleid	-8698
▁King	-8699
▁fill	-8700
▁toel	-8701
vember	-8702
▁Hoezo	-8703
▁state	-8704
▁changes	-8705
▁verdriet	-8706
▁completely	-8707
人民币	-8708
ilde	-8709
▁dame	-8710
rument	-8711
▁nadat	-8712
▁zaten	-8713
▁appear	-8714
▁follow	-8715
pretends	-8716
▁bevrucht	-8717
▁direction	-8718
,,	-8719
学生	-8720
预期	-8721
高兴	-8722
woud	-8723
imeter	-8724
▁proced	-8725
▁stress	-8726
▁westen	-8727
VI	-8728
医疗	-8729
▁Maj	-8730
▁gram	-8731
▁koude	-8732
LIN	-8733
有一个	-8734
▁Past	-8735
winkel	-8736
▁goeie	-8737
▁sky	-8738
▁data	-8739
▁horm	-8740
▁meiden	-8741
partment	-8742
▁goedkop	-8743
▁conclusie	-8744
▁boodschappen	-8745
4.	-8746
控制	-8747
规定	-8748
▁Rad	-8749
actie	-8750
shows	-8751
▁kolom	-8752
▁rennen	-8753
▁schatje	-8754
▁twintig	-8755
ores	-8756
▁ast	-8757
▁rit	-8758
antal	-8759
▁voer	-8760
▁Little	-8761
▁schilderij	-8762
ira	-8763
mel	-8764
▁Rom	-8765
▁grij	-8766
▁partijen	-8767
▁favoriete	-8768
是在	-8769
enth	-8770
▁Put	-8771
ocial	-8772
▁pakt	-8773
ission	-8774
▁Start	-8775
▁debat	-8776
▁gemeente	-8777
声音	-8778
市值	-8779
第三	-8780
voed	-8781
▁dial	-8782
▁materi	-8783
▁return	-8784
bu	-8785
值得	-8786
bye	-8787
aven	-8788
nemer	-8789
▁darm	-8790
▁wees	-8791
▁needed	-8792
▁geregeld	-8793
一只	-8794
宣布	-8795
ays	-8796
▁Hart	-8797
▁none	-8798
▁ramp	-8799
▁seconds	-8800
▁Rotterdam	-8801
保护	-8802
pad	-8803
▁0,5	-8804
▁hate	-8805
systeem	-8806
hi	-8807
KEN	-8808
iture	-8809
▁bewijs	-8810
▁alcohol	-8811
▁calling	-8812
▁industrie	-8813
▁geprobeerd	-8814
izes	-8815
will	-8816
zocht	-8817
▁cats	-8818
▁robot	-8819
▁bureau	-8820
是什么	-8821
icle	-8822
friger	-8823
pagina	-8824
▁heten	-8825
▁prinses	-8826
iant	-8827
uiling	-8828
▁streng	-8829
▁bathtub	-8830
▁surprised	-8831
70	-8832
许多	-8833
ekker	-8834
▁Gaan	-8835
▁miles	-8836
▁sorts	-8837
▁invullen	-8838
▁Controleer	-8839
lu	-8840
▁亲	-8841
得到	-8842
▁enqu	-8843
▁Angel	-8844
ouncill	-8845
▁section	-8846
一万	-8847
基础	-8848
ère	-8849
▁生活	-8850
zuur	-8851
▁Emma	-8852
▁Marc	-8853
ballen	-8854
▁opgenomen	-8855
,""	-8856
RIC	-8857
▁Gem	-8858
▁Test	-8859
▁Eddie	-8860
▁adres	-8861
▁gooien	-8862
▁verdie	-8863
▁structure	-8864
Is	-8865
unts	-8866
▁gedood	-8867
▁vinger	-8868
▁stomach	-8869
▁gum	-8870
▁East	-8871
itions	-8872
▁Bereken	-8873
▁oorzaken	-8874
pap	-8875
▁opp	-8876
▁droge	-8877
▁hoofdlet	-8878
天天	-8879
iler	-8880
ensie	-8881
ified	-8882
oring	-8883
▁STAP	-8884
▁magaz	-8885
▁gehoor	-8886
▁Helemaal	-8887
▁全	-8888
六百	-8889
cin	-8890
▁?[	-8891
▁Goede	-8892
▁voren	-8893
ety	-8894
▁Vier	-8895
▁Polen	-8896
▁Andere	-8897
▁kathol	-8898
▁baseball	-8899
EG	-8900
的情况	-8901
▁Spe	-8902
▁Zee	-8903
▁bran	-8904
▁cast	-8905
德在您身边	-8906
athing	-8907
groepen	-8908
geslagen	-8909
nonspeech	-8910
▁available	-8911
不了	-8912
连续	-8913
'...	-8914
omde	-8915
tering	-8916
▁huilen	-8917
▁longen	-8918
▁vulkaan	-8919
▁huwelijk	-8920
▁reageren	-8921
vle	-8922
kker	-8923
▁Nat	-8924
▁doo	-8925
▁clip	-8926
ashion	-8927
▁beper	-8928
▁sites	-8929
igratie	-8930
▁finally	-8931
▁construct	-8932
zijd	-8933
▁Maria	-8934
▁worst	-8935
▁jacket	-8936
按照	-8937
itted	-8938
▁copy	-8939
▁krit	-8940
▁ware	-8941
▁Visit	-8942
▁platen	-8943
▁knocked	-8944
▁aanwezig	-8945
▁function	-8946
Dan	-8947
▁sea	-8948
▁stayed	-8949
▁opposite	-8950
▁‘	-8951
aap	-8952
▁GT	-8953
▁huur	-8954
▁picnic	-8955
▁pulling	-8956
▁verschrikk	-8957
症状	-8958
zinn	-8959
▁Voer	-8960
▁harde	-8961
▁reckon	-8962
▁daughter	-8963
月亮	-8964
▁Char	-8965
▁dode	-8966
▁lieve	-8967
▁member	-8968
▁verhuizen	-8969
▁Tre	-8970
▁Brook	-8971
▁leden	-8972
▁rente	-8973
▁verwerkt	-8974
留言	-8975
▁Ged	-8976
▁fra	-8977
anker	-8978
earch	-8979
istert	-8980
frigerator	-8981
▁Voorbeelden	-8982
▁weergegeven	-8983
森林	-8984
ulk	-8985
feer	-8986
gebre	-8987
▁burn	-8988
▁overw	-8989
▁command	-8990
▁decision	-8991
▁insecten	-8992
方法	-8993
最后	-8994
有的	-8995
▁baa	-8996
logen	-8997
▁bill	-8998
▁dert	-8999
▁Ernie	-9000
▁allen	-9001
▁evalu	-9002
▁Kinder	-9003
▁community	-9004
▁situaties	-9005
▁verdwenen	-9006
股价	-9007
▁zond	-9008
▁gebeld	-9009
▁simply	-9010
▁behalve	-9011
实施	-9012
快乐	-9013
系统	-9014
rafen	-9015
verse	-9016
▁boord	-9017
▁piggy	-9018
▁Fraser	-9019
▁action	-9020
▁continue	-9021
▁ü	-9022
无法	-9023
最高	-9024
unct	-9025
▁Serv	-9026
eerden	-9027
ulance	-9028
▁papers	-9029
▁manager	-9030
▁bevatten	-9031
▁十	-9032
上了	-9033
家里	-9034
都会	-9035
▁我要	-9036
▁Carl	-9037
▁Pete	-9038
▁beer	-9039
voering	-9040
▁hoogste	-9041
▁moeilijke	-9042
▁虽然	-9043
更多的	-9044
zone	-9045
▁Sal	-9046
▁bark	-9047
▁golf	-9048
▁zakken	-9049
▁schreef	-9050
▁dichtbij	-9051
▁Beschrijf	-9052
▁verhaaltje	-9053
lt	-9054
▁fat	-9055
▁yeh	-9056
field	-9057
▁Shem	-9058
▁fits	-9059
▁nurs	-9060
▁hurry	-9061
▁laptop	-9062
▁seemed	-9063
▁spread	-9064
检测	-9065
indy	-9066
▁woonden	-9067
三号	-9068
正常	-9069
▁rap	-9070
▁sink	-9071
▁profession	-9072
li	-9073
六月	-9074
防控	-9075
▁kg	-9076
izoen	-9077
▁gold	-9078
▁Robin	-9079
giggles	-9080
▁choice	-9081
▁grotere	-9082
▁samenwerken	-9083
);	-9084
▁_	-9085
belt	-9086
▁Bye	-9087
▁eic	-9088
▁mid	-9089
▁kont	-9090
▁advoc	-9091
▁likely	-9092
▁spreekbeurt	-9093
过来	-9094
alo	-9095
pten	-9096
▁McD	-9097
▁leid	-9098
arning	-9099
▁Sally	-9100
genheid	-9101
▁tunnel	-9102
▁herinneren	-9103
收益	-9104
kie	-9105
的地方	-9106
零一夜	-9107
wood	-9108
▁kip	-9109
▁knap	-9110
▁skin	-9111
picture	-9112
▁idioot	-9113
▁staart	-9114
▁bewoners	-9115
▁gebouwen	-9116
▁verdwijnen	-9117
cry	-9118
▁bem	-9119
ictor	-9120
pushes	-9121
▁vieren	-9122
▁werkloosheid	-9123
▁woordenlijst	-9124
也会	-9125
▁7.	-9126
▁1000	-9127
▁opgeb	-9128
▁prijzen	-9129
▁websites	-9130
▁burgemeester	-9131
都有	-9132
Voor	-9133
aroo	-9134
merk	-9135
oween	-9136
zamel	-9137
risten	-9138
uleren	-9139
▁arbeid	-9140
▁rijtje	-9141
▁uitdag	-9142
▁personal	-9143
▁boerderij	-9144
▁gezondheid	-9145
cra	-9146
Niet	-9147
iedt	-9148
rupt	-9149
light	-9150
▁fries	-9151
▁throat	-9152
▁especially	-9153
确诊	-9154
走了	-9155
chair	-9156
▁Volg	-9157
▁quiz	-9158
Mother	-9159
handel	-9160
idelijke	-9161
▁Raymond	-9162
▁hierheen	-9163
▁beschrijving	-9164
On	-9165
知识	-9166
结束	-9167
▁Olymp	-9168
▁feels	-9169
▁uncle	-9170
▁riding	-9171
▁optreden	-9172
▁vriendje	-9173
小时	-9174
kiss	-9175
▁Win	-9176
▁crash	-9177
▁wrote	-9178
▁afford	-9179
▁$	-9180
记得	-9181
邀请	-9182
óór	-9183
lich	-9184
cript	-9185
▁Hoog	-9186
▁Stil	-9187
▁whee	-9188
gedaan	-9189
▁duren	-9190
▁hobby	-9191
erecorder	-9192
▁gebeurtenis	-9193
▁La	-9194
haar	-9195
▁beest	-9196
holding	-9197
▁character	-9198
变得	-9199
股东	-9200
苹果	-9201
GMA	-9202
vast	-9203
rukte	-9204
▁...,	-9205
afdruk	-9206
▁tells	-9207
▁United	-9208
▁hiding	-9209
▁stomme	-9210
▁verkie	-9211
wa	-9212
幸福	-9213
老鼠	-9214
CLI	-9215
iev	-9216
▁不要	-9217
ipping	-9218
▁asleep	-9219
▁mochten	-9220
aurs	-9221
▁Lar	-9222
▁jan	-9223
▁spent	-9224
▁princip	-9225
▁verkeer	-9226
▁snelheid	-9227
▁inderdaad	-9228
开心	-9229
?""	-9230
房地产	-9231
keer	-9232
otten	-9233
soort	-9234
▁aanval	-9235
▁levend	-9236
▁moderne	-9237
▁regular	-9238
▁Excuseer	-9239
▁tijdschrift	-9240
愿意	-9241
父母	-9242
rick	-9243
▁Gef	-9244
▁Bloed	-9245
▁gemist	-9246
▁fragment	-9247
▁meenemen	-9248
下的	-9249
人生	-9250
zal	-9251
bord	-9252
▁195	-9253
▁heu	-9254
veilig	-9255
▁spaar	-9256
▁affect	-9257
▁海	-9258
sdag	-9259
▁Nor	-9260
ching	-9261
ropri	-9262
▁repe	-9263
▁Donald	-9264
▁cirkel	-9265
ingo	-9266
▁Mer	-9267
▁exist	-9268
▁snoep	-9269
▁management	-9270
mis	-9271
club	-9272
▁mop	-9273
versch	-9274
soorten	-9275
▁Nathaniel	-9276
GR	-9277
▁—	-9278
▁las	-9279
under	-9280
uckles	-9281
▁stonden	-9282
verdeling	-9283
▁maximaal	-9284
▁verwerken	-9285
同比	-9286
Van	-9287
▁fro	-9288
▁rat	-9289
▁Susan	-9290
▁openen	-9291
▁verplicht	-9292
▁相	-9293
八号	-9294
Home	-9295
nect	-9296
rijg	-9297
▁previous	-9298
一年	-9299
八月	-9300
▁stir	-9301
▁calls	-9302
▁miljard	-9303
▁natuurlijke	-9304
真正	-9305
谢谢	-9306
▁shot	-9307
ochten	-9308
▁koken	-9309
▁Geloof	-9310
▁client	-9311
▁settlement	-9312
▁strawberry	-9313
bow	-9314
不知道	-9315
▁chew	-9316
boeken	-9317
▁stove	-9318
▁gasten	-9319
▁Present	-9320
▁deliver	-9321
▁bewijzen	-9322
个月	-9323
来到	-9324
assa	-9325
▁Nap	-9326
tract	-9327
▁Nooit	-9328
▁Party	-9329
▁overd	-9330
▁behoor	-9331
▁luistert	-9332
▁mogelijke	-9333
▁198	-9334
▁emb	-9335
▁pony	-9336
▁Leven	-9337
▁treat	-9338
▁Spreek	-9339
▁advies	-9340
总是	-9341
ala	-9342
mal	-9343
pend	-9344
▁Hol	-9345
▁chim	-9346
▁zuid	-9347
受到	-9348
因素	-9349
▁pir	-9350
▁dish	-9351
▁bewust	-9352
▁gelooft	-9353
▁veranderingen	-9354
▁公	-9355
▁深	-9356
▁akk	-9357
achen	-9358
iform	-9359
▁Linda	-9360
▁massa	-9361
▁Gereed	-9362
▁ontbij	-9363
▁klanten	-9364
学校	-9365
家庭	-9366
dro	-9367
▁Lot	-9368
▁Bent	-9369
▁studie	-9370
▁jumping	-9371
▁同比增长百分之	-9372
▁gedeelte	-9373
▁possibly	-9374
cr	-9375
ami	-9376
eik	-9377
pol	-9378
ups	-9379
cray	-9380
▁bum	-9381
mogen	-9382
usten	-9383
▁cows	-9384
▁Kerst	-9385
iteiten	-9386
▁letten	-9387
▁Informatie	-9388
▁onderzoeks	-9389
句话	-9390
▁如果你	-9391
krant	-9392
▁rubber	-9393
▁spider	-9394
▁pension	-9395
▁godsdienst	-9396
价值	-9397
DIS	-9398
▁tim	-9399
▁saus	-9400
▁toes	-9401
▁halve	-9402
▁moord	-9403
pensive	-9404
▁rooster	-9405
变成	-9406
eke	-9407
iten	-9408
▁Ach	-9409
▁2013	-9410
▁enth	-9411
▁phot	-9412
bestand	-9413
▁gewicht	-9414
▁potatoes	-9415
▁miljoenen	-9416
▁tegenwoordige	-9417
col	-9418
▁Ir	-9419
▁市场	-9420
▁196	-9421
▁fle	-9422
endom	-9423
▁vote	-9424
▁weird	-9425
▁liefst	-9426
matische	-9427
▁dancing	-9428
▁popcorn	-9429
▁policeman	-9430
▁uitspraak	-9431
7.	-9432
八百	-9433
apped	-9434
▁rare	-9435
▁meten	-9436
▁attack	-9437
▁hiermee	-9438
▁supermarkt	-9439
▁才	-9440
▁due	-9441
▁menu	-9442
▁breken	-9443
▁totdat	-9444
▁excited	-9445
tegenwoord	-9446
▁Inleiding	-9447
▁provincie	-9448
▁verandering	-9449
onna	-9450
iefde	-9451
arming	-9452
▁vroom	-9453
ïnvloed	-9454
▁consument	-9455
):	-9456
▁明	-9457
▁正	-9458
调查	-9459
mic	-9460
kamp	-9461
omer	-9462
▁jud	-9463
asons	-9464
▁Vers	-9465
▁applic	-9466
▁nachts	-9467
▁American	-9468
生命	-9469
▁gym	-9470
uzzel	-9471
▁Meester	-9472
▁dinosaurs	-9473
接受	-9474
有人	-9475
Lees	-9476
eegt	-9477
icul	-9478
▁Stan	-9479
▁mole	-9480
▁weight	-9481
▁grammat	-9482
▁complete	-9483
Zo	-9484
左右	-9485
comm	-9486
▁nur	-9487
▁von	-9488
aakte	-9489
diary	-9490
▁Cour	-9491
▁Deed	-9492
▁Brown	-9493
▁taart	-9494
▁missie	-9495
▁Begrijp	-9496
▁Christus	-9497
▁Kinderen	-9498
▁geheugen	-9499
▁Onderzoek	-9500
▁Grammatica	-9501
▁华	-9502
分钟	-9503
必须	-9504
▁Kw	-9505
laat	-9506
▁Dor	-9507
▁Stu	-9508
▁[13	-9509
▁rom	-9510
▁wide	-9511
cheiden	-9512
▁cadeau	-9513
▁Grandma	-9514
▁telkens	-9515
▁maatschappij	-9516
不断	-9517
带着	-9518
dagen	-9519
known	-9520
▁cust	-9521
▁rough	-9522
▁bereikt	-9523
▁leefden	-9524
▁huiswerk	-9525
▁otherwise	-9526
fe	-9527
▁会	-9528
只是	-9529
cho	-9530
▁小朋友们	-9531
school	-9532
▁Kevin	-9533
▁doubt	-9534
▁dozen	-9535
▁voert	-9536
▁Britain	-9537
▁smaller	-9538
▁grondwet	-9539
▁werkelijkheid	-9540
终于	-9541
irit	-9542
▁INV	-9543
▁kok	-9544
▁rad	-9545
akers	-9546
▁wagen	-9547
▁Italië	-9548
▁Victor	-9549
▁illust	-9550
▁magnets	-9551
▁toeristen	-9552
▁hoofdgedachte	-9553
▁因	-9554
学会	-9555
简单	-9556
▁Kor	-9557
▁odd	-9558
kring	-9559
▁allow	-9560
▁Anyway	-9561
verzeker	-9562
▁onthouden	-9563
▁beschikbaar	-9564
▁Ur	-9565
▁study	-9566
▁tools	-9567
▁altern	-9568
▁modern	-9569
▁noticed	-9570
▁triangle	-9571
⌉?	-9572
公众	-9573
]⌋.	-9574
fig	-9575
▁70	-9576
vlie	-9577
etter	-9578
▁Green	-9579
▁mijne	-9580
▁trunk	-9581
▁teleur	-9582
▁dubbele	-9583
▁zaterdag	-9584
ih	-9585
变化	-9586
asie	-9587
foto	-9588
▁exp	-9589
thern	-9590
scream	-9591
▁Marie	-9592
▁leidt	-9593
▁schild	-9594
▁lijstje	-9595
▁wo	-9596
ware	-9597
nieuw	-9598
ellijk	-9599
▁Staat	-9600
▁ducks	-9601
▁authority	-9602
▁individual	-9603
ims	-9604
▁li	-9605
zels	-9606
▁Ons	-9607
▁These	-9608
▁newsp	-9609
▁beïnvloed	-9610
auff	-9611
▁fru	-9612
▁raak	-9613
icious	-9614
matige	-9615
▁Recht	-9616
persoon	-9617
▁brings	-9618
▁bekende	-9619
▁duizend	-9620
▁methode	-9621
▁plaatsv	-9622
▁Kapitein	-9623
减少	-9624
的事情	-9625
▁Bon	-9626
▁Dood	-9627
▁repl	-9628
▁costs	-9629
▁haast	-9630
▁choose	-9631
▁kangaroo	-9632
▁bestudeer	-9633
▁hoofdstad	-9634
具体	-9635
概念	-9636
vey	-9637
▁Niks	-9638
▁dict	-9639
▁pond	-9640
▁pops	-9641
▁eisen	-9642
▁lacht	-9643
▁vullen	-9644
demonstr	-9645
▁totally	-9646
▁landschap	-9647
cou	-9648
dri	-9649
▁mol	-9650
▁Meest	-9651
▁earth	-9652
▁pillow	-9653
▁handels	-9654
▁duidelijke	-9655
解决	-9656
▁irr	-9657
▁chip	-9658
▁lijk	-9659
▁Niger	-9660
Schrijf	-9661
▁dachten	-9662
▁klimaten	-9663
▁surprise	-9664
▁expensive	-9665
▁everywhere	-9666
交通	-9667
▁fris	-9668
▁safe	-9669
Amerika	-9670
▁arrangement	-9671
▁omstandigheden	-9672
▁加	-9673
功能	-9674
目标	-9675
▁por	-9676
▁Excel	-9677
▁pulled	-9678
▁families	-9679
▁hierboven	-9680
▁strawberries	-9681
vy	-9682
数量	-9683
重点	-9684
ega	-9685
在一起	-9686
kwam	-9687
ocks	-9688
▁Has	-9689
▁Val	-9690
▁Zit	-9691
▁range	-9692
removes	-9693
▁strange	-9694
▁comments	-9695
▁getekend	-9696
za	-9697
经营	-9698
金额	-9699
volg	-9700
▁hut	-9701
新官肺炎	-9702
▁二零一九年	-9703
auffeur	-9704
▁bevolkings	-9705
▁]	-9706
▁祝	-9707
▁甚至	-9708
▁verzet	-9709
老师	-9710
urance	-9711
genoten	-9712
▁Oosten	-9713
▁bespreek	-9714
▁artikelen	-9715
叫做	-9716
阿姨	-9717
opl	-9718
▁怎么	-9719
▁Log	-9720
▁Via	-9721
ffort	-9722
▁wolken	-9723
▁voorwerpen	-9724
],	-9725
爷爷	-9726
how	-9727
bliot	-9728
Opgave	-9729
▁Jacob	-9730
▁drugs	-9731
▁vecht	-9732
▁alweer	-9733
▁dagelijks	-9734
▁ontdekken	-9735
▁aangegeven	-9736
有限	-9737
omt	-9738
▁pi	-9739
iley	-9740
▁Tex	-9741
tocht	-9742
▁ours	-9743
▁rang	-9744
zaamheid	-9745
标准	-9746
▁tank	-9747
▁final	-9748
▁wetten	-9749
▁wisten	-9750
▁zwaard	-9751
▁carrots	-9752
▁;	-9753
▁[.7	-9754
▁woke	-9755
▁Schat	-9756
▁opeens	-9757
▁America	-9758
▁housing	-9759
▁ordered	-9760
▁eindtoets	-9761
SA	-9762
坚持	-9763
juist	-9764
raven	-9765
starts	-9766
▁mater	-9767
▁occas	-9768
▁vocal	-9769
▁onmogelijk	-9770
19	-9771
回来	-9772
ban	-9773
iana	-9774
broek	-9775
▁knees	-9776
▁Deutsch	-9777
▁ambulance	-9778
会儿	-9779
说的	-9780
sey	-9781
ival	-9782
leed	-9783
▁Voed	-9784
speechplay	-9785
word	-9786
▁disapp	-9787
▁cupcake	-9788
▁Kennisbanken	-9789
▁长	-9790
七百	-9791
样的	-9792
meld	-9793
lecht	-9794
▁HAVO	-9795
▁Vrij	-9796
▁cheap	-9797
▁stierf	-9798
▁welkom	-9799
▁geslachts	-9800
▁tweetallen	-9801
▁makkelijker	-9802
)?	-9803
东省	-9804
▁Morgan	-9805
▁leveren	-9806
▁onderbouw	-9807
sem	-9808
▁pod	-9809
▁Head	-9810
▁teveel	-9811
▁organisme	-9812
▁能	-9813
哥哥	-9814
ench	-9815
umpt	-9816
▁tak	-9817
▁grab	-9818
beelding	-9819
▁zwembad	-9820
想要	-9821
猴子	-9822
ANN	-9823
week	-9824
▁Del	-9825
▁row	-9826
achel	-9827
bevol	-9828
ctors	-9829
gever	-9830
二零一八年	-9831
zovoor	-9832
▁Brazil	-9833
▁ontstond	-9834
▁springen	-9835
▁aanpassen	-9836
▁vocabulary	-9837
多的	-9838
▁29	-9839
▁soc	-9840
lezen	-9841
▁gate	-9842
▁worse	-9843
▁Ursula	-9844
▁giraffe	-9845
▁verbeter	-9846
▁来自南方都市报播报	-9847
▁Alstublieft	-9848
一日	-9849
uari	-9850
ukte	-9851
▁Tel	-9852
▁Jeff	-9853
▁foss	-9854
deling	-9855
▁stopt	-9856
▁provide	-9857
▁Hierdoor	-9858
▁teachers	-9859
▁duizenden	-9860
-5	-9861
卫生	-9862
属于	-9863
gon	-9864
▁note	-9865
▁panc	-9866
▁cloth	-9867
▁financ	-9868
▁koeien	-9869
ropriate	-9870
▁gevecht	-9871
whispering	-9872
▁bloedcellen	-9873
专业	-9874
提高	-9875
有关	-9876
爱的	-9877
▁po	-9878
▁durf	-9879
▁eraf	-9880
▁Black	-9881
▁volume	-9882
▁brieven	-9883
estigator	-9884
▁apparaat	-9885
▁Nederlanden	-9886
旅游	-9887
▁Mu	-9888
讲故事	-9889
icycle	-9890
▁gimme	-9891
▁piano	-9892
hington	-9893
▁Doctor	-9894
▁comfort	-9895
▁pushing	-9896
▁generaal	-9897
▁waarvoor	-9898
▁taperecorder	-9899
慢慢	-9900
EVA	-9901
ieer	-9902
▁beat	-9903
▁uren	-9904
▁spiegel	-9905
▁democratie	-9906
一十	-9907
监管	-9908
联储	-9909
菲菲	-9910
遇到	-9911
itut	-9912
omin	-9913
otype	-9914
▁Coll	-9915
▁donder	-9916
gehouden	-9917
▁geheime	-9918
▁leaving	-9919
九号	-9920
六号	-9921
领域	-9922
▁他的	-9923
outs	-9924
▁cro	-9925
istof	-9926
staand	-9927
▁squeak	-9928
▁nadelen	-9929
▁krachten	-9930
▁(2	-9931
▁Ob	-9932
oond	-9933
▁zaden	-9934
▁common	-9935
▁vanzelf	-9936
▁pensioen	-9937
▁practice	-9938
也有	-9939
阶段	-9940
rens	-9941
▁cha	-9942
▁nek	-9943
▁uses	-9944
ringen	-9945
▁track	-9946
▁afsche	-9947
controle	-9948
成交	-9949
▁Ve	-9950
iere	-9951
▁Eth	-9952
▁vit	-9953
hoofd	-9954
emaakt	-9955
▁aware	-9956
▁finan	-9957
▁stijgt	-9958
▁schelen	-9959
▁constant	-9960
稳定	-9961
黄金	-9962
ona	-9963
公司的	-9964
▁300	-9965
▁Scot	-9966
▁rate	-9967
▁below	-9968
▁buying	-9969
bury	-9970
erve	-9971
epaal	-9972
these	-9973
uther	-9974
utter	-9975
▁Stud	-9976
aliteit	-9977
▁National	-9978
▁uitgevoerd	-9979
融资	-9980
ago	-9981
▁以上	-9982
▁noch	-9983
kennen	-9984
▁verle	-9985
ooflijk	-9986
▁drawer	-9987
▁pushed	-9988
atherine	-9989
Gel	-9990
ede	-9991
urf	-9992
athy	-9993
gier	-9994
olom	-9995
▁Mind	-9996
▁imit	-9997
abriek	-9998
▁Bijna	-9999
▁tummy	-10000
▁vleug	-10001
▁levert	-10002
▁appoint	-10003
▁benefit	-10004
▁backwards	-10005
▁verklaren	-10006
玩儿	-10007
▁(=	-10008
▁我的	-10009
arch	-10010
wers	-10011
▁bod	-10012
▁glob	-10013
enties	-10014
▁Easter	-10015
▁export	-10016
34	-10017
七号	-10018
等等	-10019
aagt	-10020
▁2000	-10021
▁nick	-10022
▁lucky	-10023
▁nature	-10024
discards	-10025
▁armoede	-10026
▁windows	-10027
▁Daarvoor	-10028
意思	-10029
▁Üb	-10030
sighs	-10031
▁Koude	-10032
▁bubbles	-10033
▁eindigt	-10034
▁doorgaan	-10035
央行	-10036
整个	-10037
del	-10038
ida	-10039
oper	-10040
▁Dou	-10041
▁Ren	-10042
▁Form	-10043
▁Wind	-10044
limaat	-10045
▁Naast	-10046
▁sheet	-10047
▁wooden	-10048
▁brandstof	-10049
▁evenwicht	-10050
Ver	-10051
▁Ham	-10052
▁tire	-10053
▁grown	-10054
▁wegge	-10055
▁assist	-10056
▁Holland	-10057
▁gevoelen	-10058
▁toestemming	-10059
75	-10060
▁前	-10061
看见	-10062
rimin	-10063
▁Piet	-10064
middag	-10065
oefening	-10066
▁Amerikanen	-10067
更加	-10068
VIR	-10069
▁只要	-10070
gent	-10071
▁Mir	-10072
▁2012	-10073
▁kilo	-10074
blijven	-10075
▁gouden	-10076
''	-10077
房子	-10078
节目	-10079
英国	-10080
dog	-10081
som	-10082
净利润	-10083
▁Art	-10084
cious	-10085
driver	-10086
▁besta	-10087
▁bezit	-10088
▁klank	-10089
▁pauze	-10090
▁slaapt	-10091
▁Meestal	-10092
▁motorcy	-10093
US	-10094
wol	-10095
▁不是	-10096
▁第二	-10097
fully	-10098
▁load	-10099
▁Famil	-10100
▁boter	-10101
▁sides	-10102
▁plenty	-10103
▁voldoen	-10104
▁Bovendien	-10105
▁想了解更多财经资讯	-10106
公告	-10107
组织	-10108
▁8.	-10109
izing	-10110
atters	-10111
▁speed	-10112
▁drinks	-10113
▁sleepy	-10114
▁komende	-10115
▁bezoeken	-10116
▁overstrom	-10117
▁plattegrond	-10118
▁她	-10119
只有	-10120
说话	-10121
COU	-10122
▁4:	-10123
samen	-10124
▁opgew	-10125
▁lossen	-10126
▁European	-10127
▁sentence	-10128
▁gevoelens	-10129
肯定	-10130
gek	-10131
voert	-10132
▁Crom	-10133
▁file	-10134
▁Colin	-10135
▁Steven	-10136
▁stelen	-10137
▁briefje	-10138
占比	-10139
用户	-10140
ugs	-10141
baby	-10142
kool	-10143
▁Hem	-10144
▁libr	-10145
▁Momma	-10146
▁Speel	-10147
▁roken	-10148
▁shift	-10149
angrijk	-10150
waarden	-10151
▁birdie	-10152
▁scholen	-10153
▁behandeld	-10154
▁zenuwstelsel	-10155
身上	-10156
▁Der	-10157
▁jam	-10158
▁plak	-10159
aptain	-10160
▁sharp	-10161
▁vierde	-10162
onounced	-10163
▁afkomst	-10164
▁microsc	-10165
严重	-10166
mos	-10167
clip	-10168
▁onv	-10169
▁sail	-10170
denten	-10171
uurlijk	-10172
▁katten	-10173
volution	-10174
EX	-10175
智能	-10176
▁今晚	-10177
boot	-10178
菲菲姐姐	-10179
intje	-10180
moord	-10181
▁sock	-10182
▁Mandy	-10183
▁strom	-10184
achelijk	-10185
▁figuren	-10186
▁patient	-10187
状态	-10188
▁3,	-10189
的一些	-10190
stap	-10191
▁cit	-10192
▁Kent	-10193
▁geel	-10194
AL	-10195
▁Di	-10196
▁hoo	-10197
▁buzz	-10198
andering	-10199
▁eenmaal	-10200
▁waarschuw	-10201
近日	-10202
rey	-10203
▁原来	-10204
lace	-10205
elder	-10206
irsty	-10207
▁furn	-10208
▁schr	-10209
▁Billy	-10210
▁bears	-10211
▁expert	-10212
▁roepen	-10213
▁januari	-10214
▁trouwens	-10215
开放	-10216
▁还是	-10217
egen	-10218
text	-10219
▁Rem	-10220
ially	-10221
ogels	-10222
▁Soph	-10223
▁Tell	-10224
▁verf	-10225
▁kende	-10226
▁ruimt	-10227
▁Iedere	-10228
▁helder	-10229
▁bepaalt	-10230
▁college	-10231
▁toepassen	-10232
成本	-10233
读书	-10234
zers	-10235
▁fas	-10236
anies	-10237
▁caus	-10238
▁Alsof	-10239
▁Lezen	-10240
▁wagon	-10241
ibility	-10242
organis	-10243
▁french	-10244
▁issues	-10245
▁mechan	-10246
▁changing	-10247
▁被	-10248
uel	-10249
▁32	-10250
Maak	-10251
houdt	-10252
ellent	-10253
▁Dames	-10254
▁Genoeg	-10255
▁Versch	-10256
▁broeik	-10257
▁kitten	-10258
▁woning	-10259
▁consult	-10260
▁vingers	-10261
▁voorzets	-10262
▁Washington	-10263
ïs	-10264
商品	-10265
▁misl	-10266
oelang	-10267
leveren	-10268
▁opbouw	-10269
▁beroemd	-10270
▁gekeken	-10271
▁Allemaal	-10272
▁nietwaar	-10273
个股	-10274
▁ade	-10275
waardig	-10276
▁winters	-10277
▁populair	-10278
▁Gefeliciteerd	-10279
比例	-10280
hop	-10281
uct	-10282
meal	-10283
draws	-10284
oging	-10285
▁shel	-10286
▁万德在您身边	-10287
产生	-10288
如此	-10289
Wie	-10290
▁ca	-10291
▁Arab	-10292
▁pale	-10293
▁islam	-10294
▁England	-10295
▁Terwijl	-10296
▁gesteld	-10297
▁moorden	-10298
▁reasons	-10299
▁stacker	-10300
▁worried	-10301
!""	-10302
steken	-10303
ultuur	-10304
▁email	-10305
▁starten	-10306
▁village	-10307
介绍	-10308
pje	-10309
Ross	-10310
▁pup	-10311
▁2016	-10312
▁mede	-10313
▁vlag	-10314
▁zeiden	-10315
▁Persoon	-10316
▁betrouw	-10317
▁meedoen	-10318
▁nauwelijks	-10319
▁请	-10320
ned	-10321
lant	-10322
ament	-10323
▁huge	-10324
▁avont	-10325
▁metal	-10326
▁capital	-10327
▁middelen	-10328
rops	-10329
▁deg	-10330
▁Joden	-10331
▁human	-10332
▁speech	-10333
▁ervaring	-10334
往往	-10335
食物	-10336
▁Es	-10337
aadje	-10338
▁viol	-10339
verslag	-10340
▁merken	-10341
年轻	-10342
万亿元	-10343
otel	-10344
▁chop	-10345
▁clim	-10346
▁misd	-10347
▁riep	-10348
erland	-10349
bedrijf	-10350
▁hiernaast	-10351
▁screwdriver	-10352
名字	-10353
iar	-10354
▁Lee	-10355
▁koe	-10356
▁Rond	-10357
▁Span	-10358
▁Later	-10359
kundige	-10360
▁concert	-10361
demonstrates	-10362
四号	-10363
▁Hi	-10364
▁Rog	-10365
▁kook	-10366
▁vóór	-10367
▁based	-10368
▁muren	-10369
▁sings	-10370
▁uitnod	-10371
▁goodbye	-10372
▁voortplanting	-10373
制造	-10374
▁[.6	-10375
andra	-10376
▁Lieve	-10377
▁threw	-10378
▁Cromer	-10379
▁Margar	-10380
▁ballet	-10381
▁oosten	-10382
▁showed	-10383
▁tijdvak	-10384
▁evidence	-10385
▁recently	-10386
▁opgebouwd	-10387
▁阿	-10388
自然	-10389
▁blow	-10390
▁lager	-10391
▁Goeden	-10392
▁tabblad	-10393
▁toegang	-10394
middellijk	-10395
gez	-10396
nee	-10397
stok	-10398
ucose	-10399
▁deter	-10400
▁struik	-10401
▁tennis	-10402
▁helping	-10403
▁research	-10404
以为	-10405
条件	-10406
gere	-10407
iërs	-10408
▁Pal	-10409
▁Pep	-10410
▁VWO	-10411
▁[.8	-10412
▁Azië	-10413
▁toon	-10414
alling	-10415
▁Jerry	-10416
illiant	-10417
▁Mexico	-10418
▁Daarmee	-10419
▁vluchtelingen	-10420
mar	-10421
rif	-10422
▁[12	-10423
▁soll	-10424
achtige	-10425
terings	-10426
▁removes	-10427
▁voordeel	-10428
illon	-10429
▁fold	-10430
▁becom	-10431
volgens	-10432
▁spaces	-10433
▁attract	-10434
全部	-10435
松鼠	-10436
正式	-10437
gels	-10438
atives	-10439
▁Spelen	-10440
▁besluit	-10441
▁fashion	-10442
▁schijnt	-10443
isteravond	-10444
IT	-10445
咱们	-10446
yse	-10447
▁Read	-10448
▁Smith	-10449
▁shops	-10450
▁unknown	-10451
▁properly	-10452
▁seventeen	-10453
▁internationale	-10454
8.	-10455
习惯	-10456
▁hek	-10457
umber	-10458
▁bond	-10459
▁pipe	-10460
▁grapje	-10461
▁cartoon	-10462
▁connect	-10463
▁elephants	-10464
▁grondstoffen	-10465
UD	-10466
合作	-10467
曾经	-10468
verg	-10469
▁Nana	-10470
▁Claus	-10471
▁magic	-10472
playing	-10473
▁region	-10474
▁steken	-10475
▁versie	-10476
▁Griekse	-10477
▁zwanger	-10478
▁industry	-10479
▁omschrijving	-10480
ju	-10481
▁谁	-10482
期的	-10483
iër	-10484
▁Off	-10485
▁glim	-10486
stroom	-10487
voudige	-10488
ynthese	-10489
▁attempts	-10490
▁tt	-10491
▁很多	-10492
onge	-10493
▁aqu	-10494
duces	-10495
gemen	-10496
▁Face	-10497
▁oder	-10498
▁rout	-10499
▁Surin	-10500
▁prior	-10501
▁regard	-10502
▁testen	-10503
▁cutting	-10504
▁nogmaals	-10505
▁voorbereid	-10506
▁organisatie	-10507
完了	-10508
issie	-10509
oster	-10510
▁lege	-10511
morgen	-10512
▁Danny	-10513
▁sporen	-10514
▁stevig	-10515
▁weather	-10516
▁medeleer	-10517
▁produceren	-10518
▁achtergrond	-10519
▁vernietigen	-10520
创新	-10521
多少	-10522
日本	-10523
▁Ba	-10524
been	-10525
▁Jenn	-10526
nummer	-10527
puzzel	-10528
▁allig	-10529
▁vergr	-10530
▁dronken	-10531
▁private	-10532
▁enzovoor	-10533
▁verdelen	-10534
BR	-10535
OS	-10536
员工	-10537
aalt	-10538
ivel	-10539
▁(20	-10540
▁kab	-10541
▁wijst	-10542
ochtend	-10543
▁volled	-10544
▁soldaat	-10545
Na	-10546
奶奶	-10547
Bij	-10548
▁én	-10549
blok	-10550
▁Los	-10551
▁ork	-10552
deelt	-10553
wereld	-10554
▁hypot	-10555
▁trick	-10556
▁eeuwen	-10557
▁tradition	-10558
完全	-10559
ING	-10560
▁[3.	-10561
▁wipe	-10562
▁bunch	-10563
▁lifts	-10564
▁varen	-10565
ferring	-10566
▁electric	-10567
负责	-10568
Heb	-10569
▁ew	-10570
pakt	-10571
stra	-10572
▁Sie	-10573
▁aus	-10574
▁Aard	-10575
▁keus	-10576
vernij	-10577
▁Franc	-10578
▁ocean	-10579
▁turkey	-10580
▁necklace	-10581
▁verdomde	-10582
▁discussion	-10583
▁bijvoeglijk	-10584
MW	-10585
都在	-10586
▁sj	-10587
oses	-10588
▁Meg	-10589
olpen	-10590
▁tour	-10591
▁Helen	-10592
gesprek	-10593
▁Commun	-10594
▁French	-10595
▁Nigeria	-10596
五年	-10597
执行	-10598
▁只有	-10599
▁ouch	-10600
▁Eight	-10601
▁Stuur	-10602
▁rocks	-10603
ommigen	-10604
▁aanwij	-10605
▁bereid	-10606
▁kisses	-10607
▁interact	-10608
▁concurrentie	-10609
两百	-10610
文化	-10611
六十五	-10612
/020	-10613
iens	-10614
vest	-10615
▁150	-10616
▁Gab	-10617
▁Jwww	-10618
▁Nomi	-10619
▁lage	-10620
▁ontsp	-10621
▁ronde	-10622
▁laatst	-10623
▁Oefening	-10624
▁bringing	-10625
▁opleiding	-10626
tu	-10627
aud	-10628
▁人生	-10629
市场的	-10630
▁ach	-10631
▁Great	-10632
▁Thema	-10633
▁cheer	-10634
▁jacht	-10635
▁keren	-10636
▁actief	-10637
▁beloofd	-10638
▁hanging	-10639
▁algemeen	-10640
An	-10641
九百	-10642
就要	-10643
平均	-10644
是有	-10645
ano	-10646
god	-10647
ault	-10648
cijf	-10649
▁10.	-10650
▁lat	-10651
▁mut	-10652
▁auch	-10653
▁geur	-10654
▁taxi	-10655
▁World	-10656
▁kring	-10657
▁Dieren	-10658
▁Kleine	-10659
▁Wissel	-10660
▁necess	-10661
▁simpel	-10662
▁counter	-10663
▁thirsty	-10664
▁schuldig	-10665
并不	-10666
Indië	-10667
▁Jawel	-10668
▁appel	-10669
kelijke	-10670
▁linker	-10671
▁下一刻再见吧	-10672
▁huidige	-10673
▁speelgoed	-10674
90	-10675
改革	-10676
don	-10677
▁VOC	-10678
▁cloud	-10679
▁oorsp	-10680
▁beiden	-10681
▁daarop	-10682
▁onderaan	-10683
cu	-10684
媒体	-10685
运动	-10686
▁31	-10687
▁für	-10688
vader	-10689
▁Ryan	-10690
ources	-10691
picking	-10692
▁effort	-10693
▁klikken	-10694
▁verhuis	-10695
▁Russische	-10696
mie	-10697
kast	-10698
type	-10699
well	-10700
genda	-10701
▁clap	-10702
▁kopp	-10703
▁zwang	-10704
▁totale	-10705
▁carried	-10706
▁diagram	-10707
▁growing	-10708
▁individu	-10709
▁pressure	-10710
▁besproken	-10711
AM	-10712
fin	-10713
十二点	-10714
▁fem	-10715
▁shh	-10716
papier	-10717
▁Nadat	-10718
▁heette	-10719
▁Margaret	-10720
▁compleet	-10721
▁uitgebre	-10722
永远	-10723
漂亮	-10724
aasd	-10725
nger	-10726
kering	-10727
ulatie	-10728
▁Micro	-10729
dioxide	-10730
ikiwijs	-10731
▁bounce	-10732
▁kussen	-10733
▁ontslagen	-10734
来自	-10735
Afr	-10736
ozz	-10737
▁Ap	-10738
Kracht	-10739
rongen	-10740
▁spill	-10741
▁middeleeuwen	-10742
引起	-10743
是不是	-10744
blik	-10745
glas	-10746
▁drum	-10747
▁tonen	-10748
▁七点早知道播报	-10749
▁medicine	-10750
武汉	-10751
电话	-10752
有什么	-10753
▁Tru	-10754
iënten	-10755
▁Teddy	-10756
▁volle	-10757
▁Turkije	-10758
▁presents	-10759
▁materialen	-10760
大幅	-10761
子的	-10762
面对	-10763
ici	-10764
▁最后	-10765
aron	-10766
▁flew	-10767
▁neef	-10768
▁Emily	-10769
▁ingew	-10770
▁mount	-10771
▁smoke	-10772
▁split	-10773
ilities	-10774
▁agreed	-10775
▁painting	-10776
▁techniek	-10777
ön	-10778
Jij	-10779
Oké	-10780
▁lob	-10781
▁dief	-10782
▁klap	-10783
▁weef	-10784
百分之三十	-10785
▁covered	-10786
▁elkaars	-10787
KN	-10788
接触	-10789
gin	-10790
elle	-10791
▁Ein	-10792
▁spre	-10793
▁über	-10794
▁rocket	-10795
▁vrolijk	-10796
kenmerken	-10797
▁vijanden	-10798
▁apparaten	-10799
▁interesse	-10800
▁personeel	-10801
▁tegenstand	-10802
保险	-10803
教授	-10804
▁boe	-10805
▁nah	-10806
▁比如说	-10807
emper	-10808
▁pist	-10809
grunts	-10810
▁Ieder	-10811
▁fourth	-10812
wisseling	-10813
▁Yorkshire	-10814
▁opportunity	-10815
▁uitdrukkingen	-10816
指出	-10817
oze	-10818
▁Eet	-10819
▁Vor	-10820
iplom	-10821
▁bevel	-10822
▁central	-10823
▁ontbijt	-10824
▁ontdekk	-10825
▁geholpen	-10826
▁officers	-10827
▁schreeuw	-10828
▁ourselves	-10829
券商	-10830
▁包括	-10831
百分点	-10832
vrij	-10833
▁fox	-10834
bergen	-10835
eeling	-10836
▁encou	-10837
ruchten	-10838
▁orgaan	-10839
▁balance	-10840
▁SchoolTV	-10841
▁driehoek	-10842
▁furniture	-10843
▁uitdaging	-10844
▁外	-10845
就不	-10846
方案	-10847
大家分享	-10848
overn	-10849
▁effic	-10850
▁horiz	-10851
▁potato	-10852
▁Halloween	-10853
▁necessary	-10854
▁等	-10855
▁Wr	-10856
mijn	-10857
odel	-10858
▁oct	-10859
▁Last	-10860
▁Taal	-10861
▁edge	-10862
百分之一点	-10863
▁scheme	-10864
▁chimney	-10865
▁Charlotte	-10866
▁onderscheiden	-10867
行动	-10868
anie	-10869
oned	-10870
▁nic	-10871
▁Doel	-10872
▁Snap	-10873
▁prim	-10874
▁rapp	-10875
ential	-10876
wijzer	-10877
▁advan	-10878
▁schil	-10879
▁Übung	-10880
▁Health	-10881
▁memory	-10882
▁zondag	-10883
otseling	-10884
▁bewaren	-10885
▁verbonden	-10886
▁verrassing	-10887
经历	-10888
cir	-10889
umb	-10890
▁随着	-10891
▁Five	-10892
▁beds	-10893
▁buit	-10894
boekje	-10895
▁ideas	-10896
▁measure	-10897
ouncillor	-10898
▁Werkblad	-10899
▁discussie	-10900
▁opgeschreven	-10901
LA	-10902
出去	-10903
奇妙	-10904
Kom	-10905
创业板	-10906
give	-10907
mpje	-10908
Duits	-10909
▁bend	-10910
▁curt	-10911
▁hipp	-10912
wijken	-10913
▁Oranje	-10914
▁journal	-10915
osynthese	-10916
▁companies	-10917
▁veranderde	-10918
▁vaardigheden	-10919
处于	-10920
离开	-10921
▁什么	-10922
fact	-10923
▁role	-10924
▁Daniel	-10925
▁arrest	-10926
▁betreft	-10927
▁oranges	-10928
▁meningen	-10929
▁recognize	-10930
!!	-10931
fa	-10932
经常	-10933
达到了	-10934
▁Dem	-10935
agues	-10936
▁2021	-10937
▁zoom	-10938
gemene	-10939
▁Wordt	-10940
▁Uitleg	-10941
▁download	-10942
▁gekleurde	-10943
▁ExamenKracht	-10944
食品	-10945
bin	-10946
unny	-10947
wand	-10948
▁kou	-10949
▁opin	-10950
▁欢迎收听	-10951
straat	-10952
▁biedt	-10953
▁bound	-10954
▁klant	-10955
▁vervoer	-10956
积极	-10957
就是说	-10958
llis	-10959
▁Jord	-10960
▁dies	-10961
▁hits	-10962
▁suff	-10963
▁snapt	-10964
▁value	-10965
▁associ	-10966
▁kloppen	-10967
▁Brandaan	-10968
▁给	-10969
不足	-10970
有个	-10971
运营	-10972
Goed	-10973
▁IJs	-10974
▁Raad	-10975
pleegd	-10976
▁gewond	-10977
▁require	-10978
referring	-10979
▁gespeeld	-10980
▁pumpkins	-10981
▁verstand	-10982
听到	-10983
联合	-10984
dle	-10985
▁为了	-10986
名中医	-10987
▁Leo	-10988
▁aim	-10989
▁[1.5	-10990
▁cage	-10991
▁dest	-10992
aching	-10993
▁reads	-10994
▁darling	-10995
▁verzorg	-10996
▁conflict	-10997
▁inkomsten	-10998
?,	-10999
讲堂	-11000
▁Ca	-11001
▁这种	-11002
▁tha	-11003
▁pile	-11004
▁force	-11005
▁zolang	-11006
▁improve	-11007
▁Brooklyn	-11008
▁pretends	-11009
▁behoorlijk	-11010
ipen	-11011
▁mush	-11012
▁besmet	-11013
▁kanten	-11014
▁tellen	-11015
▁weergeven	-11016
▁verklaring	-11017
▁和	-11018
心里	-11019
▁由于	-11020
大讲堂	-11021
ingt	-11022
iloft	-11023
itect	-11024
▁Leon	-11025
▁Rocky	-11026
▁Totaal	-11027
▁patter	-11028
erkracht	-11029
▁Bronnen	-11030
▁coloring	-11031
▁apparently	-11032
▁nieuwsgier	-11033
▁报	-11034
▁[14	-11035
gezet	-11036
iforn	-11037
▁umbr	-11038
▁yard	-11039
▁Georg	-11040
▁liber	-11041
▁lower	-11042
▁lying	-11043
▁beside	-11044
▁realize	-11045
▁vrijwill	-11046
▁instructies	-11047
知乎	-11048
购买	-11049
essert	-11050
vision	-11051
▁april	-11052
▁shoulder	-11053
就可以	-11054
▁Nic	-11055
▁bull	-11056
▁cred	-11057
ijsver	-11058
zonder	-11059
▁ruikt	-11060
▁crimin	-11061
▁satell	-11062
▁uitzen	-11063
▁library	-11064
▁spilled	-11065
▁stories	-11066
▁Revolutie	-11067
▁Vervangen	-11068
▁negatieve	-11069
oni	-11070
▁可能	-11071
▁Han	-11072
raagt	-11073
weten	-11074
▁stamp	-11075
▁gevorm	-11076
▁prepared	-11077
懂得	-11078
tot	-11079
icus	-11080
▁borrow	-11081
▁puppets	-11082
▁verlies	-11083
iw	-11084
▁反	-11085
大了	-11086
aff	-11087
asse	-11088
▁lol	-11089
ators	-11090
▁High	-11091
▁join	-11092
▁saai	-11093
▁About	-11094
▁bench	-11095
▁gettin	-11096
▁fireman	-11097
▁gestopt	-11098
▁klassen	-11099
▁zinsdelen	-11100
回答	-11101
处理	-11102
支付	-11103
环比	-11104
loud	-11105
ston	-11106
▁cru	-11107
▁Bruce	-11108
▁sales	-11109
putting	-11110
▁safety	-11111
▁Verdeel	-11112
Nederland	-11113
▁uitzoeken	-11114
▁appropriate	-11115
▁Begrippenlijst	-11116
16	-11117
七月	-11118
ecut	-11119
ained	-11120
arium	-11121
▁ends	-11122
▁angry	-11123
▁kwalijk	-11124
▁voordelen	-11125
▁beoordeeld	-11126
▁motorcycle	-11127
▁ontsnappen	-11128
▁christendom	-11129
:"	-11130
Om	-11131
地上	-11132
疾病	-11133
一定要	-11134
zine	-11135
▁Jam	-11136
▁caf	-11137
ronen	-11138
▁Arbe	-11139
▁Inst	-11140
▁dust	-11141
▁taps	-11142
▁rules	-11143
▁wijze	-11144
aringen	-11145
▁oceaan	-11146
igranten	-11147
▁concept	-11148
▁eigenaar	-11149
▁standpunt	-11150
MC	-11151
电子	-11152
Deze	-11153
just	-11154
loze	-11155
▁Hans	-11156
▁Luke	-11157
▁ment	-11158
▁cases	-11159
▁jagen	-11160
aardige	-11161
▁Luther	-11162
▁Sophie	-11163
▁tweeën	-11164
▁perform	-11165
▁toetsen	-11166
▁carrying	-11167
▁dangerous	-11168
”!	-11169
Met	-11170
▁Bu	-11171
park	-11172
▁alt	-11173
geant	-11174
iëren	-11175
▁Thor	-11176
crying	-11177
softly	-11178
▁decor	-11179
▁vloer	-11180
▁waste	-11181
▁Lekker	-11182
▁quietly	-11183
▁pretending	-11184
不起	-11185
增速	-11186
确定	-11187
▁90	-11188
film	-11189
▁Pan	-11190
oever	-11191
▁Sluit	-11192
▁bieden	-11193
▁powder	-11194
▁dessert	-11195
▁Catherine	-11196
▁political	-11197
▁grammatica	-11198
▁onmiddellijk	-11199
太阳	-11200
是否	-11201
近期	-11202
▁Ru	-11203
▁Das	-11204
▁Med	-11205
▁mode	-11206
ipedia	-11207
▁Gesch	-11208
▁Nieuwe	-11209
▁inspect	-11210
▁mindmap	-11211
▁scratch	-11212
▁Inderdaad	-11213
▁ontwikkelen	-11214
▁signaalwoorden	-11215
数字	-11216
星星	-11217
最大的	-11218
rest	-11219
▁oil	-11220
ammen	-11221
voegd	-11222
gedrag	-11223
▁poten	-11224
▁Bepaal	-11225
▁Egypte	-11226
▁jagers	-11227
▁Meander	-11228
▁vrijdag	-11229
onderzoek	-11230
四月	-11231
好好	-11232
整体	-11233
普通	-11234
hist	-11235
ooth	-11236
▁activ	-11237
▁draad	-11238
▁Govern	-11239
▁promot	-11240
▁Behalve	-11241
▁beschad	-11242
▁history	-11243
addressed	-11244
▁financial	-11245
DS	-11246
ao	-11247
互联	-11248
breng	-11249
▁ouwe	-11250
▁notes	-11251
bliotheek	-11252
▁vriendelijk	-11253
ado	-11254
oei	-11255
▁陕西	-11256
sque	-11257
uzen	-11258
tober	-11259
▁Kate	-11260
crayon	-11261
▁regio	-11262
▁subst	-11263
▁broertje	-11264
▁gebleven	-11265
▁webquest	-11266
ynn	-11267
▁fen	-11268
▁oat	-11269
▁tub	-11270
assingen	-11271
▁bezorgd	-11272
▁buurman	-11273
▁speelde	-11274
▁intellig	-11275
▁delicious	-11276
上海	-11277
复工	-11278
的事	-11279
范围	-11280
ias	-11281
▁这里	-11282
好朋友	-11283
chel	-11284
rage	-11285
song	-11286
▁lul	-11287
maakt	-11288
▁radi	-11289
vallig	-11290
▁Helaas	-11291
▁leefde	-11292
▁noemde	-11293
chuckles	-11294
richting	-11295
▁Californ	-11296
▁indeling	-11297
▁regenwoud	-11298
schappelijke	-11299
了吗	-11300
的新	-11301
fter	-11302
itor	-11303
tegr	-11304
▁sto	-11305
brand	-11306
illam	-11307
useum	-11308
▁Bang	-11309
▁juli	-11310
名医大讲堂	-11311
efully	-11312
▁Somet	-11313
▁Middel	-11314
▁immedi	-11315
▁paniek	-11316
uls	-11317
alls	-11318
beren	-11319
iaanse	-11320
▁Weten	-11321
▁lezer	-11322
▁kippen	-11323
▁regent	-11324
ikipedia	-11325
▁indianen	-11326
▁throwing	-11327
auto	-11328
rede	-11329
▁Tien	-11330
▁baar	-11331
▁crit	-11332
▁jelly	-11333
▁ruiken	-11334
▁aandoen	-11335
▁depends	-11336
▁bruiloft	-11337
▁meegenomen	-11338
13	-11339
RE	-11340
三月	-11341
单位	-11342
申请	-11343
香港	-11344
pas	-11345
ured	-11346
▁Lat	-11347
keuze	-11348
risch	-11349
▁2014	-11350
▁Isra	-11351
▁wiss	-11352
▁zoet	-11353
zakken	-11354
▁Tommy	-11355
▁bloke	-11356
▁buddy	-11357
之一	-11358
商业	-11359
wikk	-11360
▁Viet	-11361
ustrie	-11362
▁raden	-11363
▁agenda	-11364
▁hardop	-11365
▁slides	-11366
▁weggaan	-11367
▁utterance	-11368
▁refrigerator	-11369
py	-11370
看看	-11371
▁Ple	-11372
▁mel	-11373
▁ecos	-11374
▁gosh	-11375
▁telt	-11376
▁amend	-11377
▁bounc	-11378
▁dwars	-11379
▁Deedee	-11380
▁loudly	-11381
▁geïnter	-11382
▁chickens	-11383
▁hierover	-11384
▁opgericht	-11385
verandering	-11386
代表	-11387
开展	-11388
▁当然	-11389
▁193	-11390
istic	-11391
▁fail	-11392
▁havo	-11393
▁hurts	-11394
middels	-11395
▁talent	-11396
▁嗯	-11397
过了	-11398
▁afr	-11399
疫情防控	-11400
drops	-11401
▁plac	-11402
iseren	-11403
▁whoop	-11404
▁napkin	-11405
▁stuurt	-11406
romosomen	-11407
▁umbrella	-11408
相信	-11409
obb	-11410
的问题	-11411
odes	-11412
▁Cam	-11413
▁virt	-11414
others	-11415
▁gezocht	-11416
▁lijdend	-11417
▁nauwkeur	-11418
▁woonplaats	-11419
是一种	-11420
istr	-11421
▁wip	-11422
maker	-11423
▁Duck	-11424
▁frogs	-11425
ografie	-11426
▁income	-11427
▁wensen	-11428
▁Charles	-11429
▁maandag	-11430
▁whatcha	-11431
▁Minister	-11432
九月	-11433
hen	-11434
ijp	-11435
verl	-11436
▁Des	-11437
▁nep	-11438
duced	-11439
▁Gary	-11440
▁rice	-11441
aining	-11442
smiles	-11443
▁Zodra	-11444
attempts	-11445
▁society	-11446
▁straten	-11447
▁beoordelings	-11448
只能	-11449
成长	-11450
聪明	-11451
▁tu	-11452
isie	-11453
pijn	-11454
stij	-11455
sister	-11456
▁dough	-11457
▁genet	-11458
jaarden	-11459
▁cherry	-11460
▁raakte	-11461
▁schatt	-11462
▁sterker	-11463
▁kwaliteit	-11464
▁schimmels	-11465
债券	-11466
fan	-11467
▁ama	-11468
annah	-11469
▁crib	-11470
▁hill	-11471
▁phys	-11472
blemen	-11473
▁bleek	-11474
▁graan	-11475
▁types	-11476
velings	-11477
▁crawls	-11478
▁ribbit	-11479
▁oatmeal	-11480
▁learning	-11481
▁verstaan	-11482
依然	-11483
结构	-11484
▁nin	-11485
ached	-11486
▁Matt	-11487
▁truc	-11488
ronken	-11489
▁Krijg	-11490
▁lesuur	-11491
▁sprook	-11492
▁context	-11493
▁kunsten	-11494
structuur	-11495
▁voorkomt	-11496
三年	-11497
dus	-11498
▁Comp	-11499
▁cell	-11500
spraak	-11501
▁Rachel	-11502
▁Secret	-11503
▁zilver	-11504
▁Planten	-11505
▁schaduw	-11506
▁commentaar	-11507
方向	-11508
code	-11509
goes	-11510
sequ	-11511
▁400	-11512
▁geë	-11513
▁pal	-11514
▁rac	-11515
▁Huis	-11516
▁buren	-11517
▁rijst	-11518
▁mostly	-11519
▁bedanken	-11520
▁McDonalds	-11521
▁nationaal	-11522
样子	-11523
营收	-11524
]⌉.	-11525
wor	-11526
moet	-11527
▁hee	-11528
▁pud	-11529
上市公司	-11530
ishes	-11531
fortun	-11532
slotte	-11533
ituatie	-11534
whining	-11535
▁minimum	-11536
▁produce	-11537
▁bedoelde	-11538
▁Australië	-11539
▁vergadering	-11540
五月	-11541
日子	-11542
针对	-11543
首先	-11544
▁Vin	-11545
▁ond	-11546
▁Alan	-11547
voegen	-11548
▁Ongel	-11549
▁eicel	-11550
▁fancy	-11551
screams	-11552
▁Buiten	-11553
▁wassen	-11554
▁Spaanse	-11555
▁grammar	-11556
▁beslissing	-11557
新增	-11558
▁SLU	-11559
antha	-11560
elled	-11561
aloers	-11562
graven	-11563
▁babys	-11564
▁einen	-11565
▁upset	-11566
▁zonne	-11567
tingham	-11568
ugustus	-11569
▁intake	-11570
▁konijn	-11571
▁returns	-11572
▁suddenly	-11573
▁breathing	-11574
▁necessarily	-11575
拥有	-11576
fit	-11577
ften	-11578
▁mud	-11579
ozzol	-11580
riële	-11581
▁Lucy	-11582
▁olif	-11583
aseffect	-11584
▁officer	-11585
▁raining	-11586
▁Facebook	-11587
▁vluchten	-11588
opdrachten	-11589
iteindelijk	-11590
▁percentage	-11591
▁vertegenwoord	-11592
▁OP	-11593
▁北京	-11594
▁bead	-11595
▁lips	-11596
houder	-11597
▁Mouse	-11598
▁north	-11599
▁helped	-11600
▁keuzes	-11601
▁slotte	-11602
▁verslaan	-11603
▁toneelstuk	-11604
▁werknemers	-11605
22	-11606
参与	-11607
视频	-11608
▁By	-11609
▁ext	-11610
estie	-11611
uilen	-11612
▁Next	-11613
▁Verg	-11614
▁blood	-11615
▁toren	-11616
▁complex	-11617
▁opzicht	-11618
▁separate	-11619
▁Committee	-11620
▁verslagen	-11621
▁uitspraken	-11622
-,	-11623
ila	-11624
oit	-11625
rad	-11626
▁Hu	-11627
wind	-11628
▁knee	-11629
▁lijf	-11630
▁rijen	-11631
▁Jammer	-11632
▁debate	-11633
▁omgaan	-11634
▁prefer	-11635
▁werkten	-11636
auf	-11637
anas	-11638
mmet	-11639
▁Mos	-11640
▁dut	-11641
oured	-11642
▁Voel	-11643
illian	-11644
▁Straks	-11645
▁intens	-11646
▁vakken	-11647
▁however	-11648
▁Wegwezen	-11649
▁verkoopt	-11650
有效	-11651
rob	-11652
▁sus	-11653
▁Cong	-11654
▁Tips	-11655
▁teen	-11656
▁datum	-11657
▁cocoon	-11658
▁teaching	-11659
▁ontwikkeld	-11660
▁authorities	-11661
▁belachelijk	-11662
▁elektrische	-11663
▁schematische	-11664
各种	-11665
您的	-11666
收盘	-11667
隔离	-11668
acy	-11669
了起来	-11670
stru	-11671
▁Bart	-11672
▁Disc	-11673
▁cous	-11674
▁erom	-11675
▁kist	-11676
pakken	-11677
oensdag	-11678
▁Streep	-11679
▁spoken	-11680
▁dagboek	-11681
▁reflect	-11682
▁advocaat	-11683
▁ingevuld	-11684
▁verhouding	-11685
▁advertentie	-11686
茅台	-11687
衣服	-11688
▁."	-11689
trek	-11690
▁Res	-11691
April	-11692
selen	-11693
▁juni	-11694
arbeid	-11695
sounds	-11696
▁lukken	-11697
▁mitten	-11698
▁romant	-11699
▁uniform	-11700
▁Generaal	-11701
▁medicijnen	-11702
HH	-11703
几个	-11704
带来	-11705
提醒	-11706
是不	-11707
可能会	-11708
iaan	-11709
▁Aven	-11710
▁arts	-11711
▁poes	-11712
▁task	-11713
▁virus	-11714
▁Studio	-11715
▁accent	-11716
▁access	-11717
▁grocer	-11718
▁gericht	-11719
▁carriage	-11720
▁Eindelijk	-11721
▁voornaamwoorden	-11722
工业	-11723
有所	-11724
游戏	-11725
Aan	-11726
▁全国	-11727
ague	-11728
▁Hal	-11729
▁dese	-11730
▁munt	-11731
▁river	-11732
▁inspir	-11733
▁liefje	-11734
▁beweegt	-11735
▁express	-11736
▁glucose	-11737
▁zogenaam	-11738
▁Leerlingen	-11739
▁Nottingham	-11740
▁aantrekkelijk	-11741
pre	-11742
leid	-11743
▁bid	-11744
▁Ziet	-11745
▁rule	-11746
Gillam	-11747
▁fresh	-11748
▁dertig	-11749
▁christen	-11750
▁eilanden	-11751
▁eindigen	-11752
▁gewassen	-11753
▁Professor	-11754
▁verkiezingen	-11755
下了	-11756
cca	-11757
▁9.	-11758
的这种	-11759
isje	-11760
ples	-11761
▁250	-11762
brush	-11763
inker	-11764
oloog	-11765
volle	-11766
▁whoo	-11767
vering	-11768
▁stock	-11769
▁Afsluiting	-11770
▁Uiteindelijk	-11771
生物	-11772
直播	-11773
▁并且	-11774
anne	-11775
high	-11776
moed	-11777
vant	-11778
▁sho	-11779
▁wir	-11780
apper	-11781
vings	-11782
▁cuts	-11783
▁excellent	-11784
▁verspreid	-11785
▁kruiswoord	-11786
⌋?	-11787
作者	-11788
▁ep	-11789
▁国家	-11790
▁homo	-11791
eering	-11792
▁priest	-11793
▁zipper	-11794
tekening	-11795
▁verzorgd	-11796
▁vegetables	-11797
▁verwachten	-11798
出的	-11799
姑娘	-11800
想到	-11801
怎么办	-11802
ierd	-11803
▁Jun	-11804
aaien	-11805
ccoli	-11806
▁kauw	-11807
▁vest	-11808
▁tapes	-11809
onderden	-11810
terusten	-11811
▁standard	-11812
▁studenten	-11813
.,	-11814
到底	-11815
考虑	-11816
首次	-11817
och	-11818
小朋友	-11819
Hier	-11820
▁Gooi	-11821
jarige	-11822
▁Marokk	-11823
▁ontvang	-11824
wedstrijd	-11825
▁instance	-11826
▁onschuld	-11827
▁wandelen	-11828
emperatuur	-11829
多了	-11830
-19	-11831
isl	-11832
lood	-11833
spect	-11834
▁Loop	-11835
▁stars	-11836
▁opgave	-11837
▁staats	-11838
▁gevormd	-11839
▁genieten	-11840
▁spanning	-11841
▁slavernij	-11842
保障	-11843
通知	-11844
pret	-11845
▁Lin	-11846
▁Luc	-11847
▁Aunt	-11848
▁Hang	-11849
▁honk	-11850
▁helic	-11851
▁privé	-11852
▁cracker	-11853
▁pleased	-11854
▁vijftig	-11855
▁addition	-11856
▁brilliant	-11857
▁structuur	-11858
▁zichtbaar	-11859
▁communicatie	-11860
前的	-11861
▁预计	-11862
opend	-11863
▁Noor	-11864
▁pain	-11865
zinnig	-11866
▁lagen	-11867
▁afkort	-11868
▁ballen	-11869
▁zorgde	-11870
ossingen	-11871
根本	-11872
▁33	-11873
phone	-11874
▁Dada	-11875
▁Home	-11876
▁Shit	-11877
stenen	-11878
▁drupp	-11879
▁scale	-11880
▁avonds	-11881
▁easily	-11882
▁sparen	-11883
▁waffle	-11884
▁watched	-11885
rijvingen	-11886
▁waarover	-11887
▁eventuele	-11888
会议	-11889
bell	-11890
lets	-11891
▁Ass	-11892
▁Bre	-11893
▁Oke	-11894
chema	-11895
oleon	-11896
▁Fort	-11897
▁brak	-11898
▁pant	-11899
▁voeg	-11900
atures	-11901
▁sprak	-11902
▁bright	-11903
▁ernstig	-11904
▁begraven	-11905
▁generally	-11906
▁department	-11907
供应	-11908
▁Ee	-11909
▁ven	-11910
kleur	-11911
opher	-11912
shirt	-11913
▁loll	-11914
▁zone	-11915
▁dunne	-11916
▁flats	-11917
▁naged	-11918
▁whats	-11919
▁review	-11920
▁Hierbij	-11921
▁bestond	-11922
vaardigheid	-11923
▁meegemaakt	-11924
▁受	-11925
微博	-11926
高的	-11927
▁BB	-11928
want	-11929
▁Bud	-11930
▁koo	-11931
▁bisc	-11932
▁coal	-11933
ertijd	-11934
ippers	-11935
▁Betty	-11936
▁lookin	-11937
▁grandpa	-11938
▁signific	-11939
▁lievelings	-11940
明确	-11941
▁也是	-11942
▁Opa	-11943
lucht	-11944
▁Star	-11945
▁chef	-11946
▁curs	-11947
▁knie	-11948
▁chest	-11949
▁vorst	-11950
▁Claire	-11951
▁rolling	-11952
▁gedragen	-11953
▁verdiend	-11954
▁Ku	-11955
aning	-11956
rings	-11957
▁firm	-11958
schema	-11959
▁pilot	-11960
▁repar	-11961
▁Module	-11962
▁ridder	-11963
▁slowly	-11964
▁diensten	-11965
▁kampioen	-11966
▁countries	-11967
▁verzinnen	-11968
▁volledige	-11969
▁behandelen	-11970
家人	-11971
最大	-11972
也没有	-11973
they	-11974
vige	-11975
▁Far	-11976
▁surf	-11977
zinnen	-11978
▁manip	-11979
igingen	-11980
▁Brazilië	-11981
▁paragraph	-11982
疑问	-11983
科学	-11984
▁爸爸	-11985
cast	-11986
keys	-11987
▁hap	-11988
▁rooms	-11989
▁vervolg	-11990
▁beroemde	-11991
▁drinkwater	-11992
▁identiteit	-11993
-6	-11994
edy	-11995
▁希望	-11996
▁pub	-11997
▁tij	-11998
▁koel	-11999
▁vies	-12000
▁Chine	-12001
▁court	-12002
▁jammer	-12003
▁architect	-12004
▁Woordenlijst	-12005
▁overeenkomsten	-12006
▁像	-12007
中药	-12008
病人	-12009
给他	-12010
▁除了	-12011
doek	-12012
oeps	-12013
▁Son	-12014
▁ren	-12015
urende	-12016
velden	-12017
▁coach	-12018
▁zusje	-12019
▁Aantal	-12020
▁Britse	-12021
▁Plaats	-12022
▁orders	-12023
▁excuses	-12024
▁keeping	-12025
▁rattling	-12026
▁afgesproken	-12027
▁Bal	-12028
▁Dis	-12029
bomen	-12030
ördin	-12031
▁pest	-12032
▁toss	-12033
.000,-	-12034
Afrika	-12035
▁loads	-12036
somloop	-12037
▁lesson	-12038
▁leugen	-12039
▁evenaar	-12040
▁oktober	-12041
▁microscoop	-12042
有点	-12043
都没有	-12044
▁ruil	-12045
▁atoom	-12046
ability	-12047
▁myster	-12048
▁gerecht	-12049
▁Suriname	-12050
▁throughout	-12051
BO	-12052
▁去	-12053
bek	-12054
rial	-12055
▁sem	-12056
▁fase	-12057
ffrouw	-12058
▁veert	-12059
▁Father	-12060
▁duurde	-12061
▁geplaatst	-12062
▁Government	-12063
▁Oostenrijk	-12064
▁uitdrukking	-12065
▁brandstoffen	-12066
▁samenstelling	-12067
下跌	-12068
精神	-12069
pat	-12070
▁75	-12071
▁cd	-12072
▁2011	-12073
lijnen	-12074
▁death	-12075
▁pence	-12076
▁stone	-12077
▁useful	-12078
▁benzine	-12079
▁Jennifer	-12080
▁cleaning	-12081
▁particip	-12082
CI	-12083
有些	-12084
/20	-12085
▁公司	-12086
▁无论	-12087
acon	-12088
selk	-12089
▁Mur	-12090
▁VAN	-12091
▁smer	-12092
▁haren	-12093
▁Select	-12094
▁barrel	-12095
▁remind	-12096
▁warmer	-12097
▁naamval	-12098
▁Jonathan	-12099
▁monsters	-12100
▁bestaande	-12101
▁combinatie	-12102
看着	-12103
这儿	-12104
▁Up	-12105
▁alf	-12106
▁Mars	-12107
▁vere	-12108
oefend	-12109
▁profit	-12110
▁catches	-12111
▁enthous	-12112
▁waaraan	-12113
▁marketing	-12114
▁uitrekenen	-12115
为您	-12116
出口	-12117
能源	-12118
eurs	-12119
itel	-12120
teit	-12121
▁Dec	-12122
reeks	-12123
▁balk	-12124
▁prices	-12125
▁verbaasd	-12126
▁terugkomen	-12127
▁verbinding	-12128
居民	-12129
广州	-12130
采取	-12131
Nou	-12132
Wij	-12133
互联网	-12134
here	-12135
▁Typ	-12136
▁gal	-12137
▁Geld	-12138
▁Kunt	-12139
▁afsch	-12140
▁zodra	-12141
clusief	-12142
▁carpet	-12143
▁feeding	-12144
▁session	-12145
▁younger	-12146
▁ontwerpen	-12147
▁Voorzichtig	-12148
只小	-12149
对方	-12150
角度	-12151
进了	-12152
集中	-12153
jack	-12154
▁esc	-12155
▁kus	-12156
ieuze	-12157
lands	-12158
▁Take	-12159
▁witch	-12160
▁streek	-12161
▁bevrijd	-12162
▁modules	-12163
▁seizoen	-12164
industrie	-12165
▁beroepen	-12166
▁alligator	-12167
▁spelletjes	-12168
▁mogelijkheid	-12169
专家	-12170
▁Sean	-12171
▁House	-12172
illende	-12173
▁current	-12174
▁ingewikk	-12175
▁highchair	-12176
▁bevruchting	-12177
▁Waarschijnlijk	-12178
一般	-12179
回到	-12180
质量	-12181
造成	-12182
Bed	-12183
▁wc	-12184
ijft	-12185
▁Pau	-12186
Welke	-12187
stein	-12188
▁Bern	-12189
ifmeel	-12190
▁Uncle	-12191
▁Witte	-12192
▁karak	-12193
onation	-12194
▁speaks	-12195
▁eenheid	-12196
▁selling	-12197
;.	-12198
推动	-12199
起了	-12200
▁ign	-12201
iland	-12202
eeland	-12203
▁kleed	-12204
▁queen	-12205
▁Justin	-12206
▁swings	-12207
▁kopieer	-12208
▁overleden	-12209
▁北	-12210
▁吃	-12211
爱的小	-12212
boel	-12213
ulden	-12214
▁1848	-12215
▁sher	-12216
▁sich	-12217
ducent	-12218
ushing	-12219
▁regul	-12220
▁shell	-12221
reement	-12222
▁lelijk	-12223
▁passed	-12224
▁snelle	-12225
▁Melissa	-12226
▁waarden	-12227
▁这一课	-12228
▁Katie	-12229
▁miner	-12230
▁shark	-12231
▁stool	-12232
▁Verwerk	-12233
▁logisch	-12234
▁stromen	-12235
▁Napoleon	-12236
▁doorlopen	-12237
▁koolstofdioxide	-12238
体质	-12239
参加	-12240
Ben	-12241
▁48	-12242
appe	-12243
▁Vak	-12244
blijf	-12245
heart	-12246
raden	-12247
▁brut	-12248
▁kalm	-12249
▁equip	-12250
horende	-12251
▁spijker	-12252
▁wortels	-12253
▁menselijk	-12254
----------------	-12255
下去	-12256
哪里	-12257
时代	-12258
认识	-12259
跟我	-12260
▁晚安	-12261
ikke	-12262
this	-12263
▁Mij	-12264
▁Osc	-12265
▁oef	-12266
▁enig	-12267
▁rail	-12268
▁Sport	-12269
▁Steph	-12270
▁champ	-12271
▁hopen	-12272
▁mixed	-12273
▁octop	-12274
▁dorpen	-12275
▁graven	-12276
▁beheers	-12277
▁learned	-12278
▁sticking	-12279
▁zintuigen	-12280
ün	-12281
降低	-12282
所有的	-12283
▁Cle	-12284
▁klus	-12285
kosten	-12286
▁Organ	-12287
▁belde	-12288
▁cries	-12289
▁vitam	-12290
eschool	-12291
▁fright	-12292
▁steekt	-12293
▁squeeze	-12294
▁bescherming	-12295
▁Investigator	-12296
mus	-12297
bang	-12298
▁dir	-12299
▁klad	-12300
▁sind	-12301
groeid	-12302
▁sloeg	-12303
▁dienen	-12304
▁schoen	-12305
▁opgeslagen	-12306
住了	-12307
困难	-12308
父亲	-12309
ava	-12310
uum	-12311
▁ce	-12312
▁每天	-12313
osie	-12314
sels	-12315
▁Bouw	-12316
▁expr	-12317
aneous	-12318
▁diagn	-12319
▁Gouden	-12320
▁Komaan	-12321
▁glances	-12322
▁opgelost	-12323
尾巴	-12324
mate	-12325
▁Ang	-12326
▁Top	-12327
ampoo	-12328
aries	-12329
schip	-12330
▁math	-12331
wering	-12332
▁Cindy	-12333
▁Terry	-12334
▁merry	-12335
▁sciss	-12336
▁dijken	-12337
▁jaloers	-12338
▁verpest	-12339
▁broccoli	-12340
就和	-12341
]...	-12342
▁bec	-12343
annel	-12344
▁Only	-12345
▁Alice	-12346
▁apply	-12347
▁cough	-12348
▁faster	-12349
▁overleef	-12350
1,	-12351
▁尽	-12352
估值	-12353
▁Ce	-12354
rong	-12355
▁Mey	-12356
▁Give	-12357
▁Hong	-12358
▁ontb	-12359
▁faces	-12360
▁poort	-12361
▁zweer	-12362
▁parent	-12363
▁scherp	-12364
▁tekort	-12365
▁banging	-12366
▁illustr	-12367
▁verstopt	-12368
▁professor	-12369
▁gisteravond	-12370
▁onderstaand	-12371
LE	-12372
▁您	-12373
意见	-12374
综合	-12375
sle	-12376
一起来	-12377
实际上	-12378
▁Ele	-12379
▁Old	-12380
inten	-12381
▁cents	-12382
▁slang	-12383
▁smile	-12384
▁bossen	-12385
▁offered	-12386
▁leerdoel	-12387
▁sollicit	-12388
▁verschijn	-12389
▁Christopher	-12390
tr	-12391
儿子	-12392
具有	-12393
ams	-12394
▁34	-12395
▁Fift	-12396
▁kalk	-12397
▁gooit	-12398
esterse	-12399
gelijke	-12400
▁variab	-12401
▁newspaper	-12402
▁verschrikkelijk	-12403
五千	-12404
▁后来	-12405
vonden	-12406
▁leerde	-12407
▁lippen	-12408
▁digitaal	-12409
▁movement	-12410
和小	-12411
公众号	-12412
▁vee	-12413
urity	-12414
ingsre	-12415
object	-12416
zettend	-12417
▁broers	-12418
▁extrem	-12419
▁woonde	-12420
▁proeven	-12421
▁springt	-12422
▁接	-12423
上升	-12424
关键	-12425
过得	-12426
▁Cra	-12427
▁nod	-12428
walks	-12429
▁Chic	-12430
▁Hebt	-12431
▁Annie	-12432
▁behoort	-12433
fst	-12434
imal	-12435
loge	-12436
▁197	-12437
▁Cap	-12438
▁among	-12439
▁bijbe	-12440
▁afloop	-12441
▁helaas	-12442
fragment	-12443
▁bedenkt	-12444
▁branden	-12445
▁trappen	-12446
▁afscheid	-12447
AK	-12448
委员	-12449
tape	-12450
▁Wend	-12451
▁desp	-12452
strateg	-12453
▁Dillon	-12454
▁facing	-12455
▁schaam	-12456
schappelijk	-12457
▁verdedigen	-12458
yd	-12459
后的	-12460
计算	-12461
重新	-12462
▁[15	-12463
▁ras	-12464
ooter	-12465
osaur	-12466
plays	-12467
▁stru	-12468
trying	-12469
▁White	-12470
▁aansp	-12471
▁knuff	-12472
▁uitst	-12473
▁munten	-12474
▁collega	-12475
▁watermel	-12476
▁nagedacht	-12477
▁september	-12478
▁vervelend	-12479
▁bestudeert	-12480
▁menselijke	-12481
▁oplossingen	-12482
减持	-12483
的啊	-12484
评论	-12485
anny	-12486
▁Rot	-12487
▁duw	-12488
still	-12489
▁zero	-12490
proces	-12491
conomie	-12492
duizend	-12493
▁Overal	-12494
▁staying	-12495
▁aankomen	-12496
▁verschillend	-12497
TA	-12498
小的	-12499
ekens	-12500
▁Eliz	-12501
▁haak	-12502
▁symp	-12503
▁therm	-12504
▁centrale	-12505
▁doorheen	-12506
▁toevallig	-12507
▁eventually	-12508
nu	-12509
▁白	-12510
内心	-12511
它的	-12512
搜索	-12513
清楚	-12514
美丽	-12515
The	-12516
run	-12517
▁我想	-12518
最好的	-12519
while	-12520
▁Make	-12521
▁gepl	-12522
bellen	-12523
▁Zwits	-12524
▁aankl	-12525
▁jarig	-12526
▁gerust	-12527
▁waaruit	-12528
▁afkomstig	-12529
▁vertrokken	-12530
66	-12531
▁如	-12532
生气	-12533
的影响	-12534
▁Onge	-12535
▁anti	-12536
▁dose	-12537
▁Julia	-12538
▁spots	-12539
▁symbool	-12540
▁winnaar	-12541
▁afterwards	-12542
▁便	-12543
nog	-12544
给我们	-12545
oscoop	-12546
stands	-12547
▁Mooie	-12548
▁Canada	-12549
▁Slecht	-12550
▁purpose	-12551
▁fighting	-12552
▁tropisch	-12553
▁Schrijven	-12554
▁equipment	-12555
▁insurance	-12556
▁bibliotheek	-12557
才是	-12558
omb	-12559
erij	-12560
▁Sel	-12561
andid	-12562
▁Barb	-12563
▁Wauw	-12564
▁knul	-12565
▁mkay	-12566
▁mosl	-12567
▁weeg	-12568
▁draai	-12569
▁plans	-12570
▁demand	-12571
▁lieten	-12572
▁finding	-12573
▁duurzame	-12574
▁Vervolgens	-12575
公开	-12576
意义	-12577
毕业	-12578
jij	-12579
▁Kenn	-12580
▁lect	-12581
▁Never	-12582
▁Stand	-12583
▁belly	-12584
▁frequ	-12585
▁komst	-12586
▁smelt	-12587
▁veront	-12588
▁answers	-12589
▁moeders	-12590
▁Hopelijk	-12591
▁students	-12592
▁studeren	-12593
▁eenvoudige	-12594
▁leerkracht	-12595
▁voorstelling	-12596
做好	-12597
早上	-12598
的那	-12599
cut	-12600
mag	-12601
消费者	-12602
oots	-12603
▁Cub	-12604
▁Ian	-12605
▁aap	-12606
▁git	-12607
fight	-12608
▁Roll	-12609
▁plug	-12610
opgave	-12611
▁truth	-12612
▁Altijd	-12613
▁enters	-12614
▁ophalen	-12615
▁Verzamel	-12616
披露	-12617
▁42	-12618
出现了	-12619
Weet	-12620
nood	-12621
▁pee	-12622
abeth	-12623
oende	-12624
一千零一夜	-12625
netjes	-12626
▁illeg	-12627
olution	-12628
▁Grover	-12629
▁uitzien	-12630
▁verdere	-12631
▁gezellig	-12632
▁vloeistof	-12633
▁bloedsomloop	-12634
责任	-12635
路上	-12636
HEI	-12637
▁Ath	-12638
beweg	-12639
▁klei	-12640
athers	-12641
kijker	-12642
▁Marcus	-12643
▁nuttig	-12644
▁propert	-12645
▁uitgang	-12646
▁goedkoop	-12647
▁positive	-12648
▁vertrekt	-12649
▁centimeter	-12650
▁deelvragen	-12651
▁voorbereiden	-12652
/3	-12653
引发	-12654
hof	-12655
Welk	-12656
fish	-12657
icing	-12658
istan	-12659
waart	-12660
▁meub	-12661
iament	-12662
▁Parag	-12663
▁Trouw	-12664
▁chick	-12665
▁spons	-12666
winning	-12667
▁advice	-12668
▁geweer	-12669
▁Jessica	-12670
▁alfabet	-12671
▁grootte	-12672
▁heilige	-12673
▁overleg	-12674
▁Hoofdstuk	-12675
▁formulier	-12676
▁broeikaseffect	-12677
▁samenstellingen	-12678
的高	-12679
▁我就	-12680
▁非常	-12681
erie	-12682
roet	-12683
vies	-12684
▁suk	-12685
Patsy	-12686
▁Doen	-12687
▁bags	-12688
▁fund	-12689
alisme	-12690
▁Those	-12691
▁leeuw	-12692
▁rondom	-12693
▁Dankzij	-12694
duidelijk	-12695
▁Probably	-12696
▁Volgende	-12697
▁tijdlijn	-12698
▁goedkoper	-12699
▁standaard	-12700
▁provincies	-12701
Sp	-12702
效果	-12703
跟你	-12704
AAR	-12705
imp	-12706
▁ego	-12707
▁Play	-12708
百分之五十	-12709
▁asiel	-12710
▁haben	-12711
▁kogel	-12712
▁nurse	-12713
▁zijde	-12714
orteren	-12715
▁stares	-12716
▁Vietnam	-12717
▁bounces	-12718
▁seconde	-12719
▁voeding	-12720
▁criteria	-12721
▁horrible	-12722
▁carefully	-12723
▁enzovoort	-12724
DR	-12725
wr	-12726
密切	-12727
观察	-12728
cup	-12729
ored	-12730
▁Say	-12731
▁vie	-12732
▁bakker	-12733
▁bevest	-12734
▁washed	-12735
▁pistool	-12736
▁Biologie	-12737
▁Samantha	-12738
▁perfecte	-12739
▁praktijk	-12740
航空	-12741
lem	-12742
▁Vr	-12743
十二月	-12744
oria	-12745
rank	-12746
▁Arn	-12747
▁Oma	-12748
▁Pet	-12749
▁Ref	-12750
andel	-12751
older	-12752
sting	-12753
▁gord	-12754
▁helm	-12755
▁wast	-12756
▁vijft	-12757
▁Perhaps	-12758
▁Vanavond	-12759
▁daarover	-12760
▁beschermd	-12761
▁verbranding	-12762
sw	-12763
在一	-12764
皮肤	-12765
空间	-12766
!'"	-12767
▁).	-12768
▁谢谢	-12769
iche	-12770
uten	-12771
▁foc	-12772
▁pit	-12773
▁zwe	-12774
oting	-12775
▁sale	-12776
▁Maakt	-12777
▁gaven	-12778
▁sigar	-12779
▁volks	-12780
▁whist	-12781
ebruari	-12782
▁sprong	-12783
▁Captain	-12784
▁gestorven	-12785
家的	-12786
bes	-12787
rid	-12788
▁hof	-12789
▁kub	-12790
▁lip	-12791
adden	-12792
omdat	-12793
ville	-12794
vlees	-12795
▁monn	-12796
entuin	-12797
▁Office	-12798
▁deuren	-12799
▁terror	-12800
▁travel	-12801
▁material	-12802
▁aanvallen	-12803
程度	-12804
别人的	-12805
新闻由	-12806
Weis	-12807
ebed	-12808
erkt	-12809
etta	-12810
▁Ban	-12811
Ellis	-12812
poort	-12813
stijd	-12814
▁lood	-12815
▁meld	-12816
▁stim	-12817
clears	-12818
Weismer	-12819
▁tentoon	-12820
▁vulkanen	-12821
▁ontbreken	-12822
新闻由南方都市报播报	-12823
EllisWeismer	-12824
▁bijbehorende	-12825
▁ontwikkelingen	-12826
IA	-12827
上去	-12828
意味	-12829
cod	-12830
▁dod	-12831
leden	-12832
ooper	-12833
pping	-12834
▁2015	-12835
▁keel	-12836
▁luck	-12837
▁pears	-12838
chester	-12839
▁liegen	-12840
▁sterft	-12841
▁vanilla	-12842
▁approach	-12843
▁beslissen	-12844
▁helicopter	-12845
▁schilderijen	-12846
GT	-12847
él	-12848
ags	-12849
▁["	-12850
▁ey	-12851
▁一定	-12852
▁特别	-12853
▁eth	-12854
cribe	-12855
▁Sher	-12856
▁behe	-12857
▁ener	-12858
▁jury	-12859
▁gewend	-12860
genodigd	-12861
▁circles	-12862
▁geluids	-12863
▁mailbox	-12864
狮子	-12865
理解	-12866
bee	-12867
orf	-12868
▁Amy	-12869
▁uns	-12870
culen	-12871
reads	-12872
kisses	-12873
▁frustr	-12874
▁zwakke	-12875
▁Daarbij	-12876
▁verwoest	-12877
▁chauffeur	-12878
▁continuous	-12879
安排	-12880
讲解	-12881
kru	-12882
dough	-12883
puter	-12884
zamer	-12885
▁Gods	-12886
▁unit	-12887
oningen	-12888
▁closet	-12889
▁kolonie	-12890
▁bestudeerd	-12891
▁Goedenavond	-12892
仍然	-12893
irk	-12894
mot	-12895
▁我在	-12896
▁Fox	-12897
▁paus	-12898
▁sloot	-12899
ilanden	-12900
▁kamers	-12901
▁kikker	-12902
▁taught	-12903
▁shampoo	-12904
▁twijfel	-12905
▁Secretary	-12906
▁instrument	-12907
ïne	-12908
▁--	-12909
opte	-12910
unks	-12911
ungle	-12912
▁Gold	-12913
▁Ruim	-12914
▁equal	-12915
▁sauce	-12916
▁helmet	-12917
▁schuur	-12918
▁verkle	-12919
cription	-12920
▁distance	-12921
▁incident	-12922
▁universiteit	-12923
vi	-12924
▁啊	-12925
不过	-12926
提出	-12927
男孩	-12928
▁Cr	-12929
宝贝们	-12930
▁Tod	-12931
antje	-12932
▁Gord	-12933
▁perm	-12934
▁vlug	-12935
▁Licht	-12936
▁gross	-12937
▁alvast	-12938
▁bleven	-12939
▁covers	-12940
▁seesaw	-12941
▁Conserv	-12942
▁natural	-12943
▁Waardoor	-12944
▁Waarvoor	-12945
▁voorstel	-12946
▁September	-12947
▁eigenschap	-12948
▁vasthouden	-12949
▁gevaarlijke	-12950
▁verplaatsen	-12951
财政	-12952
▁Arm	-12953
▁Bank	-12954
▁Naut	-12955
giving	-12956
inders	-12957
▁forms	-12958
▁grant	-12959
▁rusten	-12960
▁Greater	-12961
producten	-12962
▁positief	-12963
▁aardappel	-12964
▁wondering	-12965
▁literatuur	-12966
mu	-12967
verv	-12968
zaal	-12969
▁Bev	-12970
▁Jas	-12971
iemen	-12972
paste	-12973
▁Jake	-12974
▁snee	-12975
▁worm	-12976
Gelman	-12977
aseerd	-12978
hebben	-12979
▁atmos	-12980
▁bends	-12981
▁chees	-12982
▁squir	-12983
▁wings	-12984
esseerd	-12985
▁betoog	-12986
▁boring	-12987
▁credit	-12988
▁diplom	-12989
▁immers	-12990
▁Francis	-12991
▁dankzij	-12992
▁sweater	-12993
▁absoluut	-12994
▁magazine	-12995
▁original	-12996
▁aangepast	-12997
▁positieve	-12998
▁Tegenwoord	-12999
▁Onderstreep	-13000
▁fotosynthese	-13001
3,	-13002
▁八	-13003
▁爱	-13004
主动	-13005
赶紧	-13006
▁我觉得	-13007
haven	-13008
▁Vorm	-13009
▁bevr	-13010
▁mort	-13011
▁rich	-13012
▁2021-	-13013
▁Draai	-13014
▁Zeven	-13015
▁opmer	-13016
trekken	-13017
▁diverse	-13018
▁houding	-13019
▁lobster	-13020
▁geslagen	-13021
▁koloniën	-13022
▁woensdag	-13023
verzekering	-13024
▁dichterbij	-13025
**	-13026
AB	-13027
把它	-13028
的心	-13029
,50	-13030
gies	-13031
▁Boo	-13032
▁Sub	-13033
▁len	-13034
▁lic	-13035
print	-13036
▁aver	-13037
▁wond	-13038
buiten	-13039
esteit	-13040
▁Geeft	-13041
▁nerve	-13042
▁France	-13043
▁Hannah	-13044
▁dubbel	-13045
▁glazen	-13046
▁klasse	-13047
oldoende	-13048
▁levende	-13049
▁portret	-13050
▁gescheiden	-13051
Nu	-13052
青蛙	-13053
▁小熊	-13054
bbel	-13055
okes	-13056
uile	-13057
▁Chr	-13058
▁afb	-13059
dicht	-13060
▁Eens	-13061
▁Heren	-13062
▁inged	-13063
▁relax	-13064
▁prettig	-13065
▁uitziet	-13066
▁vleugels	-13067
▁referring	-13068
▁uitgenodigd	-13069
▁belangrijker	-13070
▁concentratie	-13071
▁construction	-13072
▁introduction	-13073
▁nieuwsgierig	-13074
推进	-13075
ili	-13076
wee	-13077
atic	-13078
▁hah	-13079
有限公司	-13080
appar	-13081
▁bicycle	-13082
▁heleboel	-13083
)"	-13084
事件	-13085
疫苗	-13086
ilj	-13087
wns	-13088
▁Fe	-13089
▁Hy	-13090
mper	-13091
wijd	-13092
▁"""	-13093
▁lux	-13094
Inter	-13095
zeren	-13096
▁Jong	-13097
▁Name	-13098
bureau	-13099
inking	-13100
kennis	-13101
stukken	-13102
zigheid	-13103
▁plants	-13104
▁varken	-13105
▁gevolgd	-13106
▁brothers	-13107
▁scissors	-13108
之外	-13109
让你	-13110
▁Ts	-13111
就这些	-13112
uary	-13113
rolls	-13114
▁Hoewel	-13115
▁Klimaat	-13116
▁groente	-13117
schrijven	-13118
▁friendly	-13119
▁meetings	-13120
▁reacties	-13121
▁procedure	-13122
▁uiterlijk	-13123
▁zelfmoord	-13124
▁Olympische	-13125
▁ecosysteem	-13126
▁aanwijzingen	-13127
担心	-13128
ios	-13129
▁就像	-13130
意味着	-13131
▁Law	-13132
▁2018	-13133
undaire	-13134
▁impact	-13135
▁reduct	-13136
▁healthy	-13137
▁progress	-13138
▁shoulders	-13139
▁西	-13140
当地	-13141
持股	-13142
流入	-13143
科创	-13144
轻轻	-13145
▁5:	-13146
▁Ash	-13147
clown	-13148
groei	-13149
isjes	-13150
▁asks	-13151
▁bone	-13152
▁stre	-13153
elende	-13154
▁south	-13155
getrouw	-13156
▁Steeds	-13157
▁became	-13158
▁hierin	-13159
▁integr	-13160
▁versche	-13161
▁familiar	-13162
▁hopefully	-13163
▁aardbeving	-13164
4-	-13165
开发	-13166
死亡	-13167
▁二十	-13168
/010	-13169
that	-13170
▁Sky	-13171
eenth	-13172
insdag	-13173
▁Anton	-13174
▁ontpl	-13175
▁verbr	-13176
honderd	-13177
▁hersen	-13178
▁killed	-13179
▁lening	-13180
▁sausage	-13181
▁spijsver	-13182
▁agreement	-13183
▁persoonsvormen	-13184
99	-13185
oi	-13186
不想	-13187
共同	-13188
量的	-13189
sex	-13190
▁''	-13191
bour	-13192
employ	-13193
▁Prins	-13194
▁alive	-13195
▁dolph	-13196
▁ordin	-13197
▁yucky	-13198
▁今天的故事	-13199
talking	-13200
▁analys	-13201
▁supply	-13202
▁logboek	-13203
Duitsland	-13204
▁contribut	-13205
▁spaceship	-13206
▁Downloaden	-13207
▁Welterusten	-13208
▁taalgebruik	-13209
人们	-13210
时的	-13211
itude	-13212
omers	-13213
onade	-13214
▁Flor	-13215
▁subs	-13216
▁trok	-13217
▁basic	-13218
▁augustus	-13219
▁stuifmeel	-13220
▁protection	-13221
▁stellingen	-13222
女孩	-13223
感到	-13224
面的	-13225
hoop	-13226
▁Sen	-13227
▁led	-13228
ashed	-13229
▁lijm	-13230
▁ruff	-13231
▁stab	-13232
▁Grond	-13233
▁Louis	-13234
▁Marsh	-13235
▁uhhum	-13236
▁People	-13237
▁manage	-13238
▁policies	-13239
▁resources	-13240
▁verbouwen	-13241
fortunately	-13242
bijvoorbeeld	-13243
星期	-13244
点儿	-13245
▁截止	-13246
ario	-13247
▁Zes	-13248
elten	-13249
▁Cody	-13250
▁Mont	-13251
▁Wood	-13252
ouwing	-13253
ruimen	-13254
▁huish	-13255
▁talen	-13256
reading	-13257
▁omlaag	-13258
▁spirit	-13259
▁bottles	-13260
▁weleens	-13261
ification	-13262
▁bothered	-13263
▁parlement	-13264
▁vliegtuigen	-13265
▁hoofdletters	-13266
▁responsibility	-13267
JE	-13268
▁马	-13269
一条	-13270
欧洲	-13271
▁SI	-13272
chte	-13273
deur	-13274
▁His	-13275
▁Didn	-13276
▁penn	-13277
ruimte	-13278
▁appre	-13279
▁willn	-13280
vorming	-13281
▁podium	-13282
▁recensie	-13283
▁discrimin	-13284
▁spelletje	-13285
oden	-13286
spro	-13287
schak	-13288
▁Dist	-13289
▁goal	-13290
▁tryin	-13291
wekkend	-13292
▁paleis	-13293
▁pickle	-13294
▁stapel	-13295
beginsel	-13296
▁science	-13297
▁balloons	-13298
▁reageert	-13299
▁origineel	-13300
▁conditions	-13301
▁automatisch	-13302
一家	-13303
▁有些	-13304
的生活	-13305
▁Bir	-13306
▁eit	-13307
overs	-13308
▁Care	-13309
▁harm	-13310
▁Graag	-13311
▁March	-13312
▁advis	-13313
erences	-13314
▁hogere	-13315
▁specif	-13316
▁horloge	-13317
▁nauwkeurig	-13318
害怕	-13319
是个	-13320
注册	-13321
流动	-13322
▁192	-13323
▁Fant	-13324
▁zette	-13325
achines	-13326
▁Winnie	-13327
▁assess	-13328
▁sheriff	-13329
▁pancakes	-13330
▁berichten	-13331
▁officieel	-13332
▁verdwijnt	-13333
▁Councillor	-13334
▁ontzettend	-13335
zu	-13336
天的	-13337
是我	-13338
要和	-13339
资源	-13340
igar	-13341
▁Wol	-13342
atlas	-13343
stoel	-13344
▁2019	-13345
▁Kerk	-13346
▁deer	-13347
▁sque	-13348
▁Colle	-13349
▁afger	-13350
▁knocks	-13351
ificatie	-13352
▁indepen	-13353
▁message	-13354
▁rapport	-13355
▁Gisteren	-13356
▁spending	-13357
pronounced	-13358
▁Selecteer	-13359
▁gesprekje	-13360
▁greenbelt	-13361
▁uitvinding	-13362
▁watermelon	-13363
趋势	-13364
▁37	-13365
▁那你	-13366
十五点	-13367
▁Fat	-13368
sharp	-13369
▁tied	-13370
▁bruin	-13371
ikaanse	-13372
▁Chicago	-13373
▁Perfect	-13374
▁aspecten	-13375
▁geoefend	-13376
▁vervoeren	-13377
▁production	-13378
▁放	-13379
不可	-13380
再次	-13381
耳朵	-13382
▁自己	-13383
ques	-13384
zint	-13385
▁Moh	-13386
arden	-13387
▁2010	-13388
▁meas	-13389
ording	-13390
▁Again	-13391
▁maart	-13392
▁astron	-13393
▁diaper	-13394
▁factor	-13395
▁oefent	-13396
▁skills	-13397
▁vaders	-13398
▁voices	-13399
▁karakter	-13400
▁honderden	-13401
95	-13402
ël	-13403
之下	-13404
二号	-13405
四个	-13406
von	-13407
▁本次	-13408
给大家	-13409
boog	-13410
▁Vir	-13411
imale	-13412
risis	-13413
▁nast	-13414
▁Beste	-13415
▁liegt	-13416
▁piram	-13417
▁thick	-13418
▁vormt	-13419
▁houten	-13420
▁koffer	-13421
▁parrot	-13422
▁Hoelang	-13423
▁nakijken	-13424
▁occasion	-13425
▁klassieke	-13426
▁bijvoeglijke	-13427
mt	-13428
zt	-13429
一位	-13430
.00	-13431
▁38	-13432
bage	-13433
ammed	-13434
illes	-13435
ource	-13436
▁From	-13437
▁Haag	-13438
▁Plan	-13439
▁Spen	-13440
▁spul	-13441
ikkers	-13442
▁bijeen	-13443
▁potlood	-13444
▁wedding	-13445
▁voedselk	-13446
相对	-13447
网上	-13448
eme	-13449
▁Kay	-13450
▁tut	-13451
阅读我是	-13452
adres	-13453
folio	-13454
▁Wort	-13455
▁heus	-13456
opbouw	-13457
▁Pract	-13458
▁bubble	-13459
▁wijzen	-13460
▁beroeps	-13461
▁donkere	-13462
▁mistake	-13463
▁controleer	-13464
▁organiseren	-13465
形成	-13466
财富	-13467
▁才能	-13468
rond	-13469
▁Oct	-13470
▁Zei	-13471
▁Iron	-13472
▁Vuur	-13473
aarden	-13474
ertjes	-13475
father	-13476
▁comin	-13477
▁eaten	-13478
▁humor	-13479
▁stads	-13480
▁drinkt	-13481
▁eeuwig	-13482
▁package	-13483
▁sporten	-13484
▁december	-13485
听见	-13486
▁宝宝	-13487
▁有人	-13488
rekt	-13489
▁Hat	-13490
▁Mid	-13491
eless	-13492
zoals	-13493
▁dirt	-13494
▁grey	-13495
▁kart	-13496
geleid	-13497
▁giant	-13498
▁landed	-13499
▁lollip	-13500
▁metaal	-13501
▁minste	-13502
▁pepper	-13503
▁strugg	-13504
▁primaire	-13505
▁schattig	-13506
▁doelgroep	-13507
▁exercises	-13508
▁sweetheart	-13509
▁verschijnt	-13510
-0	-13511
OW	-13512
下午	-13513
周期	-13514
品牌	-13515
好像	-13516
法院	-13517
zik	-13518
cycl	-13519
usie	-13520
▁zip	-13521
▁happ	-13522
▁zwer	-13523
▁koelk	-13524
richten	-13525
▁passag	-13526
▁termin	-13527
uitenant	-13528
▁advance	-13529
▁drankje	-13530
▁kwestie	-13531
▁colleagues	-13532
▁photograph	-13533
▁zogenaamde	-13534
▁slachtoffer	-13535
▁曾	-13536
还要	-13537
都要	-13538
cue	-13539
coll	-13540
▁Oom	-13541
eders	-13542
genen	-13543
▁oost	-13544
mannen	-13545
▁drawn	-13546
▁shelf	-13547
fabriek	-13548
▁Bewaar	-13549
▁posters	-13550
▁democrat	-13551
▁Wikipedia	-13552
▁militaire	-13553
▁afgesloten	-13554
Al	-13555
▁打	-13556
刚刚	-13557
制度	-13558
办公	-13559
重要的	-13560
▁Seth	-13561
▁Soci	-13562
▁anno	-13563
▁daad	-13564
▁jeep	-13565
cyclus	-13566
▁categ	-13567
▁gekke	-13568
▁Person	-13569
▁walvis	-13570
▁washer	-13571
produces	-13572
▁bewaard	-13573
▁legenda	-13574
▁prevent	-13575
Hé	-13576
客户	-13577
gab	-13578
▁GE	-13579
▁Rel	-13580
▁bok	-13581
ledge	-13582
▁boel	-13583
blazen	-13584
waarts	-13585
▁genen	-13586
▁homes	-13587
▁jaart	-13588
▁stays	-13589
ination	-13590
vechten	-13591
▁August	-13592
▁Willen	-13593
▁aanpak	-13594
▁detect	-13595
▁tastes	-13596
▁gezeten	-13597
▁beveilig	-13598
▁openbaar	-13599
▁vannacht	-13600
▁extremely	-13601
NT	-13602
▁出	-13603
内的	-13604
舒服	-13605
董事	-13606
host	-13607
iast	-13608
ikes	-13609
umps	-13610
▁Our	-13611
▁[.5	-13612
▁gan	-13613
▁peg	-13614
▁grie	-13615
closes	-13616
entjes	-13617
rijksk	-13618
▁joint	-13619
▁Walter	-13620
▁beslist	-13621
▁envelop	-13622
▁hielden	-13623
▁reports	-13624
▁troepen	-13625
▁vermeld	-13626
▁Scotland	-13627
▁aanwijzen	-13628
▁tegenhouden	-13629
▁Universiteit	-13630
▁voorzieningen	-13631
得很	-13632
ohn	-13633
▁感谢	-13634
vaar	-13635
▁nor	-13636
Roman	-13637
▁opzij	-13638
elefoon	-13639
▁Moeten	-13640
▁ergste	-13641
▁drukken	-13642
chnologie	-13643
▁fantasie	-13644
▁handelen	-13645
▁bewegingen	-13646
▁plotseling	-13647
▁consumenten	-13648
▁安	-13649
同期	-13650
哪儿	-13651
就能	-13652
现场	-13653
▁4,	-13654
▁lui	-13655
▁unt	-13656
acing	-13657
▁atta	-13658
▁roze	-13659
▁stew	-13660
▁vroe	-13661
▁Holly	-13662
▁Shall	-13663
▁foute	-13664
▁gliml	-13665
▁zocht	-13666
▁extent	-13667
▁drijven	-13668
▁opinion	-13669
▁exciting	-13670
▁vermogen	-13671
▁medeleerling	-13672
不见	-13673
好吗	-13674
ivil	-13675
▁Est	-13676
▁ihr	-13677
▁nul	-13678
▁Rose	-13679
▁blijk	-13680
▁getra	-13681
▁sniff	-13682
▁calcul	-13683
sverslag	-13684
▁Energie	-13685
▁stijgen	-13686
▁oorspron	-13687
▁partners	-13688
▁industrial	-13689
▁koninkrijk	-13690
▁ondersteun	-13691
▁reasonable	-13692
▁verdrietig	-13693
▁communistische	-13694
▁energiebronnen	-13695
▁onderzoeksvraag	-13696
Br	-13697
感情	-13698
智慧	-13699
核心	-13700
SLI	-13701
▁主要	-13702
▁Fro	-13703
Point	-13704
▁crazy	-13705
▁fijne	-13706
▁firet	-13707
▁koers	-13708
▁typen	-13709
▁vorig	-13710
▁appels	-13711
▁biggest	-13712
▁trailer	-13713
▁uitgest	-13714
▁onafhank	-13715
不少	-13716
突破	-13717
限制	-13718
▁NI	-13719
十一月	-13720
kels	-13721
pupp	-13722
ommer	-13723
rokod	-13724
▁mini	-13725
▁tiss	-13726
▁fifth	-13727
▁spion	-13728
▁wraak	-13729
▁branch	-13730
▁workers	-13731
▁touching	-13732
▁westerse	-13733
▁letterlijk	-13734
尤其	-13735
段时间	-13736
isse	-13737
kunst	-13738
ockey	-13739
umably	-13740
▁leuker	-13741
▁reminds	-13742
▁schouder	-13743
▁verzamel	-13744
▁rechthoek	-13745
▁intonation	-13746
▁pocketbook	-13747
▁schoonheid	-13748
几天	-13749
刚才	-13750
RUS	-13751
▁上海	-13752
▁未来	-13753
▁Str	-13754
▁nuh	-13755
etera	-13756
stijl	-13757
zones	-13758
▁CHIs	-13759
▁bake	-13760
▁bijl	-13761
▁kann	-13762
▁mike	-13763
▁beled	-13764
▁hokje	-13765
▁makin	-13766
▁Daarin	-13767
▁kandid	-13768
▁diamond	-13769
alisering	-13770
▁november	-13771
▁Groningen	-13772
▁dierentuin	-13773
▁immediately	-13774
▁bovenstaande	-13775
TO	-13776
七年	-13777
说我	-13778
aast	-13779
uzzy	-13780
▁tal	-13781
▁ages	-13782
elland	-13783
social	-13784
▁hardly	-13785
▁series	-13786
▁carrière	-13787
▁climbing	-13788
▁woordjes	-13789
▁operation	-13790
▁significant	-13791
▁以上新闻由南方都市报播报	-13792
RR	-13793
零售	-13794
rig	-13795
down	-13796
▁Tar	-13797
▁Rode	-13798
▁mand	-13799
▁teams	-13800
werkend	-13801
▁Future	-13802
▁afmaken	-13803
▁Tuurlijk	-13804
▁Onderwerp	-13805
▁bestanden	-13806
▁schrijvers	-13807
▁voorbereiding	-13808
▁王	-13809
从来	-13810
肚子	-13811
zem	-13812
一点儿	-13813
cken	-13814
▁Hav	-13815
▁sin	-13816
itive	-13817
▁duik	-13818
▁male	-13819
▁seal	-13820
aatsen	-13821
▁bacon	-13822
▁crawl	-13823
▁nucle	-13824
▁schel	-13825
▁lawaai	-13826
▁levels	-13827
▁phoned	-13828
omgeving	-13829
▁prehist	-13830
▁verliest	-13831
▁vrouwelijke	-13832
▁slachtoffers	-13833
扩大	-13834
lok	-13835
bird	-13836
eler	-13837
▁Tab	-13838
▁Bond	-13839
▁lust	-13840
▁stro	-13841
▁Febru	-13842
▁marks	-13843
▁plank	-13844
▁trust	-13845
▁Oceaan	-13846
▁center	-13847
▁circum	-13848
▁kanker	-13849
▁octopus	-13850
▁Ongeveer	-13851
▁evenveel	-13852
▁februari	-13853
▁ophouden	-13854
▁toevoegen	-13855
omstandigheden	-13856
▁wetenschappers	-13857
有望	-13858
用的	-13859
股权	-13860
hun	-13861
kte	-13862
▁bib	-13863
为百分之	-13864
bleem	-13865
▁Ruth	-13866
▁hert	-13867
▁rope	-13868
▁tone	-13869
▁zeep	-13870
▁After	-13871
▁Sammy	-13872
▁verse	-13873
▁Thirty	-13874
▁rommel	-13875
▁achieve	-13876
▁average	-13877
▁schapen	-13878
ultaneous	-13879
▁whispers	-13880
▁uitzonder	-13881
▁conference	-13882
▁toothbrush	-13883
▁zwangerschap	-13884
吃的	-13885
在了	-13886
说你	-13887
Gen	-13888
▁Cat	-13889
erson	-13890
▁Geoff	-13891
▁komma	-13892
▁repet	-13893
▁tekens	-13894
▁herhaal	-13895
▁ketting	-13896
▁tweeling	-13897
Ga	-13898
▁李	-13899
快递	-13900
All	-13901
▁(3	-13902
▁你的	-13903
▁Sof	-13904
▁gru	-13905
▁nar	-13906
▁Lynn	-13907
orrels	-13908
▁Jones	-13909
▁Oscar	-13910
▁Raven	-13911
▁helik	-13912
▁joden	-13913
▁kelder	-13914
▁surely	-13915
▁vermen	-13916
namelijk	-13917
▁vuilnis	-13918
▁including	-13919
'!	-13920
刺激	-13921
逐渐	-13922
LLL	-13923
ask	-13924
ros	-13925
tle	-13926
超过了	-13927
aamd	-13928
▁Erg	-13929
armen	-13930
▁July	-13931
atoren	-13932
▁Cheer	-13933
▁raket	-13934
▁gepakt	-13935
▁locked	-13936
▁remove	-13937
▁install	-13938
▁machtig	-13939
▁homework	-13940
▁lollipop	-13941
▁越	-13942
亏损	-13943
就业	-13944
长的	-13945
esc	-13946
itz	-13947
▁Ly	-13948
▁Wo	-13949
ieur	-13950
▁Fel	-13951
▁sis	-13952
▁Neil	-13953
▁cord	-13954
▁slee	-13955
▁tran	-13956
▁lente	-13957
▁plums	-13958
▁duivel	-13959
▁mister	-13960
rekening	-13961
▁enjoyed	-13962
▁matters	-13963
▁absolute	-13964
▁aanbieden	-13965
▁katholieke	-13966
▁slaapkamer	-13967
▁buitenlandse	-13968
▁voedselketen	-13969
一边	-13970
做的	-13971
儿童	-13972
问好	-13973
elta	-13974
▁Ell	-13975
▁nuts	-13976
▁欢迎打开	-13977
eleven	-13978
▁Voort	-13979
▁finds	-13980
babbles	-13981
▁Albert	-13982
▁tekent	-13983
▁behaald	-13984
▁gemeent	-13985
▁gepraat	-13986
▁kolommen	-13987
▁verbanden	-13988
JJ	-13989
他人	-13990
edt	-13991
yed	-13992
▁ic	-13993
lift	-13994
▁PCI	-13995
ublic	-13996
▁gunst	-13997
formule	-13998
▁bananas	-13999
▁breedte	-14000
▁Antwoord	-14001
▁erfelijke	-14002
▁Leervragen	-14003
▁overstromingen	-14004
机制	-14005
他们的	-14006
▁hyp	-14007
imate	-14008
pleeg	-14009
▁Stad	-14010
▁keur	-14011
▁slip	-14012
imburg	-14013
staten	-14014
▁Aarde	-14015
▁Bailey	-14016
▁maximum	-14017
▁pouring	-14018
▁stuurde	-14019
bevolking	-14020
▁verdieping	-14021
▁biologische	-14022
买入	-14023
战略	-14024
新高	-14025
ène	-14026
▁Cy	-14027
some	-14028
▁1945	-14029
▁heat	-14030
ilatie	-14031
▁flauw	-14032
▁satis	-14033
▁Hierin	-14034
▁Pracht	-14035
▁aanget	-14036
▁forest	-14037
▁mooier	-14038
▁status	-14039
▁ticket	-14040
▁Hiermee	-14041
▁Spelling	-14042
▁benefits	-14043
▁ordinary	-14044
▁stickers	-14045
▁interpret	-14046
CT	-14047
emp	-14048
hre	-14049
pop	-14050
▁py	-14051
hond	-14052
▁cas	-14053
▁veh	-14054
geten	-14055
itaal	-14056
▁Hulp	-14057
▁luid	-14058
▁亲爱的小	-14059
binnen	-14060
▁Wales	-14061
▁serie	-14062
diagram	-14063
▁season	-14064
▁normale	-14065
▁examines	-14066
▁papieren	-14067
▁overkomen	-14068
▁moeilijker	-14069
▁aangevallen	-14070
-7	-14071
ME	-14072
▁走	-14073
力量	-14074
就在	-14075
所以	-14076
检查	-14077
cep	-14078
lab	-14079
turn	-14080
ziet	-14081
▁Ram	-14082
▁thre	-14083
▁Joost	-14084
▁Texas	-14085
▁durft	-14086
▁Intern	-14087
▁managed	-14088
▁ontsnapt	-14089
▁operatie	-14090
▁Paragraaf	-14091
▁deelonder	-14092
▁Griekenland	-14093
住房	-14094
兄弟	-14095
全面	-14096
合计	-14097
GRF	-14098
aya	-14099
top	-14100
▁65	-14101
▁gif	-14102
▁risk	-14103
ricult	-14104
▁Allen	-14105
▁heads	-14106
▁seeds	-14107
▁filled	-14108
▁impress	-14109
Interview	-14110
▁verbranden	-14111
▁发	-14112
▁山	-14113
行的	-14114
让我	-14115
▁Jen	-14116
▁Mit	-14117
▁Vel	-14118
▁fys	-14119
▁gee	-14120
aarde	-14121
igvuld	-14122
witten	-14123
▁broom	-14124
elletje	-14125
estival	-14126
▁commit	-14127
▁vooraf	-14128
▁Fransen	-14129
▁lesboek	-14130
▁ringing	-14131
▁District	-14132
▁beantwoordt	-14133
▁onafhankelijk	-14134
▁geïnteresseerd	-14135
▁overzichtelijk	-14136
lad	-14137
▁EN	-14138
分析师	-14139
acks	-14140
inct	-14141
resp	-14142
becca	-14143
▁Kees	-14144
▁kidd	-14145
▁veer	-14146
direct	-14147
▁Freud	-14148
▁Radio	-14149
▁chalk	-14150
▁oogst	-14151
▁Dennis	-14152
▁Stefan	-14153
▁target	-14154
▁zevent	-14155
▁StudioW	-14156
▁setting	-14157
▁trainen	-14158
▁whining	-14159
▁opstellen	-14160
▁verborgen	-14161
▁voetafdruk	-14162
NL	-14163
一看	-14164
国藩	-14165
?'"	-14166
allo	-14167
▁[1.2	-14168
▁horn	-14169
▁scen	-14170
▁Jason	-14171
▁fault	-14172
▁index	-14173
▁jumps	-14174
organen	-14175
stekend	-14176
▁Oliver	-14177
▁herfst	-14178
▁script	-14179
▁enkelvoud	-14180
▁historische	-14181
操作	-14182
是你	-14183
有了	-14184
考试	-14185
orb	-14186
▁flu	-14187
▁二零一	-14188
hoorn	-14189
▁surv	-14190
▁chain	-14191
▁bakken	-14192
entially	-14193
▁tickets	-14194
▁horizont	-14195
▁maaltijd	-14196
▁whenever	-14197
▁zonlicht	-14198
▁Belangrijk	-14199
▁onderzocht	-14200
▁revolution	-14201
▁Tegenwoordig	-14202
▁东	-14203
四千	-14204
快速	-14205
▁00	-14206
的文章	-14207
roud	-14208
▁Cel	-14209
▁gig	-14210
pause	-14211
place	-14212
▁Druk	-14213
▁Naam	-14214
▁chin	-14215
▁banen	-14216
▁toven	-14217
▁method	-14218
▁oudste	-14219
▁playin	-14220
▁screen	-14221
espiegel	-14222
▁becomes	-14223
▁eronder	-14224
▁hierdoor	-14225
▁relationship	-14226
公共	-14227
十年	-14228
多数	-14229
母亲	-14230
kou	-14231
是因为	-14232
Geen	-14233
▁Day	-14234
▁Wim	-14235
▁gezel	-14236
draaien	-14237
▁breekt	-14238
▁Doordat	-14239
▁Nothing	-14240
▁coördin	-14241
▁sociaal	-14242
▁agricult	-14243
▁economic	-14244
▁gestoord	-14245
▁voortdur	-14246
取得	-14247
呼吸	-14248
▁因此	-14249
00,-	-14250
bbie	-14251
heim	-14252
plic	-14253
▁Boek	-14254
▁weig	-14255
▁wine	-14256
arters	-14257
rijpen	-14258
▁roads	-14259
▁Israël	-14260
▁bruine	-14261
▁gelijke	-14262
▁kritiek	-14263
▁opkomst	-14264
▁unclear	-14265
▁varkens	-14266
▁begrafen	-14267
▁vruchten	-14268
▁vriendschap	-14269
Pl	-14270
▁唉	-14271
联系	-14272
alie	-14273
ynam	-14274
bloed	-14275
keers	-14276
onald	-14277
urken	-14278
▁chat	-14279
▁Offic	-14280
▁weder	-14281
▁ademen	-14282
▁schoot	-14283
ologisch	-14284
▁challen	-14285
▁majority	-14286
▁verstandig	-14287
OO	-14288
tv	-14289
以前	-14290
利用	-14291
吃饭	-14292
ête	-14293
▁Sw	-14294
▁值得	-14295
skar	-14296
spre	-14297
▁syn	-14298
jamas	-14299
oorde	-14300
shake	-14301
ulsen	-14302
voren	-14303
▁emer	-14304
▁gaaf	-14305
aarwel	-14306
enters	-14307
▁Larry	-14308
▁ramen	-14309
plieden	-14310
▁appreci	-14311
▁dringen	-14312
▁Internet	-14313
▁basissch	-14314
▁verwijst	-14315
▁werkelijk	-14316
▁zakelijke	-14317
1/	-14318
▁↫	-14319
区域	-14320
▁最终	-14321
iool	-14322
ique	-14323
▁taf	-14324
nings	-14325
▁Hill	-14326
▁beet	-14327
▁sect	-14328
▁我们下期	-14329
▁Diana	-14330
▁grabb	-14331
▁hormonen	-14332
▁inmiddels	-14333
▁verzameling	-14334
▁vriendinnen	-14335
4,	-14336
Le	-14337
五号	-14338
bum	-14339
fon	-14340
...'	-14341
Child	-14342
▁Show	-14343
▁trav	-14344
tended	-14345
▁Chief	-14346
▁Julie	-14347
▁Miche	-14348
▁puber	-14349
▁shock	-14350
▁troep	-14351
central	-14352
▁akkers	-14353
▁cheque	-14354
▁feesten	-14355
▁follows	-14356
geschoten	-14357
▁gebruikten	-14358
十四	-14359
aks	-14360
▁狐狸	-14361
▁Whe	-14362
▁aer	-14363
▁Democ	-14364
▁irrit	-14365
ignment	-14366
▁besloot	-14367
▁lekkere	-14368
▁plakken	-14369
▁popular	-14370
▁vermoed	-14371
▁selectie	-14372
▁chocolade	-14373
▁gebaseerd	-14374
▁verwijderen	-14375
▁第	-14376
公主	-14377
及时	-14378
工程	-14379
Laat	-14380
team	-14381
▁-->	-14382
▁opv	-14383
▁fear	-14384
▁trui	-14385
rijgen	-14386
▁Waren	-14387
▁drove	-14388
▁loved	-14389
▁opged	-14390
▁raise	-14391
▁scare	-14392
▁spoke	-14393
melding	-14394
▁Portug	-14395
▁blanke	-14396
▁modder	-14397
▁January	-14398
▁Patrick	-14399
▁verlaat	-14400
▁crackers	-14401
▁geluiden	-14402
▁PowerPoint	-14403
▁volwassenen	-14404
▁tentoonstelling	-14405
▁特	-14406
会上	-14407
你好	-14408
六千	-14409
早餐	-14410
CHT	-14411
▁人民	-14412
ivia	-14413
▁Hug	-14414
▁obs	-14415
▁sil	-14416
▁...;	-14417
▁Germ	-14418
▁Plak	-14419
pakket	-14420
speler	-14421
▁bangs	-14422
▁commer	-14423
gedrukte	-14424
schieten	-14425
▁woordenschat	-14426
IL	-14427
pé	-14428
确实	-14429
▁Ac	-14430
cker	-14431
▁Veg	-14432
▁tum	-14433
▁西安市	-14434
helps	-14435
icket	-14436
▁Roos	-14437
▁coke	-14438
▁flip	-14439
▁rais	-14440
▁bruid	-14441
elijkse	-14442
▁uitbre	-14443
diensten	-14444
▁nursery	-14445
▁stammen	-14446
▁penvriend	-14447
gelegenheid	-14448
▁toegevoegd	-14449
SB	-14450
医学	-14451
系列	-14452
▁fam	-14453
leans	-14454
oorts	-14455
▁Were	-14456
▁neut	-14457
▁zaal	-14458
▁imper	-14459
▁shoel	-14460
▁tough	-14461
▁bezitt	-14462
▁flinke	-14463
schoenen	-14464
▁scooter	-14465
▁February	-14466
▁algemene	-14467
▁geselect	-14468
▁jaarlijk	-14469
▁forgotten	-14470
▁zekerheid	-14471
▁StudioWozzol	-14472
万人	-14473
让人	-14474
acu	-14475
cke	-14476
fth	-14477
▁我也	-14478
zond	-14479
▁Hum	-14480
icked	-14481
▁Hung	-14482
▁sein	-14483
▁今晚就和	-14484
roting	-14485
▁boats	-14486
▁embry	-14487
▁icoon	-14488
▁prest	-14489
▁cooked	-14490
gebroken	-14491
▁agenten	-14492
▁geweten	-14493
▁pattern	-14494
▁snowman	-14495
▁avontuur	-14496
▁bovenaan	-14497
▁grafieken	-14498
▁verzameld	-14499
成立	-14500
提前	-14501
ibt	-14502
lie	-14503
rix	-14504
▁结果	-14505
iaal	-14506
▁Mill	-14507
energie	-14508
▁Vanuit	-14509
▁airport	-14510
▁cadeaut	-14511
▁consequ	-14512
▁parkeer	-14513
▁circumst	-14514
▁gedichten	-14515
▁vliegveld	-14516
▁Afbeelding	-14517
II	-14518
竞争	-14519
网友	-14520
陪你	-14521
面临	-14522
but	-14523
▁wi	-14524
▁Post	-14525
ffende	-14526
wongen	-14527
▁Volks	-14528
▁autor	-14529
▁schut	-14530
▁zuster	-14531
▁Rebecca	-14532
▁gemeten	-14533
▁determin	-14534
▁stroming	-14535
▁直	-14536
不仅	-14537
现象	-14538
那里	-14539
pass	-14540
rive	-14541
ituut	-14542
▁Most	-14543
roepen	-14544
▁kroon	-14545
▁sixth	-14546
▁steel	-14547
ementen	-14548
▁crocod	-14549
▁energy	-14550
▁gelegd	-14551
▁gevuld	-14552
▁grijze	-14553
▁mijnheer	-14554
▁increasing	-14555
▁environmental	-14556
电视	-14557
una	-14558
▁AB	-14559
▁也许	-14560
▁广州	-14561
▁ere	-14562
确诊病例	-14563
ivier	-14564
▁Daan	-14565
▁Rand	-14566
▁blah	-14567
▁Kaart	-14568
▁Links	-14569
▁Seven	-14570
▁losse	-14571
▁sneak	-14572
▁cheeseb	-14573
▁Sommigen	-14574
▁uitkomst	-14575
▁opgegeten	-14576
▁花	-14577
小心	-14578
让他	-14579
tel	-14580
guin	-14581
▁dev	-14582
▁glo	-14583
amers	-14584
▁1500	-14585
▁doss	-14586
▁logo	-14587
▁moer	-14588
▁viss	-14589
making	-14590
▁Polit	-14591
▁schon	-14592
▁Filips	-14593
▁padden	-14594
▁fishing	-14595
▁genezen	-14596
▁expected	-14597
▁bijgehouden	-14598
▁hoofdpersoon	-14599
▁连	-14600
DEN	-14601
▁已经	-14602
变成了	-14603
snee	-14604
▁Rec	-14605
▁[.9	-14606
▁或者是	-14607
▁Long	-14608
▁army	-14609
▁poet	-14610
▁poot	-14611
▁skat	-14612
▁stal	-14613
▁torn	-14614
▁南都记者	-14615
member	-14616
ulling	-14617
▁Quite	-14618
▁Still	-14619
▁omgek	-14620
ellende	-14621
kissing	-14622
▁Wilson	-14623
▁advant	-14624
▁bedekt	-14625
▁belast	-14626
▁fridge	-14627
▁helden	-14628
▁rights	-14629
aadpleegd	-14630
▁Kerstmis	-14631
▁Noordpool	-14632
▁whispered	-14633
▁secundaire	-14634
▁Verderkijker	-14635
▁➜	-14636
建立	-14637
温暖	-14638
hua	-14639
tige	-14640
▁phr	-14641
▁slu	-14642
▁Meen	-14643
▁Merc	-14644
▁Onth	-14645
▁alph	-14646
▁rots	-14647
▁gedoe	-14648
▁Church	-14649
▁koppel	-14650
▁vielen	-14651
▁waters	-14652
criteria	-14653
▁Germany	-14654
▁inzicht	-14655
▁aandelen	-14656
▁beschrijft	-14657
▁employment	-14658
▁verzekering	-14659
我国	-14660
推荐	-14661
维持	-14662
萝卜	-14663
oln	-14664
like	-14665
▁Bry	-14666
▁Gek	-14667
attle	-14668
ufact	-14669
▁nach	-14670
▁Cliff	-14671
▁Liber	-14672
▁Maybe	-14673
▁Mocht	-14674
▁Woody	-14675
▁eikel	-14676
meester	-14677
rekking	-14678
▁Atlant	-14679
▁Jackie	-14680
▁Listen	-14681
▁ingest	-14682
▁katoen	-14683
▁sticky	-14684
standige	-14685
struatie	-14686
▁mobiele	-14687
belasting	-14688
▁koelkast	-14689
▁gevochten	-14690
▁comfortable	-14691
72	-14692
哪些	-14693
将会	-14694
白兔	-14695
STAP	-14696
doll	-14697
ofte	-14698
oodse	-14699
▁Euro	-14700
▁admin	-14701
▁faith	-14702
▁fuzzy	-14703
▁strak	-14704
▁verwerk	-14705
▁kleinere	-14706
microphone	-14707
▁oppervlak	-14708
▁mannelijke	-14709
Kl	-14710
▁六	-14711
▁张	-14712
人数	-14713
探索	-14714
西瓜	-14715
pie	-14716
▁孩子	-14717
中医的	-14718
leen	-14719
wijf	-14720
▁Dam	-14721
▁Dok	-14722
▁Haw	-14723
loopt	-14724
▁Ricky	-14725
▁campa	-14726
▁gemen	-14727
▁weers	-14728
▁opeten	-14729
▁zomers	-14730
▁tweetal	-14731
▁toestand	-14732
▁vijftien	-14733
▁activities	-14734
▁grondwater	-14735
▁uitgebreid	-14736
▁voorzetsel	-14737
▁Verschillende	-14738
▁werkwoordelijk	-14739
▁创	-14740
我就	-14741
jer	-14742
lse	-14743
以来的	-14744
ancy	-14745
clam	-14746
sets	-14747
show	-14748
ether	-14749
model	-14750
▁Greg	-14751
arrest	-14752
istent	-14753
▁Roger	-14754
▁ladyb	-14755
▁nakom	-14756
izigers	-14757
▁donkey	-14758
▁gitaar	-14759
▁Marokko	-14760
▁Vrouwen	-14761
▁barrels	-14762
▁locatie	-14763
▁existing	-14764
▁disappear	-14765
▁investment	-14766
▁opschrijven	-14767
▁tegenstelling	-14768
wo	-14769
是吧	-14770
有多	-14771
深圳	-14772
避免	-14773
End	-14774
LUK	-14775
uge	-14776
▁39	-14777
▁Im	-14778
ippy	-14779
▁[4.	-14780
dings	-14781
▁...2	-14782
▁vaat	-14783
▁hallo	-14784
▁ladies	-14785
▁muffin	-14786
reaching	-14787
▁verwijs	-14788
▁bovenste	-14789
▁achterkant	-14790
▁bloedvaten	-14791
▁instructie	-14792
▁头	-14793
位置	-14794
体系	-14795
开了	-14796
极了	-14797
警方	-14798
适合	-14799
aca	-14800
hib	-14801
▁creë	-14802
doelen	-14803
etchup	-14804
gegaan	-14805
inkers	-14806
▁Beter	-14807
▁akker	-14808
▁plain	-14809
▁vakje	-14810
▁Please	-14811
▁Summer	-14812
▁douche	-14813
▁prepar	-14814
▁lesstof	-14815
▁penguin	-14816
▁mushroom	-14817
Interviews	-14818
▁achteruit	-14819
▁beoordeelt	-14820
▁voorzitter	-14821
▁whispering	-14822
▁kopieerblad	-14823
▁veroorzaken	-14824
IG	-14825
so	-14826
▁水	-14827
下滑	-14828
促进	-14829
坐在	-14830
日前	-14831
▁Ta	-14832
Mark	-14833
iale	-14834
讲的故事	-14835
▁Erin	-14836
▁mile	-14837
iction	-14838
vakken	-14839
ziekte	-14840
▁bruik	-14841
▁frame	-14842
▁Indian	-14843
▁jungle	-14844
▁salami	-14845
▁gepland	-14846
▁groeide	-14847
▁nerveus	-14848
▁pudding	-14849
▁toegest	-14850
▁bacterie	-14851
▁etcetera	-14852
▁migratie	-14853
▁ondernem	-14854
▁stamboom	-14855
▁generatie	-14856
▁preschool	-14857
▁begrafenis	-14858
▁berekening	-14859
▁zeespiegel	-14860
一件	-14861
医药	-14862
格力	-14863
自由	-14864
营业	-14865
蚂蚁	-14866
设备	-14867
ebo	-14868
▁5,	-14869
三亿元	-14870
西安市	-14871
mans	-14872
▁Ven	-14873
▁fed	-14874
antel	-14875
▁Maas	-14876
▁Octo	-14877
▁Sara	-14878
▁hydro	-14879
▁omzet	-14880
▁geleid	-14881
▁cheaper	-14882
▁kilomet	-14883
▁geslapen	-14884
▁batteries	-14885
▁ministers	-14886
▁Middelland	-14887
▁binnenkort	-14888
▁benodigdheden	-14889
▁mispronounced	-14890
iß	-14891
▁南	-14892
今晚	-14893
任务	-14894
监会	-14895
鼻子	-14896
brug	-14897
long	-14898
▁mal	-14899
iches	-14900
paper	-14901
▁bomb	-14902
▁heks	-14903
▁path	-14904
▁poop	-14905
▁zoog	-14906
Oosten	-14907
▁Matty	-14908
▁spare	-14909
▁tocht	-14910
▁fallen	-14911
▁huisje	-14912
▁oranje	-14913
▁Absolut	-14914
▁omgezet	-14915
▁November	-14916
▁slechter	-14917
▁firefight	-14918
▁meerkeuze	-14919
▁technologie	-14920
吃了	-14921
改善	-14922
牙齿	-14923
短期	-14924
ERI	-14925
MIC	-14926
在这个	-14927
esar	-14928
mark	-14929
okay	-14930
▁Aus	-14931
blaas	-14932
iekem	-14933
schot	-14934
▁Inde	-14935
百分之四十	-14936
▁belie	-14937
▁loose	-14938
▁rebus	-14939
▁Zimmer	-14940
▁gehele	-14941
▁grapes	-14942
▁maatje	-14943
▁oudere	-14944
▁amazing	-14945
bedrijven	-14946
▁Verander	-14947
▁beschuld	-14948
▁division	-14949
▁herhalen	-14950
▁verderop	-14951
▁Alexander	-14952
▁provision	-14953
吸引	-14954
太太	-14955
▁都是	-14956
▁Auf	-14957
▁来关注	-14958
▁Joey	-14959
▁Wall	-14960
▁mank	-14961
letter	-14962
▁pannen	-14963
▁splash	-14964
▁doctors	-14965
▁matches	-14966
▁stoelen	-14967
▁Bosatlas	-14968
▁Mohammed	-14969
▁perspect	-14970
▁received	-14971
▁amendment	-14972
▁steenkool	-14973
▁Koninkrijk	-14974
▁leestekens	-14975
▁probeerden	-14976
▁vernietigd	-14977
▁Spanjaarden	-14978
土地	-14979
斯拉	-14980
模式	-14981
道理	-14982
销量	-14983
urb	-14984
世界上	-14985
▁Web	-14986
▁wra	-14987
stick	-14988
▁Dere	-14989
▁Gall	-14990
▁Kort	-14991
▁pred	-14992
▁recy	-14993
▁ruit	-14994
isions	-14995
▁fluit	-14996
▁stood	-14997
kaarten	-14998
▁bidden	-14999
▁liepen	-15000
▁shovel	-15001
▁squared	-15002
▁zonnest	-15003
▁这一课就是这些	-15004
▁dankbaar	-15005
▁tijdbalk	-15006
▁vergeven	-15007
▁bestrijden	-15008
▁successful	-15009
同学	-15010
经过	-15011
阳光	-15012
nut	-15013
edie	-15014
▁Air	-15015
▁Sha	-15016
▁Tes	-15017
▁mug	-15018
avier	-15019
reerd	-15020
▁Bram	-15021
▁bush	-15022
▁peel	-15023
▁tref	-15024
▁Donna	-15025
▁einem	-15026
▁occur	-15027
streeks	-15028
▁Latijn	-15029
▁Mannen	-15030
▁clever	-15031
▁duinen	-15032
▁execut	-15033
▁heuvel	-15034
▁dealing	-15035
▁gezonde	-15036
▁realized	-15037
▁chromosomen	-15038
▁bijzonderheden	-15039
AG	-15040
▁金	-15041
还在	-15042
▁55	-15043
▁即使	-15044
的作用	-15045
科创板	-15046
bott	-15047
▁DDR	-15048
▁tin	-15049
affen	-15050
arken	-15051
▁Half	-15052
▁Turn	-15053
▁hete	-15054
ograaf	-15055
▁Kelly	-15056
▁accep	-15057
▁graaf	-15058
▁hekel	-15059
▁peace	-15060
▁二零二零年	-15061
▁labour	-15062
▁strike	-15063
▁kolonel	-15064
▁opgeven	-15065
▁uitvoer	-15066
▁cupboard	-15067
▁mountain	-15068
▁voorlezen	-15069
2,	-15070
取消	-15071
态度	-15072
最终	-15073
涉及	-15074
KEL	-15075
zon	-15076
七亿元	-15077
erse	-15078
nest	-15079
▁yog	-15080
▁boog	-15081
▁hose	-15082
▁nail	-15083
▁wire	-15084
▁Basis	-15085
▁Wendy	-15086
▁waves	-15087
▁premie	-15088
▁slimme	-15089
▁manipul	-15090
▁besturen	-15091
▁explains	-15092
▁planeten	-15093
▁tandarts	-15094
▁Christian	-15095
▁onderhand	-15096
▁satelliet	-15097
▁verbergen	-15098
▁vreselijke	-15099
伙伴	-15100
此前	-15101
速度	-15102
urd	-15103
▁6,	-15104
▁Ot	-15105
ookt	-15106
uige	-15107
▁Nij	-15108
namen	-15109
omein	-15110
▁2017	-15111
▁Burg	-15112
▁syll	-15113
▁vals	-15114
gewoon	-15115
refers	-15116
▁bezet	-15117
▁tover	-15118
▁begele	-15119
▁relief	-15120
▁speler	-15121
▁tranen	-15122
▁Product	-15123
▁gelaten	-15124
▁smoking	-15125
▁bewonder	-15126
▁followed	-15127
▁genoemde	-15128
▁mensheid	-15129
▁vierkant	-15130
▁我们下一刻再见吧	-15131
▁firetruck	-15132
▁proposals	-15133
▁suggested	-15134
▁application	-15135
AS	-15136
LT	-15137
NN	-15138
UR	-15139
.).	-15140
spe	-15141
▁fo	-15142
并没有	-15143
gage	-15144
kust	-15145
▁Sab	-15146
▁Linc	-15147
▁Muur	-15148
▁Johan	-15149
▁flash	-15150
▁waait	-15151
erentie	-15152
imenten	-15153
▁Nummer	-15154
▁beleefd	-15155
▁bevindt	-15156
▁afdeling	-15157
▁familiel	-15158
▁scheiden	-15159
▁schitter	-15160
▁condition	-15161
▁favourite	-15162
▁vanmorgen	-15163
▁responsible	-15164
hn	-15165
饮食	-15166
▁47	-15167
▁那个	-15168
inem	-15169
▁Tan	-15170
▁Wes	-15171
▁cam	-15172
aging	-15173
ingle	-15174
plein	-15175
▁Eeuw	-15176
▁Hulk	-15177
▁Lief	-15178
▁Voeg	-15179
▁cock	-15180
▁pomp	-15181
▁wiel	-15182
▁bones	-15183
▁flies	-15184
▁foods	-15185
sopgave	-15186
▁emphas	-15187
▁equals	-15188
▁hoping	-15189
▁parall	-15190
▁wortel	-15191
▁geopend	-15192
▁verzoek	-15193
▁attached	-15194
▁vervoerd	-15195
▁winkelen	-15196
▁communisme	-15197
!)	-15198
▁平	-15199
官方	-15200
盈利	-15201
cro	-15202
▁Av	-15203
inky	-15204
/2014	-15205
▁crow	-15206
▁dent	-15207
▁prec	-15208
hoeken	-15209
▁schot	-15210
▁schud	-15211
▁versn	-15212
oppervl	-15213
stappen	-15214
▁gelden	-15215
▁leader	-15216
▁schone	-15217
getrouwe	-15218
▁Lieverd	-15219
▁battery	-15220
▁richten	-15221
▁rondjes	-15222
▁theater	-15223
▁Michelle	-15224
▁mannetje	-15225
也没	-15226
力度	-15227
很难	-15228
来听	-15229
进去	-15230
iwi	-15231
▁Py	-15232
▁人们	-15233
grow	-15234
wiel	-15235
▁Dom	-15236
▁gut	-15237
▁obl	-15238
▁roep	-15239
roffen	-15240
▁beker	-15241
▁goose	-15242
▁pinea	-15243
▁Bedoel	-15244
▁Moskou	-15245
▁leidde	-15246
▁tosses	-15247
▁writes	-15248
▁opslaan	-15249
▁tomaten	-15250
centrales	-15251
▁behoefte	-15252
▁discover	-15253
▁donderdag	-15254
▁uitgevonden	-15255
▁随	-15256
▁2)	-15257
也可以	-15258
ampt	-15259
aver	-15260
▁bef	-15261
▁ens	-15262
▁fee	-15263
langs	-15264
▁Hist	-15265
▁Week	-15266
▁guid	-15267
ashing	-15268
▁Oskar	-15269
▁droeg	-15270
brengst	-15271
▁Discuss	-15272
▁blowing	-15273
▁examens	-15274
▁oorlogs	-15275
▁security	-15276
▁gedurende	-15277
▁beïnvloeden	-15278
▁Kennisbankitems	-15279
▁熊	-15280
千万	-15281
首席	-15282
的人生	-15283
的讲解	-15284
ends	-15285
page	-15286
post	-15287
ulen	-15288
▁dee	-15289
korst	-15290
▁bugs	-15291
▁dure	-15292
▁flex	-15293
▁今天我们	-15294
▁Groep	-15295
▁Keith	-15296
▁State	-15297
▁domme	-15298
▁rates	-15299
▁reser	-15300
artikel	-15301
▁Stuart	-15302
▁fictie	-15303
▁Lincoln	-15304
▁patiënt	-15305
▁players	-15306
▁whereas	-15307
▁Actually	-15308
▁genoegen	-15309
▁inleveren	-15310
▁aanleiding	-15311
▁helikopter	-15312
▁uitzending	-15313
好多	-15314
自我	-15315
IDS	-15316
ata	-15317
weef	-15318
▁awoh	-15319
icated	-15320
▁arrow	-15321
▁engel	-15322
▁files	-15323
▁allerg	-15324
▁geduld	-15325
▁behoren	-15326
▁closing	-15327
▁smiling	-15328
▁terrein	-15329
▁verbind	-15330
▁interrupt	-15331
▁opgesloten	-15332
▁schreeuwen	-15333
▁toepassing	-15334
▁Examenopgaven	-15335
hh	-15336
的不	-15337
bond	-15338
cuul	-15339
oeid	-15340
oerd	-15341
ulde	-15342
▁Isn	-15343
▁avo	-15344
neemt	-15345
vogel	-15346
▁Fair	-15347
▁Lady	-15348
▁Rick	-15349
▁reed	-15350
▁stuw	-15351
▁Chuck	-15352
▁began	-15353
anderen	-15354
▁States	-15355
▁dragon	-15356
▁uiteen	-15357
▁Jackson	-15358
▁herkent	-15359
▁obvious	-15360
arbeiders	-15361
▁duurzaam	-15362
▁sleutels	-15363
▁voortgang	-15364
▁Middellandse	-15365
▁circumstances	-15366
Me	-15367
女儿	-15368
强调	-15369
当时	-15370
SSS	-15371
Wil	-15372
mol	-15373
Lois	-15374
hout	-15375
▁Bol	-15376
▁Way	-15377
▁unc	-15378
Wacht	-15379
gency	-15380
meren	-15381
▁Ooit	-15382
▁pron	-15383
▁natte	-15384
svormen	-15385
▁subsid	-15386
▁trokken	-15387
▁verloor	-15388
▁fossiele	-15389
▁militair	-15390
▁negatief	-15391
▁oorlogen	-15392
▁suitcase	-15393
▁werkplan	-15394
▁verzonnen	-15395
▁baarmoeder	-15396
▁尤其	-15397
上半年	-15398
六亿元	-15399
."""	-15400
▁Doc	-15401
▁小朋友	-15402
▁据了解	-15403
aming	-15404
ights	-15405
▁Swww	-15406
▁喜马拉雅	-15407
werker	-15408
▁Alpen	-15409
▁Derek	-15410
▁kluis	-15411
▁zucht	-15412
▁bewaar	-15413
▁haalde	-15414
▁pardon	-15415
▁related	-15416
▁afgerond	-15417
▁beschermt	-15418
▁mineralen	-15419
不住	-15420
也在	-15421
六年	-15422
▁1)	-15423
▁通过	-15424
Diff	-15425
pack	-15426
▁cob	-15427
eeper	-15428
essen	-15429
ompen	-15430
▁ther	-15431
▁knikt	-15432
▁noisy	-15433
▁However	-15434
▁conserv	-15435
▁depress	-15436
▁Trouwens	-15437
▁alphabet	-15438
▁provided	-15439
▁unemploy	-15440
▁blijkbaar	-15441
▁independent	-15442
▁verspreiden	-15443
▁ongelooflijk	-15444
▁stripverhaal	-15445
▁examenopgaven	-15446
Ar	-15447
OM	-15448
▁·	-15449
爆发	-15450
纷纷	-15451
▁(5	-15452
▁另外	-15453
美联储	-15454
过程中	-15455
rice	-15456
▁ram	-15457
▁Blue	-15458
▁zeek	-15459
▁Queen	-15460
▁entir	-15461
▁shown	-15462
▁ummhm	-15463
▁Freder	-15464
▁clouds	-15465
▁ingred	-15466
▁ketchup	-15467
▁klinken	-15468
▁encourag	-15469
▁negative	-15470
▁gezelschap	-15471
▁appointment	-15472
▁enthousiast	-15473
▁interessante	-15474
ki	-15475
主人	-15476
五个	-15477
几乎	-15478
类的	-15479
Tube	-15480
apot	-15481
▁KGT	-15482
▁Lor	-15483
▁aha	-15484
▁lam	-15485
▁Lane	-15486
▁joke	-15487
▁wave	-15488
▁wrap	-15489
/2014-	-15490
IndDiff	-15491
▁Burger	-15492
▁Edward	-15493
▁heaven	-15494
astische	-15495
▁eenzaam	-15496
▁geloofde	-15497
▁holidays	-15498
▁bestellen	-15499
▁veroveren	-15500
▁ontstonden	-15501
-9	-15502
业内	-15503
贸易	-15504
yer	-15505
▁HET	-15506
using	-15507
▁Pear	-15508
▁Exact	-15509
▁Megan	-15510
▁Watch	-15511
▁neder	-15512
▁pakte	-15513
drukken	-15514
▁raised	-15515
▁voegen	-15516
fficient	-15517
▁General	-15518
▁klimmen	-15519
▁December	-15520
▁bepaling	-15521
▁huisdier	-15522
▁knocking	-15523
▁Elizabeth	-15524
▁aangelegd	-15525
▁beschrijf	-15526
⌋,	-15527
▁较	-15528
常常	-15529
昨天	-15530
至少	-15531
补贴	-15532
ulf	-15533
zit	-15534
▁作为	-15535
五亿元	-15536
▁Coc	-15537
alley	-15538
erkte	-15539
ersen	-15540
ieuwd	-15541
there	-15542
▁Java	-15543
▁click	-15544
▁kubus	-15545
▁vaart	-15546
duceerd	-15547
▁Rennen	-15548
▁aparte	-15549
▁ballon	-15550
▁opties	-15551
▁popped	-15552
▁sorted	-15553
▁Service	-15554
▁duurder	-15555
▁underst	-15556
▁Nadenken	-15557
▁paspoort	-15558
▁chemische	-15559
▁University	-15560
▁toothpaste	-15561
/6	-15562
梦想	-15563
鼓励	-15564
▁au	-15565
▁120	-15566
▁VER	-15567
▁pip	-15568
oeder	-15569
▁Camp	-15570
▁Club	-15571
▁bees	-15572
▁decl	-15573
▁kooi	-15574
▁Hotel	-15575
▁Think	-15576
▁carav	-15577
▁prooi	-15578
▁serve	-15579
▁accomm	-15580
▁doelen	-15581
▁indian	-15582
▁offers	-15583
▁groeten	-15584
▁onzicht	-15585
▁spinnen	-15586
▁zakgeld	-15587
▁bioscoop	-15588
▁counting	-15589
▁produced	-15590
▁resident	-15591
▁continent	-15592
▁downloaden	-15593
▁moordenaar	-15594
▁voortdurend	-15595
Ju	-15596
▁且	-15597
十分	-15598
将在	-15599
材料	-15600
着一	-15601
记录	-15602
▁Pé	-15603
▁ku	-15604
▁按照	-15605
▁那就	-15606
收益率	-15607
评论区	-15608
cell	-15609
char	-15610
roef	-15611
sits	-15612
▁eek	-15613
▁ped	-15614
▁ssh	-15615
▁mobi	-15616
▁fully	-15617
▁messy	-15618
ference	-15619
▁Caesar	-15620
▁pointed	-15621
▁receive	-15622
掉了	-15623
过的	-15624
高达	-15625
rus	-15626
wis	-15627
wolk	-15628
▁Enk	-15629
▁Mec	-15630
▁wah	-15631
▁Prot	-15632
▁afwe	-15633
▁reus	-15634
▁数据显示	-15635
百分之二点	-15636
cirkel	-15637
gevers	-15638
pberry	-15639
▁Becky	-15640
▁gemat	-15641
▁thumb	-15642
geraakt	-15643
▁staten	-15644
▁symmet	-15645
▁bliksem	-15646
▁koekjes	-15647
▁Hiervoor	-15648
▁afleiden	-15649
▁nachtmer	-15650
▁aflevering	-15651
▁population	-15652
▁informatieve	-15653
▁rekenmachine	-15654
▁voornamelijk	-15655
ät	-15656
▁先	-15657
▁哈	-15658
▁或	-15659
解答	-15660
违法	-15661
kra	-15662
lip	-15663
mom	-15664
mum	-15665
▁JE	-15666
ades	-15667
adow	-15668
oekt	-15669
raft	-15670
▁Joy	-15671
▁创业板	-15672
▁Bost	-15673
▁Zack	-15674
▁gooi	-15675
▁loss	-15676
▁zest	-15677
▁Clark	-15678
▁geste	-15679
▁Keizer	-15680
▁neuken	-15681
▁senten	-15682
centrale	-15683
voorzien	-15684
▁blaadje	-15685
▁olifant	-15686
▁pretzel	-15687
▁results	-15688
▁twelfth	-15689
▁aquarium	-15690
▁badkamer	-15691
▁gedachte	-15692
▁klooster	-15693
▁behoeften	-15694
▁lichaamst	-15695
▁gesprekken	-15696
▁Middeleeuwen	-15697
▁nakomelingen	-15698
6,	-15699
▁×	-15700
▁难	-15701
面前	-15702
irm	-15703
pan	-15704
sec	-15705
▁bv	-15706
▁你要	-15707
velt	-15708
▁arg	-15709
ijpen	-15710
storm	-15711
▁Mees	-15712
▁Ring	-15713
▁damp	-15714
▁fans	-15715
▁zons	-15716
▁Kolon	-15717
▁dorst	-15718
▁influ	-15719
▁Tenzij	-15720
▁degree	-15721
▁letterg	-15722
▁netwerk	-15723
▁zenuwen	-15724
▁verraden	-15725
▁woningen	-15726
▁elementen	-15727
▁nationale	-15728
▁hoofdvraag	-15729
▁tekstsoort	-15730
不再	-15731
人家	-15732
听的	-15733
旅行	-15734
经验	-15735
opy	-15736
ardo	-15737
iled	-15738
jour	-15739
超百分之	-15740
athes	-15741
cakes	-15742
▁claw	-15743
▁kiwi	-15744
[...]
