<pad>	0
<unk>	0
<s>	0
</s>	0
[PAD]	0
[UNK]	0
[CLS]	0
[SEP]	0
[MASK]	0
en	-0
er	-1
▁d	-2
an	-3
▁v	-4
et	-5
▁h	-6
in	-7
el	-8
ij	-9
▁de	-10
aa	-11
▁o	-12
st	-13
▁w	-14
▁m	-15
or	-16
▁z	-17
▁g	-18
▁b	-19
▁e	-20
ie	-21
ch	-22
▁t	-23
at	-24
▁*	-25
▁k	-26
▁n	-27
aar	-28
is	-29
▁a	-30
▁een	-31
▁van	-32
on	-33
▁en	-34
▁het	-35
it	-36
oor	-37
▁in	-38
ee	-39
▁j	-40
oe	-41
den	-42
der	-43
▁D	-44
▁ge	-45
de	-46
▁s	-47
▁l	-48
gen	-49
▁p	-50
▁is	-51
CH	-52
LD	-53
CHI	-54
ET	-55
CHILD	-56
AR	-57
al	-58
GET	-59
TAR	-60
TARGET	-61
ro	-62
▁op	-63
ar	-64
ing	-65
ijn	-66
ken	-67
cht	-68
re	-69
▁st	-70
le	-71
ik	-72
om	-73
▁H	-74
▁be	-75
▁ver	-76
ge	-77
▁te	-78
il	-79
ol	-80
ijk	-81
eer	-82
and	-83
▁dat	-84
iet	-85
▁al	-86
am	-87
ou	-88
▁I	-89
uit	-90
ER	-91
as	-92
ur	-93
je	-94
▁voor	-95
▁De	-96
▁ze	-97
▁je	-98
▁zijn	-99
▁met	-100
▁B	-101
▁(	-102
TH	-103
THER	-104
▁1	-105
▁A	-106
eel	-107
ig	-108
oo	-109
▁E	-110
▁S	-111
te	-112
ver	-113
us	-114
▁M	-115
▁die	-116
aat	-117
id	-118
OTHER	-119
▁er	-120
ok	-121
MOTHER	-122
▁aan	-123
un	-124
▁'	-125
▁on	-126
ot	-127
▁he	-128
▁N	-129
▁niet	-130
ra	-131
ier	-132
ven	-133
▁uit	-134
▁V	-135
▁"	-136
og	-137
▁·	-138
▁wor	-139
▁W	-140
aan	-141
sch	-142
▁T	-143
ten	-144
▁G	-145
▁O	-146
AT	-147
xx	-148
ST	-149
OR	-150
IN	-151
ru	-152
IG	-153
VE	-154
sen	-155
STIG	-156
ATOR	-157
VESTIG	-158
INVESTIG	-159
INVESTIGATOR	-160
▁om	-161
▁2	-162
▁wer	-163
ad	-164
▁f	-165
se	-166
aal	-167
ft	-168
▁ook	-169
▁C	-170
▁Z	-171
uw	-172
ste	-173
▁L	-174
ze	-175
▁P	-176
▁zo	-177
rij	-178
▁hij	-179
ag	-180
elijk	-181
▁K	-182
▁In	-183
▁bij	-184
▁was	-185
op	-186
▁over	-187
▁we	-188
dt	-189
ien	-190
ap	-191
▁maar	-192
▁sch	-193
oet	-194
ers	-195
▁naar	-196
▁c	-197
▁J	-198
oen	-199
kt	-200
▁ik	-201
▁dan	-202
▁als	-203
ele	-204
▁re	-205
men	-206
nen	-207
▁Het	-208
▁door	-209
▁R	-210
len	-211
▁of	-212
he	-213
▁wat	-214
ant	-215
ul	-216
uur	-217
▁ja	-218
ond	-219
▁waar	-220
ak	-221
eeft	-222
▁heb	-223
ct	-224
▁geb	-225
ingen	-226
▁r	-227
eld	-228
ang	-229
00	-230
▁le	-231
im	-232
land	-233
▁sp	-234
▁af	-235
ander	-236
ist	-237
ke	-238
▁nog	-239
."	-240
▁wel	-241
▁wordt	-242
▁onder	-243
wee	-244
eren	-245
▁heeft	-246
▁kan	-247
oed	-248
▁F	-249
▁worden	-250
▁xx	-251
▁xxx	-252
pen	-253
atie	-254
gt	-255
jes	-256
▁kun	-257
isch	-258
ic	-259
ind	-260
▁alle	-261
▁deze	-262
▁werd	-263
▁moet	-264
ent	-265
icht	-266
▁19	-267
sp	-268
▁bl	-269
acht	-270
▁daar	-271
▁dit	-272
▁meer	-273
eeld	-274
▁gro	-275
▁-	-276
▁men	-277
es	-278
ter	-279
raa	-280
roe	-281
▁kom	-282
▁ander	-283
ich	-284
elen	-285
os	-286
ed	-287
um	-288
▁haar	-289
orm	-290
ige	-291
▁hier	-292
em	-293
..	-294
ut	-295
eder	-296
oek	-297
zen	-298
ben	-299
ip	-300
een	-301
ast	-302
▁pl	-303
oord	-304
▁wil	-305
▁twee	-306
aren	-307
▁mee	-308
▁veel	-309
▁tot	-310
ijd	-311
▁(1	-312
-1	-313
▁hebben	-314
ker	-315
ia	-316
ië	-317
aten	-318
▁vol	-319
▁pro	-320
▁Al	-321
▁Neder	-322
▁ont	-323
elf	-324
▁had	-325
of	-326
iek	-327
art	-328
aak	-329
▁3	-330
▁Hij	-331
ische	-332
▁Een	-333
amen	-334
sl	-335
▁weer	-336
uk	-337
inder	-338
▁Ze	-339
lijk	-340
gel	-341
heid	-342
wer	-343
ere	-344
oon	-345
▁ma	-346
▁20	-347
ron	-348
od	-349
ies	-350
ran	-351
beeld	-352
mer	-353
▁gev	-354
.'	-355
▁Nederland	-356
▁gaat	-357
ruik	-358
sten	-359
▁zich	-360
uis	-361
▁En	-362
ine	-363
▁eer	-364
,'	-365
▁kl	-366
ouw	-367
igen	-368
▁me	-369
be	-370
▁goed	-371
ieuw	-372
▁jaar	-373
▁nee	-374
▁hoe	-375
eten	-376
▁sl	-377
we	-378
ool	-379
▁•	-380
lie	-381
▁andere	-382
rie	-383
ne	-384
▁kunnen	-385
ion	-386
af	-387
▁hem	-388
▁geen	-389
▁mensen	-390
ale	-391
uid	-392
ger	-393
▁kon	-394
▁kle	-395
ug	-396
ve	-397
rijk	-398
▁tegen	-399
ab	-400
▁ie	-401
ree	-402
▁hoo	-403
▁moe	-404
aam	-405
ir	-406
ussen	-407
▁gaan	-408
▁ter	-409
dat	-410
chter	-411
▁gem	-412
ster	-413
▁zit	-414
els	-415
▁Op	-416
onder	-417
elk	-418
ber	-419
▁St	-420
aakt	-421
▁beg	-422
▁hun	-423
voor	-424
oem	-425
▁best	-426
▁zou	-427
ui	-428
ort	-429
oc	-430
▁bet	-431
ell	-432
tje	-433
▁kw	-434
alen	-435
gens	-436
pt	-437
▁ro	-438
▁4	-439
▁nu	-440
▁staat	-441
per	-442
omen	-443
rouw	-444
▁doen	-445
anden	-446
▁toen	-447
ink	-448
▁sn	-449
ater	-450
oren	-451
▁maken	-452
bl	-453
▁nou	-454
oud	-455
▁versch	-456
▁na	-457
ide	-458
▁heel	-459
▁gew	-460
▁gebruik	-461
""	-462
ctie	-463
eef	-464
oel	-465
▁U	-466
oer	-467
II	-468
▁Er	-469
▁bed	-470
innen	-471
ank	-472
▁even	-473
▁""	-474
ite	-475
▁gen	-476
maal	-477
▁bel	-478
▁toe	-479
▁Maar	-480
▁zegt	-481
▁komt	-482
▁5	-483
omm	-484
▁man	-485
ren	-486
aard	-487
▁Dit	-488
▁waren	-489
als	-490
▁hele	-491
ieren	-492
och	-493
▁gez	-494
kst	-495
iets	-496
vol	-497
▁nieuw	-498
▁zelf	-499
onden	-500
wij	-501
ius	-502
▁Dat	-503
).	-504
▁kinder	-505
racht	-506
?'	-507
▁Ik	-508
FA	-509
fd	-510
▁jij	-511
▁weg	-512
gev	-513
▁Je	-514
▁ben	-515
▁water	-516
pl	-517
open	-518
schap	-519
▁land	-520
▁bo	-521
▁Le	-522
eed	-523
kend	-524
▁verk	-525
woord	-526
▁tijd	-527
▁elk	-528
▁201	-529
▁tussen	-530
▁lang	-531
FATHER	-532
ann	-533
▁Als	-534
uro	-535
▁ged	-536
▁grote	-537
eek	-538
ment	-539
iden	-540
elijke	-541
▁alleen	-542
raag	-543
▁gel	-544
illen	-545
▁200	-546
▁ar	-547
▁groot	-548
▁jon	-549
▁per	-550
▁mijn	-551
idd	-552
oort	-553
▁Daar	-554
▁Wik	-555
▁zei	-556
aag	-557
ma	-558
▁Sch	-559
ijden	-560
▁Ook	-561
▁Ch	-562
▁An	-563
▁krij	-564
iv	-565
bij	-566
én	-567
▁ou	-568
▁plaat	-569
▁ex	-570
▁eigen	-571
EN	-572
etje	-573
io	-574
...	-575
atuur	-576
▁zien	-577
uren	-578
tal	-579
▁komen	-580
form	-581
agen	-582
door	-583
▁kinderen	-584
▁con	-585
ac	-586
▁eerste	-587
▁Fran	-588
ocht	-589
▁ru	-590
itie	-591
▁zw	-592
▁ging	-593
▁vin	-594
ijken	-595
oog	-596
ard	-597
int	-598
▁vl	-599
▁ne	-600
▁Be	-601
▁6	-602
uc	-603
▁Ge	-604
▁mag	-605
ader	-606
▁beh	-607
eerd	-608
me	-609
ellen	-610
ff	-611
▁eens	-612
▁werk	-613
ings	-614
▁18	-615
▁Deze	-616
ust	-617
ilm	-618
▁lig	-619
▁stad	-620
ouden	-621
geven	-622
geb	-623
▁iets	-624
▁keer	-625
▁laat	-626
ucht	-627
▁ga	-628
av	-629
▁kijk	-630
▁gek	-631
▁Voor	-632
ood	-633
ri	-634
oos	-635
elt	-636
uiten	-637
▁vert	-638
▁verschillen	-639
▁werden	-640
▁é	-641
▁dus	-642
allen	-643
▁gr	-644
oot	-645
▁groe	-646
▁zoals	-647
▁samen	-648
▁Hier	-649
▁lie	-650
▁oh	-651
▁toch	-652
▁ant	-653
▁aut	-654
▁Bij	-655
ders	-656
ees	-657
res	-658
▁staan	-659
▁drie	-660
▁pol	-661
aas	-662
▁hand	-663
▁één	-664
ation	-665
▁Mar	-666
▁verb	-667
kken	-668
edia	-669
oop	-670
pe	-671
!'	-672
▁achter	-673
formatie	-674
ragen	-675
▁hoofd	-676
▁huis	-677
▁"'	-678
Ik	-679
na	-680
▁belang	-681
ert	-682
aanse	-683
▁terug	-684
▁elkaar	-685
▁u	-686
eling	-687
▁bron	-688
amer	-689
▁Sp	-690
▁zie	-691
ec	-692
uist	-693
erk	-694
▁blij	-695
oten	-696
▁Te	-697
ob	-698
all	-699
▁geh	-700
zelf	-701
ijdens	-702
oh	-703
▁7	-704
ass	-705
▁den	-706
eeds	-707
▁nieuwe	-708
▁moeten	-709
▁Y	-710
▁verschillende	-711
log	-712
▁pr	-713
van	-714
▁leven	-715
▁informatie	-716
merik	-717
age	-718
▁omdat	-719
▁oor	-720
▁dag	-721
eur	-722
▁min	-723
iteit	-724
▁gebruikt	-725
▁vaak	-726
aart	-727
▁verh	-728
▁We	-729
▁belangrijk	-730
oeken	-731
zoek	-732
ub	-733
zet	-734
▁zeg	-735
▁zitten	-736
rit	-737
▁Van	-738
gende	-739
▁kwam	-740
▁steeds	-741
▁weet	-742
ram	-743
▁echt	-744
ill	-745
oorden	-746
enn	-747
▁gemaakt	-748
▁tekst	-749
▁binnen	-750
▁8	-751
000	-752
▁kn	-753
iel	-754
pp	-755
veel	-756
▁vind	-757
aast	-758
artij	-759
ijs	-760
off	-761
▁wereld	-762
tijd	-763
ijf	-764
▁Beeld	-765
▁Euro	-766
mand	-767
▁erg	-768
▁net	-769
ina	-770
amp	-771
uz	-772
▁school	-773
▁her	-774
▁film	-775
▁II	-776
ikk	-777
ks	-778
▁Af	-779
▁verd	-780
gd	-781
▁deel	-782
▁plaats	-783
ost	-784
▁snel	-785
voorbeeld	-786
▁Ver	-787
▁X	-788
AD	-789
vl	-790
ire	-791
▁zij	-792
▁open	-793
▁tre	-794
▁besch	-795
elde	-796
wel	-797
▁vrouw	-798
▁Duit	-799
▁zal	-800
▁Wat	-801
ied	-802
ov	-803
end	-804
act	-805
au	-806
UL	-807
ep	-808
king	-809
rijf	-810
sel	-811
▁jul	-812
▁hoor	-813
▁doet	-814
huis	-815
▁Geef	-816
ong	-817
▁mil	-818
ons	-819
ama	-820
if	-821
▁10	-822
▁aantal	-823
▁auto	-824
mee	-825
kker	-826
▁Zo	-827
staan	-828
unt	-829
iz	-830
▁natuur	-831
▁kijken	-832
man	-833
erg	-834
rand	-835
eter	-836
onen	-837
oemd	-838
werp	-839
stand	-840
ult	-841
▁Amerik	-842
ULT	-843
▁hel	-844
▁stuk	-845
eken	-846
▁On	-847
ADULT	-848
▁zet	-849
▁bekend	-850
▁boek	-851
▁buiten	-852
vin	-853
ogen	-854
▁gesch	-855
▁boven	-856
baar	-857
▁ch	-858
ach	-859
elke	-860
▁afbeeld	-861
▁vinden	-862
over	-863
▁stem	-864
▁want	-865
▁ligt	-866
▁antwoord	-867
eem	-868
omp	-869
ereken	-870
org	-871
iss	-872
les	-873
ieden	-874
deel	-875
▁Hoe	-876
ow	-877
▁eerst	-878
▁vier	-879
▁Met	-880
▁vader	-881
raf	-882
ce	-883
▁allemaal	-884
akken	-885
are	-886
4)	-887
▁vrij	-888
▁vroe	-889
elling	-890
▁or	-891
▁pre	-892
komen	-893
▁pap	-894
▁vast	-895
▁verder	-896
▁nam	-897
▁helemaal	-898
▁klein	-899
▁9	-900
▁moo	-901
▁bijvoorbeeld	-902
uin	-903
▁volgende	-904
▁altijd	-905
aald	-906
assen	-907
▁prob	-908
▁Nederlandse	-909
▁weten	-910
con	-911
issch	-912
ids	-913
unten	-914
▁koning	-915
▁moeder	-916
▁hoog	-917
iguur	-918
▁ra	-919
▁gebeur	-920
ari	-921
),	-922
▁naam	-923
ay	-924
▁gl	-925
▁voet	-926
▁Vol	-927
ud	-928
igde	-929
▁Ar	-930
▁paar	-931
osten	-932
▁recht	-933
ijkt	-934
▁199	-935
▁Na	-936
▁maak	-937
rik	-938
▁Gel	-939
▁gele	-940
rag	-941
dam	-942
oeg	-943
▁welke	-944
▁grond	-945
pa	-946
▁Om	-947
▁aange	-948
eest	-949
▁landen	-950
▁mij	-951
▁ieder	-952
uizen	-953
.000	-954
.'"	-955
▁vraag	-956
▁hadden	-957
▁ons	-958
▁Cl	-959
▁rij	-960
▁15	-961
▁Die	-962
▁afbeelding	-963
oms	-964
urg	-965
▁ee	-966
▁hebt	-967
▁202	-968
▁plan	-969
alt	-970
▁Joh	-971
▁eten	-972
▁tra	-973
eerde	-974
▁jaren	-975
▁krijgen	-976
ruk	-977
ark	-978
▁beetje	-979
ord	-980
out	-981
ade	-982
▁politie	-983
▁tijdens	-984
▁vragen	-985
▁meest	-986
▁figuur	-987
▁later	-988
olen	-989
5)	-990
▁speel	-991
▁12	-992
aad	-993
▁minder	-994
ium	-995
▁Leg	-996
▁ple	-997
ijna	-998
▁verg	-999
ooit	-1000
kom	-1001
cent	-1002
▁laten	-1003
arm	-1004
▁pop	-1005
iken	-1006
rien	-1007
▁bestaat	-1008
▁jullie	-1009
▁bep	-1010
▁partij	-1011
ennis	-1012
▁vlie	-1013
ym	-1014
ubl	-1015
orgen	-1016
▁Veren	-1017
our	-1018
gels	-1019
ullen	-1020
igd	-1021
▁wilde	-1022
▁pers	-1023
▁rond	-1024
▁Dan	-1025
ame	-1026
pro	-1027
eert	-1028
oede	-1029
▁geeft	-1030
ille	-1031
▁III	-1032
▁ste	-1033
iddel	-1034
▁inter	-1035
▁meis	-1036
▁laatste	-1037
sk	-1038
▁eeuw	-1039
▁verl	-1040
▁&	-1041
erde	-1042
rijd	-1043
▁lucht	-1044
7)	-1045
zelfde	-1046
tra	-1047
weg	-1048
▁vooral	-1049
▁hond	-1050
▁begon	-1051
▁geld	-1052
▁Bel	-1053
▁mog	-1054
tre	-1055
▁anders	-1056
inds	-1057
▁bez	-1058
▁moest	-1059
▁beteken	-1060
ict	-1061
▁mama	-1062
▁ke	-1063
isten	-1064
angen	-1065
▁besl	-1066
▁kleine	-1067
est	-1068
rom	-1069
yy	-1070
ode	-1071
▁fot	-1072
▁Meer	-1073
De	-1074
apen	-1075
▁wij	-1076
▁dieren	-1077
▁sle	-1078
▁kunt	-1079
▁opge	-1080
uziek	-1081
auw	-1082
▁draa	-1083
stof	-1084
won	-1085
vis	-1086
▁wie	-1087
▁iemand	-1088
cl	-1089
▁Twee	-1090
▁bev	-1091
▁ə	-1092
▁alles	-1093
oopt	-1094
oven	-1095
▁You	-1096
eeuw	-1097
▁groep	-1098
ulp	-1099
iding	-1100
AN	-1101
ian	-1102
▁onderwerp	-1103
▁bijna	-1104
isme	-1105
▁get	-1106
▁genoemd	-1107
ident	-1108
▁onderzoek	-1109
▁str	-1110
▁geven	-1111
▁zeggen	-1112
houd	-1113
▁roe	-1114
▁leuk	-1115
▁soort	-1116
ler	-1117
▁maakt	-1118
▁gebouw	-1119
isschien	-1120
odig	-1121
▁nooit	-1122
▁dicht	-1123
rijven	-1124
ga	-1125
▁Frank	-1126
▁verw	-1127
▁ziet	-1128
ha	-1129
werk	-1130
▁the	-1131
▁Toen	-1132
vers	-1133
rin	-1134
bank	-1135
uil	-1136
▁El	-1137
eb	-1138
▁0	-1139
ans	-1140
indelijk	-1141
▁Ste	-1142
iep	-1143
▁Duits	-1144
aalde	-1145
▁Am	-1146
dag	-1147
▁verander	-1148
▁uur	-1149
▁vorm	-1150
▁gedaan	-1151
erm	-1152
▁16	-1153
30	-1154
▁kree	-1155
▁fl	-1156
▁verm	-1157
▁lekker	-1158
▁17	-1159
bruik	-1160
-2	-1161
ont	-1162
6)	-1163
▁zee	-1164
▁gewoon	-1165
ummer	-1166
▁milj	-1167
ces	-1168
▁kreeg	-1169
▁hoeveel	-1170
▁Door	-1171
ube	-1172
PO	-1173
▁uitge	-1174
du	-1175
amil	-1176
▁ontw	-1177
▁vor	-1178
inn	-1179
▁nodig	-1180
oep	-1181
▁waarom	-1182
2)	-1183
▁mogelijk	-1184
▁reden	-1185
▁vis	-1186
▁heet	-1187
▁examen	-1188
▁tele	-1189
achten	-1190
▁Tekst	-1191
ijnen	-1192
▁waardoor	-1193
▁Comm	-1194
▁ele	-1195
▁spelen	-1196
anis	-1197
uurt	-1198
▁uh	-1199
room	-1200
3)	-1201
▁School	-1202
▁vrien	-1203
▁gesp	-1204
sie	-1205
ett	-1206
▁zelfs	-1207
kl	-1208
reven	-1209
▁(2	-1210
heden	-1211
deren	-1212
burg	-1213
▁YouT	-1214
8)	-1215
wijl	-1216
▁Ben	-1217
oden	-1218
th	-1219
bal	-1220
▁gest	-1221
▁Re	-1222
oogle	-1223
ikt	-1224
▁leer	-1225
cies	-1226
▁zon	-1227
▁jongen	-1228
aken	-1229
1)	-1230
▁Staten	-1231
qu	-1232
lijke	-1233
raagt	-1234
▁YouTube	-1235
▁Google	-1236
▁Th	-1237
duc	-1238
▁NPO	-1239
aarde	-1240
▁eh	-1241
geveer	-1242
erd	-1243
▁teken	-1244
▁namelijk	-1245
▁Gro	-1246
eil	-1247
▁punten	-1248
▁...	-1249
gaan	-1250
zien	-1251
▁kop	-1252
▁vindt	-1253
▁11	-1254
erie	-1255
▁ber	-1256
▁jong	-1257
resident	-1258
▁vak	-1259
umm	-1260
50	-1261
▁gegeven	-1262
menten	-1263
▁vand	-1264
aap	-1265
▁afge	-1266
▁Gebruik	-1267
▁willen	-1268
tv	-1269
zicht	-1270
iale	-1271
▁Wiki	-1272
aties	-1273
9)	-1274
▁vroeg	-1275
rijs	-1276
Kids	-1277
▁bro	-1278
plaat	-1279
lemen	-1280
▁Afbeeld	-1281
oorten	-1282
▁WikiKids	-1283
▁zonder	-1284
gele	-1285
leg	-1286
▁bouw	-1287
▁tro	-1288
▁volgens	-1289
▁Verenigde	-1290
enen	-1291
ipedia	-1292
air	-1293
▁Belg	-1294
▁gemeen	-1295
▁ken	-1296
ommige	-1297
▁beter	-1298
▁Wikipedia	-1299
dere	-1300
bel	-1301
stad	-1302
-9	-1303
▁grootste	-1304
Het	-1305
▁bloed	-1306
▁verz	-1307
▁stond	-1308
slag	-1309
ah	-1310
regen	-1311
ens	-1312
▁Kennis	-1313
akk	-1314
ein	-1315
▁(9	-1316
▁Geluid	-1317
ipjes	-1318
▁198	-1319
▁krijgt	-1320
▁foto	-1321
und	-1322
iks	-1323
▁Amerikaanse	-1324
▁gezien	-1325
aur	-1326
gor	-1327
▁Afbeeldingen	-1328
▁dood	-1329
▁muziek	-1330
▁licht	-1331
oemen	-1332
▁Schooltv	-1333
imedia	-1334
▁Commons	-1335
kende	-1336
▁Noord	-1337
▁bru	-1338
▁bal	-1339
▁Wikimedia	-1340
olf	-1341
▁ontst	-1342
ember	-1343
▁Beeldbank	-1344
▁The	-1345
▁rol	-1346
▁Clipjes	-1347
▁ind	-1348
kk	-1349
▁Is	-1350
▁Tweede	-1351
▁Zij	-1352
▁Rus	-1353
▁ruim	-1354
▁meisje	-1355
▁su	-1356
val	-1357
▁bent	-1358
▁ongeveer	-1359
▁meeste	-1360
40	-1361
iez	-1362
iën	-1363
IJ	-1364
▁mooi	-1365
schapp	-1366
▁Zijn	-1367
▁beste	-1368
▁werken	-1369
▁oorlog	-1370
▁heen	-1371
▁slecht	-1372
oof	-1373
ange	-1374
▁kant	-1375
▁ten	-1376
tjes	-1377
▁houden	-1378
oes	-1379
actie	-1380
ruiken	-1381
woners	-1382
ib	-1383
▁stemmen	-1384
net	-1385
anen	-1386
▁juist	-1387
▁miljoen	-1388
▁ontwikk	-1389
▁hou	-1390
▁Engel	-1391
▁eigenlijk	-1392
▁gebied	-1393
▁doe	-1394
lex	-1395
▁verhaal	-1396
▁Bereken	-1397
nie	-1398
oss	-1399
ath	-1400
▁Jan	-1401
kel	-1402
▁stap	-1403
▁IV	-1404
uig	-1405
▁hoort	-1406
▁Kon	-1407
▁Brit	-1408
▁Onder	-1409
▁comp	-1410
▁Waar	-1411
▁vijf	-1412
▁week	-1413
▁eil	-1414
▁ger	-1415
oorlog	-1416
uni	-1417
ry	-1418
▁manier	-1419
ris	-1420
▁tweede	-1421
▁verkl	-1422
▁blijven	-1423
▁13	-1424
▁vog	-1425
▁aard	-1426
▁oud	-1427
Dat	-1428
▁vond	-1429
arte	-1430
raak	-1431
▁bew	-1432
inde	-1433
voer	-1434
▁schil	-1435
▁deed	-1436
60	-1437
gering	-1438
▁betekent	-1439
▁gra	-1440
▁Johann	-1441
roken	-1442
▁vraagt	-1443
idden	-1444
▁dier	-1445
▁goede	-1446
▁ster	-1447
amilie	-1448
▁terwijl	-1449
▁hal	-1450
▁Frankrijk	-1451
▁bas	-1452
anneer	-1453
▁waarin	-1454
▁14	-1455
▁kijkt	-1456
anus	-1457
gram	-1458
▁leg	-1459
rist	-1460
▁gelijk	-1461
ect	-1462
ieke	-1463
weest	-1464
▁app	-1465
ph	-1466
get	-1467
▁hard	-1468
oll	-1469
ën	-1470
▁ogen	-1471
▁soms	-1472
conom	-1473
stig	-1474
▁dingen	-1475
▁Zuid	-1476
▁zag	-1477
▁gesl	-1478
▁geweest	-1479
gem	-1480
▁kind	-1481
▁Me	-1482
▁Wer	-1483
▁maakte	-1484
▁Volgens	-1485
orp	-1486
iaal	-1487
ving	-1488
.""	-1489
pese	-1490
mm	-1491
▁jou	-1492
oom	-1493
▁woon	-1494
▁kunst	-1495
▁via	-1496
▁lopen	-1497
▁iedereen	-1498
70	-1499
ichting	-1500
En	-1501
▁onze	-1502
▁Uit	-1503
oge	-1504
▁natuurlijk	-1505
sh	-1506
roep	-1507
▁oude	-1508
ix	-1509
▁(10	-1510
▁niks	-1511
abel	-1512
▁echter	-1513
uld	-1514
strijd	-1515
att	-1516
▁zeker	-1517
▁kwamen	-1518
▁Par	-1519
▁Duitsland	-1520
▁loopt	-1521
-10	-1522
genomen	-1523
▁pas	-1524
aire	-1525
olog	-1526
▁liggen	-1527
▁spec	-1528
▁zouden	-1529
▁brand	-1530
pr	-1531
elden	-1532
▁gebruiken	-1533
▁kap	-1534
▁Johannes	-1535
Wat	-1536
▁org	-1537
▁par	-1538
▁lijkt	-1539
▁at	-1540
▁cont	-1541
▁elke	-1542
ule	-1543
IE	-1544
chten	-1545
▁zat	-1546
tem	-1547
eens	-1548
▁Welke	-1549
▁meestal	-1550
ate	-1551
▁Veel	-1552
reken	-1553
▁Vl	-1554
▁roept	-1555
stelling	-1556
rum	-1557
▁sm	-1558
▁VII	-1559
ts	-1560
▁stop	-1561
rab	-1562
▁Ne	-1563
ratie	-1564
ister	-1565
offen	-1566
ubliek	-1567
akt	-1568
▁Over	-1569
▁lich	-1570
▁regering	-1571
▁bere	-1572
inks	-1573
▁klas	-1574
▁middel	-1575
rek	-1576
55	-1577
▁Rom	-1578
▁ker	-1579
-11	-1580
▁niets	-1581
▁Kl	-1582
oment	-1583
▁deur	-1584
igheid	-1585
bouw	-1586
▁dagen	-1587
rol	-1588
one	-1589
▁ad	-1590
▁elekt	-1591
▁misschien	-1592
az	-1593
▁Pl	-1594
inig	-1595
ole	-1596
▁vandaag	-1597
▁hen	-1598
▁trein	-1599
▁gevol	-1600
▁Pa	-1601
▁wed	-1602
▁id	-1603
▁ziek	-1604
ugd	-1605
kele	-1606
▁Eer	-1607
▁maan	-1608
▁president	-1609
old	-1610
▁(11	-1611
ure	-1612
▁begin	-1613
orden	-1614
▁euro	-1615
▁ontstaan	-1616
▁waarbij	-1617
▁keek	-1618
ess	-1619
sche	-1620
▁Hierdoor	-1621
sterdam	-1622
volgens	-1623
▁meter	-1624
▁Tijdens	-1625
erv	-1626
▁groter	-1627
▁mens	-1628
▁opl	-1629
▁dec	-1630
▁won	-1631
ding	-1632
▁langs	-1633
▁moment	-1634
ief	-1635
▁Aan	-1636
68	-1637
▁zullen	-1638
▁Wereld	-1639
gang	-1640
▁1.	-1641
▁popul	-1642
▁wit	-1643
etten	-1644
▁ijs	-1645
ja	-1646
bare	-1647
stru	-1648
gramma	-1649
▁eind	-1650
uidelijk	-1651
▁Europese	-1652
!"	-1653
woordig	-1654
wijs	-1655
▁cent	-1656
eth	-1657
aring	-1658
▁zin	-1659
iedenis	-1660
▁leerl	-1661
▁inge	-1662
▁vriend	-1663
schijn	-1664
ourn	-1665
▁(19	-1666
▁reg	-1667
▁zom	-1668
▁nemen	-1669
yp	-1670
▁woord	-1671
▁valt	-1672
inea	-1673
▁genoeg	-1674
ijst	-1675
ck	-1676
▁rest	-1677
▁daarom	-1678
▁Europa	-1679
sm	-1680
▁gingen	-1681
▁idee	-1682
aars	-1683
▁Bl	-1684
inkel	-1685
▁konden	-1686
zie	-1687
dem	-1688
▁di	-1689
dracht	-1690
▁Amsterdam	-1691
iode	-1692
▁weinig	-1693
▁vliegt	-1694
xim	-1695
its	-1696
ozen	-1697
▁Den	-1698
▁1,	-1699
▁voed	-1700
-8	-1701
▁Kar	-1702
nieuw	-1703
ument	-1704
▁bereken	-1705
inter	-1706
▁familie	-1707
dien	-1708
▁tien	-1709
▁vanaf	-1710
▁horen	-1711
▁macht	-1712
▁(8	-1713
zonder	-1714
▁econom	-1715
▁lichaam	-1716
▁denk	-1717
▁lag	-1718
ss	-1719
▁ouders	-1720
pel	-1721
▁spel	-1722
▁sinds	-1723
nam	-1724
▁inwoners	-1725
▁Q	-1726
▁daarna	-1727
▁197	-1728
▁kr	-1729
antie	-1730
▁begint	-1731
gave	-1732
▁nummer	-1733
ins	-1734
anten	-1735
iezingen	-1736
naast	-1737
kant	-1738
▁Men	-1739
▁Alle	-1740
sn	-1741
▁Ma	-1742
▁beide	-1743
▁Gre	-1744
use	-1745
▁Noem	-1746
ergie	-1747
raagd	-1748
▁thuis	-1749
▁sc	-1750
punt	-1751
▁polit	-1752
▁woorden	-1753
wijk	-1754
▁Inhoud	-1755
▁mis	-1756
Al	-1757
afel	-1758
▁blijft	-1759
▁hart	-1760
▁neer	-1761
nem	-1762
etter	-1763
ober	-1764
EL	-1765
▁Ital	-1766
▁lange	-1767
▁doel	-1768
▁soorten	-1769
▁Kamer	-1770
eelden	-1771
ankelijk	-1772
▁194	-1773
▁Ind	-1774
We	-1775
▁vide	-1776
'.	-1777
▁huid	-1778
▁DE	-1779
▁precies	-1780
▁kat	-1781
▁druk	-1782
▁pak	-1783
▁riv	-1784
▁rel	-1785
illem	-1786
▁ren	-1787
riek	-1788
▁neem	-1789
▁klaar	-1790
houden	-1791
water	-1792
▁kleur	-1793
ije	-1794
▁soc	-1795
zaam	-1796
ilijk	-1797
-19	-1798
ick	-1799
▁gevonden	-1800
lei	-1801
aden	-1802
▁maat	-1803
▁wonen	-1804
▁belangrijke	-1805
itu	-1806
▁vallen	-1807
▁Lees	-1808
▁cl	-1809
▁gere	-1810
▁fun	-1811
▁art	-1812
leiding	-1813
teur	-1814
oelen	-1815
▁speelt	-1816
oeren	-1817
▁bren	-1818
▁ontde	-1819
▁wist	-1820
midd	-1821
▁gevraagd	-1822
mar	-1823
▁moeilijk	-1824
▁zorgen	-1825
gegeven	-1826
▁lief	-1827
vel	-1828
▁vrouwen	-1829
▁Ol	-1830
▁Pro	-1831
▁jan	-1832
▁30	-1833
▁ju	-1834
▁Sl	-1835
▁minu	-1836
▁aand	-1837
▁bestaan	-1838
▁België	-1839
▁sche	-1840
▁bevol	-1841
▁lezen	-1842
▁enkele	-1843
▁organis	-1844
▁acht	-1845
ek	-1846
▁boom	-1847
ijl	-1848
▁denken	-1849
▁meteen	-1850
▁naast	-1851
woorden	-1852
▁helpen	-1853
hand	-1854
▁gemeente	-1855
▁voetbal	-1856
gr	-1857
▁zodat	-1858
▁Franse	-1859
yn	-1860
rak	-1861
▁fin	-1862
▁nieuws	-1863
uik	-1864
▁boeken	-1865
▁Toch	-1866
red	-1867
▁papa	-1868
ikker	-1869
▁politieke	-1870
▁kil	-1871
beelden	-1872
▁kor	-1873
▁form	-1874
anc	-1875
yyy	-1876
▁yyy	-1877
doen	-1878
▁der	-1879
▁keu	-1880
▁plek	-1881
ante	-1882
▁se	-1883
ene	-1884
▁los	-1885
▁tem	-1886
▁Paul	-1887
▁Willem	-1888
▁provin	-1889
boek	-1890
▁regen	-1891
▁mond	-1892
▁Duitse	-1893
pje	-1894
▁dezelfde	-1895
▁kast	-1896
leden	-1897
▁einde	-1898
ieten	-1899
▁25	-1900
derij	-1901
▁mon	-1902
▁geleden	-1903
▁Nederlands	-1904
▁uite	-1905
▁kamer	-1906
inus	-1907
▁handen	-1908
weer	-1909
iële	-1910
▁halen	-1911
onde	-1912
wegen	-1913
▁Alex	-1914
▁leger	-1915
▁schrij	-1916
iging	-1917
▁mogen	-1918
mat	-1919
arken	-1920
▁kru	-1921
▁Wil	-1922
ets	-1923
vloed	-1924
▁eiland	-1925
anders	-1926
▁=	-1927
ore	-1928
▁bot	-1929
rokken	-1930
▁duidelijk	-1931
▁dro	-1932
uari	-1933
aven	-1934
anger	-1935
▁Span	-1936
01	-1937
leven	-1938
ys	-1939
▁verwij	-1940
▁Zw	-1941
-12	-1942
▁100	-1943
achte	-1944
▁klim	-1945
▁leerlingen	-1946
aalt	-1947
ator	-1948
ton	-1949
▁trouw	-1950
▁geworden	-1951
▁ruimte	-1952
▁pakken	-1953
▁oe	-1954
etjes	-1955
▁kans	-1956
fl	-1957
▁overheid	-1958
▁rijk	-1959
zer	-1960
foon	-1961
▁Wereldoorlog	-1962
olle	-1963
▁voel	-1964
oemde	-1965
▁aller	-1966
59	-1967
▁maxim	-1968
67	-1969
rijden	-1970
▁bedrijf	-1971
▁ac	-1972
ukk	-1973
▁periode	-1974
ook	-1975
ara	-1976
ox	-1977
▁Nu	-1978
▁persoon	-1979
▁stof	-1980
gest	-1981
▁2.	-1982
urk	-1983
onnen	-1984
▁gezicht	-1985
schijnlijk	-1986
up	-1987
▁off	-1988
▁gebeurt	-1989
▁januari	-1990
▁Sam	-1991
▁alinea	-1992
▁uiteindelijk	-1993
▁im	-1994
ocent	-1995
sc	-1996
▁redenen	-1997
▁enige	-1998
▁Daarom	-1999
▁(12	-2000
▁dacht	-2001
recht	-2002
▁Nieuw	-2003
deeld	-2004
str	-2005
Maar	-2006
Ja	-2007
52	-2008
ose	-2009
stuk	-2010
▁tw	-2011
▁les	-2012
▁dire	-2013
▁VI	-2014
▁beeld	-2015
▁act	-2016
lijn	-2017
▁geluid	-2018
▁mocht	-2019
▁vertellen	-2020
ial	-2021
▁Bened	-2022
▁Nederl	-2023
spraak	-2024
▁mar	-2025
▁zetten	-2026
▁riep	-2027
gelopen	-2028
ged	-2029
▁behulp	-2030
uter	-2031
▁sommige	-2032
▁Benedict	-2033
▁dien	-2034
iemand	-2035
isc	-2036
53	-2037
▁produc	-2038
gebied	-2039
▁moesten	-2040
▁gemidd	-2041
▁ervoor	-2042
▁bepaalde	-2043
moc	-2044
▁Of	-2045
▁mannen	-2046
▁zwem	-2047
▁meneer	-2048
▁lied	-2049
▁tafel	-2050
▁21	-2051
uiden	-2052
▁actie	-2053
schappen	-2054
Je	-2055
▁bos	-2056
▁Benedictus	-2057
zo	-2058
▁welk	-2059
▁geboren	-2060
▁belangrijkste	-2061
hal	-2062
vrouw	-2063
▁gaf	-2064
▁verv	-2065
▁0,	-2066
ric	-2067
▁Jac	-2068
otter	-2069
▁koff	-2070
yl	-2071
▁maand	-2072
▁stand	-2073
▁Sh	-2074
▁leren	-2075
▁Fl	-2076
▁oo	-2077
ips	-2078
akkelijk	-2079
reden	-2080
ïn	-2081
eeg	-2082
istische	-2083
bs	-2084
spron	-2085
▁schree	-2086
64	-2087
raken	-2088
▁poes	-2089
ationale	-2090
▁taal	-2091
issen	-2092
yst	-2093
▁aarde	-2094
rat	-2095
▁res	-2096
▁Con	-2097
rim	-2098
▁Peter	-2099
annen	-2100
iezen	-2101
▁vogel	-2102
▁am	-2103
▁zes	-2104
▁hog	-2105
▁bevat	-2106
▁Gregor	-2107
▁steden	-2108
▁dorp	-2109
chn	-2110
▁oma	-2111
stel	-2112
▁berekening	-2113
ive	-2114
▁vervolgens	-2115
▁duur	-2116
▁hoge	-2117
▁zowel	-2118
In	-2119
▁leeft	-2120
▁zorg	-2121
▁veil	-2122
werpen	-2123
▁em	-2124
▁voorbeeld	-2125
hankelijk	-2126
▁midden	-2127
bron	-2128
▁stroom	-2129
▁av	-2130
ring	-2131
ositie	-2132
ooi	-2133
▁warm	-2134
inkrijk	-2135
▁liep	-2136
ikke	-2137
▁(18	-2138
zij	-2139
▁wedstrijd	-2140
wege	-2141
veren	-2142
▁blijkt	-2143
▁video	-2144
useum	-2145
ukkig	-2146
▁bek	-2147
31	-2148
cie	-2149
opt	-2150
▁delen	-2151
▁don	-2152
▁bleef	-2153
app	-2154
ield	-2155
ica	-2156
aans	-2157
oerd	-2158
▁comm	-2159
▁blauw	-2160
▁192	-2161
▁volle	-2162
▁arm	-2163
▁houdt	-2164
▁opv	-2165
▁Gregorius	-2166
▁kaart	-2167
▁stil	-2168
▁energie	-2169
▁zeven	-2170
uigen	-2171
▁lach	-2172
okken	-2173
elingen	-2174
clus	-2175
ioen	-2176
gelijk	-2177
▁pot	-2178
▁graf	-2179
AAR	-2180
▁norm	-2181
▁hee	-2182
▁tuin	-2183
▁mooie	-2184
▁band	-2185
▁slapen	-2186
▁th	-2187
omb	-2188
▁produ	-2189
▁50	-2190
▁Ad	-2191
lement	-2192
▁denkt	-2193
ossing	-2194
▁rijden	-2195
▁overl	-2196
▁med	-2197
▁Oosten	-2198
ummie	-2199
▁graag	-2200
ucces	-2201
▁planten	-2202
▁bur	-2203
orn	-2204
▁onderz	-2205
▁191	-2206
▁opdracht	-2207
▁Jap	-2208
▁Rusland	-2209
ude	-2210
▁hetzelfde	-2211
▁verschil	-2212
oost	-2213
ournaal	-2214
▁eerder	-2215
oder	-2216
▁verklaring	-2217
61	-2218
▁televis	-2219
ippen	-2220
▁toer	-2221
aus	-2222
▁punt	-2223
▁km	-2224
▁Ber	-2225
▁last	-2226
▁werkt	-2227
▁extra	-2228
▁New	-2229
appen	-2230
▁offic	-2231
▁voorkomen	-2232
▁voort	-2233
▁Haar	-2234
▁vij	-2235
▁verdw	-2236
▁zoon	-2237
▁verst	-2238
▁gren	-2239
▁gebouwd	-2240
blad	-2241
▁huil	-2242
▁reactie	-2243
▁Daarnaast	-2244
▁zoeken	-2245
sent	-2246
▁neemt	-2247
▁China	-2248
▁bijzonder	-2249
▁an	-2250
▁gevaar	-2251
▁jouw	-2252
▁bang	-2253
▁weergegeven	-2254
▁kopen	-2255
2.	-2256
57	-2257
jar	-2258
▁bank	-2259
▁praten	-2260
▁vanuit	-2261
▁len	-2262
akker	-2263
ald	-2264
▁meester	-2265
staande	-2266
ots	-2267
▁lid	-2268
▁hm	-2269
▁bevolking	-2270
derd	-2271
▁cult	-2272
▁hoofdstad	-2273
▁nacht	-2274
▁+	-2275
Ze	-2276
ffen	-2277
izer	-2278
▁station	-2279
"".	-2280
▁liet	-2281
rift	-2282
▁nad	-2283
▁super	-2284
▁gehouden	-2285
▁boos	-2286
ustr	-2287
▁uitleg	-2288
▁bi	-2289
▁minuten	-2290
▁	-2291
e	-2292
n	-2293
a	-2294
i	-2295
t	-2296
r	-2297
o	-2298
d	-2299
s	-2300
l	-2301
g	-2302
k	-2303
h	-2304
m	-2305
v	-2306
u	-2307
.	-2308
j	-2309
p	-2310
w	-2311
b	-2312
z	-2313
T	-2314
c	-2315
E	-2316
I	-2317
f	-2318
H	-2319
D	-2320
:	-2321
R	-2322
A	-2323
*	-2324
,	-2325
G	-2326
O	-2327
L	-2328
C	-2329
1	-2330
M	-2331
'	-2332
S	-2333
N	-2334
"	-2335
_	-2336
V	-2337
0	-2338
-	-2339
x	-2340
2	-2341
B	-2342
?	-2343
)	-2344
(	-2345
W	-2346
9	-2347
y	-2348
P	-2349
·	-2350
5	-2351
K	-2352
3	-2353
Z	-2354
4	-2355
J	-2356
8	-2357
6	-2358
7	-2359
F	-2360
!	-2361
U	-2362
ë	-2363
é	-2364
•	-2365
X	-2366
Y	-2367
/	-2368
;	-2369
%	-2370
ə	-2371
ï	-2372
&	-2373
q	-2374
+	-2375
Q	-2376
è	-2377
ó	-2378
=	-2379
á	-2380
ü	-2381
ö	-2382
í	-2383
|	-2384
]	-2385
[	-2386
\	-2387
°	-2388
ç	-2389
€	-2390
ä	-2391
É	-2392
ɑ	-2393
ɨ	-2394
ø	-2395
ɛ	-2396
ú	-2397
{	-2398
à	-2399
@	-2400
ć	-2401
$	-2402
ê	-2403
â	-2404
>	-2405
#	-2406
ñ	-2407
ô	-2408
š	-2409
→	-2410
Ö	-2411
×	-2412
а	-2413
å	-2414
ō	-2415
~	-2416
α	-2417
®	-2418
ß	-2419
ã	-2420
ı	-2421
и	-2422
ο	-2423
о	-2424
č	-2425
Ë	-2426
Å	-2427
Æ	-2428
ɘ	-2429
ا	-2430
ş	-2431
μ	-2432
⁄	-2433
ν	-2434
е	-2435
н	-2436
ς	-2437
ğ	-2438
●	-2439
đ	-2440
ʔ	-2441
←	-2442
ș	-2443
р	-2444
ل	-2445
ð	-2446
ρ	-2447
λ	-2448
ε	-2449
ι	-2450
к	-2451
ł	-2452
<	-2453
œ	-2454
τ	-2455
û	-2456
в	-2457
с	-2458
È	-2459
î	-2460
Č	-2461
л	-2462
ž	-2463
っ	-2464
±	-2465
ý	-2466
ぽ	-2467
π	-2468
Î	-2469
ă	-2470
ي	-2471
κ	-2472
Á	-2473
ò	-2474
η	-2475
σ	-2476
ū	-2477
ā	-2478
т	-2479
م	-2480
ί	-2481
♭	-2482
ن	-2483
Ó	-2484
ب	-2485
ń	-2486
д	-2487
ر	-2488
^	-2489
ì	-2490
υ	-2491
ό	-2492
−	-2493
ț	-2494
æ	-2495
ī	-2496
ぴ	-2497
Š	-2498
ά	-2499
◉	-2500
Ø	-2501
ē	-2502
ě	-2503
Ž	-2504
γ	-2505
м	-2506
θ	-2507
د	-2508
ь	-2509
†	-2510
}	-2511
Ï	-2512
ù	-2513
у	-2514
空	-2515
航	-2516
ŋ	-2517
ع	-2518
þ	-2519
έ	-2520
▲	-2521
£	-2522
Í	-2523
ω	-2524
С	-2525
й	-2526
­	-2527
Ü	-2528
و	-2529
п	-2530
ʕ	-2531
δ	-2532
س	-2533
Ç	-2534
ة	-2535
İ	-2536
А	-2537
я	-2538
َ	-2539
ė	-2540
◀	-2541
י	-2542
ー	-2543
À	-2544
ή	-2545
Ú	-2546
ś	-2547
ч	-2548
▶	-2549
Đ	-2550
і	-2551
ה	-2552
©	-2553
Ł	-2554
Ş	-2555
χ	-2556
г	-2557
ř	-2558
Ε	-2559
ح	-2560
中	-2561
б	-2562
☺	-2563
公	-2564
ż	-2565
В	-2566
ه	-2567
К	-2568
ц	-2569
ר	-2570
ế	-2571
市	-2572
ź	-2573
ǎ	-2574
β	-2575
ύ	-2576
‐	-2577
õ	-2578
ŷ	-2579
ʃ	-2580
́	-2581
ы	-2582
า	-2583
司	-2584
Π	-2585
ו	-2586
ت	-2587
▼	-2588
ę	-2589
φ	-2590
М	-2591
ร	-2592
♠	-2593
️	-2594
ɔ	-2595
Α	-2596
Н	-2597
Р	-2598
ك	-2599
♣	-2600
з	-2601
☆	-2602
♢	-2603
ą	-2604
ő	-2605
ư	-2606
Σ	-2607
ל	-2608
♡	-2609
国	-2610
子	-2611
Ω	-2612
Б	-2613
أ	-2614
ْ	-2615
琴	-2616
ħ	-2617
ʻ	-2618
א	-2619
ת	-2620
ف	-2621
大	-2622
ד	-2623
ش	-2624
ط	-2625
ق	-2626
น	-2627
ม	-2628
្	-2629
○	-2630
海	-2631
鼓	-2632
Κ	-2633
Л	-2634
П	-2635
ב	-2636
ج	-2637
人	-2638
ǐ	-2639
ζ	-2640
ώ	-2641
О	-2642
ُ	-2643
ิ	-2644
ស	-2645
太	-2646
木	-2647
Ä	-2648
Λ	-2649
ξ	-2650
ש	-2651
خ	-2652
ِ	-2653
ท	-2654
ờ	-2655
↓	-2656
♥	-2657
山	-2658
東	-2659
Ñ	-2660
ÿ	-2661
Δ	-2662
Θ	-2663
Т	-2664
ж	-2665
ш	-2666
ע	-2667
ّ	-2668
រ	-2669
ệ	-2670
√	-2671
の	-2672
三	-2673
和	-2674
方	-2675
日	-2676
¡	-2677
¥	-2678
Â	-2679
̄	-2680
ψ	-2681
Е	-2682
ח	-2683
מ	-2684
र	-2685
ớ	-2686
♒	-2687
港	-2688
西	-2689
香	-2690
Þ	-2691
Ġ	-2692
ţ	-2693
ƒ	-2694
ǒ	-2695
ǔ	-2696
Μ	-2697
Ν	-2698
Г	-2699
Ф	-2700
Ч	-2701
х	-2702
ַ	-2703
פ	-2704
ز	-2705
ی	-2706
न	-2707
ा	-2708
्	-2709
ồ	-2710
ộ	-2711
Ἀ	-2712
京	-2713
北	-2714
國	-2715
本	-2716
ů	-2717
ȟ	-2718
ё	-2719
ј	-2720
ם	-2721
ص	-2722
ย	-2723
เ	-2724
ậ	-2725
ἀ	-2726
ἄ	-2727
⁠	-2728
♫	-2729
✯	-2730
い	-2731
ジ	-2732
ス	-2733
上	-2734
地	-2735
州	-2736
有	-2737
民	-2738
胡	-2739
限	-2740
이	-2741
§	-2742
Ō	-2743
Ś	-2744
̈	-2745
Γ	-2746
Τ	-2747
Х	-2748
ֶ	-2749
ג	-2750
נ	-2751
ٱ	-2752
ด	-2753
บ	-2754
พ	-2755
ะ	-2756
Ḥ	-2757
ạ	-2758
ề	-2759
≤	-2760
た	-2761
め	-2762
ン	-2763
东	-2764
南	-2765
道	-2766
÷	-2767
ŏ	-2768
Ż	-2769
ơ	-2770
ʿ	-2771
Ι	-2772
Д	-2773
ї	-2774
ְ	-2775
ִ	-2776
ּ	-2777
غ	-2778
ल	-2779
ी	-2780
ห	-2781
គ	-2782
ែ	-2783
ấ	-2784
ắ	-2785
▪	-2786
►	-2787
ト	-2788
ュ	-2789
島	-2790
澳	-2791
甘	-2792
紫	-2793
線	-2794
野	-2795
金	-2796
Ā	-2797
ľ	-2798
ʀ	-2799
ˈ	-2800
ː	-2801
Β	-2802
Φ	-2803
ָ	-2804
ֹ	-2805
إ	-2806
ث	-2807
त	-2808
म	-2809
จ	-2810
ช	-2811
ล	-2812
ა	-2813
ខ	-2814
ễ	-2815
ố	-2816
ὄ	-2817
ὐ	-2818
≥	-2819
├	-2820
█	-2821
■	-2822
✗	-2823
❤	-2824
ⴰ	-2825
ⵓ	-2826
が	-2827
き	-2828
そ	-2829
と	-2830
な	-2831
や	-2832
る	-2833
タ	-2834
ラ	-2835
ル	-2836
二	-2837
古	-2838
安	-2839
年	-2840
我	-2841
政	-2842
文	-2843
月	-2844
松	-2845
楽	-2846
生	-2847
福	-2848
菜	-2849
门	-2850
音	-2851
¿	-2852
Ê	-2853
Ô	-2854
ġ	-2855
ņ	-2856
ň	-2857
ɪ	-2858
ʉ	-2859
Χ	-2860
З	-2861
ю	-2862
є	-2863
ե	-2864
ֲ	-2865
כ	-2866
ظ	-2867
ى	-2868
ि	-2869
ो	-2870
ก	-2871
ั	-2872
ი	-2873
ក	-2874
ម	-2875
យ	-2876
ḗ	-2877
ḥ	-2878
ṃ	-2879
ṭ	-2880
ị	-2881
ứ	-2882
ừ	-2883
ἤ	-2884
ὀ	-2885
ῆ	-2886
≈	-2887
♯	-2888
ⵔ	-2889
あ	-2890
せ	-2891
ど	-2892
ん	-2893
ツ	-2894
ナ	-2895
ニ	-2896
会	-2897
共	-2898
名	-2899
城	-2900
川	-2901
新	-2902
明	-2903
李	-2904
格	-2905
正	-2906
武	-2907
江	-2908
治	-2909
琵	-2910
琶	-2911
田	-2912
締	-2913
美	-2914
老	-2915
華	-2916
行	-2917
記	-2918
貴	-2919
門	-2920
🏆	-2921
😄	-2922
¢	-2923
Ò	-2924
Ć	-2925
Ċ	-2926
ĕ	-2927
ĩ	-2928
Œ	-2929
ŭ	-2930
ʾ	-2931
͡	-2932
Ό	-2933
Ύ	-2934
Ο	-2935
ϊ	-2936
І	-2937
Ј	-2938
Я	-2939
ф	-2940
ր	-2941
ן	-2942
ס	-2943
ܐ	-2944
क	-2945
ध	-2946
प	-2947
स	-2948
ข	-2949
ธ	-2950
ภ	-2951
อ	-2952
ี	-2953
ุ	-2954
โ	-2955
ไ	-2956
ํ	-2957
າ	-2958
რ	-2959
ព	-2960
ា	-2961
ី	-2962
ៃ	-2963
ំ	-2964
៉	-2965
ầ	-2966
ữ	-2967
Ἐ	-2968
ῦ	-2969
›	-2970
⃣	-2971
♂	-2972
♪	-2973
⠇	-2974
ⴱ	-2975
ⵉ	-2976
ⵎ	-2977
ⵏ	-2978
。	-2979
こ	-2980
で	-2981
ふ	-2982
ま	-2983
ら	-2984
り	-2985
わ	-2986
イ	-2987
シ	-2988
メ	-2989
ロ	-2990
・	-2991
世	-2992
丸	-2993
仁	-2994
付	-2995
份	-2996
克	-2997
円	-2998
勇	-2999
勝	-3000
化	-3001
匹	-3002
华	-3003
原	-3004
合	-3005
四	-3006
在	-3007
士	-3008
夫	-3009
失	-3010
好	-3011
宗	-3012
富	-3013
小	-3014
岡	-3015
平	-3016
弦	-3017
斗	-3018
曲	-3019
林	-3020
泉	-3021
皇	-3022
皮	-3023
私	-3024
秦	-3025
箏	-3026
絃	-3027
股	-3028
芭	-3029
贵	-3030
遊	-3031
部	-3032
都	-3033
間	-3034
阮	-3035
鹿	-3036
黄	-3037
가	-3038
방	-3039
아	-3040
한	-3041
🇳	-3042
😂	-3043
😅	-3044
😭	-3045
😳	-3046
🚨	-3047
Ð	-3048
ċ	-3049
Ď	-3050
į	-3051
Ľ	-3052
ŝ	-3053
ų	-3054
Ź	-3055
Ɔ	-3056
ǧ	-3057
ɡ	-3058
ˌ	-3059
̊	-3060
Ρ	-3061
Υ	-3062
И	-3063
У	-3064
Ц	-3065
Ш	-3066
Э	-3067
щ	-3068
ъ	-3069
љ	-3070
њ	-3071
Հ	-3072
ա	-3073
յ	-3074
ն	-3075
ֵ	-3076
ׂ	-3077
ץ	-3078
צ	-3079
ء	-3080
آ	-3081
މ	-3082
ަ	-3083
ग	-3084
च	-3085
ज	-3086
द	-3087
ह	-3088
े	-3089
ర	-3090
ా	-3091
్	-3092
ค	-3093
ง	-3094
ต	-3095
ส	-3096
ู	-3097
้	-3098
་	-3099
ာ	-3100
ლ	-3101
ნ	-3102
უ	-3103
ქ	-3104
ដ	-3105
ន	-3106
ប	-3107
ភ	-3108
ល	-3109
ឹ	-3110
ុ	-3111
ḃ	-3112
ḋ	-3113
ṣ	-3114
ẞ	-3115
ả	-3116
ẫ	-3117
ἥ	-3118
ἰ	-3119
Ἰ	-3120
ῶ	-3121
‍	-3122
⁣	-3123
₡	-3124
₩	-3125
↑	-3126
∞	-3127
◎	-3128
♦	-3129
✍	-3130
❗	-3131
⠑	-3132
⠠	-3133
⧼	-3134
⧽	-3135
ⵜ	-3136
う	-3137
か	-3138
け	-3139
ご	-3140
さ	-3141
し	-3142
だ	-3143
は	-3144
ば	-3145
ろ	-3146
ア	-3147
カ	-3148
コ	-3149
サ	-3150
ズ	-3151
ゼ	-3152
ブ	-3153
プ	-3154
ミ	-3155
ヨ	-3156
一	-3157
七	-3158
乌	-3159
九	-3160
井	-3161
代	-3162
仮	-3163
伝	-3164
何	-3165
你	-3166
元	-3167
光	-3168
凡	-3169
出	-3170
功	-3171
动	-3172
動	-3173
台	-3174
史	-3175
味	-3176
园	-3177
園	-3178
圓	-3179
夏	-3180
天	-3181
奚	-3182
奥	-3183
奧	-3184
女	-3185
妈	-3186
字	-3187
孙	-3188
季	-3189
学	-3190
孫	-3191
客	-3192
尾	-3193
币	-3194
帝	-3195
幣	-3196
幸	-3197
广	-3198
府	-3199
建	-3200
式	-3201
微	-3202
徽	-3203
快	-3204
悟	-3205
拍	-3206
放	-3207
斜	-3208
星	-3209
景	-3210
智	-3211
柳	-3212
校	-3213
横	-3214
歌	-3215
毛	-3216
水	-3217
決	-3218
河	-3219
法	-3220
泰	-3221
津	-3222
浜	-3223
清	-3224
湖	-3225
湘	-3226
潟	-3227
片	-3228
物	-3229
特	-3230
王	-3231
瓜	-3232
畿	-3233
白	-3234
皖	-3235
県	-3236
石	-3237
社	-3238
神	-3239
祥	-3240
禁	-3241
笙	-3242
粤	-3243
红	-3244
義	-3245
联	-3246
聖	-3247
自	-3248
花	-3249
英	-3250
葉	-3251
虎	-3252
蛇	-3253
詩	-3254
語	-3255
谢	-3256
貝	-3257
車	-3258
运	-3259
送	-3260
造	-3261
運	-3262
鈴	-3263
鉦	-3264
長	-3265
长	-3266
関	-3267
阿	-3268
陽	-3269
静	-3270
非	-3271
面	-3272
風	-3273
飲	-3274
高	-3275
鹏	-3276
黃	-3277
黔	-3278
龍	-3279
게	-3280
나	-3281
대	-3282
락	-3283
목	-3284
민	-3285
복	-3286
빈	-3287
산	-3288
서	-3289
수	-3290
스	-3291
어	-3292
오	-3293
울	-3294
정	-3295
주	-3296
진	-3297
창	-3298
투	-3299
현	-3300
🇱	-3301
👊	-3302
📺	-3303
😀	-3304
😱	-3305
🙏	-3306
🤯	-3307
¤	-3308
¬	-3309
Ý	-3310
Ă	-3311
Ą	-3312
Ę	-3313
ĝ	-3314
Ģ	-3315
ĥ	-3316
Ħ	-3317
Ī	-3318
ĭ	-3319
Ķ	-3320
ĺ	-3321
Ļ	-3322
ļ	-3323
Ń	-3324
Ņ	-3325
Ŝ	-3326
ť	-3327
Ū	-3328
ŵ	-3329
ǖ	-3330
ǜ	-3331
Ǻ	-3332
ǿ	-3333
Ș	-3334
Ȟ	-3335
ɕ	-3336
ɣ	-3337
ɬ	-3338
ɹ	-3339
ʊ	-3340
ʖ	-3341
̃	-3342
̆	-3343
̌	-3344
̱	-3345
͜	-3346
Ζ	-3347
Η	-3348
Ξ	-3349
Ψ	-3350
Ж	-3351
э	-3352
ћ	-3353
ў	-3354
ҫ	-3355
ү	-3356
ҳ	-3357
Ҷ	-3358
ҷ	-3359
դ	-3360
ׁ	-3361
ט	-3362
،	-3363
ئ	-3364
ذ	-3365
ض	-3366
ٌ	-3367
ٍ	-3368
ٔ	-3369
پ	-3370
چ	-3371
ک	-3372
ڬ	-3373
ܙ	-3374
ܝ	-3375
ܠ	-3376
ܢ	-3377
ܦ	-3378
އ	-3379
ލ	-3380
ސ	-3381
ޤ	-3382
ާ	-3383
ީ	-3384
ު	-3385
ް	-3386
ं	-3387
ः	-3388
ए	-3389
घ	-3390
ट	-3391
ड	-3392
ण	-3393
ब	-3394
य	-3395
व	-3396
श	-3397
़	-3398
ै	-3399
ौ	-3400
ॐ	-3401
৲	-3402
৳	-3403
చ	-3404
న	-3405
మ	-3406
ి	-3407
ณ	-3408
ถ	-3409
ป	-3410
ฤ	-3411
ว	-3412
ศ	-3413
ษ	-3414
แ	-3415
ใ	-3416
็	-3417
่	-3418
ຂ	-3419
ຄ	-3420
ນ	-3421
ພ	-3422
ມ	-3423
ລ	-3424
ວ	-3425
ສ	-3426
ິ	-3427
ແ	-3428
ཁ	-3429
ང	-3430
ར	-3431
ོ	-3432
ྫ	-3433
စ	-3434
ဗ	-3435
မ	-3436
დ	-3437
ე	-3438
ვ	-3439
თ	-3440
მ	-3441
ო	-3442
ტ	-3443
შ	-3444
በ	-3445
ና	-3446
ገ	-3447
ᐃ	-3448
ᑎ	-3449
ᑐ	-3450
ᑦ	-3451
ᒃ	-3452
ᓄ	-3453
᛫	-3454
᛬	-3455
᛭	-3456
ឃ	-3457
ង	-3458
ច	-3459
ឆ	-3460
ឌ	-3461
ទ	-3462
ធ	-3463
វ	-3464
ឡ	-3465
អ	-3466
ួ	-3467
ើ	-3468
ៀ	-3469
េ	-3470
ោ	-3471
ḏ	-3472
ḷ	-3473
Ṁ	-3474
ṁ	-3475
ṇ	-3476
Ấ	-3477
ẽ	-3478
ọ	-3479
ợ	-3480
ủ	-3481
ỳ	-3482
Ἁ	-3483
ἔ	-3484
Ἑ	-3485
ἡ	-3486
Ἤ	-3487
ἱ	-3488
Ἶ	-3489
ὁ	-3490
ὅ	-3491
ὑ	-3492
ὕ	-3493
Ὠ	-3494
ὺ	-3495
ῃ	-3496
ῇ	-3497
ῖ	-3498
ῥ	-3499
ῷ	-3500
‬	-3501
₤	-3502
₪	-3503
₫	-3504
₮	-3505
₯	-3506
₱	-3507
₴	-3508
₵	-3509
₺	-3510
₽	-3511
⃰	-3512
℧	-3513
↔	-3514
≡	-3515
⏰	-3516
│	-3517
◢	-3518
◤	-3519
☄	-3520
★	-3521
☲	-3522
♀	-3523
♘	-3524
♧	-3525
⚡	-3526
⚥	-3527
⚪	-3528
✂	-3529
✔	-3530
❀	-3531
➡	-3532
⠀	-3533
⠅	-3534
⠓	-3535
⠢	-3536
⠻	-3537
⬅	-3538
ⴻ	-3539
ⴽ	-3540
ⵍ	-3541
ⵖ	-3542
ⵛ	-3543
ⵢ	-3544
〜	-3545
お	-3546
く	-3547
ざ	-3548
ず	-3549
ち	-3550
に	-3551
ひ	-3552
ぺ	-3553
も	-3554
れ	-3555
ィ	-3556
オ	-3557
ガ	-3558
キ	-3559
グ	-3560
ソ	-3561
ヂ	-3562
デ	-3563
ド	-3564
ノ	-3565
バ	-3566
ビ	-3567
ベ	-3568
ボ	-3569
ャ	-3570
ョ	-3571
リ	-3572
ワ	-3573
丁	-3574
下	-3575
专	-3576
业	-3577
个	-3578
主	-3579
义	-3580
亀	-3581
了	-3582
五	-3583
今	-3584
仙	-3585
们	-3586
住	-3587
佑	-3588
作	-3589
価	-3590
修	-3591
先	-3592
児	-3593
八	-3594
具	-3595
典	-3596
再	-3597
军	-3598
凯	-3599
分	-3600
刊	-3601
列	-3602
別	-3603
别	-3604
制	-3605
前	-3606
剪	-3607
包	-3608
区	-3609
區	-3610
十	-3611
卍	-3612
卐	-3613
協	-3614
卿	-3615
厦	-3616
参	-3617
友	-3618
发	-3619
叙	-3620
可	-3621
右	-3622
叶	-3623
吉	-3624
后	-3625
吐	-3626
吗	-3627
君	-3628
吳	-3629
吾	-3630
命	-3631
咸	-3632
員	-3633
喜	-3634
喧	-3635
嘩	-3636
器	-3637
圆	-3638
土	-3639
圳	-3640
场	-3641
坛	-3642
堺	-3643
声	-3644
壽	-3645
夕	-3646
夢	-3647
央	-3648
始	-3649
姫	-3650
婦	-3651
嬴	-3652
宣	-3653
室	-3654
宫	-3655
宰	-3656
宿	-3657
対	-3658
專	-3659
少	-3660
屋	-3661
履	-3662
崎	-3663
巡	-3664
帯	-3665
幌	-3666
広	-3667
庆	-3668
庭	-3669
廈	-3670
廣	-3671
弓	-3672
弟	-3673
弥	-3674
很	-3675
志	-3676
忠	-3677
憑	-3678
成	-3679
房	-3680
手	-3681
抖	-3682
拳	-3683
敦	-3684
数	-3685
數	-3686
断	-3687
旗	-3688
昆	-3689
春	-3690
是	-3691
時	-3692
晩	-3693
曹	-3694
會	-3695
札	-3696
杜	-3697
条	-3698
板	-3699
査	-3700
栂	-3701
栄	-3702
株	-3703
桃	-3704
桐	-3705
梅	-3706
條	-3707
楚	-3708
業	-3709
樂	-3710
樹	-3711
樺	-3712
橋	-3713
機	-3714
檀	-3715
欢	-3716
此	-3717
死	-3718
殷	-3719
氏	-3720
気	-3721
氣	-3722
汉	-3723
沪	-3724
油	-3725
泛	-3726
泽	-3727
活	-3728
派	-3729
浄	-3730
深	-3731
渓	-3732
湾	-3733
漢	-3734
潤	-3735
澤	-3736
火	-3737
炊	-3738
烏	-3739
無	-3740
熊	-3741
燕	-3742
爆	-3743
牛	-3744
狐	-3745
狩	-3746
猫	-3747
玄	-3748
玉	-3749
珍	-3750
琼	-3751
瑟	-3752
環	-3753
瓊	-3754
甫	-3755
町	-3756
界	-3757
異	-3758
登	-3759
百	-3760
的	-3761
盈	-3762
益	-3763
着	-3764
知	-3765
研	-3766
硫	-3767
碎	-3768
碧	-3769
碩	-3770
秋	-3771
究	-3772
章	-3773
竹	-3774
笏	-3775
筑	-3776
筷	-3777
箜	-3778
箸	-3779
篌	-3780
篥	-3781
篳	-3782
糖	-3783
紙	-3784
絲	-3785
維	-3786
綱	-3787
緑	-3788
編	-3789
縄	-3790
约	-3791
羯	-3792
翰	-3793
耽	-3794
聯	-3795
肃	-3796
肅	-3797
能	-3798
腦	-3799
芹	-3800
草	-3801
莉	-3802
葵	-3803
蔚	-3804
蔵	-3805
蕉	-3806
藤	-3807
虚	-3808
螺	-3809
衛	-3810
裕	-3811
製	-3812
観	-3813
见	-3814
誌	-3815
說	-3816
論	-3817
謡	-3818
譜	-3819
诞	-3820
语	-3821
课	-3822
賀	-3823
贛	-3824
赣	-3825
越	-3826
趙	-3827
路	-3828
軍	-3829
过	-3830
近	-3831
进	-3832
速	-3833
週	-3834
進	-3835
遜	-3836
邱	-3837
郡	-3838
酒	-3839
里	-3840
重	-3841
釜	-3842
釣	-3843
銀	-3844
鐘	-3845
鐸	-3846
閏	-3847
閩	-3848
闽	-3849
阪	-3850
际	-3851
陇	-3852
陕	-3853
陣	-3854
陵	-3855
隴	-3856
雍	-3857
雑	-3858
雙	-3859
雪	-3860
雲	-3861
電	-3862
青	-3863
鞨	-3864
韓	-3865
韩	-3866
颐	-3867
飛	-3868
飞	-3869
飯	-3870
餅	-3871
館	-3872
首	-3873
騨	-3874
马	-3875
骂	-3876
魚	-3877
魯	-3878
鯤	-3879
鲁	-3880
鲲	-3881
鴨	-3882
鵬	-3883
鷹	-3884
鹰	-3885
麻	-3886
齊	-3887
齐	-3888
龙	-3889
공	-3890
광	-3891
구	-3892
국	-3893
김	-3894
내	-3895
년	-3896
노	-3897
단	-3898
더	-3899
된	-3900
레	-3901
로	-3902
리	-3903
릭	-3904
림	-3905
막	-3906
모	-3907
바	-3908
박	-3909
별	-3910
부	-3911
사	-3912
상	-3913
성	-3914
소	-3915
송	-3916
숟	-3917
승	-3918
시	-3919
애	-3920
엔	-3921
연	-3922
열	-3923
요	-3924
용	-3925
우	-3926
원	-3927
은	-3928
인	-3929
임	-3930
재	-3931
저	-3932
전	-3933
젓	-3934
즈	-3935
지	-3936
징	-3937
찬	-3938
천	-3939
체	-3940
케	-3941
키	-3942
탁	-3943
탄	-3944
트	-3945
특	-3946
팝	-3947
필	-3948
하	-3949
행	-3950
호	-3951
황	-3952
	-3953
𐎠	-3954
𐎱	-3955
𐎼	-3956
𐎿	-3957
𒂗	-3958
𒄀	-3959
𒆠	-3960
🇫	-3961
🇮	-3962
🇷	-3963
🌋	-3964
🌌	-3965
🎞	-3966
🏻	-3967
🐐	-3968
👀	-3969
👋	-3970
👎	-3971
💔	-3972
💚	-3973
💥	-3974
🔓	-3975
🔥	-3976
🕷	-3977
😊	-3978
😍	-3979
😜	-3980
😢	-3981
😬	-3982
🚀	-3983
🟢	-3984
🤖	-3985
🤦	-3986
🤨	-3987
🤲	-3988
🥀	-3989
🥰	-3990
