<pad>	0
<unk>	0
<s>	0
</s>	0
[PAD]	0
[UNK]	0
[CLS]	0
[SEP]	0
[MASK]	0
en	-0
er	-1
▁d	-2
an	-3
▁v	-4
et	-5
▁h	-6
in	-7
el	-8
ij	-9
▁de	-10
aa	-11
▁o	-12
st	-13
▁w	-14
▁m	-15
or	-16
▁z	-17
▁g	-18
▁b	-19
▁e	-20
ie	-21
ch	-22
▁t	-23
at	-24
▁*	-25
▁k	-26
▁n	-27
aar	-28
is	-29
▁a	-30
▁een	-31
▁van	-32
on	-33
▁en	-34
▁het	-35
it	-36
oor	-37
▁in	-38
ee	-39
▁j	-40
oe	-41
den	-42
der	-43
▁D	-44
▁ge	-45
de	-46
▁s	-47
▁l	-48
gen	-49
▁p	-50
▁is	-51
CH	-52
LD	-53
CHI	-54
ET	-55
CHILD	-56
AR	-57
al	-58
GET	-59
TAR	-60
TARGET	-61
ro	-62
▁op	-63
ar	-64
ing	-65
ijn	-66
ken	-67
cht	-68
re	-69
▁st	-70
le	-71
ik	-72
om	-73
▁H	-74
▁be	-75
▁ver	-76
ge	-77
▁te	-78
il	-79
ol	-80
ijk	-81
eer	-82
and	-83
▁dat	-84
iet	-85
▁al	-86
am	-87
ou	-88
▁I	-89
uit	-90
ER	-91
as	-92
ur	-93
je	-94
▁voor	-95
▁De	-96
▁ze	-97
▁je	-98
▁zijn	-99
▁met	-100
▁B	-101
▁(	-102
TH	-103
THER	-104
▁1	-105
▁A	-106
eel	-107
ig	-108
oo	-109
▁E	-110
▁S	-111
te	-112
ver	-113
us	-114
▁M	-115
▁die	-116
aat	-117
id	-118
OTHER	-119
▁er	-120
ok	-121
MOTHER	-122
▁aan	-123
un	-124
▁'	-125
▁on	-126
ot	-127
▁he	-128
▁N	-129
▁niet	-130
ra	-131
ier	-132
ven	-133
▁uit	-134
▁V	-135
▁"	-136
og	-137
▁·	-138
▁wor	-139
▁W	-140
aan	-141
sch	-142
▁T	-143
ten	-144
▁G	-145
▁O	-146
AT	-147
xx	-148
ST	-149
OR	-150
IN	-151
ru	-152
IG	-153
VE	-154
sen	-155
STIG	-156
ATOR	-157
VESTIG	-158
INVESTIG	-159
INVESTIGATOR	-160
▁om	-161
▁2	-162
▁wer	-163
ad	-164
▁f	-165
se	-166
aal	-167
ft	-168
▁ook	-169
▁C	-170
▁Z	-171
uw	-172
ste	-173
▁L	-174
ze	-175
▁P	-176
▁zo	-177
rij	-178
▁hij	-179
ag	-180
elijk	-181
▁K	-182
▁In	-183
▁bij	-184
▁was	-185
op	-186
▁over	-187
▁we	-188
dt	-189
ien	-190
ap	-191
▁maar	-192
▁sch	-193
oet	-194
ers	-195
▁naar	-196
▁c	-197
▁J	-198
oen	-199
kt	-200
▁ik	-201
▁dan	-202
▁als	-203
ele	-204
▁re	-205
men	-206
nen	-207
▁Het	-208
▁door	-209
▁R	-210
len	-211
▁of	-212
he	-213
▁wat	-214
ant	-215
ul	-216
uur	-217
▁ja	-218
ond	-219
▁waar	-220
ak	-221
eeft	-222
▁heb	-223
ct	-224
▁geb	-225
ingen	-226
▁r	-227
eld	-228
ang	-229
00	-230
▁le	-231
im	-232
land	-233
▁sp	-234
▁af	-235
ander	-236
ist	-237
ke	-238
▁nog	-239
."	-240
▁wel	-241
▁wordt	-242
▁onder	-243
wee	-244
eren	-245
▁heeft	-246
▁kan	-247
oed	-248
▁F	-249
▁worden	-250
▁xx	-251
▁xxx	-252
pen	-253
atie	-254
gt	-255
jes	-256
▁kun	-257
isch	-258
ic	-259
ind	-260
▁alle	-261
▁deze	-262
▁werd	-263
▁moet	-264
ent	-265
icht	-266
▁19	-267
sp	-268
▁bl	-269
acht	-270
▁daar	-271
▁dit	-272
▁meer	-273
eeld	-274
▁gro	-275
▁-	-276
▁men	-277
es	-278
ter	-279
raa	-280
roe	-281
▁kom	-282
▁ander	-283
ich	-284
elen	-285
os	-286
ed	-287
um	-288
▁haar	-289
orm	-290
ige	-291
▁hier	-292
em	-293
..	-294
ut	-295
eder	-296
oek	-297
zen	-298
ben	-299
ip	-300
een	-301
ast	-302
▁pl	-303
oord	-304
▁wil	-305
▁twee	-306
aren	-307
▁mee	-308
▁veel	-309
▁tot	-310
ijd	-311
▁(1	-312
-1	-313
▁hebben	-314
ker	-315
ia	-316
ië	-317
aten	-318
▁vol	-319
▁pro	-320
▁Al	-321
▁Neder	-322
▁ont	-323
elf	-324
▁had	-325
of	-326
iek	-327
art	-328
aak	-329
▁3	-330
▁Hij	-331
ische	-332
▁Een	-333
amen	-334
sl	-335
▁weer	-336
uk	-337
inder	-338
▁Ze	-339
lijk	-340
gel	-341
heid	-342
wer	-343
ere	-344
oon	-345
▁ma	-346
▁20	-347
ron	-348
od	-349
ies	-350
ran	-351
beeld	-352
mer	-353
▁gev	-354
.'	-355
▁Nederland	-356
▁gaat	-357
ruik	-358
sten	-359
▁zich	-360
uis	-361
▁En	-362
ine	-363
▁eer	-364
,'	-365
▁kl	-366
ouw	-367
igen	-368
▁me	-369
be	-370
▁goed	-371
ieuw	-372
▁jaar	-373
▁nee	-374
▁hoe	-375
eten	-376
▁sl	-377
we	-378
ool	-379
▁•	-380
lie	-381
▁andere	-382
rie	-383
ne	-384
▁kunnen	-385
ion	-386
af	-387
▁hem	-388
▁geen	-389
▁mensen	-390
ale	-391
uid	-392
ger	-393
▁kon	-394
▁kle	-395
ug	-396
ve	-397
rijk	-398
▁tegen	-399
ab	-400
▁ie	-401
ree	-402
▁hoo	-403
▁moe	-404
aam	-405
ir	-406
ussen	-407
▁gaan	-408
▁ter	-409
dat	-410
chter	-411
▁gem	-412
ster	-413
▁zit	-414
els	-415
▁Op	-416
onder	-417
elk	-418
ber	-419
▁St	-420
aakt	-421
▁beg	-422
▁hun	-423
voor	-424
oem	-425
▁best	-426
▁zou	-427
ui	-428
ort	-429
oc	-430
▁bet	-431
ell	-432
tje	-433
▁kw	-434
alen	-435
gens	-436
pt	-437
▁ro	-438
▁4	-439
▁nu	-440
▁staat	-441
per	-442
omen	-443
rouw	-444
▁doen	-445
anden	-446
▁toen	-447
ink	-448
▁sn	-449
ater	-450
oren	-451
▁maken	-452
bl	-453
▁nou	-454
oud	-455
▁versch	-456
▁na	-457
ide	-458
▁heel	-459
▁gew	-460
▁gebruik	-461
""	-462
ctie	-463
eef	-464
oel	-465
▁U	-466
oer	-467
II	-468
▁Er	-469
▁bed	-470
innen	-471
ank	-472
▁even	-473
▁""	-474
ite	-475
▁gen	-476
maal	-477
▁bel	-478
▁toe	-479
▁Maar	-480
▁zegt	-481
▁komt	-482
▁5	-483
omm	-484
▁man	-485
ren	-486
aard	-487
▁Dit	-488
▁waren	-489
als	-490
▁hele	-491
ieren	-492
och	-493
▁gez	-494
kst	-495
iets	-496
vol	-497
▁nieuw	-498
▁zelf	-499
onden	-500
wij	-501
ius	-502
▁Dat	-503
).	-504
▁kinder	-505
racht	-506
?'	-507
▁Ik	-508
FA	-509
fd	-510
▁jij	-511
▁weg	-512
gev	-513
▁Je	-514
▁ben	-515
▁water	-516
pl	-517
open	-518
schap	-519
▁land	-520
▁bo	-521
▁Le	-522
eed	-523
kend	-524
▁verk	-525
woord	-526
▁tijd	-527
▁elk	-528
▁201	-529
▁tussen	-530
▁lang	-531
FATHER	-532
ann	-533
▁Als	-534
uro	-535
▁ged	-536
▁grote	-537
eek	-538
ment	-539
iden	-540
elijke	-541
▁alleen	-542
raag	-543
▁gel	-544
illen	-545
▁200	-546
▁ar	-547
▁groot	-548
▁jon	-549
▁per	-550
▁mijn	-551
idd	-552
oort	-553
▁Daar	-554
▁Wik	-555
▁zei	-556
aag	-557
ma	-558
▁Sch	-559
ijden	-560
▁Ook	-561
▁Ch	-562
▁An	-563
▁krij	-564
iv	-565
bij	-566
én	-567
▁ou	-568
▁plaat	-569
▁ex	-570
▁eigen	-571
EN	-572
etje	-573
io	-574
...	-575
atuur	-576
▁zien	-577
uren	-578
tal	-579
▁komen	-580
form	-581
agen	-582
door	-583
▁kinderen	-584
▁con	-585
ac	-586
▁eerste	-587
▁Fran	-588
ocht	-589
▁ru	-590
itie	-591
▁zw	-592
▁ging	-593
▁vin	-594
ijken	-595
oog	-596
ard	-597
int	-598
▁vl	-599
▁ne	-600
▁Be	-601
▁6	-602
uc	-603
▁Ge	-604
▁mag	-605
ader	-606
▁beh	-607
eerd	-608
me	-609
ellen	-610
ff	-611
▁eens	-612
▁werk	-613
ings	-614
▁18	-615
▁Deze	-616
ust	-617
ilm	-618
▁lig	-619
▁stad	-620
ouden	-621
geven	-622
geb	-623
▁iets	-624
▁keer	-625
▁laat	-626
ucht	-627
▁ga	-628
av	-629
▁kijk	-630
▁gek	-631
▁Voor	-632
ood	-633
ri	-634
oos	-635
elt	-636
uiten	-637
▁vert	-638
▁verschillen	-639
▁werden	-640
▁é	-641
▁dus	-642
allen	-643
▁gr	-644
oot	-645
▁groe	-646
▁zoals	-647
▁samen	-648
▁Hier	-649
▁lie	-650
▁oh	-651
▁toch	-652
▁ant	-653
▁aut	-654
▁Bij	-655
ders	-656
ees	-657
res	-658
▁staan	-659
▁drie	-660
▁pol	-661
aas	-662
▁hand	-663
▁één	-664
ation	-665
▁Mar	-666
▁verb	-667
kken	-668
edia	-669
oop	-670
pe	-671
!'	-672
▁achter	-673
formatie	-674
ragen	-675
▁hoofd	-676
▁huis	-677
▁"'	-678
Ik	-679
na	-680
▁belang	-681
ert	-682
aanse	-683
▁terug	-684
▁elkaar	-685
▁u	-686
eling	-687
▁bron	-688
amer	-689
▁Sp	-690
▁zie	-691
ec	-692
uist	-693
erk	-694
▁blij	-695
oten	-696
▁Te	-697
ob	-698
all	-699
▁geh	-700
zelf	-701
ijdens	-702
oh	-703
▁7	-704
ass	-705
▁den	-706
eeds	-707
▁nieuwe	-708
▁moeten	-709
▁Y	-710
▁verschillende	-711
log	-712
▁pr	-713
van	-714
▁leven	-715
▁informatie	-716
merik	-717
age	-718
▁omdat	-719
▁oor	-720
▁dag	-721
eur	-722
▁min	-723
iteit	-724
▁gebruikt	-725
▁vaak	-726
aart	-727
▁verh	-728
▁We	-729
▁belangrijk	-730
oeken	-731
zoek	-732
ub	-733
zet	-734
▁zeg	-735
▁zitten	-736
rit	-737
▁Van	-738
gende	-739
▁kwam	-740
▁steeds	-741
▁weet	-742
ram	-743
▁echt	-744
ill	-745
oorden	-746
enn	-747
▁gemaakt	-748
▁tekst	-749
▁binnen	-750
▁8	-751
000	-752
▁kn	-753
iel	-754
pp	-755
veel	-756
▁vind	-757
aast	-758
artij	-759
ijs	-760
off	-761
▁wereld	-762
tijd	-763
ijf	-764
▁Beeld	-765
▁Euro	-766
mand	-767
▁erg	-768
▁net	-769
ina	-770
amp	-771
uz	-772
▁school	-773
▁her	-774
▁film	-775
▁II	-776
ikk	-777
ks	-778
▁Af	-779
▁verd	-780
gd	-781
▁deel	-782
▁plaats	-783
ost	-784
▁snel	-785
voorbeeld	-786
▁Ver	-787
▁X	-788
AD	-789
vl	-790
ire	-791
▁zij	-792
▁open	-793
▁tre	-794
▁besch	-795
elde	-796
wel	-797
▁vrouw	-798
▁Duit	-799
▁zal	-800
▁Wat	-801
ied	-802
ov	-803
end	-804
act	-805
au	-806
UL	-807
ep	-808
king	-809
rijf	-810
sel	-811
▁jul	-812
▁hoor	-813
▁doet	-814
huis	-815
▁Geef	-816
ong	-817
▁mil	-818
ons	-819
ama	-820
if	-821
▁10	-822
▁aantal	-823
▁auto	-824
mee	-825
kker	-826
▁Zo	-827
staan	-828
unt	-829
iz	-830
▁natuur	-831
▁kijken	-832
man	-833
erg	-834
rand	-835
eter	-836
onen	-837
oemd	-838
werp	-839
stand	-840
ult	-841
▁Amerik	-842
ULT	-843
▁hel	-844
▁stuk	-845
eken	-846
▁On	-847
ADULT	-848
▁zet	-849
▁bekend	-850
▁boek	-851
▁buiten	-852
vin	-853
ogen	-854
▁gesch	-855
▁boven	-856
baar	-857
▁ch	-858
ach	-859
elke	-860
▁afbeeld	-861
▁vinden	-862
over	-863
▁stem	-864
▁want	-865
▁ligt	-866
▁antwoord	-867
eem	-868
omp	-869
ereken	-870
org	-871
iss	-872
les	-873
ieden	-874
deel	-875
▁Hoe	-876
ow	-877
▁eerst	-878
▁vier	-879
▁Met	-880
▁vader	-881
raf	-882
ce	-883
▁allemaal	-884
akken	-885
are	-886
4)	-887
▁vrij	-888
▁vroe	-889
elling	-890
▁or	-891
▁pre	-892
komen	-893
▁pap	-894
▁vast	-895
▁verder	-896
▁nam	-897
▁helemaal	-898
▁klein	-899
▁9	-900
▁moo	-901
▁bijvoorbeeld	-902
uin	-903
▁volgende	-904
▁altijd	-905
aald	-906
assen	-907
▁prob	-908
▁Nederlandse	-909
▁weten	-910
con	-911
issch	-912
ids	-913
unten	-914
▁koning	-915
▁moeder	-916
▁hoog	-917
iguur	-918
▁ra	-919
▁gebeur	-920
ari	-921
),	-922
▁naam	-923
ay	-924
▁gl	-925
▁voet	-926
▁Vol	-927
ud	-928
igde	-929
▁Ar	-930
▁paar	-931
osten	-932
▁recht	-933
ijkt	-934
▁199	-935
▁Na	-936
▁maak	-937
rik	-938
▁Gel	-939
▁gele	-940
rag	-941
dam	-942
oeg	-943
▁welke	-944
▁grond	-945
pa	-946
▁Om	-947
▁aange	-948
eest	-949
▁landen	-950
▁mij	-951
▁ieder	-952
uizen	-953
.000	-954
.'"	-955
▁vraag	-956
▁hadden	-957
▁ons	-958
▁Cl	-959
▁rij	-960
▁15	-961
▁Die	-962
▁afbeelding	-963
oms	-964
urg	-965
▁ee	-966
▁hebt	-967
▁202	-968
▁plan	-969
alt	-970
▁Joh	-971
▁eten	-972
▁tra	-973
eerde	-974
▁jaren	-975
▁krijgen	-976
ruk	-977
ark	-978
▁beetje	-979
ord	-980
out	-981
ade	-982
▁politie	-983
▁tijdens	-984
▁vragen	-985
▁meest	-986
▁figuur	-987
▁later	-988
olen	-989
5)	-990
▁speel	-991
▁12	-992
aad	-993
▁minder	-994
ium	-995
▁Leg	-996
▁ple	-997
ijna	-998
▁verg	-999
ooit	-1000
kom	-1001
cent	-1002
▁laten	-1003
arm	-1004
▁pop	-1005
iken	-1006
rien	-1007
▁bestaat	-1008
▁jullie	-1009
▁bep	-1010
▁partij	-1011
ennis	-1012
▁vlie	-1013
ym	-1014
ubl	-1015
orgen	-1016
▁Veren	-1017
our	-1018
gels	-1019
ullen	-1020
igd	-1021
▁wilde	-1022
▁pers	-1023
▁rond	-1024
▁Dan	-1025
ame	-1026
pro	-1027
eert	-1028
oede	-1029
▁geeft	-1030
ille	-1031
▁III	-1032
▁ste	-1033
iddel	-1034
▁inter	-1035
▁meis	-1036
▁laatste	-1037
sk	-1038
▁eeuw	-1039
▁verl	-1040
▁&	-1041
erde	-1042
rijd	-1043
▁lucht	-1044
7)	-1045
zelfde	-1046
tra	-1047
weg	-1048
▁vooral	-1049
▁hond	-1050
▁begon	-1051
▁geld	-1052
▁Bel	-1053
▁mog	-1054
tre	-1055
▁anders	-1056
inds	-1057
▁bez	-1058
▁moest	-1059
▁beteken	-1060
ict	-1061
▁mama	-1062
▁ke	-1063
isten	-1064
angen	-1065
▁besl	-1066
▁kleine	-1067
est	-1068
rom	-1069
yy	-1070
ode	-1071
▁fot	-1072
▁Meer	-1073
De	-1074
apen	-1075
▁wij	-1076
▁dieren	-1077
▁sle	-1078
▁kunt	-1079
▁opge	-1080
uziek	-1081
auw	-1082
▁draa	-1083
stof	-1084
won	-1085
vis	-1086
▁wie	-1087
▁iemand	-1088
cl	-1089
▁Twee	-1090
▁bev	-1091
▁ə	-1092
▁alles	-1093
oopt	-1094
oven	-1095
▁You	-1096
eeuw	-1097
▁groep	-1098
ulp	-1099
iding	-1100
AN	-1101
ian	-1102
▁onderwerp	-1103
▁bijna	-1104
isme	-1105
▁get	-1106
▁genoemd	-1107
ident	-1108
▁onderzoek	-1109
▁str	-1110
▁geven	-1111
▁zeggen	-1112
houd	-1113
▁roe	-1114
▁leuk	-1115
▁soort	-1116
ler	-1117
▁maakt	-1118
▁gebouw	-1119
isschien	-1120
odig	-1121
▁nooit	-1122
▁dicht	-1123
rijven	-1124
ga	-1125
▁Frank	-1126
▁verw	-1127
▁ziet	-1128
ha	-1129
werk	-1130
▁the	-1131
▁Toen	-1132
vers	-1133
rin	-1134
bank	-1135
uil	-1136
▁El	-1137
eb	-1138
▁0	-1139
ans	-1140
indelijk	-1141
▁Ste	-1142
iep	-1143
▁Duits	-1144
aalde	-1145
▁Am	-1146
dag	-1147
▁verander	-1148
▁uur	-1149
▁vorm	-1150
▁gedaan	-1151
erm	-1152
▁16	-1153
30	-1154
▁kree	-1155
▁fl	-1156
▁verm	-1157
▁lekker	-1158
▁17	-1159
bruik	-1160
-2	-1161
ont	-1162
6)	-1163
▁zee	-1164
▁gewoon	-1165
ummer	-1166
▁milj	-1167
ces	-1168
▁kreeg	-1169
▁hoeveel	-1170
▁Door	-1171
ube	-1172
PO	-1173
▁uitge	-1174
du	-1175
amil	-1176
▁ontw	-1177
▁vor	-1178
inn	-1179
▁nodig	-1180
oep	-1181
▁waarom	-1182
2)	-1183
▁mogelijk	-1184
▁reden	-1185
▁vis	-1186
▁heet	-1187
▁examen	-1188
▁tele	-1189
achten	-1190
▁Tekst	-1191
ijnen	-1192
▁waardoor	-1193
▁Comm	-1194
▁ele	-1195
▁spelen	-1196
anis	-1197
uurt	-1198
▁uh	-1199
room	-1200
3)	-1201
▁School	-1202
▁vrien	-1203
▁gesp	-1204
sie	-1205
ett	-1206
▁zelfs	-1207
kl	-1208
reven	-1209
▁(2	-1210
heden	-1211
deren	-1212
burg	-1213
▁YouT	-1214
8)	-1215
wijl	-1216
▁Ben	-1217
oden	-1218
th	-1219
bal	-1220
▁gest	-1221
▁Re	-1222
oogle	-1223
ikt	-1224
▁leer	-1225
cies	-1226
▁zon	-1227
▁jongen	-1228
aken	-1229
1)	-1230
▁Staten	-1231
qu	-1232
lijke	-1233
raagt	-1234
▁YouTube	-1235
▁Google	-1236
▁Th	-1237
duc	-1238
▁NPO	-1239
aarde	-1240
▁eh	-1241
geveer	-1242
erd	-1243
▁teken	-1244
▁namelijk	-1245
▁Gro	-1246
eil	-1247
▁punten	-1248
▁...	-1249
gaan	-1250
zien	-1251
▁kop	-1252
▁vindt	-1253
▁11	-1254
erie	-1255
▁ber	-1256
▁jong	-1257
resident	-1258
▁vak	-1259
umm	-1260
50	-1261
▁gegeven	-1262
menten	-1263
▁vand	-1264
aap	-1265
▁afge	-1266
▁Gebruik	-1267
▁willen	-1268
tv	-1269
zicht	-1270
iale	-1271
▁Wiki	-1272
aties	-1273
9)	-1274
▁vroeg	-1275
rijs	-1276
Kids	-1277
▁bro	-1278
plaat	-1279
lemen	-1280
▁Afbeeld	-1281
oorten	-1282
▁WikiKids	-1283
▁zonder	-1284
gele	-1285
leg	-1286
▁bouw	-1287
▁tro	-1288
▁volgens	-1289
▁Verenigde	-1290
enen	-1291
ipedia	-1292
air	-1293
▁Belg	-1294
▁gemeen	-1295
▁ken	-1296
ommige	-1297
▁beter	-1298
▁Wikipedia	-1299
dere	-1300
bel	-1301
stad	-1302
-9	-1303
▁grootste	-1304
Het	-1305
▁bloed	-1306
▁verz	-1307
▁stond	-1308
slag	-1309
ah	-1310
regen	-1311
ens	-1312
▁Kennis	-1313
akk	-1314
ein	-1315
▁(9	-1316
▁Geluid	-1317
ipjes	-1318
▁198	-1319
▁krijgt	-1320
▁foto	-1321
und	-1322
iks	-1323
▁Amerikaanse	-1324
▁gezien	-1325
aur	-1326
gor	-1327
▁Afbeeldingen	-1328
▁dood	-1329
▁muziek	-1330
▁licht	-1331
oemen	-1332
▁Schooltv	-1333
imedia	-1334
▁Commons	-1335
kende	-1336
▁Noord	-1337
▁bru	-1338
▁bal	-1339
▁Wikimedia	-1340
olf	-1341
▁ontst	-1342
ember	-1343
▁Beeldbank	-1344
▁The	-1345
▁rol	-1346
▁Clipjes	-1347
▁ind	-1348
kk	-1349
▁Is	-1350
▁Tweede	-1351
▁Zij	-1352
▁Rus	-1353
▁ruim	-1354
▁meisje	-1355
▁su	-1356
val	-1357
▁bent	-1358
▁ongeveer	-1359
▁meeste	-1360
40	-1361
iez	-1362
iën	-1363
IJ	-1364
▁mooi	-1365
schapp	-1366
▁Zijn	-1367
▁beste	-1368
▁werken	-1369
▁oorlog	-1370
▁heen	-1371
▁slecht	-1372
oof	-1373
ange	-1374
▁kant	-1375
▁ten	-1376
tjes	-1377
▁houden	-1378
oes	-1379
actie	-1380
ruiken	-1381
woners	-1382
ib	-1383
▁stemmen	-1384
net	-1385
anen	-1386
▁juist	-1387
▁miljoen	-1388
▁ontwikk	-1389
▁hou	-1390
▁Engel	-1391
▁eigenlijk	-1392
▁gebied	-1393
▁doe	-1394
lex	-1395
▁verhaal	-1396
▁Bereken	-1397
nie	-1398
oss	-1399
ath	-1400
▁Jan	-1401
kel	-1402
▁stap	-1403
▁IV	-1404
uig	-1405
▁hoort	-1406
▁Kon	-1407
▁Brit	-1408
▁Onder	-1409
▁comp	-1410
▁Waar	-1411
▁vijf	-1412
▁week	-1413
▁eil	-1414
▁ger	-1415
oorlog	-1416
uni	-1417
ry	-1418
▁manier	-1419
ris	-1420
▁tweede	-1421
▁verkl	-1422
▁blijven	-1423
▁13	-1424
▁vog	-1425
▁aard	-1426
▁oud	-1427
Dat	-1428
▁vond	-1429
arte	-1430
raak	-1431
▁bew	-1432
inde	-1433
voer	-1434
▁schil	-1435
▁deed	-1436
60	-1437
gering	-1438
▁betekent	-1439
▁gra	-1440
▁Johann	-1441
roken	-1442
▁vraagt	-1443
idden	-1444
▁dier	-1445
▁goede	-1446
▁ster	-1447
amilie	-1448
▁terwijl	-1449
▁hal	-1450
▁Frankrijk	-1451
▁bas	-1452
anneer	-1453
▁waarin	-1454
▁14	-1455
▁kijkt	-1456
anus	-1457
gram	-1458
▁leg	-1459
rist	-1460
▁gelijk	-1461
ect	-1462
ieke	-1463
weest	-1464
▁app	-1465
ph	-1466
get	-1467
▁hard	-1468
oll	-1469
ën	-1470
▁ogen	-1471
▁soms	-1472
conom	-1473
stig	-1474
▁dingen	-1475
▁Zuid	-1476
▁zag	-1477
▁gesl	-1478
▁geweest	-1479
gem	-1480
▁kind	-1481
▁Me	-1482
▁Wer	-1483
▁maakte	-1484
▁Volgens	-1485
orp	-1486
iaal	-1487
ving	-1488
.""	-1489
pese	-1490
mm	-1491
▁jou	-1492
oom	-1493
▁woon	-1494
▁kunst	-1495
▁via	-1496
▁lopen	-1497
▁iedereen	-1498
70	-1499
ichting	-1500
En	-1501
▁onze	-1502
▁Uit	-1503
oge	-1504
▁natuurlijk	-1505
sh	-1506
roep	-1507
▁oude	-1508
ix	-1509
▁(10	-1510
▁niks	-1511
abel	-1512
▁echter	-1513
uld	-1514
strijd	-1515
att	-1516
▁zeker	-1517
▁kwamen	-1518
▁Par	-1519
▁Duitsland	-1520
▁loopt	-1521
-10	-1522
genomen	-1523
▁pas	-1524
aire	-1525
olog	-1526
▁liggen	-1527
▁spec	-1528
▁zouden	-1529
▁brand	-1530
pr	-1531
elden	-1532
▁gebruiken	-1533
▁kap	-1534
▁Johannes	-1535
Wat	-1536
▁org	-1537
▁par	-1538
▁lijkt	-1539
▁at	-1540
▁cont	-1541
▁elke	-1542
ule	-1543
IE	-1544
chten	-1545
▁zat	-1546
tem	-1547
eens	-1548
▁Welke	-1549
▁meestal	-1550
ate	-1551
▁Veel	-1552
reken	-1553
▁Vl	-1554
▁roept	-1555
stelling	-1556
rum	-1557
▁sm	-1558
▁VII	-1559
ts	-1560
▁stop	-1561
rab	-1562
▁Ne	-1563
ratie	-1564
ister	-1565
offen	-1566
ubliek	-1567
akt	-1568
▁Over	-1569
▁lich	-1570
▁regering	-1571
▁bere	-1572
inks	-1573
▁klas	-1574
▁middel	-1575
rek	-1576
55	-1577
▁Rom	-1578
▁ker	-1579
-11	-1580
▁niets	-1581
▁Kl	-1582
oment	-1583
▁deur	-1584
igheid	-1585
bouw	-1586
▁dagen	-1587
rol	-1588
one	-1589
▁ad	-1590
▁elekt	-1591
▁misschien	-1592
az	-1593
▁Pl	-1594
inig	-1595
ole	-1596
▁vandaag	-1597
▁hen	-1598
▁trein	-1599
▁gevol	-1600
▁Pa	-1601
▁wed	-1602
▁id	-1603
▁ziek	-1604
ugd	-1605
kele	-1606
▁Eer	-1607
▁maan	-1608
▁president	-1609
old	-1610
▁(11	-1611
ure	-1612
▁begin	-1613
orden	-1614
▁euro	-1615
▁ontstaan	-1616
▁waarbij	-1617
▁keek	-1618
ess	-1619
sche	-1620
▁Hierdoor	-1621
sterdam	-1622
volgens	-1623
▁meter	-1624
▁Tijdens	-1625
erv	-1626
▁groter	-1627
▁mens	-1628
▁opl	-1629
▁dec	-1630
▁won	-1631
ding	-1632
▁langs	-1633
▁moment	-1634
ief	-1635
▁Aan	-1636
68	-1637
▁zullen	-1638
▁Wereld	-1639
gang	-1640
▁1.	-1641
▁popul	-1642
▁wit	-1643
etten	-1644
▁ijs	-1645
ja	-1646
bare	-1647
stru	-1648
gramma	-1649
▁eind	-1650
uidelijk	-1651
▁Europese	-1652
!"	-1653
woordig	-1654
wijs	-1655
▁cent	-1656
eth	-1657
aring	-1658
▁zin	-1659
iedenis	-1660
▁leerl	-1661
▁inge	-1662
▁vriend	-1663
schijn	-1664
ourn	-1665
▁(19	-1666
▁reg	-1667
▁zom	-1668
▁nemen	-1669
yp	-1670
▁woord	-1671
▁valt	-1672
inea	-1673
▁genoeg	-1674
ijst	-1675
ck	-1676
▁rest	-1677
▁daarom	-1678
▁Europa	-1679
sm	-1680
▁gingen	-1681
▁idee	-1682
aars	-1683
▁Bl	-1684
inkel	-1685
▁konden	-1686
zie	-1687
dem	-1688
▁di	-1689
dracht	-1690
▁Amsterdam	-1691
iode	-1692
▁weinig	-1693
▁vliegt	-1694
xim	-1695
its	-1696
ozen	-1697
▁Den	-1698
▁1,	-1699
▁voed	-1700
-8	-1701
▁Kar	-1702
nieuw	-1703
ument	-1704
▁bereken	-1705
inter	-1706
▁familie	-1707
dien	-1708
▁tien	-1709
▁vanaf	-1710
▁horen	-1711
▁macht	-1712
▁(8	-1713
zonder	-1714
▁econom	-1715
▁lichaam	-1716
▁denk	-1717
▁lag	-1718
ss	-1719
▁ouders	-1720
pel	-1721
▁spel	-1722
▁sinds	-1723
nam	-1724
▁inwoners	-1725
▁Q	-1726
▁daarna	-1727
▁197	-1728
▁kr	-1729
antie	-1730
▁begint	-1731
gave	-1732
▁nummer	-1733
ins	-1734
anten	-1735
iezingen	-1736
naast	-1737
kant	-1738
▁Men	-1739
▁Alle	-1740
sn	-1741
▁Ma	-1742
▁beide	-1743
▁Gre	-1744
use	-1745
▁Noem	-1746
ergie	-1747
raagd	-1748
▁thuis	-1749
▁sc	-1750
punt	-1751
▁polit	-1752
▁woorden	-1753
wijk	-1754
▁Inhoud	-1755
▁mis	-1756
Al	-1757
afel	-1758
▁blijft	-1759
▁hart	-1760
▁neer	-1761
nem	-1762
etter	-1763
ober	-1764
EL	-1765
▁Ital	-1766
▁lange	-1767
▁doel	-1768
▁soorten	-1769
▁Kamer	-1770
eelden	-1771
ankelijk	-1772
▁194	-1773
▁Ind	-1774
We	-1775
▁vide	-1776
'.	-1777
▁huid	-1778
▁DE	-1779
▁precies	-1780
▁kat	-1781
▁druk	-1782
▁pak	-1783
▁riv	-1784
▁rel	-1785
illem	-1786
▁ren	-1787
riek	-1788
▁neem	-1789
▁klaar	-1790
houden	-1791
water	-1792
▁kleur	-1793
ije	-1794
▁soc	-1795
zaam	-1796
ilijk	-1797
-19	-1798
ick	-1799
▁gevonden	-1800
lei	-1801
aden	-1802
▁maat	-1803
▁wonen	-1804
▁belangrijke	-1805
itu	-1806
▁vallen	-1807
▁Lees	-1808
▁cl	-1809
▁gere	-1810
▁fun	-1811
▁art	-1812
leiding	-1813
teur	-1814
oelen	-1815
▁speelt	-1816
oeren	-1817
▁bren	-1818
▁ontde	-1819
▁wist	-1820
midd	-1821
▁gevraagd	-1822
mar	-1823
▁moeilijk	-1824
▁zorgen	-1825
gegeven	-1826
▁lief	-1827
vel	-1828
▁vrouwen	-1829
▁Ol	-1830
▁Pro	-1831
▁jan	-1832
▁30	-1833
▁ju	-1834
▁Sl	-1835
▁minu	-1836
▁aand	-1837
▁bestaan	-1838
▁België	-1839
▁sche	-1840
▁bevol	-1841
▁lezen	-1842
▁enkele	-1843
▁organis	-1844
▁acht	-1845
ek	-1846
▁boom	-1847
ijl	-1848
▁denken	-1849
▁meteen	-1850
▁naast	-1851
woorden	-1852
▁helpen	-1853
hand	-1854
▁gemeente	-1855
▁voetbal	-1856
gr	-1857
▁zodat	-1858
▁Franse	-1859
yn	-1860
rak	-1861
▁fin	-1862
▁nieuws	-1863
uik	-1864
▁boeken	-1865
▁Toch	-1866
red	-1867
▁papa	-1868
ikker	-1869
▁politieke	-1870
▁kil	-1871
beelden	-1872
▁kor	-1873
▁form	-1874
anc	-1875
yyy	-1876
▁yyy	-1877
doen	-1878
▁der	-1879
▁keu	-1880
▁plek	-1881
ante	-1882
▁se	-1883
ene	-1884
▁los	-1885
▁tem	-1886
▁Paul	-1887
▁Willem	-1888
▁provin	-1889
boek	-1890
▁regen	-1891
▁mond	-1892
▁Duitse	-1893
pje	-1894
▁dezelfde	-1895
▁kast	-1896
leden	-1897
▁einde	-1898
ieten	-1899
▁25	-1900
derij	-1901
▁mon	-1902
▁geleden	-1903
▁Nederlands	-1904
▁uite	-1905
▁kamer	-1906
inus	-1907
▁handen	-1908
weer	-1909
iële	-1910
▁halen	-1911
onde	-1912
wegen	-1913
▁Alex	-1914
▁leger	-1915
▁schrij	-1916
iging	-1917
▁mogen	-1918
mat	-1919
arken	-1920
▁kru	-1921
▁Wil	-1922
ets	-1923
vloed	-1924
▁eiland	-1925
anders	-1926
▁=	-1927
ore	-1928
▁bot	-1929
rokken	-1930
▁duidelijk	-1931
▁dro	-1932
uari	-1933
aven	-1934
anger	-1935
▁Span	-1936
01	-1937
leven	-1938
ys	-1939
▁verwij	-1940
▁Zw	-1941
-12	-1942
▁100	-1943
achte	-1944
▁klim	-1945
▁leerlingen	-1946
aalt	-1947
ator	-1948
ton	-1949
▁trouw	-1950
▁geworden	-1951
▁ruimte	-1952
▁pakken	-1953
▁oe	-1954
etjes	-1955
▁kans	-1956
fl	-1957
▁overheid	-1958
▁rijk	-1959
zer	-1960
foon	-1961
▁Wereldoorlog	-1962
olle	-1963
▁voel	-1964
oemde	-1965
▁aller	-1966
59	-1967
▁maxim	-1968
67	-1969
rijden	-1970
▁bedrijf	-1971
▁ac	-1972
ukk	-1973
▁periode	-1974
ook	-1975
ara	-1976
ox	-1977
▁Nu	-1978
▁persoon	-1979
▁stof	-1980
gest	-1981
▁2.	-1982
urk	-1983
onnen	-1984
▁gezicht	-1985
schijnlijk	-1986
up	-1987
▁off	-1988
▁gebeurt	-1989
▁januari	-1990
▁Sam	-1991
▁alinea	-1992
▁uiteindelijk	-1993
▁im	-1994
ocent	-1995
sc	-1996
▁redenen	-1997
▁enige	-1998
▁Daarom	-1999
▁(12	-2000
▁dacht	-2001
recht	-2002
▁Nieuw	-2003
deeld	-2004
str	-2005
Maar	-2006
Ja	-2007
52	-2008
ose	-2009
stuk	-2010
▁tw	-2011
▁les	-2012
▁dire	-2013
▁VI	-2014
▁beeld	-2015
▁act	-2016
lijn	-2017
▁geluid	-2018
▁mocht	-2019
▁vertellen	-2020
ial	-2021
▁Bened	-2022
▁Nederl	-2023
spraak	-2024
▁mar	-2025
▁zetten	-2026
▁riep	-2027
gelopen	-2028
ged	-2029
▁behulp	-2030
uter	-2031
▁sommige	-2032
▁Benedict	-2033
▁dien	-2034
iemand	-2035
isc	-2036
53	-2037
▁produc	-2038
gebied	-2039
▁moesten	-2040
▁gemidd	-2041
▁ervoor	-2042
▁bepaalde	-2043
moc	-2044
▁Of	-2045
▁mannen	-2046
▁zwem	-2047
▁meneer	-2048
▁lied	-2049
▁tafel	-2050
▁21	-2051
uiden	-2052
▁actie	-2053
schappen	-2054
Je	-2055
▁bos	-2056
▁Benedictus	-2057
zo	-2058
▁welk	-2059
▁geboren	-2060
▁belangrijkste	-2061
hal	-2062
vrouw	-2063
▁gaf	-2064
▁verv	-2065
▁0,	-2066
ric	-2067
▁Jac	-2068
otter	-2069
▁koff	-2070
yl	-2071
▁maand	-2072
▁stand	-2073
▁Sh	-2074
▁leren	-2075
▁Fl	-2076
▁oo	-2077
ips	-2078
akkelijk	-2079
reden	-2080
ïn	-2081
eeg	-2082
istische	-2083
bs	-2084
spron	-2085
▁schree	-2086
64	-2087
raken	-2088
▁poes	-2089
ationale	-2090
▁taal	-2091
issen	-2092
yst	-2093
▁aarde	-2094
rat	-2095
▁res	-2096
▁Con	-2097
rim	-2098
▁Peter	-2099
annen	-2100
iezen	-2101
▁vogel	-2102
▁am	-2103
▁zes	-2104
▁hog	-2105
▁bevat	-2106
▁Gregor	-2107
▁steden	-2108
▁dorp	-2109
chn	-2110
▁oma	-2111
stel	-2112
▁berekening	-2113
ive	-2114
▁vervolgens	-2115
▁duur	-2116
▁hoge	-2117
▁zowel	-2118
In	-2119
▁leeft	-2120
▁zorg	-2121
▁veil	-2122
werpen	-2123
▁em	-2124
▁voorbeeld	-2125
hankelijk	-2126
▁midden	-2127
bron	-2128
▁stroom	-2129
▁av	-2130
ring	-2131
ositie	-2132
ooi	-2133
▁warm	-2134
inkrijk	-2135
▁liep	-2136
ikke	-2137
▁(18	-2138
zij	-2139
▁wedstrijd	-2140
wege	-2141
veren	-2142
▁blijkt	-2143
▁video	-2144
useum	-2145
ukkig	-2146
▁bek	-2147
31	-2148
cie	-2149
opt	-2150
▁delen	-2151
▁don	-2152
▁bleef	-2153
app	-2154
ield	-2155
ica	-2156
aans	-2157
oerd	-2158
▁comm	-2159
▁blauw	-2160
▁192	-2161
▁volle	-2162
▁arm	-2163
▁houdt	-2164
▁opv	-2165
▁Gregorius	-2166
▁kaart	-2167
▁stil	-2168
▁energie	-2169
▁zeven	-2170
uigen	-2171
▁lach	-2172
okken	-2173
elingen	-2174
clus	-2175
ioen	-2176
gelijk	-2177
▁pot	-2178
▁graf	-2179
AAR	-2180
▁norm	-2181
▁hee	-2182
▁tuin	-2183
▁mooie	-2184
▁band	-2185
▁slapen	-2186
▁th	-2187
omb	-2188
▁produ	-2189
▁50	-2190
▁Ad	-2191
lement	-2192
▁denkt	-2193
ossing	-2194
▁rijden	-2195
▁overl	-2196
▁med	-2197
▁Oosten	-2198
ummie	-2199
▁graag	-2200
ucces	-2201
▁planten	-2202
▁bur	-2203
orn	-2204
▁onderz	-2205
▁191	-2206
▁opdracht	-2207
▁Jap	-2208
▁Rusland	-2209
ude	-2210
▁hetzelfde	-2211
▁verschil	-2212
oost	-2213
ournaal	-2214
▁eerder	-2215
oder	-2216
▁verklaring	-2217
61	-2218
▁televis	-2219
ippen	-2220
▁toer	-2221
aus	-2222
▁punt	-2223
▁km	-2224
▁Ber	-2225
▁last	-2226
▁werkt	-2227
▁extra	-2228
▁New	-2229
appen	-2230
▁offic	-2231
▁voorkomen	-2232
▁voort	-2233
▁Haar	-2234
▁vij	-2235
▁verdw	-2236
▁zoon	-2237
▁verst	-2238
▁gren	-2239
▁gebouwd	-2240
blad	-2241
▁huil	-2242
▁reactie	-2243
▁Daarnaast	-2244
▁zoeken	-2245
sent	-2246
▁neemt	-2247
▁China	-2248
▁bijzonder	-2249
▁an	-2250
▁gevaar	-2251
▁jouw	-2252
▁bang	-2253
▁weergegeven	-2254
▁kopen	-2255
2.	-2256
57	-2257
jar	-2258
▁bank	-2259
▁praten	-2260
▁vanuit	-2261
▁len	-2262
akker	-2263
ald	-2264
▁meester	-2265
staande	-2266
ots	-2267
▁lid	-2268
▁hm	-2269
▁bevolking	-2270
derd	-2271
▁cult	-2272
▁hoofdstad	-2273
▁nacht	-2274
▁+	-2275
Ze	-2276
ffen	-2277
izer	-2278
▁station	-2279
"".	-2280
▁liet	-2281
rift	-2282
▁nad	-2283
▁super	-2284
▁gehouden	-2285
▁boos	-2286
ustr	-2287
▁uitleg	-2288
▁bi	-2289
▁minuten	-2290
▁mei	-2291
eden	-2292
film	-2293
vorm	-2294
▁half	-2295
▁december	-2296
kijk	-2297
▁hulp	-2298
',	-2299
▁viel	-2300
▁oog	-2301
▁neus	-2302
▁Schrijf	-2303
▁Spanje	-2304
▁Tim	-2305
▁kregen	-2306
delen	-2307
peratuur	-2308
▁geval	-2309
landse	-2310
▁(14	-2311
▁do	-2312
▁kenmer	-2313
▁brie	-2314
▁kerk	-2315
▁ton	-2316
▁vergelijk	-2317
▁waarop	-2318
port	-2319
▁gevangen	-2320
ico	-2321
▁24	-2322
journaal	-2323
▁drin	-2324
▁stelling	-2325
▁kort	-2326
rug	-2327
▁arg	-2328
unde	-2329
▁sport	-2330
▁Engeland	-2331
▁Br	-2332
▁bedoel	-2333
▁regel	-2334
▁Oostenrijk	-2335
orpen	-2336
-14	-2337
▁paard	-2338
avond	-2339
▁zeer	-2340
▁zak	-2341
▁wanneer	-2342
▁Niet	-2343
ysteem	-2344
aw	-2345
wit	-2346
▁193	-2347
ktober	-2348
▁kikker	-2349
▁Karel	-2350
▁veroor	-2351
▁prijs	-2352
St	-2353
ging	-2354
▁onderdeel	-2355
ymp	-2356
▁echte	-2357
-17	-2358
vlak	-2359
roek	-2360
▁ball	-2361
▁succes	-2362
iger	-2363
▁zwaar	-2364
bed	-2365
▁vormen	-2366
olon	-2367
▁3.	-2368
▁gep	-2369
▁rivier	-2370
▁jongens	-2371
ney	-2372
▁Inn	-2373
▁geze	-2374
▁fiets	-2375
aliteit	-2376
loop	-2377
ichten	-2378
▁Leo	-2379
erecht	-2380
▁vlucht	-2381
oofd	-2382
▁Rep	-2383
reekt	-2384
▁Zie	-2385
aut	-2386
▁West	-2387
:"	-2388
aby	-2389
▁past	-2390
cu	-2391
▁gebieden	-2392
slagen	-2393
ses	-2394
▁namen	-2395
▁minister	-2396
bei	-2397
▁opnieuw	-2398
▁straat	-2399
▁eff	-2400
lemens	-2401
▁Har	-2402
dio	-2403
▁tabel	-2404
kort	-2405
oenen	-2406
▁Bon	-2407
▁mot	-2408
▁Clemens	-2409
▁ooit	-2410
▁Sinds	-2411
iende	-2412
hoog	-2413
▁feest	-2414
▁invloed	-2415
gent	-2416
▁schrijven	-2417
▁Rijk	-2418
▁ving	-2419
58	-2420
62	-2421
▁(17	-2422
wez	-2423
▁provincie	-2424
▁alsof	-2425
▁maanden	-2426
ikte	-2427
zetten	-2428
ieu	-2429
iter	-2430
▁Jeugd	-2431
▁oktober	-2432
▁sterk	-2433
▁populair	-2434
SI	-2435
inst	-2436
▁XII	-2437
▁ontstaat	-2438
▁mod	-2439
▁juni	-2440
pril	-2441
▁kracht	-2442
ologie	-2443
verk	-2444
▁enorm	-2445
▁voedsel	-2446
Een	-2447
vangen	-2448
▁park	-2449
▁letter	-2450
kte	-2451
▁buurt	-2452
ielen	-2453
▁Jul	-2454
tember	-2455
?'"	-2456
▁Ca	-2457
▁totaal	-2458
▁bezig	-2459
▁laag	-2460
▁nov	-2461
▁sec	-2462
▁Bekijk	-2463
▁verkiezingen	-2464
▁krijg	-2465
oef	-2466
▁Eerste	-2467
▁Romein	-2468
Hij	-2469
▁XI	-2470
...'	-2471
▁stukje	-2472
ranje	-2473
▁Tot	-2474
▁vliegtuig	-2475
▁koe	-2476
bleem	-2477
▁22	-2478
verd	-2479
▁brengen	-2480
▁He	-2481
▁waarschijnlijk	-2482
raaf	-2483
▁bele	-2484
ijt	-2485
-18	-2486
ase	-2487
Nee	-2488
▁boot	-2489
▁partijen	-2490
▁dr	-2491
ering	-2492
bum	-2493
-4	-2494
geving	-2495
uiste	-2496
ake	-2497
reek	-2498
▁vuur	-2499
▁afgelopen	-2500
▁vlak	-2501
▁slag	-2502
oy	-2503
▁pat	-2504
▁react	-2505
▁Christ	-2506
gend	-2507
▁gegevens	-2508
▁Daarna	-2509
▁april	-2510
hou	-2511
▁sep	-2512
▁bronnen	-2513
▁rood	-2514
66	-2515
▁Japan	-2516
▁formule	-2517
zel	-2518
▁kilom	-2519
▁Car	-2520
54	-2521
▁niemand	-2522
▁red	-2523
komt	-2524
maken	-2525
rika	-2526
oppen	-2527
▁.	-2528
ukt	-2529
antwoord	-2530
▁problemen	-2531
aling	-2532
▁zichzelf	-2533
▁zoveel	-2534
▁maart	-2535
orst	-2536
DEN	-2537
▁noemen	-2538
▁Don	-2539
deelte	-2540
▁opa	-2541
aai	-2542
erland	-2543
▁maximaal	-2544
▁nat	-2545
▁waarmee	-2546
ragment	-2547
rieken	-2548
versiteit	-2549
reem	-2550
▁koek	-2551
ames	-2552
ugust	-2553
▁rug	-2554
▁Innocent	-2555
▁weken	-2556
▁Innocentius	-2557
▁volk	-2558
▁juiste	-2559
▁derde	-2560
▁stoel	-2561
▁beneden	-2562
genwoordig	-2563
▁zuur	-2564
zaak	-2565
volut	-2566
▁donker	-2567
▁gevallen	-2568
▁reken	-2569
▁bouwen	-2570
▁serie	-2571
▁telefoon	-2572
▁zand	-2573
OE	-2574
▁geg	-2575
▁geloof	-2576
waar	-2577
kracht	-2578
sb	-2579
goed	-2580
▁eet	-2581
heen	-2582
spre	-2583
▁rode	-2584
▁Goos	-2585
roepen	-2586
▁waarde	-2587
ux	-2588
▁vroeger	-2589
▁november	-2590
raad	-2591
▁bekende	-2592
▁Frans	-2593
▁leid	-2594
▁ve	-2595
▁basis	-2596
▁gesloten	-2597
kw	-2598
jaar	-2599
oest	-2600
▁Omdat	-2601
▁sh	-2602
▁Un	-2603
apt	-2604
▁Tom	-2605
▁broer	-2606
▁begonnen	-2607
zuur	-2608
▁Dummie	-2609
raal	-2610
▁september	-2611
rok	-2612
▁kapot	-2613
orgt	-2614
▁drinken	-2615
bert	-2616
▁juli	-2617
▁aanwez	-2618
▁Toon	-2619
▁ziekte	-2620
▁2000	-2621
▁verlie	-2622
▁wind	-2623
▁gezegd	-2624
leur	-2625
▁situ	-2626
▁geschreven	-2627
▁Ter	-2628
▁mater	-2629
berg	-2630
ieel	-2631
▁mass	-2632
▁Britse	-2633
▁40	-2634
▁VIII	-2635
ift	-2636
gevoerd	-2637
veld	-2638
▁Hoewel	-2639
▁programma	-2640
jarige	-2641
▁Sommige	-2642
▁bepaald	-2643
mon	-2644
▁beginnen	-2645
Amerik	-2646
▁oorspron	-2647
zit	-2648
▁gehe	-2649
▁Bar	-2650
istor	-2651
▁zen	-2652
komst	-2653
▁Ant	-2654
raï	-2655
▁2,	-2656
▁23	-2657
eltjes	-2658
▁ongel	-2659
▁(4	-2660
ork	-2661
STER	-2662
ummers	-2663
▁witte	-2664
▁Rob	-2665
ino	-2666
▁koffie	-2667
▁vakantie	-2668
▁IK	-2669
uwelijk	-2670
ON	-2671
nel	-2672
keur	-2673
atief	-2674
▁br	-2675
oeld	-2676
▁sneeuw	-2677
▁spoor	-2678
▁aangezien	-2679
▁stra	-2680
ars	-2681
▁tit	-2682
▁hoop	-2683
▁Mon	-2684
▁gekregen	-2685
▁Alexander	-2686
nemen	-2687
▁gevolg	-2688
rake	-2689
▁Russ	-2690
▁internet	-2691
▁Pius	-2692
▁volled	-2693
ikel	-2694
alis	-2695
oorn	-2696
omst	-2697
▁club	-2698
▁voorbeelden	-2699
che	-2700
▁doordat	-2701
"",	-2702
▁bestuur	-2703
▁gekozen	-2704
▁Per	-2705
EE	-2706
gro	-2707
▁zoek	-2708
azen	-2709
▁toege	-2710
▁wilden	-2711
Als	-2712
ting	-2713
aleis	-2714
▁papier	-2715
▁allerlei	-2716
fen	-2717
▁Italië	-2718
inderen	-2719
▁vele	-2720
▁x	-2721
▁brug	-2722
▁baby	-2723
agina	-2724
weging	-2725
werken	-2726
lein	-2727
pervlak	-2728
▁hoogte	-2729
▁31	-2730
▁Wie	-2731
▁oplossing	-2732
▁moder	-2733
▁diep	-2734
▁ol	-2735
▁lijn	-2736
ampioen	-2737
min	-2738
▁Ex	-2739
▁melk	-2740
druk	-2741
▁krant	-2742
▁terecht	-2743
angt	-2744
reg	-2745
▁Koninkrijk	-2746
▁kool	-2747
ugustus	-2748
jet	-2749
wassen	-2750
▁Ger	-2751
otterdam	-2752
ente	-2753
tie	-2754
▁har	-2755
uwen	-2756
-13	-2757
▁schoon	-2758
▁meerdere	-2759
▁positie	-2760
5-	-2761
meester	-2762
▁brief	-2763
▁betalen	-2764
▁cir	-2765
▁kilometer	-2766
▁gezond	-2767
▁Waarom	-2768
▁Oost	-2769
gemeen	-2770
▁ervan	-2771
▁vanwege	-2772
▁Hieronder	-2773
▁noem	-2774
▁luist	-2775
▁anderen	-2776
groep	-2777
▁afstand	-2778
cten	-2779
▁waarvan	-2780
grond	-2781
pers	-2782
▁zorgt	-2783
▁prote	-2784
geh	-2785
bren	-2786
rede	-2787
▁wacht	-2788
▁gehad	-2789
▁mam	-2790
▁reis	-2791
plaats	-2792
ekraï	-2793
▁politiek	-2794
▁IX	-2795
▁John	-2796
▁Rotterdam	-2797
▁regels	-2798
oun	-2799
▁hoger	-2800
▁stij	-2801
▁winkel	-2802
▁plaatsen	-2803
▁Mich	-2804
▁geschiedenis	-2805
▁2010	-2806
reep	-2807
trecht	-2808
▁Sov	-2809
ël	-2810
▁tran	-2811
▁Ga	-2812
▁leef	-2813
▁jonge	-2814
ner	-2815
▁aanv	-2816
▁plant	-2817
▁rechts	-2818
alige	-2819
▁hout	-2820
▁probleem	-2821
stellen	-2822
65	-2823
▁(13	-2824
▁lever	-2825
▁ei	-2826
▁bezoek	-2827
urt	-2828
umenten	-2829
▁Can	-2830
▁bad	-2831
nummer	-2832
▁EEN	-2833
werkt	-2834
▁speciale	-2835
▁avond	-2836
▁Parijs	-2837
cties	-2838
▁vern	-2839
spel	-2840
ograf	-2841
amb	-2842
▁juf	-2843
▁korte	-2844
athol	-2845
.)	-2846
ash	-2847
rein	-2848
ctuur	-2849
▁Her	-2850
tussen	-2851
▁functie	-2852
▁Prin	-2853
▁kolon	-2854
▁vle	-2855
▁opger	-2856
▁wachten	-2857
▁temperatuur	-2858
▁Ed	-2859
▁makkelijk	-2860
asting	-2861
▁hield	-2862
▁dochter	-2863
oth	-2864
▁Dis	-2865
▁stoffen	-2866
▁voordat	-2867
▁ergens	-2868
▁koningin	-2869
schiedenis	-2870
▁Vanaf	-2871
ype	-2872
▁cor	-2873
▁heer	-2874
▁pakt	-2875
▁computer	-2876
▁trap	-2877
▁top	-2878
ouwen	-2879
▁antwoorden	-2880
▁pijn	-2881
▁kosten	-2882
▁result	-2883
▁Noor	-2884
olland	-2885
▁Ieder	-2886
ity	-2887
▁Grote	-2888
▁kiezen	-2889
aakte	-2890
ranten	-2891
▁gekomen	-2892
▁verzam	-2893
hoek	-2894
▁ene	-2895
▁wet	-2896
enk	-2897
iviteit	-2898
asten	-2899
▁Mart	-2900
ival	-2901
▁commun	-2902
ue	-2903
ebru	-2904
dom	-2905
▁hoeveelheid	-2906
▁geef	-2907
achter	-2908
▁Turk	-2909
▁Welk	-2910
ai	-2911
anning	-2912
▁ontwikkeling	-2913
▁Opgave	-2914
▁Wanneer	-2915
▁boer	-2916
▁Utrecht	-2917
otte	-2918
▁televisie	-2919
▁tek	-2920
▁lijst	-2921
lo	-2922
SISTER	-2923
▁Oekraï	-2924
iber	-2925
▁gebracht	-2926
▁Jeugdjournaal	-2927
▁daarbij	-2928
▁geweld	-2929
▁meisjes	-2930
erend	-2931
iers	-2932
izoen	-2933
▁techn	-2934
▁IJ	-2935
▁(""	-2936
achtig	-2937
▁proberen	-2938
▁ap	-2939
▁onaf	-2940
▁omhoog	-2941
rukt	-2942
isteren	-2943
▁dur	-2944
▁keuken	-2945
▁28	-2946
die	-2947
vaart	-2948
▁langer	-2949
gte	-2950
▁keizer	-2951
ikken	-2952
standig	-2953
▁vrienden	-2954
▁Nic	-2955
▁fil	-2956
▁scholen	-2957
cellen	-2958
ack	-2959
▁toek	-2960
ebruari	-2961
▁Ke	-2962
▁y	-2963
ona	-2964
▁zomer	-2965
▁augustus	-2966
▁schilderij	-2967
▁reacties	-2968
▁voetb	-2969
bie	-2970
spraken	-2971
ones	-2972
aste	-2973
▁zieken	-2974
▁ah	-2975
co	-2976
▁gebruikte	-2977
onk	-2978
▁all	-2979
▁gespeeld	-2980
ider	-2981
eller	-2982
organis	-2983
▁Sovjet	-2984
Waar	-2985
▁kost	-2986
▁Steph	-2987
▁kab	-2988
▁leggen	-2989
▁Olymp	-2990
▁huidige	-2991
▁leeftijd	-2992
▁god	-2993
▁kar	-2994
▁veroorz	-2995
▁zuiden	-2996
▁bus	-2997
▁stellen	-2998
roef	-2999
▁raam	-3000
▁bedacht	-3001
▁sym	-3002
gebracht	-3003
▁toon	-3004
▁filmpje	-3005
LA	-3006
▁verkocht	-3007
▁links	-3008
igh	-3009
uim	-3010
▁nummers	-3011
▁Gem	-3012
▁Or	-3013
▁prin	-3014
?"	-3015
▁4.	-3016
kens	-3017
▁leden	-3018
▁klin	-3019
▁Port	-3020
▁zwarte	-3021
orie	-3022
▁slechts	-3023
▁jongeren	-3024
kamer	-3025
▁schip	-3026
rimin	-3027
▁album	-3028
ooien	-3029
▁trekken	-3030
▁toet	-3031
BR	-3032
kelijk	-3033
▁rechter	-3034
intig	-3035
▁wol	-3036
met	-3037
▁groepen	-3038
ouwd	-3039
▁hierdoor	-3040
▁27	-3041
▁inst	-3042
▁pe	-3043
schrift	-3044
uff	-3045
oeder	-3046
wet	-3047
▁februari	-3048
▁cijf	-3049
▁trad	-3050
▁IS	-3051
atten	-3052
▁regio	-3053
▁Eg	-3054
erij	-3055
▁Luc	-3056
▁parlement	-3057
▁gedeelte	-3058
▁gang	-3059
▁klimaat	-3060
AND	-3061
▁rec	-3062
▁daardoor	-3063
anks	-3064
gelegd	-3065
ise	-3066
▁team	-3067
keken	-3068
▁bevin	-3069
gezet	-3070
▁Tussen	-3071
▁waaronder	-3072
iër	-3073
oeden	-3074
▁jongetje	-3075
▁snelheid	-3076
▁wilt	-3077
▁Engelse	-3078
ana	-3079
ley	-3080
▁gebeurd	-3081
▁Pas	-3082
▁fe	-3083
baan	-3084
▁conc	-3085
▁verwacht	-3086
rip	-3087
wagen	-3088
▁Oor	-3089
ain	-3090
▁fiet	-3091
▁Ur	-3092
▁Se	-3093
▁person	-3094
▁Bra	-3095
▁toneel	-3096
mel	-3097
▁Amerika	-3098
▁Later	-3099
▁kleuren	-3100
▁voer	-3101
▁onderwijs	-3102
▁ko	-3103
▁Disney	-3104
▁Joost	-3105
51	-3106
▁Links	-3107
▁huilen	-3108
▁teksten	-3109
ici	-3110
▁Gu	-3111
▁mm	-3112
▁zacht	-3113
IT	-3114
ola	-3115
▁totale	-3116
▁vertelt	-3117
▁vonden	-3118
ationaal	-3119
strijden	-3120
oekt	-3121
ada	-3122
▁disc	-3123
▁cons	-3124
randen	-3125
▁stonden	-3126
bo	-3127
estival	-3128
▁intern	-3129
▁26	-3130
▁Mijn	-3131
▁leu	-3132
▁rep	-3133
▁argument	-3134
▁veld	-3135
▁noorden	-3136
▁GE	-3137
▁Soms	-3138
▁muur	-3139
▁2014	-3140
▁eruit	-3141
to	-3142
▁et	-3143
▁Sim	-3144
riet	-3145
las	-3146
iaanse	-3147
schappij	-3148
ublic	-3149
▁buik	-3150
▁erop	-3151
▁Partij	-3152
▁honder	-3153
loos	-3154
cept	-3155
▁Ja	-3156
▁sold	-3157
▁(7	-3158
oegd	-3159
▁tegenwoordig	-3160
▁schreef	-3161
het	-3162
zak	-3163
▁krit	-3164
▁toekomst	-3165
uck	-3166
wed	-3167
▁situatie	-3168
▁gewonnen	-3169
elle	-3170
▁Engels	-3171
yd	-3172
ries	-3173
eep	-3174
son	-3175
▁winter	-3176
isen	-3177
toe	-3178
tro	-3179
own	-3180
aarten	-3181
▁straks	-3182
▁com	-3183
▁Bron	-3184
▁Heb	-3185
atting	-3186
▁ij	-3187
▁uni	-3188
▁toren	-3189
▁wapen	-3190
▁gemiddelde	-3191
ringen	-3192
▁slaap	-3193
AA	-3194
volutie	-3195
▁bedrijven	-3196
ampen	-3197
▁suik	-3198
▁Laat	-3199
▁woont	-3200
pakt	-3201
▁fab	-3202
▁zus	-3203
▁baas	-3204
▁ineens	-3205
▁hieronder	-3206
▁2020	-3207
aardig	-3208
▁,	-3209
UN	-3210
▁Fil	-3211
chtend	-3212
▁Wit	-3213
▁vlag	-3214
▁verband	-3215
▁cm	-3216
▁helft	-3217
halen	-3218
ject	-3219
ictor	-3220
▁Haag	-3221
▁val	-3222
▁Man	-3223
!'"	-3224
▁dank	-3225
▁as	-3226
)."	-3227
ines	-3228
▁stu	-3229
▁verdien	-3230
▁straf	-3231
▁arbe	-3232
▁gas	-3233
▁Piet	-3234
▁hoorde	-3235
sloten	-3236
▁brood	-3237
lor	-3238
ret	-3239
▁erin	-3240
▁duurt	-3241
▁aandacht	-3242
▁ontstond	-3243
▁bedoeld	-3244
▁cultuur	-3245
▁Em	-3246
▁2019	-3247
▁mevrouw	-3248
▁grafiek	-3249
produc	-3250
▁HET	-3251
OM	-3252
▁stoppen	-3253
▁Geschiedenis	-3254
ute	-3255
▁Verenigd	-3256
10	-3257
▁Nap	-3258
▁grens	-3259
▁kunsten	-3260
3.	-3261
Hoe	-3262
iteindelijk	-3263
▁sprake	-3264
▁hoeft	-3265
▁Az	-3266
rook	-3267
▁maakten	-3268
▁Net	-3269
▁Pol	-3270
▁goud	-3271
▁informatiebron	-3272
ail	-3273
staat	-3274
ef	-3275
▁prem	-3276
ham	-3277
▁Val	-3278
▁2011	-3279
▁inkomen	-3280
▁economische	-3281
▁pagina	-3282
inet	-3283
▁artikel	-3284
▁Mensen	-3285
▁vers	-3286
▁vissen	-3287
▁2017	-3288
▁au	-3289
▁York	-3290
gde	-3291
▁productie	-3292
▁kust	-3293
voud	-3294
▁loop	-3295
▁mede	-3296
▁Griek	-3297
▁/	-3298
werking	-3299
▁beer	-3300
▁trok	-3301
▁economie	-3302
ign	-3303
orge	-3304
▁verhalen	-3305
atius	-3306
▁Grieken	-3307
▁Samen	-3308
▁Uiteindelijk	-3309
enten	-3310
▁Dav	-3311
▁2015	-3312
stant	-3313
▁liter	-3314
▁radio	-3315
Unie	-3316
▁gebeurde	-3317
▁uitb	-3318
prijs	-3319
▁normaal	-3320
middels	-3321
park	-3322
▁berg	-3323
69	-3324
tus	-3325
ane	-3326
middel	-3327
gew	-3328
▁29	-3329
eerden	-3330
▁museum	-3331
ific	-3332
▁Will	-3333
▁Maria	-3334
▁behand	-3335
▁Sc	-3336
▁varken	-3337
▁Mil	-3338
▁herken	-3339
▁gebeurten	-3340
isk	-3341
markt	-3342
▁leek	-3343
oude	-3344
▁glas	-3345
▁speelde	-3346
▁asp	-3347
▁fijn	-3348
▁Victor	-3349
▁Misschien	-3350
-7	-3351
ecten	-3352
▁geldt	-3353
▁Paulus	-3354
▁Sint	-3355
namelijk	-3356
▁kasteel	-3357
ustral	-3358
▁hersen	-3359
aaf	-3360
▁prof	-3361
▁blok	-3362
▁proces	-3363
rijzen	-3364
▁leiden	-3365
her	-3366
ock	-3367
▁lachen	-3368
▁Nederlanders	-3369
▁term	-3370
▁besluit	-3371
▁gesproken	-3372
punten	-3373
Dan	-3374
▁hot	-3375
▁oppervlak	-3376
▁2016	-3377
▁Republiek	-3378
▁Hend	-3379
▁volgt	-3380
▁instru	-3381
▁Dus	-3382
▁XV	-3383
▁Mex	-3384
atieve	-3385
▁gevoel	-3386
▁onafhankelijk	-3387
▁Stephanus	-3388
andid	-3389
▁Alleen	-3390
▁Min	-3391
▁Koning	-3392
▁present	-3393
,0	-3394
ull	-3395
rische	-3396
matig	-3397
▁besloot	-3398
▁winnen	-3399
eg	-3400
ima	-3401
▁doos	-3402
nemers	-3403
▁huizen	-3404
▁procent	-3405
▁verover	-3406
▁trekt	-3407
▁wand	-3408
▁bomen	-3409
elsel	-3410
▁vaker	-3411
▁Cal	-3412
▁titel	-3413
▁vogels	-3414
3-1	-3415
▁bact	-3416
▁attra	-3417
▁2008	-3418
▁Vaak	-3419
▁fles	-3420
▁ontb	-3421
▁probeert	-3422
stoffen	-3423
▁mening	-3424
▁Russische	-3425
oper	-3426
▁ongeluk	-3427
iment	-3428
▁wint	-3429
BROTHER	-3430
,5	-3431
ellingen	-3432
▁daarmee	-3433
eeuwen	-3434
▁finale	-3435
kan	-3436
▁schou	-3437
▁60	-3438
schrij	-3439
▁vorige	-3440
20	-3441
▁dak	-3442
▁aanwezig	-3443
▁blad	-3444
▁direct	-3445
omas	-3446
▁deden	-3447
▁volwassen	-3448
uh	-3449
unst	-3450
treden	-3451
▁vreem	-3452
OO	-3453
▁Char	-3454
name	-3455
▁Kat	-3456
gar	-3457
▁steen	-3458
▁nadat	-3459
▁plaatje	-3460
anne	-3461
▁Roos	-3462
▁bleek	-3463
▁2012	-3464
▁Oranje	-3465
▁verspre	-3466
ette	-3467
agram	-3468
euren	-3469
▁dikke	-3470
▁duizen	-3471
▁kleding	-3472
▁eilanden	-3473
▁verdeeld	-3474
▁plekken	-3475
cel	-3476
elijkheid	-3477
▁schrijver	-3478
▁wee	-3479
▁daarvan	-3480
▁milit	-3481
usic	-3482
▁dru	-3483
▁opgericht	-3484
▁190	-3485
arts	-3486
odewijk	-3487
▁2009	-3488
▁2018	-3489
dieren	-3490
▁ontdekt	-3491
ustrie	-3492
▁noord	-3493
▁Austral	-3494
▁And	-3495
▁WE	-3496
roon	-3497
▁Mer	-3498
ages	-3499
▁kerst	-3500
osl	-3501
▁onbe	-3502
rank	-3503
▁uitspraak	-3504
▁Maak	-3505
amm	-3506
▁kleiner	-3507
▁probeerde	-3508
▁2005	-3509
▁zaten	-3510
▁publiek	-3511
raël	-3512
aaien	-3513
▁vliegen	-3514
aartje	-3515
▁Ab	-3516
gesteld	-3517
▁aangegeven	-3518
hol	-3519
▁midd	-3520
reed	-3521
▁bloemen	-3522
maat	-3523
▁war	-3524
▁geheim	-3525
▁zingen	-3526
▁Tegenwoordig	-3527
astic	-3528
▁sociale	-3529
▁ding	-3530
Die	-3531
▁Qu	-3532
ermen	-3533
▁hoogste	-3534
▁Lodewijk	-3535
▁Laur	-3536
▁adem	-3537
▁vlees	-3538
rent	-3539
▁uitv	-3540
▁bewer	-3541
▁rustig	-3542
NA	-3543
80	-3544
▁gelukkig	-3545
▁bestond	-3546
▁hoek	-3547
band	-3548
uurd	-3549
uut	-3550
▁Sn	-3551
▁staart	-3552
▁bescherm	-3553
▁personen	-3554
▁Zee	-3555
▁bloem	-3556
clusie	-3557
▁media	-3558
uss	-3559
▁EN	-3560
Euro	-3561
▁voorbij	-3562
▁producten	-3563
gemaakt	-3564
▁gedrag	-3565
▁opzicht	-3566
▁2004	-3567
▁richting	-3568
hel	-3569
▁bord	-3570
▁2006	-3571
▁George	-3572
itt	-3573
▁5.	-3574
▁Urb	-3575
▁baan	-3576
plaatst	-3577
nis	-3578
▁stud	-3579
▁Bonif	-3580
▁Thomas	-3581
▁ha	-3582
aris	-3583
▁adv	-3584
▁hon	-3585
TI	-3586
▁plat	-3587
ijns	-3588
▁Hendrik	-3589
oster	-3590
96	-3591
▁dok	-3592
▁zuurstof	-3593
▁ban	-3594
▁lamp	-3595
▁Bonifatius	-3596
▁voornamelijk	-3597
etters	-3598
ekend	-3599
▁films	-3600
▁Spaanse	-3601
teken	-3602
▁Hun	-3603
▁gras	-3604
▁God	-3605
▁stro	-3606
tern	-3607
▁Naast	-3608
▁organisatie	-3609
▁eentje	-3610
▁Unie	-3611
gemeester	-3612
▁gebeuren	-3613
moet	-3614
vang	-3615
eraal	-3616
▁wetenschapp	-3617
▁Let	-3618
90	-3619
▁Israël	-3620
▁iedere	-3621
▁morgen	-3622
inding	-3623
aardoor	-3624
▁vergelijking	-3625
▁pass	-3626
▁Sa	-3627
▁hoef	-3628
45	-3629
ith	-3630
▁log	-3631
▁markt	-3632
▁spullen	-3633
▁Provin	-3634
iam	-3635
omin	-3636
▁gauw	-3637
zichtig	-3638
lopen	-3639
▁Hong	-3640
olecu	-3641
kn	-3642
ugen	-3643
orten	-3644
▁haven	-3645
zee	-3646
programma	-3647
▁Ts	-3648
▁besp	-3649
Ch	-3650
ous	-3651
▁Urbanus	-3652
▁vul	-3653
icus	-3654
ixtus	-3655
▁onderstaande	-3656
▁ziekenhuis	-3657
iele	-3658
▁2007	-3659
▁car	-3660
▁Nicol	-3661
▁Cent	-3662
▁Want	-3663
▁droog	-3664
izen	-3665
denken	-3666
▁uw	-3667
84	-3668
ors	-3669
▁el	-3670
▁HE	-3671
ruit	-3672
▁honden	-3673
▁my	-3674
erende	-3675
24	-3676
ats	-3677
▁besloten	-3678
OOR	-3679
▁koud	-3680
▁Mal	-3681
rekken	-3682
▁erbij	-3683
99	-3684
▁gezet	-3685
waarde	-3686
oi	-3687
pol	-3688
▁blik	-3689
▁begrij	-3690
ertog	-3691
ice	-3692
ormen	-3693
▁stam	-3694
▁speciaal	-3695
stem	-3696
▁Maarten	-3697
▁talen	-3698
▁wakker	-3699
▁keuze	-3700
▁stappen	-3701
▁imm	-3702
▁tas	-3703
▁stelt	-3704
▁tent	-3705
Er	-3706
▁landbouw	-3707
▁zorgde	-3708
▁JE	-3709
lang	-3710
▁bak	-3711
▁gebouwen	-3712
▁Ph	-3713
▁Gemeen	-3714
▁suiker	-3715
▁gisteren	-3716
▁vloe	-3717
▁gevaarlijk	-3718
▁kwart	-3719
des	-3720
▁gezondheid	-3721
85	-3722
Op	-3723
alisme	-3724
▁gewone	-3725
▁ern	-3726
▁leeg	-3727
▁hangt	-3728
▁opgave	-3729
▁behaald	-3730
bele	-3731
▁Fre	-3732
▁CD	-3733
▁Olympische	-3734
-3	-3735
▁Napole	-3736
▁haalde	-3737
▁zonne	-3738
ile	-3739
oepen	-3740
▁Verk	-3741
▁zwart	-3742
▁behalen	-3743
▁webs	-3744
▁bar	-3745
17	-3746
▁bracht	-3747
▁Klaas	-3748
▁Londen	-3749
▁(3	-3750
vens	-3751
chine	-3752
▁vracht	-3753
▁geïn	-3754
▁legt	-3755
entuin	-3756
▁appar	-3757
▁symb	-3758
▁overal	-3759
▁behoren	-3760
fin	-3761
ongen	-3762
▁Gron	-3763
▁Gal	-3764
oordat	-3765
▁schrijf	-3766
ochten	-3767
pjes	-3768
▁kal	-3769
▁strijd	-3770
▁kritiek	-3771
meer	-3772
ogel	-3773
▁democ	-3774
▁veranderen	-3775
▁2021	-3776
▁lengte	-3777
iveau	-3778
▁zanger	-3779
gevoegd	-3780
▁seizoen	-3781
▁gevolgen	-3782
Nou	-3783
arch	-3784
▁beelden	-3785
▁Belgische	-3786
▁overeen	-3787
RO	-3788
▁Vooral	-3789
GEN	-3790
▁genomen	-3791
the	-3792
▁burgemeester	-3793
▁beoord	-3794
▁enorme	-3795
▁opgenomen	-3796
▁dans	-3797
gere	-3798
▁langzaam	-3799
▁hiervoor	-3800
▁gemiddeld	-3801
▁draait	-3802
▁amb	-3803
▁bekendste	-3804
▁schem	-3805
▁strand	-3806
Af	-3807
allo	-3808
▁klinkt	-3809
zil	-3810
▁mer	-3811
del	-3812
▁IN	-3813
▁soldaten	-3814
▁kenmerken	-3815
centage	-3816
richt	-3817
▁fluist	-3818
▁algemeen	-3819
raven	-3820
▁Oekraïne	-3821
▁Kn	-3822
▁financ	-3823
▁staten	-3824
urs	-3825
ance	-3826
▁dorpen	-3827
▁2013	-3828
▁mann	-3829
▁optreden	-3830
ww	-3831
▁Zwe	-3832
▁Land	-3833
▁to	-3834
ieken	-3835
▁voldoen	-3836
▁Romeinse	-3837
ress	-3838
▁Chine	-3839
ike	-3840
IET	-3841
▁exper	-3842
▁zuid	-3843
leving	-3844
▁moderne	-3845
▁dw	-3846
regel	-3847
▁tekening	-3848
▁twintig	-3849
geld	-3850
▁Mad	-3851
▁post	-3852
▁haalt	-3853
▁Eén	-3854
▁ochtend	-3855
ionen	-3856
▁olif	-3857
▁tekenen	-3858
▁zwemmen	-3859
▁Wal	-3860
▁bood	-3861
▁milieu	-3862
▁daarvoor	-3863
2-	-3864
▁koop	-3865
verkiezingen	-3866
▁"*	-3867
CHT	-3868
aker	-3869
eters	-3870
▁Democ	-3871
▁levens	-3872
DE	-3873
uif	-3874
▁train	-3875
iem	-3876
▁handel	-3877
▁WK	-3878
▁paleis	-3879
eriën	-3880
iegel	-3881
▁kern	-3882
▁histor	-3883
▁pracht	-3884
▁onderste	-3885
zijn	-3886
▁erv	-3887
▁du	-3888
cus	-3889
▁La	-3890
▁stier	-3891
▁dragen	-3892
▁vaste	-3893
▁Napoleon	-3894
ère	-3895
ombin	-3896
ressie	-3897
▁draaien	-3898
▁ok	-3899
▁richt	-3900
vallen	-3901
▁afval	-3902
stelsel	-3903
▁Andere	-3904
▁manieren	-3905
▁reage	-3906
▁Verder	-3907
▁veilig	-3908
▁vinger	-3909
▁spreken	-3910
▁Groot	-3911
▁Afrika	-3912
▁groeien	-3913
▁appel	-3914
igt	-3915
▁VAN	-3916
▁broek	-3917
▁verpl	-3918
ager	-3919
▁feit	-3920
atisch	-3921
▁Lat	-3922
Amerika	-3923
▁2022	-3924
verb	-3925
▁zogen	-3926
▁Uni	-3927
▁jeugd	-3928
▁oorzaak	-3929
▁80	-3930
▁Bas	-3931
▁www	-3932
▁motor	-3933
▁versl	-3934
xide	-3935
▁OP	-3936
▁stren	-3937
rale	-3938
ijnt	-3939
▁koolstof	-3940
78	-3941
▁(201	-3942
▁um	-3943
▁tegenst	-3944
▁verloren	-3945
▁armen	-3946
ih	-3947
▁boeren	-3948
▁verboden	-3949
aamd	-3950
rouwen	-3951
school	-3952
▁volledig	-3953
5-1	-3954
▁Nog	-3955
▁Polen	-3956
geheten	-3957
▁onderzoekers	-3958
▁Bos	-3959
▁Air	-3960
▁gegaan	-3961
IDEN	-3962
▁steun	-3963
▁tr	-3964
▁Adri	-3965
▁dokter	-3966
▁Laura	-3967
▁contro	-3968
▁passen	-3969
osaur	-3970
▁fietsen	-3971
▁zogeheten	-3972
ella	-3973
Daar	-3974
iërs	-3975
▁Vand	-3976
▁vermogen	-3977
▁AL	-3978
▁olie	-3979
▁tegelijk	-3980
past	-3981
issie	-3982
▁beweging	-3983
▁Stad	-3984
▁verkeer	-3985
za	-3986
ukte	-3987
inden	-3988
▁konijn	-3989
▁2002	-3990
▁meth	-3991
auto	-3992
spro	-3993
rant	-3994
sland	-3995
zitter	-3996
▁schrik	-3997
▁:	-3998
▁kent	-3999
urende	-4000
▁i	-4001
oegen	-4002
▁boekje	-4003
▁kennen	-4004
▁sneller	-4005
ax	-4006
IED	-4007
▁At	-4008
▁blauwe	-4009
▁Nad	-4010
licht	-4011
▁fragment	-4012
▁Natuur	-4013
opend	-4014
▁Not	-4015
stein	-4016
▁hor	-4017
zeker	-4018
steen	-4019
▁Vroe	-4020
achtige	-4021
63	-4022
▁kam	-4023
▁6.	-4024
raan	-4025
zing	-4026
▁vlieg	-4027
▁2001	-4028
▁Daan	-4029
▁pakte	-4030
▁centrum	-4031
▁ouder	-4032
kaan	-4033
▁Griekse	-4034
bak	-4035
ijm	-4036
rabant	-4037
▁systeem	-4038
▁voelt	-4039
ded	-4040
icro	-4041
▁oppervlakte	-4042
aurant	-4043
▁muis	-4044
▁es	-4045
▁tanden	-4046
81	-4047
▁Brazil	-4048
iënt	-4049
oris	-4050
schil	-4051
naam	-4052
▁beper	-4053
▁so	-4054
▁ruzie	-4055
▁versie	-4056
▁kennis	-4057
rui	-4058
▁David	-4059
▁officieel	-4060
▁Huis	-4061
▁Sal	-4062
▁graden	-4063
▁ab	-4064
▁Nicolaas	-4065
coh	-4066
nes	-4067
▁getekend	-4068
▁seconden	-4069
▁wou	-4070
rucht	-4071
ratische	-4072
aseerd	-4073
▁letters	-4074
ologische	-4075
TIF	-4076
▁lin	-4077
urgers	-4078
▁omgeving	-4079
sport	-4080
▁zagen	-4081
▁ler	-4082
▁groei	-4083
óó	-4084
▁geheel	-4085
▁schade	-4086
▁dierentuin	-4087
ition	-4088
▁zette	-4089
▁inhoud	-4090
▁universiteit	-4091
IDENTIF	-4092
▁volgen	-4093
UNIDENTIF	-4094
▁veranderd	-4095
UNIDENTIFIED	-4096
sa	-4097
▁tie	-4098
aderen	-4099
▁plastic	-4100
98	-4101
ctor	-4102
ace	-4103
▁EU	-4104
oken	-4105
▁Ten	-4106
▁lijken	-4107
▁veroorzaakt	-4108
▁DAT	-4109
boven	-4110
▁plannen	-4111
▁vergeten	-4112
ych	-4113
▁tel	-4114
tu	-4115
adem	-4116
▁cijfers	-4117
56	-4118
▁Boven	-4119
▁vrije	-4120
▁voeren	-4121
▁zout	-4122
▁Thijs	-4123
!""	-4124
VD	-4125
▁Vlaam	-4126
▁groene	-4127
▁kandid	-4128
▁da	-4129
club	-4130
▁hiervan	-4131
▁schoenen	-4132
▁groen	-4133
▁veren	-4134
14	-4135
cohol	-4136
▁model	-4137
huizen	-4138
▁hierbij	-4139
▁afbeeldingen	-4140
lever	-4141
▁stuur	-4142
▁Europ	-4143
▁broe	-4144
eeland	-4145
▁verte	-4146
él	-4147
58)	-4148
hem	-4149
▁vervangen	-4150
▁internationale	-4151
▁thema	-4152
▁vet	-4153
▁proef	-4154
▁vraagnummer	-4155
lage	-4156
vest	-4157
▁Jos	-4158
▁bereiken	-4159
ureau	-4160
▁uitzen	-4161
▁rot	-4162
▁gram	-4163
boeken	-4164
▁zaken	-4165
neke	-4166
▁ang	-4167
lem	-4168
ieën	-4169
▁arch	-4170
imburg	-4171
▁Zwits	-4172
▁direc	-4173
gez	-4174
amera	-4175
heer	-4176
▁staats	-4177
oond	-4178
48	-4179
bus	-4180
▁CO	-4181
▁Lou	-4182
▁cre	-4183
▁kruis	-4184
▁tv	-4185
interkl	-4186
▁werkte	-4187
ijnse	-4188
▁Daardoor	-4189
emen	-4190
▁voelde	-4191
aats	-4192
ount	-4193
plant	-4194
▁rust	-4195
▁zware	-4196
▁bepalen	-4197
▁prins	-4198
▁Neem	-4199
▁stru	-4200
▁christ	-4201
▁pir	-4202
GR	-4203
▁gevorm	-4204
▁Hierbij	-4205
ern	-4206
▁toegevoegd	-4207
bad	-4208
aalf	-4209
gaat	-4210
▁opt	-4211
▁Spelen	-4212
atholieke	-4213
nooi	-4214
elaar	-4215
tes	-4216
▁eend	-4217
▁oudste	-4218
AK	-4219
▁Egyp	-4220
skund	-4221
IS	-4222
ca	-4223
▁Wh	-4224
▁kip	-4225
sters	-4226
▁kies	-4227
▁Kerk	-4228
▁thee	-4229
▁Chr	-4230
▁Hel	-4231
▁rent	-4232
▁Bur	-4233
▁zil	-4234
adden	-4235
▁allebei	-4236
▁Eef	-4237
▁filos	-4238
▁Groningen	-4239
▁VER	-4240
▁strip	-4241
wezen	-4242
▁uitspraken	-4243
▁NIET	-4244
atische	-4245
▁bodem	-4246
▁overst	-4247
▁Turkije	-4248
jax	-4249
▁Sil	-4250
mming	-4251
▁2003	-4252
▁grotere	-4253
▁samenleving	-4254
▁kg	-4255
Duit	-4256
▁colle	-4257
aver	-4258
▁rennen	-4259
▁gebaseerd	-4260
▁beschreven	-4261
di	-4262
▁studen	-4263
▁NO	-4264
station	-4265
▁Kijk	-4266
▁sterren	-4267
▁inmiddels	-4268
"")."	-4269
ka	-4270
IJN	-4271
▁been	-4272
▁word	-4273
▁ontmoet	-4274
▁pan	-4275
▁enkel	-4276
▁7.	-4277
ilde	-4278
▁schuld	-4279
▁|	-4280
ersp	-4281
laag	-4282
▁2023	-4283
▁Naar	-4284
▁zomaar	-4285
▁ondersche	-4286
▁onderzoeken	-4287
▁prinses	-4288
▁vervoer	-4289
echt	-4290
vester	-4291
▁liedje	-4292
▁wegen	-4293
▁kaas	-4294
▁zinnen	-4295
▁Fe	-4296
rong	-4297
▁Bram	-4298
▁35	-4299
sluit	-4300
▁and	-4301
▁type	-4302
steld	-4303
▁Zweden	-4304
eratie	-4305
ida	-4306
yr	-4307
▁Ro	-4308
▁XIII	-4309
▁corre	-4310
▁Mexico	-4311
vd	-4312
▁dienst	-4313
▁spannen	-4314
▁tijdje	-4315
mene	-4316
▁bedre	-4317
derdaad	-4318
▁paus	-4319
▁afgele	-4320
▁leider	-4321
12	-4322
▁nood	-4323
▁geopend	-4324
▁beschermen	-4325
rem	-4326
▁opgel	-4327
gevallen	-4328
line	-4329
▁insp	-4330
▁zetels	-4331
▁verteld	-4332
▁elektrische	-4333
▁verantwoord	-4334
ierd	-4335
▁goe	-4336
▁jas	-4337
▁Bart	-4338
▁website	-4339
▁mob	-4340
▁Arn	-4341
▁ho	-4342
▁ond	-4343
achtoff	-4344
interklaas	-4345
▁Griekenland	-4346
uf	-4347
ling	-4348
rib	-4349
otseling	-4350
▁Nee	-4351
▁schilder	-4352
▁vertelde	-4353
regels	-4354
▁co	-4355
▁Col	-4356
▁schrijft	-4357
dienst	-4358
▁Oorlog	-4359
▁attractie	-4360
fab	-4361
▁overleed	-4362
▁Serv	-4363
▁Eerst	-4364
ational	-4365
la	-4366
Zo	-4367
▁bedrag	-4368
que	-4369
▁lok	-4370
LE	-4371
▁sk	-4372
▁rand	-4373
▁kindje	-4374
27	-4375
by	-4376
esse	-4377
▁Pe	-4378
inke	-4379
abeth	-4380
outer	-4381
▁jaarlijk	-4382
▁No	-4383
illa	-4384
▁betre	-4385
▁Wij	-4386
▁Elke	-4387
▁relig	-4388
▁beoordeling	-4389
An	-4390
aff	-4391
atis	-4392
ward	-4393
▁Soc	-4394
▁uitgeb	-4395
orgd	-4396
▁bre	-4397
▁Water	-4398
▁verkopen	-4399
▁Achter	-4400
▁tegenover	-4401
▁voorzichtig	-4402
▁buitenland	-4403
▁merk	-4404
▁leidde	-4405
▁vandaan	-4406
▁Sm	-4407
▁materiaal	-4408
▁Dag	-4409
▁mel	-4410
▁verwijzen	-4411
▁Jer	-4412
▁relatie	-4413
▁basissch	-4414
▁Ni	-4415
▁tante	-4416
▁8.	-4417
..."	-4418
malige	-4419
▁gehaald	-4420
▁vrijheid	-4421
ianus	-4422
anda	-4423
▁Volks	-4424
▁bevindt	-4425
▁choc	-4426
▁massa	-4427
▁Canada	-4428
▁hondje	-4429
geteld	-4430
▁hangen	-4431
zame	-4432
oorte	-4433
▁Tur	-4434
▁Zelf	-4435
ouding	-4436
▁liever	-4437
▁Ot	-4438
▁Portug	-4439
▁Iedereen	-4440
elend	-4441
zi	-4442
▁inv	-4443
▁Ag	-4444
iste	-4445
▁omzet	-4446
festival	-4447
raat	-4448
▁premier	-4449
▁beest	-4450
arde	-4451
Neder	-4452
derik	-4453
▁Australië	-4454
▁Bo	-4455
da	-4456
vie	-4457
▁helpt	-4458
▁gasten	-4459
▁schepen	-4460
▁dun	-4461
▁concent	-4462
let	-4463
sw	-4464
uts	-4465
▁Pep	-4466
▁neg	-4467
aller	-4468
▁protest	-4469
haven	-4470
terne	-4471
▁Chinese	-4472
aagd	-4473
akers	-4474
▁vervol	-4475
▁overleden	-4476
ivis	-4477
▁oosten	-4478
▁vijft	-4479
▁hit	-4480
▁burger	-4481
▁product	-4482
lant	-4483
▁kabinet	-4484
▁ballon	-4485
▁Sar	-4486
▁start	-4487
aasd	-4488
gorde	-4489
▁recl	-4490
2-1	-4491
▁70	-4492
wijf	-4493
risis	-4494
▁autom	-4495
▁sturen	-4496
▁India	-4497
▁Rond	-4498
▁burgers	-4499
koop	-4500
ondag	-4501
ournal	-4502
▁ronde	-4503
▁eindelijk	-4504
ras	-4505
ootje	-4506
▁kwijt	-4507
ografie	-4508
▁Kinderen	-4509
▁Anna	-4510
▁officiële	-4511
▁bijzondere	-4512
eet	-4513
▁sleut	-4514
▁uiter	-4515
west	-4516
▁cel	-4517
▁Wel	-4518
▁voeten	-4519
30)	-4520
▁Su	-4521
▁aap	-4522
▁winst	-4523
▁minim	-4524
▁social	-4525
pass	-4526
▁crimin	-4527
▁Adrianus	-4528
▁2024	-4529
▁Ajax	-4530
▁rijdt	-4531
Kom	-4532
gin	-4533
▁lager	-4534
▁stenen	-4535
590	-4536
▁zicht	-4537
▁Midden	-4538
sproken	-4539
uwelijks	-4540
ipp	-4541
lop	-4542
ammer	-4543
okk	-4544
▁wink	-4545
▁schaal	-4546
▁mochten	-4547
ringt	-4548
▁touw	-4549
▁geel	-4550
ageren	-4551
▁westen	-4552
oeien	-4553
▁liepen	-4554
75	-4555
asius	-4556
▁bekijken	-4557
▁Mag	-4558
▁stev	-4559
ilt	-4560
▁effect	-4561
▁verkoop	-4562
▁Groen	-4563
▁bezet	-4564
adering	-4565
▁kleren	-4566
▁zucht	-4567
aterdag	-4568
▁raakte	-4569
▁negen	-4570
▁behoor	-4571
▁schoot	-4572
▁bacteriën	-4573
▁inse	-4574
▁exp	-4575
▁Drie	-4576
▁Heel	-4577
▁gezin	-4578
▁Indones	-4579
▁Fin	-4580
83	-4581
groe	-4582
▁Bijvoorbeeld	-4583
▁opeens	-4584
54)	-4585
▁chem	-4586
regelen	-4587
▁uitgez	-4588
▁Schot	-4589
▁leuke	-4590
▁Lux	-4591
▁praat	-4592
▁stukken	-4593
▁bijlage	-4594
▁regelmatig	-4595
▁halve	-4596
indingen	-4597
▁restaurant	-4598
ruim	-4599
▁hiel	-4600
▁winn	-4601
middag	-4602
▁gaten	-4603
▁wijze	-4604
hoven	-4605
standigheden	-4606
bet	-4607
komsten	-4608
▁hartst	-4609
▁inderdaad	-4610
▁Amerikanen	-4611
ala	-4612
fe	-4613
▁gar	-4614
ommen	-4615
soort	-4616
▁rekening	-4617
▁verliefd	-4618
▁brandweer	-4619
▁500	-4620
▁controle	-4621
dra	-4622
▁Licht	-4623
rokk	-4624
▁Nou	-4625
▁part	-4626
▁Vroeger	-4627
▁opzichte	-4628
rond	-4629
gebruik	-4630
▁dichter	-4631
▁Steden	-4632
rest	-4633
▁afloop	-4634
wedstrijd	-4635
▁Christus	-4636
▁Jacob	-4637
zw	-4638
▁Binnen	-4639
▁hè	-4640
wekker	-4641
schreven	-4642
▁toeristen	-4643
▁1999	-4644
▁alcohol	-4645
▁slechte	-4646
▁honderd	-4647
VV	-4648
▁Jaap	-4649
▁herinn	-4650
erden	-4651
▁slachtoff	-4652
Dit	-4653
ome	-4654
opp	-4655
▁dik	-4656
ight	-4657
▁paarden	-4658
▁3,	-4659
71	-4660
▁sub	-4661
▁Gemeenten	-4662
▁hyp	-4663
▁doden	-4664
▁Arab	-4665
riv	-4666
▁eraan	-4667
▁lacht	-4668
▁Nederlanden	-4669
▁liefst	-4670
▁vierde	-4671
▁archite	-4672
▁Koen	-4673
kosten	-4674
▁Nadat	-4675
▁buur	-4676
avel	-4677
juist	-4678
▁Rome	-4679
▁bewegen	-4680
▁deb	-4681
▁[	-4682
▁geschikt	-4683
▁flink	-4684
▁verandering	-4685
▁pod	-4686
▁verded	-4687
boom	-4688
▁Eefie	-4689
▁combin	-4690
ish	-4691
alve	-4692
emarken	-4693
▁wedstrijden	-4694
utt	-4695
ction	-4696
▁glim	-4697
ott	-4698
▁verf	-4699
▁Provincies	-4700
▁9.	-4701
▁Zet	-4702
▁gooien	-4703
▁arbeids	-4704
▁Gelukkig	-4705
▁un	-4706
sbe	-4707
isse	-4708
▁Stel	-4709
▁slim	-4710
▁Middel	-4711
wikk	-4712
ld	-4713
aand	-4714
▁wal	-4715
▁ontsn	-4716
▁stak	-4717
▁actief	-4718
▁luisteren	-4719
▁vertel	-4720
AL	-4721
ductie	-4722
voering	-4723
▁gat	-4724
▁Noteer	-4725
ctievoor	-4726
inkeltje	-4727
PLA	-4728
▁hap	-4729
▁hotel	-4730
▁belasting	-4731
36	-4732
96)	-4733
▁acteur	-4734
▁heette	-4735
▁stadion	-4736
▁kleinere	-4737
▁meegeteld	-4738
22	-4739
▁Sinterklaas	-4740
▁Tw	-4741
▁Lang	-4742
istisch	-4743
uwe	-4744
ense	-4745
▁Rad	-4746
▁loc	-4747
▁rende	-4748
▁sterke	-4749
On	-4750
rad	-4751
uwde	-4752
▁draaide	-4753
▁theater	-4754
gl	-4755
▁cellen	-4756
▁bem	-4757
rif	-4758
oordt	-4759
▁oren	-4760
UR	-4761
ote	-4762
ura	-4763
óór	-4764
▁gouden	-4765
▁voorst	-4766
vat	-4767
▁hek	-4768
▁taak	-4769
▁Filips	-4770
gebieden	-4771
imm	-4772
▁ijzer	-4773
▁contact	-4774
▁onderzocht	-4775
olly	-4776
blij	-4777
▁Even	-4778
▁eieren	-4779
igit	-4780
▁dre	-4781
▁aardig	-4782
▁Vandaag	-4783
▁aspecten	-4784
▁reageren	-4785
oto	-4786
logen	-4787
▁trom	-4788
partij	-4789
usical	-4790
▁weekend	-4791
repen	-4792
▁schat	-4793
ublik	-4794
imeter	-4795
▁beroep	-4796
▁kaarten	-4797
▁Eind	-4798
▁Duitsers	-4799
▁twaalf	-4800
gelaten	-4801
▁bekeken	-4802
gas	-4803
▁schiet	-4804
▁Ted	-4805
▁geboorte	-4806
▁tij	-4807
▁benen	-4808
▁medic	-4809
▁geloven	-4810
▁spelers	-4811
▁Da	-4812
▁vies	-4813
muziek	-4814
aanderen	-4815
▁gevormd	-4816
uze	-4817
avië	-4818
mans	-4819
▁Jack	-4820
▁hol	-4821
▁vuil	-4822
▁ontwerp	-4823
▁Hen	-4824
ceaan	-4825
▁Pepijn	-4826
▁activiteit	-4827
▁vro	-4828
verse	-4829
,""	-4830
col	-4831
maar	-4832
▁soep	-4833
▁ide	-4834
47	-4835
▁ref	-4836
zaken	-4837
▁opeten	-4838
oni	-4839
Sch	-4840
▁Harry	-4841
16	-4842
▁wolf	-4843
▁noemt	-4844
▁gelegen	-4845
▁theorie	-4846
▁Denemarken	-4847
4-1	-4848
▁Kim	-4849
▁Albert	-4850
eesten	-4851
▁slaan	-4852
redenen	-4853
▁verandert	-4854
▁San	-4855
▁slot	-4856
▁aardbe	-4857
▁dansen	-4858
AS	-4859
GRAND	-4860
eland	-4861
▁vocht	-4862
46	-4863
iaan	-4864
ialen	-4865
▁klap	-4866
leggen	-4867
▁ST	-4868
▁Egypte	-4869
ublikein	-4870
▁hersenen	-4871
▁beïn	-4872
▁fruit	-4873
▁miljard	-4874
▁orde	-4875
ivisie	-4876
32	-4877
osf	-4878
Holland	-4879
▁volgorde	-4880
▁verj	-4881
▁Vervolgens	-4882
▁vrede	-4883
riciteit	-4884
▁beroemde	-4885
▁lees	-4886
▁gehoord	-4887
vlie	-4888
▁1998	-4889
▁ijsje	-4890
▁voren	-4891
▁Holland	-4892
88	-4893
ini	-4894
▁1990	-4895
▁beker	-4896
▁wetenschap	-4897
▁git	-4898
▁cd	-4899
ultuur	-4900
▁Externe	-4901
▁betaald	-4902
▁verloor	-4903
▁erachter	-4904
▁gegeten	-4905
▁gewicht	-4906
▁leidt	-4907
▁trots	-4908
▁minist	-4909
▁zoekt	-4910
▁gebeurtenissen	-4911
rakt	-4912
▁vir	-4913
osk	-4914
▁uitgevoerd	-4915
▁90	-4916
▁Ha	-4917
stra	-4918
pop	-4919
▁raken	-4920
bot	-4921
oft	-4922
othe	-4923
eester	-4924
▁ideeën	-4925
schappelijke	-4926
ipl	-4927
Voor	-4928
▁pen	-4929
--	-4930
5.	-4931
sne	-4932
ung	-4933
▁lage	-4934
▁daarin	-4935
▁roepen	-4936
▁vechten	-4937
gek	-4938
reid	-4939
▁Romeinen	-4940
prob	-4941
▁onver	-4942
▁storm	-4943
sluiten	-4944
▁normale	-4945
▁Mc	-4946
▁dui	-4947
▁Limburg	-4948
▁Brazilië	-4949
▁plein	-4950
iest	-4951
wijd	-4952
hoorn	-4953
▁stok	-4954
morgen	-4955
tuigen	-4956
▁zul	-4957
▁overw	-4958
▁schad	-4959
swekker	-4960
▁rivieren	-4961
▁verbonden	-4962
va	-4963
▁tand	-4964
73	-4965
deels	-4966
▁grij	-4967
▁breed	-4968
▁Marokk	-4969
▁verbrand	-4970
▁klok	-4971
▁32	-4972
▁Gen	-4973
▁Rijn	-4974
emburg	-4975
▁voorzien	-4976
▁nauwelijks	-4977
chen	-4978
▁liedjes	-4979
▁trouwde	-4980
▁veiligheid	-4981
▁alweer	-4982
car	-4983
ket	-4984
lands	-4985
▁Berlijn	-4986
▁spanning	-4987
key	-4988
▁Nina	-4989
gsel	-4990
mond	-4991
▁Zoals	-4992
baarheid	-4993
▁test	-4994
▁lukt	-4995
▁voelen	-4996
gekomen	-4997
\""	-4998
▁Ru	-4999
sdag	-5000
elijks	-5001
▁klass	-5002
▁bewering	-5003
▁EK	-5004
comp	-5005
gers	-5006
▁geleid	-5007
gaven	-5008
▁eiwit	-5009
atus	-5010
▁Hit	-5011
igers	-5012
▁Prins	-5013
beiders	-5014
▁aanb	-5015
▁Ierland	-5016
▁Portugal	-5017
▁hartstikke	-5018
▁mol	-5019
▁rechten	-5020
76	-5021
?""	-5022
kelijke	-5023
▁waarsch	-5024
▁studenten	-5025
view	-5026
aya	-5027
boel	-5028
dier	-5029
▁gevangenis	-5030
▁toneelstuk	-5031
pak	-5032
iënten	-5033
▁genaamd	-5034
lam	-5035
▁stopt	-5036
outen	-5037
▁nauw	-5038
▁geplaatst	-5039
▁Hans	-5040
18	-5041
iland	-5042
▁herkennen	-5043
Is	-5044
▁Wor	-5045
▁TE	-5046
obert	-5047
nij	-5048
▁beleid	-5049
AP	-5050
han	-5051
-104	-5052
laar	-5053
ronen	-5054
▁behalve	-5055
ael	-5056
▁Che	-5057
▁Ven	-5058
▁stijl	-5059
rechten	-5060
▁Gelder	-5061
emand	-5062
centrum	-5063
▁Italiaanse	-5064
haal	-5065
olie	-5066
broek	-5067
istof	-5068
▁beschrij	-5069
▁gepublic	-5070
ipt	-5071
▁dert	-5072
▁rook	-5073
▁negent	-5074
eemt	-5075
▁scher	-5076
▁reizen	-5077
ury	-5078
IJK	-5079
ftal	-5080
▁verspreid	-5081
▁vermoord	-5082
OU	-5083
▁Amerikaans	-5084
una	-5085
▁Mac	-5086
▁tev	-5087
Waarom	-5088
arije	-5089
▁Cele	-5090
▁zaterdag	-5091
scherm	-5092
▁strom	-5093
▁Hon	-5094
▁houten	-5095
▁leiding	-5096
▁industrie	-5097
uwt	-5098
▁Bro	-5099
▁Pet	-5100
oging	-5101
▁fout	-5102
▁Britten	-5103
entie	-5104
▁raar	-5105
▁emmer	-5106
▁structuur	-5107
▁afhankelijk	-5108
alle	-5109
▁Kro	-5110
kings	-5111
▁conclusie	-5112
hof	-5113
schrijf	-5114
▁prijzen	-5115
03	-5116
▁Ont	-5117
▁Marc	-5118
▁legde	-5119
▁olifant	-5120
▁waterstof	-5121
aft	-5122
omme	-5123
groepen	-5124
volle	-5125
▁kwaad	-5126
▁wijst	-5127
▁Park	-5128
oets	-5129
▁gepubliceerd	-5130
,-	-5131
raden	-5132
▁vingers	-5133
▁FC	-5134
actor	-5135
▁City	-5136
▁moeite	-5137
72	-5138
▁zondag	-5139
▁spreekt	-5140
rid	-5141
▁resultaten	-5142
reeks	-5143
vingen	-5144
▁bellen	-5145
ossen	-5146
▁slaat	-5147
▁begrip	-5148
▁duizenden	-5149
cip	-5150
▁kopje	-5151
drukt	-5152
osc	-5153
▁grapp	-5154
▁brengt	-5155
▁hogere	-5156
▁vooruit	-5157
▁mannetje	-5158
▁ontvangen	-5159
▁onderdelen	-5160
▁raad	-5161
▁waaruit	-5162
▁Europees	-5163
39	-5164
▁Geen	-5165
▁zaal	-5166
brengen	-5167
AM	-5168
24)	-5169
▁mat	-5170
waard	-5171
▁toev	-5172
▁mogelijke	-5173
▁zoiets	-5174
Sp	-5175
▁vleu	-5176
▁Vrij	-5177
▁port	-5178
bedrijf	-5179
▁Terwijl	-5180
zus	-5181
woordt	-5182
▁kranten	-5183
▁voetballen	-5184
wat	-5185
▁int	-5186
▁Kees	-5187
▁boerderij	-5188
▁Hoeveel	-5189
▁Pinkeltje	-5190
▁omgezet	-5191
oph	-5192
▁geproduc	-5193
roeg	-5194
▁meet	-5195
▁wort	-5196
brand	-5197
wacht	-5198
▁resultaat	-5199
ES	-5200
▁XIV	-5201
▁keren	-5202
▁gehele	-5203
▁Iris	-5204
▁gekocht	-5205
▁verdienen	-5206
temis	-5207
otheek	-5208
▁Luxemburg	-5209
▁camp	-5210
▁Zwitserland	-5211
IK	-5212
▁ontbreekt	-5213
▁verdwenen	-5214
▁dub	-5215
▁Sixtus	-5216
▁beroemd	-5217
▁voldoende	-5218
▁rit	-5219
▁knoop	-5220
99)	-5221
Brit	-5222
▁micro	-5223
▁levert	-5224
▁schild	-5225
▁150	-5226
gebouw	-5227
raten	-5228
steden	-5229
uele	-5230
Afrika	-5231
▁knikt	-5232
▁schak	-5233
▁Celest	-5234
▁gepl	-5235
iana	-5236
kle	-5237
▁Stef	-5238
▁James	-5239
▁Bert	-5240
▁camera	-5241
▁gezell	-5242
cy	-5243
ira	-5244
aria	-5245
ende	-5246
▁Goede	-5247
▁gratis	-5248
21	-5249
▁vanavond	-5250
▁Celestinus	-5251
voet	-5252
▁Kom	-5253
▁molecu	-5254
▁abs	-5255
pport	-5256
▁komende	-5257
▁nationale	-5258
▁(68	-5259
▁elf	-5260
▁cirkel	-5261
▁lastig	-5262
▁journal	-5263
3-	-5264
ser	-5265
▁My	-5266
▁stierf	-5267
▁ops	-5268
▁kampioen	-5269
4.	-5270
zijde	-5271
▁bond	-5272
▁middag	-5273
▁waarna	-5274
eekt	-5275
▁democratie	-5276
sych	-5277
uzen	-5278
▁Sven	-5279
▁darm	-5280
▁bezoekers	-5281
95	-5282
▁vest	-5283
▁site	-5284
omming	-5285
ules	-5286
▁oom	-5287
sem	-5288
eiden	-5289
▁honger	-5290
▁elektriciteit	-5291
heb	-5292
▁WAT	-5293
▁Sarah	-5294
richting	-5295
▁VS	-5296
eent	-5297
▁Kle	-5298
orven	-5299
▁voedings	-5300
▁middelbare	-5301
spl	-5302
▁Eigen	-5303
uel	-5304
▁10.	-5305
▁harde	-5306
▁Onderzoek	-5307
▁uitgezonden	-5308
Mijn	-5309
komstig	-5310
▁vernoemd	-5311
straat	-5312
dy	-5313
ooid	-5314
▁golf	-5315
▁experiment	-5316
zaal	-5317
▁bedoeling	-5318
▁vreemd	-5319
▁insecten	-5320
▁oorspronkelijk	-5321
ianen	-5322
▁draagt	-5323
▁Tele	-5324
▁derg	-5325
▁geluk	-5326
▁hoewel	-5327
▁ill	-5328
▁meedoen	-5329
▁ON	-5330
ikki	-5331
weet	-5332
▁tak	-5333
ities	-5334
ussel	-5335
▁opvol	-5336
▁taart	-5337
▁indruk	-5338
▁Jo	-5339
kast	-5340
ongfestival	-5341
▁veranderde	-5342
85)	-5343
stemming	-5344
▁opstand	-5345
▁reclame	-5346
▁instrument	-5347
▁zoet	-5348
kampioen	-5349
plaatsen	-5350
▁behoort	-5351
▁volledige	-5352
▁sluiten	-5353
▁spell	-5354
▁stukjes	-5355
ING	-5356
ijen	-5357
▁Kan	-5358
lieft	-5359
uiver	-5360
-0	-5361
ba	-5362
▁doc	-5363
lijst	-5364
▁1980	-5365
▁confl	-5366
▁betekenis	-5367
▁zeil	-5368
▁basisschool	-5369
▁Ken	-5370
▁heil	-5371
▁Jullie	-5372
▁Sw	-5373
▁Bal	-5374
▁des	-5375
ouver	-5376
▁wen	-5377
▁maatregelen	-5378
bon	-5379
▁afd	-5380
▁bladeren	-5381
bere	-5382
zorg	-5383
▁Nieuwe	-5384
▁sloeg	-5385
▁karakt	-5386
▁bereikt	-5387
best	-5388
▁Max	-5389
ington	-5390
▁vangen	-5391
▁verbaasd	-5392
alig	-5393
▁boter	-5394
▁aanval	-5395
IL	-5396
ukken	-5397
▁verster	-5398
uters	-5399
▁dist	-5400
▁link	-5401
▁angst	-5402
78)	-5403
▁expl	-5404
aatsen	-5405
▁Joden	-5406
▁juff	-5407
87	-5408
rice	-5409
arden	-5410
aapt	-5411
kwam	-5412
▁geste	-5413
▁bevatten	-5414
▁grondwet	-5415
▁Jon	-5416
rap	-5417
▁enz	-5418
▁puz	-5419
▁Part	-5420
▁warmte	-5421
eloos	-5422
▁telkens	-5423
skundigen	-5424
vrij	-5425
▁Del	-5426
▁Sur	-5427
▁wiel	-5428
▁linker	-5429
▁Japanse	-5430
▁stroomt	-5431
▁trouwens	-5432
bond	-5433
▁bol	-5434
▁Oude	-5435
derheid	-5436
▁vielen	-5437
▁gemeenten	-5438
▁ontwikkeld	-5439
▁Pap	-5440
▁mand	-5441
▁Britt	-5442
▁Steven	-5443
▁duurde	-5444
▁eenvoud	-5445
▁verlaten	-5446
▁wijn	-5447
▁leest	-5448
▁William	-5449
▁ur	-5450
▁heks	-5451
▁Dam	-5452
▁Open	-5453
werkers	-5454
▁Donald	-5455
helm	-5456
alest	-5457
instru	-5458
▁beurt	-5459
▁schud	-5460
▁oudere	-5461
▁diagram	-5462
▁opsomming	-5463
duard	-5464
▁verdriet	-5465
rr	-5466
▁vari	-5467
▁apparaat	-5468
▁schouders	-5469
42	-5470
DER	-5471
▁ner	-5472
▁wild	-5473
▁verhuis	-5474
gesch	-5475
▁wijk	-5476
landen	-5477
vdA	-5478
zin	-5479
ex	-5480
ussie	-5481
▁knikte	-5482
,2	-5483
▁Doe	-5484
aardag	-5485
▁vrijwel	-5486
▁Hol	-5487
▁ris	-5488
▁zenuw	-5489
idder	-5490
▁liefde	-5491
▁antwoordt	-5492
▁web	-5493
stens	-5494
▁Carol	-5495
▁aantre	-5496
▁afkomstig	-5497
89	-5498
orry	-5499
▁Cas	-5500
emel	-5501
▁snoep	-5502
▁Janneke	-5503
▁gemakkelijk	-5504
▁sing	-5505
▁bezit	-5506
▁gewond	-5507
schrijving	-5508
▁180	-5509
▁Viet	-5510
▁boem	-5511
▁stom	-5512
machine	-5513
▁voorkomt	-5514
gene	-5515
oning	-5516
riend	-5517
▁wezen	-5518
kamp	-5519
▁geest	-5520
genoten	-5521
▁stelde	-5522
▁Werk	-5523
▁sleutel	-5524
▁minuut	-5525
Be	-5526
veen	-5527
Nieuw	-5528
schip	-5529
ulden	-5530
▁Noorwegen	-5531
jech	-5532
anken	-5533
halve	-5534
hoofd	-5535
▁droom	-5536
▁warme	-5537
▁Art	-5538
▁erf	-5539
▁Eduard	-5540
arg	-5541
undige	-5542
▁troon	-5543
acc	-5544
64)	-5545
olven	-5546
clusief	-5547
▁Robert	-5548
▁slaven	-5549
▁juffrouw	-5550
▁mes	-5551
atter	-5552
6-	-5553
zz	-5554
veil	-5555
▁Cor	-5556
wereld	-5557
▁verbeter	-5558
▁springen	-5559
rump	-5560
▁pad	-5561
ogels	-5562
sver	-5563
▁300	-5564
▁effe	-5565
▁hoed	-5566
▁Doordat	-5567
▁geslacht	-5568
gebouwd	-5569
▁verplicht	-5570
▁aanget	-5571
▁geleerd	-5572
▁sim	-5573
▁(200	-5574
hoe	-5575
irt	-5576
igin	-5577
sterse	-5578
91	-5579
▁Niels	-5580
▁demon	-5581
▁record	-5582
▁betrokken	-5583
uzik	-5584
pakken	-5585
igingen	-5586
com	-5587
▁schoen	-5588
▁wisten	-5589
▁bleven	-5590
▁din	-5591
▁besm	-5592
wiss	-5593
▁nogal	-5594
inklijke	-5595
▁Ondertussen	-5596
8-	-5597
▁33	-5598
▁digit	-5599
▁bewoners	-5600
▁Ham	-5601
▁Fries	-5602
▁Jij	-5603
▁1960	-5604
middelen	-5605
500	-5606
▁ermee	-5607
rix	-5608
▁Anne	-5609
doek	-5610
ertijd	-5611
92	-5612
Heb	-5613
▁(6	-5614
▁Gl	-5615
▁cal	-5616
ieven	-5617
igens	-5618
▁lood	-5619
Europa	-5620
▁liber	-5621
▁online	-5622
▁tijden	-5623
Jij	-5624
▁oef	-5625
breng	-5626
bergen	-5627
▁aanleiding	-5628
▁ZE	-5629
rans	-5630
▁Frie	-5631
▁ring	-5632
anië	-5633
▁populaire	-5634
▁sj	-5635
▁not	-5636
▁typ	-5637
▁1000	-5638
▁MAAR	-5639
▁fant	-5640
▁vóór	-5641
▁wees	-5642
dan	-5643
geboren	-5644
▁concentratie	-5645
hed	-5646
▁ME	-5647
br	-5648
Goed	-5649
zoals	-5650
▁Hitler	-5651
▁Antwerpen	-5652
▁Mel	-5653
▁Rich	-5654
sing	-5655
kaart	-5656
▁borst	-5657
▁uitst	-5658
40)	-5659
sey	-5660
▁Tsjech	-5661
▁percentage	-5662
ush	-5663
ruis	-5664
▁gliml	-5665
▁zun	-5666
resent	-5667
▁Johan	-5668
▁Meest	-5669
▁sprong	-5670
▁beantwoord	-5671
68)	-5672
bro	-5673
Britt	-5674
▁Azië	-5675
▁jezelf	-5676
41	-5677
ony	-5678
ande	-5679
brug	-5680
▁Len	-5681
nacht	-5682
▁Verklaar	-5683
Ge	-5684
▁1997	-5685
▁const	-5686
▁toegekend	-5687
▁DNA	-5688
▁Kies	-5689
▁volgde	-5690
rikk	-5691
istan	-5692
▁sprook	-5693
▁geproduceerd	-5694
87)	-5695
unn	-5696
▁doll	-5697
43	-5698
▁wetenschappers	-5699
mot	-5700
▁BE	-5701
▁bijen	-5702
▁drink	-5703
▁keken	-5704
▁speler	-5705
4-	-5706
urele	-5707
▁winkels	-5708
▁tradition	-5709
9-	-5710
wa	-5711
▁HEB	-5712
kunst	-5713
▁Artemis	-5714
▁goederen	-5715
▁Mor	-5716
elder	-5717
ikstof	-5718
▁redden	-5719
▁elementen	-5720
▁uitzending	-5721
!!	-5722
eelt	-5723
igratie	-5724
eke	-5725
ront	-5726
kunde	-5727
▁haal	-5728
▁lagen	-5729
▁rijke	-5730
▁voorsp	-5731
ppel	-5732
▁hallo	-5733
▁Ron	-5734
krant	-5735
▁kunstenaar	-5736
iro	-5737
▁verjaardag	-5738
▁meerderheid	-5739
▁natuurlijke	-5740
▁zevent	-5741
▁la	-5742
▁nest	-5743
13	-5744
gever	-5745
▁telt	-5746
▁raakt	-5747
▁daarop	-5748
▁directeur	-5749
kkers	-5750
▁haast	-5751
▁Dieren	-5752
oers	-5753
▁trek	-5754
▁prakt	-5755
▁Bet	-5756
▁branden	-5757
▁Beschrijf	-5758
▁As	-5759
▁meen	-5760
▁Brussel	-5761
▁verscheen	-5762
▁groeide	-5763
hop	-5764
▁sign	-5765
rekking	-5766
▁gedragen	-5767
▁Sj	-5768
▁Trump	-5769
maatschappij	-5770
▁Iemand	-5771
▁Bre	-5772
▁Eugen	-5773
▁Simon	-5774
▁voordeel	-5775
▁verr	-5776
23	-5777
denk	-5778
▁1996	-5779
Le	-5780
OP	-5781
▁én	-5782
-127	-5783
▁onjuist	-5784
▁Phil	-5785
▁miljoenen	-5786
▁Ren	-5787
▁Goed	-5788
ime	-5789
boot	-5790
▁Bob	-5791
▁varen	-5792
▁heu	-5793
▁plotseling	-5794
97	-5795
▁smaak	-5796
▁handig	-5797
▁kou	-5798
dioxide	-5799
▁groeit	-5800
snel	-5801
rière	-5802
▁raak	-5803
▁beschad	-5804
▁correctievoor	-5805
iff	-5806
▁wassen	-5807
hang	-5808
▁vergel	-5809
ankelijke	-5810
▁36	-5811
▁Sas	-5812
▁gij	-5813
SV	-5814
MAT	-5815
yen	-5816
▁37	-5817
▁45	-5818
▁Serg	-5819
▁brak	-5820
▁klonk	-5821
standen	-5822
beer	-5823
▁tab	-5824
▁sloot	-5825
▁gericht	-5826
▁gedurende	-5827
▁sal	-5828
oorde	-5829
▁maag	-5830
▁concur	-5831
Niet	-5832
▁Fel	-5833
▁Palest	-5834
yse	-5835
▁leefde	-5836
▁fabriek	-5837
Nu	-5838
oz	-5839
▁Roo	-5840
lucht	-5841
older	-5842
gevonden	-5843
▁toernooi	-5844
▁Republikein	-5845
▁5,	-5846
ziek	-5847
▁eerlijk	-5848
▁Vlaanderen	-5849
▁samenwerking	-5850
▁°	-5851
▁Tro	-5852
haald	-5853
tallen	-5854
▁koeien	-5855
▁standaard	-5856
ple	-5857
zoeken	-5858
▁Gerard	-5859
▁Indonesië	-5860
▁geit	-5861
▁Anast	-5862
▁politici	-5863
KEN	-5864
beid	-5865
▁Mat	-5866
▁Franc	-5867
agne	-5868
▁tal	-5869
▁brom	-5870
▁steekt	-5871
▁Vor	-5872
▁woest	-5873
reactie	-5874
▁Buiten	-5875
unnel	-5876
▁luid	-5877
▁Afrik	-5878
▁metaal	-5879
▁materialen	-5880
▁element	-5881
ago	-5882
iano	-5883
onie	-5884
▁Ros	-5885
▁lad	-5886
aamde	-5887
▁oranje	-5888
Met	-5889
rouwd	-5890
▁Pieter	-5891
▁vieren	-5892
▁Charles	-5893
▁leerling	-5894
▁militair	-5895
ilj	-5896
▁VOOR	-5897
waarden	-5898
▁diverse	-5899
▁naartoe	-5900
▁verleden	-5901
▁Ac	-5902
▁HI	-5903
▁twijf	-5904
▁woonde	-5905
▁oorspronkelijke	-5906
ims	-5907
▁Lin	-5908
▁jar	-5909
udeerde	-5910
▁Meestal	-5911
▁militaire	-5912
orf	-5913
▁Alb	-5914
▁dom	-5915
iepen	-5916
▁Mark	-5917
pool	-5918
etting	-5919
▁gemeent	-5920
▁War	-5921
▁Cong	-5922
▁Kinder	-5923
▁filosof	-5924
▁hiermee	-5925
▁vrolijk	-5926
▁discussie	-5927
oxide	-5928
▁project	-5929
▁voorstelling	-5930
▁VVD	-5931
▁ikke	-5932
Brabant	-5933
▁beschik	-5934
president	-5935
▁vriendin	-5936
▁ast	-5937
▁contra	-5938
feest	-5939
▁(155	-5940
▁game	-5941
▁Hierna	-5942
▁woonden	-5943
▁Constant	-5944
VO	-5945
▁€	-5946
eind	-5947
▁gast	-5948
▁momp	-5949
▁huisje	-5950
▁kwaliteit	-5951
rel	-5952
iver	-5953
▁Anton	-5954
▁vrijdag	-5955
pot	-5956
▁hom	-5957
▁Julius	-5958
▁koninkrijk	-5959
15	-5960
pad	-5961
duizen	-5962
▁Intern	-5963
▁behorende	-5964
illy	-5965
▁Jong	-5966
▁haren	-5967
▁opgev	-5968
▁kandidaat	-5969
▁plaatsvin	-5970
vissen	-5971
▁Universiteit	-5972
▁ts	-5973
▁kus	-5974
uster	-5975
ogelijk	-5976
ashington	-5977
▁opleiding	-5978
▁Eliz	-5979
avernij	-5980
jam	-5981
ora	-5982
▁kilo	-5983
gemene	-5984
▁gebleven	-5985
84)	-5986
▁emot	-5987
olieren	-5988
▁gedacht	-5989
▁springt	-5990
▁Informatie	-5991
▁argumenten	-5992
▁centimeter	-5993
lin	-5994
ivid	-5995
orea	-5996
▁ZIJN	-5997
soorten	-5998
▁Vlaamse	-5999
▁Wilhelm	-6000
cast	-6001
▁loon	-6002
▁famil	-6003
fst	-6004
fect	-6005
▁draad	-6006
▁graaf	-6007
▁huwelijk	-6008
▁Honor	-6009
▁Jezus	-6010
▁slang	-6011
▁stopte	-6012
▁uitvoeren	-6013
▁behoorlijk	-6014
▁eng	-6015
▁goo	-6016
erson	-6017
wicht	-6018
▁Saint	-6019
▁wetten	-6020
▁buitenlandse	-6021
ita	-6022
▁neut	-6023
▁zilver	-6024
vragen	-6025
▁islam	-6026
hond	-6027
heids	-6028
▁Beide	-6029
▁spiegel	-6030
▁werknemers	-6031
▁vliegtuigen	-6032
19	-6033
po	-6034
Ver	-6035
▁Mir	-6036
▁Fransen	-6037
▁musical	-6038
oeke	-6039
▁IJs	-6040
▁oeh	-6041
▁voorzitter	-6042
AG	-6043
▁lukte	-6044
▁bewust	-6045
▁koekje	-6046
▁public	-6047
akantie	-6048
▁bestaande	-6049
opl	-6050
▁meiden	-6051
fragment	-6052
▁literatuur	-6053
yg	-6054
week	-6055
▁lat	-6056
▁klopt	-6057
▁vloer	-6058
III	-6059
ommel	-6060
▁eeuwen	-6061
▁troepen	-6062
▁Kareltje	-6063
▁volwassenen	-6064
▁syn	-6065
aarden	-6066
▁symbool	-6067
▁cade	-6068
kering	-6069
▁vormt	-6070
▁samenv	-6071
▁werking	-6072
▁schouder	-6073
uy	-6074
▁SP	-6075
▁snap	-6076
▁veert	-6077
▁merken	-6078
▁verslag	-6079
▁Washington	-6080
▁bovenstaande	-6081
ove	-6082
▁pa	-6083
▁rem	-6084
straf	-6085
▁woning	-6086
▁ontstonden	-6087
▁kamp	-6088
▁karakter	-6089
▁minstens	-6090
annië	-6091
stijd	-6092
▁waard	-6093
▁Schotland	-6094
▁ontzetten	-6095
▁Bul	-6096
genoot	-6097
par	-6098
ieuze	-6099
▁arme	-6100
▁Super	-6101
bra	-6102
▁Hal	-6103
▁ing	-6104
ategor	-6105
leider	-6106
▁risico	-6107
▁trouwen	-6108
▁vluchten	-6109
▁tegenstelling	-6110
25	-6111
do	-6112
aait	-6113
onds	-6114
▁mengsel	-6115
Wie	-6116
iool	-6117
▁(70	-6118
▁huur	-6119
wan	-6120
▁dou	-6121
▁bergen	-6122
ague	-6123
onne	-6124
▁(53	-6125
▁gesprek	-6126
▁ontworpen	-6127
▁Ap	-6128
▁Elk	-6129
▁Vide	-6130
▁gede	-6131
▁appels	-6132
▁chocol	-6133
▁arbeiders	-6134
▁opvatting	-6135
▁Rut	-6136
iguren	-6137
▁sol	-6138
elende	-6139
▁plaatjes	-6140
era	-6141
▁mamma	-6142
▁Honorius	-6143
▁Voorbeelden	-6144
▁4,	-6145
zier	-6146
▁hert	-6147
▁Potter	-6148
hankelijke	-6149
▁ER	-6150
systeem	-6151
▁Argent	-6152
▁Denk	-6153
▁misl	-6154
▁zang	-6155
▁winnaar	-6156
MATE	-6157
▁krok	-6158
▁vlinder	-6159
reedt	-6160
▁dolf	-6161
stalige	-6162
▁metalen	-6163
▁Eugenius	-6164
▁Anastasius	-6165
ulf	-6166
▁qu	-6167
inning	-6168
onderd	-6169
▁steken	-6170
▁mogelijkheden	-6171
▁Sergius	-6172
▁gestolen	-6173
ias	-6174
▁Film	-6175
▁Kenn	-6176
▁buis	-6177
▁begrijpen	-6178
▁uitgebracht	-6179
83)	-6180
▁LE	-6181
▁Louis	-6182
▁heleboel	-6183
▁antwoordde	-6184
PLAY	-6185
▁But	-6186
imaat	-6187
uldig	-6188
stenen	-6189
PLAYMATE	-6190
▁stikstof	-6191
▁omstandigheden	-6192
ikkers	-6193
▁getal	-6194
▁bevinden	-6195
▁zangeres	-6196
11	-6197
kop	-6198
▁grie	-6199
▁piep	-6200
▁tentoon	-6201
▁ziel	-6202
▁profess	-6203
▁studie	-6204
▁grootte	-6205
▁uitgang	-6206
▁Zsa	-6207
▁afsch	-6208
ochtend	-6209
▁HIJ	-6210
▁show	-6211
▁bedenken	-6212
▁Pat	-6213
▁pij	-6214
▁rom	-6215
keurig	-6216
gebroken	-6217
▁waarden	-6218
Duitsland	-6219
draa	-6220
oriet	-6221
▁Best	-6222
▁(16	-6223
▁patiënt	-6224
▁spannend	-6225
▁overzicht	-6226
eeuwse	-6227
▁leeuw	-6228
rend	-6229
▁Zwarte	-6230
▁treinen	-6231
▁zwembad	-6232
asie	-6233
▁Station	-6234
▁vloeistof	-6235
plein	-6236
▁Puck	-6237
▁misd	-6238
▁viss	-6239
▁Michael	-6240
▁kolonie	-6241
▁overige	-6242
irk	-6243
▁Il	-6244
raft	-6245
▁mmm	-6246
▁reed	-6247
▁filmpjes	-6248
▁Akk	-6249
▁Drent	-6250
▁1970	-6251
▁okee	-6252
archie	-6253
jeb	-6254
▁NA	-6255
▁bede	-6256
▁volks	-6257
▁politicus	-6258
▁drug	-6259
▁poten	-6260
▁hertog	-6261
▁Roemen	-6262
▁Elizabeth	-6263
organisatie	-6264
▁vergelijken	-6265
▁mogelijkheid	-6266
alm	-6267
oegosl	-6268
▁prima	-6269
igranten	-6270
olk	-6271
▁Tex	-6272
▁Fred	-6273
▁mode	-6274
schillen	-6275
hyd	-6276
▁middeleeuwen	-6277
Van	-6278
▁Saar	-6279
▁stads	-6280
▁noemde	-6281
▁streng	-6282
▁400	-6283
▁Top	-6284
▁det	-6285
▁hok	-6286
▁psych	-6287
▁kunstenaars	-6288
genda	-6289
rijke	-6290
▁priv	-6291
▁vergro	-6292
▁wolken	-6293
antal	-6294
▁aflever	-6295
▁fre	-6296
itiek	-6297
▁Hand	-6298
▁vijand	-6299
▁maandag	-6300
▁slavernij	-6301
77	-6302
▁Galerij	-6303
▁dergelijke	-6304
▁Oud	-6305
ciale	-6306
▁tevreden	-6307
▁provincies	-6308
▁schilderijen	-6309
▁nek	-6310
aille	-6311
▁1995	-6312
▁Sport	-6313
▁vermeld	-6314
▁verhouding	-6315
ild	-6316
▁1:	-6317
bers	-6318
▁werkelijkheid	-6319
Hier	-6320
▁Nat	-6321
▁poot	-6322
roffen	-6323
▁muzik	-6324
▁rente	-6325
▁donder	-6326
▁harder	-6327
35	-6328
Om	-6329
minste	-6330
roeven	-6331
▁hoeven	-6332
▁gemeten	-6333
▁gezellig	-6334
▁knap	-6335
boekje	-6336
▁Enkele	-6337
▁rollen	-6338
▁gewerkt	-6339
ani	-6340
inië	-6341
▁Rem	-6342
▁avont	-6343
▁donkere	-6344
▁geraakt	-6345
44	-6346
bas	-6347
risten	-6348
actoren	-6349
▁Joegosl	-6350
▁voormalige	-6351
▁Suz	-6352
uister	-6353
erst	-6354
▁cap	-6355
uiven	-6356
▁uren	-6357
gelegen	-6358
▁Revolutie	-6359
▁wisk	-6360
sdienst	-6361
assa	-6362
▁ges	-6363
▁vorig	-6364
gressie	-6365
▁vrucht	-6366
▁werkloos	-6367
▁)	-6368
oma	-6369
▁name	-6370
▁passag	-6371
▁opdrachten	-6372
▁Tegen	-6373
▁interview	-6374
▁weerstand	-6375
▁combinatie	-6376
din	-6377
oodse	-6378
▁Vier	-6379
ïs	-6380
ucose	-6381
▁gift	-6382
▁gitaar	-6383
▁voorwerpen	-6384
▁veranderingen	-6385
-201	-6386
▁caf	-6387
▁pil	-6388
▁Hoog	-6389
▁kroon	-6390
▁slaapt	-6391
sd	-6392
▁2:	-6393
▁lepel	-6394
▁Oceaan	-6395
▁Bru	-6396
▁geë	-6397
▁interess	-6398
▁honderden	-6399
▁vrachtwagen	-6400
▁maal	-6401
netjes	-6402
▁aandeel	-6403
▁reageert	-6404
▁techniek	-6405
61)	-6406
orte	-6407
jaarden	-6408
▁individ	-6409
▁nergens	-6410
▁aandelen	-6411
▁landschap	-6412
▁zakken	-6413
Sl	-6414
27)	-6415
iders	-6416
▁Zelfs	-6417
▁kippen	-6418
▁vulkaan	-6419
▁fluisterde	-6420
▁heten	-6421
▁Vietnam	-6422
onn	-6423
▁prop	-6424
eteren	-6425
oensdag	-6426
▁Daarbij	-6427
▁dachten	-6428
OC	-6429
bli	-6430
▁las	-6431
▁Prinses	-6432
nl	-6433
▁gh	-6434
nemer	-6435
▁ident	-6436
▁wagen	-6437
formule	-6438
erse	-6439
vaten	-6440
▁boog	-6441
▁Richard	-6442
▁afgeleid	-6443
▁eigenaar	-6444
▁ontzettend	-6445
▁uitgebreid	-6446
▁uil	-6447
ilanden	-6448
▁gelukt	-6449
▁neerslag	-6450
%.	-6451
▁Hil	-6452
westen	-6453
▁arbeid	-6454
duct	-6455
▁Gaz	-6456
opper	-6457
▁zeld	-6458
▁leveren	-6459
▁App	-6460
▁bruin	-6461
Kijk	-6462
▁11.	-6463
iforn	-6464
aringen	-6465
beh	-6466
▁Pan	-6467
maakt	-6468
▁beant	-6469
▁koper	-6470
iliteit	-6471
bes	-6472
iev	-6473
▁1992	-6474
ronken	-6475
▁Groep	-6476
▁gecon	-6477
▁grappig	-6478
Brittannië	-6479
onië	-6480
▁wapens	-6481
29	-6482
uinen	-6483
▁League	-6484
aardigheden	-6485
-200	-6486
zend	-6487
▁munt	-6488
▁Anders	-6489
▁advies	-6490
▁contin	-6491
▁stijgt	-6492
stam	-6493
stoel	-6494
▁1994	-6495
▁verzorg	-6496
▁achtergrond	-6497
reef	-6498
rict	-6499
▁DIE	-6500
passen	-6501
7-	-6502
eeks	-6503
▁Heer	-6504
▁sociaal	-6505
▁opgepakt	-6506
▁speelgoed	-6507
▁bevolkings	-6508
▁gebeurtenis	-6509
bol	-6510
▁taken	-6511
ouverne	-6512
▁zichtbaar	-6513
▁eigenschappen	-6514
8.	-6515
35)	-6516
ror	-6517
▁Via	-6518
▁mor	-6519
▁fans	-6520
▁sluit	-6521
oelichting	-6522
▁Gelderland	-6523
uip	-6524
▁34	-6525
paal	-6526
▁Gra	-6527
atoren	-6528
▁broers	-6529
▁stapte	-6530
orre	-6531
▁gestuurd	-6532
▁hemel	-6533
▁Meester	-6534
▁slachtoffers	-6535
ps	-6536
itein	-6537
▁Heil	-6538
▁tover	-6539
▁groten	-6540
▁gesteld	-6541
jeblieft	-6542
▁bericht	-6543
▁kenmerk	-6544
▁stroming	-6545
yc	-6546
55)	-6547
▁Tit	-6548
achel	-6549
ume	-6550
▁Kun	-6551
▁bie	-6552
▁cit	-6553
▁zachtjes	-6554
▁Nij	-6555
▁gef	-6556
kap	-6557
will	-6558
▁fra	-6559
▁route	-6560
ower	-6561
arium	-6562
▁kwal	-6563
▁Inter	-6564
▁schaap	-6565
▁Roemenië	-6566
iesten	-6567
▁armoede	-6568
▁planeet	-6569
▁functies	-6570
1.	-6571
iere	-6572
▁Est	-6573
▁tap	-6574
▁PvdA	-6575
▁hopen	-6576
▁Robbie	-6577
▁platen	-6578
▁NS	-6579
▁Isa	-6580
stijl	-6581
▁Jacks	-6582
▁vervolg	-6583
aval	-6584
▁kre	-6585
gestelde	-6586
▁prachtige	-6587
▁Maas	-6588
reerd	-6589
▁Just	-6590
▁World	-6591
▁namens	-6592
▁Frederik	-6593
▁financiële	-6594
▁Ath	-6595
▁inh	-6596
vraag	-6597
▁Bijna	-6598
▁netjes	-6599
▁niveau	-6600
▁verwoest	-6601
▁koolstofdioxide	-6602
▁kok	-6603
▁geur	-6604
▁Holly	-6605
▁gered	-6606
blijven	-6607
▁export	-6608
▁historische	-6609
bar	-6610
▁bon	-6611
blijf	-6612
▁onge	-6613
stukken	-6614
▁jammer	-6615
▁Comp	-6616
▁Eigenlijk	-6617
▁produceren	-6618
rekt	-6619
ters	-6620
eraad	-6621
▁Fort	-6622
▁schuur	-6623
▁vreemde	-6624
92)	-6625
stij	-6626
▁melod	-6627
▁beschouwd	-6628
▁nationaal	-6629
▁Cit	-6630
▁mate	-6631
hout	-6632
▁fase	-6633
ouwing	-6634
nog	-6635
ijdt	-6636
▁Zou	-6637
▁aanged	-6638
▁hierboven	-6639
ano	-6640
ctief	-6641
▁oefenen	-6642
▁toenemen	-6643
▁voorstel	-6644
entje	-6645
▁Beat	-6646
stroom	-6647
▁tellen	-6648
▁methode	-6649
▁voorwerp	-6650
▁klassieke	-6651
OET	-6652
VEN	-6653
▁75	-6654
orth	-6655
▁trans	-6656
▁Hongarije	-6657
▁Parlement	-6658
vorming	-6659
▁betere	-6660
▁katten	-6661
▁Bi	-6662
eefd	-6663
eeën	-6664
ique	-6665
stan	-6666
eiland	-6667
▁Gouden	-6668
abs	-6669
▁Flor	-6670
▁knip	-6671
▁schu	-6672
▁dollar	-6673
elings	-6674
reiding	-6675
▁Bovendien	-6676
▁overstrom	-6677
9.	-6678
▁Los	-6679
aylor	-6680
▁opvallen	-6681
▁afgebeeld	-6682
▁georganis	-6683
kking	-6684
schak	-6685
▁voorlop	-6686
74)	-6687
▁pH	-6688
vlees	-6689
wijze	-6690
▁sier	-6691
▁ernstig	-6692
▁zogenaamde	-6693
vo	-6694
beleid	-6695
▁absol	-6696
57)	-6697
▁aft	-6698
thous	-6699
▁myth	-6700
▁opvolger	-6701
zine	-6702
▁Ele	-6703
▁sen	-6704
▁belast	-6705
▁supermarkt	-6706
▁zaak	-6707
winkel	-6708
hedraal	-6709
▁stevig	-6710
▁blokken	-6711
▁gekeken	-6712
rec	-6713
zijd	-6714
▁Zeeland	-6715
▁uitgest	-6716
▁christen	-6717
▁twintigste	-6718
▁antwoordblad	-6719
94	-6720
▁anim	-6721
▁tong	-6722
▁tonen	-6723
▁aandoen	-6724
rium	-6725
▁bril	-6726
▁jacht	-6727
▁kring	-6728
▁spaar	-6729
bericht	-6730
▁rekenen	-6731
▁verniet	-6732
asc	-6733
iaans	-6734
▁vres	-6735
ooster	-6736
▁Surin	-6737
▁rondom	-6738
▁seconde	-6739
▁begraven	-6740
▁jaarlijks	-6741
▁verhaaltje	-6742
▁popp	-6743
▁zaad	-6744
▁centrale	-6745
▁boodschap	-6746
oeding	-6747
▁Felix	-6748
▁personages	-6749
▁Raad	-6750
▁Schip	-6751
▁opmer	-6752
▁toepass	-6753
,6	-6754
OL	-6755
▁lot	-6756
▁tijger	-6757
▁leefden	-6758
▁oorzaken	-6759
rich	-6760
▁von	-6761
▁(100	-6762
staten	-6763
▁bruine	-6764
▁puzzel	-6765
lid	-6766
kerk	-6767
▁Georg	-6768
▁Museum	-6769
US	-6770
cium	-6771
▁aanzien	-6772
▁Centraal	-6773
vert	-6774
▁bloe	-6775
neming	-6776
▁blijf	-6777
▁molen	-6778
▁Hierin	-6779
▁aparte	-6780
▁tekeningen	-6781
▁zing	-6782
iekem	-6783
▁reus	-6784
xt	-6785
▁1945	-6786
ommigen	-6787
▁generaal	-6788
▁betekende	-6789
▁lieve	-6790
▁totdat	-6791
▁makkelijker	-6792
)"	-6793
,7	-6794
TE	-6795
52)	-6796
▁ob	-6797
▁Les	-6798
▁inf	-6799
▁mark	-6800
chines	-6801
▁Alles	-6802
▁opening	-6803
▁medicijnen	-6804
honden	-6805
oscoop	-6806
▁Wemel	-6807
▁schema	-6808
▁revolutie	-6809
ouse	-6810
▁metro	-6811
▁Lucius	-6812
ypen	-6813
▁Tra	-6814
▁spier	-6815
▁batter	-6816
The	-6817
zers	-6818
▁vos	-6819
RR	-6820
molen	-6821
rukken	-6822
▁autos	-6823
▁begele	-6824
win	-6825
▁Pool	-6826
▁Mario	-6827
▁lessen	-6828
▁toename	-6829
elp	-6830
rep	-6831
▁koude	-6832
fteling	-6833
▁glazen	-6834
▁kanten	-6835
▁duizend	-6836
▁meegenomen	-6837
volgd	-6838
isatie	-6839
▁sprak	-6840
▁verzet	-6841
GRANDFATHER	-6842
▁All	-6843
▁Des	-6844
▁terugk	-6845
▁vuurwerk	-6846
▁tegenstanders	-6847
▁1)	-6848
▁12.	-6849
▁ehm	-6850
▁vloog	-6851
▁muizen	-6852
22)	-6853
9-1	-6854
ball	-6855
▁duik	-6856
▁durf	-6857
▁krokod	-6858
▁lagere	-6859
▁getrouwd	-6860
,3	-6861
gren	-6862
odel	-6863
▁for	-6864
aagse	-6865
spelen	-6866
▁enthous	-6867
▁tegenstander	-6868
▁besliss	-6869
▁Californ	-6870
Vl	-6871
bord	-6872
▁Tha	-6873
▁Mot	-6874
▁Hein	-6875
▁plezier	-6876
ieve	-6877
▁tom	-6878
slaan	-6879
▁pens	-6880
▁afsche	-6881
▁tevens	-6882
▁maximale	-6883
▁republiek	-6884
Cl	-6885
17)	-6886
▁mosl	-6887
▁betrekking	-6888
laat	-6889
niet	-6890
▁Radio	-6891
▁goden	-6892
▁jarig	-6893
icaanse	-6894
andering	-6895
▁Sk	-6896
glas	-6897
appel	-6898
▁stoom	-6899
▁gister	-6900
▁Nationale	-6901
▁schrijvers	-6902
▁maatschappij	-6903
▁heft	-6904
▁Nikki	-6905
▁genoemde	-6906
▁dagelijks	-6907
▁veroorzaken	-6908
Toen	-6909
ooft	-6910
reis	-6911
▁dep	-6912
ski	-6913
danks	-6914
▁zoog	-6915
▁Keizer	-6916
▁kussen	-6917
▁origin	-6918
▁glucose	-6919
▁ontwikkelen	-6920
Misschien	-6921
▁schieten	-6922
Ga	-6923
zeg	-6924
amide	-6925
houdt	-6926
▁resp	-6927
▁erover	-6928
▁potje	-6929
▁zulke	-6930
▁Jacobus	-6931
▁prachtig	-6932
▁voorstellen	-6933
VER	-6934
cir	-6935
▁rock	-6936
▁gevest	-6937
verdeling	-6938
raam	-6939
taal	-6940
etitie	-6941
stappen	-6942
▁Servië	-6943
▁scherm	-6944
▁Friesland	-6945
▁Natuurlijk	-6946
cul	-6947
ema	-6948
▁Zod	-6949
▁schrift	-6950
▁winters	-6951
▁ontwerpen	-6952
▁gemeenteraad	-6953
▁crisis	-6954
▁Afrikaanse	-6955
ankt	-6956
rust	-6957
houder	-6958
▁dichtbij	-6959
▁Leven	-6960
▁decim	-6961
▁klimmen	-6962
▁positieve	-6963
deur	-6964
moeder	-6965
wijzen	-6966
▁verle	-6967
▁betreft	-6968
▁grotendeels	-6969
ili	-6970
▁Marokko	-6971
▁oorsprong	-6972
▁Sab	-6973
lingen	-6974
ruisen	-6975
▁termijn	-6976
▁verdwijnen	-6977
▁wereldkampioen	-6978
▁Co	-6979
▁boe	-6980
▁gene	-6981
avoriet	-6982
ppen	-6983
inium	-6984
▁bewee	-6985
▁onderscheid	-6986
▁beantwoorden	-6987
▁1900	-6988
▁race	-6989
▁stel	-6990
wedstrijden	-6991
halte	-6992
uiken	-6993
quentie	-6994
▁explos	-6995
▁varkens	-6996
86	-6997
ké	-6998
▁Waal	-6999
▁diam	-7000
zingen	-7001
▁Hiermee	-7002
olpen	-7003
▁Mosk	-7004
▁long	-7005
wegingen	-7006
▁Jackson	-7007
▁verschrikk	-7008
yste	-7009
▁Cub	-7010
▁Loek	-7011
volking	-7012
ificatie	-7013
▁XX	-7014
adel	-7015
▁hum	-7016
▁religie	-7017
indt	-7018
▁Taylor	-7019
▁banden	-7020
▁voorbere	-7021
▁achteruit	-7022
▁Bol	-7023
▁1950	-7024
▁Bond	-7025
▁Jeff	-7026
▁Vers	-7027
matige	-7028
▁Hoofd	-7029
▁kunstwerk	-7030
Jul	-7031
▁Han	-7032
▁Lind	-7033
▁Leiden	-7034
▁vrouwtje	-7035
FC	-7036
▁fan	-7037
Korea	-7038
▁grot	-7039
▁eenmaal	-7040
▁verliezen	-7041
ör	-7042
▁Rh	-7043
agel	-7044
handel	-7045
riften	-7046
sluiting	-7047
▁Av	-7048
mannen	-7049
▁Martinus	-7050
rus	-7051
maak	-7052
issel	-7053
▁Bour	-7054
▁Inst	-7055
gegaan	-7056
▁eventu	-7057
▁vroege	-7058
▁monster	-7059
tuig	-7060
otten	-7061
▁Niemand	-7062
▁(30	-7063
▁Deel	-7064
ao	-7065
▁knop	-7066
awa	-7067
▁Norm	-7068
▁Ondanks	-7069
▁traditionele	-7070
AAN	-7071
dagen	-7072
▁digitale	-7073
▁verbeteren	-7074
▁CDA	-7075
ector	-7076
▁trop	-7077
▁gooit	-7078
▁lening	-7079
▁dinosaur	-7080
▁evenwicht	-7081
OS	-7082
▁Kw	-7083
dert	-7084
ites	-7085
▁Sen	-7086
▁imp	-7087
allie	-7088
lezen	-7089
▁weig	-7090
rongen	-7091
▁Kleine	-7092
▁brandstof	-7093
arie	-7094
oute	-7095
verten	-7096
erspelen	-7097
ün	-7098
▁nazi	-7099
▁Marie	-7100
▁Drenthe	-7101
▁Form	-7102
icatie	-7103
▁rijst	-7104
▁vuilnis	-7105
▁overleven	-7106
iti	-7107
vent	-7108
▁dwars	-7109
▁terrein	-7110
▁minimaal	-7111
RE	-7112
ruc	-7113
▁ass	-7114
▁rat	-7115
ublie	-7116
dragen	-7117
▁strak	-7118
belasting	-7119
▁hof	-7120
▁Efteling	-7121
▁waarvoor	-7122
▁passagiers	-7123
34	-7124
tom	-7125
ollege	-7126
▁control	-7127
▁artiesten	-7128
▁zwak	-7129
▁getrokken	-7130
▁Fa	-7131
▁Lu	-7132
lood	-7133
▁plas	-7134
▁single	-7135
▁vleugels	-7136
▁Els	-7137
▁keel	-7138
kanaal	-7139
▁verzeker	-7140
▁aanvallen	-7141
ctieve	-7142
leveren	-7143
▁opende	-7144
▁gevolgd	-7145
▁vernieuw	-7146
ua	-7147
hangen	-7148
▁muren	-7149
Zeeland	-7150
▁Atlant	-7151
▁gelegd	-7152
▁eenheid	-7153
▁gescheiden	-7154
vlies	-7155
▁Award	-7156
▁Klein	-7157
▁leraar	-7158
▁vertrouwen	-7159
CO	-7160
go	-7161
rig	-7162
zinn	-7163
▁For	-7164
▁Adam	-7165
▁pijl	-7166
▁roze	-7167
▁verslagen	-7168
auze	-7169
leet	-7170
serie	-7171
▁1989	-7172
▁Chris	-7173
▁Leeuw	-7174
ouverneur	-7175
▁Joegoslavië	-7176
sverkiezingen	-7177
▁Lee	-7178
▁ser	-7179
▁Gijs	-7180
▁noot	-7181
ruimen	-7182
▁Tomas	-7183
▁gaven	-7184
▁steek	-7185
1-	-7186
Wij	-7187
▁Mol	-7188
merkt	-7189
▁dunne	-7190
▁gedicht	-7191
industrie	-7192
▁bedraagt	-7193
ye	-7194
▁Lil	-7195
▁Stap	-7196
vloeden	-7197
▁zwanger	-7198
▁Democratische	-7199
urf	-7200
▁38	-7201
eegd	-7202
▁Tok	-7203
▁kist	-7204
▁ramp	-7205
▁Econom	-7206
▁vijftig	-7207
▁Waarschijnlijk	-7208
41)	-7209
ales	-7210
▁Weten	-7211
blok	-7212
ookt	-7213
▁lijf	-7214
▁erger	-7215
▁vanmiddag	-7216
6.	-7217
ei	-7218
geeft	-7219
vogel	-7220
▁cijfer	-7221
▁lijnen	-7222
▁georganiseerd	-7223
ado	-7224
ruimte	-7225
▁atoom	-7226
▁gehoor	-7227
▁kamers	-7228
▁boterham	-7229
▁verstopt	-7230
▁woensdag	-7231
):	-7232
yt	-7233
▁Turkse	-7234
▁tenminste	-7235
▁AB	-7236
Weet	-7237
▁wiss	-7238
▁leert	-7239
▁vorming	-7240
iol	-7241
▁bier	-7242
▁hoopt	-7243
▁Martin	-7244
argument	-7245
▁vanzelf	-7246
▁studeerde	-7247
upp	-7248
zels	-7249
endom	-7250
▁krab	-7251
▁mannetjes	-7252
atië	-7253
▁Rec	-7254
▁kathol	-7255
▁vakant	-7256
▁Koningin	-7257
▁menselijke	-7258
ID	-7259
▁cou	-7260
▁boet	-7261
▁kanaal	-7262
▁geweldig	-7263
ary	-7264
kes	-7265
ros	-7266
uber	-7267
amers	-7268
amine	-7269
▁Abel	-7270
▁Stud	-7271
▁elftal	-7272
▁poppen	-7273
▁benzine	-7274
▁gevierd	-7275
uken	-7276
▁Aut	-7277
▁Staat	-7278
▁wonder	-7279
28	-7280
▁Quint	-7281
▁koken	-7282
streeks	-7283
▁figuren	-7284
▁mooiste	-7285
▁verzamelen	-7286
,1	-7287
▁aar	-7288
ogram	-7289
▁Ruben	-7290
▁schudde	-7291
▁stiekem	-7292
72)	-7293
itz	-7294
▁omroep	-7295
▁openbaar	-7296
▁behandeling	-7297
▁vergelijkbaar	-7298
▁roof	-7299
unk	-7300
▁schep	-7301
▁modder	-7302
▁verschenen	-7303
▁Gaza	-7304
▁glad	-7305
▁drank	-7306
▁Zonder	-7307
▁inspir	-7308
▁Daarmee	-7309
producten	-7310
▁conflict	-7311
▁organisaties	-7312
ios	-7313
▁Med	-7314
▁gym	-7315
agers	-7316
▁King	-7317
▁apen	-7318
▁zeep	-7319
▁bewaard	-7320
opter	-7321
itische	-7322
▁groepje	-7323
▁kantoor	-7324
zië	-7325
▁das	-7326
▁gec	-7327
▁1991	-7328
▁dict	-7329
▁ruil	-7330
▁IJssel	-7331
▁monarchie	-7332
▁wereldwijd	-7333
IEN	-7334
heim	-7335
▁Verd	-7336
jecten	-7337
▁wc	-7338
aagt	-7339
▁Bosn	-7340
▁princip	-7341
▁elektron	-7342
pan	-7343
accin	-7344
▁oost	-7345
▁stijgen	-7346
▁succesvol	-7347
pap	-7348
alin	-7349
▁keur	-7350
▁concert	-7351
▁sterker	-7352
▁aangelegd	-7353
Ind	-7354
▁(60	-7355
▁Nout	-7356
▁Rode	-7357
▁Marcell	-7358
Ar	-7359
FT	-7360
▁42	-7361
gier	-7362
iast	-7363
eleken	-7364
▁apart	-7365
▁honing	-7366
▁tranen	-7367
▁uitger	-7368
▁Eindhoven	-7369
▁chemische	-7370
,4	-7371
ulen	-7372
▁komst	-7373
▁reeks	-7374
brengst	-7375
▁Butler	-7376
▁bezocht	-7377
aud	-7378
▁rad	-7379
▁koos	-7380
ikelen	-7381
▁eisen	-7382
▁nachts	-7383
▁spieren	-7384
▁straten	-7385
bur	-7386
▁boord	-7387
▁lieten	-7388
,8	-7389
Ben	-7390
▁seks	-7391
▁ware	-7392
▁Burger	-7393
▁tijdelijk	-7394
▁beschikbaar	-7395
▁fel	-7396
insdag	-7397
schaft	-7398
▁spreek	-7399
▁verdiep	-7400
▁geschrokken	-7401
9-10	-7402
▁Mars	-7403
ailles	-7404
▁duren	-7405
▁Meneer	-7406
▁gevestigd	-7407
▁Constantijn	-7408
14)	-7409
perk	-7410
▁amm	-7411
slied	-7412
▁doek	-7413
▁houd	-7414
▁tram	-7415
▁concurrent	-7416
doet	-7417
klas	-7418
▁akk	-7419
▁hop	-7420
▁Berg	-7421
▁Soph	-7422
▁ionen	-7423
▁waaraan	-7424
▁function	-7425
▁vergeleken	-7426
hm	-7427
▁kapit	-7428
▁bossen	-7429
▁Bronnen	-7430
▁verbinding	-7431
▁ir	-7432
verl	-7433
▁onm	-7434
▁Joep	-7435
▁Kort	-7436
▁Leon	-7437
▁meten	-7438
▁bewijs	-7439
▁Kroatië	-7440
▁relatief	-7441
dering	-7442
▁verwarm	-7443
▁activiteiten	-7444
Jan	-7445
stro	-7446
▁(15	-7447
▁Slag	-7448
▁vlug	-7449
▁Merel	-7450
▁intro	-7451
▁westerse	-7452
16)	-7453
ksel	-7454
▁banaan	-7455
▁zender	-7456
▁favoriet	-7457
ér	-7458
tene	-7459
▁120	-7460
▁250	-7461
▁café	-7462
steken	-7463
▁tientallen	-7464
ya	-7465
▁acc	-7466
▁kro	-7467
▁latere	-7468
IC	-7469
JE	-7470
▁Spe	-7471
▁opzij	-7472
▁lichaams	-7473
▁Silvester	-7474
▁Com	-7475
▁lippen	-7476
00)	-7477
▁AAN	-7478
films	-7479
▁lokale	-7480
attingen	-7481
▁Stadion	-7482
▁calcium	-7483
▁adverten	-7484
▁geholpen	-7485
▁gesticht	-7486
33	-7487
bomen	-7488
▁prent	-7489
korting	-7490
onderzoek	-7491
▁personeel	-7492
▁stapt	-7493
▁opgevolgd	-7494
ns	-7495
▁Cast	-7496
▁Jose	-7497
gaande	-7498
anische	-7499
▁machine	-7500
Bl	-7501
sef	-7502
weef	-7503
▁robot	-7504
▁ontbij	-7505
▁aangepast	-7506
Amerikaanse	-7507
▁persoonlijke	-7508
ét	-7509
-89	-7510
ueel	-7511
▁Lib	-7512
▁Lot	-7513
▁Teddie	-7514
▁bieden	-7515
▁Heilige	-7516
▁spoorweg	-7517
▁verwijst	-7518
urend	-7519
arl	-7520
▁(67	-7521
▁MET	-7522
akije	-7523
ikkel	-7524
inten	-7525
▁defin	-7526
▁zover	-7527
▁ingang	-7528
▁struik	-7529
▁positief	-7530
▁negatieve	-7531
UW	-7532
▁Vin	-7533
▁kol	-7534
neemt	-7535
▁Check	-7536
▁Moskou	-7537
▁botten	-7538
▁snelle	-7539
▁Argentinië	-7540
▁{	-7541
ula	-7542
-114	-7543
kool	-7544
▁Jas	-7545
▁Pel	-7546
▁heren	-7547
▁virus	-7548
owakije	-7549
tw	-7550
▁Sara	-7551
proces	-7552
▁Akkie	-7553
▁piano	-7554
▁toets	-7555
drukking	-7556
▁categor	-7557
boog	-7558
prin	-7559
▁hob	-7560
affen	-7561
ochem	-7562
ruikt	-7563
lijnen	-7564
eilanden	-7565
uay	-7566
▁Li	-7567
▁sig	-7568
Europese	-7569
▁Behalve	-7570
▁verwerkt	-7571
▁constante	-7572
▁beweringen	-7573
▁Du	-7574
▁ZO	-7575
▁opw	-7576
▁Ster	-7577
Jullie	-7578
oosten	-7579
▁Joris	-7580
▁tunnel	-7581
schappelijk	-7582
▁werkloosheid	-7583
555)	-7584
590)	-7585
llen	-7586
▁Carl	-7587
▁Noah	-7588
▁rege	-7589
-1276)	-7590
▁(1045	-7591
▁(1276	-7592
▁heden	-7593
▁lachte	-7594
▁kaartje	-7595
▁bezoeken	-7596
▁daarnaast	-7597
▁inkomsten	-7598
ptie	-7599
rick	-7600
ziekte	-7601
▁vorst	-7602
▁Pruisen	-7603
▁geheime	-7604
aastricht	-7605
auff	-7606
omot	-7607
▁Witte	-7608
▁zijde	-7609
▁Eerder	-7610
▁Ineens	-7611
▁verwijderd	-7612
geet	-7613
▁wél	-7614
▁platte	-7615
▁gedachten	-7616
BO	-7617
ène	-7618
anna	-7619
itter	-7620
▁bibli	-7621
▁ontpl	-7622
▁getallen	-7623
▁onderwerpen	-7624
ions	-7625
pels	-7626
▁hals	-7627
▁garage	-7628
▁oorlogen	-7629
▁afgesloten	-7630
▁(160	-7631
▁noten	-7632
▁astron	-7633
vast	-7634
▁vit	-7635
▁fluit	-7636
▁staal	-7637
rekening	-7638
OK	-7639
oze	-7640
▁Ob	-7641
▁joh	-7642
▁adel	-7643
ateriaal	-7644
GE	-7645
▁bom	-7646
lecht	-7647
risch	-7648
teurs	-7649
▁Mont	-7650
ionele	-7651
▁droeg	-7652
▁straal	-7653
▁Montene	-7654
▁1940	-7655
▁Suzan	-7656
▁standpunt	-7657
▁alsjeblieft	-7658
▁65	-7659
velt	-7660
wand	-7661
▁Kart	-7662
▁enzo	-7663
▁biedt	-7664
,9	-7665
74	-7666
ils	-7667
otel	-7668
▁Jean	-7669
▁greep	-7670
▁bevrijd	-7671
▁organismen	-7672
▁tar	-7673
▁vie	-7674
ffect	-7675
▁Bern	-7676
▁wijs	-7677
auffeur	-7678
▁volkeren	-7679
▁economisch	-7680
▁Cap	-7681
▁Walt	-7682
▁Thies	-7683
▁oefen	-7684
▁spijt	-7685
▁tweel	-7686
▁doorgaan	-7687
▁afspraken	-7688
▁Spanjaarden	-7689
orus	-7690
▁dalen	-7691
▁Wouter	-7692
▁immers	-7693
foto	-7694
▁Bil	-7695
▁klei	-7696
▁moed	-7697
▁Vanuit	-7698
▁vrouwelijke	-7699
Chr	-7700
uan	-7701
▁west	-7702
▁jawel	-7703
▁sporten	-7704
zone	-7705
▁pet	-7706
▁sat	-7707
aving	-7708
▁hing	-7709
▁kalk	-7710
ertjes	-7711
vogels	-7712
▁Lucas	-7713
▁deuren	-7714
ouders	-7715
▁drugs	-7716
▁gedachte	-7717
sec	-7718
vels	-7719
▁Vir	-7720
ijker	-7721
uider	-7722
▁1968	-7723
▁presentatie	-7724
37	-7725
Vol	-7726
▁RT	-7727
▁Jord	-7728
▁Klik	-7729
▁Nona	-7730
▁poep	-7731
ijntje	-7732
yenoord	-7733
▁gedood	-7734
▁podium	-7735
.000.000	-7736
▁leraren	-7737
▁sterven	-7738
▁vrijwill	-7739
▁personage	-7740
▁39	-7741
bbie	-7742
▁1988	-7743
▁aanleg	-7744
▁Saartje	-7745
▁handels	-7746
▁knooppunt	-7747
feer	-7748
▁sap	-7749
iëren	-7750
▁speelden	-7751
▁verschilt	-7752
▁zelfstandig	-7753
allig	-7754
▁gord	-7755
▁kiest	-7756
▁circus	-7757
abor	-7758
▁Alf	-7759
▁Was	-7760
▁Pier	-7761
▁tekort	-7762
▁groente	-7763
▁voordelen	-7764
ava	-7765
▁Bed	-7766
▁huilt	-7767
gehalte	-7768
▁factoren	-7769
▁computers	-7770
▁onderhand	-7771
▁vrouwtjes	-7772
▁consumenten	-7773
oul	-7774
▁lu	-7775
▁Iedere	-7776
▁zeiden	-7777
▁schapen	-7778
▁vluchtelingen	-7779
ré	-7780
isa	-7781
jen	-7782
romos	-7783
▁dram	-7784
▁jurk	-7785
Hé	-7786
▁eit	-7787
keuze	-7788
▁(168	-7789
bureau	-7790
staart	-7791
kundige	-7792
▁hypothe	-7793
▁middelen	-7794
▁aangenomen	-7795
▁aardbeving	-7796
▁overtuigen	-7797
ockey	-7798
▁vliegveld	-7799
▁eth	-7800
▁lux	-7801
▁voortd	-7802
▁berekenen	-7803
nik	-7804
▁ed	-7805
stok	-7806
▁regent	-7807
▁ridder	-7808
▁toestemming	-7809
-,	-7810
AAT	-7811
ario	-7812
▁veer	-7813
▁beïnvloed	-7814
▁fluistert	-7815
▁samenvatting	-7816
ows	-7817
ieuwd	-7818
voort	-7819
▁Corn	-7820
celona	-7821
flatie	-7822
uminium	-7823
▁opgelost	-7824
gg	-7825
▁OM	-7826
▁1920	-7827
▁rare	-7828
▁Athene	-7829
án	-7830
▁Bat	-7831
▁graven	-7832
▁poster	-7833
▁vijfde	-7834
▁IJsland	-7835
verandering	-7836
aiss	-7837
buis	-7838
familie	-7839
▁bereid	-7840
▁gezonde	-7841
▁jaarlijkse	-7842
▁vertrekken	-7843
▁VR	-7844
▁13.	-7845
▁fris	-7846
kingen	-7847
planten	-7848
▁koffer	-7849
une	-7850
leid	-7851
▁zijk	-7852
▁vacht	-7853
▁zetel	-7854
▁festival	-7855
▁molecuul	-7856
▁verwachten	-7857
▁beantwoording	-7858
▁po	-7859
merken	-7860
▁Brabant	-7861
▁Voordat	-7862
▁ervaring	-7863
▁monument	-7864
▁overeind	-7865
▁overwinning	-7866
▁XVI	-7867
▁Ottom	-7868
schepen	-7869
▁Russen	-7870
▁ham	-7871
▁spl	-7872
zamer	-7873
▁Teken	-7874
▁grijs	-7875
verm	-7876
▁huh	-7877
letter	-7878
Nieuwswekker	-7879
▁%	-7880
bre	-7881
opte	-7882
▁vel	-7883
▁Weer	-7884
▁Buurt	-7885
▁afzet	-7886
▁Univers	-7887
ypt	-7888
▁1984	-7889
▁Emma	-7890
▁eraf	-7891
▁dertig	-7892
▁Eurovis	-7893
▁jongste	-7894
▁klanten	-7895
republiek	-7896
▁deskundigen	-7897
▁Kaya	-7898
▁Krab	-7899
▁Mary	-7900
▁mult	-7901
▁zest	-7902
velden	-7903
▁diale	-7904
▁koopt	-7905
▁compon	-7906
▁uitgaven	-7907
▁opgebouwd	-7908
▁TV	-7909
orde	-7910
inger	-7911
cirkel	-7912
schuld	-7913
▁opsch	-7914
▁Arnhem	-7915
▁ingezet	-7916
stellingen	-7917
▁nauwkeurig	-7918
▁Winke	-7919
▁lezer	-7920
▁medaille	-7921
▁gebruikten	-7922
▁gouverneur	-7923
▁Red	-7924
▁Dave	-7925
▁ontv	-7926
▁boten	-7927
▁maten	-7928
▁gepakt	-7929
snelheid	-7930
▁deeltjes	-7931
▁referend	-7932
▁Arabische	-7933
▁vormgeving	-7934
▁rac	-7935
▁Quinty	-7936
▁inheem	-7937
▁Hiervoor	-7938
▁verkeerd	-7939
▁ingevoerd	-7940
82	-7941
LIE	-7942
unen	-7943
ritor	-7944
▁slap	-7945
▁overd	-7946
▁worst	-7947
▁heerlijk	-7948
andra	-7949
megen	-7950
▁Leer	-7951
▁kraan	-7952
▁richten	-7953
middellijk	-7954
▁binnenkort	-7955
▁Toelichting	-7956
rees	-7957
▁hut	-7958
▁1993	-7959
▁Amer	-7960
▁gelezen	-7961
▁ontdekte	-7962
orb	-7963
▁Tru	-7964
weten	-7965
▁code	-7966
daagse	-7967
ruchten	-7968
▁Wester	-7969
▁verdween	-7970
▁behandeld	-7971
Alex	-7972
been	-7973
▁Tuur	-7974
Oosten	-7975
▁kleed	-7976
gedeelte	-7977
▁christendom	-7978
cijf	-7979
wiel	-7980
▁Tik	-7981
laten	-7982
ynast	-7983
▁Mari	-7984
▁lege	-7985
rollen	-7986
achtigen	-7987
▁3:	-7988
verg	-7989
▁Cat	-7990
▁Tijd	-7991
▁gereg	-7992
▁stort	-7993
▁klasse	-7994
▁modern	-7995
▁ondertussen	-7996
pat	-7997
woud	-7998
▁vee	-7999
▁Zowel	-8000
▁Schiphol	-8001
weed	-8002
▁brr	-8003
▁Weet	-8004
▁meenemen	-8005
▁godsdienst	-8006
ta	-8007
rode	-8008
▁Fab	-8009
kleur	-8010
▁Sant	-8011
▁begr	-8012
kennen	-8013
▁wille	-8014
oeid	-8015
▁prest	-8016
▁mobiel	-8017
▁SCH	-8018
▁Tara	-8019
▁drum	-8020
gewicht	-8021
vormige	-8022
probeerd	-8023
▁berekend	-8024
▁transport	-8025
▁journalist	-8026
▁christelijke	-8027
▁instrumenten	-8028
reet	-8029
▁trui	-8030
wongen	-8031
▁Josse	-8032
▁Alinea	-8033
ares	-8034
loze	-8035
tele	-8036
▁1,0	-8037
▁Onze	-8038
▁aank	-8039
▁pret	-8040
▁spre	-8041
wagens	-8042
▁neder	-8043
▁studeren	-8044
▁kathedraal	-8045
▁verdrietig	-8046
▁anal	-8047
▁plak	-8048
▁sele	-8049
persoon	-8050
▁aanslag	-8051
▁drukken	-8052
▁voorlopig	-8053
Am	-8054
▁44	-8055
appar	-8056
ieter	-8057
ustriële	-8058
▁woestijn	-8059
▁drinkwater	-8060
▁onderscheiden	-8061
▁Kast	-8062
marijn	-8063
tenaren	-8064
▁commer	-8065
▁zwavel	-8066
structie	-8067
▁overgenomen	-8068
▁67	-8069
team	-8070
▁afb	-8071
inees	-8072
macht	-8073
▁horiz	-8074
▁gevecht	-8075
Nederland	-8076
▁algemene	-8077
▁militairen	-8078
ois	-8079
▁Ank	-8080
▁muts	-8081
▁Liber	-8082
▁Californië	-8083
▁afgebroken	-8084
▁huishouden	-8085
▁piz	-8086
aksen	-8087
speler	-8088
▁moord	-8089
▁gekleur	-8090
▁begrippen	-8091
▁Cy	-8092
▁Jop	-8093
▁gal	-8094
▁sin	-8095
▁live	-8096
▁kerken	-8097
▁gestopt	-8098
▁situaties	-8099
▁aangevallen	-8100
▁negentiende	-8101
▁nep	-8102
feren	-8103
▁dode	-8104
▁rots	-8105
retaris	-8106
▁heilige	-8107
▁rapport	-8108
atuurlijk	-8109
▁dipl	-8110
▁dwer	-8111
▁jagen	-8112
houding	-8113
▁zwaarte	-8114
▁eventjes	-8115
▁gebroken	-8116
▁ministers	-8117
▁verklaren	-8118
▁boodschappen	-8119
▁mL	-8120
stal	-8121
▁Spaans	-8122
▁bevest	-8123
gehouden	-8124
▁Barcelona	-8125
▁(20	-8126
aaide	-8127
▁koel	-8128
▁broertje	-8129
elten	-8130
▁schudt	-8131
▁klassen	-8132
▁richtte	-8133
productie	-8134
▁ontsnappen	-8135
oloog	-8136
▁held	-8137
▁zingt	-8138
▁Bekende	-8139
oppervlak	-8140
▁waarheid	-8141
▁spoorlijn	-8142
▁uiterlijk	-8143
▁uitzonder	-8144
gelegenheid	-8145
▁aangesloten	-8146
ife	-8147
uilen	-8148
▁Finland	-8149
▁ministerie	-8150
ata	-8151
▁...'	-8152
▁Vader	-8153
▁bedekt	-8154
▁Conclusie	-8155
▁beschermd	-8156
▁probeerden	-8157
▁voetbalclub	-8158
bode	-8159
▁Gar	-8160
▁nab	-8161
▁Bere	-8162
▁bureau	-8163
▁fabrieken	-8164
dijk	-8165
itten	-8166
▁Star	-8167
▁munten	-8168
▁aardapp	-8169
▁verhoog	-8170
▁stations	-8171
▁enthousiast	-8172
▁voorstander	-8173
okker	-8174
▁games	-8175
▁Bijbel	-8176
▁bijeen	-8177
▁jongere	-8178
▁probeer	-8179
▁definitie	-8180
▁schematisch	-8181
ierp	-8182
mens	-8183
▁1972	-8184
▁visie	-8185
▁leiders	-8186
▁opnemen	-8187
▁podcast	-8188
▁samenwerken	-8189
bos	-8190
auwe	-8191
olang	-8192
▁1948	-8193
▁Maur	-8194
▁horm	-8195
▁prim	-8196
Engels	-8197
elligen	-8198
▁flinke	-8199
▁teleur	-8200
artement	-8201
▁aantrekk	-8202
▁ext	-8203
▁knie	-8204
molecu	-8205
staand	-8206
OT	-8207
aj	-8208
elig	-8209
▁Zil	-8210
▁spin	-8211
▁zocht	-8212
▁zusje	-8213
periode	-8214
▁uiteen	-8215
▁verkiez	-8216
▁betekenen	-8217
▁ontwikkelingen	-8218
way	-8219
sterkte	-8220
▁banken	-8221
hen	-8222
isd	-8223
sky	-8224
▁1,5	-8225
▁domin	-8226
▁geluids	-8227
▁toegang	-8228
▁trokken	-8229
▁huisarts	-8230
▁Feyenoord	-8231
▁interessant	-8232
edy	-8233
utie	-8234
▁bor	-8235
▁som	-8236
zeren	-8237
▁Vlaams	-8238
▁poesje	-8239
▁wijken	-8240
▁lekkere	-8241
▁Daarvoor	-8242
▁verhuisde	-8243
▁verkeerde	-8244
▁veroveren	-8245
▁voetballer	-8246
67)	-8247
ream	-8248
▁Floor	-8249
▁brieven	-8250
▁negatief	-8251
▁opruimen	-8252
asus	-8253
onte	-8254
▁Wes	-8255
inand	-8256
malig	-8257
oofde	-8258
etische	-8259
▁grenzen	-8260
▁Hoo	-8261
▁Pers	-8262
▁snelweg	-8263
▁Nationaal	-8264
qui	-8265
39)	-8266
ges	-8267
elly	-8268
even	-8269
▁inform	-8270
beelding	-8271
▁verlies	-8272
▁spelletje	-8273
▁Oekraïense	-8274
▁luchthaven	-8275
▁zuidelijke	-8276
apl	-8277
▁nie	-8278
▁raket	-8279
▁altern	-8280
▁dinsdag	-8281
▁schijnt	-8282
▁aankomen	-8283
put	-8284
meth	-8285
stige	-8286
vaard	-8287
rediet	-8288
▁versn	-8289
spartij	-8290
▁gerecht	-8291
▁natrium	-8292
▁gezongen	-8293
▁besluiten	-8294
vader	-8295
▁Wint	-8296
▁lossen	-8297
▁Oorspron	-8298
▁invester	-8299
Pl	-8300
▁blaad	-8301
▁aanbod	-8302
pest	-8303
teit	-8304
▁stal	-8305
iering	-8306
▁bakken	-8307
▁geslagen	-8308
▁onderweg	-8309
▁verminder	-8310
▁onduidelijk	-8311
▁vertegenwoordig	-8312
▁KL	-8313
toon	-8314
▁Evel	-8315
▁Play	-8316
▁Zaken	-8317
▁Zeven	-8318
ublieke	-8319
▁gelijke	-8320
illeg	-8321
▁kabel	-8322
▁ondanks	-8323
argumenteer	-8324
dus	-8325
▁Hug	-8326
▁Res	-8327
▁Cath	-8328
▁volt	-8329
histor	-8330
spreek	-8331
▁agent	-8332
▁pappa	-8333
straling	-8334
▁bedoelt	-8335
▁uitgegeven	-8336
▁vertrokken	-8337
▁overstromingen	-8338
.,	-8339
mie	-8340
▁Mün	-8341
odigd	-8342
▁écht	-8343
▁Filip	-8344
▁geïnter	-8345
▁centraal	-8346
53)	-8347
kanen	-8348
maker	-8349
▁atlas	-8350
▁Francisc	-8351
▁geprobeerd	-8352
uch	-8353
sief	-8354
wood	-8355
▁Pal	-8356
▁Andre	-8357
▁hielden	-8358
▁stuurde	-8359
▁effecten	-8360
▁Nieuwswekker	-8361
jan	-8362
▁600	-8363
▁Cro	-8364
▁Wim	-8365
▁law	-8366
▁sta	-8367
▁aarz	-8368
vormen	-8369
ariteit	-8370
▁slotte	-8371
▁acteurs	-8372
▁openbare	-8373
▁getroffen	-8374
▁identiteit	-8375
▁Pim	-8376
▁Tai	-8377
arten	-8378
▁HIER	-8379
versum	-8380
▁grinn	-8381
▁knuff	-8382
▁laatst	-8383
▁zuiver	-8384
▁verkrij	-8385
▁Nijmegen	-8386
▁eindigde	-8387
▁organiseren	-8388
7.	-8389
okt	-8390
meel	-8391
▁BEN	-8392
▁Zweed	-8393
▁hierna	-8394
▁aluminium	-8395
▁aflevering	-8396
▁Nederlander	-8397
less	-8398
▁PSV	-8399
▁(130	-8400
▁stab	-8401
▁scheep	-8402
▁vooraf	-8403
vergelijk	-8404
allieerden	-8405
▁katholieke	-8406
BS	-8407
teg	-8408
▁Ser	-8409
▁UIT	-8410
▁dol	-8411
armen	-8412
▁mist	-8413
wijking	-8414
▁heuvel	-8415
▁bedreigd	-8416
▁kapitein	-8417
▁afgesproken	-8418
▁automatisch	-8419
▁gevaarlijke	-8420
▁criminaliteit	-8421
-94	-8422
Oké	-8423
ato	-8424
gra	-8425
aagde	-8426
▁dader	-8427
▁reger	-8428
▁breken	-8429
▁zachte	-8430
▁levende	-8431
▁toegepast	-8432
▁Verschillen	-8433
zam	-8434
boer	-8435
derde	-8436
▁urine	-8437
▁klachten	-8438
▁krachten	-8439
▁verwachte	-8440
Bij	-8441
▁41	-8442
▁Bin	-8443
▁Lit	-8444
▁del	-8445
▁Nick	-8446
garije	-8447
▁romant	-8448
▁volgend	-8449
▁bioscoop	-8450
▁geregeld	-8451
▁veroverd	-8452
▁overigens	-8453
▁controleren	-8454
tewel	-8455
▁Joodse	-8456
▁werkst	-8457
▁moslims	-8458
▁Christen	-8459
▁donderdag	-8460
▁tijdschrift	-8461
2+	-8462
ocl	-8463
leen	-8464
ners	-8465
▁rap	-8466
geles	-8467
atorium	-8468
▁wijzen	-8469
opdracht	-8470
▁vervelend	-8471
▁kandidaten	-8472
akket	-8473
cultuur	-8474
▁dorpje	-8475
▁streek	-8476
▁Angeles	-8477
▁actrice	-8478
▁raakten	-8479
▁verdrag	-8480
▁(5	-8481
▁kaars	-8482
▁gevuld	-8483
▁Russisch	-8484
▁gisteravond	-8485
▁communistische	-8486
ii	-8487
mes	-8488
Azië	-8489
▁Jim	-8490
poort	-8491
▁simpel	-8492
▁verlen	-8493
▁tractor	-8494
18)	-8495
ogh	-8496
▁dam	-8497
▁jee	-8498
▁sens	-8499
▁herfst	-8500
bescherm	-8501
15)	-8502
ops	-8503
▁RE	-8504
sper	-8505
▁Mus	-8506
▁kikkers	-8507
▁Beargumenteer	-8508
CE	-8509
oke	-8510
▁mun	-8511
▁krui	-8512
▁betrouw	-8513
▁gastenboek	-8514
▁omschrijving	-8515
▁you	-8516
▁bakker	-8517
schoenen	-8518
▁piramide	-8519
instrument	-8520
▁scholieren	-8521
Dus	-8522
▁ALS	-8523
▁Afg	-8524
▁jury	-8525
▁weef	-8526
▁ontsp	-8527
ombarde	-8528
▁Thailand	-8529
▁afgedrukt	-8530
▁bescherming	-8531
▁Reg	-8532
ballen	-8533
▁Lijst	-8534
▁voerde	-8535
▁mythologie	-8536
bru	-8537
▁Hof	-8538
▁Cons	-8539
▁Verm	-8540
▁grijze	-8541
▁kanker	-8542
▁sporen	-8543
sluitend	-8544
ete	-8545
▁43	-8546
▁Vit	-8547
dings	-8548
▁bevor	-8549
▁vaart	-8550
beweging	-8551
▁stromen	-8552
▁geluiden	-8553
▁koloniën	-8554
▁uitgangsp	-8555
DR	-8556
ji	-8557
Tok	-8558
▁help	-8559
ograaf	-8560
▁demonst	-8561
▁traditie	-8562
aldo	-8563
cont	-8564
doende	-8565
▁stomme	-8566
▁plassen	-8567
▁toetsen	-8568
▁carrière	-8569
▁Bulgarije	-8570
▁referendum	-8571
ZE	-8572
skl	-8573
zem	-8574
▁KN	-8575
▁Ou	-8576
▁(52	-8577
Links	-8578
▁Zand	-8579
vlucht	-8580
▁koers	-8581
▁opgeg	-8582
▁grenst	-8583
erdinand	-8584
▁drijven	-8585
▁adviezen	-8586
▁verstaan	-8587
▁1964	-8588
▁vlam	-8589
▁dubbel	-8590
▁animatie	-8591
▁koninklijke	-8592
▁Room	-8593
▁Domin	-8594
▁Lilly	-8595
▁allen	-8596
▁Jochem	-8597
▁Di	-8598
▁Iets	-8599
▁Stra	-8600
▁bijn	-8601
wijken	-8602
▁Brits	-8603
gehaald	-8604
▁bijdra	-8605
▁keerde	-8606
sz	-8607
▁GR	-8608
gesp	-8609
▁energ	-8610
▁bezorgd	-8611
▁ingewikk	-8612
▁kaartjes	-8613
▁maatregel	-8614
▁advertentie	-8615
uge	-8616
▁hé	-8617
leer	-8618
▁deels	-8619
▁aangeb	-8620
getrokken	-8621
▁straling	-8622
▁deelnemers	-8623
▁DAN	-8624
stemd	-8625
record	-8626
▁klank	-8627
▁opper	-8628
▁spook	-8629
▁avonds	-8630
▁bijdrage	-8631
▁diensten	-8632
kest	-8633
uift	-8634
album	-8635
aster	-8636
▁Otto	-8637
▁ping	-8638
▁brede	-8639
▁pauze	-8640
▁alsnog	-8641
▁akkoord	-8642
▁welvaart	-8643
▁beschadigd	-8644
▁protestant	-8645
▁zoogdieren	-8646
pas	-8647
▁55	-8648
▁ep	-8649
ieur	-8650
ning	-8651
roog	-8652
▁Dor	-8653
▁Kit	-8654
▁ezel	-8655
genten	-8656
vriend	-8657
▁doelen	-8658
▁praktijk	-8659
▁generatie	-8660
▁ontdekken	-8661
93	-8662
rood	-8663
▁Roy	-8664
▁Jesse	-8665
▁Theod	-8666
ratisch	-8667
ynastie	-8668
▁zielig	-8669
ologisch	-8670
▁vlakbij	-8671
▁krokodil	-8672
▁chocolade	-8673
▁hoeveelheden	-8674
bor	-8675
inen	-8676
▁Pak	-8677
auwen	-8678
▁(162	-8679
plicht	-8680
▁Bepaal	-8681
▁inkomens	-8682
▁48	-8683
▁Hard	-8684
entjes	-8685
▁roman	-8686
aissance	-8687
▁Victoria	-8688
▁vreselijk	-8689
mann	-8690
ement	-8691
vings	-8692
▁redelijk	-8693
▁verzinnen	-8694
▁Goedemorgen	-8695
▁ontwikkelde	-8696
god	-8697
plan	-8698
quest	-8699
▁Vert	-8700
▁wens	-8701
uleren	-8702
▁filosoof	-8703
▁Montenegro	-8704
▁balk	-8705
▁lift	-8706
iseerd	-8707
sneden	-8708
▁achtt	-8709
▁drukte	-8710
eedschap	-8711
▁illustr	-8712
▁ontdekk	-8713
▁nadenken	-8714
▁wandelen	-8715
▁onmiddellijk	-8716
hi	-8717
6-13	-8718
anke	-8719
rink	-8720
ience	-8721
▁diepe	-8722
▁papeg	-8723
▁aanhang	-8724
Doe	-8725
▁haha	-8726
▁beden	-8727
▁Kartoni	-8728
▁conserv	-8729
▁voorkeur	-8730
▁zekerheid	-8731
▁Buurtschappen	-8732
29)	-8733
uwd	-8734
▁Ann	-8735
▁Dijk	-8736
▁Twente	-8737
atteland	-8738
vloe	-8739
▁Pre	-8740
▁Vel	-8741
ament	-8742
▁foss	-8743
▁specif	-8744
▁gezocht	-8745
▁achtbaan	-8746
▁inclusief	-8747
▁patiënten	-8748
▁protesten	-8749
som	-8750
▁Arm	-8751
immel	-8752
▁Sing	-8753
▁tank	-8754
▁Mount	-8755
▁Belang	-8756
▁Lincol	-8757
▁ketting	-8758
wisseling	-8759
▁Inmiddels	-8760
▁letterlijk	-8761
lied	-8762
icten	-8763
oorts	-8764
▁(150	-8765
▁studio	-8766
▁zestig	-8767
▁betaalt	-8768
▁contract	-8769
▁eenvoudig	-8770
▁Maastricht	-8771
▁noordelijke	-8772
▁opvattingen	-8773
ür	-8774
Deze	-8775
lamp	-8776
▁Vlag	-8777
▁Wall	-8778
▁droge	-8779
oernooi	-8780
▁hierin	-8781
▁uitkomst	-8782
▁Ferdinand	-8783
23)	-8784
tas	-8785
▁Sym	-8786
▁Zom	-8787
▁1918	-8788
▁tips	-8789
▁draak	-8790
▁graan	-8791
▁kende	-8792
isschop	-8793
▁stuurt	-8794
▁beweegt	-8795
▁directe	-8796
▁schrikt	-8797
98)	-8798
Gro	-8799
alk	-8800
iot	-8801
▁06	-8802
▁52	-8803
▁Snel	-8804
orende	-8805
▁Zodra	-8806
▁gekke	-8807
▁ramen	-8808
elijkse	-8809
aga	-8810
▁AN	-8811
▁Ged	-8812
eleens	-8813
▁sticht	-8814
▁tempel	-8815
▁werkten	-8816
▁aanwezigheid	-8817
jon	-8818
▁wa	-8819
lengte	-8820
▁bereik	-8821
ly	-8822
usea	-8823
graaf	-8824
ologen	-8825
renten	-8826
▁asiel	-8827
▁longen	-8828
▁organen	-8829
▁160	-8830
▁Bay	-8831
belen	-8832
▁Kant	-8833
▁Tien	-8834
▁stim	-8835
▁beperkt	-8836
▁gezeten	-8837
▁Suriname	-8838
▁eiwitten	-8839
▁uitbreiding	-8840
▁Frit	-8841
▁Goud	-8842
ionale	-8843
▁favoriete	-8844
▁bloedcellen	-8845
ijp	-8846
uen	-8847
ador	-8848
deneer	-8849
leiden	-8850
▁vieze	-8851
▁gooide	-8852
▁reuzen	-8853
▁woeden	-8854
▁plaatsvinden	-8855
▁Verschillende	-8856
ota	-8857
▁go	-8858
apper	-8859
igant	-8860
▁1976	-8861
▁Afro	-8862
▁houding	-8863
▁document	-8864
▁cy	-8865
▁1986	-8866
▁ALLE	-8867
▁Wolf	-8868
▁Black	-8869
▁meren	-8870
▁stapel	-8871
▁Beieren	-8872
▁attracties	-8873
▁platteland	-8874
▁voortdurend	-8875
ero	-8876
rey	-8877
Over	-8878
▁edel	-8879
ateg	-8880
▁afw	-8881
igden	-8882
▁gebl	-8883
▁gekl	-8884
▁Charl	-8885
▁begrijp	-8886
▁tweeling	-8887
▁voorwaarden	-8888
▁1).	-8889
loride	-8890
uiling	-8891
ystemen	-8892
▁Paulien	-8893
▁ontbijt	-8894
▁weleens	-8895
▁doelpunten	-8896
▁moeilijker	-8897
ures	-8898
▁zonn	-8899
aturen	-8900
▁Naties	-8901
▁golven	-8902
▁takken	-8903
diensten	-8904
▁konijnen	-8905
▁architect	-8906
▁nieuwsgier	-8907
▁ondergrond	-8908
namen	-8909
▁MOET	-8910
▁toil	-8911
acties	-8912
kwamen	-8913
▁doorb	-8914
▁stoep	-8915
zoekers	-8916
▁omlaag	-8917
▁potlood	-8918
▁Noordzee	-8919
▁vannacht	-8920
voorschijn	-8921
▁verdwijnt	-8922
▁verhuizen	-8923
HO	-8924
sid	-8925
▁Vul	-8926
▁let	-8927
▁Caine	-8928
▁Madrid	-8929
▁dromen	-8930
▁toerisme	-8931
▁architectuur	-8932
ïne	-8933
▁By	-8934
onom	-8935
strid	-8936
▁Vlie	-8937
▁mees	-8938
▁roep	-8939
▁Brand	-8940
▁Evelien	-8941
▁wiskunde	-8942
▁Volkskrant	-8943
▁tevoorschijn	-8944
wol	-8945
mark	-8946
mere	-8947
▁Dar	-8948
iller	-8949
▁1952	-8950
▁1956	-8951
▁Mama	-8952
▁Miss	-8953
▁WAAR	-8954
▁vere	-8955
▁Champ	-8956
▁Virgin	-8957
▁wonnen	-8958
▁Lincoln	-8959
▁dankzij	-8960
▁melodie	-8961
▁sprookje	-8962
▁persoonlijk	-8963
▁Oorspronkelijk	-8964
Na	-8965
emb	-8966
Laat	-8967
▁Nov	-8968
▁crit	-8969
rechter	-8970
▁korter	-8971
▁verdelen	-8972
▁belastingen	-8973
▁voorkomende	-8974
▁beschrijving	-8975
▁internationaal	-8976
CT	-8977
▁Fle	-8978
▁KOM	-8979
▁Duck	-8980
▁mail	-8981
elaars	-8982
ijsten	-8983
▁mezelf	-8984
▁bovenop	-8985
▁verschillend	-8986
Wil	-8987
▁Syr	-8988
assing	-8989
istent	-8990
oelens	-8991
▁Roose	-8992
zaamheid	-8993
Natuurlijk	-8994
▁olifanten	-8995
▁uitsluitend	-8996
▁Til	-8997
▁nag	-8998
▁amino	-8999
▁durft	-9000
▁helik	-9001
▁bovendien	-9002
▁achterkant	-9003
▁verbranding	-9004
31)	-9005
riff	-9006
▁800	-9007
▁mas	-9008
gevoel	-9009
▁Techn	-9010
▁dient	-9011
▁afleiding	-9012
▁dolfijnen	-9013
▁afgeschaft	-9014
▁technologie	-9015
1-1	-9016
kers	-9017
ssen	-9018
trole	-9019
▁(140	-9020
▁Media	-9021
▁sfeer	-9022
▁Sophie	-9023
▁divisie	-9024
▁Diederik	-9025
▁schreeuwde	-9026
IM	-9027
haar	-9028
▁Lad	-9029
▁Henk	-9030
▁Krim	-9031
▁dees	-9032
▁Graaf	-9033
▁Whats	-9034
▁scherpe	-9035
▁culturele	-9036
▁tegelijkertijd	-9037
UK	-9038
etsen	-9039
▁Rooms	-9040
▁Wales	-9041
▁boete	-9042
▁diepte	-9043
▁treden	-9044
▁mompelde	-9045
▁vasthouden	-9046
▁populairste	-9047
iod	-9048
vle	-9049
▁Irak	-9050
▁klom	-9051
▁Wenen	-9052
▁compl	-9053
osaurus	-9054
ossingen	-9055
▁benoemd	-9056
bedrijven	-9057
▁frequentie	-9058
▁Ram	-9059
▁Bang	-9060
▁Dolf	-9061
▁lente	-9062
▁scherp	-9063
cer	-9064
mijn	-9065
raaid	-9066
▁Vijf	-9067
▁haak	-9068
▁miss	-9069
intjes	-9070
▁dienen	-9071
▁gegooid	-9072
▁leukste	-9073
aarse	-9074
▁feder	-9075
▁Stalin	-9076
▁andersom	-9077
▁bedragen	-9078
▁inheemse	-9079
▁beslissen	-9080
▁benadering	-9081
▁bloedvaten	-9082
**	-9083
etta	-9084
anzen	-9085
▁duim	-9086
▁clown	-9087
▁gemen	-9088
▁illeg	-9089
▁Saksen	-9090
▁orgaan	-9091
▁vakken	-9092
gedragen	-9093
▁luister	-9094
▁GroenLinks	-9095
hai	-9096
urn	-9097
...'"	-9098
▁(159	-9099
▁Hann	-9100
isseur	-9101
▁Maxim	-9102
▁poort	-9103
bestuur	-9104
▁Valent	-9105
▁openen	-9106
volution	-9107
▁Ongeveer	-9108
▁Beredeneer	-9109
▁beschrijft	-9110
▁dichterbij	-9111
▁Oma	-9112
loper	-9113
▁Tour	-9114
▁beet	-9115
▁haan	-9116
▁wortel	-9117
▁bacterie	-9118
▁verklaard	-9119
▁toepassing	-9120
Dag	-9121
rop	-9122
atist	-9123
fabet	-9124
▁neef	-9125
▁hielp	-9126
▁stemm	-9127
▁vuist	-9128
▁parkeer	-9129
▁afdeling	-9130
▁gerekend	-9131
▁radioactie	-9132
▁verwachting	-9133
eps	-9134
Zijn	-9135
ates	-9136
▁Sir	-9137
▁riet	-9138
▁poging	-9139
▁schrok	-9140
▁walvis	-9141
genwoord	-9142
▁uitgere	-9143
▁onbekend	-9144
▁Po	-9145
mail	-9146
87-11	-9147
▁Pots	-9148
▁beheer	-9149
66)	-9150
▁Dirk	-9151
gevers	-9152
▁Spoor	-9153
tekening	-9154
▁extreem	-9155
▁trommel	-9156
▁Politiek	-9157
ics	-9158
rot	-9159
54-11	-9160
reren	-9161
urken	-9162
▁Beer	-9163
▁Cuba	-9164
▁Obama	-9165
▁Sanne	-9166
▁(1154-11	-9167
▁aangeboden	-9168
▁tentoonstelling	-9169
▁?	-9170
▁Kos	-9171
▁vic	-9172
▁Ieke	-9173
werker	-9174
▁daalt	-9175
▁joden	-9176
allatie	-9177
▁Ooster	-9178
▁import	-9179
▁stelen	-9180
alisering	-9181
ön	-9182
▁rub	-9183
▁arts	-9184
▁roos	-9185
▁woede	-9186
▁gezamen	-9187
▁inspiratie	-9188
▁Republikeinse	-9189
dorp	-9190
▁Ade	-9191
schema	-9192
westie	-9193
▁Begin	-9194
▁Kruis	-9195
spiegel	-9196
▁status	-9197
▁schaatsen	-9198
▁verdedigen	-9199
▁verwijderen	-9200
▁Oostenrijkse	-9201
iesongfestival	-9202
ACHT	-9203
▁1930	-9204
▁griep	-9205
▁bestuurd	-9206
▁ernstige	-9207
▁geloofde	-9208
vereniging	-9209
▁Roosmarijn	-9210
▁Songfestival	-9211
▁Azi	-9212
▁\""	-9213
▁gun	-9214
▁wan	-9215
▁1969	-9216
anisme	-9217
▁10.000	-9218
▁nadeel	-9219
zakelijk	-9220
▁Haarlem	-9221
▁operatie	-9222
▁artikelen	-9223
nu	-9224
ior	-9225
icum	-9226
▁dod	-9227
chnie	-9228
snede	-9229
gedrag	-9230
▁teams	-9231
fabriek	-9232
honderd	-9233
▁Canade	-9234
▁verloop	-9235
▁Caroline	-9236
▁benieuwd	-9237
▁stijging	-9238
▁vijftien	-9239
▁Roosevelt	-9240
▁samenstelling	-9241
▁46	-9242
▁bah	-9243
onken	-9244
paard	-9245
zuren	-9246
▁1985	-9247
▁kook	-9248
oetsen	-9249
▁Drake	-9250
▁Vraag	-9251
verzeker	-9252
▁Gisteren	-9253
0)	-9254
▁Fen	-9255
▁afl	-9256
opold	-9257
▁Ruim	-9258
wintig	-9259
chnieken	-9260
▁tekstfragment	-9261
47)	-9262
Rus	-9263
▁51	-9264
▁06-2	-9265
▁bepaalt	-9266
structuur	-9267
▁bovenste	-9268
▁pensioen	-9269
▁verstand	-9270
▁bibliotheek	-9271
▁vriendelijk	-9272
ziet	-9273
▁NAAR	-9274
museum	-9275
isabeth	-9276
▁verschijn	-9277
organisaties	-9278
etus	-9279
loge	-9280
▁RTL	-9281
ördin	-9282
tertijd	-9283
▁Cornel	-9284
▁Steeds	-9285
▁degene	-9286
▁trappen	-9287
▁2)	-9288
prus	-9289
▁Cru	-9290
▁Lie	-9291
▁1939	-9292
▁NAVO	-9293
ffende	-9294
result	-9295
roegen	-9296
uderen	-9297
▁aspect	-9298
ympische	-9299
▁Krabbel	-9300
onderwijs	-9301
▁Onderwijs	-9302
Or	-9303
▁dop	-9304
kring	-9305
fectie	-9306
▁spann	-9307
▁Arnold	-9308
▁piraten	-9309
▁uitslag	-9310
▁bedrijfs	-9311
▁doelpunt	-9312
▁machines	-9313
▁it	-9314
icit	-9315
pijn	-9316
woon	-9317
▁PVV	-9318
▁Hoge	-9319
▁Raff	-9320
▁debuut	-9321
▁Soorten	-9322
▁leerkracht	-9323
Kl	-9324
ami	-9325
stip	-9326
▁erom	-9327
▁roken	-9328
▁opbouw	-9329
▁Vanwege	-9330
▁afspraak	-9331
RC	-9332
odox	-9333
ronk	-9334
▁000	-9335
▁aff	-9336
onium	-9337
▁zwer	-9338
dingen	-9339
rijpen	-9340
▁snapt	-9341
▁helaas	-9342
▁proeven	-9343
▁staatsh	-9344
▁vierkant	-9345
SP	-9346
Bel	-9347
ory	-9348
rog	-9349
▁iP	-9350
▁Ach	-9351
▁btw	-9352
▁carn	-9353
▁luxe	-9354
▁serv	-9355
▁Wadden	-9356
▁plakken	-9357
89)	-9358
▁Kr	-9359
▁Ass	-9360
▁mut	-9361
▁Angel	-9362
▁Video	-9363
▁ballet	-9364
▁vertrok	-9365
▁evenveel	-9366
keuzevragen	-9367
▁schilderen	-9368
.00	-9369
▁fa	-9370
ffic	-9371
ugel	-9372
▁geï	-9373
▁sur	-9374
icius	-9375
▁duwde	-9376
▁viool	-9377
Rusland	-9378
▁ballen	-9379
▁behoef	-9380
▁rondje	-9381
▁zuster	-9382
▁uitleggen	-9383
usie	-9384
▁moer	-9385
ptomen	-9386
▁deksel	-9387
▁principe	-9388
▁afkorting	-9389
ble	-9390
▁53	-9391
----	-9392
ière	-9393
▁(31	-9394
▁boze	-9395
▁fosf	-9396
▁ruit	-9397
ootjes	-9398
▁clubs	-9399
▁detail	-9400
▁schaduw	-9401
▁afscheid	-9402
▁communisme	-9403
▁zogenoemde	-9404
▁grondgebied	-9405
▁É	-9406
oetin	-9407
▁Delft	-9408
▁Ebbie	-9409
▁natte	-9410
elijken	-9411
▁volume	-9412
▁Tsjechië	-9413
▁overleef	-9414
▁moeilijke	-9415
▁overeenkomst	-9416
SE	-9417
wekt	-9418
▁Golf	-9419
▁Jaar	-9420
▁meld	-9421
heorie	-9422
▁klimt	-9423
▁oudheid	-9424
▁vorsten	-9425
▁glimlach	-9426
▁handelen	-9427
▁plaatsje	-9428
▁menselijk	-9429
▁Burgeroorlog	-9430
aka	-9431
arn	-9432
apte	-9433
ison	-9434
koper	-9435
▁Voet	-9436
▁Volg	-9437
▁down	-9438
ouwers	-9439
▁moleculen	-9440
▁Atlantische	-9441
tot	-9442
▁Oh	-9443
imon	-9444
rint	-9445
▁nak	-9446
▁Iran	-9447
▁Rock	-9448
▁privé	-9449
▁gezorgd	-9450
▁locatie	-9451
▁Virginia	-9452
▁training	-9453
ae	-9454
sj	-9455
ray	-9456
▁May	-9457
ijssel	-9458
verhaal	-9459
▁minste	-9460
▁vertic	-9461
▁ervaren	-9462
▁soldaat	-9463
▁verschijnt	-9464
bijvoorbeeld	-9465
▁vergadering	-9466
awaï	-9467
kels	-9468
test	-9469
▁Vik	-9470
ageer	-9471
craft	-9472
▁Rosa	-9473
haling	-9474
ulance	-9475
▁Egypt	-9476
▁Texas	-9477
▁Europe	-9478
▁wielen	-9479
▁collega	-9480
▁knippen	-9481
handeling	-9482
oplossing	-9483
▁doorheen	-9484
▁gedwongen	-9485
▁Middellandse	-9486
ANG	-9487
kru	-9488
elta	-9489
▁Eva	-9490
▁jaja	-9491
▁make	-9492
▁proc	-9493
▁romm	-9494
wonden	-9495
▁betaal	-9496
▁marine	-9497
ijnselen	-9498
Alexander	-9499
▁televisies	-9500
show	-9501
▁Jam	-9502
▁taf	-9503
praat	-9504
▁Math	-9505
▁Zorg	-9506
▁Aange	-9507
▁Kerst	-9508
▁advoc	-9509
▁algen	-9510
▁hoorn	-9511
▁leerde	-9512
▁Albanië	-9513
▁Johnson	-9514
▁koekjes	-9515
duizenden	-9516
▁kleinste	-9517
▁religieuze	-9518
aks	-9519
▁py	-9520
314)	-9521
aafd	-9522
irus	-9523
lief	-9524
ound	-9525
ituut	-9526
ouder	-9527
▁(152	-9528
▁Moet	-9529
▁dief	-9530
▁kart	-9531
ademie	-9532
▁Wesley	-9533
▁opkomst	-9534
▁modellen	-9535
▁kenmerkend	-9536
▁opgeslagen	-9537
▁kinderboeken	-9538
Arab	-9539
▁1944	-9540
▁prie	-9541
rennen	-9542
taling	-9543
▁pizza	-9544
▁zaden	-9545
gericht	-9546
▁apparaten	-9547
▁verdeling	-9548
▁verschijnselen	-9549
oter	-9550
▁tut	-9551
▁Echt	-9552
▁kopp	-9553
osfeer	-9554
▁verre	-9555
▁docent	-9556
▁lichte	-9557
▁omvang	-9558
▁vaccin	-9559
▁vergeet	-9560
▁publieke	-9561
▁Bj	-9562
▁Cam	-9563
▁Guus	-9564
▁Hall	-9565
▁Hugo	-9566
▁Wind	-9567
▁bekl	-9568
▁gesm	-9569
▁heef	-9570
olletje	-9571
▁Lauren	-9572
▁Margar	-9573
▁beveil	-9574
▁gelden	-9575
▁teveel	-9576
▁Valerie	-9577
▁signaal	-9578
▁koningen	-9579
·10	-9580
▁Dub	-9581
▁Kelly	-9582
▁hierop	-9583
▁botsing	-9584
▁eindigt	-9585
▁scoorde	-9586
▁behouden	-9587
▁hoofdrol	-9588
▁klooster	-9589
▁onderzoeks	-9590
▁HA	-9591
gden	-9592
kust	-9593
keurige	-9594
▁Michiel	-9595
▁reactor	-9596
schappers	-9597
▁migratie	-9598
▁inleiding	-9599
▁scen	-9600
imenten	-9601
▁broeik	-9602
▁serieus	-9603
▁snijden	-9604
▁district	-9605
▁formules	-9606
▁woningen	-9607
▁intelligen	-9608
▁vertegenwoord	-9609
plo	-9610
anol	-9611
thur	-9612
filmd	-9613
untje	-9614
▁gekn	-9615
alitie	-9616
echten	-9617
▁Hawaï	-9618
▁spons	-9619
▁verkozen	-9620
▁sprookjes	-9621
2,	-9622
orr	-9623
▁aqu	-9624
model	-9625
▁skel	-9626
▁Senaat	-9627
▁Leopold	-9628
▁Marinus	-9629
▁vijanden	-9630
ón	-9631
▁Gh	-9632
arao	-9633
uste	-9634
grens	-9635
▁Gent	-9636
▁peper	-9637
▁Daarin	-9638
▁missen	-9639
▁reageer	-9640
▁Italiaans	-9641
▁Pin	-9642
▁Veil	-9643
▁Heeft	-9644
▁bijbeh	-9645
▁doosje	-9646
▁scheid	-9647
▁Chinees	-9648
Katholieke	-9649
▁elektronen	-9650
▁technische	-9651
▁Noordelijke	-9652
▁hoofdletter	-9653
ford	-9654
leken	-9655
▁Dank	-9656
▁ruimt	-9657
▁spoel	-9658
▁Reageer	-9659
▁begreep	-9660
▁voorlezen	-9661
▁slachtoffer	-9662
▁verschrikkelijk	-9663
▁1981	-9664
▁Bill	-9665
▁Marl	-9666
▁enig	-9667
allers	-9668
▁Steen	-9669
ondanks	-9670
▁gewend	-9671
▁Kasteel	-9672
▁bestand	-9673
▁voortaan	-9674
▁christenen	-9675
▁BM	-9676
676)	-9677
arth	-9678
kong	-9679
sels	-9680
▁fen	-9681
▁Beatrix	-9682
▁oorlogs	-9683
▁driehoek	-9684
▁schrikken	-9685
▁bewegingen	-9686
▁luchtvaart	-9687
▁verzameling	-9688
03)	-9689
rast	-9690
▁Pop	-9691
▁Rol	-9692
▁mill	-9693
▁vierk	-9694
▁gestorven	-9695
▁microfoon	-9696
▁voortplant	-9697
▁Ul	-9698
oedd	-9699
▁col	-9700
owinst	-9701
▁blijken	-9702
▁gereden	-9703
▁Ottomaanse	-9704
▁overlijden	-9705
AAL	-9706
aro	-9707
éér	-9708
605)	-9709
▁bab	-9710
oever	-9711
selen	-9712
▁Barb	-9713
▁knal	-9714
▁lust	-9715
▁Brink	-9716
▁Freder	-9717
▁rechte	-9718
▁(1605-1	-9719
▁München	-9720
▁ballonnen	-9721
▁eventueel	-9722
40-	-9723
▁Hy	-9724
▁Tsj	-9725
schot	-9726
aagden	-9727
▁beleg	-9728
▁toont	-9729
▁orkaan	-9730
▁Vrouwen	-9731
▁gewassen	-9732
!)	-9733
62)	-9734
kar	-9735
borg	-9736
techn	-9737
ulatie	-9738
▁Chili	-9739
▁Henry	-9740
▁bijten	-9741
▁rassen	-9742
▁treedt	-9743
EER	-9744
NEN	-9745
ves	-9746
blik	-9747
graf	-9748
▁1975	-9749
▁pest	-9750
▁sigar	-9751
▁Astrid	-9752
▁parken	-9753
GRANDMOTHER	-9754
▁meegemaakt	-9755
▁uitdrukking	-9756
32)	-9757
OED	-9758
any	-9759
mis	-9760
inkt	-9761
tens	-9762
▁(61	-9763
names	-9764
▁keih	-9765
hoogte	-9766
▁blaas	-9767
▁paniek	-9768
▁emoties	-9769
▁wortels	-9770
▁originele	-9771
Te	-9772
ibr	-9773
▁Had	-9774
▁poe	-9775
sloop	-9776
▁Verb	-9777
▁herk	-9778
▁Docent	-9779
▁Harris	-9780
▁Poolse	-9781
▁briefje	-9782
▁onmogelijk	-9783
alys	-9784
reda	-9785
▁dek	-9786
▁tax	-9787
▁rijen	-9788
Station	-9789
stadion	-9790
steking	-9791
▁Joseph	-9792
▁schijf	-9793
istoffen	-9794
Mag	-9795
TEN	-9796
spire	-9797
▁Syrië	-9798
▁beren	-9799
▁feiten	-9800
▁gulden	-9801
▁voeding	-9802
▁belangen	-9803
▁oplossen	-9804
▁voorkant	-9805
▁vereniging	-9806
instrumenten	-9807
CD	-9808
▁BR	-9809
iche	-9810
reen	-9811
▁(64	-9812
▁hev	-9813
▁dijk	-9814
▁inkt	-9815
▁labor	-9816
▁merkt	-9817
▁Echter	-9818
▁letten	-9819
▁kloppen	-9820
▁Calixtus	-9821
▁berichten	-9822
verbindingen	-9823
▁schrijfster	-9824
aki	-9825
ika	-9826
uten	-9827
▁2,5	-9828
▁Jane	-9829
▁Peru	-9830
▁TikTok	-9831
▁scheik	-9832
▁horizont	-9833
▁invoering	-9834
▁opbrengst	-9835
ci	-9836
▁Bir	-9837
▁Ball	-9838
draaien	-9839
▁Grieks	-9840
▁genees	-9841
▁sokken	-9842
▁zwaard	-9843
hanistan	-9844
▁fi	-9845
imen	-9846
stil	-9847
igend	-9848
▁snuit	-9849
▁typen	-9850
▁voert	-9851
schriften	-9852
▁behaalde	-9853
▁genieten	-9854
▁discrimin	-9855
▁langzamer	-9856
▁industriële	-9857
04	-9858
STE	-9859
comm	-9860
▁ras	-9861
oring	-9862
▁meub	-9863
kantoor	-9864
▁levend	-9865
▁contain	-9866
▁werkzaam	-9867
▁gevoelens	-9868
▁omzetting	-9869
▁Disneyland	-9870
▁toegenomen	-9871
▁bijbehorende	-9872
App	-9873
vaar	-9874
78-19	-9875
▁1500	-9876
▁Juni	-9877
▁Post	-9878
gezond	-9879
ptielen	-9880
▁tennis	-9881
▁variant	-9882
▁natuurgebied	-9883
koek	-9884
arist	-9885
▁Agap	-9886
▁Pasch	-9887
ooppunt	-9888
volging	-9889
▁Figuur	-9890
▁veront	-9891
▁verval	-9892
gebleven	-9893
▁nadelen	-9894
▁stammen	-9895
▁agressie	-9896
▁beschuld	-9897
▁compleet	-9898
▁mg	-9899
-166	-9900
Echt	-9901
▁Ang	-9902
▁tol	-9903
▁var	-9904
baard	-9905
lines	-9906
▁mest	-9907
duizend	-9908
▁agenten	-9909
▁beschouwing	-9910
▁Meerkeuzevragen	-9911
▁wh	-9912
Geen	-9913
merk	-9914
▁Lut	-9915
▁cond	-9916
▁vijver	-9917
▁langere	-9918
▁Engelsen	-9919
▁rechtszaak	-9920
▁veroordeeld	-9921
gif	-9922
▁Ak	-9923
6784	-9924
▁(57	-9925
▁15.	-9926
▁Sol	-9927
beren	-9928
816784	-9929
ricten	-9930
▁Pelag	-9931
▁Venet	-9932
▁musea	-9933
▁repar	-9934
▁smelt	-9935
ochters	-9936
▁eendje	-9937
▁katoen	-9938
▁partic	-9939
▁streep	-9940
▁kwartaal	-9941
▁Marcellus	-9942
71)	-9943
lig	-9944
Moet	-9945
huid	-9946
zoon	-9947
gramm	-9948
▁lenen	-9949
aciteit	-9950
▁Taiwan	-9951
▁Overige	-9952
▁horloge	-9953
▁Paschalis	-9954
▁toevallig	-9955
▁06-2816784	-9956
▁Afghanistan	-9957
▁belangrijker	-9958
▁gebruikmaken	-9959
Re	-9960
Aan	-9961
▁ec	-9962
aarts	-9963
▁brul	-9964
esseerd	-9965
▁Latijn	-9966
▁uitein	-9967
▁journalisten	-9968
El	-9969
PS	-9970
Pro	-9971
Sam	-9972
har	-9973
mus	-9974
▁Ep	-9975
▁1848	-9976
▁song	-9977
▁aansch	-9978
▁(1503-1	-9979
▁scheiden	-9980
secretaris	-9981
▁chauffeur	-9982
▁decimalen	-9983
▁volkslied	-9984
▁verplaatst	-9985
AF	-9986
21)	-9987
Pap	-9988
empl	-9989
ynam	-9990
▁Kaz	-9991
jaren	-9992
ranen	-9993
▁Lake	-9994
▁Lisa	-9995
▁text	-9996
verlen	-9997
▁wegge	-9998
prijzen	-9999
▁aanwij	-10000
▁lampje	-10001
▁lijden	-10002
▁Mevrouw	-10003
▁bijnaam	-10004
▁strenge	-10005
▁huisdier	-10006
▁Sindsdien	-10007
Men	-10008
boy	-10009
ela	-10010
code	-10011
fase	-10012
▁1971	-10013
▁Boer	-10014
gevuld	-10015
odatus	-10016
▁Raffi	-10017
▁gener	-10018
alender	-10019
spieren	-10020
▁Damasus	-10021
▁lachend	-10022
▁Gelasius	-10023
▁Pelagius	-10024
▁bewonder	-10025
tekeningen	-10026
▁goedkoper	-10027
▁verminderen	-10028
"")	-10029
uls	-10030
sens	-10031
▁sorry	-10032
towinst	-10033
▁Marcus	-10034
▁balans	-10035
▁talent	-10036
▁allocht	-10037
▁verhogen	-10038
▁Adeodatus	-10039
▁spelletjes	-10040
-91	-10041
imp	-10042
▁NU	-10043
ofte	-10044
ureel	-10045
uurde	-10046
zijds	-10047
rikant	-10048
▁Stade	-10049
astisch	-10050
▁Kennedy	-10051
▁mobiele	-10052
▁Democraten	-10053
▁Overijssel	-10054
▁Im	-10055
▁no	-10056
003)	-10057
▁14.	-10058
aming	-10059
heven	-10060
▁Camb	-10061
igings	-10062
papier	-10063
udeerd	-10064
▁(1590	-10065
▁Vorig	-10066
verwege	-10067
deeltjes	-10068
▁bewaren	-10069
▁gelopen	-10070
▁(1187-11	-10071
▁inflatie	-10072
▁verspreiden	-10073
Ne	-10074
304)	-10075
503)	-10076
523)	-10077
isje	-10078
▁Joe	-10079
-964)	-10080
these	-10081
xamen	-10082
▁fort	-10083
▁truc	-10084
▁vent	-10085
▁(640-	-10086
centrale	-10087
▁(1590-1	-10088
▁moeders	-10089
materiaal	-10090
▁Aangezien	-10091
▁ontdekking	-10092
▁vriendinnen	-10093
IV	-10094
ée	-10095
27-8	-10096
591)	-10097
655)	-10098
itst	-10099
outh	-10100
▁10%	-10101
-896)	-10102
-897)	-10103
antel	-10104
spoor	-10105
▁(154	-10106
▁(896	-10107
▁(964	-10108
▁Vlak	-10109
▁haat	-10110
-1045)	-10111
-1241)	-10112
▁Binas	-10113
▁Frits	-10114
▁afger	-10115
▁(827-8	-10116
chloride	-10117
▁(1555-1	-10118
▁(1276-1276)	-10119
Ach	-10120
don	-10121
hulp	-10122
▁hyd	-10123
olden	-10124
▁Volk	-10125
▁econ	-10126
▁ritme	-10127
▁recept	-10128
▁rijtje	-10129
▁voegen	-10130
▁respect	-10131
sklachten	-10132
▁Opdracht	-10133
▁Vanavond	-10134
▁batterij	-10135
▁verdient	-10136
▁herstellen	-10137
▁International	-10138
▁werkgelegenheid	-10139
spe	-10140
rena	-10141
▁Rog	-10142
ouwer	-10143
▁1936	-10144
▁heus	-10145
▁klant	-10146
▁shirt	-10147
▁knieën	-10148
▁terror	-10149
▁camping	-10150
▁laagste	-10151
▁netwerk	-10152
▁verkoopt	-10153
▁47	-10154
Hong	-10155
▁Nien	-10156
▁Ties	-10157
▁Zoek	-10158
▁autor	-10159
▁buren	-10160
▁decor	-10161
▁hamer	-10162
▁tenen	-10163
▁vicep	-10164
verbruik	-10165
▁ouderen	-10166
▁06-28167842.	-10167
irec	-10168
field	-10169
▁kooi	-10170
ummies	-10171
▁draai	-10172
▁prooi	-10173
bronnen	-10174
▁spannende	-10175
▁vermoorden	-10176
▁Onderzoekers	-10177
Th	-10178
▁Geb	-10179
▁aud	-10180
▁blote	-10181
kaarten	-10182
ontwikk	-10183
▁Arthur	-10184
▁Jeroen	-10185
▁temper	-10186
▁hoorden	-10187
▁gedichten	-10188
▁stichting	-10189
▁toespraak	-10190
▁buitenkant	-10191
ité	-10192
▁Opa	-10193
▁Holl	-10194
▁Bourg	-10195
▁Bosnië	-10196
entwintig	-10197
▁verderop	-10198
▁succesvolle	-10199
Wel	-10200
ugh	-10201
rief	-10202
▁Mic	-10203
▁afk	-10204
enste	-10205
groei	-10206
horst	-10207
▁Vind	-10208
▁daad	-10209
illing	-10210
▁Recht	-10211
markten	-10212
▁Moeder	-10213
▁heksen	-10214
▁Cultuur	-10215
▁stoelen	-10216
▁woedend	-10217
▁tekenaar	-10218
▁opleveren	-10219
▁populatie	-10220
-20	-10221
ely	-10222
ello	-10223
assau	-10224
bloem	-10225
▁Blok	-10226
▁Ernie	-10227
▁Rutte	-10228
▁douche	-10229
▁ratten	-10230
▁snavel	-10231
telefoon	-10232
▁scheids	-10233
▁Tar	-10234
mende	-10235
▁erkend	-10236
▁vullen	-10237
▁verslaan	-10238
▁restaurants	-10239
cle	-10240
feder	-10241
ofoon	-10242
▁Bush	-10243
▁Rood	-10244
▁aant	-10245
▁saai	-10246
▁Breda	-10247
▁exact	-10248
▁auteur	-10249
▁leuker	-10250
spireerd	-10251
▁rechtop	-10252
▁indeling	-10253
▁Charlotte	-10254
▁bladzijde	-10255
▁verzameld	-10256
▁Provinciale	-10257
▁biologische	-10258
wal	-10259
▁tik	-10260
▁Harm	-10261
▁pomp	-10262
figuur	-10263
▁kocht	-10264
▁Paleis	-10265
▁lawaai	-10266
▁regelen	-10267
▁weigerde	-10268
▁Stichting	-10269
▁verdachte	-10270
▁Keizerrijk	-10271
▁ontwikkelings	-10272
▁('	-10273
naar	-10274
olis	-10275
▁pie	-10276
spier	-10277
wapen	-10278
▁Karl	-10279
▁Griff	-10280
▁flauw	-10281
▁omvat	-10282
▁Island	-10283
▁accept	-10284
▁flessen	-10285
▁vergader	-10286
▁Elisabeth	-10287
▁Zuidelijke	-10288
swaardigheden	-10289
pet	-10290
▁big	-10291
order	-10292
▁Leid	-10293
▁pant	-10294
▁zult	-10295
gedaan	-10296
gerecht	-10297
▁Zuider	-10298
▁smalle	-10299
▁trainer	-10300
▁1979	-10301
▁lens	-10302
▁tikt	-10303
▁miner	-10304
▁stout	-10305
▁factor	-10306
ferentie	-10307
▁Congres	-10308
▁commerc	-10309
▁luistert	-10310
▁mislukte	-10311
▁tijdperk	-10312
▁filosofie	-10313
▁rechtbank	-10314
▁verplaatsen	-10315
Mar	-10316
zag	-10317
▁Stu	-10318
niveau	-10319
▁flesje	-10320
▁indien	-10321
▁magnet	-10322
▁snaren	-10323
▁opgegeten	-10324
▁theorieën	-10325
▁gevangenen	-10326
irl	-10327
iva	-10328
▁Kunst	-10329
▁advis	-10330
▁datum	-10331
▁stick	-10332
▁stoot	-10333
nelheid	-10334
▁Colomb	-10335
▁vermen	-10336
eltelijk	-10337
▁bruggen	-10338
▁langste	-10339
▁Uitspraak	-10340
▁waarschuw	-10341
rapt	-10342
under	-10343
▁kraa	-10344
▁zolang	-10345
▁zussen	-10346
▁Florida	-10347
▁aangeduid	-10348
▁avonturen	-10349
▁schreeuwen	-10350
▁hip	-10351
▁1983	-10352
▁Cate	-10353
▁oper	-10354
▁oven	-10355
alings	-10356
▁telde	-10357
▁varia	-10358
▁spijker	-10359
▁stralen	-10360
Nederlands	-10361
▁Overigens	-10362
▁gezondheids	-10363
wn	-10364
áá	-10365
atte	-10366
daan	-10367
▁kad	-10368
▁obl	-10369
droom	-10370
▁DAAR	-10371
▁vecht	-10372
▁Politie	-10373
▁onderkant	-10374
▁geïnteresseerd	-10375
▁AD	-10376
etel	-10377
idge	-10378
▁Big	-10379
▁Son	-10380
▁Gran	-10381
▁Papa	-10382
▁begro	-10383
▁Dagmar	-10384
▁Roomse	-10385
▁bedien	-10386
▁omgaan	-10387
▁alfabet	-10388
▁uitgevonden	-10389
▁VN	-10390
eres	-10391
eense	-10392
igste	-10393
▁Cont	-10394
▁Mass	-10395
crisis	-10396
▁bloot	-10397
▁kogel	-10398
▁ploeg	-10399
▁geheugen	-10400
▁bijdragen	-10401
ić	-10402
▁It	-10403
▁aa	-10404
iens	-10405
teen	-10406
unch	-10407
▁put	-10408
weven	-10409
▁accu	-10410
edonië	-10411
▁gigant	-10412
ritorium	-10413
▁Airlines	-10414
▁brachten	-10415
▁Middeleeuwen	-10416
ti	-10417
íj	-10418
94)	-10419
agn	-10420
▁1917	-10421
▁1953	-10422
▁nier	-10423
▁Grand	-10424
▁Matth	-10425
product	-10426
▁giftige	-10427
problemen	-10428
▁gestegen	-10429
▁verliest	-10430
▁oplossingen	-10431
:00	-10432
itte	-10433
wolf	-10434
▁Bri	-10435
▁NOG	-10436
▁sto	-10437
▁duid	-10438
bonaat	-10439
lessen	-10440
ronden	-10441
▁Bosch	-10442
▁Ierse	-10443
▁debat	-10444
▁vrijk	-10445
▁uitvoer	-10446
eles	-10447
▁Cir	-10448
▁NOS	-10449
▁meel	-10450
▁Green	-10451
▁tocht	-10452
spreken	-10453
▁Lilian	-10454
▁verbouwd	-10455
▁dichtheid	-10456
avo	-10457
▁Hu	-10458
▁gif	-10459
woner	-10460
koning	-10461
zetting	-10462
▁helder	-10463
▁lampen	-10464
▁opvang	-10465
▁Legenda	-10466
▁verblijf	-10467
▁scheiding	-10468
▁mannelijke	-10469
▁Amsterdamse	-10470
▁zeventiende	-10471
KT	-10472
SC	-10473
Wh	-10474
nee	-10475
enny	-10476
▁atm	-10477
▁lar	-10478
▁non	-10479
▁Rand	-10480
▁kerm	-10481
▁slok	-10482
iaalde	-10483
▁godin	-10484
▁ruikt	-10485
▁Morgen	-10486
▁besmet	-10487
▁fouten	-10488
▁sloten	-10489
▁directie	-10490
▁straffen	-10491
zant	-10492
▁Ast	-10493
▁Dom	-10494
▁..."	-10495
▁afst	-10496
▁just	-10497
vliegt	-10498
▁omgek	-10499
afstand	-10500
▁Portuge	-10501
▁Zweedse	-10502
▁bestrijden	-10503
▁aanvankelijk	-10504
200	-10505
wek	-10506
hard	-10507
▁sla	-10508
sting	-10509
▁1924	-10510
kijken	-10511
▁gilde	-10512
seizoen	-10513
▁blazen	-10514
▁inkoop	-10515
▁warmer	-10516
▁College	-10517
▁bewijzen	-10518
▁aangebracht	-10519
zon	-10520
issa	-10521
ware	-10522
▁Kor	-10523
fgoed	-10524
▁1967	-10525
▁Tess	-10526
▁plaf	-10527
▁Jones	-10528
▁genot	-10529
avische	-10530
gangers	-10531
▁Stella	-10532
▁nation	-10533
vakantie	-10534
iaaldemoc	-10535
▁National	-10536
▁hierover	-10537
▁aardappel	-10538
fun	-10539
▁Eth	-10540
▁Jud	-10541
keten	-10542
▁Dion	-10543
▁grap	-10544
elliet	-10545
▁drukt	-10546
▁dwerg	-10547
▁lokaal	-10548
▁ruiken	-10549
▁opgesloten	-10550
▁up	-10551
▁Pip	-10552
▁1949	-10553
▁Hamil	-10554
▁bevel	-10555
▁opera	-10556
arische	-10557
onische	-10558
▁Helaas	-10559
▁duurder	-10560
▁Koninklijke	-10561
sst	-10562
▁Ev	-10563
▁li	-10564
urig	-10565
▁Kap	-10566
Frank	-10567
▁Quin	-10568
▁duwt	-10569
▁nutt	-10570
▁pind	-10571
▁arche	-10572
▁breekt	-10573
▁vleugel	-10574
▁badkamer	-10575
▁medicijn	-10576
ovo	-10577
loon	-10578
▁NRC	-10579
▁ven	-10580
besch	-10581
ijder	-10582
▁Cari	-10583
▁bijt	-10584
▁1.000	-10585
▁baasje	-10586
▁schimm	-10587
▁versterkt	-10588
▁verrassing	-10589
▁tekstbericht	-10590
AB	-10591
ila	-10592
imo	-10593
"").	-10594
seus	-10595
▁Wed	-10596
auten	-10597
immer	-10598
positie	-10599
▁Sloven	-10600
▁Bourgond	-10601
▁verwerken	-10602
▁elektrisch	-10603
▁landelijke	-10604
vergelijking	-10605
▁medewerkers	-10606
LEN	-10607
▁Sat	-10608
klier	-10609
▁1974	-10610
gevaar	-10611
verkeer	-10612
▁hoefde	-10613
▁onderd	-10614
▁Tilburg	-10615
▁aanpass	-10616
▁oftewel	-10617
▁WhatsApp	-10618
▁schulden	-10619
▁tropische	-10620
▁vakanties	-10621
▁onderzoekt	-10622
▁geïnspireerd	-10623
▁Ee	-10624
▁dem	-10625
▁etc	-10626
oegde	-10627
▁Tran	-10628
▁opst	-10629
▁wets	-10630
▁zesde	-10631
▁voornaam	-10632
▁afgenomen	-10633
HE	-10634
oca	-10635
doel	-10636
half	-10637
▁16.	-10638
azing	-10639
▁1965	-10640
▁1973	-10641
▁Riet	-10642
▁krom	-10643
▁puin	-10644
▁zint	-10645
aparte	-10646
ilderd	-10647
▁Koude	-10648
▁wraak	-10649
▁exempl	-10650
▁verter	-10651
▁dochters	-10652
▁ongelijk	-10653
▁gevechten	-10654
▁grondstoffen	-10655
ERS	-10656
uïn	-10657
▁Dr	-10658
itus	-10659
▁bod	-10660
greep	-10661
▁Vera	-10662
▁gear	-10663
rekers	-10664
▁bocht	-10665
▁coach	-10666
▁spect	-10667
▁weegt	-10668
▁ladder	-10669
▁zelfde	-10670
▁Estland	-10671
▁feesten	-10672
▁families	-10673
▁interest	-10674
▁onderling	-10675
▁Aziatische	-10676
rof	-10677
▁BL	-10678
oniak	-10679
▁1941	-10680
etisch	-10681
▁Stand	-10682
▁Nienke	-10683
▁schaar	-10684
▁tuinen	-10685
▁slechter	-10686
▁webquest	-10687
▁President	-10688
▁Wilhelmina	-10689
▁onderzoeker	-10690
ez	-10691
Uit	-10692
▁OH	-10693
acul	-10694
iech	-10695
▁Nik	-10696
▁mug	-10697
▁rob	-10698
Omdat	-10699
tegen	-10700
▁Mess	-10701
zitten	-10702
▁farao	-10703
▁strik	-10704
▁Michel	-10705
▁eitjes	-10706
▁hockey	-10707
▁slangen	-10708
▁Egyptische	-10709
▁vanochtend	-10710
dad	-10711
▁ba	-10712
aaid	-10713
▁"""	-10714
▁Cle	-10715
aking	-10716
democ	-10717
▁wrij	-10718
▁onvol	-10719
izigers	-10720
otische	-10721
▁cadeau	-10722
▁gebrek	-10723
aardigden	-10724
Nog	-10725
vak	-10726
zef	-10727
▁DU	-10728
iner	-10729
krab	-10730
▁Ari	-10731
▁Herm	-10732
▁Kiev	-10733
▁rang	-10734
▁zodra	-10735
Ierland	-10736
omenten	-10737
rachten	-10738
▁toesch	-10739
▁wissel	-10740
nemingen	-10741
▁Bonaparte	-10742
▁professor	-10743
bi	-10744
▁ɨ	-10745
eldt	-10746
etty	-10747
▁nit	-10748
undel	-10749
▁play	-10750
▁Boris	-10751
▁ophalen	-10752
▁steunen	-10753
▁Dal	-10754
Wacht	-10755
▁Thor	-10756
▁kusje	-10757
▁tweet	-10758
▁acties	-10759
▁opslag	-10760
▁dubbele	-10761
▁gelooft	-10762
▁zilveren	-10763
ografische	-10764
▁University	-10765
▁plaatsvindt	-10766
▁Ba	-10767
▁Fer	-10768
▁voe	-10769
eeper	-10770
▁1978	-10771
▁1982	-10772
itaire	-10773
▁Paris	-10774
▁afgev	-10775
izoenen	-10776
richten	-10777
▁bootje	-10778
▁stilte	-10779
▁vruchten	-10780
▁afstanden	-10781
▁categorie	-10782
▁eenvoudige	-10783
Of	-10784
▁Má	-10785
front	-10786
grote	-10787
banden	-10788
▁Samir	-10789
▁Marijn	-10790
▁pesten	-10791
▁helikopter	-10792
▁toentertijd	-10793
▁willekeurige	-10794
49	-10795
Gen	-10796
▁BB	-10797
tert	-10798
▁dia	-10799
▁mix	-10800
Sorry	-10801
meter	-10802
usten	-10803
▁1961	-10804
▁1987	-10805
▁blind	-10806
▁duwen	-10807
▁testen	-10808
▁Normaal	-10809
▁absoluut	-10810
▁gevochten	-10811
temperatuur	-10812
▁immigranten	-10813
▁vastgesteld	-10814
▁uitgestorven	-10815
TV	-10816
rië	-10817
iska	-10818
▁mad	-10819
ville	-10820
▁Club	-10821
▁Hill	-10822
▁real	-10823
makers	-10824
▁Adolf	-10825
▁banen	-10826
▁kolom	-10827
▁100.000	-10828
▁bliksem	-10829
▁campagne	-10830
▁planeten	-10831
▁vertrouw	-10832
▁temperaturen	-10833
wen	-10834
arct	-10835
▁Bou	-10836
▁box	-10837
▁lip	-10838
schaal	-10839
▁Fleur	-10840
▁feite	-10841
▁plank	-10842
voorzien	-10843
▁locomot	-10844
▁verwant	-10845
▁Hongkong	-10846
▁Latijnse	-10847
▁ammoniak	-10848
afbeelding	-10849
▁presidentschap	-10850
▁voedingsstoffen	-10851
ori	-10852
▁DAG	-10853
▁pru	-10854
foort	-10855
jamin	-10856
▁magne	-10857
ression	-10858
▁gaatje	-10859
inecraft	-10860
▁zijkant	-10861
▁Zuidoost	-10862
OOF	-10863
▁hy	-10864
Fran	-10865
▁Bor	-10866
▁Seb	-10867
▁Weg	-10868
▁qua	-10869
ienst	-10870
▁dure	-10871
▁Alpen	-10872
▁wezens	-10873
▁Airport	-10874
▁Hamilton	-10875
▁zelfstand	-10876
▁beïnvloeden	-10877
▁laboratorium	-10878
▁zwaartekracht	-10879
▁KR	-10880
EEFT	-10881
ideo	-10882
▁Dou	-10883
▁WIL	-10884
basis	-10885
iefde	-10886
▁Anim	-10887
▁mini	-10888
kampen	-10889
▁Aantal	-10890
▁klinken	-10891
▁trillen	-10892
▁Litouwen	-10893
▁Minister	-10894
▁voorjaar	-10895
▁voorraad	-10896
▁zeldzame	-10897
▁regisseur	-10898
▁competitie	-10899
▁staatshoofd	-10900
▁uitgeroepen	-10901
▁64	-10902
▁Tem	-10903
moord	-10904
▁1919	-10905
▁Leen	-10906
▁zwij	-10907
arbeid	-10908
ulling	-10909
▁Feder	-10910
▁losse	-10911
▁onsch	-10912
ementen	-10913
▁Bedenk	-10914
▁kruipen	-10915
▁versies	-10916
▁deelstaat	-10917
Ber	-10918
urb	-10919
EREN	-10920
anie	-10921
esar	-10922
▁nul	-10923
▁1977	-10924
▁Paus	-10925
iodiek	-10926
▁Jozef	-10927
▁adres	-10928
elemaal	-10929
▁Almere	-10930
▁lading	-10931
▁nadruk	-10932
schrijven	-10933
▁gezinnen	-10934
▁vriendje	-10935
▁bloeddruk	-10936
▁schreeuwt	-10937
▁middeleeuwse	-10938
yth	-10939
ardo	-10940
pret	-10941
amelijk	-10942
ialisme	-10943
▁vormde	-10944
▁eigendom	-10945
▁struiken	-10946
▁verloopt	-10947
▁verdieping	-10948
▁verschijnen	-10949
▁Ka	-10950
▁KAN	-10951
▁Maa	-10952
▁oei	-10953
arend	-10954
drank	-10955
▁Veld	-10956
▁late	-10957
houders	-10958
▁Zwolle	-10959
▁schoor	-10960
▁verwar	-10961
voorstel	-10962
▁Canadese	-10963
▁ontvangt	-10964
▁vastgelegd	-10965
ues	-10966
mach	-10967
ness	-10968
obil	-10969
▁WEL	-10970
dicht	-10971
hydro	-10972
nesium	-10973
▁fonte	-10974
rijders	-10975
▁Janine	-10976
▁gebeld	-10977
▁oceaan	-10978
▁zomers	-10979
IJD	-10980
ubb	-10981
zett	-10982
▁Bad	-10983
▁bok	-10984
inton	-10985
▁Matt	-10986
▁Taal	-10987
▁helm	-10988
klasse	-10989
▁Ander	-10990
▁Sever	-10991
▁hotels	-10992
▁mopper	-10993
▁achtste	-10994
▁Groenland	-10995
▁Mexicaanse	-10996
▁beslissing	-10997
▁uitvoering	-10998
tegenwoordig	-10999
▁bronnenboekje	-11000
▁66	-11001
arab	-11002
mund	-11003
▁kub	-11004
▁Beste	-11005
▁Grant	-11006
▁bakje	-11007
▁weder	-11008
trekken	-11009
▁Flevol	-11010
▁allang	-11011
▁dertien	-11012
▁keihard	-11013
werkelijk	-11014
▁Sommigen	-11015
▁atmosfeer	-11016
▁verbazing	-11017
▁verwijzing	-11018
box	-11019
gal	-11020
wind	-11021
▁gej	-11022
▁IIII	-11023
▁Miri	-11024
▁creë	-11025
▁zakje	-11026
▁Betrek	-11027
▁Verhaal	-11028
▁huiswerk	-11029
▁opgelucht	-11030
▁verklaarde	-11031
▁nieuwsgierig	-11032
KE	-11033
Don	-11034
ican	-11035
▁tat	-11036
steun	-11037
▁Hart	-11038
▁hoof	-11039
blazen	-11040
▁inzet	-11041
▁overgang	-11042
▁opgesteld	-11043
▁Pu	-11044
andin	-11045
▁1928	-11046
reerde	-11047
▁Fried	-11048
▁Mette	-11049
▁ofwel	-11050
eringen	-11051
weefsel	-11052
▁opname	-11053
▁zolder	-11054
▁maaltijd	-11055
ugt	-11056
▁17.	-11057
▁Kir	-11058
▁Raf	-11059
▁opd	-11060
beurt	-11061
▁haas	-11062
bedrag	-11063
▁Grond	-11064
▁Muziek	-11065
▁lezers	-11066
istratie	-11067
▁invasie	-11068
moleculen	-11069
▁toeneemt	-11070
▁Vergelijk	-11071
▁verkiezing	-11072
0,	-11073
uv	-11074
ERT	-11075
dig	-11076
▁JA	-11077
▁Sy	-11078
edel	-11079
ikkie	-11080
ymeer	-11081
▁3000	-11082
spelers	-11083
▁goedzo	-11084
▁diploma	-11085
▁grafieken	-11086
▁Desondanks	-11087
▁gebruikers	-11088
▁wereldrecord	-11089
▁aantrekkelijk	-11090
▁SN	-11091
ades	-11092
▁Rod	-11093
odoxe	-11094
▁gloe	-11095
▁klik	-11096
▁Biden	-11097
▁Tokio	-11098
▁drinkt	-11099
▁genezen	-11100
▁avontuur	-11101
▁papieren	-11102
▁schimmel	-11103
▁tijdstip	-11104
▁opvallend	-11105
▁wereldber	-11106
▁commerciële	-11107
);	-11108
erap	-11109
oods	-11110
▁Kru	-11111
...""	-11112
▁herh	-11113
▁zonen	-11114
ingsuit	-11115
▁Cyprus	-11116
▁kachel	-11117
▁padden	-11118
spanning	-11119
▁vissers	-11120
▁hiernaast	-11121
▁rechthoek	-11122
▁verkregen	-11123
▁rechtstreeks	-11124
oké	-11125
▁Loc	-11126
▁sok	-11127
▁tin	-11128
shirt	-11129
▁prik	-11130
▁baard	-11131
▁gassen	-11132
▁groeps	-11133
▁staken	-11134
▁Vincent	-11135
▁spinnen	-11136
▁vertaald	-11137
▁bevestigd	-11138
▁betreffende	-11139
▁Winterspelen	-11140
uum	-11141
▁gi	-11142
▁zó	-11143
anon	-11144
ijne	-11145
nest	-11146
phen	-11147
▁beë	-11148
okkie	-11149
▁1933	-11150
werper	-11151
▁chromos	-11152
▁ingedeeld	-11153
▁windmolen	-11154
▁Levensloop	-11155
▁conflicten	-11156
▁Od	-11157
▁ca	-11158
slam	-11159
▁Dun	-11160
▁Voed	-11161
▁Apple	-11162
▁barst	-11163
▁dankje	-11164
▁veelal	-11165
▁plafond	-11166
▁Margaret	-11167
▁voorwaarde	-11168
ny	-11169
Hou	-11170
ave	-11171
▁plus	-11172
▁wijd	-11173
▁zong	-11174
▁Zeker	-11175
hebbers	-11176
▁myster	-11177
▁uitste	-11178
apparaat	-11179
▁spellen	-11180
▁overheen	-11181
▁commissie	-11182
')	-11183
cal	-11184
cur	-11185
lok	-11186
▁GEEN	-11187
▁snor	-11188
slotte	-11189
▁draag	-11190
▁Deense	-11191
▁opgele	-11192
▁complex	-11193
▁tachtig	-11194
▁toegestaan	-11195
bek	-11196
daar	-11197
post	-11198
warm	-11199
ymen	-11200
▁hup	-11201
▁jal	-11202
▁kin	-11203
ianne	-11204
olten	-11205
roren	-11206
▁1932	-11207
▁Pont	-11208
▁sted	-11209
▁toven	-11210
▁Groene	-11211
▁Natura	-11212
▁wensen	-11213
▁wolven	-11214
▁indiaan	-11215
▁verliet	-11216
nersteden	-11217
▁bereikte	-11218
▁gepleegd	-11219
▁gestoken	-11220
elderfgoed	-11221
BE	-11222
36)	-11223
afd	-11224
kten	-11225
▁NEE	-11226
▁mal	-11227
▁tri	-11228
oclip	-11229
▁Brug	-11230
▁Maat	-11231
▁Arist	-11232
▁Byzant	-11233
▁albums	-11234
schakeld	-11235
▁special	-11236
▁tekende	-11237
▁zeehond	-11238
▁Benjamin	-11239
▁achteren	-11240
▁jarenlang	-11241
▁overeenkomsten	-11242
VI	-11243
issy	-11244
ivier	-11245
▁OVER	-11246
▁stuw	-11247
aanval	-11248
hanger	-11249
▁humor	-11250
▁duinen	-11251
▁beslist	-11252
▁buurman	-11253
▁konings	-11254
▁krediet	-11255
▁perfect	-11256
▁typisch	-11257
▁veilige	-11258
kern	-11259
ietje	-11260
▁Onaf	-11261
bellen	-11262
brandt	-11263
▁hobby	-11264
▁therm	-11265
arissen	-11266
▁Slecht	-11267
▁Klimaat	-11268
▁portret	-11269
▁staarde	-11270
carbonaat	-11271
▁schuldig	-11272
▁schoolplein	-11273
▁verschijnsel	-11274
,00	-11275
één	-11276
kund	-11277
loor	-11278
▁Rat	-11279
▁Bouw	-11280
▁Congo	-11281
▁deelt	-11282
▁Mickey	-11283
▁gevlucht	-11284
▁verlegen	-11285
▁grondwater	-11286
▁waarschuwen	-11287
▁Bab	-11288
▁DIT	-11289
▁Mur	-11290
▁Alsof	-11291
▁Carib	-11292
▁beslag	-11293
▁gelaten	-11294
▁ziektes	-11295
▁veertien	-11296
▁zeewater	-11297
▁ingenomen	-11298
▁vicepresident	-11299
▁49	-11300
reur	-11301
oosje	-11302
▁Bank	-11303
▁kauw	-11304
▁logo	-11305
istool	-11306
▁Colum	-11307
▁Wilde	-11308
▁gemat	-11309
▁spuit	-11310
elletje	-11311
▁dringen	-11312
ragmenten	-11313
▁Algemeen	-11314
▁Champions	-11315
▁mineralen	-11316
▁schoonmaken	-11317
Kn	-11318
haus	-11319
▁Day	-11320
ettig	-11321
nodig	-11322
▁Lady	-11323
▁kiez	-11324
leraar	-11325
oornis	-11326
▁gedoe	-11327
voerder	-11328
▁onderb	-11329
▁toilet	-11330
verhalen	-11331
▁kruiden	-11332
▁minimum	-11333
▁kabouter	-11334
▁sommigen	-11335
activiteit	-11336
▁rendement	-11337
▁voorhoofd	-11338
▁kunstwerken	-11339
Man	-11340
oera	-11341
uvel	-11342
▁Love	-11343
finale	-11344
▁Caesar	-11345
▁Freddy	-11346
▁koraal	-11347
vermogen	-11348
▁feestje	-11349
▁gunstig	-11350
▁keertje	-11351
▁Bespreek	-11352
▁overheer	-11353
▁zeehonden	-11354
▁Veiligheid	-11355
▁verstoppen	-11356
▁concurrentie	-11357
loc	-11358
yan	-11359
yon	-11360
verv	-11361
zuig	-11362
▁Kal	-11363
ELIJK	-11364
route	-11365
▁Jans	-11366
▁Lies	-11367
▁buig	-11368
▁Rijks	-11369
▁steeg	-11370
▁Edward	-11371
▁Staats	-11372
▁alvast	-11373
▁laagje	-11374
▁Lindsey	-11375
▁trainen	-11376
elo	-11377
▁eek	-11378
ruguay	-11379
▁Junior	-11380
▁stadhuis	-11381
▁opgevangen	-11382
▁gedeeltelijk	-11383
Me	-11384
soc	-11385
▁Hum	-11386
aliseren	-11387
olletjes	-11388
▁besteed	-11389
▁leeuwen	-11390
▁strateg	-11391
▁Vikingen	-11392
▁standpunten	-11393
ral	-11394
reng	-11395
▁BIJ	-11396
▁dis	-11397
ipper	-11398
▁1966	-11399
▁5000	-11400
▁Lars	-11401
▁dese	-11402
▁gezag	-11403
▁slijm	-11404
inkomen	-11405
▁Friese	-11406
▁consum	-11407
▁leverde	-11408
▁paardje	-11409
▁constant	-11410
▁culturen	-11411
▁Palestina	-11412
▁overheids	-11413
▁verbindingen	-11414
EM	-11415
Ter	-11416
jas	-11417
inge	-11418
▁Ama	-11419
▁Hom	-11420
Indië	-11421
brood	-11422
▁Link	-11423
▁baar	-11424
lieden	-11425
▁pakje	-11426
▁vloot	-11427
▁zieke	-11428
▁zweet	-11429
Meester	-11430
▁Vertel	-11431
▁scheur	-11432
▁uitbar	-11433
▁verbod	-11434
▁Chantal	-11435
▁Handels	-11436
▁gevoerd	-11437
▁vormden	-11438
▁Omcirkel	-11439
▁poppetje	-11440
▁Flevoland	-11441
▁onderhoud	-11442
▁gelegenheid	-11443
▁communicatie	-11444
chtendjournaal	-11445
50)	-11446
aux	-11447
▁TO	-11448
ript	-11449
▁Las	-11450
eigen	-11451
samen	-11452
scoop	-11453
▁1946	-11454
▁gilt	-11455
▁koor	-11456
streek	-11457
▁drupp	-11458
▁vleerm	-11459
▁afnemen	-11460
▁kwartier	-11461
percentage	-11462
▁Slowakije	-11463
▁redenering	-11464
edag	-11465
▁1963	-11466
▁Plan	-11467
▁anti	-11468
▁Scott	-11469
▁hitte	-11470
▁Minist	-11471
▁wangen	-11472
Kinderen	-11473
▁Formule	-11474
▁kindjes	-11475
▁smelten	-11476
▁achterna	-11477
▁processen	-11478
▁hoogtepunt	-11479
%)	-11480
Kun	-11481
hit	-11482
chem	-11483
▁Hou	-11484
▁cha	-11485
▁por	-11486
▁Hout	-11487
waarts	-11488
▁Lucht	-11489
inklijk	-11490
▁gerust	-11491
▁begrijpt	-11492
▁Eindelijk	-11493
▁Leeuwarden	-11494
▁AR	-11495
▁AZ	-11496
▁FI	-11497
▁Lam	-11498
▁Osc	-11499
aalden	-11500
▁piloot	-11501
stijging	-11502
▁advocaat	-11503
▁appelsap	-11504
▁geleverd	-11505
▁sieraden	-11506
▁vogeltje	-11507
▁produceert	-11508
▁toekomstige	-11509
▁uitzondering	-11510
▁vrijwilligers	-11511
▁besluitvorming	-11512
▁universiteiten	-11513
ll	-11514
▁bra	-11515
▁cola	-11516
▁kenn	-11517
▁prom	-11518
padden	-11519
▁Party	-11520
▁nabij	-11521
methode	-11522
▁orkest	-11523
▁demonstr	-11524
▁kalender	-11525
▁regionale	-11526
▁werkelijk	-11527
▁oprichting	-11528
▁zwangerschap	-11529
nas	-11530
▁Cu	-11531
▁Juf	-11532
▁WAS	-11533
schat	-11534
▁Show	-11535
▁nijl	-11536
mensen	-11537
oderne	-11538
▁Diana	-11539
▁Helen	-11540
▁scène	-11541
▁Duizen	-11542
▁Kosovo	-11543
▁Westen	-11544
▁editie	-11545
▁bovenaan	-11546
▁verpleeg	-11547
▁zeldzaam	-11548
med	-11549
alia	-11550
▁Nag	-11551
atiet	-11552
bloed	-11553
diend	-11554
video	-11555
▁jazz	-11556
▁vals	-11557
▁wang	-11558
delijk	-11559
eerste	-11560
sporen	-11561
unning	-11562
▁enzym	-11563
▁bezuin	-11564
▁propag	-11565
▁skelet	-11566
volgende	-11567
▁moorden	-11568
▁vierkante	-11569
▁Plotseling	-11570
wo	-11571
70)	-11572
uto	-11573
▁(=	-11574
▁4:	-11575
▁cab	-11576
visie	-11577
▁boel	-11578
graven	-11579
▁Armen	-11580
▁durfde	-11581
▁cadeaut	-11582
▁vlekken	-11583
▁eekhoorn	-11584
▁national	-11585
▁consument	-11586
▁gemeenschap	-11587
▁islamitische	-11588
▁teleurgesteld	-11589
▁belangstelling	-11590
Pa	-11591
osta	-11592
bodem	-11593
irect	-11594
reeuw	-11595
▁glij	-11596
groeid	-11597
▁goeie	-11598
vervoer	-11599
▁Social	-11600
▁rugzak	-11601
▁sinaas	-11602
▁chocola	-11603
▁gedrukt	-11604
▁gepraat	-11605
▁verdere	-11606
▁Belgisch	-11607
▁bemoeien	-11608
▁gewonden	-11609
▁ontsnapt	-11610
▁opzoeken	-11611
▁ontslagen	-11612
▁aandoening	-11613
omstandigheden	-11614
Gel	-11615
oei	-11616
▁Es	-11617
idae	-11618
wijn	-11619
▁Moh	-11620
keren	-11621
▁Gall	-11622
▁leen	-11623
▁vaas	-11624
▁zink	-11625
▁genen	-11626
▁pleeg	-11627
▁snaar	-11628
slanden	-11629
▁invest	-11630
▁piraat	-11631
▁overdag	-11632
▁trekker	-11633
▁toestand	-11634
▁instantie	-11635
▁vergroten	-11636
▁aangekomen	-11637
▁argumentatie	-11638
-1.	-11639
kat	-11640
anch	-11641
leut	-11642
rijt	-11643
wend	-11644
▁Dik	-11645
idend	-11646
▁chips	-11647
▁fotos	-11648
ilinder	-11649
▁haaien	-11650
▁illust	-11651
▁schuil	-11652
▁sector	-11653
▁tweeën	-11654
▁zestien	-11655
▁onbekende	-11656
▁seizoenen	-11657
▁speeltuin	-11658
▁gecontrole	-11659
▁slaapkamer	-11660
▁voorbereid	-11661
▁Os	-11662
▁pos	-11663
ffing	-11664
oeddh	-11665
vliet	-11666
akkers	-11667
▁bruik	-11668
▁merkte	-11669
▁scoren	-11670
▁Uruguay	-11671
▁binnenkant	-11672
▁uitgesproken	-11673
65)	-11674
Ook	-11675
fra	-11676
duur	-11677
ramp	-11678
▁Tel	-11679
beste	-11680
bosch	-11681
▁(164	-11682
▁1959	-11683
wekken	-11684
▁Elise	-11685
▁Karin	-11686
▁Vrouw	-11687
▁beton	-11688
▁dames	-11689
▁krist	-11690
▁paars	-11691
▁trend	-11692
uffrouw	-11693
▁Bergen	-11694
▁makers	-11695
▁beloofd	-11696
▁beweert	-11697
▁zandbak	-11698
▁diameter	-11699
▁overkant	-11700
▁scenario	-11701
▁verhoogd	-11702
▁Geografie	-11703
▁verzonnen	-11704
▁dagelijkse	-11705
▁beschrijven	-11706
lob	-11707
▁Ker	-11708
▁bio	-11709
ULLIE	-11710
boten	-11711
proef	-11712
▁madam	-11713
▁onzin	-11714
gevende	-11715
lopende	-11716
▁meters	-11717
▁afgezet	-11718
▁beperking	-11719
▁schadelijk	-11720
Ha	-11721
oa	-11722
IND	-11723
SEN	-11724
hij	-11725
▁Sie	-11726
achen	-11727
ijzer	-11728
▁1942	-11729
▁Verl	-11730
▁hang	-11731
baller	-11732
▁North	-11733
ersfoort	-11734
▁werkstuk	-11735
▁gepresent	-11736
▁toevoegen	-11737
▁zenuwachtig	-11738
Zie	-11739
▁lui	-11740
fiets	-11741
poten	-11742
▁Call	-11743
▁peer	-11744
▁radi	-11745
▁Moeke	-11746
chester	-11747
voetbal	-11748
▁Commun	-11749
▁mummie	-11750
resteerd	-11751
▁bewoond	-11752
▁magneet	-11753
▁zuchtte	-11754
▁nieuwste	-11755
▁vitamine	-11756
▁vervoeren	-11757
▁huishoudens	-11758
aca	-11759
kka	-11760
▁VW	-11761
▁140	-11762
arius	-11763
▁2025	-11764
inkels	-11765
▁Lange	-11766
Volgens	-11767
diagram	-11768
waardig	-11769
▁Loekie	-11770
▁duiken	-11771
▁hormoon	-11772
▁Versailles	-11773
▁uitgereikt	-11774
Rom	-11775
▁85	-11776
▁cr	-11777
pens	-11778
ïsme	-11779
▁20%	-11780
▁Fem	-11781
▁soap	-11782
bladen	-11783
elftal	-11784
parken	-11785
▁Derde	-11786
▁Lorre	-11787
▁beken	-11788
▁benad	-11789
▁broem	-11790
▁Overal	-11791
▁daling	-11792
▁downlo	-11793
▁Mariake	-11794
▁afkomst	-11795
▁vertrek	-11796
redivisie	-11797
▁bisschop	-11798
▁papegaai	-11799
▁ontmoette	-11800
▁veroverde	-11801
▁eigenschap	-11802
▁noodzakelijk	-11803
cher	-11804
hart	-11805
ktor	-11806
moed	-11807
teke	-11808
ateur	-11809
banen	-11810
wijde	-11811
▁Boek	-11812
.000,-	-11813
Duitse	-11814
stijds	-11815
▁deken	-11816
▁extre	-11817
▁Petrus	-11818
▁Pierre	-11819
▁Vorige	-11820
▁bordje	-11821
▁gestart	-11822
▁vermoed	-11823
▁besturen	-11824
▁momenten	-11825
▁vervoerd	-11826
▁monumenten	-11827
26	-11828
PEN	-11829
ques	-11830
langs	-11831
▁Lola	-11832
▁poly	-11833
anghai	-11834
platen	-11835
schild	-11836
▁Robin	-11837
aardige	-11838
▁Histor	-11839
▁Vragen	-11840
▁dijken	-11841
▁schijn	-11842
▁daaraan	-11843
▁gestemd	-11844
Hongarije	-11845
etersburg	-11846
▁Slovenië	-11847
▁groenten	-11848
▁overgebleven	-11849
▁0,0	-11850
urige	-11851
▁wolk	-11852
uliere	-11853
▁Hertog	-11854
▁grijns	-11855
▁kansen	-11856
▁aardgas	-11857
▁dialect	-11858
▁droegen	-11859
▁mompelt	-11860
ofragment	-11861
▁metingen	-11862
▁bezetting	-11863
▁hoofdstuk	-11864
▁specifieke	-11865
▁beslissingen	-11866
▁populariteit	-11867
bb	-11868
omt	-11869
▁54	-11870
▁Org	-11871
▁Pen	-11872
keurd	-11873
roeid	-11874
▁proe	-11875
▁infra	-11876
▁leken	-11877
▁stoer	-11878
▁gillen	-11879
▁kuiken	-11880
leidingen	-11881
▁gebonden	-11882
59)	-11883
6-1	-11884
akte	-11885
ecial	-11886
▁Hond	-11887
▁Adams	-11888
▁zwaait	-11889
▁ijzeren	-11890
▁schildpad	-11891
▁glimlachte	-11892
-40	-11893
ZEN	-11894
agan	-11895
geen	-11896
▁Vos	-11897
▁fee	-11898
ijven	-11899
sidie	-11900
▁Fant	-11901
▁Luna	-11902
▁Niger	-11903
▁bands	-11904
▁fijne	-11905
▁score	-11906
▁plekje	-11907
▁vereist	-11908
▁aanslagen	-11909
▁magnesium	-11910
▁verborgen	-11911
hu	-11912
sal	-11913
yer	-11914
▁ox	-11915
▁18.	-11916
▁Ale	-11917
blaas	-11918
ierde	-11919
tabel	-11920
▁knij	-11921
aarzen	-11922
▁rails	-11923
istrict	-11924
klimaat	-11925
▁command	-11926
geschoten	-11927
▁aangeven	-11928
▁reddings	-11929
▁sporters	-11930
▁regerings	-11931
▁WhatsAppje	-11932
▁middelpunt	-11933
OH	-11934
VA	-11935
95)	-11936
LDER	-11937
ical	-11938
▁fys	-11939
genen	-11940
▁1958	-11941
▁smart	-11942
▁staaf	-11943
▁Dennis	-11944
▁beesten	-11945
▁evenals	-11946
▁veronder	-11947
▁besproken	-11948
▁stadhouder	-11949
Zuid	-11950
▁50%	-11951
▁HEM	-11952
▁Zal	-11953
▁oer	-11954
▁(151	-11955
▁Dick	-11956
ieleden	-11957
wachter	-11958
▁Gerrit	-11959
▁kermis	-11960
▁uitoef	-11961
▁twijfel	-11962
▁absolute	-11963
▁Hollywood	-11964
▁neushoorn	-11965
▁Amersfoort	-11966
▁standbeeld	-11967
▁arbeidsmarkt	-11968
▁stroomsterkte	-11969
▁Wetenschappers	-11970
Oh	-11971
EEN	-11972
aim	-11973
hut	-11974
row	-11975
aarn	-11976
▁Ray	-11977
▁ach	-11978
afval	-11979
▁1938	-11980
▁Tony	-11981
▁flat	-11982
▁pool	-11983
okémon	-11984
▁HEEFT	-11985
▁diesel	-11986
▁hoopte	-11987
▁wachtte	-11988
iereiland	-11989
▁bevrucht	-11990
▁uitgever	-11991
▁vluchtte	-11992
▁zeventig	-11993
Amerikanen	-11994
▁Jefferson	-11995
▁opgehaald	-11996
geschiedenis	-11997
▁voorgesteld	-11998
▁discriminatie	-11999
UT	-12000
ng	-12001
ania	-12002
▁end	-12003
weken	-12004
▁boef	-12005
▁mech	-12006
pagina	-12007
vormig	-12008
▁JULLIE	-12009
▁Walter	-12010
▁bussen	-12011
ualiteit	-12012
▁schaats	-12013
▁hersteld	-12014
▁selectie	-12015
▁continent	-12016
▁uitgelegd	-12017
▁voorzieningen	-12018
HI	-12019
oit	-12020
▁Gi	-12021
aceb	-12022
ilen	-12023
itel	-12024
essen	-12025
lozen	-12026
▁Aard	-12027
▁lijm	-12028
▁giech	-12029
concept	-12030
▁Dekker	-12031
▁stress	-12032
▁vochten	-12033
▁bedoelde	-12034
▁daarover	-12035
▁schuiven	-12036
▁symbolen	-12037
▁dankjewel	-12038
▁gerechten	-12039
▁schilders	-12040
▁schimmels	-12041
▁kunstmatige	-12042
KER	-12043
cho	-12044
▁Gr	-12045
▁də	-12046
▁mus	-12047
.000.	-12048
▁(131	-12049
▁1929	-12050
▁snij	-12051
bewijs	-12052
hoeken	-12053
▁Swift	-12054
▁dynam	-12055
▁medel	-12056
▁oplos	-12057
instein	-12058
▁Kokkie	-12059
▁Sneeuw	-12060
▁sindsdien	-12061
▁constructie	-12062
▁gepresenteerd	-12063
▁kampioenschap	-12064
Stad	-12065
Veel	-12066
erto	-12067
hoop	-12068
▁Kas	-12069
▁kie	-12070
board	-12071
▁1957	-12072
▁Glor	-12073
▁gooi	-12074
kleding	-12075
▁Noortje	-12076
▁stevige	-12077
▁afgekort	-12078
voorzitter	-12079
▁aantallen	-12080
▁vanmorgen	-12081
alta	-12082
▁BMW	-12083
▁Gab	-12084
▁LAT	-12085
ellul	-12086
ylvan	-12087
▁Vogel	-12088
▁sling	-12089
▁riepen	-12090
▁inzicht	-12091
▁textiel	-12092
schrijver	-12093
▁aansluit	-12094
▁regeerde	-12095
VB	-12096
BEN	-12097
hok	-12098
ito	-12099
mir	-12100
▁2).	-12101
Onder	-12102
dheid	-12103
▁1955	-12104
alling	-12105
astiek	-12106
rolyse	-12107
▁Kenia	-12108
▁Jersey	-12109
▁ingest	-12110
▁pannen	-12111
▁overleg	-12112
Ochtendjournaal	-12113
▁Hor	-12114
▁rok	-12115
oebel	-12116
tocht	-12117
trein	-12118
▁Rani	-12119
▁haai	-12120
▁méér	-12121
eenvoud	-12122
▁schone	-12123
▁noemden	-12124
▁Economie	-12125
▁bombarde	-12126
▁neutraal	-12127
▁bestonden	-12128
▁aardbevingen	-12129
▁plaatselijke	-12130
▁uitgangspunt	-12131
Zeg	-12132
▁Ok	-12133
▁Tj	-12134
aska	-12135
beek	-12136
ruck	-12137
blauw	-12138
oedel	-12139
zinnig	-12140
▁reist	-12141
▁comment	-12142
▁volgden	-12143
▁Colombia	-12144
▁magische	-12145
▁technieken	-12146
GT	-12147
34)	-12148
lad	-12149
▁2-	-12150
▁To	-12151
▁Ty	-12152
obel	-12153
▁10,	-12154
aters	-12155
bevol	-12156
brief	-12157
▁Babs	-12158
▁Yous	-12159
gewoon	-12160
vinger	-12161
▁Alice	-12162
▁naald	-12163
schoten	-12164
▁Awards	-12165
▁Herman	-12166
▁strijk	-12167
▁actieve	-12168
▁koolhyd	-12169
▁ontvang	-12170
▁geslapen	-12171
▁momenteel	-12172
/0	-12173
80)	-12174
▁hi	-12175
▁700	-12176
▁Ali	-12177
▁ONS	-12178
ongel	-12179
▁alarm	-12180
▁azijn	-12181
▁Opeens	-12182
▁massap	-12183
▁schoof	-12184
▁logisch	-12185
opleiding	-12186
▁elektrom	-12187
▁toenemende	-12188
▁burgeroorlog	-12189
isp	-12190
▁1-	-12191
▁Id	-12192
eltje	-12193
ollen	-12194
toren	-12195
▁vlek	-12196
bergte	-12197
rijken	-12198
rivier	-12199
▁coron	-12200
▁ertoe	-12201
identen	-12202
kenende	-12203
▁Gegeven	-12204
▁ontvoer	-12205
▁Brinkman	-12206
▁kapitaal	-12207
▁kerstboom	-12208
▁Eredivisie	-12209
'?	-12210
WE	-12211
át	-12212
kies	-12213
▁20.	-12214
▁ram	-12215
▁1914	-12216
▁Brun	-12217
▁Vrede	-12218
energie	-12219
▁aanpak	-12220
▁giftig	-12221
▁resten	-12222
dynastie	-12223
▁vergroot	-12224
▁Buitenlandse	-12225
79	-12226
Eh	-12227
tel	-12228
▁58	-12229
belt	-12230
▁1947	-12231
▁Hoek	-12232
▁prot	-12233
▁spir	-12234
ations	-12235
oppeld	-12236
▁ellen	-12237
concent	-12238
▁Poetin	-12239
▁mieren	-12240
▁ontving	-12241
▁explosie	-12242
Heel	-12243
ited	-12244
▁130	-12245
▁WOR	-12246
niken	-12247
uiker	-12248
▁toeg	-12249
odigde	-12250
vuldig	-12251
▁Bjorn	-12252
▁gekro	-12253
▁France	-12254
▁overtu	-12255
▁uitgen	-12256
▁broodje	-12257
▁Hilversum	-12258
▁gedronken	-12259
▁katholiek	-12260
▁financieel	-12261
▁schakeling	-12262
EFA	-12263
▁6,	-12264
▁tu	-12265
plet	-12266
▁waf	-12267
Lijst	-12268
anium	-12269
waren	-12270
▁Twit	-12271
▁hete	-12272
▁zeem	-12273
▁Einde	-12274
▁blijk	-12275
▁genre	-12276
leiders	-12277
ordrecht	-12278
▁Ontstaan	-12279
▁meningen	-12280
▁verkoopprijs	-12281
Bed	-12282
rijn	-12283
eting	-12284
maals	-12285
ovina	-12286
▁Chic	-12287
▁Tijm	-12288
elkast	-12289
▁brons	-12290
branden	-12291
intendo	-12292
isseerd	-12293
▁Kazach	-12294
▁beiden	-12295
▁blokje	-12296
▁gepest	-12297
▁Dankzij	-12298
▁verwaar	-12299
▁vroegen	-12300
▁verkeers	-12301
▁ingrijpen	-12302
▁ontmoeten	-12303
▁Filipijnen	-12304
▁verstandig	-12305
▁katholieken	-12306
oï	-12307
bom	-12308
▁63	-12309
ilië	-12310
offs	-12311
▁Ban	-12312
motor	-12313
▁(158	-12314
▁Luik	-12315
▁hits	-12316
▁lijk	-12317
▁troep	-12318
▁zodan	-12319
mmingen	-12320
sproces	-12321
▁beland	-12322
▁stadje	-12323
schilder	-12324
▁Venetië	-12325
▁behoefte	-12326
▁blaadjes	-12327
▁groepjes	-12328
▁zonlicht	-12329
▁gekleurde	-12330
▁geschilderd	-12331
\'	-12332
bec	-12333
idi	-12334
▁US	-12335
last	-12336
arina	-12337
▁1954	-12338
▁Mill	-12339
▁Veen	-12340
Willem	-12341
beheer	-12342
▁dieper	-12343
▁lukken	-12344
▁veertig	-12345
▁bovenkant	-12346
▁migranten	-12347
▁verticale	-12348
▁Verstappen	-12349
▁duidelijke	-12350
▁opstelling	-12351
Russ	-12352
bact	-12353
ilio	-12354
roen	-12355
tuin	-12356
uraç	-12357
▁GEL	-12358
▁Jet	-12359
holte	-12360
▁gist	-12361
▁soft	-12362
▁Wapen	-12363
▁beurs	-12364
▁faill	-12365
▁Person	-12366
▁weefsel	-12367
▁betaalde	-12368
▁verdiend	-12369
▁Gedurende	-12370
▁variabele	-12371
▁behandelen	-12372
▁ondersteunt	-12373
▁ondersteunen	-12374
gom	-12375
▁Ah	-12376
▁hu	-12377
arta	-12378
eria	-12379
fess	-12380
tgen	-12381
▁Rico	-12382
▁Salim	-12383
▁Silver	-12384
▁slagen	-12385
geslagen	-12386
▁bedenkt	-12387
abiliteit	-12388
▁gebakken	-12389
▁rolstoel	-12390
verbinding	-12391
▁gespannen	-12392
▁communisten	-12393
▁uitgenodigd	-12394
UUR	-12395
▁Bah	-12396
▁Arch	-12397
Arabië	-12398
woning	-12399
▁bouwde	-12400
▁bevrijden	-12401
▁opgevoerd	-12402
▁onderneming	-12403
▁Partnersteden	-12404
CAR	-12405
Kan	-12406
▁oC	-12407
aplu	-12408
ston	-12409
elier	-12410
immen	-12411
▁Mand	-12412
▁Roem	-12413
▁klus	-12414
uraçao	-12415
▁kolen	-12416
generaal	-12417
▁Marloes	-12418
▁Patrick	-12419
▁Sociaal	-12420
▁medische	-12421
▁tafeltje	-12422
▁crimineel	-12423
▁onthouden	-12424
▁verbouwen	-12425
▁batterijen	-12426
▁alternatief	-12427
▁gearresteerd	-12428
gat	-12429
▁Ti	-12430
agon	-12431
edie	-12432
unes	-12433
▁lap	-12434
▁sil	-12435
itsen	-12436
▁Abra	-12437
▁Mold	-12438
▁Pass	-12439
▁Toer	-12440
blemen	-12441
iljoen	-12442
▁Music	-12443
▁Financ	-12444
▁Maaike	-12445
▁folder	-12446
▁Wilders	-12447
▁gedaald	-12448
▁kruisje	-12449
▁American	-12450
▁Republikeinen	-12451
▁maatschappelijk	-12452
UM	-12453
▁DR	-12454
ants	-12455
nood	-12456
▁Sis	-12457
▁ion	-12458
▁sms	-12459
uline	-12460
ulfaat	-12461
▁Smith	-12462
▁Straks	-12463
▁schuift	-12464
▁voldoet	-12465
▁infectie	-12466
38	-12467
82)	-12468
yle	-12469
mers	-12470
Noord	-12471
rekte	-12472
▁MIJN	-12473
reinen	-12474
▁Langs	-12475
▁Micro	-12476
▁autob	-12477
▁bruil	-12478
▁gelet	-12479
▁gemak	-12480
▁nakom	-12481
▁opent	-12482
stralen	-12483
▁Griffel	-12484
▁Letland	-12485
▁zorgden	-12486
▁Kamerlid	-12487
▁Matthijs	-12488
▁communic	-12489
▁onderver	-12490
▁dictatuur	-12491
▁baarmoeder	-12492
gh	-12493
West	-12494
enez	-12495
▁Cre	-12496
ijten	-12497
obbel	-12498
▁Azer	-12499
▁Mede	-12500
▁fasc	-12501
-1830)	-12502
onomie	-12503
▁Stuur	-12504
atieven	-12505
▁Alaska	-12506
▁Puerto	-12507
▁razend	-12508
▁bedankt	-12509
▁Hollandse	-12510
▁verrassen	-12511
▁organische	-12512
▁onvoldoende	-12513
▁verontwaard	-12514
jo	-12515
SIT	-12516
aps	-12517
▁One	-12518
▁Rud	-12519
▁Gren	-12520
▁Peel	-12521
▁Korte	-12522
▁Mieke	-12523
▁tsaar	-12524
▁pijlen	-12525
▁wanhop	-12526
▁optreedt	-12527
▁aanpassen	-12528
▁symptomen	-12529
▁werknemer	-12530
▁werkelijke	-12531
▁publiceerde	-12532
▁schoorsteen	-12533
▁Australische	-12534
▁opgeschreven	-12535
no	-12536
can	-12537
alem	-12538
▁duw	-12539
▁Ivan	-12540
▁tuut	-12541
▁Istan	-12542
▁concl	-12543
stromen	-12544
▁Justin	-12545
▁Youssef	-12546
▁dagboek	-12547
▁starten	-12548
▁verzoek	-12549
▁goedkoop	-12550
▁rechters	-12551
▁componist	-12552
▁kiesrecht	-12553
▁vriendschap	-12554
erve	-12555
irst	-12556
ixon	-12557
▁Boy	-12558
▁OOK	-12559
jaars	-12560
prins	-12561
tekst	-12562
▁Beck	-12563
▁zuig	-12564
opvang	-12565
▁Jonge	-12566
▁naged	-12567
▁schok	-12568
▁Jansen	-12569
▁bommen	-12570
▁gehand	-12571
▁patroon	-12572
▁zevende	-12573
▁Vrijheid	-12574
▁geregisseerd	-12575
Twee	-12576
ftig	-12577
vier	-12578
▁Tal	-12579
kwart	-12580
▁hant	-12581
HOLDER	-12582
▁Turks	-12583
▁afname	-12584
▁blanke	-12585
▁expres	-12586
skundige	-12587
▁gevaren	-12588
▁begrepen	-12589
▁besteden	-12590
▁pretpark	-12591
▁politieagen	-12592
▁basisscholen	-12593
▁geallieerden	-12594
EC	-12595
▁à	-12596
kie	-12597
▁CH	-12598
ulde	-12599
▁Act	-12600
▁DEN	-12601
▁VOC	-12602
▁ann	-12603
▁cer	-12604
PLACE	-12605
izers	-12606
orter	-12607
enveen	-12608
iseren	-12609
▁André	-12610
▁lelijk	-12611
▁motief	-12612
▁klappen	-12613
▁tomaten	-12614
▁behoorde	-12615
▁liberale	-12616
▁Rembrandt	-12617
▁ideologie	-12618
▁interesse	-12619
PLACEHOLDER	-12620
▁ervaringen	-12621
tia	-12622
▁95	-12623
mate	-12624
▁Som	-12625
beker	-12626
scher	-12627
▁Nijl	-12628
▁Siem	-12629
▁wenk	-12630
rempel	-12631
▁gezel	-12632
▁kroop	-12633
▁ontle	-12634
▁tempo	-12635
kenning	-12636
vrijheid	-12637
▁aankoop	-12638
▁zwaaien	-12639
▁collectie	-12640
▁kleintjes	-12641
▁hedendaagse	-12642
ova	-12643
▁5%	-12644
▁dj	-12645
AKER	-12646
unie	-12647
▁0,5	-12648
onica	-12649
▁Tijn	-12650
▁klem	-12651
Zullen	-12652
fensie	-12653
▁paras	-12654
ogingen	-12655
▁Nieuws	-12656
▁kelder	-12657
▁laarzen	-12658
▁destijds	-12659
▁opgewekt	-12660
▁vertrekt	-12661
▁liberalen	-12662
▁reptielen	-12663
▁allochtonen	-12664
▁noordoosten	-12665
▁hoofdkantoor	-12666
IR	-12667
ffe	-12668
kok	-12669
mest	-12670
▁vat	-12671
aatje	-12672
urger	-12673
▁Real	-12674
▁fram	-12675
assade	-12676
eeksel	-12677
schede	-12678
▁spion	-12679
▁geberg	-12680
▁schomm	-12681
▁bananen	-12682
▁kunststof	-12683
▁gereedschap	-12684
▁horizontale	-12685
▁Afhankelijke	-12686
iki	-12687
mbo	-12688
heil	-12689
holm	-12690
stud	-12691
▁Jup	-12692
▁eic	-12693
▁High	-12694
▁XVII	-12695
▁zakt	-12696
▁zons	-12697
▁zelden	-12698
issement	-12699
▁slakken	-12700
▁zenuwen	-12701
▁schatting	-12702
▁herinneren	-12703
▁aangehouden	-12704
▁diersoorten	-12705
▁gecontroleerd	-12706
100	-12707
▁AF	-12708
▁GT	-12709
▁Mi	-12710
uien	-12711
▁Bau	-12712
uning	-12713
▁Wend	-12714
oteles	-12715
zakken	-12716
▁Islam	-12717
▁duikt	-12718
▁irrit	-12719
▁prikk	-12720
▁Jasper	-12721
▁onweer	-12722
▁Abraham	-12723
▁munteen	-12724
▁spraken	-12725
▁ambulance	-12726
▁Israëlische	-12727
▁onafhankelijke	-12728
▁$	-12729
athan	-12730
jarig	-12731
udget	-12732
▁1912	-12733
▁1962	-12734
▁Mees	-12735
▁Mong	-12736
▁Pink	-12737
▁slak	-12738
kanker	-12739
▁Geert	-12740
▁sparen	-12741
▁zwakke	-12742
▁toestel	-12743
▁zwaaide	-12744
resultaat	-12745
▁mineraal	-12746
▁programm	-12747
▁zonnepan	-12748
▁bedreiging	-12749
▁natuurkunde	-12750
▁experimenten	-12751
▁toeschouwers	-12752
aco	-12753
▁56	-12754
fort	-12755
ifer	-12756
uild	-12757
▁Hem	-12758
▁cur	-12759
▁ier	-12760
▁Dier	-12761
▁Loes	-12762
▁ijsk	-12763
wijzer	-12764
▁Storm	-12765
▁slimme	-12766
▁Curaçao	-12767
▁bekijkt	-12768
▁klokken	-12769
rediënten	-12770
ervakantie	-12771
▁fotograaf	-12772
▁PR	-12773
▁inc	-12774
beidz	-12775
loopt	-12776
▁UEFA	-12777
▁spot	-12778
▁verp	-12779
artikel	-12780
sterven	-12781
thodoxe	-12782
▁Andrew	-12783
▁sterft	-12784
personen	-12785
▁Bestuur	-12786
▁beestje	-12787
▁onzeker	-12788
chtenstein	-12789
▁Commissie	-12790
stemperatuur	-12791
▁Aristoteles	-12792
rine	-12793
verh	-12794
▁1943	-12795
▁Ford	-12796
aantal	-12797
sprong	-12798
▁luier	-12799
tertain	-12800
▁kapper	-12801
▁fantasie	-12802
▁Friedrich	-12803
▁procenten	-12804
▁verkering	-12805
▁Scholieren	-12806
FF	-12807
fil	-12808
lag	-12809
uor	-12810
▁Do	-12811
roos	-12812
▁DDR	-12813
▁Sah	-12814
▁kne	-12815
▁Veer	-12816
▁kaal	-12817
▁step	-12818
ichaam	-12819
zender	-12820
▁sterf	-12821
▁Sander	-12822
▁atomen	-12823
▁potten	-12824
▁Maurits	-12825
▁Scandin	-12826
▁Stoebel	-12827
▁Verdrag	-12828
▁wenkbra	-12829
▁geslaagd	-12830
▁gevoelig	-12831
▁stranden	-12832
▁uitzicht	-12833
▁ingesteld	-12834
▁omgekomen	-12835
▁kolonisten	-12836
▁opgewonden	-12837
▁renaissance	-12838
OB	-12839
▁68	-12840
▁19.	-12841
▁Bus	-12842
▁ooh	-12843
hagen	-12844
iften	-12845
retje	-12846
▁hect	-12847
▁line	-12848
▁initi	-12849
zinnige	-12850
▁Noorse	-12851
▁benader	-12852
▁stortte	-12853
▁Nintendo	-12854
▁beloofde	-12855
▁kilometers	-12856
▁Handelsblad	-12857
▁vergelijkbare	-12858
▁spoorwegstation	-12859
eh	-12860
▁7,	-12861
▁bv	-12862
stap	-12863
wone	-12864
eelde	-12865
ronde	-12866
▁Kong	-12867
▁Stan	-12868
uiving	-12869
▁Costa	-12870
▁Edgar	-12871
alisatie	-12872
▁duurzame	-12873
▁inzetten	-12874
▁première	-12875
bescherming	-12876
▁astronauten	-12877
▁individuele	-12878
60)	-12879
jun	-12880
Goos	-12881
send	-12882
vuld	-12883
inson	-12884
▁1908	-12885
▁Bell	-12886
▁kale	-12887
▁kwik	-12888
kamers	-12889
person	-12890
▁Katja	-12891
▁patat	-12892
▁ideaal	-12893
▁omheen	-12894
▁ringen	-12895
▁snijdt	-12896
▁artiest	-12897
▁kleuter	-12898
▁regenen	-12899
▁aardolie	-12900
▁relaties	-12901
▁uiteinde	-12902
▁uitstoot	-12903
ontsteking	-12904
▁Inleiding	-12905
▁huisdieren	-12906
▁Palestijnse	-12907
▁waargenomen	-12908
ijff	-12909
ovig	-12910
▁Tan	-12911
ooter	-12912
▁grom	-12913
oefend	-12914
▁Blauw	-12915
▁Venez	-12916
▁broed	-12917
adelijk	-12918
▁sensor	-12919
▁vlogen	-12920
▁wennen	-12921
▁Konings	-12922
▁affiche	-12923
▁overtre	-12924
▁schelen	-12925
hydroxide	-12926
▁boomstam	-12927
▁versierd	-12928
▁Minecraft	-12929
▁presenteren	-12930
aël	-12931
ijz	-12932
Alle	-12933
lade	-12934
▁HEL	-12935
▁Ill	-12936
▁Lud	-12937
▁Nep	-12938
ittle	-12939
oniem	-12940
▁meid	-12941
ranken	-12942
▁onged	-12943
▁titels	-12944
liggende	-12945
ulturele	-12946
▁maximum	-12947
▁Justitie	-12948
▁beschikt	-12949
▁uitgezet	-12950
▁Azerbeidz	-12951
▁gelijknam	-12952
▁overtuigd	-12953
▁regenwoud	-12954
▁ontdekkingen	-12955
▁Et	-12956
▁wi	-12957
etsk	-12958
ompt	-12959
rikt	-12960
type	-12961
groot	-12962
iveer	-12963
weekt	-12964
▁Muur	-12965
▁sten	-12966
▁Marco	-12967
▁schen	-12968
Limburg	-12969
▁heftig	-12970
▁jonger	-12971
▁series	-12972
▁beluist	-12973
▁verlaat	-12974
▁handdoek	-12975
▁progressie	-12976
▁wereldwijde	-12977
▁gezondheidszorg	-12978
és	-12979
Par	-12980
roll	-12981
uper	-12982
▁Cur	-12983
stadt	-12984
ulpen	-12985
▁GOED	-12986
▁Bette	-12987
▁Willy	-12988
▁HEBBEN	-12989
▁Marcel	-12990
▁geiten	-12991
▁spring	-12992
▁vetten	-12993
▁Familie	-12994
▁opricht	-12995
▁strepen	-12996
▁Arabisch	-12997
▁winnaars	-12998
▁criminelen	-12999
▁gesprekken	-13000
▁verkrijgen	-13001
▁wolkenkrab	-13002
▁Gemeenschap	-13003
▁zomervakantie	-13004
UG	-13005
bril	-13006
uela	-13007
▁ins	-13008
Ieder	-13009
apore	-13010
▁lanc	-13011
▁Aarde	-13012
▁Trouw	-13013
▁XVIII	-13014
▁hapje	-13015
nummers	-13016
▁Dionys	-13017
▁stalen	-13018
▁waterd	-13019
elletjes	-13020
ettelijk	-13021
▁Schotse	-13022
▁gestaan	-13023
▁Chinezen	-13024
▁afzonder	-13025
▁bestrijd	-13026
▁verdacht	-13027
▁schoonheid	-13028
anje	-13029
ouwe	-13030
▁Pom	-13031
▁Wol	-13032
SITOR	-13033
reide	-13034
▁Priv	-13035
▁belt	-13036
gooien	-13037
uzalem	-13038
ventie	-13039
▁Betty	-13040
▁Stock	-13041
▁panda	-13042
VISITOR	-13043
▁Meteen	-13044
▁Studio	-13045
▁kostte	-13046
▁gaatjes	-13047
▁afleiden	-13048
▁hypothese	-13049
▁sneeuwpop	-13050
▁bestuderen	-13051
▁bestuurder	-13052
▁toneelstukken	-13053
war	-13054
etsj	-13055
oste	-13056
▁Wet	-13057
graad	-13058
▁Disc	-13059
▁Ever	-13060
angoer	-13061
▁House	-13062
▁milie	-13063
▁riool	-13064
▁artsen	-13065
▁uitgek	-13066
ermaanse	-13067
▁Maartje	-13068
▁kantine	-13069
▁muzikale	-13070
▁zwaarder	-13071
▁weergeven	-13072
▁districten	-13073
▁opvallende	-13074
SO	-13075
69)	-13076
▁57	-13077
▁62	-13078
imus	-13079
paar	-13080
▁bil	-13081
gifte	-13082
▁pech	-13083
▁teen	-13084
oederen	-13085
stemmen	-13086
pporters	-13087
▁Laurens	-13088
▁breedte	-13089
▁fractie	-13090
▁gebogen	-13091
▁ligging	-13092
▁poetsen	-13093
▁vlaggen	-13094
▁opzetten	-13095
▁vroegere	-13096
▁negentien	-13097
▁scheikunde	-13098
ni	-13099
mas	-13100
pte	-13101
▁ag	-13102
▁(51	-13103
▁veget	-13104
denking	-13105
▁Street	-13106
▁helden	-13107
▁onrust	-13108
▁enzovoort	-13109
vaardigheid	-13110
▁Franciscus	-13111
▁minderheid	-13112
▁daadwerkelijk	-13113
aq	-13114
Den	-13115
▁rak	-13116
onome	-13117
▁Vonk	-13118
▁boor	-13119
▁Vries	-13120
▁belde	-13121
▁schuif	-13122
▁vaders	-13123
▁Pokémon	-13124
▁bepaling	-13125
▁Dordrecht	-13126
PN	-13127
jov	-13128
▁sa	-13129
avan	-13130
▁Dep	-13131
▁cow	-13132
ibaar	-13133
quent	-13134
▁(157	-13135
machus	-13136
▁Ollie	-13137
▁sliep	-13138
▁bezitt	-13139
▁handje	-13140
achelijk	-13141
gedachte	-13142
▁Europap	-13143
▁kilogram	-13144
▁tropisch	-13145
▁verbeterd	-13146
▁aanhangers	-13147
▁installatie	-13148
CK	-13149
GP	-13150
SCH	-13151
idt	-13152
shof	-13153
ompen	-13154
▁isda	-13155
▁wijz	-13156
gassen	-13157
▁Nixon	-13158
▁kwestie	-13159
▁biologie	-13160
▁blijkbaar	-13161
▁Ministerie	-13162
▁supermarkten	-13163
Ex	-13164
Door	-13165
osus	-13166
▁Boe	-13167
▁Ien	-13168
▁ret	-13169
groen	-13170
popul	-13171
vrouwen	-13172
▁Gemidd	-13173
▁kruipt	-13174
historie	-13175
▁Clinton	-13176
▁lieverd	-13177
▁Maarteke	-13178
▁beschermt	-13179
▁koolhydraten	-13180
▁democratische	-13181
acy	-13182
aph	-13183
bew	-13184
▁NH	-13185
▁tj	-13186
▁roo	-13187
tract	-13188
▁Eeuw	-13189
▁harm	-13190
meisje	-13191
▁Wordt	-13192
▁rooms	-13193
▁snauw	-13194
▁Philip	-13195
▁Turken	-13196
▁bezien	-13197
▁welkom	-13198
amelijke	-13199
▁ijsbeer	-13200
▁beperken	-13201
▁docenten	-13202
▁gemaakte	-13203
28)	-13204
ril	-13205
zig	-13206
ivia	-13207
verf	-13208
▁170	-13209
▁25%	-13210
▁HOE	-13211
antje	-13212
eries	-13213
▁Prim	-13214
▁Spec	-13215
▁bijk	-13216
▁zaag	-13217
voorts	-13218
▁Hotel	-13219
▁verbl	-13220
embraan	-13221
ituatie	-13222
ributie	-13223
scholen	-13224
wekkend	-13225
▁boeddh	-13226
▁fietst	-13227
▁hoekje	-13228
▁missie	-13229
▁mooier	-13230
▁nieren	-13231
▁parach	-13232
gegevens	-13233
▁Cruijff	-13234
▁Vandaar	-13235
▁econoom	-13236
▁schoten	-13237
▁Motiveer	-13238
▁websites	-13239
▁doorsnede	-13240
▁geschoten	-13241
▁ChristenUnie	-13242
▁protestanten	-13243
▁verklaringen	-13244
▁''	-13245
▁Go	-13246
opol	-13247
▁und	-13248
elpen	-13249
▁Lord	-13250
▁isot	-13251
ibralt	-13252
▁gingt	-13253
acebook	-13254
wijfeld	-13255
zitters	-13256
▁Peking	-13257
▁durven	-13258
▁schuin	-13259
▁voeden	-13260
▁Studios	-13261
▁opkomen	-13262
ografisch	-13263
▁grappige	-13264
▁stierven	-13265
▁luchtdruk	-13266
▁zuidoosten	-13267
▁investeringen	-13268
uï	-13269
DAP	-13270
ido	-13271
via	-13272
emin	-13273
oice	-13274
▁Low	-13275
▁Zeg	-13276
▁dos	-13277
▁inb	-13278
▁san	-13279
jonge	-13280
▁riem	-13281
▁vork	-13282
enkorf	-13283
▁Emmen	-13284
▁paste	-13285
ividend	-13286
pakking	-13287
ynthese	-13288
▁zweven	-13289
▁oplever	-13290
▁stelsel	-13291
▁koelkast	-13292
▁verlopen	-13293
▁satelliet	-13294
▁steenkool	-13295
▁Katholieke	-13296
▁aardappels	-13297
▁bestemming	-13298
▁gezelschap	-13299
▁spanningen	-13300
eck	-13301
▁Kh	-13302
atar	-13303
slid	-13304
▁Hop	-13305
▁Tob	-13306
▁Tor	-13307
athon	-13308
gerei	-13309
▁Lana	-13310
▁Mach	-13311
▁wond	-13312
grepen	-13313
oestel	-13314
▁mantel	-13315
▁wormen	-13316
iljetten	-13317
▁Gibralt	-13318
▁Theater	-13319
▁blokjes	-13320
▁partner	-13321
▁gelijknamige	-13322
tz	-13323
anny	-13324
otor	-13325
▁Win	-13326
▁oke	-13327
▁ult	-13328
noten	-13329
▁Sher	-13330
appels	-13331
▁aanra	-13332
▁kwets	-13333
▁schot	-13334
▁verzw	-13335
ampagne	-13336
▁jaloers	-13337
▁pistool	-13338
▁tevoren	-13339
▁achttien	-13340
▁talenten	-13341
▁verlicht	-13342
▁bespreken	-13343
▁hypotheek	-13344
▁opgeheven	-13345
▁Heerenveen	-13346
▁presentator	-13347
imb	-13348
jev	-13349
▁ta	-13350
-140	-13351
7-11	-13352
colm	-13353
▁Mul	-13354
▁gru	-13355
ursus	-13356
▁Jess	-13357
▁Kerm	-13358
▁Piek	-13359
▁Roel	-13360
▁ment	-13361
▁toel	-13362
ganger	-13363
sector	-13364
▁Kevin	-13365
▁chaos	-13366
▁dikker	-13367
▁keeper	-13368
▁startte	-13369
▁Jeruzalem	-13370
▁vloeibaar	-13371
▁bondgenoot	-13372
▁medelijden	-13373
▁schilderde	-13374
▁uitgedrukt	-13375
▁vrijgelaten	-13376
▁plaatsgevonden	-13377
UI	-13378
Mac	-13379
UIT	-13380
-157	-13381
▁Cup	-13382
▁Ton	-13383
▁ade	-13384
CARET	-13385
▁100%	-13386
▁Dood	-13387
▁lapt	-13388
▁zwee	-13389
buiten	-13390
iseerde	-13391
▁Franco	-13392
▁creche	-13393
▁heelal	-13394
▁glijden	-13395
▁hervorm	-13396
CARETAKER	-13397
▁Algemene	-13398
▁cilinder	-13399
▁versloeg	-13400
▁Zwitserse	-13401
▁aansluiten	-13402
▁ongelukken	-13403
▁toeristische	-13404
▁Onafhankelijk	-13405
my	-13406
OUD	-13407
vet	-13408
▁Ta	-13409
▁UN	-13410
-184	-13411
alte	-13412
itut	-13413
▁Mes	-13414
aging	-13415
liber	-13416
strom	-13417
▁Fair	-13418
▁Mike	-13419
▁ontl	-13420
Donald	-13421
idders	-13422
▁friet	-13423
entegen	-13424
▁invoer	-13425
▁verward	-13426
▁zakdoek	-13427
▁ziekten	-13428
afwijking	-13429
▁uitkomen	-13430
▁verlagen	-13431
▁Gibraltar	-13432
▁zelfmoord	-13433
▁downloaden	-13434
▁klasgenoten	-13435
AST	-13436
alf	-13437
arc	-13438
cons	-13439
orta	-13440
▁How	-13441
▁LED	-13442
▁Nem	-13443
▁Pir	-13444
▁Luuk	-13445
acteur	-13446
ladesh	-13447
▁Hamas	-13448
▁heide	-13449
▁optim	-13450
▁track	-13451
▁Mohamm	-13452
▁Tevens	-13453
▁allerg	-13454
▁ernaar	-13455
▁normen	-13456
▁zeilen	-13457
▁zoenen	-13458
partijen	-13459
verschil	-13460
▁Centrum	-13461
▁grijpen	-13462
▁paraplu	-13463
▁Langzaam	-13464
▁gesloopt	-13465
▁schudden	-13466
▁verzamel	-13467
▁achteraan	-13468
▁eindexamen	-13469
▁verbranden	-13470
▁gigantische	-13471
▁munteenheid	-13472
▁kwalificatie	-13473
▁scheidsrechter	-13474
asy	-13475
avia	-13476
dans	-13477
imir	-13478
▁Mas	-13479
▁Acht	-13480
▁Zach	-13481
▁afsp	-13482
▁onth	-13483
▁paal	-13484
▁pijp	-13485
gingen	-13486
manuel	-13487
▁Malta	-13488
▁oogst	-13489
▁rozen	-13490
▁Georgië	-13491
▁Twitter	-13492
▁Verkeer	-13493
▁senator	-13494
▁ontwierp	-13495
acu	-13496
▁Au	-13497
▁Alk	-13498
▁Hay	-13499
▁Rio	-13500
▁Vis	-13501
▁(900	-13502
▁1951	-13503
▁Bast	-13504
ieland	-13505
▁brein	-13506
▁breng	-13507
▁Malcolm	-13508
▁gemengd	-13509
▁legende	-13510
Frankrijk	-13511
▁Carolina	-13512
▁Volgende	-13513
▁paspoort	-13514
▁Arabieren	-13515
▁bemanning	-13516
ministratie	-13517
▁uitvinding	-13518
ontwikkeling	-13519
▁departement	-13520
▁gezamenlijk	-13521
▁ziekenhuizen	-13522
web	-13523
6-14	-13524
loog	-13525
orps	-13526
utte	-13527
▁FIFA	-13528
▁glob	-13529
▁zoen	-13530
blijft	-13531
▁(1471	-13532
▁opget	-13533
iteiten	-13534
▁drukke	-13535
▁rotsen	-13536
aseffect	-13537
zegovina	-13538
Vlaanderen	-13539
▁aangewezen	-13540
▁schoonmaak	-13541
▁voetballers	-13542
▁familieleden	-13543
▁functioneren	-13544
▁gevangenisstraf	-13545
63)	-13546
73)	-13547
81)	-13548
."""	-13549
625)	-13550
head	-13551
▁Aru	-13552
▁rib	-13553
▁tip	-13554
Frans	-13555
▁Long	-13556
▁Pict	-13557
▁Wagen	-13558
▁drama	-13559
▁leuks	-13560
▁malen	-13561
▁verse	-13562
lijsten	-13563
▁larven	-13564
andidaat	-13565
▁aanschaf	-13566
▁lidstaten	-13567
▁werkwoord	-13568
Au	-13569
VP	-13570
ais	-13571
dit	-13572
seg	-13573
wis	-13574
fans	-13575
▁900	-13576
▁VOL	-13577
asser	-13578
fonds	-13579
storm	-13580
▁1870	-13581
▁Hass	-13582
▁gran	-13583
▁kalm	-13584
▁mete	-13585
▁weth	-13586
-1292)	-13587
ioneel	-13588
retten	-13589
udeert	-13590
▁Parag	-13591
▁opzet	-13592
stoelen	-13593
▁kernen	-13594
▁puntje	-13595
▁rommel	-13596
▁Latijns	-13597
▁Organis	-13598
▁enzymen	-13599
▁ontslag	-13600
▁afgerond	-13601
▁verkleed	-13602
▁waarover	-13603
▁historisch	-13604
▁Liechtenstein	-13605
He	-13606
OEN	-13607
dro	-13608
513)	-13609
685)	-13610
Belg	-13611
ectie	-13612
▁(129	-13613
▁(939	-13614
▁(955	-13615
▁Kelt	-13616
▁Volt	-13617
▁gira	-13618
▁zure	-13619
-1154)	-13620
-1471)	-13621
ikking	-13622
remier	-13623
uchten	-13624
▁Facebook	-13625
▁federale	-13626
▁justitie	-13627
▁elektrode	-13628
▁medailles	-13629
▁zogenaamd	-13630
tertainment	-13631
▁vervelende	-13632
concentratie	-13633
▁onderverdeeld	-13634
▁Ve	-13635
46-9	-13636
58-8	-13637
649)	-13638
707)	-13639
Even	-13640
▁Kam	-13641
-900)	-13642
-939)	-13643
-946)	-13644
24-11	-13645
57-10	-13646
elekt	-13647
rafen	-13648
stoot	-13649
zelen	-13650
▁Lenn	-13651
▁holt	-13652
▁kond	-13653
▁worm	-13654
-1057)	-13655
-1087)	-13656
-1216)	-13657
hebber	-13658
▁(1153	-13659
▁(1165	-13660
▁(1216	-13661
▁South	-13662
▁beled	-13663
▁hagel	-13664
▁paren	-13665
▁velen	-13666
46-955)	-13667
project	-13668
▁(858-8	-13669
▁Edilio	-13670
57-1058)	-13671
machines	-13672
▁(1513-1	-13673
▁(1689-1	-13674
▁genomin	-13675
▁herstel	-13676
boerderij	-13677
▁(1124-11	-13678
▁(1406-14	-13679
▁(1471-14	-13680
▁ingevuld	-13681
▁vulkanen	-13682
▁(946-955)	-13683
▁gekoppeld	-13684
▁voorloper	-13685
▁Leerlingen	-13686
▁enzovoorts	-13687
▁overdreven	-13688
▁(1057-1058)	-13689
moe	-13690
▁Sne	-13691
fluit	-13692
ilius	-13693
itair	-13694
ragon	-13695
sende	-13696
▁Slot	-13697
▁Spot	-13698
▁dame	-13699
▁enge	-13700
▁roer	-13701
atomen	-13702
▁Pasen	-13703
▁Texel	-13704
▁langd	-13705
▁visje	-13706
▁waait	-13707
eldoorn	-13708
▁Ronald	-13709
▁havens	-13710
▁koorts	-13711
▁bruiloft	-13712
▁Bevolking	-13713
▁Singapore	-13714
▁mobieltje	-13715
▁afleveringen	-13716
Ol	-13717
ody	-13718
uma	-13719
▁PL	-13720
melk	-13721
▁Vat	-13722
▁Vig	-13723
Hallo	-13724
▁1830	-13725
▁1934	-13726
▁Kron	-13727
▁perf	-13728
▁besef	-13729
▁bruto	-13730
▁netto	-13731
▁stuks	-13732
▁20.000	-13733
▁Landen	-13734
▁primaire	-13735
▁aanwezige	-13736
▁Bangladesh	-13737
▁territorium	-13738
▁aangetroffen	-13739
▁wetenschapper	-13740
fer	-13741
▁BN	-13742
▁Rik	-13743
atiek	-13744
intje	-13745
▁Bran	-13746
▁Cour	-13747
▁Naam	-13748
▁bijd	-13749
▁hooi	-13750
▁slee	-13751
vreden	-13752
▁Ellen	-13753
▁bende	-13754
▁chron	-13755
▁stuit	-13756
alingen	-13757
gelijke	-13758
▁brandt	-13759
▁ergste	-13760
▁masker	-13761
▁verven	-13762
gebergte	-13763
▁Voetbal	-13764
▁dronken	-13765
▁heftige	-13766
▁wielren	-13767
▁decimaal	-13768
▁Waddenzee	-13769
▁hertogdom	-13770
▁weggehaald	-13771
▁elektronische	-13772
▁videofragment	-13773
ër	-13774
▁78	-13775
▁MA	-13776
acte	-13777
akel	-13778
itis	-13779
want	-13780
▁110	-13781
▁Sum	-13782
rukte	-13783
szins	-13784
▁Aanv	-13785
rinken	-13786
utatie	-13787
▁Jamie	-13788
▁Wonder	-13789
▁kalium	-13790
▁mijnen	-13791
▁schuim	-13792
▁katalys	-13793
▁opgezet	-13794
▁schedel	-13795
▁Marianne	-13796
▁gesneden	-13797
▁Christian	-13798
▁leeftijds	-13799
▁uitzoeken	-13800
▁bijzonders	-13801
▁ruimtevaart	-13802
▁wetsvoorstel	-13803
▁→	-13804
rac	-13805
tent	-13806
▁Eng	-13807
▁Tib	-13808
▁set	-13809
caire	-13810
eline	-13811
▁Penn	-13812
koeken	-13813
▁Artis	-13814
▁felle	-13815
▁minst	-13816
▁spits	-13817
▁voegt	-13818
iteratuur	-13819
▁gezichten	-13820
▁verbieden	-13821
▁verzorgen	-13822
▁halverwege	-13823
▁stimuleren	-13824
▁verterings	-13825
▁aansluiting	-13826
▁instellingen	-13827
▁partijleider	-13828
Hoi	-13829
dek	-13830
igg	-13831
▁OOM	-13832
▁Beth	-13833
▁Rose	-13834
▁mang	-13835
icisme	-13836
▁(1914	-13837
▁camer	-13838
▁billen	-13839
▁spreuk	-13840
▁pootjes	-13841
▁Paraguay	-13842
▁officier	-13843
▁raketten	-13844
▁interpret	-13845
▁optredens	-13846
▁bevorderen	-13847
▁vernietigd	-13848
▁zuidwesten	-13849
GO	-13850
ETS	-13851
vij	-13852
Paul	-13853
idde	-13854
iefd	-13855
weld	-13856
rente	-13857
▁DOOR	-13858
Dummie	-13859
oghurt	-13860
ornado	-13861
▁Trans	-13862
▁afwij	-13863
▁holle	-13864
▁Alfred	-13865
▁Citeer	-13866
▁unieke	-13867
sproduct	-13868
▁inwoner	-13869
▁streven	-13870
▁Shanghai	-13871
▁indianen	-13872
▁lijsttre	-13873
▁onderaan	-13874
▁voetbalt	-13875
▁voorheen	-13876
▁vrolijke	-13877
informatie	-13878
▁luisterde	-13879
▁spectacul	-13880
▁toenmalige	-13881
▁werkgevers	-13882
▁Byzantijnse	-13883
▁bekendgemaakt	-13884
▁broeikaseffect	-13885
li	-13886
etti	-13887
uven	-13888
▁Sus	-13889
▁Tri	-13890
▁XIX	-13891
▁biz	-13892
kapje	-13893
▁Doel	-13894
▁Lijn	-13895
▁Olie	-13896
▁rups	-13897
iction	-13898
opbouw	-13899
polder	-13900
▁Messi	-13901
▁Shake	-13902
▁diende	-13903
▁halfuur	-13904
▁heuvels	-13905
▁planken	-13906
▁regeren	-13907
▁smartph	-13908
▁sprongen	-13909
▁ambtenaren	-13910
▁loonkosten	-13911
▁verdediging	-13912
▁sociaaldemoc	-13913
▁q	-13914
mede	-13915
oire	-13916
well	-13917
geest	-13918
indoe	-13919
oemie	-13920
▁Eric	-13921
complex	-13922
element	-13923
vechten	-13924
vliegen	-13925
▁schelp	-13926
▁feestdag	-13927
▁glijbaan	-13928
▁nogmaals	-13929
▁wanhopig	-13930
▁Portugese	-13931
▁vermoeden	-13932
▁voormalig	-13933
▁IJsselmeer	-13934
▁Kazachstan	-13935
▁stromingen	-13936
-60	-13937
cia	-13938
roo	-13939
▁76	-13940
aged	-13941
erts	-13942
iven	-13943
▁Zen	-13944
▁bul	-13945
oseks	-13946
▁Girl	-13947
▁Wist	-13948
nieuws	-13949
▁Belle	-13950
clusies	-13951
krachten	-13952
▁misdaad	-13953
▁onzicht	-13954
▁Pakistan	-13955
▁autosnel	-13956
▁verzorgd	-13957
▁opvoeding	-13958
▁dierenarts	-13959
▁nakomelingen	-13960
▁ongelijkheid	-13961
Hol	-13962
Lies	-13963
rock	-13964
▁WER	-13965
▁spe	-13966
range	-13967
▁1922	-13968
▁Juan	-13969
▁Winn	-13970
▁tour	-13971
▁vaat	-13972
▁veen	-13973
volgen	-13974
spellen	-13975
▁Sebast	-13976
▁bankje	-13977
▁hoogst	-13978
▁inhoudt	-13979
▁prettig	-13980
▁Williams	-13981
▁overlast	-13982
▁voordeur	-13983
▁Landschap	-13984
▁afgevoerd	-13985
▁automobil	-13986
▁Afbeelding	-13987
▁sigaretten	-13988
▁stedelijke	-13989
▁fantastisch	-13990
44)	-13991
OND	-13992
Pol	-13993
haan	-13994
▁Moz	-13995
▁fas	-13996
▁pup	-13997
▁Odys	-13998
▁piek	-13999
▁vouw	-14000
▁with	-14001
rustig	-14002
splant	-14003
▁overb	-14004
▁schol	-14005
▁basket	-14006
▁danken	-14007
▁ganzen	-14008
▁melden	-14009
▁secund	-14010
▁gordijn	-14011
▁pastoor	-14012
▁profiel	-14013
▁snelste	-14014
▁steunde	-14015
▁Kampioen	-14016
▁Waardoor	-14017
▁vertonen	-14018
▁konijntje	-14019
▁onderbouw	-14020
▁aantrekken	-14021
▁Zomerspelen	-14022
▁21.	-14023
▁Kab	-14024
aline	-14025
burger	-14026
doelen	-14027
▁jasje	-14028
▁kanton	-14029
▁onveil	-14030
▁strips	-14031
▁opnames	-14032
▁vlieger	-14033
▁wateren	-14034
ativiteit	-14035
▁haartjes	-14036
▁Instagram	-14037
▁ambassade	-14038
▁dialecten	-14039
▁plattegrond	-14040
▁hoofdgedachte	-14041
ky	-14042
ahn	-14043
odi	-14044
▁3)	-14045
▁SS	-14046
ijke	-14047
▁Ash	-14048
▁Guy	-14049
▁but	-14050
▁lek	-14051
aatst	-14052
ulsen	-14053
▁Sams	-14054
belang	-14055
voeren	-14056
▁Julia	-14057
▁State	-14058
▁Venus	-14059
uurlijk	-14060
▁Louise	-14061
▁Morris	-14062
▁abonne	-14063
▁ideale	-14064
▁poeder	-14065
▁beeldje	-14066
▁boekjes	-14067
▁dolfijn	-14068
▁plaatsv	-14069
▁carnaval	-14070
▁gekleurd	-14071
▁intussen	-14072
▁kritisch	-14073
▁monniken	-14074
sprogramma	-14075
▁tenslotte	-14076
▁ontspannen	-14077
oda	-14078
▁61	-14079
LIJK	-14080
furt	-14081
itch	-14082
▁Mem	-14083
▁Camp	-14084
▁Zapp	-14085
erijen	-14086
schoen	-14087
versch	-14088
▁Lotte	-14089
▁kader	-14090
▁parad	-14091
▁rooie	-14092
alisten	-14093
annetje	-14094
sterren	-14095
▁Record	-14096
▁robots	-14097
▁Chicago	-14098
▁beertje	-14099
▁rijkdom	-14100
aliseerde	-14101
▁tandarts	-14102
▁Venezuela	-14103
▁exemplaren	-14104
▁verzorgings	-14105
▁aanwijzingen	-14106
▁intelligentie	-14107
ump	-14108
▁Pr	-14109
cess	-14110
skan	-14111
▁Ern	-14112
▁lol	-14113
onent	-14114
varen	-14115
▁Joke	-14116
anneke	-14117
▁speur	-14118
kwartier	-14119
▁Dagblad	-14120
▁beleven	-14121
▁concept	-14122
▁elkaars	-14123
▁herkent	-14124
▁meesten	-14125
▁Leonardo	-14126
▁Mohammed	-14127
▁Moldavië	-14128
▁monsters	-14129
▁speeksel	-14130
alistische	-14131
▁eventuele	-14132
▁papiertje	-14133
▁uitvinder	-14134
▁vasteland	-14135
▁Azerbeidzjan	-14136
ko	-14137
-2-	-14138
iga	-14139
soft	-14140
▁menu	-14141
▁vmbo	-14142
▁(1721	-14143
▁Winst	-14144
▁domme	-14145
▁scout	-14146
regatie	-14147
▁Armenië	-14148
▁bewerkt	-14149
▁oordeel	-14150
▁gewenste	-14151
▁polymeer	-14152
▁stemming	-14153
▁werkblad	-14154
voorziening	-14155
▁Manchester	-14156
▁conclusies	-14157
▁bezittingen	-14158
▁evenementen	-14159
▁overgedragen	-14160
Rob	-14161
▁Pic	-14162
▁dra	-14163
▁(996	-14164
▁1923	-14165
▁Boys	-14166
▁Erik	-14167
▁Theo	-14168
▁front	-14169
▁omver	-14170
Luister	-14171
▁borden	-14172
▁nagels	-14173
▁rapper	-14174
aliseerd	-14175
oordelen	-14176
▁Dummies	-14177
▁opstaan	-14178
▁vertoon	-14179
brengsten	-14180
▁gesteund	-14181
▁individu	-14182
▁vlinders	-14183
▁container	-14184
▁capaciteit	-14185
▁informeren	-14186
▁allereerste	-14187
▁onderstaand	-14188
▁zelfstandige	-14189
hr	-14190
Tot	-14191
uun	-14192
wig	-14193
Dank	-14194
anal	-14195
merg	-14196
▁Has	-14197
▁est	-14198
▁pig	-14199
▁1937	-14200
▁Lely	-14201
▁isol	-14202
▁pres	-14203
anners	-14204
oester	-14205
▁Jules	-14206
▁Olden	-14207
▁Space	-14208
▁music	-14209
▁recre	-14210
mengsel	-14211
▁Wilson	-14212
▁stemde	-14213
▁Vooruit	-14214
▁discuss	-14215
▁Olympisch	-14216
▁tijdelijke	-14217
▁binnenlandse	-14218
vi	-14219
/90	-14220
▁Dj	-14221
Mooi	-14222
autom	-14223
azijn	-14224
overd	-14225
▁(2005	-14226
▁Molen	-14227
▁Raven	-14228
functie	-14229
▁Boeren	-14230
▁afweer	-14231
▁duivel	-14232
▁gangen	-14233
▁oproep	-14234
stations	-14235
wachting	-14236
▁Jupiter	-14237
▁druppel	-14238
▁eerdere	-14239
▁(1914-19	-14240
▁gegroeid	-14241
▁verbindt	-14242
artementen	-14243
▁exclusief	-14244
▁verhoging	-14245
▁beschouwen	-14246
▁commentaar	-14247
▁staatsgreep	-14248
▁zenuwstelsel	-14249
Gu	-14250
▁#	-14251
▁Ir	-14252
Geef	-14253
xima	-14254
▁Gez	-14255
▁Job	-14256
▁out	-14257
buurt	-14258
gaand	-14259
isser	-14260
▁Balt	-14261
▁Kath	-14262
▁Worm	-14263
▁pond	-14264
cijfer	-14265
skunde	-14266
▁Toorn	-14267
▁afwez	-14268
▁hekel	-14269
▁kopie	-14270
▁puber	-14271
▁paarse	-14272
menebest	-14273
▁fontein	-14274
▁grappen	-14275
▁kletsen	-14276
▁uitgaan	-14277
▁voertuig	-14278
▁wisselen	-14279
▁historici	-14280
▁vertaling	-14281
Nederlandse	-14282
▁handelingen	-14283
▁Braziliaanse	-14284
▁dinosauriërs	-14285
▁televisiezen	-14286
▁Informatiebron	-14287
91)	-14288
Ital	-14289
▁bag	-14290
▁	-14291
e	-14292
n	-14293
a	-14294
i	-14295
t	-14296
r	-14297
o	-14298
d	-14299
s	-14300
l	-14301
g	-14302
k	-14303
h	-14304
m	-14305
v	-14306
u	-14307
.	-14308
j	-14309
p	-14310
w	-14311
b	-14312
z	-14313
T	-14314
c	-14315
E	-14316
I	-14317
f	-14318
H	-14319
D	-14320
:	-14321
R	-14322
A	-14323
*	-14324
,	-14325
G	-14326
O	-14327
L	-14328
C	-14329
1	-14330
M	-14331
'	-14332
S	-14333
N	-14334
"	-14335
_	-14336
V	-14337
0	-14338
-	-14339
x	-14340
2	-14341
B	-14342
?	-14343
)	-14344
(	-14345
W	-14346
9	-14347
y	-14348
P	-14349
·	-14350
5	-14351
K	-14352
3	-14353
Z	-14354
4	-14355
J	-14356
8	-14357
6	-14358
7	-14359
F	-14360
!	-14361
U	-14362
ë	-14363
é	-14364
•	-14365
X	-14366
Y	-14367
/	-14368
;	-14369
%	-14370
ə	-14371
ï	-14372
&	-14373
q	-14374
+	-14375
Q	-14376
è	-14377
ó	-14378
=	-14379
á	-14380
ü	-14381
ö	-14382
í	-14383
|	-14384
]	-14385
[	-14386
\	-14387
°	-14388
ç	-14389
€	-14390
ä	-14391
É	-14392
ɑ	-14393
ɨ	-14394
ø	-14395
ɛ	-14396
ú	-14397
{	-14398
à	-14399
@	-14400
ć	-14401
$	-14402
ê	-14403
â	-14404
>	-14405
#	-14406
ñ	-14407
ô	-14408
š	-14409
→	-14410
Ö	-14411
×	-14412
а	-14413
å	-14414
ō	-14415
~	-14416
α	-14417
®	-14418
ß	-14419
ã	-14420
ı	-14421
и	-14422
ο	-14423
о	-14424
č	-14425
Ë	-14426
Å	-14427
Æ	-14428
ɘ	-14429
ا	-14430
ş	-14431
μ	-14432
⁄	-14433
ν	-14434
е	-14435
н	-14436
ς	-14437
ğ	-14438
●	-14439
đ	-14440
ʔ	-14441
←	-14442
ș	-14443
р	-14444
ل	-14445
ð	-14446
ρ	-14447
λ	-14448
ε	-14449
ι	-14450
к	-14451
ł	-14452
<	-14453
œ	-14454
τ	-14455
û	-14456
в	-14457
с	-14458
È	-14459
î	-14460
Č	-14461
л	-14462
ž	-14463
っ	-14464
±	-14465
ý	-14466
ぽ	-14467
π	-14468
Î	-14469
ă	-14470
ي	-14471
κ	-14472
Á	-14473
ò	-14474
η	-14475
σ	-14476
ū	-14477
ā	-14478
т	-14479
م	-14480
ί	-14481
♭	-14482
ن	-14483
Ó	-14484
ب	-14485
ń	-14486
д	-14487
ر	-14488
^	-14489
ì	-14490
υ	-14491
ό	-14492
−	-14493
ț	-14494
æ	-14495
ī	-14496
ぴ	-14497
Š	-14498
ά	-14499
◉	-14500
Ø	-14501
ē	-14502
ě	-14503
Ž	-14504
γ	-14505
м	-14506
θ	-14507
د	-14508
ь	-14509
†	-14510
}	-14511
Ï	-14512
ù	-14513
у	-14514
空	-14515
航	-14516
ŋ	-14517
ع	-14518
þ	-14519
έ	-14520
▲	-14521
£	-14522
Í	-14523
ω	-14524
С	-14525
й	-14526
­	-14527
Ü	-14528
و	-14529
п	-14530
ʕ	-14531
δ	-14532
س	-14533
Ç	-14534
ة	-14535
İ	-14536
А	-14537
я	-14538
َ	-14539
ė	-14540
◀	-14541
י	-14542
ー	-14543
À	-14544
ή	-14545
Ú	-14546
ś	-14547
ч	-14548
▶	-14549
Đ	-14550
і	-14551
ה	-14552
©	-14553
Ł	-14554
Ş	-14555
χ	-14556
г	-14557
ř	-14558
Ε	-14559
ح	-14560
中	-14561
б	-14562
☺	-14563
公	-14564
ż	-14565
В	-14566
ه	-14567
К	-14568
ц	-14569
ר	-14570
ế	-14571
市	-14572
ź	-14573
ǎ	-14574
β	-14575
ύ	-14576
‐	-14577
õ	-14578
ŷ	-14579
ʃ	-14580
́	-14581
ы	-14582
า	-14583
司	-14584
Π	-14585
ו	-14586
ت	-14587
▼	-14588
ę	-14589
φ	-14590
М	-14591
ร	-14592
♠	-14593
️	-14594
ɔ	-14595
Α	-14596
Н	-14597
Р	-14598
ك	-14599
♣	-14600
з	-14601
☆	-14602
♢	-14603
ą	-14604
ő	-14605
ư	-14606
Σ	-14607
ל	-14608
♡	-14609
国	-14610
子	-14611
Ω	-14612
Б	-14613
أ	-14614
ْ	-14615
琴	-14616
ħ	-14617
ʻ	-14618
א	-14619
ת	-14620
ف	-14621
大	-14622
ד	-14623
ش	-14624
ط	-14625
ق	-14626
น	-14627
ม	-14628
្	-14629
○	-14630
海	-14631
鼓	-14632
Κ	-14633
Л	-14634
П	-14635
ב	-14636
ج	-14637
人	-14638
ǐ	-14639
ζ	-14640
ώ	-14641
О	-14642
ُ	-14643
ิ	-14644
ស	-14645
太	-14646
木	-14647
Ä	-14648
Λ	-14649
ξ	-14650
ש	-14651
خ	-14652
ِ	-14653
ท	-14654
ờ	-14655
↓	-14656
♥	-14657
山	-14658
東	-14659
Ñ	-14660
ÿ	-14661
Δ	-14662
Θ	-14663
Т	-14664
ж	-14665
ш	-14666
ע	-14667
ّ	-14668
រ	-14669
ệ	-14670
√	-14671
の	-14672
三	-14673
和	-14674
方	-14675
日	-14676
¡	-14677
¥	-14678
Â	-14679
̄	-14680
ψ	-14681
Е	-14682
ח	-14683
מ	-14684
र	-14685
ớ	-14686
♒	-14687
港	-14688
西	-14689
香	-14690
Þ	-14691
Ġ	-14692
ţ	-14693
ƒ	-14694
ǒ	-14695
ǔ	-14696
Μ	-14697
Ν	-14698
Г	-14699
Ф	-14700
Ч	-14701
х	-14702
ַ	-14703
פ	-14704
ز	-14705
ی	-14706
न	-14707
ा	-14708
्	-14709
ồ	-14710
ộ	-14711
Ἀ	-14712
京	-14713
北	-14714
國	-14715
本	-14716
ů	-14717
ȟ	-14718
ё	-14719
ј	-14720
ם	-14721
ص	-14722
ย	-14723
เ	-14724
ậ	-14725
ἀ	-14726
ἄ	-14727
⁠	-14728
♫	-14729
✯	-14730
い	-14731
ジ	-14732
ス	-14733
上	-14734
地	-14735
州	-14736
有	-14737
民	-14738
胡	-14739
限	-14740
이	-14741
§	-14742
Ō	-14743
Ś	-14744
̈	-14745
Γ	-14746
Τ	-14747
Х	-14748
ֶ	-14749
ג	-14750
נ	-14751
ٱ	-14752
ด	-14753
บ	-14754
พ	-14755
ะ	-14756
Ḥ	-14757
ạ	-14758
ề	-14759
≤	-14760
た	-14761
め	-14762
ン	-14763
东	-14764
南	-14765
道	-14766
÷	-14767
ŏ	-14768
Ż	-14769
ơ	-14770
ʿ	-14771
Ι	-14772
Д	-14773
ї	-14774
ְ	-14775
ִ	-14776
ּ	-14777
غ	-14778
ल	-14779
ी	-14780
ห	-14781
គ	-14782
ែ	-14783
ấ	-14784
ắ	-14785
▪	-14786
►	-14787
ト	-14788
ュ	-14789
島	-14790
澳	-14791
甘	-14792
紫	-14793
線	-14794
野	-14795
金	-14796
Ā	-14797
ľ	-14798
ʀ	-14799
ˈ	-14800
ː	-14801
Β	-14802
Φ	-14803
ָ	-14804
ֹ	-14805
إ	-14806
ث	-14807
त	-14808
म	-14809
จ	-14810
ช	-14811
ล	-14812
ა	-14813
ខ	-14814
ễ	-14815
ố	-14816
ὄ	-14817
ὐ	-14818
≥	-14819
├	-14820
█	-14821
■	-14822
✗	-14823
❤	-14824
ⴰ	-14825
ⵓ	-14826
が	-14827
き	-14828
そ	-14829
と	-14830
な	-14831
や	-14832
る	-14833
タ	-14834
ラ	-14835
ル	-14836
二	-14837
古	-14838
安	-14839
年	-14840
我	-14841
政	-14842
文	-14843
月	-14844
松	-14845
楽	-14846
生	-14847
福	-14848
菜	-14849
门	-14850
音	-14851
¿	-14852
Ê	-14853
Ô	-14854
ġ	-14855
ņ	-14856
ň	-14857
ɪ	-14858
ʉ	-14859
Χ	-14860
З	-14861
ю	-14862
є	-14863
ե	-14864
ֲ	-14865
כ	-14866
ظ	-14867
ى	-14868
ि	-14869
ो	-14870
ก	-14871
ั	-14872
ი	-14873
ក	-14874
ម	-14875
យ	-14876
ḗ	-14877
ḥ	-14878
ṃ	-14879
ṭ	-14880
ị	-14881
ứ	-14882
ừ	-14883
ἤ	-14884
ὀ	-14885
ῆ	-14886
≈	-14887
♯	-14888
ⵔ	-14889
あ	-14890
せ	-14891
ど	-14892
ん	-14893
ツ	-14894
ナ	-14895
ニ	-14896
会	-14897
共	-14898
名	-14899
城	-14900
川	-14901
新	-14902
明	-14903
李	-14904
格	-14905
正	-14906
武	-14907
江	-14908
治	-14909
琵	-14910
琶	-14911
田	-14912
締	-14913
美	-14914
老	-14915
華	-14916
行	-14917
記	-14918
貴	-14919
門	-14920
🏆	-14921
😄	-14922
¢	-14923
Ò	-14924
Ć	-14925
Ċ	-14926
ĕ	-14927
ĩ	-14928
Œ	-14929
ŭ	-14930
ʾ	-14931
͡	-14932
Ό	-14933
Ύ	-14934
Ο	-14935
ϊ	-14936
І	-14937
Ј	-14938
Я	-14939
ф	-14940
ր	-14941
ן	-14942
ס	-14943
ܐ	-14944
क	-14945
ध	-14946
प	-14947
स	-14948
ข	-14949
ธ	-14950
ภ	-14951
อ	-14952
ี	-14953
ุ	-14954
โ	-14955
ไ	-14956
ํ	-14957
າ	-14958
რ	-14959
ព	-14960
ា	-14961
ី	-14962
ៃ	-14963
ំ	-14964
៉	-14965
ầ	-14966
ữ	-14967
Ἐ	-14968
ῦ	-14969
›	-14970
⃣	-14971
♂	-14972
♪	-14973
⠇	-14974
ⴱ	-14975
ⵉ	-14976
ⵎ	-14977
ⵏ	-14978
。	-14979
こ	-14980
で	-14981
ふ	-14982
ま	-14983
ら	-14984
り	-14985
わ	-14986
イ	-14987
シ	-14988
メ	-14989
ロ	-14990
・	-14991
世	-14992
丸	-14993
仁	-14994
付	-14995
份	-14996
克	-14997
円	-14998
勇	-14999
勝	-15000
化	-15001
匹	-15002
华	-15003
原	-15004
合	-15005
四	-15006
在	-15007
士	-15008
夫	-15009
失	-15010
好	-15011
宗	-15012
富	-15013
小	-15014
岡	-15015
平	-15016
弦	-15017
斗	-15018
曲	-15019
林	-15020
泉	-15021
皇	-15022
皮	-15023
私	-15024
秦	-15025
箏	-15026
絃	-15027
股	-15028
芭	-15029
贵	-15030
遊	-15031
部	-15032
都	-15033
間	-15034
阮	-15035
鹿	-15036
黄	-15037
가	-15038
방	-15039
아	-15040
한	-15041
🇳	-15042
😂	-15043
😅	-15044
😭	-15045
😳	-15046
🚨	-15047
Ð	-15048
ċ	-15049
Ď	-15050
į	-15051
Ľ	-15052
ŝ	-15053
ų	-15054
Ź	-15055
Ɔ	-15056
ǧ	-15057
ɡ	-15058
ˌ	-15059
̊	-15060
Ρ	-15061
Υ	-15062
И	-15063
У	-15064
Ц	-15065
Ш	-15066
Э	-15067
щ	-15068
ъ	-15069
љ	-15070
њ	-15071
Հ	-15072
ա	-15073
յ	-15074
ն	-15075
ֵ	-15076
ׂ	-15077
ץ	-15078
צ	-15079
ء	-15080
آ	-15081
މ	-15082
ަ	-15083
ग	-15084
च	-15085
ज	-15086
द	-15087
ह	-15088
े	-15089
ర	-15090
ా	-15091
్	-15092
ค	-15093
ง	-15094
ต	-15095
ส	-15096
ู	-15097
้	-15098
་	-15099
ာ	-15100
ლ	-15101
ნ	-15102
უ	-15103
ქ	-15104
ដ	-15105
ន	-15106
ប	-15107
ភ	-15108
ល	-15109
ឹ	-15110
ុ	-15111
ḃ	-15112
ḋ	-15113
ṣ	-15114
ẞ	-15115
ả	-15116
ẫ	-15117
ἥ	-15118
ἰ	-15119
Ἰ	-15120
ῶ	-15121
‍	-15122
⁣	-15123
₡	-15124
₩	-15125
↑	-15126
∞	-15127
◎	-15128
♦	-15129
✍	-15130
❗	-15131
⠑	-15132
⠠	-15133
⧼	-15134
⧽	-15135
ⵜ	-15136
う	-15137
か	-15138
け	-15139
ご	-15140
さ	-15141
し	-15142
だ	-15143
は	-15144
ば	-15145
ろ	-15146
ア	-15147
カ	-15148
コ	-15149
サ	-15150
ズ	-15151
ゼ	-15152
ブ	-15153
プ	-15154
ミ	-15155
ヨ	-15156
一	-15157
七	-15158
乌	-15159
九	-15160
井	-15161
代	-15162
仮	-15163
伝	-15164
何	-15165
你	-15166
元	-15167
光	-15168
凡	-15169
出	-15170
功	-15171
动	-15172
動	-15173
台	-15174
史	-15175
味	-15176
园	-15177
園	-15178
圓	-15179
夏	-15180
天	-15181
奚	-15182
奥	-15183
奧	-15184
女	-15185
妈	-15186
字	-15187
孙	-15188
季	-15189
学	-15190
孫	-15191
客	-15192
尾	-15193
币	-15194
帝	-15195
幣	-15196
幸	-15197
广	-15198
府	-15199
建	-15200
式	-15201
微	-15202
徽	-15203
快	-15204
悟	-15205
拍	-15206
放	-15207
斜	-15208
星	-15209
景	-15210
智	-15211
柳	-15212
校	-15213
横	-15214
歌	-15215
毛	-15216
水	-15217
決	-15218
河	-15219
法	-15220
泰	-15221
津	-15222
浜	-15223
清	-15224
湖	-15225
湘	-15226
潟	-15227
片	-15228
物	-15229
特	-15230
王	-15231
瓜	-15232
畿	-15233
白	-15234
皖	-15235
県	-15236
石	-15237
社	-15238
神	-15239
祥	-15240
禁	-15241
笙	-15242
粤	-15243
红	-15244
義	-15245
联	-15246
聖	-15247
自	-15248
花	-15249
英	-15250
葉	-15251
虎	-15252
蛇	-15253
詩	-15254
語	-15255
谢	-15256
貝	-15257
車	-15258
运	-15259
送	-15260
造	-15261
運	-15262
鈴	-15263
鉦	-15264
長	-15265
长	-15266
関	-15267
阿	-15268
陽	-15269
静	-15270
非	-15271
面	-15272
風	-15273
飲	-15274
高	-15275
鹏	-15276
黃	-15277
黔	-15278
龍	-15279
게	-15280
나	-15281
대	-15282
락	-15283
목	-15284
민	-15285
복	-15286
빈	-15287
산	-15288
서	-15289
수	-15290
스	-15291
어	-15292
오	-15293
울	-15294
정	-15295
주	-15296
진	-15297
창	-15298
투	-15299
현	-15300
🇱	-15301
👊	-15302
📺	-15303
😀	-15304
😱	-15305
🙏	-15306
🤯	-15307
¤	-15308
¬	-15309
Ý	-15310
Ă	-15311
Ą	-15312
Ę	-15313
ĝ	-15314
Ģ	-15315
ĥ	-15316
Ħ	-15317
Ī	-15318
ĭ	-15319
Ķ	-15320
ĺ	-15321
Ļ	-15322
ļ	-15323
Ń	-15324
Ņ	-15325
Ŝ	-15326
ť	-15327
Ū	-15328
ŵ	-15329
ǖ	-15330
ǜ	-15331
Ǻ	-15332
ǿ	-15333
Ș	-15334
Ȟ	-15335
ɕ	-15336
ɣ	-15337
ɬ	-15338
ɹ	-15339
ʊ	-15340
ʖ	-15341
̃	-15342
̆	-15343
̌	-15344
̱	-15345
͜	-15346
Ζ	-15347
Η	-15348
Ξ	-15349
Ψ	-15350
Ж	-15351
э	-15352
ћ	-15353
ў	-15354
ҫ	-15355
ү	-15356
ҳ	-15357
Ҷ	-15358
ҷ	-15359
դ	-15360
ׁ	-15361
ט	-15362
،	-15363
ئ	-15364
ذ	-15365
ض	-15366
ٌ	-15367
ٍ	-15368
ٔ	-15369
پ	-15370
چ	-15371
ک	-15372
ڬ	-15373
ܙ	-15374
ܝ	-15375
ܠ	-15376
ܢ	-15377
ܦ	-15378
އ	-15379
ލ	-15380
ސ	-15381
ޤ	-15382
ާ	-15383
ީ	-15384
ު	-15385
ް	-15386
ं	-15387
ः	-15388
ए	-15389
घ	-15390
ट	-15391
ड	-15392
ण	-15393
ब	-15394
य	-15395
व	-15396
श	-15397
़	-15398
ै	-15399
ौ	-15400
ॐ	-15401
৲	-15402
৳	-15403
చ	-15404
న	-15405
మ	-15406
ి	-15407
ณ	-15408
ถ	-15409
ป	-15410
ฤ	-15411
ว	-15412
ศ	-15413
ษ	-15414
แ	-15415
ใ	-15416
็	-15417
่	-15418
ຂ	-15419
ຄ	-15420
ນ	-15421
ພ	-15422
ມ	-15423
ລ	-15424
ວ	-15425
ສ	-15426
ິ	-15427
ແ	-15428
ཁ	-15429
ང	-15430
ར	-15431
ོ	-15432
ྫ	-15433
စ	-15434
ဗ	-15435
မ	-15436
დ	-15437
ე	-15438
ვ	-15439
თ	-15440
მ	-15441
ო	-15442
ტ	-15443
შ	-15444
በ	-15445
ና	-15446
ገ	-15447
ᐃ	-15448
ᑎ	-15449
ᑐ	-15450
ᑦ	-15451
ᒃ	-15452
ᓄ	-15453
᛫	-15454
᛬	-15455
᛭	-15456
ឃ	-15457
ង	-15458
ច	-15459
ឆ	-15460
ឌ	-15461
ទ	-15462
ធ	-15463
វ	-15464
ឡ	-15465
អ	-15466
ួ	-15467
ើ	-15468
ៀ	-15469
េ	-15470
ោ	-15471
ḏ	-15472
ḷ	-15473
Ṁ	-15474
ṁ	-15475
ṇ	-15476
Ấ	-15477
ẽ	-15478
ọ	-15479
ợ	-15480
ủ	-15481
ỳ	-15482
Ἁ	-15483
ἔ	-15484
Ἑ	-15485
ἡ	-15486
Ἤ	-15487
ἱ	-15488
Ἶ	-15489
ὁ	-15490
ὅ	-15491
ὑ	-15492
ὕ	-15493
Ὠ	-15494
ὺ	-15495
ῃ	-15496
ῇ	-15497
ῖ	-15498
ῥ	-15499
ῷ	-15500
‬	-15501
₤	-15502
₪	-15503
₫	-15504
₮	-15505
₯	-15506
₱	-15507
₴	-15508
₵	-15509
₺	-15510
₽	-15511
⃰	-15512
℧	-15513
↔	-15514
≡	-15515
⏰	-15516
│	-15517
◢	-15518
◤	-15519
☄	-15520
★	-15521
☲	-15522
♀	-15523
♘	-15524
♧	-15525
⚡	-15526
⚥	-15527
⚪	-15528
✂	-15529
✔	-15530
❀	-15531
➡	-15532
⠀	-15533
⠅	-15534
⠓	-15535
⠢	-15536
⠻	-15537
⬅	-15538
ⴻ	-15539
ⴽ	-15540
ⵍ	-15541
ⵖ	-15542
ⵛ	-15543
ⵢ	-15544
〜	-15545
お	-15546
く	-15547
ざ	-15548
ず	-15549
ち	-15550
に	-15551
ひ	-15552
ぺ	-15553
も	-15554
れ	-15555
ィ	-15556
オ	-15557
ガ	-15558
キ	-15559
グ	-15560
ソ	-15561
ヂ	-15562
デ	-15563
ド	-15564
ノ	-15565
バ	-15566
ビ	-15567
ベ	-15568
ボ	-15569
ャ	-15570
ョ	-15571
リ	-15572
ワ	-15573
丁	-15574
下	-15575
专	-15576
业	-15577
个	-15578
主	-15579
义	-15580
亀	-15581
了	-15582
五	-15583
今	-15584
仙	-15585
们	-15586
住	-15587
佑	-15588
作	-15589
価	-15590
修	-15591
先	-15592
児	-15593
八	-15594
具	-15595
典	-15596
再	-15597
军	-15598
凯	-15599
分	-15600
刊	-15601
列	-15602
別	-15603
别	-15604
制	-15605
前	-15606
剪	-15607
[...]
