<pad>	0
<unk>	0
<s>	0
</s>	0
[PAD]	0
[UNK]	0
[CLS]	0
[SEP]	0
[MASK]	0
en	-0
er	-1
▁d	-2
an	-3
▁v	-4
et	-5
▁h	-6
in	-7
el	-8
ij	-9
▁de	-10
aa	-11
▁o	-12
st	-13
▁w	-14
▁m	-15
or	-16
▁z	-17
▁g	-18
▁b	-19
▁e	-20
ie	-21
ch	-22
▁t	-23
at	-24
▁*	-25
▁k	-26
▁n	-27
aar	-28
is	-29
▁a	-30
▁een	-31
▁van	-32
on	-33
▁en	-34
▁het	-35
it	-36
oor	-37
▁in	-38
ee	-39
▁j	-40
oe	-41
den	-42
der	-43
▁D	-44
▁ge	-45
de	-46
▁s	-47
▁l	-48
gen	-49
▁p	-50
▁is	-51
CH	-52
LD	-53
CHI	-54
ET	-55
CHILD	-56
AR	-57
al	-58
GET	-59
TAR	-60
TARGET	-61
ro	-62
▁op	-63
ar	-64
ing	-65
ijn	-66
ken	-67
cht	-68
re	-69
▁st	-70
le	-71
ik	-72
om	-73
▁H	-74
▁be	-75
▁ver	-76
ge	-77
▁te	-78
il	-79
ol	-80
ijk	-81
eer	-82
and	-83
▁dat	-84
iet	-85
▁al	-86
am	-87
ou	-88
▁I	-89
uit	-90
ER	-91
as	-92
ur	-93
je	-94
▁voor	-95
▁De	-96
▁ze	-97
▁je	-98
▁zijn	-99
▁met	-100
▁B	-101
▁(	-102
TH	-103
THER	-104
▁1	-105
▁A	-106
eel	-107
ig	-108
oo	-109
▁E	-110
▁S	-111
te	-112
ver	-113
us	-114
▁M	-115
▁die	-116
aat	-117
id	-118
OTHER	-119
▁er	-120
ok	-121
MOTHER	-122
▁aan	-123
un	-124
▁'	-125
▁on	-126
ot	-127
▁he	-128
▁N	-129
▁niet	-130
ra	-131
ier	-132
ven	-133
▁uit	-134
▁V	-135
▁"	-136
og	-137
▁·	-138
▁wor	-139
▁W	-140
aan	-141
sch	-142
▁T	-143
ten	-144
▁G	-145
▁O	-146
AT	-147
xx	-148
ST	-149
OR	-150
IN	-151
ru	-152
IG	-153
VE	-154
sen	-155
STIG	-156
ATOR	-157
VESTIG	-158
INVESTIG	-159
INVESTIGATOR	-160
▁om	-161
▁2	-162
▁wer	-163
ad	-164
▁f	-165
se	-166
aal	-167
ft	-168
▁ook	-169
▁C	-170
▁Z	-171
uw	-172
ste	-173
▁L	-174
ze	-175
▁P	-176
▁zo	-177
rij	-178
▁hij	-179
ag	-180
elijk	-181
▁K	-182
▁In	-183
▁bij	-184
▁was	-185
op	-186
▁over	-187
▁we	-188
dt	-189
ien	-190
ap	-191
▁maar	-192
▁sch	-193
oet	-194
ers	-195
▁naar	-196
▁c	-197
▁J	-198
oen	-199
kt	-200
▁ik	-201
▁dan	-202
▁als	-203
ele	-204
▁re	-205
men	-206
nen	-207
▁Het	-208
▁door	-209
▁R	-210
len	-211
▁of	-212
he	-213
▁wat	-214
ant	-215
ul	-216
uur	-217
▁ja	-218
ond	-219
▁waar	-220
ak	-221
eeft	-222
▁heb	-223
ct	-224
▁geb	-225
ingen	-226
▁r	-227
eld	-228
ang	-229
00	-230
▁le	-231
im	-232
land	-233
▁sp	-234
▁af	-235
ander	-236
ist	-237
ke	-238
▁nog	-239
."	-240
▁wel	-241
▁wordt	-242
▁onder	-243
wee	-244
eren	-245
▁heeft	-246
▁kan	-247
oed	-248
▁F	-249
▁worden	-250
▁xx	-251
▁xxx	-252
pen	-253
atie	-254
gt	-255
jes	-256
▁kun	-257
isch	-258
ic	-259
ind	-260
▁alle	-261
▁deze	-262
▁werd	-263
▁moet	-264
ent	-265
icht	-266
▁19	-267
sp	-268
▁bl	-269
acht	-270
▁daar	-271
▁dit	-272
▁meer	-273
eeld	-274
▁gro	-275
▁-	-276
▁men	-277
es	-278
ter	-279
raa	-280
roe	-281
▁kom	-282
▁ander	-283
ich	-284
elen	-285
os	-286
ed	-287
um	-288
▁haar	-289
orm	-290
ige	-291
▁hier	-292
em	-293
..	-294
ut	-295
eder	-296
oek	-297
zen	-298
ben	-299
ip	-300
een	-301
ast	-302
▁pl	-303
oord	-304
▁wil	-305
▁twee	-306
aren	-307
▁mee	-308
▁veel	-309
▁tot	-310
ijd	-311
▁(1	-312
-1	-313
▁hebben	-314
ker	-315
ia	-316
ië	-317
aten	-318
▁vol	-319
▁pro	-320
▁Al	-321
▁Neder	-322
▁ont	-323
elf	-324
▁had	-325
of	-326
iek	-327
art	-328
aak	-329
▁3	-330
▁Hij	-331
ische	-332
▁Een	-333
amen	-334
sl	-335
▁weer	-336
uk	-337
inder	-338
▁Ze	-339
lijk	-340
gel	-341
heid	-342
wer	-343
ere	-344
oon	-345
▁ma	-346
▁20	-347
ron	-348
od	-349
ies	-350
ran	-351
beeld	-352
mer	-353
▁gev	-354
.'	-355
▁Nederland	-356
▁gaat	-357
ruik	-358
sten	-359
▁zich	-360
uis	-361
▁En	-362
ine	-363
▁eer	-364
,'	-365
▁kl	-366
ouw	-367
igen	-368
▁me	-369
be	-370
▁goed	-371
ieuw	-372
▁jaar	-373
▁nee	-374
▁hoe	-375
eten	-376
▁sl	-377
we	-378
ool	-379
▁•	-380
lie	-381
▁andere	-382
rie	-383
ne	-384
▁kunnen	-385
ion	-386
af	-387
▁hem	-388
▁geen	-389
▁mensen	-390
ale	-391
uid	-392
ger	-393
▁kon	-394
▁kle	-395
ug	-396
ve	-397
rijk	-398
▁tegen	-399
ab	-400
▁ie	-401
ree	-402
▁hoo	-403
▁moe	-404
aam	-405
ir	-406
ussen	-407
▁gaan	-408
▁ter	-409
dat	-410
chter	-411
▁gem	-412
ster	-413
▁zit	-414
els	-415
▁Op	-416
onder	-417
elk	-418
ber	-419
▁St	-420
aakt	-421
▁beg	-422
▁hun	-423
voor	-424
oem	-425
▁best	-426
▁zou	-427
ui	-428
ort	-429
oc	-430
▁bet	-431
ell	-432
tje	-433
▁kw	-434
alen	-435
gens	-436
pt	-437
▁ro	-438
▁4	-439
▁nu	-440
▁staat	-441
per	-442
omen	-443
rouw	-444
▁doen	-445
anden	-446
▁toen	-447
ink	-448
▁sn	-449
ater	-450
oren	-451
▁maken	-452
bl	-453
▁nou	-454
oud	-455
▁versch	-456
▁na	-457
ide	-458
▁heel	-459
▁gew	-460
▁gebruik	-461
""	-462
ctie	-463
eef	-464
oel	-465
▁U	-466
oer	-467
II	-468
▁Er	-469
▁bed	-470
innen	-471
ank	-472
▁even	-473
▁""	-474
ite	-475
▁gen	-476
maal	-477
▁bel	-478
▁toe	-479
▁Maar	-480
▁zegt	-481
▁komt	-482
▁5	-483
omm	-484
▁man	-485
ren	-486
aard	-487
▁Dit	-488
▁waren	-489
als	-490
▁hele	-491
ieren	-492
och	-493
▁gez	-494
kst	-495
iets	-496
vol	-497
▁nieuw	-498
▁zelf	-499
onden	-500
wij	-501
ius	-502
▁Dat	-503
).	-504
▁kinder	-505
racht	-506
?'	-507
▁Ik	-508
FA	-509
fd	-510
▁jij	-511
▁weg	-512
gev	-513
▁Je	-514
▁ben	-515
▁water	-516
pl	-517
open	-518
schap	-519
▁land	-520
▁bo	-521
▁Le	-522
eed	-523
kend	-524
▁verk	-525
woord	-526
▁tijd	-527
▁elk	-528
▁201	-529
▁tussen	-530
▁lang	-531
FATHER	-532
ann	-533
▁Als	-534
uro	-535
▁ged	-536
▁grote	-537
eek	-538
ment	-539
iden	-540
elijke	-541
▁alleen	-542
raag	-543
▁gel	-544
illen	-545
▁200	-546
▁ar	-547
▁groot	-548
▁jon	-549
▁per	-550
▁mijn	-551
idd	-552
oort	-553
▁Daar	-554
▁Wik	-555
▁zei	-556
aag	-557
ma	-558
▁Sch	-559
ijden	-560
▁Ook	-561
▁Ch	-562
▁An	-563
▁krij	-564
iv	-565
bij	-566
én	-567
▁ou	-568
▁plaat	-569
▁ex	-570
▁eigen	-571
EN	-572
etje	-573
io	-574
...	-575
atuur	-576
▁zien	-577
uren	-578
tal	-579
▁komen	-580
form	-581
agen	-582
door	-583
▁kinderen	-584
▁con	-585
ac	-586
▁eerste	-587
▁Fran	-588
ocht	-589
▁ru	-590
itie	-591
▁zw	-592
▁ging	-593
▁vin	-594
ijken	-595
oog	-596
ard	-597
int	-598
▁vl	-599
▁ne	-600
▁Be	-601
▁6	-602
uc	-603
▁Ge	-604
▁mag	-605
ader	-606
▁beh	-607
eerd	-608
me	-609
ellen	-610
ff	-611
▁eens	-612
▁werk	-613
ings	-614
▁18	-615
▁Deze	-616
ust	-617
ilm	-618
▁lig	-619
▁stad	-620
ouden	-621
geven	-622
geb	-623
▁iets	-624
▁keer	-625
▁laat	-626
ucht	-627
▁ga	-628
av	-629
▁kijk	-630
▁gek	-631
▁Voor	-632
ood	-633
ri	-634
oos	-635
elt	-636
uiten	-637
▁vert	-638
▁verschillen	-639
▁werden	-640
▁é	-641
▁dus	-642
allen	-643
▁gr	-644
oot	-645
▁groe	-646
▁zoals	-647
▁samen	-648
▁Hier	-649
▁lie	-650
▁oh	-651
▁toch	-652
▁ant	-653
▁aut	-654
▁Bij	-655
ders	-656
ees	-657
res	-658
▁staan	-659
▁drie	-660
▁pol	-661
aas	-662
▁hand	-663
▁één	-664
ation	-665
▁Mar	-666
▁verb	-667
kken	-668
edia	-669
oop	-670
pe	-671
!'	-672
▁achter	-673
formatie	-674
ragen	-675
▁hoofd	-676
▁huis	-677
▁"'	-678
Ik	-679
na	-680
▁belang	-681
ert	-682
aanse	-683
▁terug	-684
▁elkaar	-685
▁u	-686
eling	-687
▁bron	-688
amer	-689
▁Sp	-690
▁zie	-691
ec	-692
uist	-693
erk	-694
▁blij	-695
oten	-696
▁Te	-697
ob	-698
all	-699
▁geh	-700
zelf	-701
ijdens	-702
oh	-703
▁7	-704
ass	-705
▁den	-706
eeds	-707
▁nieuwe	-708
▁moeten	-709
▁Y	-710
▁verschillende	-711
log	-712
▁pr	-713
van	-714
▁leven	-715
▁informatie	-716
merik	-717
age	-718
▁omdat	-719
▁oor	-720
▁dag	-721
eur	-722
▁min	-723
iteit	-724
▁gebruikt	-725
▁vaak	-726
aart	-727
▁verh	-728
▁We	-729
▁belangrijk	-730
oeken	-731
zoek	-732
ub	-733
zet	-734
▁zeg	-735
▁zitten	-736
rit	-737
▁Van	-738
gende	-739
▁kwam	-740
▁steeds	-741
▁weet	-742
ram	-743
▁echt	-744
ill	-745
oorden	-746
enn	-747
▁gemaakt	-748
▁tekst	-749
▁binnen	-750
▁8	-751
000	-752
▁kn	-753
iel	-754
pp	-755
veel	-756
▁vind	-757
aast	-758
artij	-759
ijs	-760
off	-761
▁wereld	-762
tijd	-763
ijf	-764
▁Beeld	-765
▁Euro	-766
mand	-767
▁erg	-768
▁net	-769
ina	-770
amp	-771
uz	-772
▁school	-773
▁her	-774
▁film	-775
▁II	-776
ikk	-777
ks	-778
▁Af	-779
▁verd	-780
gd	-781
▁deel	-782
▁plaats	-783
ost	-784
▁snel	-785
voorbeeld	-786
▁Ver	-787
▁X	-788
AD	-789
vl	-790
ire	-791
▁zij	-792
▁open	-793
▁tre	-794
▁besch	-795
elde	-796
wel	-797
▁vrouw	-798
▁Duit	-799
▁zal	-800
▁Wat	-801
ied	-802
ov	-803
end	-804
act	-805
au	-806
UL	-807
ep	-808
king	-809
rijf	-810
sel	-811
▁jul	-812
▁hoor	-813
▁doet	-814
huis	-815
▁Geef	-816
ong	-817
▁mil	-818
ons	-819
ama	-820
if	-821
▁10	-822
▁aantal	-823
▁auto	-824
mee	-825
kker	-826
▁Zo	-827
staan	-828
unt	-829
iz	-830
▁natuur	-831
▁kijken	-832
man	-833
erg	-834
rand	-835
eter	-836
onen	-837
oemd	-838
werp	-839
stand	-840
ult	-841
▁Amerik	-842
ULT	-843
▁hel	-844
▁stuk	-845
eken	-846
▁On	-847
ADULT	-848
▁zet	-849
▁bekend	-850
▁boek	-851
▁buiten	-852
vin	-853
ogen	-854
▁gesch	-855
▁boven	-856
baar	-857
▁ch	-858
ach	-859
elke	-860
▁afbeeld	-861
▁vinden	-862
over	-863
▁stem	-864
▁want	-865
▁ligt	-866
▁antwoord	-867
eem	-868
omp	-869
ereken	-870
org	-871
iss	-872
les	-873
ieden	-874
deel	-875
▁Hoe	-876
ow	-877
▁eerst	-878
▁vier	-879
▁Met	-880
▁vader	-881
raf	-882
ce	-883
▁allemaal	-884
akken	-885
are	-886
4)	-887
▁vrij	-888
▁vroe	-889
elling	-890
▁or	-891
▁pre	-892
komen	-893
▁pap	-894
▁vast	-895
▁verder	-896
▁nam	-897
▁helemaal	-898
▁klein	-899
▁9	-900
▁moo	-901
▁bijvoorbeeld	-902
uin	-903
▁volgende	-904
▁altijd	-905
aald	-906
assen	-907
▁prob	-908
▁Nederlandse	-909
▁weten	-910
con	-911
issch	-912
ids	-913
unten	-914
▁koning	-915
▁moeder	-916
▁hoog	-917
iguur	-918
▁ra	-919
▁gebeur	-920
ari	-921
),	-922
▁naam	-923
ay	-924
▁gl	-925
▁voet	-926
▁Vol	-927
ud	-928
igde	-929
▁Ar	-930
▁paar	-931
osten	-932
▁recht	-933
ijkt	-934
▁199	-935
▁Na	-936
▁maak	-937
rik	-938
▁Gel	-939
▁gele	-940
rag	-941
dam	-942
oeg	-943
▁welke	-944
▁grond	-945
pa	-946
▁Om	-947
▁aange	-948
eest	-949
▁landen	-950
▁mij	-951
▁ieder	-952
uizen	-953
.000	-954
.'"	-955
▁vraag	-956
▁hadden	-957
▁ons	-958
▁Cl	-959
▁rij	-960
▁15	-961
▁Die	-962
▁afbeelding	-963
oms	-964
urg	-965
▁ee	-966
▁hebt	-967
▁202	-968
▁plan	-969
alt	-970
▁Joh	-971
▁eten	-972
▁tra	-973
eerde	-974
▁jaren	-975
▁krijgen	-976
ruk	-977
ark	-978
▁beetje	-979
ord	-980
out	-981
ade	-982
▁politie	-983
▁tijdens	-984
▁vragen	-985
▁meest	-986
▁figuur	-987
▁later	-988
olen	-989
5)	-990
▁speel	-991
▁12	-992
aad	-993
▁minder	-994
ium	-995
▁Leg	-996
▁ple	-997
ijna	-998
▁verg	-999
ooit	-1000
kom	-1001
cent	-1002
▁laten	-1003
arm	-1004
▁pop	-1005
iken	-1006
rien	-1007
▁bestaat	-1008
▁jullie	-1009
▁bep	-1010
▁partij	-1011
ennis	-1012
▁vlie	-1013
ym	-1014
ubl	-1015
orgen	-1016
▁Veren	-1017
our	-1018
gels	-1019
ullen	-1020
igd	-1021
▁wilde	-1022
▁pers	-1023
▁rond	-1024
▁Dan	-1025
ame	-1026
pro	-1027
eert	-1028
oede	-1029
▁geeft	-1030
ille	-1031
▁III	-1032
▁ste	-1033
iddel	-1034
▁inter	-1035
▁meis	-1036
▁laatste	-1037
sk	-1038
▁eeuw	-1039
▁verl	-1040
▁&	-1041
erde	-1042
rijd	-1043
▁lucht	-1044
7)	-1045
zelfde	-1046
tra	-1047
weg	-1048
▁vooral	-1049
▁hond	-1050
▁begon	-1051
▁geld	-1052
▁Bel	-1053
▁mog	-1054
tre	-1055
▁anders	-1056
inds	-1057
▁bez	-1058
▁moest	-1059
▁beteken	-1060
ict	-1061
▁mama	-1062
▁ke	-1063
isten	-1064
angen	-1065
▁besl	-1066
▁kleine	-1067
est	-1068
rom	-1069
yy	-1070
ode	-1071
▁fot	-1072
▁Meer	-1073
De	-1074
apen	-1075
▁wij	-1076
▁dieren	-1077
▁sle	-1078
▁kunt	-1079
▁opge	-1080
uziek	-1081
auw	-1082
▁draa	-1083
stof	-1084
won	-1085
vis	-1086
▁wie	-1087
▁iemand	-1088
cl	-1089
▁Twee	-1090
▁bev	-1091
▁ə	-1092
▁alles	-1093
oopt	-1094
oven	-1095
▁You	-1096
eeuw	-1097
▁groep	-1098
ulp	-1099
iding	-1100
AN	-1101
ian	-1102
▁onderwerp	-1103
▁bijna	-1104
isme	-1105
▁get	-1106
▁genoemd	-1107
ident	-1108
▁onderzoek	-1109
▁str	-1110
▁geven	-1111
▁zeggen	-1112
houd	-1113
▁roe	-1114
▁leuk	-1115
▁soort	-1116
ler	-1117
▁maakt	-1118
▁gebouw	-1119
isschien	-1120
odig	-1121
▁nooit	-1122
▁dicht	-1123
rijven	-1124
ga	-1125
▁Frank	-1126
▁verw	-1127
▁ziet	-1128
ha	-1129
werk	-1130
▁the	-1131
▁Toen	-1132
vers	-1133
rin	-1134
bank	-1135
uil	-1136
▁El	-1137
eb	-1138
▁0	-1139
ans	-1140
indelijk	-1141
▁Ste	-1142
iep	-1143
▁Duits	-1144
aalde	-1145
▁Am	-1146
dag	-1147
▁verander	-1148
▁uur	-1149
▁vorm	-1150
▁gedaan	-1151
erm	-1152
▁16	-1153
30	-1154
▁kree	-1155
▁fl	-1156
▁verm	-1157
▁lekker	-1158
▁17	-1159
bruik	-1160
-2	-1161
ont	-1162
6)	-1163
▁zee	-1164
▁gewoon	-1165
ummer	-1166
▁milj	-1167
ces	-1168
▁kreeg	-1169
▁hoeveel	-1170
▁Door	-1171
ube	-1172
PO	-1173
▁uitge	-1174
du	-1175
amil	-1176
▁ontw	-1177
▁vor	-1178
inn	-1179
▁nodig	-1180
oep	-1181
▁waarom	-1182
2)	-1183
▁mogelijk	-1184
▁reden	-1185
▁vis	-1186
▁heet	-1187
▁examen	-1188
▁tele	-1189
achten	-1190
▁Tekst	-1191
ijnen	-1192
▁waardoor	-1193
▁Comm	-1194
▁ele	-1195
▁spelen	-1196
anis	-1197
uurt	-1198
▁uh	-1199
room	-1200
3)	-1201
▁School	-1202
▁vrien	-1203
▁gesp	-1204
sie	-1205
ett	-1206
▁zelfs	-1207
kl	-1208
reven	-1209
▁(2	-1210
heden	-1211
deren	-1212
burg	-1213
▁YouT	-1214
8)	-1215
wijl	-1216
▁Ben	-1217
oden	-1218
th	-1219
bal	-1220
▁gest	-1221
▁Re	-1222
oogle	-1223
ikt	-1224
▁leer	-1225
cies	-1226
▁zon	-1227
▁jongen	-1228
aken	-1229
1)	-1230
▁Staten	-1231
qu	-1232
lijke	-1233
raagt	-1234
▁YouTube	-1235
▁Google	-1236
▁Th	-1237
duc	-1238
▁NPO	-1239
aarde	-1240
▁eh	-1241
geveer	-1242
erd	-1243
▁teken	-1244
▁namelijk	-1245
▁Gro	-1246
eil	-1247
▁punten	-1248
▁...	-1249
gaan	-1250
zien	-1251
▁kop	-1252
▁vindt	-1253
▁11	-1254
erie	-1255
▁ber	-1256
▁jong	-1257
resident	-1258
▁vak	-1259
umm	-1260
50	-1261
▁gegeven	-1262
menten	-1263
▁vand	-1264
aap	-1265
▁afge	-1266
▁Gebruik	-1267
▁willen	-1268
tv	-1269
zicht	-1270
iale	-1271
▁Wiki	-1272
aties	-1273
9)	-1274
▁vroeg	-1275
rijs	-1276
Kids	-1277
▁bro	-1278
plaat	-1279
lemen	-1280
▁Afbeeld	-1281
oorten	-1282
▁WikiKids	-1283
▁zonder	-1284
gele	-1285
leg	-1286
▁bouw	-1287
▁tro	-1288
▁volgens	-1289
▁Verenigde	-1290
enen	-1291
ipedia	-1292
air	-1293
▁Belg	-1294
▁gemeen	-1295
▁ken	-1296
ommige	-1297
▁beter	-1298
▁Wikipedia	-1299
dere	-1300
bel	-1301
stad	-1302
-9	-1303
▁grootste	-1304
Het	-1305
▁bloed	-1306
▁verz	-1307
▁stond	-1308
slag	-1309
ah	-1310
regen	-1311
ens	-1312
▁Kennis	-1313
akk	-1314
ein	-1315
▁(9	-1316
▁Geluid	-1317
ipjes	-1318
▁198	-1319
▁krijgt	-1320
▁foto	-1321
und	-1322
iks	-1323
▁Amerikaanse	-1324
▁gezien	-1325
aur	-1326
gor	-1327
▁Afbeeldingen	-1328
▁dood	-1329
▁muziek	-1330
▁licht	-1331
oemen	-1332
▁Schooltv	-1333
imedia	-1334
▁Commons	-1335
kende	-1336
▁Noord	-1337
▁bru	-1338
▁bal	-1339
▁Wikimedia	-1340
olf	-1341
▁ontst	-1342
ember	-1343
▁Beeldbank	-1344
▁The	-1345
▁rol	-1346
▁Clipjes	-1347
▁ind	-1348
kk	-1349
▁Is	-1350
▁Tweede	-1351
▁Zij	-1352
▁Rus	-1353
▁ruim	-1354
▁meisje	-1355
▁su	-1356
val	-1357
▁bent	-1358
▁ongeveer	-1359
▁meeste	-1360
40	-1361
iez	-1362
iën	-1363
IJ	-1364
▁mooi	-1365
schapp	-1366
▁Zijn	-1367
▁beste	-1368
▁werken	-1369
▁oorlog	-1370
▁heen	-1371
▁slecht	-1372
oof	-1373
ange	-1374
▁kant	-1375
▁ten	-1376
tjes	-1377
▁houden	-1378
oes	-1379
actie	-1380
ruiken	-1381
woners	-1382
ib	-1383
▁stemmen	-1384
net	-1385
anen	-1386
▁juist	-1387
▁miljoen	-1388
▁ontwikk	-1389
▁hou	-1390
▁Engel	-1391
▁eigenlijk	-1392
▁gebied	-1393
▁doe	-1394
lex	-1395
▁verhaal	-1396
▁Bereken	-1397
nie	-1398
oss	-1399
ath	-1400
▁Jan	-1401
kel	-1402
▁stap	-1403
▁IV	-1404
uig	-1405
▁hoort	-1406
▁Kon	-1407
▁Brit	-1408
▁Onder	-1409
▁comp	-1410
▁Waar	-1411
▁vijf	-1412
▁week	-1413
▁eil	-1414
▁ger	-1415
oorlog	-1416
uni	-1417
ry	-1418
▁manier	-1419
ris	-1420
▁tweede	-1421
▁verkl	-1422
▁blijven	-1423
▁13	-1424
▁vog	-1425
▁aard	-1426
▁oud	-1427
Dat	-1428
▁vond	-1429
arte	-1430
raak	-1431
▁bew	-1432
inde	-1433
voer	-1434
▁schil	-1435
▁deed	-1436
60	-1437
gering	-1438
▁betekent	-1439
▁gra	-1440
▁Johann	-1441
roken	-1442
▁vraagt	-1443
idden	-1444
▁dier	-1445
▁goede	-1446
▁ster	-1447
amilie	-1448
▁terwijl	-1449
▁hal	-1450
▁Frankrijk	-1451
▁bas	-1452
anneer	-1453
▁waarin	-1454
▁14	-1455
▁kijkt	-1456
anus	-1457
gram	-1458
▁leg	-1459
rist	-1460
▁gelijk	-1461
ect	-1462
ieke	-1463
weest	-1464
▁app	-1465
ph	-1466
get	-1467
▁hard	-1468
oll	-1469
ën	-1470
▁ogen	-1471
▁soms	-1472
conom	-1473
stig	-1474
▁dingen	-1475
▁Zuid	-1476
▁zag	-1477
▁gesl	-1478
▁geweest	-1479
gem	-1480
▁kind	-1481
▁Me	-1482
▁Wer	-1483
▁maakte	-1484
▁Volgens	-1485
orp	-1486
iaal	-1487
ving	-1488
.""	-1489
pese	-1490
mm	-1491
▁jou	-1492
oom	-1493
▁woon	-1494
▁kunst	-1495
▁via	-1496
▁lopen	-1497
▁iedereen	-1498
70	-1499
ichting	-1500
En	-1501
▁onze	-1502
▁Uit	-1503
oge	-1504
▁natuurlijk	-1505
sh	-1506
roep	-1507
▁oude	-1508
ix	-1509
▁(10	-1510
▁niks	-1511
abel	-1512
▁echter	-1513
uld	-1514
strijd	-1515
att	-1516
▁zeker	-1517
▁kwamen	-1518
▁Par	-1519
▁Duitsland	-1520
▁loopt	-1521
-10	-1522
genomen	-1523
▁pas	-1524
aire	-1525
olog	-1526
▁liggen	-1527
▁spec	-1528
▁zouden	-1529
▁brand	-1530
pr	-1531
elden	-1532
▁gebruiken	-1533
▁kap	-1534
▁Johannes	-1535
Wat	-1536
▁org	-1537
▁par	-1538
▁lijkt	-1539
▁at	-1540
▁cont	-1541
▁elke	-1542
ule	-1543
IE	-1544
chten	-1545
▁zat	-1546
tem	-1547
eens	-1548
▁Welke	-1549
▁meestal	-1550
ate	-1551
▁Veel	-1552
reken	-1553
▁Vl	-1554
▁roept	-1555
stelling	-1556
rum	-1557
▁sm	-1558
▁VII	-1559
ts	-1560
▁stop	-1561
rab	-1562
▁Ne	-1563
ratie	-1564
ister	-1565
offen	-1566
ubliek	-1567
akt	-1568
▁Over	-1569
▁lich	-1570
▁regering	-1571
▁bere	-1572
inks	-1573
▁klas	-1574
▁middel	-1575
rek	-1576
55	-1577
▁Rom	-1578
▁ker	-1579
-11	-1580
▁niets	-1581
▁Kl	-1582
oment	-1583
▁deur	-1584
igheid	-1585
bouw	-1586
▁dagen	-1587
rol	-1588
one	-1589
▁ad	-1590
▁elekt	-1591
▁misschien	-1592
az	-1593
▁Pl	-1594
inig	-1595
ole	-1596
▁vandaag	-1597
▁hen	-1598
▁trein	-1599
▁gevol	-1600
▁Pa	-1601
▁wed	-1602
▁id	-1603
▁ziek	-1604
ugd	-1605
kele	-1606
▁Eer	-1607
▁maan	-1608
▁president	-1609
old	-1610
▁(11	-1611
ure	-1612
▁begin	-1613
orden	-1614
▁euro	-1615
▁ontstaan	-1616
▁waarbij	-1617
▁keek	-1618
ess	-1619
sche	-1620
▁Hierdoor	-1621
sterdam	-1622
volgens	-1623
▁meter	-1624
▁Tijdens	-1625
erv	-1626
▁groter	-1627
▁mens	-1628
▁opl	-1629
▁dec	-1630
▁won	-1631
ding	-1632
▁langs	-1633
▁moment	-1634
ief	-1635
▁Aan	-1636
68	-1637
▁zullen	-1638
▁Wereld	-1639
gang	-1640
▁1.	-1641
▁popul	-1642
▁wit	-1643
etten	-1644
▁ijs	-1645
ja	-1646
bare	-1647
stru	-1648
gramma	-1649
▁eind	-1650
uidelijk	-1651
▁Europese	-1652
!"	-1653
woordig	-1654
wijs	-1655
▁cent	-1656
eth	-1657
aring	-1658
▁zin	-1659
iedenis	-1660
▁leerl	-1661
▁inge	-1662
▁vriend	-1663
schijn	-1664
ourn	-1665
▁(19	-1666
▁reg	-1667
▁zom	-1668
▁nemen	-1669
yp	-1670
▁woord	-1671
▁valt	-1672
inea	-1673
▁genoeg	-1674
ijst	-1675
ck	-1676
▁rest	-1677
▁daarom	-1678
▁Europa	-1679
sm	-1680
▁gingen	-1681
▁idee	-1682
aars	-1683
▁Bl	-1684
inkel	-1685
▁konden	-1686
zie	-1687
dem	-1688
▁di	-1689
dracht	-1690
▁Amsterdam	-1691
iode	-1692
▁weinig	-1693
▁vliegt	-1694
xim	-1695
its	-1696
ozen	-1697
▁Den	-1698
▁1,	-1699
▁voed	-1700
-8	-1701
▁Kar	-1702
nieuw	-1703
ument	-1704
▁bereken	-1705
inter	-1706
▁familie	-1707
dien	-1708
▁tien	-1709
▁vanaf	-1710
▁horen	-1711
▁macht	-1712
▁(8	-1713
zonder	-1714
▁econom	-1715
▁lichaam	-1716
▁denk	-1717
▁lag	-1718
ss	-1719
▁ouders	-1720
pel	-1721
▁spel	-1722
▁sinds	-1723
nam	-1724
▁inwoners	-1725
▁Q	-1726
▁daarna	-1727
▁197	-1728
▁kr	-1729
antie	-1730
▁begint	-1731
gave	-1732
▁nummer	-1733
ins	-1734
anten	-1735
iezingen	-1736
naast	-1737
kant	-1738
▁Men	-1739
▁Alle	-1740
sn	-1741
▁Ma	-1742
▁beide	-1743
▁Gre	-1744
use	-1745
▁Noem	-1746
ergie	-1747
raagd	-1748
▁thuis	-1749
▁sc	-1750
punt	-1751
▁polit	-1752
▁woorden	-1753
wijk	-1754
▁Inhoud	-1755
▁mis	-1756
Al	-1757
afel	-1758
▁blijft	-1759
▁hart	-1760
▁neer	-1761
nem	-1762
etter	-1763
ober	-1764
EL	-1765
▁Ital	-1766
▁lange	-1767
▁doel	-1768
▁soorten	-1769
▁Kamer	-1770
eelden	-1771
ankelijk	-1772
▁194	-1773
▁Ind	-1774
We	-1775
▁vide	-1776
'.	-1777
▁huid	-1778
▁DE	-1779
▁precies	-1780
▁kat	-1781
▁druk	-1782
▁pak	-1783
▁riv	-1784
▁rel	-1785
illem	-1786
▁ren	-1787
riek	-1788
▁neem	-1789
▁klaar	-1790
houden	-1791
water	-1792
▁kleur	-1793
ije	-1794
▁soc	-1795
zaam	-1796
ilijk	-1797
-19	-1798
ick	-1799
▁gevonden	-1800
lei	-1801
aden	-1802
▁maat	-1803
▁wonen	-1804
▁belangrijke	-1805
itu	-1806
▁vallen	-1807
▁Lees	-1808
▁cl	-1809
▁gere	-1810
▁fun	-1811
▁art	-1812
leiding	-1813
teur	-1814
oelen	-1815
▁speelt	-1816
oeren	-1817
▁bren	-1818
▁ontde	-1819
▁wist	-1820
midd	-1821
▁gevraagd	-1822
mar	-1823
▁moeilijk	-1824
▁zorgen	-1825
gegeven	-1826
▁lief	-1827
vel	-1828
▁vrouwen	-1829
▁Ol	-1830
▁Pro	-1831
▁jan	-1832
▁30	-1833
▁ju	-1834
▁Sl	-1835
▁minu	-1836
▁aand	-1837
▁bestaan	-1838
▁België	-1839
▁sche	-1840
▁bevol	-1841
▁lezen	-1842
▁enkele	-1843
▁organis	-1844
▁acht	-1845
ek	-1846
▁boom	-1847
ijl	-1848
▁denken	-1849
▁meteen	-1850
▁naast	-1851
woorden	-1852
▁helpen	-1853
hand	-1854
▁gemeente	-1855
▁voetbal	-1856
gr	-1857
▁zodat	-1858
▁Franse	-1859
yn	-1860
rak	-1861
▁fin	-1862
▁nieuws	-1863
uik	-1864
▁boeken	-1865
▁Toch	-1866
red	-1867
▁papa	-1868
ikker	-1869
▁politieke	-1870
▁kil	-1871
beelden	-1872
▁kor	-1873
▁form	-1874
anc	-1875
yyy	-1876
▁yyy	-1877
doen	-1878
▁der	-1879
▁keu	-1880
▁plek	-1881
ante	-1882
▁se	-1883
ene	-1884
▁los	-1885
▁tem	-1886
▁Paul	-1887
▁Willem	-1888
▁provin	-1889
boek	-1890
▁regen	-1891
▁mond	-1892
▁Duitse	-1893
pje	-1894
▁dezelfde	-1895
▁kast	-1896
leden	-1897
▁einde	-1898
ieten	-1899
▁25	-1900
derij	-1901
▁mon	-1902
▁geleden	-1903
▁Nederlands	-1904
▁uite	-1905
▁kamer	-1906
inus	-1907
▁handen	-1908
weer	-1909
iële	-1910
▁halen	-1911
onde	-1912
wegen	-1913
▁Alex	-1914
▁leger	-1915
▁schrij	-1916
iging	-1917
▁mogen	-1918
mat	-1919
arken	-1920
▁kru	-1921
▁Wil	-1922
ets	-1923
vloed	-1924
▁eiland	-1925
anders	-1926
▁=	-1927
ore	-1928
▁bot	-1929
rokken	-1930
▁duidelijk	-1931
▁dro	-1932
uari	-1933
aven	-1934
anger	-1935
▁Span	-1936
01	-1937
leven	-1938
ys	-1939
▁verwij	-1940
▁Zw	-1941
-12	-1942
▁100	-1943
achte	-1944
▁klim	-1945
▁leerlingen	-1946
aalt	-1947
ator	-1948
ton	-1949
▁trouw	-1950
▁geworden	-1951
▁ruimte	-1952
▁pakken	-1953
▁oe	-1954
etjes	-1955
▁kans	-1956
fl	-1957
▁overheid	-1958
▁rijk	-1959
zer	-1960
foon	-1961
▁Wereldoorlog	-1962
olle	-1963
▁voel	-1964
oemde	-1965
▁aller	-1966
59	-1967
▁maxim	-1968
67	-1969
rijden	-1970
▁bedrijf	-1971
▁ac	-1972
ukk	-1973
▁periode	-1974
ook	-1975
ara	-1976
ox	-1977
▁Nu	-1978
▁persoon	-1979
▁stof	-1980
gest	-1981
▁2.	-1982
urk	-1983
onnen	-1984
▁gezicht	-1985
schijnlijk	-1986
up	-1987
▁off	-1988
▁gebeurt	-1989
▁januari	-1990
▁Sam	-1991
▁alinea	-1992
▁uiteindelijk	-1993
▁im	-1994
ocent	-1995
sc	-1996
▁redenen	-1997
▁enige	-1998
▁Daarom	-1999
▁(12	-2000
▁dacht	-2001
recht	-2002
▁Nieuw	-2003
deeld	-2004
str	-2005
Maar	-2006
Ja	-2007
52	-2008
ose	-2009
stuk	-2010
▁tw	-2011
▁les	-2012
▁dire	-2013
▁VI	-2014
▁beeld	-2015
▁act	-2016
lijn	-2017
▁geluid	-2018
▁mocht	-2019
▁vertellen	-2020
ial	-2021
▁Bened	-2022
▁Nederl	-2023
spraak	-2024
▁mar	-2025
▁zetten	-2026
▁riep	-2027
gelopen	-2028
ged	-2029
▁behulp	-2030
uter	-2031
▁sommige	-2032
▁Benedict	-2033
▁dien	-2034
iemand	-2035
isc	-2036
53	-2037
▁produc	-2038
gebied	-2039
▁moesten	-2040
▁gemidd	-2041
▁ervoor	-2042
▁bepaalde	-2043
moc	-2044
▁Of	-2045
▁mannen	-2046
▁zwem	-2047
▁meneer	-2048
▁lied	-2049
▁tafel	-2050
▁21	-2051
uiden	-2052
▁actie	-2053
schappen	-2054
Je	-2055
▁bos	-2056
▁Benedictus	-2057
zo	-2058
▁welk	-2059
▁geboren	-2060
▁belangrijkste	-2061
hal	-2062
vrouw	-2063
▁gaf	-2064
▁verv	-2065
▁0,	-2066
ric	-2067
▁Jac	-2068
otter	-2069
▁koff	-2070
yl	-2071
▁maand	-2072
▁stand	-2073
▁Sh	-2074
▁leren	-2075
▁Fl	-2076
▁oo	-2077
ips	-2078
akkelijk	-2079
reden	-2080
ïn	-2081
eeg	-2082
istische	-2083
bs	-2084
spron	-2085
▁schree	-2086
64	-2087
raken	-2088
▁poes	-2089
ationale	-2090
▁taal	-2091
issen	-2092
yst	-2093
▁aarde	-2094
rat	-2095
▁res	-2096
▁Con	-2097
rim	-2098
▁Peter	-2099
annen	-2100
iezen	-2101
▁vogel	-2102
▁am	-2103
▁zes	-2104
▁hog	-2105
▁bevat	-2106
▁Gregor	-2107
▁steden	-2108
▁dorp	-2109
chn	-2110
▁oma	-2111
stel	-2112
▁berekening	-2113
ive	-2114
▁vervolgens	-2115
▁duur	-2116
▁hoge	-2117
▁zowel	-2118
In	-2119
▁leeft	-2120
▁zorg	-2121
▁veil	-2122
werpen	-2123
▁em	-2124
▁voorbeeld	-2125
hankelijk	-2126
▁midden	-2127
bron	-2128
▁stroom	-2129
▁av	-2130
ring	-2131
ositie	-2132
ooi	-2133
▁warm	-2134
inkrijk	-2135
▁liep	-2136
ikke	-2137
▁(18	-2138
zij	-2139
▁wedstrijd	-2140
wege	-2141
veren	-2142
▁blijkt	-2143
▁video	-2144
useum	-2145
ukkig	-2146
▁bek	-2147
31	-2148
cie	-2149
opt	-2150
▁delen	-2151
▁don	-2152
▁bleef	-2153
app	-2154
ield	-2155
ica	-2156
aans	-2157
oerd	-2158
▁comm	-2159
▁blauw	-2160
▁192	-2161
▁volle	-2162
▁arm	-2163
▁houdt	-2164
▁opv	-2165
▁Gregorius	-2166
▁kaart	-2167
▁stil	-2168
▁energie	-2169
▁zeven	-2170
uigen	-2171
▁lach	-2172
okken	-2173
elingen	-2174
clus	-2175
ioen	-2176
gelijk	-2177
▁pot	-2178
▁graf	-2179
AAR	-2180
▁norm	-2181
▁hee	-2182
▁tuin	-2183
▁mooie	-2184
▁band	-2185
▁slapen	-2186
▁th	-2187
omb	-2188
▁produ	-2189
▁50	-2190
▁Ad	-2191
lement	-2192
▁denkt	-2193
ossing	-2194
▁rijden	-2195
▁overl	-2196
▁med	-2197
▁Oosten	-2198
ummie	-2199
▁graag	-2200
ucces	-2201
▁planten	-2202
▁bur	-2203
orn	-2204
▁onderz	-2205
▁191	-2206
▁opdracht	-2207
▁Jap	-2208
▁Rusland	-2209
ude	-2210
▁hetzelfde	-2211
▁verschil	-2212
oost	-2213
ournaal	-2214
▁eerder	-2215
oder	-2216
▁verklaring	-2217
61	-2218
▁televis	-2219
ippen	-2220
▁toer	-2221
aus	-2222
▁punt	-2223
▁km	-2224
▁Ber	-2225
▁last	-2226
▁werkt	-2227
▁extra	-2228
▁New	-2229
appen	-2230
▁offic	-2231
▁voorkomen	-2232
▁voort	-2233
▁Haar	-2234
▁vij	-2235
▁verdw	-2236
▁zoon	-2237
▁verst	-2238
▁gren	-2239
▁gebouwd	-2240
blad	-2241
▁huil	-2242
▁reactie	-2243
▁Daarnaast	-2244
▁zoeken	-2245
sent	-2246
▁neemt	-2247
▁China	-2248
▁bijzonder	-2249
▁an	-2250
▁gevaar	-2251
▁jouw	-2252
▁bang	-2253
▁weergegeven	-2254
▁kopen	-2255
2.	-2256
57	-2257
jar	-2258
▁bank	-2259
▁praten	-2260
▁vanuit	-2261
▁len	-2262
akker	-2263
ald	-2264
▁meester	-2265
staande	-2266
ots	-2267
▁lid	-2268
▁hm	-2269
▁bevolking	-2270
derd	-2271
▁cult	-2272
▁hoofdstad	-2273
▁nacht	-2274
▁+	-2275
Ze	-2276
ffen	-2277
izer	-2278
▁station	-2279
"".	-2280
▁liet	-2281
rift	-2282
▁nad	-2283
▁super	-2284
▁gehouden	-2285
▁boos	-2286
ustr	-2287
▁uitleg	-2288
▁bi	-2289
▁minuten	-2290
▁mei	-2291
eden	-2292
film	-2293
vorm	-2294
▁half	-2295
▁december	-2296
kijk	-2297
▁hulp	-2298
',	-2299
▁viel	-2300
▁oog	-2301
▁neus	-2302
▁Schrijf	-2303
▁Spanje	-2304
▁Tim	-2305
▁kregen	-2306
delen	-2307
peratuur	-2308
▁geval	-2309
landse	-2310
▁(14	-2311
▁do	-2312
▁kenmer	-2313
▁brie	-2314
▁kerk	-2315
▁ton	-2316
▁vergelijk	-2317
▁waarop	-2318
port	-2319
▁gevangen	-2320
ico	-2321
▁24	-2322
journaal	-2323
▁drin	-2324
▁stelling	-2325
▁kort	-2326
rug	-2327
▁arg	-2328
unde	-2329
▁sport	-2330
▁Engeland	-2331
▁Br	-2332
▁bedoel	-2333
▁regel	-2334
▁Oostenrijk	-2335
orpen	-2336
-14	-2337
▁paard	-2338
avond	-2339
▁zeer	-2340
▁zak	-2341
▁wanneer	-2342
▁Niet	-2343
ysteem	-2344
aw	-2345
wit	-2346
▁193	-2347
ktober	-2348
▁kikker	-2349
▁Karel	-2350
▁veroor	-2351
▁prijs	-2352
St	-2353
ging	-2354
▁onderdeel	-2355
ymp	-2356
▁echte	-2357
-17	-2358
vlak	-2359
roek	-2360
▁ball	-2361
▁succes	-2362
iger	-2363
▁zwaar	-2364
bed	-2365
▁vormen	-2366
olon	-2367
▁3.	-2368
▁gep	-2369
▁rivier	-2370
▁jongens	-2371
ney	-2372
▁Inn	-2373
▁geze	-2374
▁fiets	-2375
aliteit	-2376
loop	-2377
ichten	-2378
▁Leo	-2379
erecht	-2380
▁vlucht	-2381
oofd	-2382
▁Rep	-2383
reekt	-2384
▁Zie	-2385
aut	-2386
▁West	-2387
:"	-2388
aby	-2389
▁past	-2390
cu	-2391
▁gebieden	-2392
slagen	-2393
ses	-2394
▁namen	-2395
▁minister	-2396
bei	-2397
▁opnieuw	-2398
▁straat	-2399
▁eff	-2400
lemens	-2401
▁Har	-2402
dio	-2403
▁tabel	-2404
kort	-2405
oenen	-2406
▁Bon	-2407
▁mot	-2408
▁Clemens	-2409
▁ooit	-2410
▁Sinds	-2411
iende	-2412
hoog	-2413
▁feest	-2414
▁invloed	-2415
gent	-2416
▁schrijven	-2417
▁Rijk	-2418
▁ving	-2419
58	-2420
62	-2421
▁(17	-2422
wez	-2423
▁provincie	-2424
▁alsof	-2425
▁maanden	-2426
ikte	-2427
zetten	-2428
ieu	-2429
iter	-2430
▁Jeugd	-2431
▁oktober	-2432
▁sterk	-2433
▁populair	-2434
SI	-2435
inst	-2436
▁XII	-2437
▁ontstaat	-2438
▁mod	-2439
▁juni	-2440
pril	-2441
▁kracht	-2442
ologie	-2443
verk	-2444
▁enorm	-2445
▁voedsel	-2446
Een	-2447
vangen	-2448
▁park	-2449
▁letter	-2450
kte	-2451
▁buurt	-2452
ielen	-2453
▁Jul	-2454
tember	-2455
?'"	-2456
▁Ca	-2457
▁totaal	-2458
▁bezig	-2459
▁laag	-2460
▁nov	-2461
▁sec	-2462
▁Bekijk	-2463
▁verkiezingen	-2464
▁krijg	-2465
oef	-2466
▁Eerste	-2467
▁Romein	-2468
Hij	-2469
▁XI	-2470
...'	-2471
▁stukje	-2472
ranje	-2473
▁Tot	-2474
▁vliegtuig	-2475
▁koe	-2476
bleem	-2477
▁22	-2478
verd	-2479
▁brengen	-2480
▁He	-2481
▁waarschijnlijk	-2482
raaf	-2483
▁bele	-2484
ijt	-2485
-18	-2486
ase	-2487
Nee	-2488
▁boot	-2489
▁partijen	-2490
▁dr	-2491
ering	-2492
bum	-2493
-4	-2494
geving	-2495
uiste	-2496
ake	-2497
reek	-2498
▁vuur	-2499
▁afgelopen	-2500
▁vlak	-2501
▁slag	-2502
oy	-2503
▁pat	-2504
▁react	-2505
▁Christ	-2506
gend	-2507
▁gegevens	-2508
▁Daarna	-2509
▁april	-2510
hou	-2511
▁sep	-2512
▁bronnen	-2513
▁rood	-2514
66	-2515
▁Japan	-2516
▁formule	-2517
zel	-2518
▁kilom	-2519
▁Car	-2520
54	-2521
▁niemand	-2522
▁red	-2523
komt	-2524
maken	-2525
rika	-2526
oppen	-2527
▁.	-2528
ukt	-2529
antwoord	-2530
▁problemen	-2531
aling	-2532
▁zichzelf	-2533
▁zoveel	-2534
▁maart	-2535
orst	-2536
DEN	-2537
▁noemen	-2538
▁Don	-2539
deelte	-2540
▁opa	-2541
aai	-2542
erland	-2543
▁maximaal	-2544
▁nat	-2545
▁waarmee	-2546
ragment	-2547
rieken	-2548
versiteit	-2549
reem	-2550
▁koek	-2551
ames	-2552
ugust	-2553
▁rug	-2554
▁Innocent	-2555
▁weken	-2556
▁Innocentius	-2557
▁volk	-2558
▁juiste	-2559
▁derde	-2560
▁stoel	-2561
▁beneden	-2562
genwoordig	-2563
▁zuur	-2564
zaak	-2565
volut	-2566
▁donker	-2567
▁gevallen	-2568
▁reken	-2569
▁bouwen	-2570
▁serie	-2571
▁telefoon	-2572
▁zand	-2573
OE	-2574
▁geg	-2575
▁geloof	-2576
waar	-2577
kracht	-2578
sb	-2579
goed	-2580
▁eet	-2581
heen	-2582
spre	-2583
▁rode	-2584
▁Goos	-2585
roepen	-2586
▁waarde	-2587
ux	-2588
▁vroeger	-2589
▁november	-2590
raad	-2591
▁bekende	-2592
▁Frans	-2593
▁leid	-2594
▁ve	-2595
▁basis	-2596
▁gesloten	-2597
kw	-2598
jaar	-2599
oest	-2600
▁Omdat	-2601
▁sh	-2602
▁Un	-2603
apt	-2604
▁Tom	-2605
▁broer	-2606
▁begonnen	-2607
zuur	-2608
▁Dummie	-2609
raal	-2610
▁september	-2611
rok	-2612
▁kapot	-2613
orgt	-2614
▁drinken	-2615
bert	-2616
▁juli	-2617
▁aanwez	-2618
▁Toon	-2619
▁ziekte	-2620
▁2000	-2621
▁verlie	-2622
▁wind	-2623
▁gezegd	-2624
leur	-2625
▁situ	-2626
▁geschreven	-2627
▁Ter	-2628
▁mater	-2629
berg	-2630
ieel	-2631
▁mass	-2632
▁Britse	-2633
▁40	-2634
▁VIII	-2635
ift	-2636
gevoerd	-2637
veld	-2638
▁Hoewel	-2639
▁programma	-2640
jarige	-2641
▁Sommige	-2642
▁bepaald	-2643
mon	-2644
▁beginnen	-2645
Amerik	-2646
▁oorspron	-2647
zit	-2648
▁gehe	-2649
▁Bar	-2650
istor	-2651
▁zen	-2652
komst	-2653
▁Ant	-2654
raï	-2655
▁2,	-2656
▁23	-2657
eltjes	-2658
▁ongel	-2659
▁(4	-2660
ork	-2661
STER	-2662
ummers	-2663
▁witte	-2664
▁Rob	-2665
ino	-2666
▁koffie	-2667
▁vakantie	-2668
▁IK	-2669
uwelijk	-2670
ON	-2671
nel	-2672
keur	-2673
atief	-2674
▁br	-2675
oeld	-2676
▁sneeuw	-2677
▁spoor	-2678
▁aangezien	-2679
▁stra	-2680
ars	-2681
▁tit	-2682
▁hoop	-2683
▁Mon	-2684
▁gekregen	-2685
▁Alexander	-2686
nemen	-2687
▁gevolg	-2688
rake	-2689
▁Russ	-2690
▁internet	-2691
▁Pius	-2692
▁volled	-2693
ikel	-2694
alis	-2695
oorn	-2696
omst	-2697
▁club	-2698
▁voorbeelden	-2699
che	-2700
▁doordat	-2701
"",	-2702
▁bestuur	-2703
▁gekozen	-2704
▁Per	-2705
EE	-2706
gro	-2707
▁zoek	-2708
azen	-2709
▁toege	-2710
▁wilden	-2711
Als	-2712
ting	-2713
aleis	-2714
▁papier	-2715
▁allerlei	-2716
fen	-2717
▁Italië	-2718
inderen	-2719
▁vele	-2720
▁x	-2721
▁brug	-2722
▁baby	-2723
agina	-2724
weging	-2725
werken	-2726
lein	-2727
pervlak	-2728
▁hoogte	-2729
▁31	-2730
▁Wie	-2731
▁oplossing	-2732
▁moder	-2733
▁diep	-2734
▁ol	-2735
▁lijn	-2736
ampioen	-2737
min	-2738
▁Ex	-2739
▁melk	-2740
druk	-2741
▁krant	-2742
▁terecht	-2743
angt	-2744
reg	-2745
▁Koninkrijk	-2746
▁kool	-2747
ugustus	-2748
jet	-2749
wassen	-2750
▁Ger	-2751
otterdam	-2752
ente	-2753
tie	-2754
▁har	-2755
uwen	-2756
-13	-2757
▁schoon	-2758
▁meerdere	-2759
▁positie	-2760
5-	-2761
meester	-2762
▁brief	-2763
▁betalen	-2764
▁cir	-2765
▁kilometer	-2766
▁gezond	-2767
▁Waarom	-2768
▁Oost	-2769
gemeen	-2770
▁ervan	-2771
▁vanwege	-2772
▁Hieronder	-2773
▁noem	-2774
▁luist	-2775
▁anderen	-2776
groep	-2777
▁afstand	-2778
cten	-2779
▁waarvan	-2780
grond	-2781
pers	-2782
▁zorgt	-2783
▁prote	-2784
geh	-2785
bren	-2786
rede	-2787
▁wacht	-2788
▁gehad	-2789
▁mam	-2790
▁reis	-2791
plaats	-2792
ekraï	-2793
▁politiek	-2794
▁IX	-2795
▁John	-2796
▁Rotterdam	-2797
▁regels	-2798
oun	-2799
▁hoger	-2800
▁stij	-2801
▁winkel	-2802
▁plaatsen	-2803
▁Mich	-2804
▁geschiedenis	-2805
▁2010	-2806
reep	-2807
trecht	-2808
▁Sov	-2809
ël	-2810
▁tran	-2811
▁Ga	-2812
▁leef	-2813
▁jonge	-2814
ner	-2815
▁aanv	-2816
▁plant	-2817
▁rechts	-2818
alige	-2819
▁hout	-2820
▁probleem	-2821
stellen	-2822
65	-2823
▁(13	-2824
▁lever	-2825
▁ei	-2826
▁bezoek	-2827
urt	-2828
umenten	-2829
▁Can	-2830
▁bad	-2831
nummer	-2832
▁EEN	-2833
werkt	-2834
▁speciale	-2835
▁avond	-2836
▁Parijs	-2837
cties	-2838
▁vern	-2839
spel	-2840
ograf	-2841
amb	-2842
▁juf	-2843
▁korte	-2844
athol	-2845
.)	-2846
ash	-2847
rein	-2848
ctuur	-2849
▁Her	-2850
tussen	-2851
▁functie	-2852
▁Prin	-2853
▁kolon	-2854
▁vle	-2855
▁opger	-2856
▁wachten	-2857
▁temperatuur	-2858
▁Ed	-2859
▁makkelijk	-2860
asting	-2861
▁hield	-2862
▁dochter	-2863
oth	-2864
▁Dis	-2865
▁stoffen	-2866
▁voordat	-2867
▁ergens	-2868
▁koningin	-2869
schiedenis	-2870
▁Vanaf	-2871
ype	-2872
▁cor	-2873
▁heer	-2874
▁pakt	-2875
▁computer	-2876
▁trap	-2877
▁top	-2878
ouwen	-2879
▁antwoorden	-2880
▁pijn	-2881
▁kosten	-2882
▁result	-2883
▁Noor	-2884
olland	-2885
▁Ieder	-2886
ity	-2887
▁Grote	-2888
▁kiezen	-2889
aakte	-2890
ranten	-2891
▁gekomen	-2892
▁verzam	-2893
hoek	-2894
▁ene	-2895
▁wet	-2896
enk	-2897
iviteit	-2898
asten	-2899
▁Mart	-2900
ival	-2901
▁commun	-2902
ue	-2903
ebru	-2904
dom	-2905
▁hoeveelheid	-2906
▁geef	-2907
achter	-2908
▁Turk	-2909
▁Welk	-2910
ai	-2911
anning	-2912
▁ontwikkeling	-2913
▁Opgave	-2914
▁Wanneer	-2915
▁boer	-2916
▁Utrecht	-2917
otte	-2918
▁televisie	-2919
▁tek	-2920
▁lijst	-2921
lo	-2922
SISTER	-2923
▁Oekraï	-2924
iber	-2925
▁gebracht	-2926
▁Jeugdjournaal	-2927
▁daarbij	-2928
▁geweld	-2929
▁meisjes	-2930
erend	-2931
iers	-2932
izoen	-2933
▁techn	-2934
▁IJ	-2935
▁(""	-2936
achtig	-2937
▁proberen	-2938
▁ap	-2939
▁onaf	-2940
▁omhoog	-2941
rukt	-2942
isteren	-2943
▁dur	-2944
▁keuken	-2945
▁28	-2946
die	-2947
vaart	-2948
▁langer	-2949
gte	-2950
▁keizer	-2951
ikken	-2952
standig	-2953
▁vrienden	-2954
▁Nic	-2955
▁fil	-2956
▁scholen	-2957
cellen	-2958
ack	-2959
▁toek	-2960
ebruari	-2961
▁Ke	-2962
▁y	-2963
ona	-2964
▁zomer	-2965
▁augustus	-2966
▁schilderij	-2967
▁reacties	-2968
▁voetb	-2969
bie	-2970
spraken	-2971
ones	-2972
aste	-2973
▁zieken	-2974
▁ah	-2975
co	-2976
▁gebruikte	-2977
onk	-2978
▁all	-2979
▁gespeeld	-2980
ider	-2981
eller	-2982
organis	-2983
▁Sovjet	-2984
Waar	-2985
▁kost	-2986
▁Steph	-2987
▁kab	-2988
▁leggen	-2989
▁Olymp	-2990
▁huidige	-2991
▁leeftijd	-2992
▁god	-2993
▁kar	-2994
▁veroorz	-2995
▁zuiden	-2996
▁bus	-2997
▁stellen	-2998
roef	-2999
▁raam	-3000
▁bedacht	-3001
▁sym	-3002
gebracht	-3003
▁toon	-3004
▁filmpje	-3005
LA	-3006
▁verkocht	-3007
▁links	-3008
igh	-3009
uim	-3010
▁nummers	-3011
▁Gem	-3012
▁Or	-3013
▁prin	-3014
?"	-3015
▁4.	-3016
kens	-3017
▁leden	-3018
▁klin	-3019
▁Port	-3020
▁zwarte	-3021
orie	-3022
▁slechts	-3023
▁jongeren	-3024
kamer	-3025
▁schip	-3026
rimin	-3027
▁album	-3028
ooien	-3029
▁trekken	-3030
▁toet	-3031
BR	-3032
kelijk	-3033
▁rechter	-3034
intig	-3035
▁wol	-3036
met	-3037
▁groepen	-3038
ouwd	-3039
▁hierdoor	-3040
▁27	-3041
▁inst	-3042
▁pe	-3043
schrift	-3044
uff	-3045
oeder	-3046
wet	-3047
▁februari	-3048
▁cijf	-3049
▁trad	-3050
▁IS	-3051
atten	-3052
▁regio	-3053
▁Eg	-3054
erij	-3055
▁Luc	-3056
▁parlement	-3057
▁gedeelte	-3058
▁gang	-3059
▁klimaat	-3060
AND	-3061
▁rec	-3062
▁daardoor	-3063
anks	-3064
gelegd	-3065
ise	-3066
▁team	-3067
keken	-3068
▁bevin	-3069
gezet	-3070
▁Tussen	-3071
▁waaronder	-3072
iër	-3073
oeden	-3074
▁jongetje	-3075
▁snelheid	-3076
▁wilt	-3077
▁Engelse	-3078
ana	-3079
ley	-3080
▁gebeurd	-3081
▁Pas	-3082
▁fe	-3083
baan	-3084
▁conc	-3085
▁verwacht	-3086
rip	-3087
wagen	-3088
▁Oor	-3089
ain	-3090
▁fiet	-3091
▁Ur	-3092
▁Se	-3093
▁person	-3094
▁Bra	-3095
▁toneel	-3096
mel	-3097
▁Amerika	-3098
▁Later	-3099
▁kleuren	-3100
▁voer	-3101
▁onderwijs	-3102
▁ko	-3103
▁Disney	-3104
▁Joost	-3105
51	-3106
▁Links	-3107
▁huilen	-3108
▁teksten	-3109
ici	-3110
▁Gu	-3111
▁mm	-3112
▁zacht	-3113
IT	-3114
ola	-3115
▁totale	-3116
▁vertelt	-3117
▁vonden	-3118
ationaal	-3119
strijden	-3120
oekt	-3121
ada	-3122
▁disc	-3123
▁cons	-3124
randen	-3125
▁stonden	-3126
bo	-3127
estival	-3128
▁intern	-3129
▁26	-3130
▁Mijn	-3131
▁leu	-3132
▁rep	-3133
▁argument	-3134
▁veld	-3135
▁noorden	-3136
▁GE	-3137
▁Soms	-3138
▁muur	-3139
▁2014	-3140
▁eruit	-3141
to	-3142
▁et	-3143
▁Sim	-3144
riet	-3145
las	-3146
iaanse	-3147
schappij	-3148
ublic	-3149
▁buik	-3150
▁erop	-3151
▁Partij	-3152
▁honder	-3153
loos	-3154
cept	-3155
▁Ja	-3156
▁sold	-3157
▁(7	-3158
oegd	-3159
▁tegenwoordig	-3160
▁schreef	-3161
het	-3162
zak	-3163
▁krit	-3164
▁toekomst	-3165
uck	-3166
wed	-3167
▁situatie	-3168
▁gewonnen	-3169
elle	-3170
▁Engels	-3171
yd	-3172
ries	-3173
eep	-3174
son	-3175
▁winter	-3176
isen	-3177
toe	-3178
tro	-3179
own	-3180
aarten	-3181
▁straks	-3182
▁com	-3183
▁Bron	-3184
▁Heb	-3185
atting	-3186
▁ij	-3187
▁uni	-3188
▁toren	-3189
▁wapen	-3190
▁gemiddelde	-3191
ringen	-3192
▁slaap	-3193
AA	-3194
volutie	-3195
▁bedrijven	-3196
ampen	-3197
▁suik	-3198
▁Laat	-3199
▁woont	-3200
pakt	-3201
▁fab	-3202
▁zus	-3203
▁baas	-3204
▁ineens	-3205
▁hieronder	-3206
▁2020	-3207
aardig	-3208
▁,	-3209
UN	-3210
▁Fil	-3211
chtend	-3212
▁Wit	-3213
▁vlag	-3214
▁verband	-3215
▁cm	-3216
▁helft	-3217
halen	-3218
ject	-3219
ictor	-3220
▁Haag	-3221
▁val	-3222
▁Man	-3223
!'"	-3224
▁dank	-3225
▁as	-3226
)."	-3227
ines	-3228
▁stu	-3229
▁verdien	-3230
▁straf	-3231
▁arbe	-3232
▁gas	-3233
▁Piet	-3234
▁hoorde	-3235
sloten	-3236
▁brood	-3237
lor	-3238
ret	-3239
▁erin	-3240
▁duurt	-3241
▁aandacht	-3242
▁ontstond	-3243
▁bedoeld	-3244
▁cultuur	-3245
▁Em	-3246
▁2019	-3247
▁mevrouw	-3248
▁grafiek	-3249
produc	-3250
▁HET	-3251
OM	-3252
▁stoppen	-3253
▁Geschiedenis	-3254
ute	-3255
▁Verenigd	-3256
10	-3257
▁Nap	-3258
▁grens	-3259
▁kunsten	-3260
3.	-3261
Hoe	-3262
iteindelijk	-3263
▁sprake	-3264
▁hoeft	-3265
▁Az	-3266
rook	-3267
▁maakten	-3268
▁Net	-3269
▁Pol	-3270
▁goud	-3271
▁informatiebron	-3272
ail	-3273
staat	-3274
ef	-3275
▁prem	-3276
ham	-3277
▁Val	-3278
▁2011	-3279
▁inkomen	-3280
▁economische	-3281
▁pagina	-3282
inet	-3283
▁artikel	-3284
▁Mensen	-3285
▁vers	-3286
▁vissen	-3287
▁2017	-3288
▁au	-3289
▁York	-3290
gde	-3291
▁productie	-3292
▁kust	-3293
voud	-3294
▁loop	-3295
▁mede	-3296
▁Griek	-3297
▁/	-3298
werking	-3299
▁beer	-3300
▁trok	-3301
▁economie	-3302
ign	-3303
orge	-3304
▁verhalen	-3305
atius	-3306
▁Grieken	-3307
▁Samen	-3308
▁Uiteindelijk	-3309
enten	-3310
▁Dav	-3311
▁2015	-3312
stant	-3313
▁liter	-3314
▁radio	-3315
Unie	-3316
▁gebeurde	-3317
▁uitb	-3318
prijs	-3319
▁normaal	-3320
middels	-3321
park	-3322
▁berg	-3323
69	-3324
tus	-3325
ane	-3326
middel	-3327
gew	-3328
▁29	-3329
eerden	-3330
▁museum	-3331
ific	-3332
▁Will	-3333
▁Maria	-3334
▁behand	-3335
▁Sc	-3336
▁varken	-3337
▁Mil	-3338
▁herken	-3339
▁gebeurten	-3340
isk	-3341
markt	-3342
▁leek	-3343
oude	-3344
▁glas	-3345
▁speelde	-3346
▁asp	-3347
▁fijn	-3348
▁Victor	-3349
▁Misschien	-3350
-7	-3351
ecten	-3352
▁geldt	-3353
▁Paulus	-3354
▁Sint	-3355
namelijk	-3356
▁kasteel	-3357
ustral	-3358
▁hersen	-3359
aaf	-3360
▁prof	-3361
▁blok	-3362
▁proces	-3363
rijzen	-3364
▁leiden	-3365
her	-3366
ock	-3367
▁lachen	-3368
▁Nederlanders	-3369
▁term	-3370
▁besluit	-3371
▁gesproken	-3372
punten	-3373
Dan	-3374
▁hot	-3375
▁oppervlak	-3376
▁2016	-3377
▁Republiek	-3378
▁Hend	-3379
▁volgt	-3380
▁instru	-3381
▁Dus	-3382
▁XV	-3383
▁Mex	-3384
atieve	-3385
▁gevoel	-3386
▁onafhankelijk	-3387
▁Stephanus	-3388
andid	-3389
▁Alleen	-3390
▁Min	-3391
▁Koning	-3392
▁present	-3393
,0	-3394
ull	-3395
rische	-3396
matig	-3397
▁besloot	-3398
▁winnen	-3399
eg	-3400
ima	-3401
▁doos	-3402
nemers	-3403
▁huizen	-3404
▁procent	-3405
▁verover	-3406
▁trekt	-3407
▁wand	-3408
▁bomen	-3409
elsel	-3410
▁vaker	-3411
▁Cal	-3412
▁titel	-3413
▁vogels	-3414
3-1	-3415
▁bact	-3416
▁attra	-3417
▁2008	-3418
▁Vaak	-3419
▁fles	-3420
▁ontb	-3421
▁probeert	-3422
stoffen	-3423
▁mening	-3424
▁Russische	-3425
oper	-3426
▁ongeluk	-3427
iment	-3428
▁wint	-3429
BROTHER	-3430
,5	-3431
ellingen	-3432
▁daarmee	-3433
eeuwen	-3434
▁finale	-3435
kan	-3436
▁schou	-3437
▁60	-3438
schrij	-3439
▁vorige	-3440
20	-3441
▁dak	-3442
▁aanwezig	-3443
▁blad	-3444
▁direct	-3445
omas	-3446
▁deden	-3447
▁volwassen	-3448
uh	-3449
unst	-3450
treden	-3451
▁vreem	-3452
OO	-3453
▁Char	-3454
name	-3455
▁Kat	-3456
gar	-3457
▁steen	-3458
▁nadat	-3459
▁plaatje	-3460
anne	-3461
▁Roos	-3462
▁bleek	-3463
▁2012	-3464
▁Oranje	-3465
▁verspre	-3466
ette	-3467
agram	-3468
euren	-3469
▁dikke	-3470
▁duizen	-3471
▁kleding	-3472
▁eilanden	-3473
▁verdeeld	-3474
▁plekken	-3475
cel	-3476
elijkheid	-3477
▁schrijver	-3478
▁wee	-3479
▁daarvan	-3480
▁milit	-3481
usic	-3482
▁dru	-3483
▁opgericht	-3484
▁190	-3485
arts	-3486
odewijk	-3487
▁2009	-3488
▁2018	-3489
dieren	-3490
▁ontdekt	-3491
ustrie	-3492
▁noord	-3493
▁Austral	-3494
▁And	-3495
▁WE	-3496
roon	-3497
▁Mer	-3498
ages	-3499
▁kerst	-3500
osl	-3501
▁onbe	-3502
rank	-3503
▁uitspraak	-3504
▁Maak	-3505
amm	-3506
▁kleiner	-3507
▁probeerde	-3508
▁2005	-3509
▁zaten	-3510
▁publiek	-3511
raël	-3512
aaien	-3513
▁vliegen	-3514
aartje	-3515
▁Ab	-3516
gesteld	-3517
▁aangegeven	-3518
hol	-3519
▁midd	-3520
reed	-3521
▁bloemen	-3522
maat	-3523
▁war	-3524
▁geheim	-3525
▁zingen	-3526
▁Tegenwoordig	-3527
astic	-3528
▁sociale	-3529
▁ding	-3530
Die	-3531
▁Qu	-3532
ermen	-3533
▁hoogste	-3534
▁Lodewijk	-3535
▁Laur	-3536
▁adem	-3537
▁vlees	-3538
rent	-3539
▁uitv	-3540
▁bewer	-3541
▁rustig	-3542
NA	-3543
80	-3544
▁gelukkig	-3545
▁bestond	-3546
▁hoek	-3547
band	-3548
uurd	-3549
uut	-3550
▁Sn	-3551
▁staart	-3552
▁bescherm	-3553
▁personen	-3554
▁Zee	-3555
▁bloem	-3556
clusie	-3557
▁media	-3558
uss	-3559
▁EN	-3560
Euro	-3561
▁voorbij	-3562
▁producten	-3563
gemaakt	-3564
▁gedrag	-3565
▁opzicht	-3566
▁2004	-3567
▁richting	-3568
hel	-3569
▁bord	-3570
▁2006	-3571
▁George	-3572
itt	-3573
▁5.	-3574
▁Urb	-3575
▁baan	-3576
plaatst	-3577
nis	-3578
▁stud	-3579
▁Bonif	-3580
▁Thomas	-3581
▁ha	-3582
aris	-3583
▁adv	-3584
▁hon	-3585
TI	-3586
▁plat	-3587
ijns	-3588
▁Hendrik	-3589
oster	-3590
96	-3591
▁dok	-3592
▁zuurstof	-3593
▁ban	-3594
▁lamp	-3595
▁Bonifatius	-3596
▁voornamelijk	-3597
etters	-3598
ekend	-3599
▁films	-3600
▁Spaanse	-3601
teken	-3602
▁Hun	-3603
▁gras	-3604
▁God	-3605
▁stro	-3606
tern	-3607
▁Naast	-3608
▁organisatie	-3609
▁eentje	-3610
▁Unie	-3611
gemeester	-3612
▁gebeuren	-3613
moet	-3614
vang	-3615
eraal	-3616
▁wetenschapp	-3617
▁Let	-3618
90	-3619
▁Israël	-3620
▁iedere	-3621
▁morgen	-3622
inding	-3623
aardoor	-3624
▁vergelijking	-3625
▁pass	-3626
▁Sa	-3627
▁hoef	-3628
45	-3629
ith	-3630
▁log	-3631
▁markt	-3632
▁spullen	-3633
▁Provin	-3634
iam	-3635
omin	-3636
▁gauw	-3637
zichtig	-3638
lopen	-3639
▁Hong	-3640
olecu	-3641
kn	-3642
ugen	-3643
orten	-3644
▁haven	-3645
zee	-3646
programma	-3647
▁Ts	-3648
▁besp	-3649
Ch	-3650
ous	-3651
▁Urbanus	-3652
▁vul	-3653
icus	-3654
ixtus	-3655
▁onderstaande	-3656
▁ziekenhuis	-3657
iele	-3658
▁2007	-3659
▁car	-3660
▁Nicol	-3661
▁Cent	-3662
▁Want	-3663
▁droog	-3664
izen	-3665
denken	-3666
▁uw	-3667
84	-3668
ors	-3669
▁el	-3670
▁HE	-3671
ruit	-3672
▁honden	-3673
▁my	-3674
erende	-3675
24	-3676
ats	-3677
▁besloten	-3678
OOR	-3679
▁koud	-3680
▁Mal	-3681
rekken	-3682
▁erbij	-3683
99	-3684
▁gezet	-3685
waarde	-3686
oi	-3687
pol	-3688
▁blik	-3689
▁begrij	-3690
ertog	-3691
ice	-3692
ormen	-3693
▁stam	-3694
▁speciaal	-3695
stem	-3696
▁Maarten	-3697
▁talen	-3698
▁wakker	-3699
▁keuze	-3700
▁stappen	-3701
▁imm	-3702
▁tas	-3703
▁stelt	-3704
▁tent	-3705
Er	-3706
▁landbouw	-3707
▁zorgde	-3708
▁JE	-3709
lang	-3710
▁bak	-3711
▁gebouwen	-3712
▁Ph	-3713
▁Gemeen	-3714
▁suiker	-3715
▁gisteren	-3716
▁vloe	-3717
▁gevaarlijk	-3718
▁kwart	-3719
des	-3720
▁gezondheid	-3721
85	-3722
Op	-3723
alisme	-3724
▁gewone	-3725
▁ern	-3726
▁leeg	-3727
▁hangt	-3728
▁opgave	-3729
▁behaald	-3730
bele	-3731
▁Fre	-3732
▁CD	-3733
▁Olympische	-3734
-3	-3735
▁Napole	-3736
▁haalde	-3737
▁zonne	-3738
ile	-3739
oepen	-3740
▁Verk	-3741
▁zwart	-3742
▁behalen	-3743
▁webs	-3744
▁bar	-3745
17	-3746
▁bracht	-3747
▁Klaas	-3748
▁Londen	-3749
▁(3	-3750
vens	-3751
chine	-3752
▁vracht	-3753
▁geïn	-3754
▁legt	-3755
entuin	-3756
▁appar	-3757
▁symb	-3758
▁overal	-3759
▁behoren	-3760
fin	-3761
ongen	-3762
▁Gron	-3763
▁Gal	-3764
oordat	-3765
▁schrijf	-3766
ochten	-3767
pjes	-3768
▁kal	-3769
▁strijd	-3770
▁kritiek	-3771
meer	-3772
ogel	-3773
▁democ	-3774
▁veranderen	-3775
▁2021	-3776
▁lengte	-3777
iveau	-3778
▁zanger	-3779
gevoegd	-3780
▁seizoen	-3781
▁gevolgen	-3782
Nou	-3783
arch	-3784
▁beelden	-3785
▁Belgische	-3786
▁overeen	-3787
RO	-3788
▁Vooral	-3789
GEN	-3790
▁genomen	-3791
the	-3792
▁burgemeester	-3793
▁beoord	-3794
▁enorme	-3795
▁opgenomen	-3796
▁dans	-3797
gere	-3798
▁langzaam	-3799
▁hiervoor	-3800
▁gemiddeld	-3801
▁draait	-3802
▁amb	-3803
▁bekendste	-3804
▁schem	-3805
▁strand	-3806
Af	-3807
allo	-3808
▁klinkt	-3809
zil	-3810
▁mer	-3811
del	-3812
▁IN	-3813
▁soldaten	-3814
▁kenmerken	-3815
centage	-3816
richt	-3817
▁fluist	-3818
▁algemeen	-3819
raven	-3820
▁Oekraïne	-3821
▁Kn	-3822
▁financ	-3823
▁staten	-3824
urs	-3825
ance	-3826
▁dorpen	-3827
▁2013	-3828
▁mann	-3829
▁optreden	-3830
ww	-3831
▁Zwe	-3832
▁Land	-3833
▁to	-3834
ieken	-3835
▁voldoen	-3836
▁Romeinse	-3837
ress	-3838
▁Chine	-3839
ike	-3840
IET	-3841
▁exper	-3842
▁zuid	-3843
leving	-3844
▁moderne	-3845
▁dw	-3846
regel	-3847
▁tekening	-3848
▁twintig	-3849
geld	-3850
▁Mad	-3851
▁post	-3852
▁haalt	-3853
▁Eén	-3854
▁ochtend	-3855
ionen	-3856
▁olif	-3857
▁tekenen	-3858
▁zwemmen	-3859
▁Wal	-3860
▁bood	-3861
▁milieu	-3862
▁daarvoor	-3863
2-	-3864
▁koop	-3865
verkiezingen	-3866
▁"*	-3867
CHT	-3868
aker	-3869
eters	-3870
▁Democ	-3871
▁levens	-3872
DE	-3873
uif	-3874
▁train	-3875
iem	-3876
▁handel	-3877
▁WK	-3878
▁paleis	-3879
eriën	-3880
iegel	-3881
▁kern	-3882
▁histor	-3883
▁pracht	-3884
▁onderste	-3885
zijn	-3886
▁erv	-3887
▁du	-3888
cus	-3889
▁La	-3890
▁stier	-3891
▁dragen	-3892
▁vaste	-3893
▁Napoleon	-3894
ère	-3895
ombin	-3896
ressie	-3897
▁draaien	-3898
▁ok	-3899
▁richt	-3900
vallen	-3901
▁afval	-3902
stelsel	-3903
▁Andere	-3904
▁manieren	-3905
▁reage	-3906
▁Verder	-3907
▁veilig	-3908
▁vinger	-3909
▁spreken	-3910
▁Groot	-3911
▁Afrika	-3912
▁groeien	-3913
▁appel	-3914
igt	-3915
▁VAN	-3916
▁broek	-3917
▁verpl	-3918
ager	-3919
▁feit	-3920
atisch	-3921
▁Lat	-3922
Amerika	-3923
▁2022	-3924
verb	-3925
▁zogen	-3926
▁Uni	-3927
▁jeugd	-3928
▁oorzaak	-3929
▁80	-3930
▁Bas	-3931
▁www	-3932
▁motor	-3933
▁versl	-3934
xide	-3935
▁OP	-3936
▁stren	-3937
rale	-3938
ijnt	-3939
▁koolstof	-3940
78	-3941
▁(201	-3942
▁um	-3943
▁tegenst	-3944
▁verloren	-3945
▁armen	-3946
ih	-3947
▁boeren	-3948
▁verboden	-3949
aamd	-3950
rouwen	-3951
school	-3952
▁volledig	-3953
5-1	-3954
▁Nog	-3955
▁Polen	-3956
geheten	-3957
▁onderzoekers	-3958
▁Bos	-3959
▁Air	-3960
▁gegaan	-3961
IDEN	-3962
▁steun	-3963
▁tr	-3964
▁Adri	-3965
▁dokter	-3966
▁Laura	-3967
▁contro	-3968
▁passen	-3969
osaur	-3970
▁fietsen	-3971
▁zogeheten	-3972
ella	-3973
Daar	-3974
iërs	-3975
▁Vand	-3976
▁vermogen	-3977
▁AL	-3978
▁olie	-3979
▁tegelijk	-3980
past	-3981
issie	-3982
▁beweging	-3983
▁Stad	-3984
▁verkeer	-3985
za	-3986
ukte	-3987
inden	-3988
▁konijn	-3989
▁2002	-3990
▁meth	-3991
auto	-3992
spro	-3993
rant	-3994
sland	-3995
zitter	-3996
▁schrik	-3997
▁:	-3998
▁kent	-3999
urende	-4000
▁i	-4001
oegen	-4002
▁boekje	-4003
▁kennen	-4004
▁sneller	-4005
ax	-4006
IED	-4007
▁At	-4008
▁blauwe	-4009
▁Nad	-4010
licht	-4011
▁fragment	-4012
▁Natuur	-4013
opend	-4014
▁Not	-4015
stein	-4016
▁hor	-4017
zeker	-4018
steen	-4019
▁Vroe	-4020
achtige	-4021
63	-4022
▁kam	-4023
▁6.	-4024
raan	-4025
zing	-4026
▁vlieg	-4027
▁2001	-4028
▁Daan	-4029
▁pakte	-4030
▁centrum	-4031
▁ouder	-4032
kaan	-4033
▁Griekse	-4034
bak	-4035
ijm	-4036
rabant	-4037
▁systeem	-4038
▁voelt	-4039
ded	-4040
icro	-4041
▁oppervlakte	-4042
aurant	-4043
▁muis	-4044
▁es	-4045
▁tanden	-4046
81	-4047
▁Brazil	-4048
iënt	-4049
oris	-4050
schil	-4051
naam	-4052
▁beper	-4053
▁so	-4054
▁ruzie	-4055
▁versie	-4056
▁kennis	-4057
rui	-4058
▁David	-4059
▁officieel	-4060
▁Huis	-4061
▁Sal	-4062
▁graden	-4063
▁ab	-4064
▁Nicolaas	-4065
coh	-4066
nes	-4067
▁getekend	-4068
▁seconden	-4069
▁wou	-4070
rucht	-4071
ratische	-4072
aseerd	-4073
▁letters	-4074
ologische	-4075
TIF	-4076
▁lin	-4077
urgers	-4078
▁omgeving	-4079
sport	-4080
▁zagen	-4081
▁ler	-4082
▁groei	-4083
óó	-4084
▁geheel	-4085
▁schade	-4086
▁dierentuin	-4087
ition	-4088
▁zette	-4089
▁inhoud	-4090
▁universiteit	-4091
IDENTIF	-4092
▁volgen	-4093
UNIDENTIF	-4094
▁veranderd	-4095
UNIDENTIFIED	-4096
sa	-4097
▁tie	-4098
aderen	-4099
▁plastic	-4100
98	-4101
ctor	-4102
ace	-4103
▁EU	-4104
oken	-4105
▁Ten	-4106
▁lijken	-4107
▁veroorzaakt	-4108
▁DAT	-4109
boven	-4110
▁plannen	-4111
▁vergeten	-4112
ych	-4113
▁tel	-4114
tu	-4115
adem	-4116
▁cijfers	-4117
56	-4118
▁Boven	-4119
▁vrije	-4120
▁voeren	-4121
▁zout	-4122
▁Thijs	-4123
!""	-4124
VD	-4125
▁Vlaam	-4126
▁groene	-4127
▁kandid	-4128
▁da	-4129
club	-4130
▁hiervan	-4131
▁schoenen	-4132
▁groen	-4133
▁veren	-4134
14	-4135
cohol	-4136
▁model	-4137
huizen	-4138
▁hierbij	-4139
▁afbeeldingen	-4140
lever	-4141
▁stuur	-4142
▁Europ	-4143
▁broe	-4144
eeland	-4145
▁verte	-4146
él	-4147
58)	-4148
hem	-4149
▁vervangen	-4150
▁internationale	-4151
▁thema	-4152
▁vet	-4153
▁proef	-4154
▁vraagnummer	-4155
lage	-4156
vest	-4157
▁Jos	-4158
▁bereiken	-4159
ureau	-4160
▁uitzen	-4161
▁rot	-4162
▁gram	-4163
boeken	-4164
▁zaken	-4165
neke	-4166
▁ang	-4167
lem	-4168
ieën	-4169
▁arch	-4170
imburg	-4171
▁Zwits	-4172
▁direc	-4173
gez	-4174
amera	-4175
heer	-4176
▁staats	-4177
oond	-4178
48	-4179
bus	-4180
▁CO	-4181
▁Lou	-4182
▁cre	-4183
▁kruis	-4184
▁tv	-4185
interkl	-4186
▁werkte	-4187
ijnse	-4188
▁Daardoor	-4189
emen	-4190
▁voelde	-4191
aats	-4192
ount	-4193
plant	-4194
▁rust	-4195
▁zware	-4196
▁bepalen	-4197
▁prins	-4198
▁Neem	-4199
▁stru	-4200
▁christ	-4201
▁pir	-4202
GR	-4203
▁gevorm	-4204
▁Hierbij	-4205
ern	-4206
▁toegevoegd	-4207
bad	-4208
aalf	-4209
gaat	-4210
▁opt	-4211
▁Spelen	-4212
atholieke	-4213
nooi	-4214
elaar	-4215
tes	-4216
▁eend	-4217
▁oudste	-4218
AK	-4219
▁Egyp	-4220
skund	-4221
IS	-4222
ca	-4223
▁Wh	-4224
▁kip	-4225
sters	-4226
▁kies	-4227
▁Kerk	-4228
▁thee	-4229
▁Chr	-4230
▁Hel	-4231
▁rent	-4232
▁Bur	-4233
▁zil	-4234
adden	-4235
▁allebei	-4236
▁Eef	-4237
▁filos	-4238
▁Groningen	-4239
▁VER	-4240
▁strip	-4241
wezen	-4242
▁uitspraken	-4243
▁NIET	-4244
atische	-4245
▁bodem	-4246
▁overst	-4247
▁Turkije	-4248
jax	-4249
▁Sil	-4250
mming	-4251
▁2003	-4252
▁grotere	-4253
▁samenleving	-4254
▁kg	-4255
Duit	-4256
▁colle	-4257
aver	-4258
▁rennen	-4259
▁gebaseerd	-4260
▁beschreven	-4261
di	-4262
▁studen	-4263
▁NO	-4264
station	-4265
▁Kijk	-4266
▁sterren	-4267
▁inmiddels	-4268
"")."	-4269
ka	-4270
IJN	-4271
▁been	-4272
▁word	-4273
▁ontmoet	-4274
▁pan	-4275
▁enkel	-4276
▁7.	-4277
ilde	-4278
▁schuld	-4279
▁|	-4280
ersp	-4281
laag	-4282
▁2023	-4283
▁Naar	-4284
▁zomaar	-4285
▁ondersche	-4286
▁onderzoeken	-4287
▁prinses	-4288
▁vervoer	-4289
echt	-4290
vester	-4291
▁liedje	-4292
▁wegen	-4293
▁kaas	-4294
▁zinnen	-4295
▁Fe	-4296
rong	-4297
▁Bram	-4298
▁35	-4299
sluit	-4300
▁and	-4301
▁type	-4302
steld	-4303
▁Zweden	-4304
eratie	-4305
ida	-4306
yr	-4307
▁Ro	-4308
▁XIII	-4309
▁corre	-4310
▁Mexico	-4311
vd	-4312
▁dienst	-4313
▁spannen	-4314
▁tijdje	-4315
mene	-4316
▁bedre	-4317
derdaad	-4318
▁paus	-4319
▁afgele	-4320
▁leider	-4321
12	-4322
▁nood	-4323
▁geopend	-4324
▁beschermen	-4325
rem	-4326
▁opgel	-4327
gevallen	-4328
line	-4329
▁insp	-4330
▁zetels	-4331
▁verteld	-4332
▁elektrische	-4333
▁verantwoord	-4334
ierd	-4335
▁goe	-4336
▁jas	-4337
▁Bart	-4338
▁website	-4339
▁mob	-4340
▁Arn	-4341
▁ho	-4342
▁ond	-4343
achtoff	-4344
interklaas	-4345
▁Griekenland	-4346
uf	-4347
ling	-4348
rib	-4349
otseling	-4350
▁Nee	-4351
▁schilder	-4352
▁vertelde	-4353
regels	-4354
▁co	-4355
▁Col	-4356
▁schrijft	-4357
dienst	-4358
▁Oorlog	-4359
▁attractie	-4360
fab	-4361
▁overleed	-4362
▁Serv	-4363
▁Eerst	-4364
ational	-4365
la	-4366
Zo	-4367
▁bedrag	-4368
que	-4369
▁lok	-4370
LE	-4371
▁sk	-4372
▁rand	-4373
▁kindje	-4374
27	-4375
by	-4376
esse	-4377
▁Pe	-4378
inke	-4379
abeth	-4380
outer	-4381
▁jaarlijk	-4382
▁No	-4383
illa	-4384
▁betre	-4385
▁Wij	-4386
▁Elke	-4387
▁relig	-4388
▁beoordeling	-4389
An	-4390
aff	-4391
atis	-4392
ward	-4393
▁Soc	-4394
▁uitgeb	-4395
orgd	-4396
▁bre	-4397
▁Water	-4398
▁verkopen	-4399
▁Achter	-4400
▁tegenover	-4401
▁voorzichtig	-4402
▁buitenland	-4403
▁merk	-4404
▁leidde	-4405
▁vandaan	-4406
▁Sm	-4407
▁materiaal	-4408
▁Dag	-4409
▁mel	-4410
▁verwijzen	-4411
▁Jer	-4412
▁relatie	-4413
▁basissch	-4414
▁Ni	-4415
▁tante	-4416
▁8.	-4417
..."	-4418
malige	-4419
▁gehaald	-4420
▁vrijheid	-4421
ianus	-4422
anda	-4423
▁Volks	-4424
▁bevindt	-4425
▁choc	-4426
▁massa	-4427
▁Canada	-4428
▁hondje	-4429
geteld	-4430
▁hangen	-4431
zame	-4432
oorte	-4433
▁Tur	-4434
▁Zelf	-4435
ouding	-4436
▁liever	-4437
▁Ot	-4438
▁Portug	-4439
▁Iedereen	-4440
elend	-4441
zi	-4442
▁inv	-4443
▁Ag	-4444
iste	-4445
▁omzet	-4446
festival	-4447
raat	-4448
▁premier	-4449
▁beest	-4450
arde	-4451
Neder	-4452
derik	-4453
▁Australië	-4454
▁Bo	-4455
da	-4456
vie	-4457
▁helpt	-4458
▁gasten	-4459
▁schepen	-4460
▁dun	-4461
▁concent	-4462
let	-4463
sw	-4464
uts	-4465
▁Pep	-4466
▁neg	-4467
aller	-4468
▁protest	-4469
haven	-4470
terne	-4471
▁Chinese	-4472
aagd	-4473
akers	-4474
▁vervol	-4475
▁overleden	-4476
ivis	-4477
▁oosten	-4478
▁vijft	-4479
▁hit	-4480
▁burger	-4481
▁product	-4482
lant	-4483
▁kabinet	-4484
▁ballon	-4485
▁Sar	-4486
▁start	-4487
aasd	-4488
gorde	-4489
▁recl	-4490
2-1	-4491
▁70	-4492
wijf	-4493
risis	-4494
▁autom	-4495
▁sturen	-4496
▁India	-4497
▁Rond	-4498
▁burgers	-4499
koop	-4500
ondag	-4501
ournal	-4502
▁ronde	-4503
▁eindelijk	-4504
ras	-4505
ootje	-4506
▁kwijt	-4507
ografie	-4508
▁Kinderen	-4509
▁Anna	-4510
▁officiële	-4511
▁bijzondere	-4512
eet	-4513
▁sleut	-4514
▁uiter	-4515
west	-4516
▁cel	-4517
▁Wel	-4518
▁voeten	-4519
30)	-4520
▁Su	-4521
▁aap	-4522
▁winst	-4523
▁minim	-4524
▁social	-4525
pass	-4526
▁crimin	-4527
▁Adrianus	-4528
▁2024	-4529
▁Ajax	-4530
▁rijdt	-4531
Kom	-4532
gin	-4533
▁lager	-4534
▁stenen	-4535
590	-4536
▁zicht	-4537
▁Midden	-4538
sproken	-4539
uwelijks	-4540
ipp	-4541
lop	-4542
ammer	-4543
okk	-4544
▁wink	-4545
▁schaal	-4546
▁mochten	-4547
ringt	-4548
▁touw	-4549
▁geel	-4550
ageren	-4551
▁westen	-4552
oeien	-4553
▁liepen	-4554
75	-4555
asius	-4556
▁bekijken	-4557
▁Mag	-4558
▁stev	-4559
ilt	-4560
▁effect	-4561
▁verkoop	-4562
▁Groen	-4563
▁bezet	-4564
adering	-4565
▁kleren	-4566
▁zucht	-4567
aterdag	-4568
▁raakte	-4569
▁negen	-4570
▁behoor	-4571
▁schoot	-4572
▁bacteriën	-4573
▁inse	-4574
▁exp	-4575
▁Drie	-4576
▁Heel	-4577
▁gezin	-4578
▁Indones	-4579
▁Fin	-4580
83	-4581
groe	-4582
▁Bijvoorbeeld	-4583
▁opeens	-4584
54)	-4585
▁chem	-4586
regelen	-4587
▁uitgez	-4588
▁Schot	-4589
▁leuke	-4590
▁Lux	-4591
▁praat	-4592
▁stukken	-4593
▁bijlage	-4594
▁regelmatig	-4595
▁halve	-4596
indingen	-4597
▁restaurant	-4598
ruim	-4599
▁hiel	-4600
▁winn	-4601
middag	-4602
▁gaten	-4603
▁wijze	-4604
hoven	-4605
standigheden	-4606
bet	-4607
komsten	-4608
▁hartst	-4609
▁inderdaad	-4610
▁Amerikanen	-4611
ala	-4612
fe	-4613
▁gar	-4614
ommen	-4615
soort	-4616
▁rekening	-4617
▁verliefd	-4618
▁brandweer	-4619
▁500	-4620
▁controle	-4621
dra	-4622
▁Licht	-4623
rokk	-4624
▁Nou	-4625
▁part	-4626
▁Vroeger	-4627
▁opzichte	-4628
rond	-4629
gebruik	-4630
▁dichter	-4631
▁Steden	-4632
rest	-4633
▁afloop	-4634
wedstrijd	-4635
▁Christus	-4636
▁Jacob	-4637
zw	-4638
▁Binnen	-4639
▁hè	-4640
wekker	-4641
schreven	-4642
▁toeristen	-4643
▁1999	-4644
▁alcohol	-4645
▁slechte	-4646
▁honderd	-4647
VV	-4648
▁Jaap	-4649
▁herinn	-4650
erden	-4651
▁slachtoff	-4652
Dit	-4653
ome	-4654
opp	-4655
▁dik	-4656
ight	-4657
▁paarden	-4658
▁3,	-4659
71	-4660
▁sub	-4661
▁Gemeenten	-4662
▁hyp	-4663
▁doden	-4664
▁Arab	-4665
riv	-4666
▁eraan	-4667
▁lacht	-4668
▁Nederlanden	-4669
▁liefst	-4670
▁vierde	-4671
▁archite	-4672
▁Koen	-4673
kosten	-4674
▁Nadat	-4675
▁buur	-4676
avel	-4677
juist	-4678
▁Rome	-4679
▁bewegen	-4680
▁deb	-4681
▁[	-4682
▁geschikt	-4683
▁flink	-4684
▁verandering	-4685
▁pod	-4686
▁verded	-4687
boom	-4688
▁Eefie	-4689
▁combin	-4690
ish	-4691
alve	-4692
emarken	-4693
▁wedstrijden	-4694
utt	-4695
ction	-4696
▁glim	-4697
ott	-4698
▁verf	-4699
▁Provincies	-4700
▁9.	-4701
▁Zet	-4702
▁gooien	-4703
▁arbeids	-4704
▁Gelukkig	-4705
▁un	-4706
sbe	-4707
isse	-4708
▁Stel	-4709
▁slim	-4710
▁Middel	-4711
wikk	-4712
ld	-4713
aand	-4714
▁wal	-4715
▁ontsn	-4716
▁stak	-4717
▁actief	-4718
▁luisteren	-4719
▁vertel	-4720
AL	-4721
ductie	-4722
voering	-4723
▁gat	-4724
▁Noteer	-4725
ctievoor	-4726
inkeltje	-4727
PLA	-4728
▁hap	-4729
▁hotel	-4730
▁belasting	-4731
36	-4732
96)	-4733
▁acteur	-4734
▁heette	-4735
▁stadion	-4736
▁kleinere	-4737
▁meegeteld	-4738
22	-4739
▁Sinterklaas	-4740
▁Tw	-4741
▁Lang	-4742
istisch	-4743
uwe	-4744
ense	-4745
▁Rad	-4746
▁loc	-4747
▁rende	-4748
▁sterke	-4749
On	-4750
rad	-4751
uwde	-4752
▁draaide	-4753
▁theater	-4754
gl	-4755
▁cellen	-4756
▁bem	-4757
rif	-4758
oordt	-4759
▁oren	-4760
UR	-4761
ote	-4762
ura	-4763
óór	-4764
▁gouden	-4765
▁voorst	-4766
vat	-4767
▁hek	-4768
▁taak	-4769
▁Filips	-4770
gebieden	-4771
imm	-4772
▁ijzer	-4773
▁contact	-4774
▁onderzocht	-4775
olly	-4776
blij	-4777
▁Even	-4778
▁eieren	-4779
igit	-4780
▁dre	-4781
▁aardig	-4782
▁Vandaag	-4783
▁aspecten	-4784
▁reageren	-4785
oto	-4786
logen	-4787
▁trom	-4788
partij	-4789
usical	-4790
▁weekend	-4791
repen	-4792
▁schat	-4793
ublik	-4794
imeter	-4795
▁beroep	-4796
▁kaarten	-4797
▁Eind	-4798
▁Duitsers	-4799
▁twaalf	-4800
gelaten	-4801
▁bekeken	-4802
gas	-4803
▁schiet	-4804
▁Ted	-4805
▁geboorte	-4806
▁tij	-4807
▁benen	-4808
▁medic	-4809
▁geloven	-4810
▁spelers	-4811
▁Da	-4812
▁vies	-4813
muziek	-4814
aanderen	-4815
▁gevormd	-4816
uze	-4817
avië	-4818
mans	-4819
▁Jack	-4820
▁hol	-4821
▁vuil	-4822
▁ontwerp	-4823
▁Hen	-4824
ceaan	-4825
▁Pepijn	-4826
▁activiteit	-4827
▁vro	-4828
verse	-4829
,""	-4830
col	-4831
maar	-4832
▁soep	-4833
▁ide	-4834
47	-4835
▁ref	-4836
zaken	-4837
▁opeten	-4838
oni	-4839
Sch	-4840
▁Harry	-4841
16	-4842
▁wolf	-4843
▁noemt	-4844
▁gelegen	-4845
▁theorie	-4846
▁Denemarken	-4847
4-1	-4848
▁Kim	-4849
▁Albert	-4850
eesten	-4851
▁slaan	-4852
redenen	-4853
▁verandert	-4854
▁San	-4855
▁slot	-4856
▁aardbe	-4857
▁dansen	-4858
AS	-4859
GRAND	-4860
eland	-4861
▁vocht	-4862
46	-4863
iaan	-4864
ialen	-4865
▁klap	-4866
leggen	-4867
▁ST	-4868
▁Egypte	-4869
ublikein	-4870
▁hersenen	-4871
▁beïn	-4872
▁fruit	-4873
▁miljard	-4874
▁orde	-4875
ivisie	-4876
32	-4877
osf	-4878
Holland	-4879
▁volgorde	-4880
▁verj	-4881
▁Vervolgens	-4882
▁vrede	-4883
riciteit	-4884
▁beroemde	-4885
▁lees	-4886
▁gehoord	-4887
vlie	-4888
▁1998	-4889
▁ijsje	-4890
▁voren	-4891
▁Holland	-4892
88	-4893
ini	-4894
▁1990	-4895
▁beker	-4896
▁wetenschap	-4897
▁git	-4898
▁cd	-4899
ultuur	-4900
▁Externe	-4901
▁betaald	-4902
▁verloor	-4903
▁erachter	-4904
▁gegeten	-4905
▁gewicht	-4906
▁leidt	-4907
▁trots	-4908
▁minist	-4909
▁zoekt	-4910
▁gebeurtenissen	-4911
rakt	-4912
▁vir	-4913
osk	-4914
▁uitgevoerd	-4915
▁90	-4916
▁Ha	-4917
stra	-4918
pop	-4919
▁raken	-4920
bot	-4921
oft	-4922
othe	-4923
eester	-4924
▁ideeën	-4925
schappelijke	-4926
ipl	-4927
Voor	-4928
▁pen	-4929
--	-4930
5.	-4931
sne	-4932
ung	-4933
▁lage	-4934
▁daarin	-4935
▁roepen	-4936
▁vechten	-4937
gek	-4938
reid	-4939
▁Romeinen	-4940
prob	-4941
▁onver	-4942
▁storm	-4943
sluiten	-4944
▁normale	-4945
▁Mc	-4946
▁dui	-4947
▁Limburg	-4948
▁Brazilië	-4949
▁plein	-4950
iest	-4951
wijd	-4952
hoorn	-4953
▁stok	-4954
morgen	-4955
tuigen	-4956
▁zul	-4957
▁overw	-4958
▁schad	-4959
swekker	-4960
▁rivieren	-4961
▁verbonden	-4962
va	-4963
▁tand	-4964
73	-4965
deels	-4966
▁grij	-4967
▁breed	-4968
▁Marokk	-4969
▁verbrand	-4970
▁klok	-4971
▁32	-4972
▁Gen	-4973
▁Rijn	-4974
emburg	-4975
▁voorzien	-4976
▁nauwelijks	-4977
chen	-4978
▁liedjes	-4979
▁trouwde	-4980
▁veiligheid	-4981
▁alweer	-4982
car	-4983
ket	-4984
lands	-4985
▁Berlijn	-4986
▁spanning	-4987
key	-4988
▁Nina	-4989
gsel	-4990
mond	-4991
▁Zoals	-4992
baarheid	-4993
▁test	-4994
▁lukt	-4995
▁voelen	-4996
gekomen	-4997
\""	-4998
▁Ru	-4999
sdag	-5000
elijks	-5001
▁klass	-5002
▁bewering	-5003
▁EK	-5004
comp	-5005
gers	-5006
▁geleid	-5007
gaven	-5008
▁eiwit	-5009
atus	-5010
▁Hit	-5011
igers	-5012
▁Prins	-5013
beiders	-5014
▁aanb	-5015
▁Ierland	-5016
▁Portugal	-5017
▁hartstikke	-5018
▁mol	-5019
▁rechten	-5020
76	-5021
?""	-5022
kelijke	-5023
▁waarsch	-5024
▁studenten	-5025
view	-5026
aya	-5027
boel	-5028
dier	-5029
▁gevangenis	-5030
▁toneelstuk	-5031
pak	-5032
iënten	-5033
▁genaamd	-5034
lam	-5035
▁stopt	-5036
outen	-5037
▁nauw	-5038
▁geplaatst	-5039
▁Hans	-5040
18	-5041
iland	-5042
▁herkennen	-5043
Is	-5044
▁Wor	-5045
▁TE	-5046
obert	-5047
nij	-5048
▁beleid	-5049
AP	-5050
han	-5051
-104	-5052
laar	-5053
ronen	-5054
▁behalve	-5055
ael	-5056
▁Che	-5057
▁Ven	-5058
▁stijl	-5059
rechten	-5060
▁Gelder	-5061
emand	-5062
centrum	-5063
▁Italiaanse	-5064
haal	-5065
olie	-5066
broek	-5067
istof	-5068
▁beschrij	-5069
▁gepublic	-5070
ipt	-5071
▁dert	-5072
▁rook	-5073
▁negent	-5074
eemt	-5075
▁scher	-5076
▁reizen	-5077
ury	-5078
IJK	-5079
ftal	-5080
▁verspreid	-5081
▁vermoord	-5082
OU	-5083
▁Amerikaans	-5084
una	-5085
▁Mac	-5086
▁tev	-5087
Waarom	-5088
arije	-5089
▁Cele	-5090
▁zaterdag	-5091
scherm	-5092
▁strom	-5093
▁Hon	-5094
▁houten	-5095
▁leiding	-5096
▁industrie	-5097
uwt	-5098
▁Bro	-5099
▁Pet	-5100
oging	-5101
▁fout	-5102
▁Britten	-5103
entie	-5104
▁raar	-5105
▁emmer	-5106
▁structuur	-5107
▁afhankelijk	-5108
alle	-5109
▁Kro	-5110
kings	-5111
▁conclusie	-5112
hof	-5113
schrijf	-5114
▁prijzen	-5115
03	-5116
▁Ont	-5117
▁Marc	-5118
▁legde	-5119
▁olifant	-5120
▁waterstof	-5121
aft	-5122
omme	-5123
groepen	-5124
volle	-5125
▁kwaad	-5126
▁wijst	-5127
▁Park	-5128
oets	-5129
▁gepubliceerd	-5130
,-	-5131
raden	-5132
▁vingers	-5133
▁FC	-5134
actor	-5135
▁City	-5136
▁moeite	-5137
72	-5138
▁zondag	-5139
▁spreekt	-5140
rid	-5141
▁resultaten	-5142
reeks	-5143
vingen	-5144
▁bellen	-5145
ossen	-5146
▁slaat	-5147
▁begrip	-5148
▁duizenden	-5149
cip	-5150
▁kopje	-5151
drukt	-5152
osc	-5153
▁grapp	-5154
▁brengt	-5155
▁hogere	-5156
▁vooruit	-5157
▁mannetje	-5158
▁ontvangen	-5159
▁onderdelen	-5160
▁raad	-5161
▁waaruit	-5162
▁Europees	-5163
39	-5164
▁Geen	-5165
▁zaal	-5166
brengen	-5167
AM	-5168
24)	-5169
▁mat	-5170
waard	-5171
▁toev	-5172
▁mogelijke	-5173
▁zoiets	-5174
Sp	-5175
▁vleu	-5176
▁Vrij	-5177
▁port	-5178
bedrijf	-5179
▁Terwijl	-5180
zus	-5181
woordt	-5182
▁kranten	-5183
▁voetballen	-5184
wat	-5185
▁int	-5186
▁Kees	-5187
▁boerderij	-5188
▁Hoeveel	-5189
▁Pinkeltje	-5190
▁omgezet	-5191
oph	-5192
▁geproduc	-5193
roeg	-5194
▁meet	-5195
▁wort	-5196
brand	-5197
wacht	-5198
▁resultaat	-5199
ES	-5200
▁XIV	-5201
▁keren	-5202
▁gehele	-5203
▁Iris	-5204
▁gekocht	-5205
▁verdienen	-5206
temis	-5207
otheek	-5208
▁Luxemburg	-5209
▁camp	-5210
▁Zwitserland	-5211
IK	-5212
▁ontbreekt	-5213
▁verdwenen	-5214
▁dub	-5215
▁Sixtus	-5216
▁beroemd	-5217
▁voldoende	-5218
▁rit	-5219
▁knoop	-5220
99)	-5221
Brit	-5222
▁micro	-5223
▁levert	-5224
▁schild	-5225
▁150	-5226
gebouw	-5227
raten	-5228
steden	-5229
uele	-5230
Afrika	-5231
▁knikt	-5232
▁schak	-5233
▁Celest	-5234
▁gepl	-5235
iana	-5236
kle	-5237
▁Stef	-5238
▁James	-5239
▁Bert	-5240
▁camera	-5241
▁gezell	-5242
cy	-5243
ira	-5244
aria	-5245
ende	-5246
▁Goede	-5247
▁gratis	-5248
21	-5249
▁vanavond	-5250
▁Celestinus	-5251
voet	-5252
▁Kom	-5253
▁molecu	-5254
▁abs	-5255
pport	-5256
▁komende	-5257
▁nationale	-5258
▁(68	-5259
▁elf	-5260
▁cirkel	-5261
▁lastig	-5262
▁journal	-5263
3-	-5264
ser	-5265
▁My	-5266
▁stierf	-5267
▁ops	-5268
▁kampioen	-5269
4.	-5270
zijde	-5271
▁bond	-5272
▁middag	-5273
▁waarna	-5274
eekt	-5275
▁democratie	-5276
sych	-5277
uzen	-5278
▁Sven	-5279
▁darm	-5280
▁bezoekers	-5281
95	-5282
▁vest	-5283
▁site	-5284
omming	-5285
ules	-5286
▁oom	-5287
sem	-5288
eiden	-5289
▁honger	-5290
▁elektriciteit	-5291
heb	-5292
▁WAT	-5293
▁Sarah	-5294
richting	-5295
▁VS	-5296
eent	-5297
▁Kle	-5298
orven	-5299
▁voedings	-5300
▁middelbare	-5301
spl	-5302
▁Eigen	-5303
uel	-5304
▁10.	-5305
▁harde	-5306
▁Onderzoek	-5307
▁uitgezonden	-5308
Mijn	-5309
komstig	-5310
▁vernoemd	-5311
straat	-5312
dy	-5313
ooid	-5314
▁golf	-5315
▁experiment	-5316
zaal	-5317
▁bedoeling	-5318
▁vreemd	-5319
▁insecten	-5320
▁oorspronkelijk	-5321
ianen	-5322
▁draagt	-5323
▁Tele	-5324
▁derg	-5325
▁geluk	-5326
▁hoewel	-5327
▁ill	-5328
▁meedoen	-5329
▁ON	-5330
ikki	-5331
weet	-5332
▁tak	-5333
ities	-5334
ussel	-5335
▁opvol	-5336
▁taart	-5337
▁indruk	-5338
▁Jo	-5339
kast	-5340
ongfestival	-5341
▁veranderde	-5342
85)	-5343
stemming	-5344
▁opstand	-5345
▁reclame	-5346
▁instrument	-5347
▁zoet	-5348
kampioen	-5349
plaatsen	-5350
▁behoort	-5351
▁volledige	-5352
▁sluiten	-5353
▁spell	-5354
▁stukjes	-5355
ING	-5356
ijen	-5357
▁Kan	-5358
lieft	-5359
uiver	-5360
-0	-5361
ba	-5362
▁doc	-5363
lijst	-5364
▁1980	-5365
▁confl	-5366
▁betekenis	-5367
▁zeil	-5368
▁basisschool	-5369
▁Ken	-5370
▁heil	-5371
▁Jullie	-5372
▁Sw	-5373
▁Bal	-5374
▁des	-5375
ouver	-5376
▁wen	-5377
▁maatregelen	-5378
bon	-5379
▁afd	-5380
▁bladeren	-5381
bere	-5382
zorg	-5383
▁Nieuwe	-5384
▁sloeg	-5385
▁karakt	-5386
▁bereikt	-5387
best	-5388
▁Max	-5389
ington	-5390
▁vangen	-5391
▁verbaasd	-5392
alig	-5393
▁boter	-5394
▁aanval	-5395
IL	-5396
ukken	-5397
▁verster	-5398
uters	-5399
▁dist	-5400
▁link	-5401
▁angst	-5402
78)	-5403
▁expl	-5404
aatsen	-5405
▁Joden	-5406
▁juff	-5407
87	-5408
rice	-5409
arden	-5410
aapt	-5411
kwam	-5412
▁geste	-5413
▁bevatten	-5414
▁grondwet	-5415
▁Jon	-5416
rap	-5417
▁enz	-5418
▁puz	-5419
▁Part	-5420
▁warmte	-5421
eloos	-5422
▁telkens	-5423
skundigen	-5424
vrij	-5425
▁Del	-5426
▁Sur	-5427
▁wiel	-5428
▁linker	-5429
▁Japanse	-5430
▁stroomt	-5431
▁trouwens	-5432
bond	-5433
▁bol	-5434
▁Oude	-5435
derheid	-5436
▁vielen	-5437
▁gemeenten	-5438
▁ontwikkeld	-5439
▁Pap	-5440
▁mand	-5441
▁Britt	-5442
▁Steven	-5443
▁duurde	-5444
▁eenvoud	-5445
▁verlaten	-5446
▁wijn	-5447
▁leest	-5448
▁William	-5449
▁ur	-5450
▁heks	-5451
▁Dam	-5452
▁Open	-5453
werkers	-5454
▁Donald	-5455
helm	-5456
alest	-5457
instru	-5458
▁beurt	-5459
▁schud	-5460
▁oudere	-5461
▁diagram	-5462
▁opsomming	-5463
duard	-5464
▁verdriet	-5465
rr	-5466
▁vari	-5467
▁apparaat	-5468
▁schouders	-5469
42	-5470
DER	-5471
▁ner	-5472
▁wild	-5473
▁verhuis	-5474
gesch	-5475
▁wijk	-5476
landen	-5477
vdA	-5478
zin	-5479
ex	-5480
ussie	-5481
▁knikte	-5482
,2	-5483
▁Doe	-5484
aardag	-5485
▁vrijwel	-5486
▁Hol	-5487
▁ris	-5488
▁zenuw	-5489
idder	-5490
▁liefde	-5491
▁antwoordt	-5492
▁web	-5493
stens	-5494
▁Carol	-5495
▁aantre	-5496
▁afkomstig	-5497
89	-5498
orry	-5499
▁Cas	-5500
emel	-5501
▁snoep	-5502
▁Janneke	-5503
▁gemakkelijk	-5504
▁sing	-5505
▁bezit	-5506
▁gewond	-5507
schrijving	-5508
▁180	-5509
▁Viet	-5510
▁boem	-5511
▁stom	-5512
machine	-5513
▁voorkomt	-5514
gene	-5515
oning	-5516
riend	-5517
▁wezen	-5518
kamp	-5519
▁geest	-5520
genoten	-5521
▁stelde	-5522
▁Werk	-5523
▁sleutel	-5524
▁minuut	-5525
Be	-5526
veen	-5527
Nieuw	-5528
schip	-5529
ulden	-5530
▁Noorwegen	-5531
jech	-5532
anken	-5533
halve	-5534
hoofd	-5535
▁droom	-5536
▁warme	-5537
▁Art	-5538
▁erf	-5539
▁Eduard	-5540
arg	-5541
undige	-5542
▁troon	-5543
acc	-5544
64)	-5545
olven	-5546
clusief	-5547
▁Robert	-5548
▁slaven	-5549
▁juffrouw	-5550
▁mes	-5551
atter	-5552
6-	-5553
zz	-5554
veil	-5555
▁Cor	-5556
wereld	-5557
▁verbeter	-5558
▁springen	-5559
rump	-5560
▁pad	-5561
ogels	-5562
sver	-5563
▁300	-5564
▁effe	-5565
▁hoed	-5566
▁Doordat	-5567
▁geslacht	-5568
gebouwd	-5569
▁verplicht	-5570
▁aanget	-5571
▁geleerd	-5572
▁sim	-5573
▁(200	-5574
hoe	-5575
irt	-5576
igin	-5577
sterse	-5578
91	-5579
▁Niels	-5580
▁demon	-5581
▁record	-5582
▁betrokken	-5583
uzik	-5584
pakken	-5585
igingen	-5586
com	-5587
▁schoen	-5588
▁wisten	-5589
▁bleven	-5590
▁din	-5591
▁besm	-5592
wiss	-5593
▁nogal	-5594
inklijke	-5595
▁Ondertussen	-5596
8-	-5597
▁33	-5598
▁digit	-5599
▁bewoners	-5600
▁Ham	-5601
▁Fries	-5602
▁Jij	-5603
▁1960	-5604
middelen	-5605
500	-5606
▁ermee	-5607
rix	-5608
▁Anne	-5609
doek	-5610
ertijd	-5611
92	-5612
Heb	-5613
▁(6	-5614
▁Gl	-5615
▁cal	-5616
ieven	-5617
igens	-5618
▁lood	-5619
Europa	-5620
▁liber	-5621
▁online	-5622
▁tijden	-5623
Jij	-5624
▁oef	-5625
breng	-5626
bergen	-5627
▁aanleiding	-5628
▁ZE	-5629
rans	-5630
▁Frie	-5631
▁ring	-5632
anië	-5633
▁populaire	-5634
▁sj	-5635
▁not	-5636
▁typ	-5637
▁1000	-5638
▁MAAR	-5639
▁fant	-5640
▁vóór	-5641
▁wees	-5642
dan	-5643
geboren	-5644
▁concentratie	-5645
hed	-5646
▁ME	-5647
br	-5648
Goed	-5649
zoals	-5650
▁Hitler	-5651
▁Antwerpen	-5652
▁Mel	-5653
▁Rich	-5654
sing	-5655
kaart	-5656
▁borst	-5657
▁uitst	-5658
40)	-5659
sey	-5660
▁Tsjech	-5661
▁percentage	-5662
ush	-5663
ruis	-5664
▁gliml	-5665
▁zun	-5666
resent	-5667
▁Johan	-5668
▁Meest	-5669
▁sprong	-5670
▁beantwoord	-5671
68)	-5672
bro	-5673
Britt	-5674
▁Azië	-5675
▁jezelf	-5676
41	-5677
ony	-5678
ande	-5679
brug	-5680
▁Len	-5681
nacht	-5682
▁Verklaar	-5683
Ge	-5684
▁1997	-5685
▁const	-5686
▁toegekend	-5687
▁DNA	-5688
▁Kies	-5689
▁volgde	-5690
rikk	-5691
istan	-5692
▁sprook	-5693
▁geproduceerd	-5694
87)	-5695
unn	-5696
▁doll	-5697
43	-5698
▁wetenschappers	-5699
mot	-5700
▁BE	-5701
▁bijen	-5702
▁drink	-5703
▁keken	-5704
▁speler	-5705
4-	-5706
urele	-5707
▁winkels	-5708
▁tradition	-5709
9-	-5710
wa	-5711
▁HEB	-5712
kunst	-5713
▁Artemis	-5714
▁goederen	-5715
▁Mor	-5716
elder	-5717
ikstof	-5718
▁redden	-5719
▁elementen	-5720
▁uitzending	-5721
!!	-5722
eelt	-5723
igratie	-5724
eke	-5725
ront	-5726
kunde	-5727
▁haal	-5728
▁lagen	-5729
▁rijke	-5730
▁voorsp	-5731
ppel	-5732
▁hallo	-5733
▁Ron	-5734
krant	-5735
▁kunstenaar	-5736
iro	-5737
▁verjaardag	-5738
▁meerderheid	-5739
▁natuurlijke	-5740
▁zevent	-5741
▁la	-5742
▁nest	-5743
13	-5744
gever	-5745
▁telt	-5746
▁raakt	-5747
▁daarop	-5748
▁directeur	-5749
kkers	-5750
▁haast	-5751
▁Dieren	-5752
oers	-5753
▁trek	-5754
▁prakt	-5755
▁Bet	-5756
▁branden	-5757
▁Beschrijf	-5758
▁As	-5759
▁meen	-5760
▁Brussel	-5761
▁verscheen	-5762
▁groeide	-5763
hop	-5764
▁sign	-5765
rekking	-5766
▁gedragen	-5767
▁Sj	-5768
▁Trump	-5769
maatschappij	-5770
▁Iemand	-5771
▁Bre	-5772
▁Eugen	-5773
▁Simon	-5774
▁voordeel	-5775
▁verr	-5776
23	-5777
denk	-5778
▁1996	-5779
Le	-5780
OP	-5781
▁én	-5782
-127	-5783
▁onjuist	-5784
▁Phil	-5785
▁miljoenen	-5786
▁Ren	-5787
▁Goed	-5788
ime	-5789
boot	-5790
▁Bob	-5791
▁varen	-5792
▁heu	-5793
▁plotseling	-5794
97	-5795
▁smaak	-5796
▁handig	-5797
▁kou	-5798
dioxide	-5799
▁groeit	-5800
snel	-5801
rière	-5802
▁raak	-5803
▁beschad	-5804
▁correctievoor	-5805
iff	-5806
▁wassen	-5807
hang	-5808
▁vergel	-5809
ankelijke	-5810
▁36	-5811
▁Sas	-5812
▁gij	-5813
SV	-5814
MAT	-5815
yen	-5816
▁37	-5817
▁45	-5818
▁Serg	-5819
▁brak	-5820
▁klonk	-5821
standen	-5822
beer	-5823
▁tab	-5824
▁sloot	-5825
▁gericht	-5826
▁gedurende	-5827
▁sal	-5828
oorde	-5829
▁maag	-5830
▁concur	-5831
Niet	-5832
▁Fel	-5833
▁Palest	-5834
yse	-5835
▁leefde	-5836
▁fabriek	-5837
Nu	-5838
oz	-5839
▁Roo	-5840
lucht	-5841
older	-5842
gevonden	-5843
▁toernooi	-5844
▁Republikein	-5845
▁5,	-5846
ziek	-5847
▁eerlijk	-5848
▁Vlaanderen	-5849
▁samenwerking	-5850
▁°	-5851
▁Tro	-5852
haald	-5853
tallen	-5854
▁koeien	-5855
▁standaard	-5856
ple	-5857
zoeken	-5858
▁Gerard	-5859
▁Indonesië	-5860
▁geit	-5861
▁Anast	-5862
▁politici	-5863
KEN	-5864
beid	-5865
▁Mat	-5866
▁Franc	-5867
agne	-5868
▁tal	-5869
▁brom	-5870
▁steekt	-5871
▁Vor	-5872
▁woest	-5873
reactie	-5874
▁Buiten	-5875
unnel	-5876
▁luid	-5877
▁Afrik	-5878
▁metaal	-5879
▁materialen	-5880
▁element	-5881
ago	-5882
iano	-5883
onie	-5884
▁Ros	-5885
▁lad	-5886
aamde	-5887
▁oranje	-5888
Met	-5889
rouwd	-5890
▁Pieter	-5891
▁vieren	-5892
▁Charles	-5893
▁leerling	-5894
▁militair	-5895
ilj	-5896
▁VOOR	-5897
waarden	-5898
▁diverse	-5899
▁naartoe	-5900
▁verleden	-5901
▁Ac	-5902
▁HI	-5903
▁twijf	-5904
▁woonde	-5905
▁oorspronkelijke	-5906
ims	-5907
▁Lin	-5908
▁jar	-5909
udeerde	-5910
▁Meestal	-5911
▁militaire	-5912
orf	-5913
▁Alb	-5914
▁dom	-5915
iepen	-5916
▁Mark	-5917
pool	-5918
etting	-5919
▁gemeent	-5920
▁War	-5921
▁Cong	-5922
▁Kinder	-5923
▁filosof	-5924
▁hiermee	-5925
▁vrolijk	-5926
▁discussie	-5927
oxide	-5928
▁project	-5929
▁voorstelling	-5930
▁VVD	-5931
▁ikke	-5932
Brabant	-5933
▁beschik	-5934
president	-5935
▁vriendin	-5936
▁ast	-5937
▁contra	-5938
feest	-5939
▁(155	-5940
▁game	-5941
▁Hierna	-5942
▁woonden	-5943
▁Constant	-5944
VO	-5945
▁€	-5946
eind	-5947
▁gast	-5948
▁momp	-5949
▁huisje	-5950
▁kwaliteit	-5951
rel	-5952
iver	-5953
▁Anton	-5954
▁vrijdag	-5955
pot	-5956
▁hom	-5957
▁Julius	-5958
▁koninkrijk	-5959
15	-5960
pad	-5961
duizen	-5962
▁Intern	-5963
▁behorende	-5964
illy	-5965
▁Jong	-5966
▁haren	-5967
▁opgev	-5968
▁kandidaat	-5969
▁plaatsvin	-5970
vissen	-5971
▁Universiteit	-5972
▁ts	-5973
▁kus	-5974
uster	-5975
ogelijk	-5976
ashington	-5977
▁opleiding	-5978
▁Eliz	-5979
avernij	-5980
jam	-5981
ora	-5982
▁kilo	-5983
gemene	-5984
▁gebleven	-5985
84)	-5986
▁emot	-5987
olieren	-5988
▁gedacht	-5989
▁springt	-5990
▁Informatie	-5991
▁argumenten	-5992
▁centimeter	-5993
lin	-5994
ivid	-5995
orea	-5996
▁ZIJN	-5997
soorten	-5998
▁Vlaamse	-5999
▁Wilhelm	-6000
cast	-6001
▁loon	-6002
▁famil	-6003
fst	-6004
fect	-6005
▁draad	-6006
▁graaf	-6007
▁huwelijk	-6008
▁Honor	-6009
▁Jezus	-6010
▁slang	-6011
▁stopte	-6012
▁uitvoeren	-6013
▁behoorlijk	-6014
▁eng	-6015
▁goo	-6016
erson	-6017
wicht	-6018
▁Saint	-6019
▁wetten	-6020
▁buitenlandse	-6021
ita	-6022
▁neut	-6023
▁zilver	-6024
vragen	-6025
▁islam	-6026
hond	-6027
heids	-6028
▁Beide	-6029
▁spiegel	-6030
▁werknemers	-6031
▁vliegtuigen	-6032
19	-6033
po	-6034
Ver	-6035
▁Mir	-6036
▁Fransen	-6037
▁musical	-6038
oeke	-6039
▁IJs	-6040
▁oeh	-6041
▁voorzitter	-6042
AG	-6043
▁lukte	-6044
▁bewust	-6045
▁koekje	-6046
▁public	-6047
akantie	-6048
▁bestaande	-6049
opl	-6050
▁meiden	-6051
fragment	-6052
▁literatuur	-6053
yg	-6054
week	-6055
▁lat	-6056
▁klopt	-6057
▁vloer	-6058
III	-6059
ommel	-6060
▁eeuwen	-6061
▁troepen	-6062
▁Kareltje	-6063
▁volwassenen	-6064
▁syn	-6065
aarden	-6066
▁symbool	-6067
▁cade	-6068
kering	-6069
▁vormt	-6070
▁samenv	-6071
▁werking	-6072
▁schouder	-6073
uy	-6074
▁SP	-6075
▁snap	-6076
▁veert	-6077
▁merken	-6078
▁verslag	-6079
▁Washington	-6080
▁bovenstaande	-6081
ove	-6082
▁pa	-6083
▁rem	-6084
straf	-6085
▁woning	-6086
▁ontstonden	-6087
▁kamp	-6088
▁karakter	-6089
▁minstens	-6090
annië	-6091
stijd	-6092
▁waard	-6093
▁Schotland	-6094
▁ontzetten	-6095
▁Bul	-6096
genoot	-6097
par	-6098
ieuze	-6099
▁arme	-6100
▁Super	-6101
bra	-6102
▁Hal	-6103
▁ing	-6104
ategor	-6105
leider	-6106
▁risico	-6107
▁trouwen	-6108
▁vluchten	-6109
▁tegenstelling	-6110
25	-6111
do	-6112
aait	-6113
onds	-6114
▁mengsel	-6115
Wie	-6116
iool	-6117
▁(70	-6118
▁huur	-6119
wan	-6120
▁dou	-6121
▁bergen	-6122
ague	-6123
onne	-6124
▁(53	-6125
▁gesprek	-6126
▁ontworpen	-6127
▁Ap	-6128
▁Elk	-6129
▁Vide	-6130
▁gede	-6131
▁appels	-6132
▁chocol	-6133
▁arbeiders	-6134
▁opvatting	-6135
▁Rut	-6136
iguren	-6137
▁sol	-6138
elende	-6139
▁plaatjes	-6140
era	-6141
▁mamma	-6142
▁Honorius	-6143
▁Voorbeelden	-6144
▁4,	-6145
zier	-6146
▁hert	-6147
▁Potter	-6148
hankelijke	-6149
▁ER	-6150
systeem	-6151
▁Argent	-6152
▁Denk	-6153
▁misl	-6154
▁zang	-6155
▁winnaar	-6156
MATE	-6157
▁krok	-6158
▁vlinder	-6159
reedt	-6160
▁dolf	-6161
stalige	-6162
▁metalen	-6163
▁Eugenius	-6164
▁Anastasius	-6165
ulf	-6166
▁qu	-6167
inning	-6168
onderd	-6169
▁steken	-6170
▁mogelijkheden	-6171
▁Sergius	-6172
▁gestolen	-6173
ias	-6174
▁Film	-6175
▁Kenn	-6176
▁buis	-6177
▁begrijpen	-6178
▁uitgebracht	-6179
83)	-6180
▁LE	-6181
▁Louis	-6182
▁heleboel	-6183
▁antwoordde	-6184
PLAY	-6185
▁But	-6186
imaat	-6187
uldig	-6188
stenen	-6189
PLAYMATE	-6190
▁stikstof	-6191
▁omstandigheden	-6192
ikkers	-6193
▁getal	-6194
▁bevinden	-6195
▁zangeres	-6196
11	-6197
kop	-6198
▁grie	-6199
▁piep	-6200
▁tentoon	-6201
▁ziel	-6202
▁profess	-6203
▁studie	-6204
▁grootte	-6205
▁uitgang	-6206
▁Zsa	-6207
▁afsch	-6208
ochtend	-6209
▁HIJ	-6210
▁show	-6211
▁bedenken	-6212
▁Pat	-6213
▁pij	-6214
▁rom	-6215
keurig	-6216
gebroken	-6217
▁waarden	-6218
Duitsland	-6219
draa	-6220
oriet	-6221
▁Best	-6222
▁(16	-6223
▁patiënt	-6224
▁spannend	-6225
▁overzicht	-6226
eeuwse	-6227
▁leeuw	-6228
rend	-6229
▁Zwarte	-6230
▁treinen	-6231
▁zwembad	-6232
asie	-6233
▁Station	-6234
▁vloeistof	-6235
plein	-6236
▁Puck	-6237
▁misd	-6238
▁viss	-6239
▁Michael	-6240
▁kolonie	-6241
▁overige	-6242
irk	-6243
▁Il	-6244
raft	-6245
▁mmm	-6246
▁reed	-6247
▁filmpjes	-6248
▁Akk	-6249
▁Drent	-6250
▁1970	-6251
▁okee	-6252
archie	-6253
jeb	-6254
▁NA	-6255
▁bede	-6256
▁volks	-6257
▁politicus	-6258
▁drug	-6259
▁poten	-6260
▁hertog	-6261
▁Roemen	-6262
▁Elizabeth	-6263
organisatie	-6264
▁vergelijken	-6265
▁mogelijkheid	-6266
alm	-6267
oegosl	-6268
▁prima	-6269
igranten	-6270
olk	-6271
▁Tex	-6272
▁Fred	-6273
▁mode	-6274
schillen	-6275
hyd	-6276
▁middeleeuwen	-6277
Van	-6278
▁Saar	-6279
▁stads	-6280
▁noemde	-6281
▁streng	-6282
▁400	-6283
▁Top	-6284
▁det	-6285
▁hok	-6286
▁psych	-6287
▁kunstenaars	-6288
genda	-6289
rijke	-6290
▁	-6291
e	-6292
n	-6293
a	-6294
i	-6295
t	-6296
r	-6297
o	-6298
d	-6299
s	-6300
l	-6301
g	-6302
k	-6303
h	-6304
m	-6305
v	-6306
u	-6307
.	-6308
j	-6309
p	-6310
w	-6311
b	-6312
z	-6313
T	-6314
c	-6315
E	-6316
I	-6317
f	-6318
H	-6319
D	-6320
:	-6321
R	-6322
A	-6323
*	-6324
,	-6325
G	-6326
O	-6327
L	-6328
C	-6329
1	-6330
M	-6331
'	-6332
S	-6333
N	-6334
"	-6335
_	-6336
V	-6337
0	-6338
-	-6339
x	-6340
2	-6341
B	-6342
?	-6343
)	-6344
(	-6345
W	-6346
9	-6347
y	-6348
P	-6349
·	-6350
5	-6351
K	-6352
3	-6353
Z	-6354
4	-6355
J	-6356
8	-6357
6	-6358
7	-6359
F	-6360
!	-6361
U	-6362
ë	-6363
é	-6364
•	-6365
X	-6366
Y	-6367
/	-6368
;	-6369
%	-6370
ə	-6371
ï	-6372
&	-6373
q	-6374
+	-6375
Q	-6376
è	-6377
ó	-6378
=	-6379
á	-6380
ü	-6381
ö	-6382
í	-6383
|	-6384
]	-6385
[	-6386
\	-6387
°	-6388
ç	-6389
€	-6390
ä	-6391
É	-6392
ɑ	-6393
ɨ	-6394
ø	-6395
ɛ	-6396
ú	-6397
{	-6398
à	-6399
@	-6400
ć	-6401
$	-6402
ê	-6403
â	-6404
>	-6405
#	-6406
ñ	-6407
ô	-6408
š	-6409
→	-6410
Ö	-6411
×	-6412
а	-6413
å	-6414
ō	-6415
~	-6416
α	-6417
®	-6418
ß	-6419
ã	-6420
ı	-6421
и	-6422
ο	-6423
о	-6424
č	-6425
Ë	-6426
Å	-6427
Æ	-6428
ɘ	-6429
ا	-6430
ş	-6431
μ	-6432
⁄	-6433
ν	-6434
е	-6435
н	-6436
ς	-6437
ğ	-6438
●	-6439
đ	-6440
ʔ	-6441
←	-6442
ș	-6443
р	-6444
ل	-6445
ð	-6446
ρ	-6447
λ	-6448
ε	-6449
ι	-6450
к	-6451
ł	-6452
<	-6453
œ	-6454
τ	-6455
û	-6456
в	-6457
с	-6458
È	-6459
î	-6460
Č	-6461
л	-6462
ž	-6463
っ	-6464
±	-6465
ý	-6466
ぽ	-6467
π	-6468
Î	-6469
ă	-6470
ي	-6471
κ	-6472
Á	-6473
ò	-6474
η	-6475
σ	-6476
ū	-6477
ā	-6478
т	-6479
م	-6480
ί	-6481
♭	-6482
ن	-6483
Ó	-6484
ب	-6485
ń	-6486
д	-6487
ر	-6488
^	-6489
ì	-6490
υ	-6491
ό	-6492
−	-6493
ț	-6494
æ	-6495
ī	-6496
ぴ	-6497
Š	-6498
ά	-6499
◉	-6500
Ø	-6501
ē	-6502
ě	-6503
Ž	-6504
γ	-6505
м	-6506
θ	-6507
د	-6508
ь	-6509
†	-6510
}	-6511
Ï	-6512
ù	-6513
у	-6514
空	-6515
航	-6516
ŋ	-6517
ع	-6518
þ	-6519
έ	-6520
▲	-6521
£	-6522
Í	-6523
ω	-6524
С	-6525
й	-6526
­	-6527
Ü	-6528
و	-6529
п	-6530
ʕ	-6531
δ	-6532
س	-6533
Ç	-6534
ة	-6535
İ	-6536
А	-6537
я	-6538
َ	-6539
ė	-6540
◀	-6541
י	-6542
ー	-6543
À	-6544
ή	-6545
Ú	-6546
ś	-6547
ч	-6548
▶	-6549
Đ	-6550
і	-6551
ה	-6552
©	-6553
Ł	-6554
Ş	-6555
χ	-6556
г	-6557
ř	-6558
Ε	-6559
ح	-6560
中	-6561
б	-6562
☺	-6563
公	-6564
ż	-6565
В	-6566
ه	-6567
К	-6568
ц	-6569
ר	-6570
ế	-6571
市	-6572
ź	-6573
ǎ	-6574
β	-6575
ύ	-6576
‐	-6577
õ	-6578
ŷ	-6579
ʃ	-6580
́	-6581
ы	-6582
า	-6583
司	-6584
Π	-6585
ו	-6586
ت	-6587
▼	-6588
ę	-6589
φ	-6590
М	-6591
ร	-6592
♠	-6593
️	-6594
ɔ	-6595
Α	-6596
Н	-6597
Р	-6598
ك	-6599
♣	-6600
з	-6601
☆	-6602
♢	-6603
ą	-6604
ő	-6605
ư	-6606
Σ	-6607
ל	-6608
♡	-6609
国	-6610
子	-6611
Ω	-6612
Б	-6613
أ	-6614
ْ	-6615
琴	-6616
ħ	-6617
ʻ	-6618
א	-6619
ת	-6620
ف	-6621
大	-6622
ד	-6623
ش	-6624
ط	-6625
ق	-6626
น	-6627
ม	-6628
្	-6629
○	-6630
海	-6631
鼓	-6632
Κ	-6633
Л	-6634
П	-6635
ב	-6636
ج	-6637
人	-6638
ǐ	-6639
ζ	-6640
ώ	-6641
О	-6642
ُ	-6643
ิ	-6644
ស	-6645
太	-6646
木	-6647
Ä	-6648
Λ	-6649
ξ	-6650
ש	-6651
خ	-6652
ِ	-6653
ท	-6654
ờ	-6655
↓	-6656
♥	-6657
山	-6658
東	-6659
Ñ	-6660
ÿ	-6661
Δ	-6662
Θ	-6663
Т	-6664
ж	-6665
ш	-6666
ע	-6667
ّ	-6668
រ	-6669
ệ	-6670
√	-6671
の	-6672
三	-6673
和	-6674
方	-6675
日	-6676
¡	-6677
¥	-6678
Â	-6679
̄	-6680
ψ	-6681
Е	-6682
ח	-6683
מ	-6684
र	-6685
ớ	-6686
♒	-6687
港	-6688
西	-6689
香	-6690
Þ	-6691
Ġ	-6692
ţ	-6693
ƒ	-6694
ǒ	-6695
ǔ	-6696
Μ	-6697
Ν	-6698
Г	-6699
Ф	-6700
Ч	-6701
х	-6702
ַ	-6703
פ	-6704
ز	-6705
ی	-6706
न	-6707
ा	-6708
्	-6709
ồ	-6710
ộ	-6711
Ἀ	-6712
京	-6713
北	-6714
國	-6715
本	-6716
ů	-6717
ȟ	-6718
ё	-6719
ј	-6720
ם	-6721
ص	-6722
ย	-6723
เ	-6724
ậ	-6725
ἀ	-6726
ἄ	-6727
⁠	-6728
♫	-6729
✯	-6730
い	-6731
ジ	-6732
ス	-6733
上	-6734
地	-6735
州	-6736
有	-6737
民	-6738
胡	-6739
限	-6740
이	-6741
§	-6742
Ō	-6743
Ś	-6744
̈	-6745
Γ	-6746
Τ	-6747
Х	-6748
ֶ	-6749
ג	-6750
נ	-6751
ٱ	-6752
ด	-6753
บ	-6754
พ	-6755
ะ	-6756
Ḥ	-6757
ạ	-6758
ề	-6759
≤	-6760
た	-6761
め	-6762
ン	-6763
东	-6764
南	-6765
道	-6766
÷	-6767
ŏ	-6768
Ż	-6769
ơ	-6770
ʿ	-6771
Ι	-6772
Д	-6773
ї	-6774
ְ	-6775
ִ	-6776
ּ	-6777
غ	-6778
ल	-6779
ी	-6780
ห	-6781
គ	-6782
ែ	-6783
ấ	-6784
ắ	-6785
▪	-6786
►	-6787
ト	-6788
ュ	-6789
島	-6790
澳	-6791
甘	-6792
紫	-6793
線	-6794
野	-6795
金	-6796
Ā	-6797
ľ	-6798
ʀ	-6799
ˈ	-6800
ː	-6801
Β	-6802
Φ	-6803
ָ	-6804
ֹ	-6805
إ	-6806
ث	-6807
त	-6808
म	-6809
จ	-6810
ช	-6811
ล	-6812
ა	-6813
ខ	-6814
ễ	-6815
ố	-6816
ὄ	-6817
ὐ	-6818
≥	-6819
├	-6820
█	-6821
■	-6822
✗	-6823
❤	-6824
ⴰ	-6825
ⵓ	-6826
が	-6827
き	-6828
そ	-6829
と	-6830
な	-6831
や	-6832
る	-6833
タ	-6834
ラ	-6835
ル	-6836
二	-6837
古	-6838
安	-6839
年	-6840
我	-6841
政	-6842
文	-6843
月	-6844
松	-6845
楽	-6846
生	-6847
福	-6848
菜	-6849
门	-6850
音	-6851
¿	-6852
Ê	-6853
Ô	-6854
ġ	-6855
ņ	-6856
ň	-6857
ɪ	-6858
ʉ	-6859
Χ	-6860
З	-6861
ю	-6862
є	-6863
ե	-6864
ֲ	-6865
כ	-6866
ظ	-6867
ى	-6868
ि	-6869
ो	-6870
ก	-6871
ั	-6872
ი	-6873
ក	-6874
ម	-6875
យ	-6876
ḗ	-6877
ḥ	-6878
ṃ	-6879
ṭ	-6880
ị	-6881
ứ	-6882
ừ	-6883
ἤ	-6884
ὀ	-6885
ῆ	-6886
≈	-6887
♯	-6888
ⵔ	-6889
あ	-6890
せ	-6891
ど	-6892
ん	-6893
ツ	-6894
ナ	-6895
ニ	-6896
会	-6897
共	-6898
名	-6899
城	-6900
川	-6901
新	-6902
明	-6903
李	-6904
格	-6905
正	-6906
武	-6907
江	-6908
治	-6909
琵	-6910
琶	-6911
田	-6912
締	-6913
美	-6914
老	-6915
華	-6916
行	-6917
記	-6918
貴	-6919
門	-6920
🏆	-6921
😄	-6922
¢	-6923
Ò	-6924
Ć	-6925
Ċ	-6926
ĕ	-6927
ĩ	-6928
Œ	-6929
ŭ	-6930
ʾ	-6931
͡	-6932
Ό	-6933
Ύ	-6934
Ο	-6935
ϊ	-6936
І	-6937
Ј	-6938
Я	-6939
ф	-6940
ր	-6941
ן	-6942
ס	-6943
ܐ	-6944
क	-6945
ध	-6946
प	-6947
स	-6948
ข	-6949
ธ	-6950
ภ	-6951
อ	-6952
ี	-6953
ุ	-6954
โ	-6955
ไ	-6956
ํ	-6957
າ	-6958
რ	-6959
ព	-6960
ា	-6961
ី	-6962
ៃ	-6963
ំ	-6964
៉	-6965
ầ	-6966
ữ	-6967
Ἐ	-6968
ῦ	-6969
›	-6970
⃣	-6971
♂	-6972
♪	-6973
⠇	-6974
ⴱ	-6975
ⵉ	-6976
ⵎ	-6977
ⵏ	-6978
。	-6979
こ	-6980
で	-6981
ふ	-6982
ま	-6983
ら	-6984
り	-6985
わ	-6986
イ	-6987
シ	-6988
メ	-6989
ロ	-6990
・	-6991
世	-6992
丸	-6993
仁	-6994
付	-6995
份	-6996
克	-6997
円	-6998
勇	-6999
勝	-7000
化	-7001
匹	-7002
华	-7003
原	-7004
合	-7005
四	-7006
在	-7007
士	-7008
夫	-7009
失	-7010
好	-7011
宗	-7012
富	-7013
小	-7014
岡	-7015
平	-7016
弦	-7017
斗	-7018
曲	-7019
林	-7020
泉	-7021
皇	-7022
皮	-7023
私	-7024
秦	-7025
箏	-7026
絃	-7027
股	-7028
芭	-7029
贵	-7030
遊	-7031
部	-7032
都	-7033
間	-7034
阮	-7035
鹿	-7036
黄	-7037
가	-7038
방	-7039
아	-7040
한	-7041
🇳	-7042
😂	-7043
😅	-7044
😭	-7045
😳	-7046
🚨	-7047
Ð	-7048
ċ	-7049
Ď	-7050
į	-7051
Ľ	-7052
ŝ	-7053
ų	-7054
Ź	-7055
Ɔ	-7056
ǧ	-7057
ɡ	-7058
ˌ	-7059
̊	-7060
Ρ	-7061
Υ	-7062
И	-7063
У	-7064
Ц	-7065
Ш	-7066
Э	-7067
щ	-7068
ъ	-7069
љ	-7070
њ	-7071
Հ	-7072
ա	-7073
յ	-7074
ն	-7075
ֵ	-7076
ׂ	-7077
ץ	-7078
צ	-7079
ء	-7080
آ	-7081
މ	-7082
ަ	-7083
ग	-7084
च	-7085
ज	-7086
द	-7087
ह	-7088
े	-7089
ర	-7090
ా	-7091
్	-7092
ค	-7093
ง	-7094
ต	-7095
ส	-7096
ู	-7097
้	-7098
་	-7099
ာ	-7100
ლ	-7101
ნ	-7102
უ	-7103
ქ	-7104
ដ	-7105
ន	-7106
ប	-7107
ភ	-7108
ល	-7109
ឹ	-7110
ុ	-7111
ḃ	-7112
ḋ	-7113
ṣ	-7114
ẞ	-7115
ả	-7116
ẫ	-7117
ἥ	-7118
ἰ	-7119
Ἰ	-7120
ῶ	-7121
‍	-7122
⁣	-7123
₡	-7124
₩	-7125
↑	-7126
∞	-7127
◎	-7128
♦	-7129
✍	-7130
❗	-7131
⠑	-7132
⠠	-7133
⧼	-7134
⧽	-7135
ⵜ	-7136
う	-7137
か	-7138
け	-7139
ご	-7140
さ	-7141
し	-7142
だ	-7143
は	-7144
ば	-7145
ろ	-7146
ア	-7147
カ	-7148
コ	-7149
サ	-7150
ズ	-7151
ゼ	-7152
ブ	-7153
プ	-7154
ミ	-7155
ヨ	-7156
一	-7157
七	-7158
乌	-7159
九	-7160
井	-7161
代	-7162
仮	-7163
伝	-7164
何	-7165
你	-7166
元	-7167
光	-7168
凡	-7169
出	-7170
功	-7171
动	-7172
動	-7173
台	-7174
史	-7175
味	-7176
园	-7177
園	-7178
圓	-7179
夏	-7180
天	-7181
奚	-7182
奥	-7183
奧	-7184
女	-7185
妈	-7186
字	-7187
孙	-7188
季	-7189
学	-7190
孫	-7191
客	-7192
尾	-7193
币	-7194
帝	-7195
幣	-7196
幸	-7197
广	-7198
府	-7199
建	-7200
式	-7201
微	-7202
徽	-7203
快	-7204
悟	-7205
拍	-7206
放	-7207
斜	-7208
星	-7209
景	-7210
智	-7211
柳	-7212
校	-7213
横	-7214
歌	-7215
毛	-7216
水	-7217
決	-7218
河	-7219
法	-7220
泰	-7221
津	-7222
浜	-7223
清	-7224
湖	-7225
湘	-7226
潟	-7227
片	-7228
物	-7229
特	-7230
王	-7231
瓜	-7232
畿	-7233
白	-7234
皖	-7235
県	-7236
石	-7237
社	-7238
神	-7239
祥	-7240
禁	-7241
笙	-7242
粤	-7243
红	-7244
義	-7245
联	-7246
聖	-7247
自	-7248
花	-7249
英	-7250
葉	-7251
虎	-7252
蛇	-7253
詩	-7254
語	-7255
谢	-7256
貝	-7257
車	-7258
运	-7259
送	-7260
造	-7261
運	-7262
鈴	-7263
鉦	-7264
長	-7265
长	-7266
関	-7267
阿	-7268
陽	-7269
静	-7270
非	-7271
面	-7272
風	-7273
飲	-7274
高	-7275
鹏	-7276
黃	-7277
黔	-7278
龍	-7279
게	-7280
나	-7281
대	-7282
락	-7283
목	-7284
민	-7285
복	-7286
빈	-7287
산	-7288
서	-7289
수	-7290
스	-7291
어	-7292
오	-7293
울	-7294
정	-7295
주	-7296
진	-7297
창	-7298
투	-7299
현	-7300
🇱	-7301
👊	-7302
📺	-7303
😀	-7304
😱	-7305
🙏	-7306
🤯	-7307
¤	-7308
¬	-7309
Ý	-7310
Ă	-7311
Ą	-7312
Ę	-7313
ĝ	-7314
Ģ	-7315
ĥ	-7316
Ħ	-7317
Ī	-7318
ĭ	-7319
Ķ	-7320
ĺ	-7321
Ļ	-7322
ļ	-7323
Ń	-7324
Ņ	-7325
Ŝ	-7326
ť	-7327
Ū	-7328
ŵ	-7329
ǖ	-7330
ǜ	-7331
Ǻ	-7332
ǿ	-7333
Ș	-7334
Ȟ	-7335
ɕ	-7336
ɣ	-7337
ɬ	-7338
ɹ	-7339
ʊ	-7340
ʖ	-7341
̃	-7342
̆	-7343
̌	-7344
̱	-7345
͜	-7346
Ζ	-7347
Η	-7348
Ξ	-7349
Ψ	-7350
Ж	-7351
э	-7352
ћ	-7353
ў	-7354
ҫ	-7355
ү	-7356
ҳ	-7357
Ҷ	-7358
ҷ	-7359
դ	-7360
ׁ	-7361
ט	-7362
،	-7363
ئ	-7364
ذ	-7365
ض	-7366
ٌ	-7367
ٍ	-7368
ٔ	-7369
پ	-7370
چ	-7371
ک	-7372
ڬ	-7373
ܙ	-7374
ܝ	-7375
ܠ	-7376
ܢ	-7377
ܦ	-7378
އ	-7379
ލ	-7380
ސ	-7381
ޤ	-7382
ާ	-7383
ީ	-7384
ު	-7385
ް	-7386
ं	-7387
ः	-7388
ए	-7389
घ	-7390
ट	-7391
ड	-7392
ण	-7393
ब	-7394
य	-7395
व	-7396
श	-7397
़	-7398
ै	-7399
ौ	-7400
ॐ	-7401
৲	-7402
৳	-7403
చ	-7404
న	-7405
మ	-7406
ి	-7407
ณ	-7408
ถ	-7409
ป	-7410
ฤ	-7411
ว	-7412
ศ	-7413
ษ	-7414
แ	-7415
ใ	-7416
็	-7417
่	-7418
ຂ	-7419
ຄ	-7420
ນ	-7421
ພ	-7422
ມ	-7423
ລ	-7424
ວ	-7425
ສ	-7426
ິ	-7427
ແ	-7428
ཁ	-7429
ང	-7430
ར	-7431
ོ	-7432
ྫ	-7433
စ	-7434
ဗ	-7435
မ	-7436
დ	-7437
ე	-7438
ვ	-7439
თ	-7440
მ	-7441
ო	-7442
ტ	-7443
შ	-7444
በ	-7445
ና	-7446
ገ	-7447
ᐃ	-7448
ᑎ	-7449
ᑐ	-7450
ᑦ	-7451
ᒃ	-7452
ᓄ	-7453
᛫	-7454
᛬	-7455
᛭	-7456
ឃ	-7457
ង	-7458
ច	-7459
ឆ	-7460
ឌ	-7461
ទ	-7462
ធ	-7463
វ	-7464
ឡ	-7465
អ	-7466
ួ	-7467
ើ	-7468
ៀ	-7469
េ	-7470
ោ	-7471
ḏ	-7472
ḷ	-7473
Ṁ	-7474
ṁ	-7475
ṇ	-7476
Ấ	-7477
ẽ	-7478
ọ	-7479
ợ	-7480
ủ	-7481
ỳ	-7482
Ἁ	-7483
ἔ	-7484
Ἑ	-7485
ἡ	-7486
Ἤ	-7487
ἱ	-7488
Ἶ	-7489
ὁ	-7490
ὅ	-7491
ὑ	-7492
ὕ	-7493
Ὠ	-7494
ὺ	-7495
ῃ	-7496
ῇ	-7497
ῖ	-7498
ῥ	-7499
ῷ	-7500
‬	-7501
₤	-7502
₪	-7503
₫	-7504
₮	-7505
₯	-7506
₱	-7507
₴	-7508
₵	-7509
₺	-7510
₽	-7511
⃰	-7512
℧	-7513
↔	-7514
≡	-7515
⏰	-7516
│	-7517
◢	-7518
◤	-7519
☄	-7520
★	-7521
☲	-7522
♀	-7523
♘	-7524
♧	-7525
⚡	-7526
⚥	-7527
⚪	-7528
✂	-7529
✔	-7530
❀	-7531
➡	-7532
⠀	-7533
⠅	-7534
⠓	-7535
⠢	-7536
⠻	-7537
⬅	-7538
ⴻ	-7539
ⴽ	-7540
ⵍ	-7541
ⵖ	-7542
ⵛ	-7543
ⵢ	-7544
〜	-7545
お	-7546
く	-7547
ざ	-7548
ず	-7549
ち	-7550
に	-7551
ひ	-7552
ぺ	-7553
も	-7554
れ	-7555
ィ	-7556
オ	-7557
ガ	-7558
キ	-7559
グ	-7560
ソ	-7561
ヂ	-7562
デ	-7563
ド	-7564
ノ	-7565
バ	-7566
ビ	-7567
ベ	-7568
ボ	-7569
ャ	-7570
ョ	-7571
リ	-7572
ワ	-7573
丁	-7574
下	-7575
专	-7576
业	-7577
个	-7578
主	-7579
义	-7580
亀	-7581
了	-7582
五	-7583
今	-7584
仙	-7585
们	-7586
住	-7587
佑	-7588
作	-7589
価	-7590
修	-7591
先	-7592
児	-7593
八	-7594
具	-7595
典	-7596
再	-7597
军	-7598
凯	-7599
分	-7600
刊	-7601
列	-7602
別	-7603
别	-7604
制	-7605
前	-7606
剪	-7607
包	-7608
区	-7609
區	-7610
十	-7611
卍	-7612
卐	-7613
協	-7614
卿	-7615
厦	-7616
参	-7617
友	-7618
发	-7619
叙	-7620
可	-7621
右	-7622
叶	-7623
吉	-7624
后	-7625
吐	-7626
吗	-7627
君	-7628
吳	-7629
吾	-7630
命	-7631
咸	-7632
員	-7633
喜	-7634
喧	-7635
嘩	-7636
器	-7637
圆	-7638
土	-7639
圳	-7640
场	-7641
坛	-7642
堺	-7643
声	-7644
壽	-7645
夕	-7646
夢	-7647
央	-7648
始	-7649
姫	-7650
婦	-7651
嬴	-7652
宣	-7653
室	-7654
宫	-7655
宰	-7656
宿	-7657
対	-7658
專	-7659
少	-7660
屋	-7661
履	-7662
崎	-7663
巡	-7664
帯	-7665
幌	-7666
広	-7667
庆	-7668
庭	-7669
廈	-7670
廣	-7671
弓	-7672
弟	-7673
弥	-7674
很	-7675
志	-7676
忠	-7677
憑	-7678
成	-7679
房	-7680
手	-7681
抖	-7682
拳	-7683
敦	-7684
数	-7685
數	-7686
断	-7687
旗	-7688
昆	-7689
春	-7690
是	-7691
時	-7692
晩	-7693
曹	-7694
會	-7695
札	-7696
杜	-7697
条	-7698
板	-7699
査	-7700
栂	-7701
栄	-7702
株	-7703
桃	-7704
桐	-7705
梅	-7706
條	-7707
楚	-7708
業	-7709
樂	-7710
樹	-7711
樺	-7712
橋	-7713
機	-7714
檀	-7715
欢	-7716
此	-7717
死	-7718
殷	-7719
氏	-7720
気	-7721
氣	-7722
汉	-7723
沪	-7724
油	-7725
泛	-7726
泽	-7727
活	-7728
派	-7729
浄	-7730
深	-7731
渓	-7732
湾	-7733
漢	-7734
潤	-7735
澤	-7736
火	-7737
炊	-7738
烏	-7739
無	-7740
熊	-7741
燕	-7742
爆	-7743
牛	-7744
狐	-7745
狩	-7746
猫	-7747
玄	-7748
玉	-7749
珍	-7750
琼	-7751
瑟	-7752
環	-7753
瓊	-7754
甫	-7755
町	-7756
界	-7757
異	-7758
登	-7759
百	-7760
的	-7761
盈	-7762
益	-7763
着	-7764
知	-7765
研	-7766
硫	-7767
碎	-7768
碧	-7769
碩	-7770
秋	-7771
究	-7772
章	-7773
竹	-7774
笏	-7775
筑	-7776
筷	-7777
箜	-7778
箸	-7779
篌	-7780
篥	-7781
篳	-7782
糖	-7783
紙	-7784
絲	-7785
維	-7786
綱	-7787
緑	-7788
編	-7789
縄	-7790
约	-7791
羯	-7792
翰	-7793
耽	-7794
聯	-7795
肃	-7796
肅	-7797
能	-7798
腦	-7799
芹	-7800
草	-7801
莉	-7802
葵	-7803
蔚	-7804
蔵	-7805
蕉	-7806
藤	-7807
虚	-7808
螺	-7809
衛	-7810
裕	-7811
製	-7812
観	-7813
见	-7814
誌	-7815
說	-7816
論	-7817
謡	-7818
譜	-7819
诞	-7820
语	-7821
课	-7822
賀	-7823
贛	-7824
赣	-7825
越	-7826
趙	-7827
路	-7828
軍	-7829
过	-7830
近	-7831
进	-7832
速	-7833
週	-7834
進	-7835
遜	-7836
邱	-7837
郡	-7838
酒	-7839
里	-7840
重	-7841
釜	-7842
釣	-7843
銀	-7844
鐘	-7845
鐸	-7846
閏	-7847
閩	-7848
闽	-7849
阪	-7850
际	-7851
陇	-7852
陕	-7853
陣	-7854
陵	-7855
隴	-7856
雍	-7857
雑	-7858
雙	-7859
雪	-7860
雲	-7861
電	-7862
青	-7863
鞨	-7864
韓	-7865
韩	-7866
颐	-7867
飛	-7868
飞	-7869
飯	-7870
餅	-7871
館	-7872
首	-7873
騨	-7874
马	-7875
骂	-7876
魚	-7877
魯	-7878
鯤	-7879
鲁	-7880
鲲	-7881
鴨	-7882
鵬	-7883
鷹	-7884
鹰	-7885
麻	-7886
齊	-7887
齐	-7888
龙	-7889
공	-7890
광	-7891
구	-7892
국	-7893
김	-7894
내	-7895
년	-7896
노	-7897
단	-7898
더	-7899
된	-7900
레	-7901
로	-7902
리	-7903
릭	-7904
림	-7905
막	-7906
모	-7907
바	-7908
박	-7909
별	-7910
부	-7911
사	-7912
상	-7913
성	-7914
소	-7915
송	-7916
숟	-7917
승	-7918
시	-7919
애	-7920
엔	-7921
연	-7922
열	-7923
요	-7924
용	-7925
우	-7926
원	-7927
은	-7928
인	-7929
임	-7930
재	-7931
저	-7932
전	-7933
젓	-7934
즈	-7935
지	-7936
징	-7937
찬	-7938
천	-7939
체	-7940
케	-7941
키	-7942
탁	-7943
탄	-7944
트	-7945
특	-7946
팝	-7947
필	-7948
하	-7949
행	-7950
호	-7951
황	-7952
	-7953
𐎠	-7954
𐎱	-7955
𐎼	-7956
𐎿	-7957
𒂗	-7958
𒄀	-7959
𒆠	-7960
🇫	-7961
🇮	-7962
🇷	-7963
🌋	-7964
🌌	-7965
🎞	-7966
🏻	-7967
🐐	-7968
👀	-7969
👋	-7970
👎	-7971
💔	-7972
💚	-7973
💥	-7974
🔓	-7975
🔥	-7976
🕷	-7977
😊	-7978
😍	-7979
😜	-7980
😢	-7981
😬	-7982
🚀	-7983
🟢	-7984
🤖	-7985
🤦	-7986
🤨	-7987
🤲	-7988
🥀	-7989
🥰	-7990
