<pad>	0
<unk>	0
<s>	0
</s>	0
[PAD]	0
[UNK]	0
[CLS]	0
[SEP]	0
[MASK]	0
en	-0
er	-1
▁.	-2
▁d	-3
et	-4
an	-5
▁h	-6
ij	-7
▁v	-8
aa	-9
▁m	-10
▁i	-11
el	-12
▁w	-13
▁z	-14
▁o	-15
▁g	-16
at	-17
▁n	-18
▁de	-19
▁b	-20
st	-21
or	-22
▁j	-23
ch	-24
aar	-25
ie	-26
in	-27
▁e	-28
▁t	-29
▁k	-30
▁,	-31
▁a	-32
▁je	-33
▁een	-34
▁het	-35
it	-36
oe	-37
on	-38
oor	-39
▁D	-40
▁ge	-41
▁?	-42
ee	-43
▁I	-44
▁is	-45
▁van	-46
▁H	-47
▁l	-48
gen	-49
iet	-50
▁s	-51
▁in	-52
▁en	-53
▁W	-54
den	-55
ijn	-56
der	-57
de	-58
om	-59
▁p	-60
▁he	-61
▁niet	-62
▁dat	-63
cht	-64
ou	-65
▁Ik	-66
▁op	-67
le	-68
▁ik	-69
▁al	-70
oo	-71
▁ver	-72
ken	-73
al	-74
▁te	-75
il	-76
▁M	-77
re	-78
▁J	-79
▁we	-80
ig	-81
▁be	-82
is	-83
▁E	-84
ar	-85
▁'	-86
▁u	-87
ijk	-88
ing	-89
▁st	-90
▁ze	-91
..	-92
▁voor	-93
▁er	-94
as	-95
▁heb	-96
▁zijn	-97
▁me	-98
▁*	-99
▁A	-100
ur	-101
▁...	-102
▁S	-103
aat	-104
▁N	-105
▁on	-106
and	-107
▁met	-108
▁B	-109
am	-110
ver	-111
ier	-112
▁G	-113
ro	-114
je	-115
ven	-116
▁Z	-117
ol	-118
aan	-119
▁die	-120
un	-121
ra	-122
▁aan	-123
ge	-124
kt	-125
oet	-126
▁De	-127
▁K	-128
▁V	-129
▁O	-130
eer	-131
ft	-132
og	-133
ien	-134
▁ben	-135
▁om	-136
▁Het	-137
us	-138
▁uit	-139
ul	-140
id	-141
sch	-142
▁zo	-143
▁L	-144
▁T	-145
▁wat	-146
▁Je	-147
ze	-148
eel	-149
ok	-150
ten	-151
▁maar	-152
rij	-153
te	-154
ad	-155
ag	-156
▁naar	-157
nen	-158
aal	-159
▁was	-160
op	-161
▁als	-162
ru	-163
▁!	-164
sen	-165
▁moet	-166
oen	-167
▁over	-168
ap	-169
CH	-170
▁f	-171
ik	-172
ET	-173
AR	-174
ot	-175
▁hij	-176
IL	-177
▁dan	-178
len	-179
oed	-180
ILD	-181
CHILD	-182
▁sch	-183
▁wil	-184
▁P	-185
▁1	-186
▁kan	-187
TAR	-188
▁wor	-189
GET	-190
TARGET	-191
ste	-192
elijk	-193
▁Wat	-194
▁"	-195
▁We	-196
▁wer	-197
▁C	-198
lie	-199
▁le	-200
eld	-201
em	-202
▁alle	-203
▁En	-204
▁wel	-205
▁ook	-206
▁c	-207
▁Dat	-208
▁bij	-209
▁Al	-210
▁re	-211
▁-	-212
acht	-213
▁nog	-214
eeft	-215
ouw	-216
▁hier	-217
ak	-218
▁waar	-219
he	-220
▁R	-221
ang	-222
▁sp	-223
▁Ze	-224
▁of	-225
ond	-226
ist	-227
ers	-228
▁kun	-229
ben	-230
ant	-231
▁r	-232
▁(	-233
▁kom	-234
▁Hij	-235
ind	-236
▁mijn	-237
▁heeft	-238
eren	-239
▁vr	-240
uw	-241
▁geb	-242
▁dit	-243
ele	-244
▁hebben	-245
ER	-246
im	-247
pen	-248
se	-249
ander	-250
▁hem	-251
▁door	-252
▁af	-253
ct	-254
uur	-255
ijd	-256
ent	-257
▁geen	-258
▁2	-259
ingen	-260
▁In	-261
dt	-262
aten	-263
ke	-264
▁bl	-265
TH	-266
THER	-267
▁nu	-268
aag	-269
▁goed	-270
od	-271
▁haar	-272
wee	-273
▁meer	-274
▁daar	-275
▁deze	-276
▁gr	-277
▁gaan	-278
▁men	-279
▁jij	-280
een	-281
uit	-282
icht	-283
elen	-284
oord	-285
ic	-286
▁F	-287
OTHER	-288
elf	-289
oon	-290
MOTHER	-291
ker	-292
▁Waar	-293
▁weet	-294
▁doen	-295
▁Maar	-296
▁zou	-297
es	-298
▁Een	-299
lijk	-300
▁onder	-301
▁Als	-302
ast	-303
▁mee	-304
▁had	-305
ut	-306
▁ander	-307
sp	-308
ug	-309
▁kl	-310
zen	-311
ige	-312
▁gaat	-313
▁zeg	-314
ullie	-315
eten	-316
aak	-317
uk	-318
▁ter	-319
▁gew	-320
atie	-321
▁Ja	-322
▁bent	-323
oek	-324
00	-325
sl	-326
▁wordt	-327
men	-328
▁worden	-329
eder	-330
▁man	-331
ets	-332
▁pro	-333
jes	-334
▁mij	-335
▁·	-336
▁hoe	-337
▁vol	-338
aakt	-339
aken	-340
ed	-341
ich	-342
oel	-343
▁pl	-344
ST	-345
▁Hoe	-346
uis	-347
AT	-348
isch	-349
▁ons	-350
oot	-351
▁ont	-352
IN	-353
▁dr	-354
OR	-355
▁Nee	-356
▁St	-357
▁kunnen	-358
xx	-359
▁ga	-360
▁gev	-361
os	-362
▁sl	-363
▁hebt	-364
IG	-365
▁zal	-366
VE	-367
ter	-368
▁bet	-369
igen	-370
▁Dit	-371
ank	-372
heid	-373
STIG	-374
ATOR	-375
▁veel	-376
VESTIG	-377
INVESTIG	-378
INVESTIGATOR	-379
▁iets	-380
▁""	-381
▁jullie	-382
▁weg	-383
▁br	-384
▁moe	-385
dat	-386
▁to	-387
ip	-388
racht	-389
▁eer	-390
aren	-391
▁zit	-392
▁beg	-393
▁twee	-394
ood	-395
of	-396
orm	-397
▁zien	-398
▁Er	-399
▁ja	-400
▁U	-401
▁den	-402
art	-403
."	-404
amen	-405
▁bed	-406
gel	-407
aam	-408
innen	-409
▁weer	-410
▁el	-411
▁moeten	-412
▁terug	-413
oof	-414
▁gel	-415
▁tot	-416
▁hel	-417
▁ged	-418
▁Kom	-419
land	-420
chter	-421
▁mensen	-422
▁hou	-423
▁nie	-424
▁eens	-425
▁tegen	-426
ve	-427
ia	-428
▁vert	-429
onder	-430
eb	-431
um	-432
mer	-433
ine	-434
▁bel	-435
ger	-436
omen	-437
▁pr	-438
▁maken	-439
gens	-440
oop	-441
inder	-442
▁gez	-443
▁kon	-444
we	-445
▁alleen	-446
sten	-447
▁echt	-448
▁tijd	-449
▁jou	-450
▁laat	-451
ies	-452
wer	-453
▁gen	-454
▁komt	-455
▁Daar	-456
▁even	-457
▁toch	-458
▁werd	-459
▁Ver	-460
eur	-461
▁leven	-462
▁sn	-463
ab	-464
▁kw	-465
▁zich	-466
ir	-467
ooit	-468
▁jaar	-469
▁3	-470
oren	-471
▁krij	-472
▁Be	-473
omm	-474
alen	-475
▁komen	-476
ui	-477
oeg	-478
▁kle	-479
▁Op	-480
eem	-481
▁gro	-482
eeld	-483
gt	-484
eef	-485
▁jon	-486
als	-487
lo	-488
ader	-489
▁blij	-490
be	-491
▁gek	-492
ool	-493
ster	-494
eek	-495
rouw	-496
ere	-497
▁lie	-498
▁nooit	-499
els	-500
▁heel	-501
ische	-502
▁andere	-503
eed	-504
oc	-505
▁Waarom	-506
ite	-507
▁hun	-508
ell	-509
▁best	-510
ië	-511
oorden	-512
▁zei	-513
aard	-514
▁gem	-515
▁ru	-516
odig	-517
iek	-518
én	-519
▁alles	-520
ann	-521
▁nieuw	-522
af	-523
▁zelf	-524
ellen	-525
tijd	-526
zelf	-527
▁lang	-528
▁vind	-529
▁19	-530
▁Is	-531
ort	-532
▁elk	-533
uist	-534
onden	-535
▁gebru	-536
per	-537
▁werk	-538
open	-539
oog	-540
▁prob	-541
eerd	-542
issch	-543
▁toe	-544
voor	-545
▁staat	-546
ragen	-547
▁Ga	-548
anden	-549
▁Sch	-550
orgen	-551
ijken	-552
ijf	-553
ion	-554
▁na	-555
▁Die	-556
ub	-557
emand	-558
▁Voor	-559
▁nodig	-560
agen	-561
isschien	-562
▁nou	-563
tje	-564
▁Zo	-565
▁zw	-566
▁verd	-567
▁Ch	-568
▁ou	-569
▁vrien	-570
▁gebeur	-571
ink	-572
ussen	-573
uid	-574
maal	-575
av	-576
▁Jij	-577
rijk	-578
▁eigen	-579
ees	-580
▁zie	-581
▁vrouw	-582
▁bo	-583
▁Neder	-584
▁huis	-585
▁Heb	-586
▁mag	-587
hou	-588
woord	-589
▁denk	-590
▁xx	-591
oep	-592
▁xxx	-593
beeld	-594
▁Wil	-595
▁toen	-596
▁verk	-597
▁doe	-598
▁altijd	-599
▁weten	-600
ard	-601
ont	-602
▁keer	-603
oem	-604
▁é	-605
▁kunt	-606
▁achter	-607
▁Niet	-608
▁zeggen	-609
ikt	-610
ké	-611
▁onze	-612
▁Hier	-613
pl	-614
▁waren	-615
bij	-616
▁één	-617
▁dag	-618
ne	-619
etje	-620
oofd	-621
▁iemand	-622
atuur	-623
▁net	-624
▁versch	-625
ber	-626
ullen	-627
▁4	-628
ooi	-629
uiten	-630
ieren	-631
▁Nederland	-632
▁gewoon	-633
▁ar	-634
▁elkaar	-635
kken	-636
inden	-637
oort	-638
la	-639
▁20	-640
wij	-641
iden	-642
gev	-643
▁An	-644
ater	-645
▁her	-646
▁laten	-647
▁Dan	-648
▁hand	-649
▁zegt	-650
ide	-651
▁niets	-652
ust	-653
ry	-654
▁kinder	-655
▁Mijn	-656
▁binnen	-657
▁dus	-658
iv	-659
schap	-660
ren	-661
▁gee	-662
les	-663
▁vader	-664
▁ro	-665
▁geh	-666
▁dood	-667
▁maakt	-668
▁samen	-669
▁On	-670
▁Le	-671
▁Laat	-672
allen	-673
ran	-674
▁5	-675
elijke	-676
ff	-677
▁allemaal	-678
veel	-679
▁erg	-680
▁grote	-681
▁doet	-682
uc	-683
▁eerste	-684
ders	-685
▁ex	-686
res	-687
oede	-688
ocht	-689
▁land	-690
▁groot	-691
▁Wel	-692
aad	-693
gende	-694
▁zitten	-695
▁nee	-696
▁wij	-697
itie	-698
ctie	-699
▁Ben	-700
▁th	-701
▁vast	-702
-1	-703
▁water	-704
ucht	-705
ec	-706
dracht	-707
ijkt	-708
▁do	-709
▁Wie	-710
van	-711
▁plaat	-712
▁per	-713
gr	-714
ale	-715
▁hele	-716
▁Om	-717
▁drie	-718
▁geld	-719
▁gedaan	-720
▁kinderen	-721
ach	-722
▁zoals	-723
uren	-724
▁Kijk	-725
int	-726
▁ieder	-727
▁wereld	-728
del	-729
vol	-730
geven	-731
▁(1	-732
amer	-733
oeken	-734
eken	-735
▁verb	-736
▁min	-737
ijt	-738
emen	-739
pt	-740
rijf	-741
eeds	-742
▁staan	-743
▁vragen	-744
▁vinden	-745
▁Deze	-746
▁vriend	-747
▁Ge	-748
ce	-749
▁wie	-750
▁vraag	-751
▁vl	-752
iss	-753
ijden	-754
▁ken	-755
oos	-756
▁bez	-757
▁moeder	-758
illen	-759
oer	-760
ree	-761
▁lig	-762
▁uw	-763
▁Sp	-764
▁Mar	-765
elt	-766
▁ging	-767
▁willen	-768
▁tussen	-769
kst	-770
ron	-771
me	-772
▁aut	-773
▁Goed	-774
ings	-775
▁hoofd	-776
▁steeds	-777
▁anders	-778
ob	-779
▁wilde	-780
▁Met	-781
oten	-782
▁nieuwe	-783
iel	-784
▁ster	-785
▁Oké	-786
▁omdat	-787
.'	-788
▁snel	-789
gd	-790
▁Weet	-791
aas	-792
▁sle	-793
▁ant	-794
▁jouw	-795
▁Mr	-796
kom	-797
ass	-798
▁verh	-799
▁Dus	-800
iteit	-801
aart	-802
▁kn	-803
mand	-804
▁beter	-805
▁belang	-806
▁zij	-807
iks	-808
,'	-809
oud	-810
ri	-811
pp	-812
ac	-813
ks	-814
▁Van	-815
▁Nu	-816
io	-817
▁dacht	-818
▁uur	-819
apen	-820
ilm	-821
▁volgende	-822
▁naam	-823
emaal	-824
▁besch	-825
▁beh	-826
▁ne	-827
na	-828
etten	-829
fen	-830
▁Geef	-831
form	-832
geb	-833
▁or	-834
kte	-835
▁ve	-836
komen	-837
▁stad	-838
▁kijken	-839
▁hoor	-840
▁ra	-841
ost	-842
▁ziet	-843
man	-844
▁gele	-845
EN	-846
▁str	-847
lieft	-848
▁zeker	-849
▁leuk	-850
▁wacht	-851
▁verg	-852
▁vrij	-853
▁ch	-854
inn	-855
rie	-856
kend	-857
▁waarom	-858
amp	-859
mee	-860
▁Y	-861
▁kwam	-862
▁belangrijk	-863
▁open	-864
uister	-865
▁krijgen	-866
▁buiten	-867
▁Bij	-868
▁eten	-869
▁gemaakt	-870
▁geven	-871
akken	-872
▁gezien	-873
oh	-874
all	-875
▁verm	-876
kel	-877
▁meis	-878
▁oor	-879
▁6	-880
▁ple	-881
▁paar	-882
org	-883
atuurlijk	-884
▁id	-885
▁goede	-886
ow	-887
baar	-888
▁school	-889
▁verl	-890
ay	-891
▁zullen	-892
▁pol	-893
▁bedoel	-894
▁Misschien	-895
ult	-896
▁helemaal	-897
raag	-898
▁vand	-899
▁plan	-900
eest	-901
log	-902
gaan	-903
iken	-904
ill	-905
▁opdracht	-906
▁God	-907
...	-908
▁dingen	-909
▁auto	-910
rek	-911
000	-912
nis	-913
▁•	-914
▁gesch	-915
over	-916
""	-917
ire	-918
▁pre	-919
▁ker	-920
▁wilt	-921
▁klaar	-922
au	-923
▁Maak	-924
▁gra	-925
ankt	-926
door	-927
eert	-928
▁houden	-929
▁Doe	-930
▁beetje	-931
allo	-932
angen	-933
▁niks	-934
▁verschillen	-935
ief	-936
onen	-937
▁eerst	-938
ma	-939
dag	-940
▁blijven	-941
▁recht	-942
tal	-943
).	-944
uld	-945
▁plaats	-946
▁genoeg	-947
▁wist	-948
▁iedereen	-949
▁Alle	-950
▁helpen	-951
omp	-952
stand	-953
▁lief	-954
are	-955
oms	-956
▁rij	-957
▁praten	-958
ade	-959
end	-960
▁ber	-961
bl	-962
▁voel	-963
▁Te	-964
reken	-965
▁pers	-966
▁bev	-967
anneer	-968
unt	-969
▁film	-970
assen	-971
ina	-972
▁con	-973
▁spijt	-974
▁laatste	-975
▁Nou	-976
ruk	-977
▁Geen	-978
▁zonder	-979
▁verander	-980
▁slecht	-981
▁tekst	-982
merik	-983
▁Hou	-984
▁eind	-985
▁get	-986
▁verder	-987
zelfde	-988
▁mooi	-989
▁beste	-990
▁jongen	-991
weest	-992
staan	-993
ud	-994
ert	-995
▁Bl	-996
▁gebruikt	-997
▁Ook	-998
▁oo	-999
▁mis	-1000
act	-1001
oven	-1002
▁ger	-1003
ens	-1004
▁Dank	-1005
formatie	-1006
ord	-1007
▁geweest	-1008
orry	-1009
▁bren	-1010
sel	-1011
kker	-1012
▁boven	-1013
▁moest	-1014
ett	-1015
▁stuk	-1016
rijven	-1017
▁pap	-1018
▁vlie	-1019
ogen	-1020
uz	-1021
▁kant	-1022
▁beteken	-1023
iz	-1024
ation	-1025
▁gest	-1026
▁misschien	-1027
▁Den	-1028
▁mil	-1029
amil	-1030
▁hadden	-1031
nie	-1032
▁deel	-1033
▁Br	-1034
eerde	-1035
▁Vol	-1036
▁Kl	-1037
▁ie	-1038
▁idee	-1039
▁Wacht	-1040
ama	-1041
▁Oh	-1042
▁7	-1043
aast	-1044
▁vier	-1045
king	-1046
▁graag	-1047
ijna	-1048
wel	-1049
▁kleine	-1050
▁kijk	-1051
▁heen	-1052
avond	-1053
▁vaak	-1054
aald	-1055
▁tre	-1056
age	-1057
houden	-1058
eter	-1059
if	-1060
▁Bed	-1061
leg	-1062
ogelijk	-1063
▁Jullie	-1064
▁neem	-1065
▁Hallo	-1066
▁woorden	-1067
ong	-1068
deel	-1069
▁ma	-1070
ius	-1071
ck	-1072
▁Zijn	-1073
▁want	-1074
▁klein	-1075
ame	-1076
▁verw	-1077
▁Re	-1078
▁inter	-1079
jeb	-1080
▁201	-1081
omme	-1082
▁thuis	-1083
ect	-1084
▁rond	-1085
kelijk	-1086
▁zorgen	-1087
▁vertellen	-1088
▁the	-1089
▁informatie	-1090
ijs	-1091
▁verschillende	-1092
alt	-1093
▁heet	-1094
▁El	-1095
jeblieft	-1096
onnen	-1097
▁werden	-1098
▁ooit	-1099
▁welke	-1100
ess	-1101
▁geweld	-1102
arm	-1103
?'	-1104
▁dicht	-1105
ijdens	-1106
ulp	-1107
▁Toen	-1108
off	-1109
aanse	-1110
▁10	-1111
▁Amerik	-1112
▁ligt	-1113
II	-1114
oll	-1115
▁stop	-1116
▁opge	-1117
▁werken	-1118
▁cont	-1119
▁lijkt	-1120
▁tele	-1121
uil	-1122
▁meisje	-1123
▁ke	-1124
▁Ar	-1125
▁8	-1126
▁Sorry	-1127
▁Af	-1128
▁Ken	-1129
pro	-1130
▁nemen	-1131
▁geeft	-1132
▁bang	-1133
▁deed	-1134
▁verz	-1135
▁krijgt	-1136
uizen	-1137
▁mid	-1138
▁18	-1139
▁hen	-1140
▁boek	-1141
▁Sh	-1142
▁famil	-1143
▁tra	-1144
pe	-1145
▁antwoord	-1146
woorden	-1147
▁bijna	-1148
room	-1149
ilig	-1150
▁zag	-1151
▁begrij	-1152
▁manier	-1153
▁Hé	-1154
▁woord	-1155
▁Duit	-1156
▁meneer	-1157
▁fot	-1158
▁Of	-1159
▁bere	-1160
stig	-1161
ov	-1162
▁horen	-1163
▁onderz	-1164
ied	-1165
▁kr	-1166
▁niemand	-1167
werp	-1168
Ik	-1169
▁kop	-1170
▁elke	-1171
kl	-1172
▁koning	-1173
▁hoog	-1174
▁vindt	-1175
▁gesp	-1176
uurt	-1177
ieden	-1178
out	-1179
oopt	-1180
▁Kan	-1181
▁Men	-1182
▁Wij	-1183
cies	-1184
oment	-1185
weg	-1186
▁Bedankt	-1187
oemen	-1188
▁Na	-1189
▁kind	-1190
▁geze	-1191
▁bew	-1192
▁zin	-1193
ler	-1194
▁200	-1195
eden	-1196
▁lucht	-1197
▁gl	-1198
ieten	-1199
▁gelijk	-1200
▁Joh	-1201
▁Aan	-1202
▁Fr	-1203
zicht	-1204
▁besl	-1205
▁verhaal	-1206
erd	-1207
▁speel	-1208
ons	-1209
rik	-1210
▁enige	-1211
▁mannen	-1212
ah	-1213
eling	-1214
▁se	-1215
▁vandaag	-1216
urop	-1217
elde	-1218
▁politie	-1219
▁ogen	-1220
▁minu	-1221
vl	-1222
▁aard	-1223
▁grond	-1224
▁halen	-1225
▁Zeg	-1226
moet	-1227
voorbeeld	-1228
▁Zij	-1229
FA	-1230
ick	-1231
▁Ne	-1232
▁geluk	-1233
▁soort	-1234
▁gebruiken	-1235
▁denken	-1236
▁jongens	-1237
▁maak	-1238
ian	-1239
▁hart	-1240
▁zelfs	-1241
▁bloed	-1242
mm	-1243
▁mogelijk	-1244
▁lekker	-1245
▁ten	-1246
att	-1247
▁spelen	-1248
uin	-1249
▁hoop	-1250
▁teken	-1251
ts	-1252
▁zouden	-1253
▁vijf	-1254
▁Gr	-1255
ruik	-1256
stof	-1257
cent	-1258
▁Me	-1259
▁par	-1260
▁later	-1261
▁moment	-1262
▁Laten	-1263
▁Alles	-1264
▁zoon	-1265
▁stem	-1266
rijd	-1267
▁:	-1268
▁Kun	-1269
▁jaren	-1270
▁familie	-1271
▁voet	-1272
▁neer	-1273
iding	-1274
▁dagen	-1275
FATHER	-1276
▁Wik	-1277
gez	-1278
▁He	-1279
waar	-1280
qu	-1281
chten	-1282
▁oude	-1283
ga	-1284
▁sm	-1285
▁Twee	-1286
roken	-1287
▁bro	-1288
▁Th	-1289
elling	-1290
gels	-1291
▁gebeurt	-1292
opt	-1293
▁zon	-1294
aap	-1295
▁9	-1296
▁trouw	-1297
▁geleden	-1298
▁Gel	-1299
▁aantal	-1300
ces	-1301
▁Nie	-1302
▁Fran	-1303
pr	-1304
ode	-1305
inds	-1306
slag	-1307
erg	-1308
▁Mag	-1309
ged	-1310
▁mens	-1311
rag	-1312
▁nacht	-1313
▁houdt	-1314
uig	-1315
ans	-1316
houd	-1317
▁gebeurd	-1318
▁Tot	-1319
val	-1320
erm	-1321
▁verlie	-1322
ins	-1323
▁y	-1324
▁Pr	-1325
▁vond	-1326
▁15	-1327
oelen	-1328
▁stap	-1329
heden	-1330
▁red	-1331
▁gezegd	-1332
▁leer	-1333
▁minder	-1334
▁oorlog	-1335
▁vroeg	-1336
.000	-1337
▁klas	-1338
▁bep	-1339
▁Welke	-1340
oemd	-1341
▁morgen	-1342
▁Over	-1343
akt	-1344
▁geef	-1345
ilijk	-1346
▁meest	-1347
lijke	-1348
▁krijg	-1349
▁werkt	-1350
▁Schrijf	-1351
▁les	-1352
▁Denk	-1353
▁foto	-1354
deren	-1355
▁eigenlijk	-1356
och	-1357
▁kap	-1358
▁week	-1359
▁fl	-1360
▁ee	-1361
▁Nog	-1362
▁Bel	-1363
ijnen	-1364
▁denkt	-1365
sn	-1366
▁Europ	-1367
▁Door	-1368
▁betekent	-1369
lemen	-1370
▁milj	-1371
▁licht	-1372
▁zat	-1373
ment	-1374
▁tro	-1375
▁moeilijk	-1376
iets	-1377
▁Pro	-1378
olen	-1379
▁natuurlijk	-1380
▁gevonden	-1381
ooie	-1382
du	-1383
▁vrienden	-1384
vrouw	-1385
cl	-1386
mid	-1387
▁zet	-1388
▁geloof	-1389
▁Omdat	-1390
ome	-1391
▁Luister	-1392
▁ad	-1393
vers	-1394
▁Ma	-1395
inde	-1396
uwen	-1397
▁part	-1398
▁hond	-1399
leem	-1400
▁probleem	-1401
AN	-1402
▁ontmoet	-1403
▁persoon	-1404
▁pas	-1405
▁Neem	-1406
one	-1407
▁vor	-1408
bank	-1409
erde	-1410
uidelijk	-1411
▁plek	-1412
▁kans	-1413
reven	-1414
raak	-1415
▁los	-1416
ium	-1417
werk	-1418
huis	-1419
▁oud	-1420
aaf	-1421
▁Ste	-1422
▁nam	-1423
▁reden	-1424
▁kamer	-1425
▁landen	-1426
▁rest	-1427
▁vak	-1428
▁gegeven	-1429
▁soms	-1430
▁maan	-1431
▁zee	-1432
!'	-1433
ib	-1434
▁Ieder	-1435
▁Hel	-1436
ook	-1437
▁tijdens	-1438
mp	-1439
▁bestaat	-1440
erie	-1441
▁groep	-1442
our	-1443
issen	-1444
▁"'	-1445
▁gebruik	-1446
oepen	-1447
▁Frank	-1448
▁av	-1449
gest	-1450
▁schat	-1451
▁minuten	-1452
▁ruim	-1453
▁blijft	-1454
▁hè	-1455
▁sh	-1456
▁oe	-1457
▁12	-1458
heen	-1459
kig	-1460
▁oh	-1461
akker	-1462
uziek	-1463
▁leren	-1464
tre	-1465
▁Zie	-1466
wijl	-1467
▁dieren	-1468
ames	-1469
▁Echt	-1470
▁..	-1471
igd	-1472
unten	-1473
▁Lees	-1474
▁woon	-1475
▁lopen	-1476
inken	-1477
▁bijvoorbeeld	-1478
th	-1479
▁wachten	-1480
ideo	-1481
plaat	-1482
▁hoort	-1483
▁comp	-1484
▁bru	-1485
ath	-1486
▁hal	-1487
▁ind	-1488
▁zoeken	-1489
▁hard	-1490
▁deur	-1491
▁Wer	-1492
old	-1493
▁pijn	-1494
bel	-1495
cus	-1496
reeg	-1497
▁lich	-1498
▁Uit	-1499
isten	-1500
▁bekend	-1501
foon	-1502
▁geweldig	-1503
▁stra	-1504
mmer	-1505
▁tien	-1506
ën	-1507
sk	-1508
▁gehad	-1509
urg	-1510
▁ding	-1511
▁Par	-1512
▁hulp	-1513
▁eruit	-1514
▁veilig	-1515
▁Geb	-1516
ouwen	-1517
▁brengen	-1518
ident	-1519
▁X	-1520
▁su	-1521
sh	-1522
aarde	-1523
▁vrouwen	-1524
geveer	-1525
▁kreeg	-1526
▁Alleen	-1527
▁Stap	-1528
▁gesl	-1529
▁oké	-1530
▁zom	-1531
▁Blijf	-1532
oss	-1533
▁hoeveel	-1534
vel	-1535
net	-1536
dam	-1537
oeien	-1538
▁precies	-1539
mb	-1540
anen	-1541
aties	-1542
str	-1543
▁beginnen	-1544
zij	-1545
wik	-1546
▁liggen	-1547
oden	-1548
gele	-1549
con	-1550
iaal	-1551
▁spr	-1552
akkelijk	-1553
orden	-1554
▁tr	-1555
ukt	-1556
rijs	-1557
▁alsof	-1558
ure	-1559
▁Dr	-1560
▁nieuws	-1561
▁Sn	-1562
▁jezelf	-1563
tel	-1564
arte	-1565
▁gehe	-1566
▁leg	-1567
▁haal	-1568
▁onderzoek	-1569
▁Was	-1570
osten	-1571
ima	-1572
▁afbeeld	-1573
ids	-1574
maar	-1575
auw	-1576
▁zoek	-1577
ate	-1578
▁miljoen	-1579
▁verv	-1580
anis	-1581
▁Leg	-1582
▁mama	-1583
▁wanneer	-1584
▁echte	-1585
▁duidelijk	-1586
kijk	-1587
▁gezicht	-1588
iën	-1589
▁langs	-1590
bal	-1591
verd	-1592
ss	-1593
ding	-1594
sland	-1595
aby	-1596
▁Har	-1597
▁eeuw	-1598
▁ouders	-1599
regen	-1600
schijn	-1601
▁broer	-1602
▁onderwerp	-1603
▁Onder	-1604
▁tw	-1605
▁Cl	-1606
ude	-1607
De	-1608
duc	-1609
delen	-1610
tra	-1611
▁pop	-1612
bs	-1613
resident	-1614
enen	-1615
▁Moet	-1616
▁druk	-1617
ris	-1618
▁spec	-1619
▁mooie	-1620
▁lichaam	-1621
edia	-1622
▁The	-1623
▁draa	-1624
▁jong	-1625
▁Natuurlijk	-1626
▁tweede	-1627
▁stond	-1628
▁Daarom	-1629
▁bron	-1630
▁handen	-1631
pje	-1632
igde	-1633
zo	-1634
leven	-1635
dem	-1636
▁Veel	-1637
▁kracht	-1638
▁liefde	-1639
▁zoveel	-1640
vis	-1641
iep	-1642
zaam	-1643
▁begin	-1644
▁Eer	-1645
▁Wanneer	-1646
▁lezen	-1647
▁rol	-1648
▁vorm	-1649
▁Ter	-1650
achten	-1651
▁John	-1652
▁god	-1653
gem	-1654
▁gevaar	-1655
inkt	-1656
▁Car	-1657
▁spel	-1658
▁Volgens	-1659
igheid	-1660
zak	-1661
▁alsjeblieft	-1662
▁wed	-1663
▁ongeveer	-1664
▁juist	-1665
▁Iedereen	-1666
▁word	-1667
ommige	-1668
▁muziek	-1669
echt	-1670
▁Meer	-1671
▁dien	-1672
ha	-1673
▁meteen	-1674
▁vallen	-1675
▁sc	-1676
▁Pa	-1677
▁brand	-1678
app	-1679
▁orde	-1680
▁slapen	-1681
ijst	-1682
▁0	-1683
▁vooral	-1684
ange	-1685
bare	-1686
tie	-1687
▁Verd	-1688
rist	-1689
▁hetzelfde	-1690
▁Kennis	-1691
▁ste	-1692
est	-1693
▁wou	-1694
ton	-1695
zie	-1696
▁nummer	-1697
uze	-1698
vin	-1699
▁pak	-1700
ict	-1701
▁herinn	-1702
▁Am	-1703
▁feest	-1704
leden	-1705
antwoord	-1706
▁Zet	-1707
AD	-1708
▁bal	-1709
▁Ex	-1710
▁un	-1711
▁wapen	-1712
▁mogen	-1713
▁grootste	-1714
gram	-1715
ema	-1716
▁avond	-1717
▁telefoon	-1718
▁II	-1719
▁Nederlandse	-1720
ield	-1721
olog	-1722
tjes	-1723
die	-1724
aars	-1725
yn	-1726
iale	-1727
▁noem	-1728
get	-1729
▁video	-1730
sche	-1731
▁gevangen	-1732
▁problemen	-1733
▁proberen	-1734
▁verdien	-1735
▁Stop	-1736
▁pakken	-1737
▁gehoord	-1738
▁noemen	-1739
orp	-1740
▁Ro	-1741
itt	-1742
genomen	-1743
▁sche	-1744
▁geloven	-1745
▁eerder	-1746
▁bezig	-1747
▁ergens	-1748
▁vliegt	-1749
▁vanavond	-1750
▁kaart	-1751
▁Beg	-1752
ister	-1753
▁Beeld	-1754
lex	-1755
▁med	-1756
▁macht	-1757
aur	-1758
wijs	-1759
▁daarna	-1760
▁voed	-1761
▁begint	-1762
▁meeste	-1763
▁valt	-1764
▁comm	-1765
▁beneden	-1766
▁zodat	-1767
▁doel	-1768
▁Heeft	-1769
▁Heel	-1770
appen	-1771
air	-1772
inig	-1773
hand	-1774
dig	-1775
▁schuld	-1776
▁Gebruik	-1777
▁app	-1778
ippen	-1779
aden	-1780
annen	-1781
zonder	-1782
▁vij	-1783
▁mar	-1784
indelijk	-1785
▁uitleg	-1786
▁aarde	-1787
itu	-1788
▁einde	-1789
▁ervan	-1790
▁Niemand	-1791
doen	-1792
kele	-1793
▁New	-1794
▁spreken	-1795
▁oefen	-1796
olf	-1797
▁vergeten	-1798
nieuw	-1799
eens	-1800
▁zes	-1801
▁gaf	-1802
▁genoemd	-1803
▁zetten	-1804
ogel	-1805
▁loopt	-1806
ule	-1807
▁voorbij	-1808
aw	-1809
isme	-1810
▁Sam	-1811
▁maat	-1812
▁mond	-1813
UL	-1814
▁verdw	-1815
▁schil	-1816
anten	-1817
▁bek	-1818
teur	-1819
ley	-1820
▁16	-1821
▁dezelfde	-1822
br	-1823
▁kijkt	-1824
▁verkl	-1825
▁opl	-1826
▁reg	-1827
▁fig	-1828
ore	-1829
▁wit	-1830
orie	-1831
gang	-1832
▁leeft	-1833
▁Gew	-1834
oeren	-1835
stellen	-1836
ving	-1837
▁maakte	-1838
▁baby	-1839
▁vern	-1840
▁dank	-1841
inkel	-1842
ante	-1843
▁kie	-1844
▁vraagt	-1845
▁gere	-1846
▁dochter	-1847
dere	-1848
▁Kon	-1849
▁terwijl	-1850
eeuw	-1851
▁rijk	-1852
▁vis	-1853
ph	-1854
▁bas	-1855
ift	-1856
▁ongel	-1857
oeger	-1858
▁volgens	-1859
▁11	-1860
▁Gaat	-1861
zer	-1862
▁afge	-1863
),	-1864
ly	-1865
oeden	-1866
▁acht	-1867
ollar	-1868
▁gebouw	-1869
ucces	-1870
▁drinken	-1871
▁schrijven	-1872
▁wonen	-1873
▁17	-1874
derd	-1875
▁stoppen	-1876
anc	-1877
▁koff	-1878
dr	-1879
▁gemeen	-1880
etter	-1881
▁vertrouw	-1882
▁=	-1883
▁kent	-1884
▁gekomen	-1885
ari	-1886
▁Jon	-1887
▁partij	-1888
aai	-1889
▁hoeft	-1890
strijd	-1891
▁Zoals	-1892
bei	-1893
▁last	-1894
▁geworden	-1895
▁pracht	-1896
ublie	-1897
▁uitge	-1898
▁cent	-1899
ichting	-1900
bo	-1901
oge	-1902
▁Rus	-1903
yp	-1904
▁aand	-1905
kant	-1906
▁doc	-1907
ice	-1908
▁Hoeveel	-1909
elden	-1910
up	-1911
sm	-1912
▁dru	-1913
▁stil	-1914
uigen	-1915
komt	-1916
▁gebied	-1917
▁vreem	-1918
eeg	-1919
schijnlijk	-1920
apt	-1921
▁afbeelding	-1922
antie	-1923
oeder	-1924
▁Engel	-1925
▁Sl	-1926
schapp	-1927
▁ervoor	-1928
oorten	-1929
abel	-1930
▁Q	-1931
▁weinig	-1932
rokken	-1933
▁org	-1934
maken	-1935
▁geheim	-1936
ergie	-1937
▁verst	-1938
▁dier	-1939
▁stof	-1940
▁dollar	-1941
sie	-1942
erv	-1943
▁Rome	-1944
ix	-1945
gent	-1946
ive	-1947
boek	-1948
▁Veren	-1949
▁heer	-1950
atten	-1951
▁ac	-1952
▁ijs	-1953
its	-1954
kter	-1955
▁verteld	-1956
spraak	-1957
▁Bekijk	-1958
▁ruimte	-1959
▁doden	-1960
▁Gro	-1961
oi	-1962
▁ontwik	-1963
oets	-1964
red	-1965
▁rel	-1966
▁begon	-1967
aalde	-1968
stuk	-1969
uiste	-1970
uff	-1971
inse	-1972
▁199	-1973
▁sinds	-1974
▁via	-1975
▁kwamen	-1976
▁inst	-1977
ctiv	-1978
EL	-1979
▁maanden	-1980
▁ontde	-1981
▁vanaf	-1982
zien	-1983
▁punten	-1984
▁zorg	-1985
▁slag	-1986
▁begrijp	-1987
▁betalen	-1988
reng	-1989
▁kopen	-1990
▁praat	-1991
▁aange	-1992
▁leger	-1993
▁zult	-1994
▁/	-1995
▁konden	-1996
▁meter	-1997
▁Gen	-1998
▁toek	-1999
▁pa	-2000
▁riv	-2001
sc	-2002
▁waarin	-2003
won	-2004
▁papa	-2005
ake	-2006
inks	-2007
ULT	-2008
▁Net	-2009
kende	-2010
uwelijk	-2011
▁juiste	-2012
▁gebeuren	-2013
▁Dag	-2014
▁enkele	-2015
▁anderen	-2016
▁groter	-2017
▁leu	-2018
20	-2019
▁mon	-2020
▁leerl	-2021
zel	-2022
omst	-2023
repen	-2024
oenen	-2025
weer	-2026
▁sy	-2027
▁gevol	-2028
▁kru	-2029
ADULT	-2030
▁You	-2031
▁voordat	-2032
iland	-2033
aire	-2034
50	-2035
▁Pap	-2036
voer	-2037
▁Ind	-2038
▁maand	-2039
role	-2040
▁buurt	-2041
▁ren	-2042
▁lach	-2043
und	-2044
nemen	-2045
IJ	-2046
▁eraan	-2047
ner	-2048
▁Want	-2049
anger	-2050
▁Naar	-2051
▁lange	-2052
▁Alsjeblieft	-2053
min	-2054
▁30	-2055
▁Vertel	-2056
.'"	-2057
▁gingen	-2058
ublieft	-2059
raagd	-2060
▁oog	-2061
▁geval	-2062
▁baan	-2063
▁neemt	-2064
▁Pl	-2065
stublieft	-2066
▁don	-2067
stel	-2068
▁verwacht	-2069
ole	-2070
▁sec	-2071
ator	-2072
▁Char	-2073
▁liet	-2074
▁Amerikaanse	-2075
gramma	-2076
4)	-2077
onde	-2078
rak	-2079
▁gevoel	-2080
▁reken	-2081
▁figuur	-2082
▁vlucht	-2083
leiding	-2084
▁Her	-2085
hal	-2086
▁redden	-2087
▁schoon	-2088
▁trein	-2089
▁reger	-2090
gelijk	-2091
slagen	-2092
▁schrij	-2093
▁dire	-2094
▁gep	-2095
▁rijden	-2096
aring	-2097
son	-2098
Het	-2099
oes	-2100
▁wakker	-2101
▁daarom	-2102
▁ele	-2103
reg	-2104
raken	-2105
▁zeer	-2106
actie	-2107
afel	-2108
▁Jan	-2109
orn	-2110
▁vermoord	-2111
▁14	-2112
▁blijf	-2113
ument	-2114
▁examen	-2115
▁erop	-2116
▁luister	-2117
ubliek	-2118
▁sterven	-2119
dien	-2120
▁aller	-2121
▁kennen	-2122
▁13	-2123
▁kil	-2124
▁brief	-2125
stelling	-2126
rift	-2127
▁kost	-2128
▁Jack	-2129
▁half	-2130
ork	-2131
▁Eén	-2132
urk	-2133
iedenis	-2134
▁vuur	-2135
▁fout	-2136
▁reis	-2137
▁Pak	-2138
inter	-2139
sent	-2140
▁norm	-2141
wegen	-2142
▁gelukkig	-2143
uwe	-2144
gelopen	-2145
geet	-2146
▁voelt	-2147
mat	-2148
▁antwoorden	-2149
ïn	-2150
hoog	-2151
bouw	-2152
uik	-2153
burg	-2154
▁Rust	-2155
ichten	-2156
eth	-2157
IE	-2158
▁schip	-2159
▁team	-2160
▁weken	-2161
▁toekomst	-2162
▁probeer	-2163
ica	-2164
▁lag	-2165
▁natuur	-2166
▁zwaar	-2167
▁com	-2168
▁Toch	-2169
ja	-2170
▁hon	-2171
▁waardoor	-2172
▁baas	-2173
▁president	-2174
veren	-2175
▁zeven	-2176
▁gast	-2177
uken	-2178
toe	-2179
▁dik	-2180
oekt	-2181
▁mevrouw	-2182
rekken	-2183
▁Fl	-2184
▁Comm	-2185
▁Vl	-2186
elk	-2187
oppen	-2188
▁kunst	-2189
fd	-2190
'.	-2191
lei	-2192
▁warm	-2193
▁fijn	-2194
▁100	-2195
▁rust	-2196
▁voorb	-2197
olon	-2198
oest	-2199
▁veranderen	-2200
▁punt	-2201
▁voort	-2202
▁Ed	-2203
ara	-2204
vallen	-2205
▁cl	-2206
itein	-2207
ositie	-2208
pel	-2209
▁makkelijk	-2210
sy	-2211
iger	-2212
▁kwijt	-2213
▁boos	-2214
▁groen	-2215
▁Duitsland	-2216
by	-2217
ozen	-2218
▁off	-2219
genoot	-2220
▁Goede	-2221
▁regel	-2222
▁klim	-2223
▁zus	-2224
ico	-2225
▁sterk	-2226
aven	-2227
▁Zelf	-2228
oft	-2229
ctiviteit	-2230
▁meisjes	-2231
▁zaken	-2232
ijl	-2233
▁bot	-2234
▁der	-2235
morgen	-2236
▁gevraagd	-2237
▁roep	-2238
oorlog	-2239
5)	-2240
nem	-2241
▁overal	-2242
achte	-2243
▁naast	-2244
rab	-2245
▁bestaan	-2246
▁bedrijf	-2247
igh	-2248
▁di	-2249
▁Noord	-2250
▁dokter	-2251
▁regering	-2252
▁bellen	-2253
▁Bar	-2254
▁rustig	-2255
▁extra	-2256
▁volle	-2257
▁bank	-2258
▁Staten	-2259
▁middel	-2260
ille	-2261
▁50	-2262
▁delen	-2263
rede	-2264
halen	-2265
▁Meneer	-2266
▁an	-2267
▁rug	-2268
▁kor	-2269
▁mot	-2270
kw	-2271
kamer	-2272
menten	-2273
▁Zou	-2274
▁zak	-2275
▁beeld	-2276
uter	-2277
▁zwem	-2278
▁vechten	-2279
zichtig	-2280
▁Ber	-2281
▁vandaan	-2282
▁Onze	-2283
▁eet	-2284
uurd	-2285
▁energie	-2286
▁speelt	-2287
zin	-2288
gave	-2289
▁Europa	-2290
▁zichzelf	-2291
▁elekt	-2292
▁Pas	-2293
▁&	-2294
▁ontst	-2295
duct	-2296
▁aardig	-2297
stad	-2298
▁produc	-2299
bert	-2300
chn	-2301
conom	-2302
▁inge	-2303
▁boeken	-2304
▁res	-2305
▁kort	-2306
Wat	-2307
ark	-2308
▁mod	-2309
lijn	-2310
▁winnen	-2311
inen	-2312
▁straat	-2313
okken	-2314
reden	-2315
▁namelijk	-2316
▁Soms	-2317
▁snap	-2318
eelden	-2319
▁Vraag	-2320
▁lied	-2321
▁Frankrijk	-2322
▁Haar	-2323
▁Con	-2324
30	-2325
blad	-2326
▁huid	-2327
▁Rustig	-2328
steem	-2329
zetten	-2330
▁hield	-2331
etjes	-2332
▁kleur	-2333
▁III	-2334
▁opnieuw	-2335
▁Per	-2336
▁Verenigde	-2337
vangen	-2338
eller	-2339
rol	-2340
▁regen	-2341
▁duur	-2342
ioen	-2343
▁meen	-2344
▁band	-2345
▁bos	-2346
▁hoorde	-2347
▁beide	-2348
▁prijs	-2349
▁Wees	-2350
▁Zw	-2351
derij	-2352
▁mocht	-2353
▁paard	-2354
▁slaap	-2355
▁boot	-2356
lem	-2357
▁moesten	-2358
▁Tweede	-2359
rit	-2360
▁Man	-2361
ikel	-2362
cept	-2363
▁huil	-2364
▁DE	-2365
mper	-2366
kk	-2367
aalt	-2368
▁val	-2369
▁geboren	-2370
▁arm	-2371
eep	-2372
ratie	-2373
▁namen	-2374
▁vroeger	-2375
ugd	-2376
▁enorm	-2377
eet	-2378
▁Vooruit	-2379
▁erin	-2380
▁Zuid	-2381
uf	-2382
▁bijzonder	-2383
▁Tijd	-2384
▁super	-2385
▁besp	-2386
▁zinnen	-2387
▁at	-2388
▁meestal	-2389
▁jonge	-2390
▁Bra	-2391
goed	-2392
dy	-2393
ny	-2394
raf	-2395
▁Hoi	-2396
▁waarheid	-2397
beer	-2398
▁verschil	-2399
▁School	-2400
▁volgen	-2401
▁rot	-2402
isteren	-2403
▁eh	-2404
▁Alex	-2405
ivers	-2406
az	-2407
▁kast	-2408
▁art	-2409
▁Ker	-2410
▁organis	-2411
7)	-2412
▁ner	-2413
oogle	-2414
ips	-2415
▁verde	-2416
iging	-2417
▁keek	-2418
zus	-2419
▁ziek	-2420
▁voedsel	-2421
ike	-2422
▁past	-2423
ial	-2424
▁Miss	-2425
▁succes	-2426
co	-2427
rijden	-2428
▁verloren	-2429
▁Paul	-2430
▁liever	-2431
▁droom	-2432
▁1.	-2433
▁uh	-2434
ffen	-2435
▁kennis	-2436
▁waarschijnlijk	-2437
uro	-2438
▁midden	-2439
vloed	-2440
▁tafel	-2441
▁stemmen	-2442
▁taal	-2443
▁slim	-2444
ube	-2445
▁bi	-2446
orst	-2447
▁25	-2448
Dat	-2449
▁Christ	-2450
▁Vr	-2451
▁kerk	-2452
denken	-2453
mar	-2454
▁langer	-2455
oef	-2456
▁Iemand	-2457
het	-2458
wezen	-2459
▁stroom	-2460
▁meester	-2461
▁stand	-2462
▁Vind	-2463
▁Tekst	-2464
▁belangrijke	-2465
fect	-2466
urt	-2467
oegen	-2468
aaien	-2469
▁wind	-2470
water	-2471
▁form	-2472
itiek	-2473
▁voorbeeld	-2474
▁blauw	-2475
▁fun	-2476
zier	-2477
met	-2478
▁Mensen	-2479
▁erbij	-2480
▁ontstaan	-2481
▁mezelf	-2482
▁Se	-2483
vorm	-2484
▁eerlijk	-2485
▁haat	-2486
▁int	-2487
elijkheid	-2488
-2	-2489
wege	-2490
▁vriendin	-2491
▁har	-2492
agina	-2493
▁kat	-2494
▁trouwen	-2495
ermen	-2496
▁gang	-2497
punt	-2498
▁raakt	-2499
▁col	-2500
▁welk	-2501
ese	-2502
▁rad	-2503
▁overl	-2504
▁vliegtuig	-2505
▁volg	-2506
kun	-2507
ock	-2508
▁Google	-2509
▁Help	-2510
reekt	-2511
▁groe	-2512
▁omhoog	-2513
ember	-2514
▁Wh	-2515
ooien	-2516
▁hé	-2517
▁Bere	-2518
ase	-2519
schappen	-2520
ose	-2521
▁Sc	-2522
▁Zoek	-2523
▁diep	-2524
▁zaak	-2525
▁rivier	-2526
▁wedstrijd	-2527
ieke	-2528
▁Mooi	-2529
▁koffie	-2530
▁klinkt	-2531
▁ə	-2532
▁York	-2533
▁serie	-2534
ign	-2535
▁regels	-2536
ikken	-2537
ald	-2538
gew	-2539
▁Let	-2540
ue	-2541
▁situ	-2542
▁verdomme	-2543
▁ongeluk	-2544
▁boom	-2545
▁kerst	-2546
▁straks	-2547
▁grapp	-2548
▁veroor	-2549
▁198	-2550
▁202	-2551
▁bar	-2552
▁Wereld	-2553
▁bouw	-2554
▁stellen	-2555
▁fe	-2556
▁geluid	-2557
▁sold	-2558
▁kwaad	-2559
PO	-2560
inst	-2561
komst	-2562
▁Verdomme	-2563
▁Ph	-2564
rum	-2565
oun	-2566
▁fant	-2567
▁Noem	-2568
gene	-2569
▁hoef	-2570
▁Kar	-2571
angt	-2572
?"	-2573
▁leerlingen	-2574
▁mam	-2575
▁pat	-2576
▁heren	-2577
uisteren	-2578
arken	-2579
▁vervol	-2580
mie	-2581
▁Belg	-2582
ring	-2583
▁ermee	-2584
▁prof	-2585
aliteit	-2586
▁prima	-2587
▁bedankt	-2588
teken	-2589
▁vliegen	-2590
▁wilden	-2591
▁vent	-2592
▁zul	-2593
▁donker	-2594
▁winkel	-2595
werken	-2596
li	-2597
▁and	-2598
recht	-2599
her	-2600
▁bur	-2601
2)	-2602
▁Uw	-2603
▁zoiets	-2604
▁adv	-2605
▁Amerika	-2606
▁zieken	-2607
▁planten	-2608
▁Jezus	-2609
▁eiland	-2610
▁rechts	-2611
▁belangrijkste	-2612
ys	-2613
uiden	-2614
oost	-2615
▁gekregen	-2616
▁Peter	-2617
▁sta	-2618
ax	-2619
▁Mich	-2620
▁soorten	-2621
▁volk	-2622
woordig	-2623
aut	-2624
▁klopt	-2625
6)	-2626
▁vertel	-2627
▁kiezen	-2628
zingen	-2629
▁verr	-2630
ider	-2631
▁Don	-2632
▁uite	-2633
use	-2634
▁Niets	-2635
gemaakt	-2636
▁keuze	-2637
▁stuur	-2638
▁oma	-2639
▁trots	-2640
voud	-2641
▁Ital	-2642
opdracht	-2643
▁econom	-2644
zet	-2645
▁actie	-2646
werpen	-2647
imm	-2648
ologie	-2649
▁Pre	-2650
ging	-2651
oom	-2652
itten	-2653
▁Haal	-2654
▁plezier	-2655
▁dorp	-2656
In	-2657
▁tru	-2658
▁geleerd	-2659
▁geschreven	-2660
▁begonnen	-2661
otel	-2662
▁Tom	-2663
eraal	-2664
▁neus	-2665
3)	-2666
▁euro	-2667
▁positie	-2668
▁vanuit	-2669
▁soc	-2670
kort	-2671
▁ving	-2672
anken	-2673
ram	-2674
achter	-2675
▁rep	-2676
oeld	-2677
iode	-2678
ket	-2679
▁zen	-2680
▁bus	-2681
denk	-2682
ielen	-2683
▁onderdeel	-2684
▁vres	-2685
▁dw	-2686
fl	-2687
tv	-2688
▁leef	-2689
▁geg	-2690
En	-2691
▁roept	-2692
▁Pe	-2693
▁Or	-2694
ack	-2695
▁tuin	-2696
tem	-2697
▁YouT	-2698
plaats	-2699
▁viel	-2700
▁schrijf	-2701
bed	-2702
▁Ke	-2703
▁kapot	-2704
▁leid	-2705
▁begr	-2706
hank	-2707
ai	-2708
gaat	-2709
geving	-2710
▁waarde	-2711
▁dec	-2712
▁+	-2713
Al	-2714
▁dur	-2715
▁verwij	-2716
▁waarbij	-2717
adat	-2718
▁194	-2719
▁Duitse	-2720
▁verniet	-2721
▁afgelopen	-2722
▁ontwikkel	-2723
▁Schiet	-2724
derdaad	-2725
▁you	-2726
▁Zelfs	-2727
▁kamp	-2728
anders	-2729
▁voelen	-2730
▁uitleggen	-2731
woners	-2732
erend	-2733
▁mer	-2734
▁bevol	-2735
▁bepaalde	-2736
▁YouTube	-2737
▁Drie	-2738
▁overheid	-2739
▁allebei	-2740
▁ene	-2741
achine	-2742
oerd	-2743
▁vogel	-2744
▁sport	-2745
▁sleut	-2746
▁dansen	-2747
uck	-2748
ject	-2749
▁begrijpen	-2750
▁dom	-2751
staande	-2752
▁behand	-2753
▁fin	-2754
▁Klaar	-2755
8)	-2756
▁popul	-2757
iële	-2758
▁lijn	-2759
▁stukje	-2760
▁1,	-2761
▁gegaan	-2762
▁offic	-2763
geld	-2764
▁Tijdens	-2765
1)	-2766
▁herinner	-2767
orgt	-2768
▁bad	-2769
▁sommige	-2770
▁Heer	-2771
▁len	-2772
aling	-2773
▁vakantie	-2774
naast	-2775
oken	-2776
▁stel	-2777
oeie	-2778
standig	-2779
▁beschermen	-2780
▁Welkom	-2781
▁verliefd	-2782
▁Zorg	-2783
iend	-2784
▁derde	-2785
▁spullen	-2786
▁prachtig	-2787
▁vermoorden	-2788
▁wet	-2789
▁ontmoeten	-2790
▁Mart	-2791
ppen	-2792
▁veranderd	-2793
▁mo	-2794
ootzak	-2795
▁Ad	-2796
iers	-2797
-9	-2798
issie	-2799
▁geschiedenis	-2800
▁aanb	-2801
▁bele	-2802
izer	-2803
oneel	-2804
▁dem	-2805
gesteld	-2806
▁hog	-2807
▁normaal	-2808
▁hersen	-2809
kracht	-2810
ON	-2811
▁2.	-2812
che	-2813
leur	-2814
▁enkel	-2815
▁zomaar	-2816
▁versp	-2817
kie	-2818
▁Wiki	-2819
▁Afbeeld	-2820
▁Da	-2821
▁Probeer	-2822
ipedia	-2823
▁waarop	-2824
▁hoge	-2825
▁Ten	-2826
spect	-2827
middel	-2828
▁Best	-2829
60	-2830
▁pe	-2831
▁Lie	-2832
wassen	-2833
▁grappig	-2834
.""	-2835
▁197	-2836
▁vertrouwen	-2837
ossing	-2838
imaal	-2839
▁won	-2840
pers	-2841
ise	-2842
▁Kies	-2843
inea	-2844
▁graf	-2845
▁lachen	-2846
alm	-2847
▁erv	-2848
▁schr	-2849
▁present	-2850
▁waard	-2851
▁tran	-2852
zeker	-2853
▁koud	-2854
onderd	-2855
▁slechts	-2856
ogels	-2857
▁Weg	-2858
▁Europese	-2859
ikker	-2860
▁rode	-2861
▁daarmee	-2862
achtig	-2863
▁dis	-2864
▁hemel	-2865
clus	-2866
▁NPO	-2867
▁basis	-2868
deling	-2869
ity	-2870
▁loop	-2871
▁gevaarlijk	-2872
aagt	-2873
▁echter	-2874
▁docent	-2875
▁naartoe	-2876
▁Wikipedia	-2877
▁Daarna	-2878
▁letter	-2879
▁vertelde	-2880
▁24	-2881
▁Ont	-2882
aans	-2883
9)	-2884
sterdam	-2885
oy	-2886
veld	-2887
▁Dav	-2888
▁Welk	-2889
▁€	-2890
▁Span	-2891
▁links	-2892
▁kaar	-2893
▁liep	-2894
▁woont	-2895
▁adem	-2896
▁goud	-2897
▁gesproken	-2898
dan	-2899
iter	-2900
▁voorkomen	-2901
▁lijst	-2902
vr	-2903
▁gezond	-2904
▁ontsn	-2905
▁controle	-2906
rouwd	-2907
▁passen	-2908
▁levens	-2909
ette	-2910
▁trekken	-2911
▁top	-2912
▁Qu	-2913
▁vertelt	-2914
▁Jap	-2915
▁onbe	-2916
▁slechte	-2917
zijn	-2918
▁bleef	-2919
▁kilom	-2920
▁stu	-2921
lopen	-2922
▁vle	-2923
▁40	-2924
ummer	-2925
spel	-2926
▁dui	-2927
▁internet	-2928
▁Geluid	-2929
rest	-2930
▁pot	-2931
loos	-2932
▁verzam	-2933
▁versl	-2934
▁alstublieft	-2935
gegeven	-2936
▁steden	-2937
▁Hebben	-2938
▁zwarte	-2939
yl	-2940
▁dragen	-2941
▁Rob	-2942
druk	-2943
wez	-2944
Kids	-2945
▁Bereken	-2946
▁bood	-2947
▁Elke	-2948
▁Grote	-2949
ney	-2950
▁Sinds	-2951
▁uiteindelijk	-2952
▁gebracht	-2953
▁Sm	-2954
orge	-2955
▁WikiKids	-2956
▁Ok	-2957
▁Zal	-2958
▁laag	-2959
▁Tim	-2960
ain	-2961
wn	-2962
▁opa	-2963
ipjes	-2964
nam	-2965
anning	-2966
▁situatie	-2967
ash	-2968
▁bereken	-2969
▁programma	-2970
▁Terug	-2971
▁Amsterdam	-2972
▁luisteren	-2973
▁Johann	-2974
▁brengt	-2975
volut	-2976
▁Mc	-2977
▁honger	-2978
▁nergens	-2979
Je	-2980
▁park	-2981
▁lk	-2982
▁(9	-2983
inses	-2984
kop	-2985
grond	-2986
▁gebeurde	-2987
▁war	-2988
▁computer	-2989
▁Sommige	-2990
gebied	-2991
▁Nederlands	-2992
uut	-2993
▁Luc	-2994
lang	-2995
▁gisteren	-2996
aardig	-2997
astisch	-2998
▁21	-2999
▁Schooltv	-3000
▁herken	-3001
▁schiet	-3002
▁verkopen	-3003
▁probeert	-3004
zoek	-3005
▁Afbeeldingen	-3006
▁huwelijk	-3007
▁Kennisbank	-3008
▁rood	-3009
▁bezoek	-3010
gezet	-3011
▁vreemd	-3012
sters	-3013
▁Franse	-3014
▁Bob	-3015
▁Un	-3016
ail	-3017
▁Commons	-3018
imedia	-3019
▁Inhoud	-3020
keur	-3021
▁bouwen	-3022
▁Mid	-3023
▁Sim	-3024
▁contact	-3025
uim	-3026
▁dienst	-3027
▁verlaten	-3028
ilige	-3029
▁Max	-3030
!"	-3031
riet	-3032
▁zingen	-3033
▁interess	-3034
aagd	-3035
▁vormen	-3036
▁Breng	-3037
▁zomer	-3038
▁Wikimedia	-3039
▁Toe	-3040
▁boer	-3041
▁eentje	-3042
heer	-3043
atief	-3044
▁gepro	-3045
weging	-3046
▁kolon	-3047
▁thema	-3048
▁commun	-3049
▁kleren	-3050
angst	-3051
▁gehouden	-3052
vert	-3053
▁iedere	-3054
bren	-3055
▁rechter	-3056
▁seks	-3057
▁inwoners	-3058
eg	-3059
ote	-3060
▁Beeldbank	-3061
gend	-3062
ationale	-3063
▁Had	-3064
▁eff	-3065
cties	-3066
istische	-3067
ammer	-3068
▁sturen	-3069
▁Clipjes	-3070
▁Papa	-3071
▁Mon	-3072
▁bescherm	-3073
▁Eind	-3074
▁ziel	-3075
▁muur	-3076
▁gekozen	-3077
enk	-3078
▁papier	-3079
▁hoogte	-3080
▁Geweld	-3081
▁Bill	-3082
naam	-3083
▁Val	-3084
▁zuur	-3085
ric	-3086
▁Ger	-3087
ubl	-3088
▁Stel	-3089
▁duurt	-3090
▁Engeland	-3091
icit	-3092
ype	-3093
▁gewonnen	-3094
berg	-3095
▁mening	-3096
ull	-3097
▁ziekenhuis	-3098
▁Rot	-3099
▁leggen	-3100
▁periode	-3101
ije	-3102
▁Gra	-3103
▁getrouwd	-3104
▁genomen	-3105
▁techn	-3106
▁Cal	-3107
▁koningin	-3108
▁cult	-3109
▁IV	-3110
▁show	-3111
▁politieke	-3112
▁plaatsen	-3113
rom	-3114
▁vlak	-3115
ars	-3116
▁behulp	-3117
elingen	-3118
▁breng	-3119
▁leiden	-3120
▁Anders	-3121
▁George	-3122
▁Parijs	-3123
▁verkeerd	-3124
▁slaan	-3125
inderen	-3126
▁Duits	-3127
rand	-3128
▁invloed	-3129
▁ap	-3130
ith	-3131
▁gevallen	-3132
▁zorgt	-3133
▁vrede	-3134
jaar	-3135
▁cir	-3136
aus	-3137
▁verliezen	-3138
▁fiets	-3139
▁toets	-3140
▁totaal	-3141
▁schieten	-3142
loop	-3143
▁lees	-3144
40	-3145
▁Kamer	-3146
▁nood	-3147
▁eindelijk	-3148
anne	-3149
alis	-3150
▁China	-3151
▁seconden	-3152
uni	-3153
▁lid	-3154
▁probeerde	-3155
ardon	-3156
▁Jul	-3157
▁ziens	-3158
kn	-3159
▁beve	-3160
▁spoor	-3161
wijk	-3162
▁©	-3163
ouden	-3164
▁nogal	-3165
▁beoord	-3166
▁nat	-3167
▁Ren	-3168
▁brood	-3169
▁stier	-3170
▁West	-3171
AAR	-3172
▁bom	-3173
▁voelde	-3174
itter	-3175
▁terecht	-3176
ager	-3177
▁help	-3178
▁dans	-3179
▁afstand	-3180
▁tit	-3181
55	-3182
▁duizen	-3183
schuw	-3184
▁gesprek	-3185
▁witte	-3186
oute	-3187
Ja	-3188
▁lijken	-3189
▁Hun	-3190
▁Col	-3191
▁pagina	-3192
igt	-3193
▁klasgenoot	-3194
▁gemid	-3195
▁kar	-3196
keken	-3197
▁Jouw	-3198
▁km	-3199
▁Wereldoorlog	-3200
▁wee	-3201
anus	-3202
▁vertrekken	-3203
ox	-3204
rein	-3205
meester	-3206
chtend	-3207
ruim	-3208
▁Jac	-3209
▁helft	-3210
gesch	-3211
licht	-3212
rika	-3213
zaak	-3214
▁feit	-3215
ductie	-3216
▁Even	-3217
▁krant	-3218
▁filmpje	-3219
▁ab	-3220
oers	-3221
▁zoekt	-3222
umenten	-3223
▁Kunnen	-3224
oth	-3225
▁Eerst	-3226
▁kilometer	-3227
▁plant	-3228
▁Vand	-3229
▁verantwoord	-3230
▁my	-3231
schrift	-3232
▁ern	-3233
otte	-3234
▁post	-3235
▁ris	-3236
▁Samen	-3237
▁dak	-3238
▁Hoor	-3239
▁knap	-3240
rim	-3241
schuld	-3242
▁voetbal	-3243
iff	-3244
aker	-3245
rok	-3246
anks	-3247
▁geest	-3248
ustr	-3249
▁vorige	-3250
▁idi	-3251
▁Nederl	-3252
▁Iets	-3253
▁Mam	-3254
▁conc	-3255
ott	-3256
▁helpt	-3257
▁vlees	-3258
▁Oe	-3259
▁pass	-3260
▁Johannes	-3261
▁arg	-3262
▁Zeker	-3263
▁voorzichtig	-3264
vragen	-3265
▁gered	-3266
ka	-3267
▁volwassen	-3268
sloten	-3269
▁gebouwd	-3270
amera	-3271
▁stom	-3272
ress	-3273
▁Zonder	-3274
za	-3275
▁wapens	-3276
▁leek	-3277
▁Harry	-3278
sb	-3279
▁redenen	-3280
rijp	-3281
▁uitv	-3282
abr	-3283
chen	-3284
▁(10	-3285
▁Engels	-3286
ines	-3287
ino	-3288
▁leeg	-3289
▁mater	-3290
▁gegevens	-3291
▁sneeuw	-3292
▁melk	-3293
-10	-3294
ijnt	-3295
▁Russ	-3296
▁Tegen	-3297
▁Hierdoor	-3298
▁Mer	-3299
▁Mama	-3300
▁wol	-3301
▁vooruit	-3302
▁trek	-3303
▁gesloten	-3304
▁korte	-3305
▁speciale	-3306
▁Morgen	-3307
useum	-3308
▁amb	-3309
orgd	-3310
▁direct	-3311
▁deden	-3312
▁Achter	-3313
IT	-3314
▁aandacht	-3315
▁log	-3316
▁afspraak	-3317
▁vijand	-3318
▁0,	-3319
▁Kn	-3320
ikte	-3321
▁overt	-3322
amm	-3323
rieken	-3324
▁aanwez	-3325
▁toer	-3326
▁stoel	-3327
▁Geluk	-3328
▁max	-3329
▁strijd	-3330
▁alinea	-3331
ranten	-3332
▁bracht	-3333
jar	-3334
kijken	-3335
▁kregen	-3336
▁broek	-3337
▁koop	-3338
▁Mrs	-3339
▁Ant	-3340
▁vanwege	-3341
dent	-3342
▁steen	-3343
iment	-3344
udeer	-3345
mperatuur	-3346
▁sim	-3347
okk	-3348
▁Em	-3349
▁Leuk	-3350
▁klootzak	-3351
▁provin	-3352
▁result	-3353
▁)	-3354
AL	-3355
▁zand	-3356
▁kerel	-3357
▁honden	-3358
▁voer	-3359
▁kruis	-3360
ane	-3361
▁keuken	-3362
▁raad	-3363
▁kosten	-3364
▁ouder	-3365
▁gevangenis	-3366
▁196	-3367
▁Willem	-3368
mming	-3369
▁leeftijd	-3370
▁vreselijk	-3371
▁Lou	-3372
ering	-3373
▁bekijken	-3374
▁Pardon	-3375
▁stappen	-3376
artij	-3377
inc	-3378
▁Geweldig	-3379
▁fles	-3380
▁beloof	-3381
wat	-3382
▁wand	-3383
heb	-3384
▁oom	-3385
Een	-3386
▁vers	-3387
▁brug	-3388
--	-3389
▁daarvan	-3390
ung	-3391
▁raam	-3392
minste	-3393
orde	-3394
ild	-3395
▁huilen	-3396
▁vele	-3397
We	-3398
onken	-3399
▁raken	-3400
bsol	-3401
rong	-3402
▁vlieg	-3403
intig	-3404
▁waarmee	-3405
▁kapitein	-3406
▁3.	-3407
▁raar	-3408
▁et	-3409
70	-3410
mmers	-3411
tegen	-3412
▁gezin	-3413
▁bepaald	-3414
▁Spanje	-3415
▁wint	-3416
▁klimaat	-3417
etters	-3418
▁Vergeet	-3419
▁kantoor	-3420
▁rec	-3421
▁voorstellen	-3422
▁Snel	-3423
ific	-3424
▁lieverd	-3425
▁wen	-3426
▁erover	-3427
-11	-3428
groep	-3429
▁Joe	-3430
▁verj	-3431
▁22	-3432
onk	-3433
▁meid	-3434
▁vervolgens	-3435
wit	-3436
▁(2	-3437
▁gemeente	-3438
▁verkocht	-3439
izen	-3440
orpen	-3441
▁univers	-3442
▁bevolking	-3443
▁aanv	-3444
▁producten	-3445
▁houd	-3446
▁reactie	-3447
▁Hen	-3448
cie	-3449
▁berg	-3450
▁voorbeelden	-3451
reep	-3452
ots	-3453
▁Japan	-3454
▁respect	-3455
gezien	-3456
reid	-3457
▁sneller	-3458
▁oplossing	-3459
inkrijk	-3460
▁VII	-3461
▁schoenen	-3462
▁test	-3463
uh	-3464
kan	-3465
unn	-3466
▁ball	-3467
▁lukt	-3468
▁televis	-3469
▁Opdracht	-3470
▁bedoeld	-3471
assing	-3472
▁verleden	-3473
ats	-3474
ugen	-3475
▁Brit	-3476
elsel	-3477
▁veroorz	-3478
▁opv	-3479
▁cel	-3480
▁blijkt	-3481
▁stij	-3482
ract	-3483
oemde	-3484
▁stam	-3485
▁Eerste	-3486
▁At	-3487
bron	-3488
▁pen	-3489
gebracht	-3490
▁Fijn	-3491
ight	-3492
▁vergelijk	-3493
ooft	-3494
▁Mil	-3495
▁mass	-3496
▁bereiken	-3497
▁bronnen	-3498
wijzen	-3499
test	-3500
▁Bla	-3501
▁glas	-3502
atische	-3503
▁kenmer	-3504
▁bewegen	-3505
▁allerlei	-3506
▁Hey	-3507
▁gedacht	-3508
atis	-3509
ana	-3510
▁lu	-3511
▁as	-3512
▁spreek	-3513
ruit	-3514
▁Goedemorgen	-3515
▁blad	-3516
ingt	-3517
▁hotel	-3518
▁leuke	-3519
gelegd	-3520
▁cre	-3521
vie	-3522
▁veld	-3523
▁tabel	-3524
▁tekening	-3525
',	-3526
▁beant	-3527
▁bedoelt	-3528
▁vonden	-3529
▁opdrachten	-3530
▁tv	-3531
▁(19	-3532
▁exp	-3533
aris	-3534
▁Eigen	-3535
▁Rusland	-3536
cellen	-3537
▁lastig	-3538
▁em	-3539
▁ochtend	-3540
▁radio	-3541
eratie	-3542
-8	-3543
▁voldoen	-3544
iër	-3545
heids	-3546
▁Ab	-3547
▁België	-3548
ret	-3549
asting	-3550
▁betaald	-3551
▁Min	-3552
▁been	-3553
▁geïn	-3554
▁gebieden	-3555
▁Wal	-3556
▁Activiteit	-3557
landse	-3558
▁hoger	-3559
▁cor	-3560
raven	-3561
▁cijf	-3562
▁jan	-3563
▁car	-3564
▁toon	-3565
▁erger	-3566
▁daarvoor	-3567
ocol	-3568
elicit	-3569
▁(11	-3570
▁Kle	-3571
▁hieronder	-3572
▁verklaring	-3573
dom	-3574
ham	-3575
▁drank	-3576
▁begrijpt	-3577
▁Vanaf	-3578
▁club	-3579
▁relatie	-3580
▁Rep	-3581
ipt	-3582
▁bedacht	-3583
▁James	-3584
▁kou	-3585
▁richting	-3586
ormen	-3587
wet	-3588
film	-3589
Maar	-3590
▁pad	-3591
brengen	-3592
olang	-3593
▁Zullen	-3594
▁Begrepen	-3595
ikk	-3596
▁Londen	-3597
▁opper	-3598
ile	-3599
DEN	-3600
▁David	-3601
▁gaten	-3602
▁GE	-3603
▁ontdekt	-3604
▁hangt	-3605
▁hoek	-3606
▁onver	-3607
▁perfect	-3608
▁tek	-3609
▁gezet	-3610
▁Kap	-3611
▁sleutel	-3612
zoeken	-3613
▁Mad	-3614
▁mede	-3615
▁stud	-3616
▁ziekte	-3617
▁Gu	-3618
▁bloemen	-3619
enten	-3620
▁steun	-3621
cten	-3622
▁voeten	-3623
▁groeien	-3624
▁schree	-3625
▁Wilt	-3626
▁verkie	-3627
▁zowel	-3628
▁fil	-3629
▁Eg	-3630
▁station	-3631
▁verhalen	-3632
gevallen	-3633
ym	-3634
▁agent	-3635
▁23	-3636
gekomen	-3637
▁Koning	-3638
outen	-3639
▁speciaal	-3640
schieten	-3641
▁procent	-3642
▁publiek	-3643
▁artikel	-3644
▁Vader	-3645
▁ler	-3646
▁Frans	-3647
zing	-3648
ipp	-3649
▁overw	-3650
volutie	-3651
▁verdienen	-3652
▁keizer	-3653
▁Rijk	-3654
▁verpl	-3655
▁varken	-3656
-19	-3657
▁Bro	-3658
▁gar	-3659
▁koek	-3660
▁missen	-3661
▁manieren	-3662
▁winter	-3663
▁act	-3664
▁dol	-3665
etting	-3666
OE	-3667
▁waarvan	-3668
▁plat	-3669
uari	-3670
cu	-3671
▁wal	-3672
dra	-3673
nacht	-3674
▁Greg	-3675
sse	-3676
▁wh	-3677
▁soldaten	-3678
ors	-3679
olly	-3680
▁wonder	-3681
▁Hol	-3682
▁vul	-3683
▁minister	-3684
ureau	-3685
wagen	-3686
aalf	-3687
▁Jer	-3688
geh	-3689
▁grens	-3690
▁riep	-3691
▁bem	-3692
▁verra	-3693
▁Gewoon	-3694
▁wees	-3695
line	-3696
ooid	-3697
▁indruk	-3698
ieel	-3699
▁lot	-3700
ony	-3701
raad	-3702
▁poes	-3703
uster	-3704
cel	-3705
▁webs	-3706
mogelijk	-3707
stoffen	-3708
▁meerdere	-3709
▁negen	-3710
▁verslag	-3711
▁Vandaag	-3712
▁Mee	-3713
▁schrijft	-3714
▁overleven	-3715
aste	-3716
ourn	-3717
▁gedrag	-3718
▁Lang	-3719
aardag	-3720
vern	-3721
▁cade	-3722
▁(8	-3723
▁sir	-3724
aurant	-3725
lement	-3726
▁paarden	-3727
las	-3728
▁plannen	-3729
▁boeren	-3730
▁Werk	-3731
▁benen	-3732
▁draaien	-3733
feest	-3734
▁Can	-3735
▁dichter	-3736
ling	-3737
fte	-3738
▁wijn	-3739
▁haalt	-3740
▁titel	-3741
iste	-3742
▁bomen	-3743
iele	-3744
▁Opgave	-3745
▁kust	-3746
▁tenminste	-3747
▁dromen	-3748
rot	-3749
▁gas	-3750
▁exper	-3751
▁oefening	-3752
boven	-3753
eefd	-3754
▁Bon	-3755
▁zwart	-3756
▁ha	-3757
▁gevecht	-3758
ael	-3759
▁kern	-3760
orten	-3761
▁jas	-3762
▁Pol	-3763
▁Oost	-3764
▁gestolen	-3765
di	-3766
▁enorme	-3767
▁gedachten	-3768
-6	-3769
rake	-3770
▁dikke	-3771
▁Gelukkig	-3772
itte	-3773
▁straf	-3774
inus	-3775
markt	-3776
▁Zod	-3777
▁instru	-3778
▁tas	-3779
▁januari	-3780
ukken	-3781
▁ruzie	-3782
▁zacht	-3783
▁wezen	-3784
▁verandert	-3785
▁gedood	-3786
▁motor	-3787
▁ol	-3788
▁armen	-3789
▁Goeden	-3790
▁Excus	-3791
▁Bes	-3792
▁Mex	-3793
▁politiek	-3794
▁idioot	-3795
▁tekenen	-3796
ochten	-3797
oordat	-3798
▁gelezen	-3799
▁trap	-3800
▁lin	-3801
inding	-3802
IS	-3803
▁angst	-3804
▁tanden	-3805
▁aanp	-3806
ement	-3807
▁geweldige	-3808
▁moed	-3809
▁sterren	-3810
▁Charlie	-3811
▁hierheen	-3812
▁Inter	-3813
product	-3814
▁strand	-3815
▁Hieronder	-3816
rucht	-3817
bet	-3818
kens	-3819
oei	-3820
▁moeite	-3821
▁draait	-3822
lijst	-3823
gevoerd	-3824
own	-3825
▁daarbij	-3826
ky	-3827
▁bak	-3828
deeld	-3829
ple	-3830
gaven	-3831
▁volgt	-3832
▁noorden	-3833
ieven	-3834
lazen	-3835
▁werkte	-3836
10	-3837
▁Lu	-3838
Nee	-3839
▁spreekt	-3840
bie	-3841
▁Oosten	-3842
atr	-3843
▁pan	-3844
▁bericht	-3845
▁ij	-3846
▁beantwoorden	-3847
deelte	-3848
werking	-3849
▁Tw	-3850
▁beurt	-3851
zi	-3852
▁Kerst	-3853
omde	-3854
ilanden	-3855
bar	-3856
▁leider	-3857
▁prinses	-3858
▁co	-3859
ance	-3860
▁thee	-3861
▁omgeving	-3862
▁verjaardag	-3863
indt	-3864
▁vergeet	-3865
▁gebeld	-3866
▁pakt	-3867
ongen	-3868
ene	-3869
▁Sta	-3870
eltjes	-3871
▁hor	-3872
iënt	-3873
stelsel	-3874
▁ontstaat	-3875
ish	-3876
stru	-3877
▁dames	-3878
▁gelukt	-3879
▁tent	-3880
▁huizen	-3881
▁Nieuw	-3882
▁schreef	-3883
oze	-3884
que	-3885
▁insp	-3886
essor	-3887
▁Jongens	-3888
haal	-3889
EE	-3890
▁Open	-3891
▁buik	-3892
cteur	-3893
ueel	-3894
▁markt	-3895
vlie	-3896
▁sla	-3897
▁vissen	-3898
▁nadat	-3899
gelaten	-3900
▁bevat	-3901
▁sign	-3902
pril	-3903
▁camera	-3904
▁ineens	-3905
Als	-3906
gs	-3907
▁po	-3908
ère	-3909
▁60	-3910
▁gene	-3911
iveau	-3912
▁temperatuur	-3913
▁Ca	-3914
rimin	-3915
▁verkeerde	-3916
avor	-3917
▁kwal	-3918
▁Maria	-3919
▁geraakt	-3920
tt	-3921
▁medic	-3922
▁tijdje	-3923
▁Komt	-3924
▁gauw	-3925
▁taak	-3926
jet	-3927
issing	-3928
▁kleding	-3929
▁Mevrouw	-3930
▁schilderij	-3931
weet	-3932
▁voeren	-3933
bsoluut	-3934
ijven	-3935
▁cons	-3936
▁ei	-3937
amb	-3938
mis	-3939
▁#	-3940
ocr	-3941
▁And	-3942
vreden	-3943
▁schatje	-3944
▁Gar	-3945
▁beweging	-3946
ada	-3947
ount	-3948
werkt	-3949
roon	-3950
▁Pet	-3951
▁ontwikkeling	-3952
▁La	-3953
▁moder	-3954
▁volledig	-3955
orius	-3956
▁start	-3957
ober	-3958
▁sluiten	-3959
▁kam	-3960
▁gehaald	-3961
eloos	-3962
abriek	-3963
hankelijk	-3964
▁goeie	-3965
trek	-3966
▁gebeurten	-3967
▁rekening	-3968
▁milit	-3969
ime	-3970
erij	-3971
ieu	-3972
▁gemakkelijk	-3973
beerd	-3974
schappij	-3975
▁Hoezo	-3976
▁zaten	-3977
hoek	-3978
▁kool	-3979
▁vrijheid	-3980
▁bedrijven	-3981
ograf	-3982
▁suik	-3983
▁twijf	-3984
▁gestuurd	-3985
▁hout	-3986
iner	-3987
▁Sar	-3988
▁trekt	-3989
▁Bru	-3990
▁Thom	-3991
▁stelt	-3992
St	-3993
▁Juist	-3994
verb	-3995
▁hangen	-3996
▁zuiden	-3997
▁Phil	-3998
▁bier	-3999
▁degene	-4000
▁gevolg	-4001
▁meiden	-4002
oeid	-4003
▁teksten	-4004
ande	-4005
isen	-4006
▁planeet	-4007
▁televisie	-4008
▁zover	-4009
▁langzaam	-4010
▁systeem	-4011
ouwd	-4012
▁193	-4013
▁held	-4014
ellingen	-4015
▁minuut	-4016
▁besloten	-4017
ugust	-4018
▁Bedenk	-4019
▁Bron	-4020
▁gewer	-4021
▁eenvoud	-4022
lor	-4023
▁handel	-4024
▁schrijver	-4025
kast	-4026
reek	-4027
vaart	-4028
▁Su	-4029
▁omsch	-4030
▁fantastisch	-4031
▁stierf	-4032
▁Mal	-4033
▁zuurstof	-4034
izoen	-4035
ll	-4036
▁kleuren	-4037
ubb	-4038
▁rom	-4039
▁gewone	-4040
▁onderstaande	-4041
staat	-4042
▁populair	-4043
▁Vict	-4044
ctuur	-4045
▁toneel	-4046
▁kwart	-4047
▁doos	-4048
felicit	-4049
aapt	-4050
ball	-4051
▁onderdelen	-4052
gar	-4053
53	-4054
scheid	-4055
stemming	-4056
OO	-4057
▁toege	-4058
▁Cla	-4059
feliciteerd	-4060
▁vaker	-4061
erende	-4062
go	-4063
▁Klik	-4064
59	-4065
▁advoc	-4066
▁gekocht	-4067
ranje	-4068
▁VI	-4069
▁mei	-4070
fe	-4071
gie	-4072
ones	-4073
▁slacht	-4074
treden	-4075
Ze	-4076
▁Bent	-4077
▁dre	-4078
▁gewerkt	-4079
▁proces	-4080
laag	-4081
sych	-4082
▁theorie	-4083
ella	-4084
illa	-4085
▁weekend	-4086
▁gevolgen	-4087
aderen	-4088
▁Eigenlijk	-4089
▁zwak	-4090
▁aanval	-4091
Hij	-4092
▁rennen	-4093
▁bewijs	-4094
▁dro	-4095
▁gec	-4096
yy	-4097
iegel	-4098
▁Nooit	-4099
genoten	-4100
▁Precies	-4101
orven	-4102
▁zwemmen	-4103
sluit	-4104
tussen	-4105
52	-4106
eekt	-4107
baan	-4108
▁Binnen	-4109
▁bestuur	-4110
▁Ol	-4111
ommel	-4112
▁Thomas	-4113
▁Prima	-4114
▁inhoud	-4115
▁slaat	-4116
▁prachtige	-4117
▁kasteel	-4118
▁tante	-4119
▁favor	-4120
"".	-4121
bad	-4122
▁olie	-4123
▁Oor	-4124
▁Leo	-4125
▁Sy	-4126
entie	-4127
▁restaurant	-4128
ossen	-4129
▁onzin	-4130
aleis	-4131
▁Sov	-4132
irt	-4133
▁Sir	-4134
▁zond	-4135
▁serieus	-4136
▁Tra	-4137
▁neg	-4138
▁juni	-4139
▁gat	-4140
▁bord	-4141
▁hiel	-4142
urs	-4143
▁hom	-4144
▁slot	-4145
▁hoofdstad	-4146
▁blauwe	-4147
hoe	-4148
▁yyy	-4149
koop	-4150
▁functie	-4151
ktober	-4152
▁Vijf	-4153
▁Bestudeer	-4154
▁inderdaad	-4155
▁priv	-4156
-12	-4157
▁Ah	-4158
▁dame	-4159
▁Meester	-4160
▁betre	-4161
▁films	-4162
▁snelheid	-4163
▁Tr	-4164
alve	-4165
▁Jim	-4166
uele	-4167
▁beest	-4168
athol	-4169
.)	-4170
elletje	-4171
▁geprobeerd	-4172
▁Britse	-4173
▁Daarnaast	-4174
▁Houd	-4175
wacht	-4176
▁ontwikk	-4177
▁boord	-4178
sproken	-4179
▁schelen	-4180
▁vet	-4181
ocent	-4182
atting	-4183
▁pil	-4184
▁wens	-4185
ekend	-4186
icro	-4187
▁oefenen	-4188
▁Bened	-4189
▁uiter	-4190
▁vogels	-4191
iende	-4192
▁inkomen	-4193
▁formule	-4194
▁overeen	-4195
▁stelling	-4196
▁liter	-4197
ini	-4198
▁VAN	-4199
▁zagen	-4200
▁opger	-4201
anda	-4202
▁Hoewel	-4203
view	-4204
▁Geloof	-4205
gemeen	-4206
▁bedre	-4207
ef	-4208
▁gasten	-4209
kamp	-4210
▁bloem	-4211
OOR	-4212
▁grap	-4213
▁x	-4214
▁opt	-4215
ontrole	-4216
▁tegelijk	-4217
▁191	-4218
▁Victor	-4219
arts	-4220
middag	-4221
Waar	-4222
steen	-4223
▁inv	-4224
▁ontb	-4225
▁gespeeld	-4226
ici	-4227
▁hoeven	-4228
▁Kapitein	-4229
uli	-4230
spraken	-4231
▁Gaan	-4232
▁ring	-4233
lymp	-4234
▁misd	-4235
▁Rich	-4236
▁persoonlijk	-4237
▁trad	-4238
kunde	-4239
Amerik	-4240
▁stoffen	-4241
,5	-4242
▁prins	-4243
pakt	-4244
▁leert	-4245
jarige	-4246
kelijke	-4247
lop	-4248
▁IJ	-4249
bin	-4250
▁vuil	-4251
▁noemt	-4252
▁moorden	-4253
▁letters	-4254
▁cultuur	-4255
ca	-4256
▁Boven	-4257
▁verband	-4258
▁Alstublieft	-4259
▁appar	-4260
▁sluit	-4261
ël	-4262
nummer	-4263
▁gooien	-4264
▁2000	-4265
▁Vul	-4266
istor	-4267
▁arme	-4268
eeuwen	-4269
▁kikker	-4270
▁herinneren	-4271
▁gebruikte	-4272
▁kies	-4273
ora	-4274
▁toev	-4275
plaatst	-4276
▁(6	-4277
▁woest	-4278
▁moord	-4279
▁Dis	-4280
▁fiet	-4281
▁vrije	-4282
▁berekening	-4283
▁draagt	-4284
▁Ach	-4285
▁react	-4286
▁voorbere	-4287
han	-4288
odigd	-4289
DE	-4290
▁Benedict	-4291
▁december	-4292
rijving	-4293
▁weergegeven	-4294
▁bekende	-4295
▁nietwaar	-4296
▁tegenwoordig	-4297
gte	-4298
trekken	-4299
kwam	-4300
▁speelde	-4301
▁Red	-4302
▁Word	-4303
iem	-4304
▁gemist	-4305
▁intern	-4306
▁EEN	-4307
▁Hop	-4308
erse	-4309
hr	-4310
enn	-4311
▁mann	-4312
▁Excuseer	-4313
▁wagen	-4314
cy	-4315
fin	-4316
▁droog	-4317
▁Karel	-4318
▁Mac	-4319
▁zwanger	-4320
▁boodschap	-4321
▁ges	-4322
▁Engelse	-4323
▁verdriet	-4324
ona	-4325
ragment	-4326
▁activiteit	-4327
hoor	-4328
leggen	-4329
▁jeugd	-4330
elle	-4331
ilen	-4332
▁4.	-4333
niet	-4334
erland	-4335
▁Che	-4336
ING	-4337
urgers	-4338
▁Helemaal	-4339
ublic	-4340
▁vinger	-4341
elend	-4342
rijzen	-4343
▁risico	-4344
▁erachter	-4345
▁gras	-4346
▁schou	-4347
▁zware	-4348
isteravond	-4349
▁Oostenrijk	-4350
▁steek	-4351
▁provincie	-4352
▁arbe	-4353
▁Do	-4354
▁Groot	-4355
▁jurk	-4356
▁bedenken	-4357
▁lift	-4358
atisch	-4359
usten	-4360
▁kont	-4361
▁verdwenen	-4362
▁rob	-4363
▁beantwoord	-4364
▁tel	-4365
▁lieve	-4366
▁missie	-4367
▁favoriet	-4368
uffrouw	-4369
▁sep	-4370
▁oktober	-4371
▁28	-4372
▁Dood	-4373
▁noord	-4374
▁Christus	-4375
▁tal	-4376
▁(12	-4377
▁Italië	-4378
AS	-4379
oorte	-4380
▁ontw	-4381
▁gebroken	-4382
▁Vier	-4383
agne	-4384
gek	-4385
▁Gre	-4386
tember	-4387
▁Schat	-4388
▁à	-4389
▁blik	-4390
▁26	-4391
▁IN	-4392
▁website	-4393
gemeester	-4394
▁stomme	-4395
zinn	-4396
▁onaf	-4397
▁27	-4398
slaan	-4399
▁verover	-4400
OM	-4401
vig	-4402
▁behalve	-4403
48	-4404
▁onderweg	-4405
halve	-4406
▁Fre	-4407
▁maakten	-4408
zame	-4409
▁Michael	-4410
▁$	-4411
elaar	-4412
▁hoeveelheid	-4413
▁plaatje	-4414
▁trouwens	-4415
ovember	-4416
▁Niks	-4417
▁vlag	-4418
NA	-4419
bak	-4420
▁Port	-4421
matig	-4422
▁jongeren	-4423
▁verboden	-4424
aamd	-4425
▁gewond	-4426
▁liedje	-4427
▁Krij	-4428
▁go	-4429
▁San	-4430
keren	-4431
wed	-4432
logen	-4433
ington	-4434
▁tijden	-4435
▁IK	-4436
zuur	-4437
▁Stil	-4438
sluiten	-4439
▁Vooral	-4440
▁betekenis	-4441
plant	-4442
▁det	-4443
▁toren	-4444
ury	-4445
▁du	-4446
hangen	-4447
▁april	-4448
▁schema	-4449
▁am	-4450
ersp	-4451
▁vieren	-4452
ftig	-4453
▁partijen	-4454
▁zulke	-4455
organis	-4456
▁spannen	-4457
▁vreemde	-4458
eesten	-4459
▁suiker	-4460
iaanse	-4461
ochtend	-4462
▁ok	-4463
▁veiligheid	-4464
▁%	-4465
▁groepen	-4466
hel	-4467
▁ond	-4468
▁dronken	-4469
▁des	-4470
▁zicht	-4471
2.	-4472
▁mob	-4473
bes	-4474
▁verschrik	-4475
▁Afrika	-4476
▁product	-4477
▁rijdt	-4478
utt	-4479
▁fr	-4480
va	-4481
▁kaarten	-4482
rouwen	-4483
school	-4484
▁Lief	-4485
▁Toon	-4486
▁onderzoeken	-4487
▁mes	-4488
▁gedeelte	-4489
▁Jos	-4490
▁oren	-4491
sport	-4492
▁Benedictus	-4493
waarde	-4494
▁zeiden	-4495
▁recl	-4496
wekken	-4497
▁ideeën	-4498
ustrie	-4499
▁storm	-4500
▁link	-4501
▁Wor	-4502
▁juli	-4503
▁Anna	-4504
name	-4505
▁bevel	-4506
ampen	-4507
▁haast	-4508
▁gelooft	-4509
▁voldoende	-4510
▁geldt	-4511
dienst	-4512
▁doordat	-4513
▁Vert	-4514
▁gooi	-4515
▁personen	-4516
▁Verder	-4517
▁daardoor	-4518
▁nummers	-4519
eelt	-4520
▁betere	-4521
▁Bur	-4522
▁pir	-4523
▁reizen	-4524
▁interessant	-4525
▁verkiezingen	-4526
▁(18	-4527
▁allen	-4528
▁regelen	-4529
key	-4530
▁500	-4531
57	-4532
▁behoor	-4533
▁Sovjet	-4534
▁beroep	-4535
▁Dum	-4536
▁graden	-4537
pol	-4538
▁schad	-4539
▁twaalf	-4540
▁Dames	-4541
▁Willi	-4542
▁veroorzaakt	-4543
▁leiding	-4544
ctor	-4545
ieën	-4546
▁Alexander	-4547
▁ontvangen	-4548
ianen	-4549
▁besluit	-4550
▁afle	-4551
▁beer	-4552
ooflijk	-4553
▁schade	-4554
▁stonden	-4555
lakte	-4556
▁schrift	-4557
▁leidt	-4558
maakt	-4559
▁bril	-4560
▁Trek	-4561
▁qu	-4562
▁groene	-4563
bum	-4564
▁Chine	-4565
▁bewijzen	-4566
▁HET	-4567
▁sprake	-4568
▁oorsp	-4569
▁gratis	-4570
▁gegeten	-4571
▁generaal	-4572
▁slachtoff	-4573
▁lun	-4574
▁bodem	-4575
ugustus	-4576
maat	-4577
stem	-4578
▁imp	-4579
reet	-4580
▁maximaal	-4581
stal	-4582
rolijk	-4583
▁begrepen	-4584
▁burger	-4585
▁tegenover	-4586
▁Mary	-4587
▁leden	-4588
roep	-4589
rukt	-4590
▁Alsof	-4591
▁leest	-4592
▁monster	-4593
mijn	-4594
▁teleur	-4595
▁Mike	-4596
aterdag	-4597
sver	-4598
▁Cent	-4599
▁september	-4600
uif	-4601
▁mijne	-4602
past	-4603
▁drink	-4604
▁begrippen	-4605
▁Hem	-4606
leet	-4607
akers	-4608
moord	-4609
raal	-4610
▁hersenen	-4611
▁ware	-4612
▁dichtbij	-4613
▁hiervoor	-4614
▁verzeker	-4615
▁huur	-4616
rale	-4617
▁heerlijk	-4618
delde	-4619
▁hol	-4620
▁eraf	-4621
▁juf	-4622
▁Nick	-4623
▁plekken	-4624
▁verle	-4625
journ	-4626
oeven	-4627
▁Bijvoorbeeld	-4628
CHT	-4629
▁honderd	-4630
▁not	-4631
▁dou	-4632
▁William	-4633
ps	-4634
▁Volg	-4635
▁vracht	-4636
kr	-4637
▁Ray	-4638
▁hee	-4639
ationaal	-4640
▁kus	-4641
▁pist	-4642
▁voorsp	-4643
▁Nic	-4644
rn	-4645
▁cm	-4646
▁bepalen	-4647
▁gereed	-4648
▁halve	-4649
▁wetenschap	-4650
▁Sa	-4651
▁Ted	-4652
▁Gem	-4653
Op	-4654
pijn	-4655
▁...'	-4656
AP	-4657
-4	-4658
oordt	-4659
ages	-4660
iber	-4661
▁Land	-4662
▁Turk	-4663
▁Tussen	-4664
▁protest	-4665
icus	-4666
▁toeg	-4667
▁beelden	-4668
▁maart	-4669
▁chocol	-4670
azen	-4671
▁Hit	-4672
▁wetenschapp	-4673
oond	-4674
▁scher	-4675
▁meenemen	-4676
▁twintig	-4677
▁stenen	-4678
oto	-4679
:"	-4680
ita	-4681
▁opgel	-4682
keer	-4683
▁Kat	-4684
▁staart	-4685
low	-4686
▁Ron	-4687
ceaan	-4688
▁optreden	-4689
atieve	-4690
▁Later	-4691
▁proef	-4692
▁alweer	-4693
west	-4694
▁Sal	-4695
31	-4696
▁welkom	-4697
▁wisten	-4698
▁zwaard	-4699
eiden	-4700
▁bese	-4701
▁landbouw	-4702
preek	-4703
bus	-4704
immy	-4705
▁totdat	-4706
▁aanwezig	-4707
ward	-4708
▁code	-4709
▁Mel	-4710
▁kal	-4711
▁Olymp	-4712
laat	-4713
oegd	-4714
mal	-4715
▁80	-4716
AG	-4717
Hoe	-4718
▁192	-4719
ilt	-4720
▁tevreden	-4721
▁ST	-4722
▁koe	-4723
▁Vrij	-4724
▁herkennen	-4725
▁november	-4726
ïne	-4727
▁Bet	-4728
nemers	-4729
▁Gregorius	-4730
▁Romeinse	-4731
rekt	-4732
▁stukken	-4733
45	-4734
▁economie	-4735
▁hoogste	-4736
▁Russische	-4737
▁EN	-4738
▁Oke	-4739
▁hiervan	-4740
▁betrokken	-4741
▁Amerikanen	-4742
▁Grieken	-4743
nes	-4744
do	-4745
▁productie	-4746
▁onmogelijk	-4747
zijde	-4748
▁psych	-4749
▁betaal	-4750
▁verkoop	-4751
▁kab	-4752
▁nek	-4753
▁Laur	-4754
▁Gefeliciteerd	-4755
▁symb	-4756
▁Fred	-4757
ih	-4758
▁huidige	-4759
▁sterke	-4760
▁burgers	-4761
▁excus	-4762
adering	-4763
▁hoed	-4764
▁verdomde	-4765
ld	-4766
lage	-4767
houdt	-4768
▁lever	-4769
AND	-4770
▁Begrijp	-4771
vang	-4772
▁bergen	-4773
UR	-4774
▁mooiste	-4775
▁vernietigen	-4776
▁volgorde	-4777
vraag	-4778
denten	-4779
▁museum	-4780
▁zenuw	-4781
▁bereikt	-4782
▁winn	-4783
▁verdient	-4784
▁wegen	-4785
▁vervangen	-4786
▁veren	-4787
ommen	-4788
▁...?	-4789
▁lok	-4790
▁Griek	-4791
▁verkeer	-4792
IST	-4793
▁slaapt	-4794
▁rit	-4795
▁elf	-4796
▁voorz	-4797
▁Stra	-4798
▁bact	-4799
▁Robert	-4800
,-	-4801
▁touw	-4802
▁type	-4803
coh	-4804
▁universiteit	-4805
▁Water	-4806
▁stru	-4807
▁geboorte	-4808
▁vecht	-4809
dige	-4810
▁bleek	-4811
▁haven	-4812
▁overleden	-4813
▁31	-4814
▁kussen	-4815
▁glim	-4816
▁project	-4817
▁advocaat	-4818
oning	-4819
▁burgemeester	-4820
▁schepen	-4821
iens	-4822
▁eng	-4823
▁voren	-4824
▁Super	-4825
ieken	-4826
▁Moeder	-4827
▁Ons	-4828
▁hm	-4829
▁financ	-4830
▁Allemaal	-4831
oris	-4832
▁kwalijk	-4833
hoofd	-4834
▁tand	-4835
▁meegenomen	-4836
"",	-4837
▁wijs	-4838
otheek	-4839
▁keren	-4840
▁au	-4841
▁sociale	-4842
▁cool	-4843
▁gemiddelde	-4844
ologische	-4845
▁verbrand	-4846
▁kip	-4847
▁Bespreek	-4848
des	-4849
▁ouwe	-4850
▁kaas	-4851
▁for	-4852
▁machine	-4853
▁Huis	-4854
laten	-4855
▁ronde	-4856
▁IS	-4857
▁Genoeg	-4858
▁springen	-4859
alist	-4860
▁uitb	-4861
▁geheime	-4862
cohol	-4863
journaal	-4864
▁duren	-4865
▁afval	-4866
▁scholen	-4867
▁dek	-4868
▁kende	-4869
▁geheel	-4870
▁schuldig	-4871
▁Hoog	-4872
iteindelijk	-4873
▁lul	-4874
prijs	-4875
ser	-4876
▁ontbij	-4877
let	-4878
▁vangen	-4879
andid	-4880
76	-4881
achtige	-4882
▁Republiek	-4883
hol	-4884
▁Zit	-4885
houding	-4886
▁dachten	-4887
pest	-4888
kra	-4889
▁trok	-4890
▁Jeugd	-4891
leving	-4892
dels	-4893
▁durf	-4894
ommigen	-4895
▁verbl	-4896
▁Inn	-4897
▁linker	-4898
▁afbeeldingen	-4899
▁raakte	-4900
▁kleiner	-4901
▁Sarah	-4902
ampagne	-4903
▁VER	-4904
▁Besch	-4905
▁onderste	-4906
▁your	-4907
▁stopt	-4908
▁concent	-4909
?'"	-4910
▁Wash	-4911
-16	-4912
▁Noor	-4913
▁buur	-4914
▁kranten	-4915
▁cijfers	-4916
▁sig	-4917
ities	-4918
▁legt	-4919
▁aangezien	-4920
pport	-4921
ival	-4922
▁blok	-4923
▁Bas	-4924
kle	-4925
raaf	-4926
▁Uiteindelijk	-4927
▁doorgaan	-4928
kaan	-4929
▁stelen	-4930
▁port	-4931
terdam	-4932
pjes	-4933
ustral	-4934
▁Terwijl	-4935
deld	-4936
▁Succes	-4937
▁lamp	-4938
▁richt	-4939
schip	-4940
achelijk	-4941
▁opp	-4942
ago	-4943
ipl	-4944
▁strip	-4945
▁bewust	-4946
▁gram	-4947
ikke	-4948
▁loc	-4949
▁milieu	-4950
rond	-4951
▁schrik	-4952
▁Hal	-4953
▁vleug	-4954
▁Links	-4955
▁kampioen	-4956
opp	-4957
pak	-4958
▁OP	-4959
vlakte	-4960
▁kunsten	-4961
zz	-4962
▁beloofd	-4963
standigheden	-4964
▁boerderij	-4965
▁mor	-4966
▁feestje	-4967
ace	-4968
▁Mexico	-4969
▁ass	-4970
regel	-4971
▁VS	-4972
▁sal	-4973
rische	-4974
▁grafiek	-4975
ES	-4976
▁rook	-4977
▁materiaal	-4978
▁sub	-4979
eland	-4980
uwelijks	-4981
ionele	-4982
▁presentatie	-4983
▁sk	-4984
arch	-4985
vader	-4986
▁onderwijs	-4987
snaam	-4988
▁reage	-4989
▁gouden	-4990
loer	-4991
▁Cor	-4992
▁opeens	-4993
▁zakken	-4994
▁let	-4995
trecht	-4996
ira	-4997
▁mist	-4998
▁Kinderen	-4999
54	-5000
RO	-5001
eerden	-5002
▁Rotterdam	-5003
oogd	-5004
schak	-5005
▁borst	-5006
▁Matt	-5007
ballen	-5008
▁cellen	-5009
▁waarschuw	-5010
▁Richard	-5011
▁bedoeling	-5012
kers	-5013
naar	-5014
▁opgev	-5015
middellijk	-5016
mail	-5017
▁im	-5018
zee	-5019
▁Will	-5020
▁beroemd	-5021
▁Steph	-5022
▁stijl	-5023
oug	-5024
▁Ster	-5025
▁soep	-5026
digen	-5027
band	-5028
▁media	-5029
agram	-5030
▁totale	-5031
▁breken	-5032
▁opgenomen	-5033
▁sorry	-5034
▁onge	-5035
terusten	-5036
▁emot	-5037
eerdoelen	-5038
▁grapje	-5039
58	-5040
stein	-5041
▁pij	-5042
▁zondag	-5043
astic	-5044
kingen	-5045
anny	-5046
▁simpel	-5047
▁War	-5048
▁gisteravond	-5049
AM	-5050
lecht	-5051
fr	-5052
tr	-5053
ijm	-5054
▁Austral	-5055
▁aap	-5056
▁Ha	-5057
▁vaste	-5058
▁Clemen	-5059
▁ontsnappen	-5060
▁Nederlanders	-5061
juist	-5062
▁zuid	-5063
gedaan	-5064
ilde	-5065
▁Fil	-5066
▁Shit	-5067
▁klap	-5068
▁eieren	-5069
groot	-5070
▁Jawel	-5071
▁Ros	-5072
▁Tur	-5073
óó	-5074
entje	-5075
club	-5076
seling	-5077
▁Gesch	-5078
▁29	-5079
▁(16	-5080
▁schoot	-5081
▁toestemming	-5082
▁gef	-5083
punten	-5084
yd	-5085
▁hyp	-5086
▁Mark	-5087
spro	-5088
▁soldaat	-5089
eeks	-5090
▁Carl	-5091
▁mach	-5092
▁interview	-5093
▁Washington	-5094
programma	-5095
-18	-5096
▁hek	-5097
lant	-5098
gegaan	-5099
ebru	-5100
▁toet	-5101
▁zout	-5102
erge	-5103
▁dode	-5104
risis	-5105
▁verdeeld	-5106
▁economische	-5107
▁35	-5108
cul	-5109
▁bereid	-5110
▁flink	-5111
stens	-5112
the	-5113
▁zolang	-5114
▁augustus	-5115
clusie	-5116
▁Clemens	-5117
▁Piet	-5118
▁taart	-5119
▁pistool	-5120
▁wink	-5121
bergen	-5122
UN	-5123
rakt	-5124
cis	-5125
▁Stuur	-5126
eemt	-5127
oefen	-5128
ecten	-5129
▁overd	-5130
▁Vroeger	-5131
▁besloot	-5132
▁leerling	-5133
▁heu	-5134
▁es	-5135
▁belasting	-5136
ola	-5137
▁donder	-5138
▁werkblad	-5139
▁2,	-5140
▁Nap	-5141
▁Sla	-5142
▁gren	-5143
▁Inderdaad	-5144
genaam	-5145
▁sprak	-5146
▁weggaan	-5147
▁Hong	-5148
▁levend	-5149
▁jongetje	-5150
zw	-5151
ror	-5152
zaken	-5153
ookt	-5154
▁beper	-5155
▁hierbij	-5156
ady	-5157
▁Jimmy	-5158
▁Berlijn	-5159
▁woestijn	-5160
▁onschuld	-5161
▁ide	-5162
▁geschikt	-5163
▁Wegwezen	-5164
▁Isra	-5165
▁prem	-5166
rière	-5167
▁zonne	-5168
▁Utrecht	-5169
bru	-5170
▁tegenst	-5171
▁klok	-5172
▁command	-5173
▁gestopt	-5174
▁XI	-5175
uurlijk	-5176
-17	-5177
uile	-5178
▁seizoen	-5179
▁laatst	-5180
▁westen	-5181
▁Koninkrijk	-5182
▁Voel	-5183
▁XII	-5184
▁sloeg	-5185
iërs	-5186
▁hert	-5187
▁liefje	-5188
▁Norm	-5189
▁bezit	-5190
▁grotere	-5191
▁bid	-5192
▁."	-5193
AK	-5194
oelens	-5195
ilver	-5196
▁rand	-5197
▁zaterdag	-5198
▁dun	-5199
kaart	-5200
▁Romeinen	-5201
ogelijke	-5202
▁Tru	-5203
▁grij	-5204
▁muis	-5205
▁Adam	-5206
▁control	-5207
▁Ts	-5208
steit	-5209
▁uren	-5210
▁verlies	-5211
▁tab	-5212
▁sex	-5213
▁zweer	-5214
▁argument	-5215
▁vingers	-5216
▁meth	-5217
osl	-5218
▁Wist	-5219
▁gepr	-5220
tes	-5221
otseling	-5222
▁bezorgd	-5223
auze	-5224
ous	-5225
▁const	-5226
dru	-5227
▁micro	-5228
▁schild	-5229
▁temp	-5230
▁Praat	-5231
▁opb	-5232
▁schak	-5233
▁noemde	-5234
▁Zee	-5235
moeder	-5236
▁roepen	-5237
▁document	-5238
ruis	-5239
▁opw	-5240
▁talen	-5241
▁centrum	-5242
onie	-5243
▁Dem	-5244
ining	-5245
▁verrassing	-5246
▁betaalt	-5247
▁eenmaal	-5248
vens	-5249
▁Gal	-5250
▁Lieve	-5251
▁betekenen	-5252
▁nauwelijks	-5253
ida	-5254
allig	-5255
▁My	-5256
▁polit	-5257
▁geregeld	-5258
▁Verg	-5259
▁misl	-5260
plos	-5261
▁duizenden	-5262
▁Mor	-5263
oelang	-5264
▁regio	-5265
▁beoordeling	-5266
▁opgeb	-5267
▁begraven	-5268
▁directeur	-5269
▁Terugkijken	-5270
ebruari	-5271
wiss	-5272
▁Elk	-5273
▁hiermee	-5274
▁TV	-5275
▁olif	-5276
was	-5277
▁winst	-5278
▁organisatie	-5279
▁Kunt	-5280
aff	-5281
▁kenmerken	-5282
▁Henry	-5283
▁vocht	-5284
▁race	-5285
▁Bijna	-5286
strijden	-5287
sdag	-5288
▁pod	-5289
▁Egyp	-5290
▁voorzien	-5291
▁smaak	-5292
gde	-5293
▁Hitler	-5294
▁signaal	-5295
▁leugen	-5296
hop	-5297
▁schreeuw	-5298
▁dert	-5299
▁drugs	-5300
▁konijn	-5301
▁koel	-5302
▁stok	-5303
▁Staat	-5304
arten	-5305
▁lijk	-5306
▁duizend	-5307
boom	-5308
▁verdwijnen	-5309
▁steken	-5310
aait	-5311
▁Charles	-5312
▁neef	-5313
▁ervaring	-5314
jesteit	-5315
▁partner	-5316
ronken	-5317
▁ident	-5318
▁intro	-5319
▁deb	-5320
▁Voorzichtig	-5321
▁Louis	-5322
▁JE	-5323
▁Az	-5324
▁tax	-5325
▁favoriete	-5326
beelden	-5327
▁moo	-5328
ooster	-5329
▁Begin	-5330
middelen	-5331
volle	-5332
▁gebleven	-5333
▁beschik	-5334
▁2010	-5335
beiders	-5336
▁Ur	-5337
▁middag	-5338
▁harde	-5339
▁alcohol	-5340
▁Daardoor	-5341
▁model	-5342
ba	-5343
▁Tex	-5344
▁draag	-5345
▁fouten	-5346
▁nachts	-5347
lin	-5348
▁las	-5349
▁jal	-5350
oging	-5351
vo	-5352
gere	-5353
centrum	-5354
▁slaven	-5355
▁tonen	-5356
iloft	-5357
▁bor	-5358
▁gepl	-5359
▁Billy	-5360
komsten	-5361
ubbel	-5362
▁verloor	-5363
▁5.	-5364
itch	-5365
mond	-5366
▁avont	-5367
▁Goedenavond	-5368
▁Ongel	-5369
▁zoet	-5370
▁studenten	-5371
olpen	-5372
eriën	-5373
uitenant	-5374
▁Len	-5375
▁Vaak	-5376
▁Les	-5377
▁discus	-5378
▁Brand	-5379
▁haalde	-5380
201	-5381
▁corre	-5382
▁accept	-5383
opper	-5384
▁crimin	-5385
▁journ	-5386
▁Fe	-5387
▁acteur	-5388
▁Krijg	-5389
wereld	-5390
asie	-5391
▁mus	-5392
▁kalm	-5393
▁Sen	-5394
▁smer	-5395
▁betreft	-5396
▁getekend	-5397
▁rechten	-5398
▁Hart	-5399
▁heette	-5400
urende	-5401
▁Israël	-5402
raagt	-5403
▁inse	-5404
▁300	-5405
▁onmiddellijk	-5406
▁Klopt	-5407
▁und	-5408
ageren	-5409
uts	-5410
▁gedragen	-5411
▁Andere	-5412
▁beiden	-5413
wood	-5414
▁daarin	-5415
ern	-5416
▁bre	-5417
▁advies	-5418
▁Lat	-5419
Europ	-5420
▁oper	-5421
Er	-5422
alisme	-5423
genheid	-5424
▁nadenken	-5425
▁reacties	-5426
▁maag	-5427
▁parlement	-5428
▁autom	-5429
ush	-5430
▁Kim	-5431
riciteit	-5432
▁lengte	-5433
▁Oorlog	-5434
DER	-5435
▁rekenen	-5436
igit	-5437
▁paleis	-5438
▁ontslagen	-5439
aaid	-5440
-3	-5441
nee	-5442
gro	-5443
▁verslaan	-5444
▁person	-5445
▁krachten	-5446
dagen	-5447
Unie	-5448
▁fabriek	-5449
▁ent	-5450
▁gelief	-5451
▁Beantwoord	-5452
▁lacht	-5453
igin	-5454
▁Del	-5455
▁Unie	-5456
arde	-5457
▁geslacht	-5458
▁buitenland	-5459
▁moderne	-5460
rijft	-5461
way	-5462
▁verandering	-5463
waard	-5464
▁teveel	-5465
▁maal	-5466
▁hallo	-5467
opend	-5468
▁kopje	-5469
▁gebouwen	-5470
▁wiss	-5471
▁(17	-5472
▁miljoenen	-5473
EG	-5474
▁Tien	-5475
inning	-5476
estival	-5477
machine	-5478
▁Innocent	-5479
▁Verb	-5480
▁rijke	-5481
▁communic	-5482
iënten	-5483
▁Ve	-5484
▁oorzaak	-5485
vak	-5486
▁bijzondere	-5487
hoorn	-5488
▁behoorlijk	-5489
▁India	-5490
▁adres	-5491
▁jammer	-5492
▁album	-5493
▁vergelijking	-5494
osaur	-5495
▁gewicht	-5496
▁februari	-5497
▁Not	-5498
▁Innocentius	-5499
LA	-5500
▁Dar	-5501
▁bruiloft	-5502
ecte	-5503
▁lijden	-5504
▁compl	-5505
▁veront	-5506
▁bestond	-5507
▁70	-5508
rafen	-5509
zil	-5510
iana	-5511
▁branden	-5512
▁Prof	-5513
▁Hoofd	-5514
▁vannacht	-5515
▁aardbe	-5516
thur	-5517
▁Mij	-5518
▁belde	-5519
▁oosten	-5520
▁Goos	-5521
▁officieel	-5522
▁Duitsers	-5523
▁goden	-5524
▁combin	-5525
▁chem	-5526
kennen	-5527
▁arch	-5528
▁beschrijven	-5529
▁AL	-5530
▁hierdoor	-5531
▁gevoelens	-5532
▁Eindopdracht	-5533
elijks	-5534
▁Chinese	-5535
▁truc	-5536
▁wijze	-5537
ocratie	-5538
▁Ag	-5539
▁Oo	-5540
fecte	-5541
▁Trouw	-5542
▁opzicht	-5543
vrij	-5544
▁vierde	-5545
irus	-5546
▁Snap	-5547
oederen	-5548
▁fietsen	-5549
park	-5550
▁bie	-5551
middels	-5552
▁ontstond	-5553
meer	-5554
rib	-5555
port	-5556
▁Jane	-5557
▁Weer	-5558
ilet	-5559
▁resultaat	-5560
▁knop	-5561
▁samenleving	-5562
da	-5563
BR	-5564
▁Raad	-5565
▁finale	-5566
▁Jo	-5567
aand	-5568
▁VIII	-5569
asc	-5570
▁werkwoord	-5571
apper	-5572
▁Big	-5573
eters	-5574
▁Rock	-5575
▁tij	-5576
▁Hand	-5577
▁appel	-5578
▁Lekker	-5579
▁zuster	-5580
▁Dummie	-5581
▁bekeken	-5582
▁Dom	-5583
▁zette	-5584
systeem	-5585
▁Naast	-5586
▁Jas	-5587
inner	-5588
▁May	-5589
plaatsen	-5590
▁ho	-5591
uizend	-5592
▁koken	-5593
feer	-5594
plan	-5595
▁rare	-5596
▁...-	-5597
▁zorgde	-5598
auto	-5599
▁Welterusten	-5600
▁uitspraak	-5601
sluiting	-5602
▁wis	-5603
hem	-5604
▁Bos	-5605
▁snoep	-5606
▁hopen	-5607
zijd	-5608
▁Oekra	-5609
▁hum	-5610
▁No	-5611
▁nad	-5612
ementen	-5613
▁Ged	-5614
▁wild	-5615
▁Spaanse	-5616
oma	-5617
▁geholpen	-5618
▁45	-5619
▁aanvallen	-5620
▁ob	-5621
▁lui	-5622
▁openen	-5623
OL	-5624
tot	-5625
▁Bo	-5626
▁deal	-5627
▁keus	-5628
49	-5629
▁Po	-5630
gers	-5631
station	-5632
46	-5633
wa	-5634
pad	-5635
▁Vanavond	-5636
▁Simon	-5637
▁bewee	-5638
▁beheer	-5639
▁versie	-5640
▁vertrek	-5641
▁2014	-5642
▁Jeff	-5643
▁voert	-5644
▁opnemen	-5645
▁erf	-5646
▁sterker	-5647
óór	-5648
aseerd	-5649
ston	-5650
▁mm	-5651
▁Roy	-5652
▁ban	-5653
istof	-5654
▁ontv	-5655
▁histor	-5656
abeth	-5657
▁begrip	-5658
▁leraar	-5659
▁Bal	-5660
▁lad	-5661
▁Straks	-5662
▁miljard	-5663
reis	-5664
80	-5665
uel	-5666
...'	-5667
imaat	-5668
▁event	-5669
▁Albert	-5670
eriff	-5671
▁Leer	-5672
▁eenvoudig	-5673
▁Ju	-5674
▁bedanken	-5675
▁Andre	-5676
▁Bart	-5677
stappen	-5678
lauw	-5679
▁Sint	-5680
oorde	-5681
▁ballen	-5682
▁da	-5683
isa	-5684
ary	-5685
12	-5686
▁pakte	-5687
▁Behalve	-5688
▁Lee	-5689
▁tong	-5690
▁klass	-5691
auff	-5692
▁Anne	-5693
▁vriendje	-5694
com	-5695
▁Jacob	-5696
▁President	-5697
▁vluchten	-5698
▁Goeie	-5699
▁bureau	-5700
▁netjes	-5701
▁beslissing	-5702
▁belachelijk	-5703
sd	-5704
upp	-5705
iaan	-5706
▁controleren	-5707
▁pens	-5708
▁privé	-5709
Af	-5710
▁Tony	-5711
▁uitzen	-5712
▁verstand	-5713
▁verbonden	-5714
▁Rad	-5715
▁schilder	-5716
rog	-5717
▁jacht	-5718
gebruik	-5719
▁komende	-5720
entuin	-5721
col	-5722
gas	-5723
▁Carol	-5724
▁bedoelde	-5725
▁typ	-5726
▁effect	-5727
▁Buiten	-5728
▁Midden	-5729
▁bedrag	-5730
▁akk	-5731
▁Pers	-5732
▁lol	-5733
▁ref	-5734
▁Pius	-5735
ractie	-5736
▁Recht	-5737
▁vrijdag	-5738
▁persoonlijke	-5739
▁Maakt	-5740
▁broers	-5741
-13	-5742
▁ah	-5743
to	-5744
zakken	-5745
▁City	-5746
▁reageren	-5747
▁geur	-5748
auffeur	-5749
▁Fin	-5750
▁luistert	-5751
▁massa	-5752
rop	-5753
boeken	-5754
▁lessen	-5755
▁verdedig	-5756
olven	-5757
▁uitgeb	-5758
▁ontbijt	-5759
Die	-5760
▁kandid	-5761
56	-5762
ollen	-5763
▁vermogen	-5764
▁verschrikkelijk	-5765
▁fab	-5766
▁ernstig	-5767
▁talent	-5768
sw	-5769
▁schaal	-5770
▁route	-5771
▁ramp	-5772
uss	-5773
olie	-5774
▁vergel	-5775
igie	-5776
dus	-5777
▁gehoor	-5778
▁christ	-5779
▁lab	-5780
▁Altijd	-5781
▁geslagen	-5782
din	-5783
▁golf	-5784
igers	-5785
regelen	-5786
▁Arthur	-5787
▁aandoen	-5788
▁Pot	-5789
▁Nadat	-5790
▁schijnt	-5791
▁warme	-5792
sing	-5793
▁vloer	-5794
▁Los	-5795
ammen	-5796
▁bespreken	-5797
▁2016	-5798
will	-5799
richt	-5800
▁90	-5801
▁Polen	-5802
▁spiegel	-5803
▁waaronder	-5804
▁gebeurtenissen	-5805
adem	-5806
▁handig	-5807
▁sen	-5808
▁groei	-5809
▁normale	-5810
ijdt	-5811
ieuw	-5812
▁koffer	-5813
▁Spelen	-5814
baarheid	-5815
▁att	-5816
▁Arab	-5817
▁;	-5818
▁Zodra	-5819
ISTER	-5820
aasd	-5821
▁detail	-5822
namelijk	-5823
anke	-5824
▁weig	-5825
IET	-5826
aking	-5827
iforn	-5828
▁lenen	-5829
▁niveau	-5830
▁2012	-5831
▁gezell	-5832
▁meedoen	-5833
osk	-5834
atter	-5835
▁Heren	-5836
▁eilanden	-5837
ende	-5838
eteren	-5839
▁gun	-5840
▁telt	-5841
pakken	-5842
▁algemeen	-5843
elder	-5844
imeter	-5845
risten	-5846
▁it	-5847
▁oorspron	-5848
3.	-5849
alle	-5850
▁verdiep	-5851
▁hap	-5852
▁fact	-5853
artement	-5854
▁Brazil	-5855
▁poten	-5856
▁1000	-5857
▁belt	-5858
▁dief	-5859
voering	-5860
▁bieden	-5861
▁Eindelijk	-5862
▁Jammer	-5863
78	-5864
▁rid	-5865
▁klanten	-5866
pot	-5867
huizen	-5868
▁Voordat	-5869
rel	-5870
▁kiest	-5871
▁Joost	-5872
▁gemiddeld	-5873
▁aangegeven	-5874
▁aardapp	-5875
▁opgericht	-5876
▁oppervlakte	-5877
Dan	-5878
▁eindproduct	-5879
▁Jake	-5880
▁gestorven	-5881
▁Bond	-5882
eurt	-5883
▁aft	-5884
▁genaamd	-5885
▁Waarschijnlijk	-5886
ala	-5887
▁gedicht	-5888
▁so	-5889
▁zanger	-5890
▁zaad	-5891
inke	-5892
▁web	-5893
▁explos	-5894
▁Gooi	-5895
▁Black	-5896
▁rivieren	-5897
▁vertrokken	-5898
▁schoonheid	-5899
ily	-5900
▁EU	-5901
▁Martin	-5902
▁beroemde	-5903
unde	-5904
▁geheugen	-5905
▁medicijnen	-5906
▁beveilig	-5907
▁Hebt	-5908
▁verster	-5909
▁Teken	-5910
▁reclame	-5911
▁loon	-5912
gl	-5913
uiver	-5914
▁heks	-5915
▁geïnter	-5916
vest	-5917
▁jaloers	-5918
▁overtuigen	-5919
▁absoluut	-5920
elly	-5921
▁Oranje	-5922
▁vriendelijk	-5923
agers	-5924
▁colle	-5925
▁Zwe	-5926
▁troepen	-5927
▁lijf	-5928
▁minstens	-5929
▁verspreid	-5930
▁vrolijk	-5931
▁zelfmoord	-5932
▁Kleine	-5933
▁IX	-5934
eind	-5935
▁2011	-5936
▁online	-5937
▁opstand	-5938
▁190	-5939
▁Laura	-5940
▁Komaan	-5941
mene	-5942
▁Mooie	-5943
ano	-5944
vlak	-5945
▁vergelijken	-5946
zaal	-5947
raden	-5948
▁fruit	-5949
▁verplicht	-5950
▁verslagen	-5951
▁activiteiten	-5952
▁duw	-5953
▁volt	-5954
▁afscheid	-5955
gier	-5956
▁Holly	-5957
▁overzicht	-5958
▁Slecht	-5959
▁oudste	-5960
▁winnaar	-5961
▁are	-5962
oude	-5963
▁afgele	-5964
▁arrest	-5965
Be	-5966
▁spannend	-5967
wekkend	-5968
▁Disney	-5969
zal	-5970
indingen	-5971
▁(13	-5972
Amerika	-5973
▁Jean	-5974
wijd	-5975
▁2015	-5976
▁HE	-5977
▁afsch	-5978
▁gepakt	-5979
▁vre	-5980
▁opeten	-5981
undige	-5982
xt	-5983
▁asp	-5984
▁ruikt	-5985
onderden	-5986
▁elektriciteit	-5987
▁prakt	-5988
ical	-5989
ijns	-5990
zers	-5991
▁samenv	-5992
▁voedings	-5993
▁vloe	-5994
▁ontsp	-5995
▁Hopelijk	-5996
▁hoofdstuk	-5997
▁groeit	-5998
cher	-5999
ör	-6000
▁disc	-6001
▁verf	-6002
rust	-6003
▁paniek	-6004
▁32	-6005
▁mel	-6006
schat	-6007
▁..."	-6008
▁eigenaar	-6009
▁oefeningen	-6010
▁knul	-6011
▁contract	-6012
▁perfecte	-6013
urf	-6014
andy	-6015
besch	-6016
▁zodra	-6017
▁Haag	-6018
▁sterft	-6019
▁wassen	-6020
▁36	-6021
▁wraak	-6022
wedstrijd	-6023
▁aangeven	-6024
▁vertegen	-6025
verg	-6026
▁veranderde	-6027
▁kilo	-6028
▁digit	-6029
▁la	-6030
▁sj	-6031
▁enig	-6032
▁verhuis	-6033
iam	-6034
zinnig	-6035
15	-6036
▁toep	-6037
42	-6038
▁Ham	-6039
▁raak	-6040
▁gezocht	-6041
▁beoordelen	-6042
broek	-6043
▁ophouden	-6044
▁besm	-6045
▁ijzer	-6046
▁Eens	-6047
▁Hend	-6048
▁Univers	-6049
▁kritiek	-6050
▁harder	-6051
▁liegen	-6052
▁plastic	-6053
▁menselijke	-6054
99	-6055
ias	-6056
▁gezeten	-6057
▁werkwoorden	-6058
iano	-6059
ctief	-6060
tentie	-6061
▁internationale	-6062
▁stukjes	-6063
▁2019	-6064
▁Video	-6065
▁mogelijkheden	-6066
oph	-6067
▁blind	-6068
▁Californ	-6069
▁das	-6070
ukkel	-6071
ressie	-6072
▁ontwerp	-6073
▁How	-6074
▁Just	-6075
▁geopend	-6076
▁kaartje	-6077
▁plaatjes	-6078
75	-6079
!'"	-6080
uldig	-6081
waart	-6082
▁rem	-6083
▁Zwits	-6084
▁Partij	-6085
inet	-6086
▁verwachten	-6087
▁Fant	-6088
▁klote	-6089
▁argumenten	-6090
ioneel	-6091
▁mochten	-6092
▁Loop	-6093
▁vies	-6094
▁dichterbij	-6095
omdat	-6096
▁jagen	-6097
▁resultaten	-6098
ye	-6099
▁kogel	-6100
▁geë	-6101
▁duurde	-6102
▁For	-6103
▁hy	-6104
▁Eet	-6105
▁Volgende	-6106
▁Str	-6107
▁sat	-6108
▁karakt	-6109
▁studie	-6110
▁experiment	-6111
blik	-6112
▁getal	-6113
▁roken	-6114
▁professor	-6115
▁Generaal	-6116
uzzel	-6117
▁volledige	-6118
ziet	-6119
▁\	-6120
esseerd	-6121
▁nicht	-6122
▁makkelijker	-6123
▁Air	-6124
gin	-6125
lega	-6126
BO	-6127
▁imm	-6128
----	-6129
▁Weten	-6130
TV	-6131
ector	-6132
iller	-6133
uters	-6134
▁duivel	-6135
▁schatt	-6136
▁zwembad	-6137
▁Jeugdjournaal	-6138
bli	-6139
▁sigar	-6140
▁geleid	-6141
▁romant	-6142
▁mogelijke	-6143
iere	-6144
older	-6145
aarden	-6146
rap	-6147
▁brieven	-6148
regels	-6149
dad	-6150
hij	-6151
▁2017	-6152
boot	-6153
▁juffrouw	-6154
▁Kop	-6155
▁voorwerp	-6156
ning	-6157
ions	-6158
▁Griekse	-6159
osc	-6160
ares	-6161
▁excuses	-6162
▁Pan	-6163
▁Vuur	-6164
▁overtuig	-6165
Dit	-6166
▁jar	-6167
svorm	-6168
▁Francis	-6169
▁vie	-6170
▁gekl	-6171
▁spul	-6172
▁warmte	-6173
▁Napole	-6174
▁site	-6175
▁bewer	-6176
▁Comp	-6177
▁behoe	-6178
▁robot	-6179
▁wr	-6180
▁gij	-6181
LE	-6182
▁As	-6183
▁Mir	-6184
▁King	-6185
▁naged	-6186
▁toevallig	-6187
elligen	-6188
▁Pat	-6189
zettend	-6190
▁Tegenwoordig	-6191
▁Gl	-6192
▁gedachte	-6193
IJN	-6194
vingen	-6195
▁Rond	-6196
rechten	-6197
mon	-6198
▁bond	-6199
▁boel	-6200
▁lunch	-6201
▁gezondheid	-6202
▁Du	-6203
stikke	-6204
▁oplossen	-6205
▁opst	-6206
▁Anton	-6207
ory	-6208
▁dierentuin	-6209
ates	-6210
boel	-6211
▁rac	-6212
lingen	-6213
▁geweer	-6214
▁prijzen	-6215
▁uitvoeren	-6216
groeid	-6217
▁(""	-6218
▁Haw	-6219
▁boter	-6220
▁cadeau	-6221
jon	-6222
▁Nat	-6223
uderen	-6224
▁heilige	-6225
▁omstandigheden	-6226
▁Roos	-6227
▁theater	-6228
▁beïn	-6229
▁gebaseerd	-6230
90	-6231
▁gekke	-6232
▁bezoeken	-6233
▁waarvoor	-6234
▁6.	-6235
▁Zeven	-6236
▁leefde	-6237
▁leerde	-6238
umm	-6239
▁Kw	-6240
▁150	-6241
▁kopie	-6242
▁beslissen	-6243
loze	-6244
▁zocht	-6245
ex	-6246
▁Steve	-6247
ove	-6248
ura	-6249
▁Chris	-6250
▁bijeen	-6251
▁WE	-6252
▁Geschiedenis	-6253
,0	-6254
▁schud	-6255
▁revolutie	-6256
▁eeuwig	-6257
▁maandag	-6258
inda	-6259
▁all	-6260
▁ast	-6261
SISTER	-6262
atus	-6263
▁DNA	-6264
▁Zei	-6265
▁Stad	-6266
▁Witte	-6267
▁vervoer	-6268
▁voordeel	-6269
▁koolstof	-6270
▁vijanden	-6271
▁speelgoed	-6272
ierd	-6273
▁Vor	-6274
▁rent	-6275
genten	-6276
▁grot	-6277
▁aantrek	-6278
▁ill	-6279
ament	-6280
▁Frie	-6281
▁Egypte	-6282
▁toilet	-6283
▁eend	-6284
▁erom	-6285
▁[	-6286
opter	-6287
aarten	-6288
▁geweten	-6289
sbe	-6290
▁kok	-6291
xide	-6292
▁eeuwen	-6293
..."	-6294
▁Ven	-6295
▁nauw	-6296
▁Nieuwe	-6297
▁botten	-6298
-0	-6299
Daar	-6300
▁militaire	-6301
▁Rog	-6302
▁filos	-6303
▁Pracht	-6304
▁kathol	-6305
▁eindopdracht	-6306
▁wolf	-6307
ally	-6308
▁2018	-6309
▁meet	-6310
▁gerust	-6311
▁kist	-6312
winkel	-6313
▁liefst	-6314
▁Park	-6315
▁minimaal	-6316
gevoegd	-6317
oeders	-6318
ero	-6319
steken	-6320
▁poster	-6321
▁lager	-6322
▁regelmatig	-6323
▁eenzaam	-6324
hoop	-6325
elletjes	-6326
▁bevestig	-6327
▁Olympische	-6328
▁Sant	-6329
▁koopt	-6330
doek	-6331
▁git	-6332
▁toegang	-6333
urr	-6334
▁nag	-6335
▁vrucht	-6336
▁operatie	-6337
unnel	-6338
▁achteruit	-6339
▁gede	-6340
ational	-6341
▁genieten	-6342
▁homo	-6343
▁cirkel	-6344
vriend	-6345
▁wan	-6346
genen	-6347
▁2013	-6348
▁ON	-6349
▁tellen	-6350
▁beschreven	-6351
▁wijk	-6352
41	-6353
▁muren	-6354
▁bacteriën	-6355
ute	-6356
▁paus	-6357
▁behoren	-6358
ijen	-6359
uzen	-6360
ape	-6361
▁Meest	-6362
▁leerdoelen	-6363
izza	-6364
▁gaven	-6365
▁fan	-6366
▁koude	-6367
▁verzamelen	-6368
▁Com	-6369
▁Top	-6370
ather	-6371
▁schoen	-6372
▁dorpen	-6373
▁Star	-6374
25	-6375
aarwel	-6376
▁demon	-6377
▁katten	-6378
▁wetten	-6379
▁vertrekt	-6380
▁|	-6381
▁sprong	-6382
rad	-6383
▁pauze	-6384
▁poort	-6385
▁Middel	-6386
▁bok	-6387
IA	-6388
▁rusten	-6389
▁Licht	-6390
▁compleet	-6391
▁rapport	-6392
▁collega	-6393
▁Lar	-6394
▁inf	-6395
▁Johnny	-6396
▁Kr	-6397
yr	-6398
▁Ziet	-6399
centage	-6400
ubbele	-6401
▁schaam	-6402
ford	-6403
vat	-6404
▁hot	-6405
▁prom	-6406
▁woonde	-6407
▁voornamelijk	-6408
él	-6409
▁Prins	-6410
▁slang	-6411
inger	-6412
▁luid	-6413
▁lippen	-6414
kings	-6415
▁module	-6416
▁gerecht	-6417
▁Napoleon	-6418
▁leidde	-6419
esse	-6420
load	-6421
ringen	-6422
▁dwars	-6423
▁fris	-6424
▁onderhand	-6425
51	-6426
wonden	-6427
47	-6428
▁blijk	-6429
▁gevolgd	-6430
▁carrière	-6431
hof	-6432
▁daarop	-6433
▁beschad	-6434
▁tekeningen	-6435
▁elektrische	-6436
▁getallen	-6437
maak	-6438
▁Mont	-6439
▁verbeter	-6440
▁hop	-6441
▁taxi	-6442
▁can	-6443
▁varen	-6444
▁Rom	-6445
ografie	-6446
▁aankomen	-6447
▁2020	-6448
▁kwaliteit	-6449
haven	-6450
iteiten	-6451
▁recept	-6452
aardigheden	-6453
▁rollen	-6454
▁vaders	-6455
▁donkere	-6456
▁stuurde	-6457
▁Australië	-6458
▁geel	-6459
▁papieren	-6460
klaas	-6461
othe	-6462
zine	-6463
▁reed	-6464
▁stuurt	-6465
zorg	-6466
▁Noteer	-6467
▁medel	-6468
▁merken	-6469
▁uitgez	-6470
▁wensen	-6471
▁stroomt	-6472
▁Verenigd	-6473
▁bon	-6474
▁rende	-6475
▁apparaat	-6476
tus	-6477
oming	-6478
▁origin	-6479
tallen	-6480
▁voornaam	-6481
ya	-6482
vormen	-6483
▁breed	-6484
▁gekeken	-6485
verse	-6486
▁drankje	-6487
▁studeren	-6488
▁lage	-6489
▁staten	-6490
ormd	-6491
zeg	-6492
▁lukken	-6493
gevonden	-6494
▁toeristen	-6495
▁kopp	-6496
▁fre	-6497
▁heten	-6498
aft	-6499
▁aanbod	-6500
ek	-6501
geschoten	-6502
Is	-6503
.00	-6504
ado	-6505
ody	-6506
▁vasthouden	-6507
▁uitn	-6508
▁Indones	-6509
▁CO	-6510
▁2009	-6511
▁snapt	-6512
westie	-6513
▁ontdekken	-6514
▁troon	-6515
▁Helaas	-6516
bra	-6517
kels	-6518
▁kol	-6519
maals	-6520
▁vlug	-6521
put	-6522
wen	-6523
vaard	-6524
volgens	-6525
▁levert	-6526
▁Hoelang	-6527
▁Arn	-6528
ouvern	-6529
▁score	-6530
▁wolken	-6531
▁spanning	-6532
▁eikel	-6533
)."	-6534
▁Canada	-6535
▁afhankelijk	-6536
haald	-6537
elheid	-6538
▁terugkomen	-6539
ulden	-6540
hous	-6541
ieur	-6542
▁ergste	-6543
interklaas	-6544
ijft	-6545
▁deuren	-6546
▁Erg	-6547
▁komst	-6548
▁2008	-6549
▁verstopt	-6550
TI	-6551
OU	-6552
arl	-6553
▁plotseling	-6554
reiden	-6555
▁ontsnapt	-6556
▁mogelijkheid	-6557
cte	-6558
merkt	-6559
▁binnenkort	-6560
▁Ram	-6561
▁geve	-6562
▁moeders	-6563
obby	-6564
▁wijst	-6565
ergeant	-6566
arrest	-6567
▁vergeven	-6568
▁bevindt	-6569
▁kg	-6570
liep	-6571
vels	-6572
▁religie	-6573
aria	-6574
orth	-6575
▁1:	-6576
ène	-6577
▁hoer	-6578
▁meegemaakt	-6579
▁din	-6580
RA	-6581
▁about	-6582
amel	-6583
▁Bre	-6584
▁Cas	-6585
▁mat	-6586
▁twijfel	-6587
ivid	-6588
▁Hans	-6589
▁diam	-6590
▁ophalen	-6591
▁verhuizen	-6592
partij	-6593
▁verpest	-6594
▁gescheiden	-6595
▁App	-6596
▁plaatsv	-6597
▁koninkrijk	-6598
RE	-6599
▁Bi	-6600
nemer	-6601
ronen	-6602
▁voorstel	-6603
deur	-6604
ialen	-6605
odewijk	-6606
geeft	-6607
▁saai	-6608
▁Graag	-6609
▁verdedigen	-6610
kten	-6611
elende	-6612
85	-6613
bur	-6614
▁boet	-6615
▁vorig	-6616
▁actief	-6617
▁terror	-6618
ges	-6619
bedrijf	-6620
clusief	-6621
▁geplaatst	-6622
spreken	-6623
Duit	-6624
▁opgave	-6625
▁werkelijk	-6626
▁down	-6627
▁Tuurlijk	-6628
waarts	-6629
▁brak	-6630
waarden	-6631
▁prett	-6632
▁schuil	-6633
▁seconde	-6634
nooi	-6635
▁Sus	-6636
▁knuff	-6637
▁2021	-6638
Sch	-6639
itz	-6640
▁vóór	-6641
▁Griekenland	-6642
▁bede	-6643
KEN	-6644
wijf	-6645
▁rat	-6646
▁opleiding	-6647
yle	-6648
incip	-6649
tro	-6650
▁KB	-6651
▁geit	-6652
▁opzij	-6653
▁Bobby	-6654
isje	-6655
▁Bat	-6656
gestelde	-6657
43	-6658
una	-6659
OS	-6660
▁kroon	-6661
16	-6662
▁Zes	-6663
genodigd	-6664
Br	-6665
gebieden	-6666
▁industrie	-6667
▁overwinning	-6668
▁Eliz	-6669
▁omschrijven	-6670
▁tegenhouden	-6671
▁zonn	-6672
▁arbeiders	-6673
▁Oude	-6674
▁stal	-6675
▁uitgevoerd	-6676
elschap	-6677
buiten	-6678
▁insecten	-6679
▁onderwerpen	-6680
4.	-6681
▁bevr	-6682
▁gedoe	-6683
▁gesteld	-6684
▁CD	-6685
▁mannetje	-6686
▁dienen	-6687
▁Jam	-6688
▁Sur	-6689
▁koeien	-6690
▁lelijk	-6691
▁Lodewijk	-6692
atius	-6693
▁natuurlijke	-6694
▁brandweer	-6695
▁2005	-6696
getrokken	-6697
▁geloofde	-6698
ofte	-6699
▁Tele	-6700
▁VOOR	-6701
▁ellen	-6702
▁social	-6703
An	-6704
▁Viet	-6705
ID	-6706
▁kindje	-6707
▁sporen	-6708
▁joch	-6709
▁afmaken	-6710
▁ondersche	-6711
▁Ac	-6712
▁Sk	-6713
▁aangevallen	-6714
achel	-6715
▁godsnaam	-6716
▁doorheen	-6717
▁vliegtuigen	-6718
raft	-6719
kosten	-6720
▁graven	-6721
▁ontzettend	-6722
▁All	-6723
zoals	-6724
▁Meestal	-6725
▁Kevin	-6726
▁liegt	-6727
▁groepje	-6728
uch	-6729
▁um	-6730
▁miss	-6731
▁Maarten	-6732
▁Nicol	-6733
▁troep	-6734
▁gericht	-6735
▁sleutels	-6736
brand	-6737
▁opmer	-6738
▁neuken	-6739
▁vanzelf	-6740
avel	-6741
▁genezen	-6742
▁moordenaar	-6743
ction	-6744
▁Dave	-6745
▁bewon	-6746
▁kippen	-6747
ners	-6748
veus	-6749
▁beker	-6750
▁helder	-6751
▁NIET	-6752
▁Groep	-6753
▁helaas	-6754
▁ton	-6755
lucht	-6756
▁spion	-6757
▁vide	-6758
▁helik	-6759
▁podium	-6760
ateriaal	-6761
▁informatiebron	-6762
asker	-6763
▁geïnteresseerd	-6764
▁Eddie	-6765
▁behaald	-6766
▁nagedacht	-6767
gever	-6768
vester	-6769
▁kanker	-6770
▁with	-6771
▁veert	-6772
▁bol	-6773
▁moeilijke	-6774
▁uitgenodigd	-6775
ruimen	-6776
▁Joden	-6777
▁passag	-6778
▁brandstof	-6779
inklijke	-6780
oul	-6781
▁zaal	-6782
▁schaduw	-6783
▁geslapen	-6784
▁Bovendien	-6785
▁personeel	-6786
▁naakt	-6787
▁gepraat	-6788
▁nep	-6789
▁meld	-6790
▁menselijk	-6791
▁vervelend	-6792
kru	-6793
etitie	-6794
▁blanke	-6795
▁public	-6796
▁verliest	-6797
rey	-6798
want	-6799
▁Caes	-6800
▁goederen	-6801
oni	-6802
▁keel	-6803
▁ingewik	-6804
▁verbaasd	-6805
▁werkelijkheid	-6806
▁Rennen	-6807
▁platen	-6808
▁Turkije	-6809
ouverneur	-6810
▁onderzocht	-6811
▁Tomm	-6812
▁tips	-6813
Nou	-6814
mans	-6815
istisch	-6816
ville	-6817
▁Scott	-6818
blijven	-6819
▁spelletje	-6820
▁up	-6821
▁worst	-6822
irk	-6823
▁term	-6824
▁Alice	-6825
▁Art	-6826
rongen	-6827
beren	-6828
▁afst	-6829
uzik	-6830
▁liepen	-6831
▁supermarkt	-6832
▁middelbare	-6833
▁Soc	-6834
steld	-6835
boy	-6836
▁Gron	-6837
▁Stan	-6838
▁Kerstmis	-6839
▁Down	-6840
dier	-6841
ente	-6842
rans	-6843
woordt	-6844
▁boekje	-6845
zy	-6846
▁pijl	-6847
asten	-6848
▁Lim	-6849
▁scherm	-6850
▁premier	-6851
▁7.	-6852
ienden	-6853
▁mode	-6854
▁volks	-6855
▁gewend	-6856
▁stopte	-6857
▁goedkop	-6858
oper	-6859
▁Heilige	-6860
ound	-6861
▁vanmorgen	-6862
▁400	-6863
▁toneelstuk	-6864
▁bladeren	-6865
▁ing	-6866
▁caf	-6867
schreven	-6868
▁vernietigd	-6869
▁fragment	-6870
▁voorst	-6871
▁fort	-6872
▁lood	-6873
▁kaartjes	-6874
▁liedjes	-6875
▁nationale	-6876
96	-6877
▁Cub	-6878
lies	-6879
▁draai	-6880
▁koers	-6881
ison	-6882
▁Rijn	-6883
▁Jones	-6884
▁2:	-6885
▁leveren	-6886
▁vleugels	-6887
▁officiële	-6888
joor	-6889
▁Ra	-6890
▁clo	-6891
▁zijde	-6892
▁overkomen	-6893
erden	-6894
maker	-6895
uiven	-6896
▁Deel	-6897
eleid	-6898
▁stelde	-6899
▁Draai	-6900
▁Leon	-6901
▁behoort	-6902
▁2006	-6903
hond	-6904
▁Speel	-6905
▁schouder	-6906
▁verborgen	-6907
▁behandeld	-6908
comp	-6909
▁eisen	-6910
▁conclusie	-6911
▁Co	-6912
iro	-6913
▁nest	-6914
▁Moeten	-6915
▁Spreek	-6916
▁arbeids	-6917
▁Marc	-6918
▁Fel	-6919
▁streek	-6920
▁gelaten	-6921
▁gezelschap	-6922
stijd	-6923
▁voorlop	-6924
cho	-6925
▁syn	-6926
▁gezellig	-6927
▁mol	-6928
▁klus	-6929
▁stak	-6930
▁begrafen	-6931
▁Majesteit	-6932
lied	-6933
▁Paulus	-6934
schrijven	-6935
▁karakter	-6936
▁Kate	-6937
▁benzine	-6938
▁spelers	-6939
▁Ri	-6940
▁archite	-6941
▁overleed	-6942
ijnse	-6943
voet	-6944
▁inmiddels	-6945
ilj	-6946
▁ir	-6947
vast	-6948
▁minist	-6949
▁vreselijke	-6950
▁lieten	-6951
▁oudere	-6952
rig	-6953
Waarom	-6954
▁grenzen	-6955
▁klant	-6956
▁bidden	-6957
▁democratie	-6958
▁mak	-6959
reren	-6960
▁Hendrik	-6961
▁voorbereid	-6962
uchten	-6963
▁wc	-6964
▁Lord	-6965
▁sprook	-6966
▁acc	-6967
etsen	-6968
▁enthous	-6969
eeland	-6970
▁Reken	-6971
▁bladzijde	-6972
▁XV	-6973
oeit	-6974
▁verdiend	-6975
▁schreeuwen	-6976
▁Adri	-6977
▁vergadering	-6978
agn	-6979
isse	-6980
▁opzoeken	-6981
▁feiten	-6982
stoel	-6983
schil	-6984
sterie	-6985
▁bibli	-6986
▁Iedere	-6987
keld	-6988
▁Gods	-6989
▁gift	-6990
▁eindigt	-6991
kson	-6992
▁hof	-6993
amilie	-6994
▁Walter	-6995
▁agenten	-6996
▁gestoord	-6997
▁Leven	-6998
pool	-6999
ites	-7000
▁droeg	-7001
▁discussie	-7002
▁vliegveld	-7003
lands	-7004
▁Kolon	-7005
gebroken	-7006
adel	-7007
okt	-7008
soort	-7009
handel	-7010
▁machines	-7011
!""	-7012
mel	-7013
orte	-7014
row	-7015
▁telkens	-7016
▁pond	-7017
igingen	-7018
▁hondje	-7019
▁record	-7020
gerust	-7021
▁fluister	-7022
▁jaarlijk	-7023
▁prie	-7024
▁serv	-7025
▁vrijwill	-7026
isie	-7027
▁Angel	-7028
▁blijkbaar	-7029
pa	-7030
athan	-7031
▁nieuwsgier	-7032
uige	-7033
▁honderden	-7034
neemt	-7035
insdag	-7036
▁Hierbij	-7037
president	-7038
istan	-7039
▁artie	-7040
bon	-7041
▁toel	-7042
riv	-7043
▁Li	-7044
▁Tenzij	-7045
▁kanten	-7046
▁patiënt	-7047
▁sexy	-7048
iels	-7049
breken	-7050
▁lossen	-7051
sa	-7052
hang	-7053
wicht	-7054
▁Gemeen	-7055
▁oceaan	-7056
▁dankbaar	-7057
▁verwoest	-7058
▁Hann	-7059
▁Schot	-7060
▁draad	-7061
jam	-7062
▁ople	-7063
▁vuilnis	-7064
une	-7065
▁leeuw	-7066
▁scherp	-7067
▁intelligen	-7068
▁hok	-7069
▁lagen	-7070
AV	-7071
▁horlo	-7072
▁maatregelen	-7073
▁herinneringen	-7074
▁Provin	-7075
▁Zweden	-7076
draaien	-7077
▁Sinterklaas	-7078
illy	-7079
▁spre	-7080
gewoon	-7081
▁opvol	-7082
Zo	-7083
houder	-7084
▁Beste	-7085
stekend	-7086
▁piloot	-7087
▁beweegt	-7088
▁2007	-7089
▁Serv	-7090
▁Russen	-7091
-7	-7092
blemen	-7093
abe	-7094
rid	-7095
gesp	-7096
▁slachtoffers	-7097
▁cou	-7098
▁bewonder	-7099
On	-7100
▁Ooit	-7101
▁Zwarte	-7102
omb	-7103
▁bestand	-7104
▁eenheid	-7105
malige	-7106
▁2004	-7107
▁achtervol	-7108
▁broeder	-7109
▁Pla	-7110
▁hut	-7111
▁Trouwens	-7112
▁genoegen	-7113
▁Ann	-7114
▁Caesar	-7115
▁cit	-7116
▁reet	-7117
ants	-7118
▁Jerry	-7119
▁Sluit	-7120
asse	-7121
▁merk	-7122
▁nerveus	-7123
▁⠙	-7124
▁laf	-7125
▁Ru	-7126
▁kleed	-7127
cont	-7128
▁nut	-7129
hebben	-7130
▁bevatten	-7131
▁Chic	-7132
▁ag	-7133
1.	-7134
▁00	-7135
rief	-7136
▁shit	-7137
▁stevig	-7138
▁confl	-7139
▁Onderdeel	-7140
▁steekt	-7141
aartje	-7142
▁fijne	-7143
rix	-7144
▁olifant	-7145
▁uitspraken	-7146
▁Rut	-7147
▁Tit	-7148
drukken	-7149
▁tijdschrift	-7150
▁Ap	-7151
▁afloop	-7152
▁bleven	-7153
▁Wordt	-7154
▁spieren	-7155
▁terrein	-7156
▁sol	-7157
genda	-7158
▁toven	-7159
▁heleboel	-7160
▁arts	-7161
▁dipl	-7162
vlees	-7163
▁lege	-7164
▁dubbel	-7165
▁individ	-7166
▁Aut	-7167
▁Lisa	-7168
▁voorzitter	-7169
▁tak	-7170
▁Flor	-7171
▁Mannen	-7172
▁Sommigen	-7173
▁Kerk	-7174
▁Brad	-7175
▁graaf	-7176
▁Dor	-7177
▁pensioen	-7178
▁testen	-7179
▁bewaren	-7180
ijgen	-7181
66	-7182
VER	-7183
▁domme	-7184
▁toegevoegd	-7185
▁Son	-7186
▁werking	-7187
▁achtergrond	-7188
▁eigenschappen	-7189
▁But	-7190
▁Stephanus	-7191
neden	-7192
▁Nina	-7193
▁varkens	-7194
▁ontwikkeld	-7195
eegd	-7196
▁raket	-7197
oensdag	-7198
▁Prachtig	-7199
lam	-7200
stok	-7201
fab	-7202
assa	-7203
macht	-7204
▁crisis	-7205
▁camp	-7206
▁verdrietig	-7207
▁slechter	-7208
▁bekendste	-7209
▁heus	-7210
▁Beter	-7211
▁Georg	-7212
▁aankl	-7213
▁hogere	-7214
▁samenwerking	-7215
▁Urb	-7216
▁Kruis	-7217
OC	-7218
verm	-7219
vering	-7220
▁onderzoekers	-7221
▁gehele	-7222
▁onthouden	-7223
▁akkoord	-7224
▁coach	-7225
▁Lieverd	-7226
▁bescherming	-7227
▁Eth	-7228
▁strak	-7229
▁Mo	-7230
▁verlaat	-7231
▁tom	-7232
▁schuur	-7233
▁Vrouwen	-7234
▁aank	-7235
richting	-7236
Kom	-7237
▁il	-7238
▁ser	-7239
outer	-7240
kiezingen	-7241
▁neerslag	-7242
ete	-7243
▁8.	-7244
▁Tor	-7245
▁Freder	-7246
gehouden	-7247
▁bewoners	-7248
▁Bonif	-7249
▁vielen	-7250
▁concurr	-7251
arn	-7252
▁contin	-7253
▁ongelooflijk	-7254
aly	-7255
▁Lut	-7256
▁beslist	-7257
▁Herinner	-7258
▁law	-7259
▁durft	-7260
▁tranen	-7261
▁Brazilië	-7262
iool	-7263
▁werkloos	-7264
▁Mars	-7265
▁straten	-7266
▁(3	-7267
bellen	-7268
▁alarm	-7269
BROTHER	-7270
hy	-7271
▁Mus	-7272
▁Zag	-7273
▁roze	-7274
▁boodschappen	-7275
doet	-7276
▁Rem	-7277
aille	-7278
▁Daan	-7279
▁cond	-7280
▁winkels	-7281
utatie	-7282
▁begrafenis	-7283
▁samenwerken	-7284
ïs	-7285
▁dod	-7286
▁vee	-7287
▁duik	-7288
▁ruiken	-7289
▁Elizabeth	-7290
▁ontmoette	-7291
...-	-7292
keurig	-7293
schillen	-7294
▁gevormd	-7295
▁uitdruk	-7296
cer	-7297
▁behalen	-7298
▁cap	-7299
straat	-7300
▁tweel	-7301
▁liefste	-7302
▁Vergelijk	-7303
▁Jess	-7304
tekeningen	-7305
▁klasgenoten	-7306
uiz	-7307
werkers	-7308
▁mensheid	-7309
VD	-7310
▁verbeteren	-7311
▁afgesproken	-7312
▁schattig	-7313
▁training	-7314
heim	-7315
erson	-7316
▁oost	-7317
▁maatschappij	-7318
omer	-7319
▁Vlie	-7320
produc	-7321
udeerd	-7322
▁letten	-7323
▁Jose	-7324
▁Pen	-7325
oeker	-7326
▁broertje	-7327
▁Ry	-7328
▁koos	-7329
▁Tommy	-7330
▁dankzij	-7331
▁Absoluut	-7332
▁schot	-7333
▁Californië	-7334
oloog	-7335
▁Bert	-7336
▁sterf	-7337
▁Zoiets	-7338
▁verbergen	-7339
▁appartement	-7340
▁3,	-7341
binnen	-7342
▁trouwde	-7343
▁verraden	-7344
▁zelfstandig	-7345
stroom	-7346
oordeling	-7347
▁rots	-7348
assade	-7349
▁Mur	-7350
▁pizza	-7351
groepen	-7352
▁kolonel	-7353
▁symbool	-7354
▁beschikbaar	-7355
▁Raak	-7356
24	-7357
▁Pier	-7358
nu	-7359
▁Vin	-7360
▁darm	-7361
▁waan	-7362
▁Aangen	-7363
▁inspir	-7364
uip	-7365
▁Andy	-7366
▁that	-7367
▁Bonifatius	-7368
▁dep	-7369
▁glad	-7370
lief	-7371
▁proc	-7372
armen	-7373
agraaf	-7374
▁ballon	-7375
TE	-7376
▁wandelen	-7377
ocratische	-7378
schappelijke	-7379
IJK	-7380
▁filmpjes	-7381
▁Onderzoek	-7382
wongen	-7383
IC	-7384
aats	-7385
▁nak	-7386
ipper	-7387
roffen	-7388
▁uitzoeken	-7389
▁Amerikaans	-7390
▁Ho	-7391
ruimte	-7392
▁methode	-7393
▁Sw	-7394
tern	-7395
▁satell	-7396
▁Belgische	-7397
▁Step	-7398
atteland	-7399
▁draaide	-7400
▁dubbele	-7401
▁hielp	-7402
▁rente	-7403
angrijk	-7404
▁profess	-7405
▁Controle	-7406
▁aud	-7407
▁Fransen	-7408
▁hartstikke	-7409
▁BE	-7410
▁Jen	-7411
▁Tro	-7412
▁Willen	-7413
▁Cap	-7414
▁Italiaanse	-7415
▁mole	-7416
▁zwer	-7417
leider	-7418
uleren	-7419
ultuur	-7420
▁militair	-7421
▁centimeter	-7422
immer	-7423
▁virus	-7424
iders	-7425
▁uitgang	-7426
icum	-7427
▁woonden	-7428
gren	-7429
▁DAT	-7430
▁creë	-7431
▁haren	-7432
▁neder	-7433
▁verzet	-7434
▁Japanse	-7435
aving	-7436
▁zeld	-7437
gevoel	-7438
kering	-7439
▁getra	-7440
▁magie	-7441
igratie	-7442
▁omlaag	-7443
▁Marokk	-7444
▁Jackson	-7445
▁Tay	-7446
▁33	-7447
▁Han	-7448
▁Kleur	-7449
▁trans	-7450
▁dertig	-7451
▁Nederlanden	-7452
bre	-7453
wijze	-7454
▁Rick	-7455
▁aanwij	-7456
,""	-7457
▁techniek	-7458
arden	-7459
▁wedstrijden	-7460
▁gooit	-7461
▁voorstelling	-7462
▁verkoopt	-7463
▁veranderingen	-7464
win	-7465
▁Perfect	-7466
▁onafhank	-7467
IK	-7468
reerd	-7469
▁live	-7470
aringen	-7471
▁realis	-7472
▁verbinding	-7473
zend	-7474
poort	-7475
▁schouders	-7476
▁Via	-7477
▁dist	-7478
▁eindigen	-7479
ppel	-7480
▁...""	-7481
▁zons	-7482
▁kamers	-7483
▁kloppen	-7484
▁afdeling	-7485
pper	-7486
▁Zodat	-7487
ules	-7488
stuur	-7489
▁west	-7490
▁domin	-7491
ronding	-7492
pap	-7493
▁cd	-7494
▁Dam	-7495
▁derg	-7496
istent	-7497
▁Texas	-7498
▁Daarvoor	-7499
▁woning	-7500
▁verklaren	-7501
ateg	-7502
euren	-7503
klaar	-7504
▁knie	-7505
▁dringen	-7506
▁defin	-7507
Voor	-7508
▁gewe	-7509
▁houten	-7510
▁Wauw	-7511
▁bevrijd	-7512
tien	-7513
langs	-7514
▁Emma	-7515
▁Keizer	-7516
▁staats	-7517
▁Cr	-7518
▁Edward	-7519
▁Bedoel	-7520
ootje	-7521
tekening	-7522
▁lekkere	-7523
spl	-7524
▁lim	-7525
▁Vers	-7526
Europa	-7527
▁opgelost	-7528
▁Doet	-7529
▁platteland	-7530
Neder	-7531
matige	-7532
▁ruil	-7533
ims	-7534
zone	-7535
▁tunnel	-7536
▁von	-7537
▁Soph	-7538
haling	-7539
▁structuur	-7540
▁Vir	-7541
▁chauffeur	-7542
uiken	-7543
urele	-7544
▁rijst	-7545
bor	-7546
?""	-7547
▁noch	-7548
onds	-7549
▁Kent	-7550
▁fase	-7551
▁princip	-7552
▁Rode	-7553
▁Groen	-7554
geraakt	-7555
▁gewacht	-7556
gebouw	-7557
▁duister	-7558
mannen	-7559
▁klonk	-7560
▁stort	-7561
▁hoopte	-7562
▁zilver	-7563
otten	-7564
▁Street	-7565
▁Med	-7566
▁spier	-7567
▁Oekraïne	-7568
▁Klaas	-7569
▁basissch	-7570
▁gebeurtenis	-7571
ua	-7572
muziek	-7573
3-1	-7574
▁speler	-7575
oeding	-7576
▁75	-7577
▁illeg	-7578
▁spaar	-7579
▁Aard	-7580
▁concert	-7581
▁Hug	-7582
▁grondwet	-7583
▁Chin	-7584
US	-7585
▁mobiel	-7586
▁Oom	-7587
▁gitaar	-7588
▁verdieping	-7589
denkt	-7590
iëren	-7591
▁Volks	-7592
▁uitdag	-7593
acu	-7594
Mijn	-7595
▁Meen	-7596
▁gevangenen	-7597
aanval	-7598
▁flat	-7599
ür	-7600
▁jury	-7601
▁lanc	-7602
uldigd	-7603
▁kwestie	-7604
orf	-7605
zoon	-7606
▁gig	-7607
▁apart	-7608
▁metaal	-7609
▁Vertrouw	-7610
wapen	-7611
▁Lucy	-7612
▁waardel	-7613
nog	-7614
▁Potter	-7615
verdomme	-7616
▁48	-7617
▁biedt	-7618
▁Donald	-7619
▁locatie	-7620
vent	-7621
▁Bri	-7622
▁uitzonder	-7623
▁Smith	-7624
▁muzik	-7625
▁Britten	-7626
nl	-7627
▁Zolang	-7628
▁details	-7629
▁Groningen	-7630
▁vanmiddag	-7631
▁Activiteiten	-7632
▁Portug	-7633
▁beleid	-7634
▁getuige	-7635
▁levende	-7636
ioxide	-7637
▁repar	-7638
▁garage	-7639
▁mand	-7640
wegingen	-7641
feren	-7642
iksem	-7643
▁effe	-7644
▁Afrik	-7645
▁buren	-7646
▁gener	-7647
▁standaard	-7648
omd	-7649
▁avonds	-7650
▁glimla	-7651
▁Vergeef	-7652
bericht	-7653
▁Uh	-7654
▁Bang	-7655
▁arbeid	-7656
▁Jord	-7657
▁gods	-7658
▁make	-7659
▁onderd	-7660
▁munt	-7661
▁breekt	-7662
▁hoewel	-7663
GEN	-7664
rice	-7665
▁Alf	-7666
▁gedurende	-7667
▁ontbreekt	-7668
▁Atlant	-7669
▁springt	-7670
▁Dokter	-7671
activ	-7672
weten	-7673
14	-7674
▁TE	-7675
▁lijnen	-7676
▁ontworpen	-7677
▁vals	-7678
▁vuile	-7679
ds	-7680
cle	-7681
▁Bruce	-7682
▁draak	-7683
▁opgeven	-7684
▁cy	-7685
▁2002	-7686
▁Daarmee	-7687
▁gedronken	-7688
▁wezens	-7689
▁Urbanus	-7690
▁wetenschappers	-7691
dit	-7692
▁Dre	-7693
elect	-7694
▁inform	-7695
vd	-7696
▁Res	-7697
▁som	-7698
aster	-7699
oofde	-7700
taal	-7701
stenen	-7702
▁streng	-7703
ior	-7704
▁Kalm	-7705
▁huiswerk	-7706
lezen	-7707
▁lente	-7708
▁circus	-7709
ras	-7710
▁Bol	-7711
▁gal	-7712
▁knieën	-7713
▁gevaarlijke	-7714
Afrika	-7715
ikkers	-7716
▁legde	-7717
▁nader	-7718
▁schrikken	-7719
▁doss	-7720
▁Kinder	-7721
▁klimmen	-7722
▁Fro	-7723
▁Pal	-7724
▁Jood	-7725
▁taken	-7726
▁tweeën	-7727
▁uitgest	-7728
stap	-7729
▁Hon	-7730
▁Stu	-7731
▁mysterie	-7732
voeg	-7733
▁pest	-7734
▁bijen	-7735
▁ade	-7736
▁Vietnam	-7737
▁Tem	-7738
acc	-7739
▁Geeft	-7740
▁snelle	-7741
▁dagelijks	-7742
▁woede	-7743
▁Moment	-7744
▁trainen	-7745
89	-7746
IDEN	-7747
materiaal	-7748
▁sloot	-7749
▁pik	-7750
▁opstaan	-7751
▁combinatie	-7752
tens	-7753
aagde	-7754
▁vullen	-7755
▁vulkaan	-7756
▁(201	-7757
▁wiskunde	-7758
▁afgesloten	-7759
ww	-7760
▁Doc	-7761
▁(7	-7762
komstig	-7763
21	-7764
mod	-7765
zooi	-7766
ixtus	-7767
▁engel	-7768
▁zucht	-7769
ena	-7770
under	-7771
intje	-7772
▁wiel	-7773
vernij	-7774
▁Danny	-7775
▁Sil	-7776
oosten	-7777
▁batter	-7778
▁volgde	-7779
▁Gisteren	-7780
▁Ele	-7781
▁gevochten	-7782
offen	-7783
▁37	-7784
▁Vervolgens	-7785
▁Tok	-7786
▁scheiden	-7787
▁ME	-7788
▁jarig	-7789
▁zusje	-7790
field	-7791
dieren	-7792
▁horloge	-7793
▁identiteit	-7794
▁opgesloten	-7795
iekem	-7796
▁Doug	-7797
▁schimm	-7798
▁kleinere	-7799
▁To	-7800
▁slap	-7801
▁helikopter	-7802
▁persoonsvorm	-7803
▁Av	-7804
▁Marie	-7805
stige	-7806
▁Vragen	-7807
▁openbaar	-7808
iles	-7809
▁adver	-7810
▁cijfer	-7811
veling	-7812
▁leefden	-7813
▁zingt	-7814
▁technologie	-7815
laden	-7816
stemd	-7817
▁krab	-7818
▁samenvatting	-7819
▁Stef	-7820
▁vlinder	-7821
zels	-7822
ördin	-7823
▁puzzel	-7824
odigdheden	-7825
▁transport	-7826
▁opgewonden	-7827
horen	-7828
▁glazen	-7829
▁volwassenen	-7830
back	-7831
▁nutt	-7832
▁drinkt	-7833
▁Sara	-7834
▁dapper	-7835
▁Arm	-7836
persoon	-7837
▁long	-7838
▁hierin	-7839
stra	-7840
▁stab	-7841
▁piano	-7842
▁banden	-7843
▁én	-7844
urken	-7845
ertijd	-7846
▁badkamer	-7847
▁reageert	-7848
▁knoop	-7849
BI	-7850
imale	-7851
▁vijftig	-7852
▁behandelen	-7853
▁vrees	-7854
▁stijgt	-7855
▁avontuur	-7856
▁WK	-7857
oedig	-7858
▁Steven	-7859
▁verzoek	-7860
▁ein	-7861
▁tap	-7862
▁aandelen	-7863
▁hielden	-7864
▁42	-7865
▁Tre	-7866
▁sheriff	-7867
jo	-7868
astische	-7869
kige	-7870
▁Suz	-7871
ouders	-7872
▁vijft	-7873
▁eventueel	-7874
▁Far	-7875
▁vloog	-7876
▁Professor	-7877
▁opschieten	-7878
zamer	-7879
▁Ongelooflijk	-7880
Hol	-7881
▁have	-7882
▁Achteruit	-7883
▁interesse	-7884
▁She	-7885
▁ijsje	-7886
schuwen	-7887
▁Kolonel	-7888
arresteerd	-7889
▁echtgenoot	-7890
▁Ty	-7891
▁maatje	-7892
eeën	-7893
▁Brown	-7894
▁modder	-7895
team	-7896
ietje	-7897
▁Hill	-7898
▁overstr	-7899
▁belangrijker	-7900
spre	-7901
▁Ond	-7902
ysteem	-7903
kunst	-7904
▁behandeling	-7905
▁vriendschap	-7906
▁Ang	-7907
▁McC	-7908
▁daad	-7909
ble	-7910
▁rock	-7911
▁armoede	-7912
▁Waarvoor	-7913
dragen	-7914
ofelijk	-7915
▁Informatie	-7916
▁slaapkamer	-7917
bi	-7918
▁SP	-7919
▁aangeb	-7920
17	-7921
▁bestuderen	-7922
kes	-7923
▁2022	-7924
▁opgeg	-7925
▁Dieren	-7926
▁regent	-7927
▁Ott	-7928
▁verstoppen	-7929
mes	-7930
▁ham	-7931
▁Azië	-7932
OP	-7933
▁moer	-7934
▁Charl	-7935
▁bedrie	-7936
▁wijzen	-7937
▁vloeistof	-7938
▁Thijs	-7939
▁briefje	-7940
haar	-7941
▁Bern	-7942
ume	-7943
▁verhaaltje	-7944
▁jee	-7945
▁Sche	-7946
▁genade	-7947
▁verzorg	-7948
▁Aarde	-7949
▁ridder	-7950
▁Aangenaam	-7951
olk	-7952
▁Klinkt	-7953
▁ketting	-7954
19	-7955
elp	-7956
belen	-7957
▁plicht	-7958
▁opgepakt	-7959
▁verontschuld	-7960
▁Verdorie	-7961
▁middelen	-7962
▁omgaan	-7963
▁Oma	-7964
spelen	-7965
▁voorkomt	-7966
▁vrachtwagen	-7967
▁gearresteerd	-7968
▁Eric	-7969
▁Fort	-7970
▁sociaal	-7971
▁9.	-7972
▁Lady	-7973
▁Part	-7974
▁cadeaut	-7975
▁rondje	-7976
▁groeide	-7977
▁landschap	-7978
▁onafhankelijk	-7979
Ch	-7980
krant	-7981
▁Patr	-7982
▁proeven	-7983
▁aspecten	-7984
▁Overal	-7985
krij	-7986
▁apen	-7987
undigen	-7988
kampioen	-7989
isc	-7990
▁vandoor	-7991
▁getuigen	-7992
beid	-7993
kking	-7994
▁Sol	-7995
▁Oefen	-7996
▁chocolade	-7997
hout	-7998
imum	-7999
▁verkn	-8000
▁bereik	-8001
▁ontwikkelen	-8002
ji	-8003
iti	-8004
par	-8005
opte	-8006
▁Wood	-8007
▁Nicolaas	-8008
geen	-8009
uum	-8010
week	-8011
oorts	-8012
▁kerels	-8013
vissen	-8014
▁schitt	-8015
wil	-8016
eurs	-8017
vaar	-8018
reedt	-8019
▁Taylor	-8020
▁functies	-8021
▁geliefde	-8022
▁gouverneur	-8023
OT	-8024
orea	-8025
▁Mat	-8026
▁ang	-8027
▁Zwitserland	-8028
gy	-8029
▁medelijden	-8030
▁Vlaam	-8031
honderd	-8032
▁teleurgesteld	-8033
▁digitale	-8034
▁nachtmer	-8035
▁aanbieden	-8036
oke	-8037
foto	-8038
▁gelegd	-8039
▁bibliotheek	-8040
▁slachtoffer	-8041
▁Des	-8042
aatsen	-8043
ikelen	-8044
▁Ye	-8045
omingen	-8046
UW	-8047
▁Cong	-8048
▁Beschrijf	-8049
▁Log	-8050
terne	-8051
▁Marcus	-8052
▁waaruit	-8053
▁flauw	-8054
▁Chicago	-8055
▁Reg	-8056
▁inh	-8057
▁nab	-8058
▁fans	-8059
▁schem	-8060
▁rechtbank	-8061
▁waarschuwen	-8062
▁Serie	-8063
geheten	-8064
▁tekort	-8065
▁aangenomen	-8066
mbo	-8067
bord	-8068
▁2003	-8069
▁zeep	-8070
▁zielig	-8071
▁lesuren	-8072
▁werknemers	-8073
ns	-8074
▁OK	-8075
▁haak	-8076
landen	-8077
▁ingang	-8078
ikkel	-8079
▁Kenn	-8080
▁puin	-8081
▁raden	-8082
verhaal	-8083
▁concentratie	-8084
idge	-8085
oscoop	-8086
gedrukt	-8087
▁verdwijnt	-8088
▁uitzending	-8089
▁ko	-8090
schot	-8091
▁viss	-8092
▁starten	-8093
▁evenwicht	-8094
▁q	-8095
etty	-8096
▁Dick	-8097
▁jouwe	-8098
▁Lux	-8099
▁Acht	-8100
▁Kelly	-8101
▁herstellen	-8102
▁tie	-8103
▁Helen	-8104
▁trappen	-8105
▁redelijk	-8106
speler	-8107
▁afspraken	-8108
▁bezoekers	-8109
▁computers	-8110
IED	-8111
tent	-8112
atoren	-8113
kundige	-8114
▁Fantastisch	-8115
▁betrouw	-8116
▁gelogen	-8117
▁cr	-8118
gra	-8119
assingen	-8120
▁buitenlandse	-8121
akte	-8122
▁houding	-8123
▁Ath	-8124
▁Mosk	-8125
▁Green	-8126
▁ontvoer	-8127
▁opzichte	-8128
▁"*	-8129
▁Dacht	-8130
ula	-8131
▁poot	-8132
▁2001	-8133
▁Afronding	-8134
▁achtergelaten	-8135
rict	-8136
iaans	-8137
sterse	-8138
▁Drink	-8139
▁huisje	-8140
▁knappe	-8141
▁passagiers	-8142
5-	-8143
Ver	-8144
▁Moe	-8145
▁richten	-8146
▁vriendinnen	-8147
▁zogeheten	-8148
▁emmer	-8149
▁fabrieken	-8150
rabant	-8151
▁Prinses	-8152
▁ontslag	-8153
edy	-8154
▁Pale	-8155
▁zojuist	-8156
▁verwijderd	-8157
▁veroorzaken	-8158
gemene	-8159
schoenen	-8160
▁kandidaat	-8161
36	-8162
ijker	-8163
▁keken	-8164
▁begreep	-8165
▁Dankzij	-8166
▁drukken	-8167
▁logisch	-8168
▁schilderijen	-8169
▁out	-8170
▁namens	-8171
▁aanraken	-8172
▁voorwerpen	-8173
▁Mot	-8174
▁heuvel	-8175
▁sukkel	-8176
maatschappij	-8177
72	-8178
ingo	-8179
▁boog	-8180
boord	-8181
▁helden	-8182
Le	-8183
▁kelder	-8184
▁hierover	-8185
▁verre	-8186
geval	-8187
▁legende	-8188
keert	-8189
▁astron	-8190
▁Vaarwel	-8191
▁luitenant	-8192
▁www	-8193
▁longen	-8194
▁aannemen	-8195
stellingen	-8196
▁kunstenaar	-8197
oint	-8198
genaamde	-8199
akes	-8200
ün	-8201
▁Extra	-8202
▁verzinnen	-8203
▁christen	-8204
▁verhouding	-8205
▁name	-8206
pan	-8207
cijf	-8208
▁Opa	-8209
▁gekend	-8210
duceerd	-8211
▁tank	-8212
▁grootte	-8213
oring	-8214
▁Ka	-8215
streeks	-8216
▁tijger	-8217
▁vertrok	-8218
▁uitzien	-8219
pas	-8220
brug	-8221
▁Rod	-8222
▁10.000	-8223
▁lokale	-8224
▁ambassade	-8225
▁Wit	-8226
▁Daniel	-8227
▁adel	-8228
▁onschuldig	-8229
slotte	-8230
▁bevalt	-8231
verzeker	-8232
▁hemels	-8233
▁stemm	-8234
festival	-8235
▁attractie	-8236
▁aangekomen	-8237
▁zogenaamde	-8238
▁aanwezigheid	-8239
ittle	-8240
▁spelletjes	-8241
▁binnenkomen	-8242
aval	-8243
ito	-8244
▁wedden	-8245
▁aantrekkelijk	-8246
▁Kees	-8247
▁filosof	-8248
▁hang	-8249
▁terugkomt	-8250
duizend	-8251
▁groeten	-8252
▁woensdag	-8253
ugde	-8254
straf	-8255
▁Vast	-8256
roepen	-8257
▁belast	-8258
verander	-8259
▁Ierland	-8260
▁naamwoord	-8261
▁del	-8262
▁appl	-8263
ivisie	-8264
▁Slaap	-8265
▁autor	-8266
▁misdaad	-8267
▁opening	-8268
▁commandant	-8269
uy	-8270
▁hals	-8271
omming	-8272
dioxide	-8273
ili	-8274
▁aandeel	-8275
▁kabinet	-8276
▁benoemen	-8277
woud	-8278
▁bruin	-8279
▁centrale	-8280
appar	-8281
▁honk	-8282
illing	-8283
▁afkomstig	-8284
▁bevrijden	-8285
▁180	-8286
▁Film	-8287
▁stadion	-8288
isatie	-8289
▁Indonesië	-8290
▁geschoten	-8291
▁CIA	-8292
▁reus	-8293
utie	-8294
▁Stud	-8295
▁enzo	-8296
iast	-8297
▁Chr	-8298
▁gaaf	-8299
▁dinsdag	-8300
▁douche	-8301
▁oranje	-8302
▁verstaan	-8303
oodt	-8304
stemen	-8305
Niet	-8306
▁bende	-8307
omenten	-8308
mos	-8309
▁ist	-8310
▁streep	-8311
▁stiekem	-8312
ificatie	-8313
▁38	-8314
▁Gouden	-8315
▁berichten	-8316
▁produceren	-8317
▁voetballen	-8318
boog	-8319
▁organen	-8320
▁Koningin	-8321
▁beschermd	-8322
ila	-8323
hi	-8324
ript	-8325
▁tover	-8326
roe	-8327
▁Bram	-8328
▁poep	-8329
▁vieze	-8330
▁poging	-8331
▁Ongeveer	-8332
been	-8333
▁spl	-8334
▁leuker	-8335
▁vijfde	-8336
▁betekende	-8337
jax	-8338
▁pret	-8339
44	-8340
▁Baby	-8341
▁chef	-8342
▁Const	-8343
soorten	-8344
▁hierboven	-8345
deerd	-8346
▁kocht	-8347
▁diverse	-8348
vige	-8349
▁zonde	-8350
▁slavernij	-8351
95	-8352
pop	-8353
▁cha	-8354
▁ernaar	-8355
▁platte	-8356
▁toeval	-8357
▁Voorbeeld	-8358
bas	-8359
jij	-8360
▁Bud	-8361
jaarden	-8362
ypen	-8363
▁Cont	-8364
planten	-8365
▁tweeling	-8366
▁bemanning	-8367
▁Rec	-8368
iraal	-8369
▁Intern	-8370
▁ademen	-8371
▁verwijzen	-8372
▁LA	-8373
▁Cra	-8374
▁Jesse	-8375
▁bruid	-8376
▁schapen	-8377
▁gelegen	-8378
▁volgend	-8379
VEN	-8380
▁10.	-8381
ublike	-8382
▁Filips	-8383
▁ondanks	-8384
▁Beoordeling	-8385
▁250	-8386
▁Geld	-8387
▁verderop	-8388
umpt	-8389
▁Beide	-8390
▁versn	-8391
▁Politie	-8392
▁donderdag	-8393
GR	-8394
ski	-8395
▁Ash	-8396
▁Sat	-8397
aya	-8398
▁kalk	-8399
▁vrouwelijke	-8400
23	-8401
bureau	-8402
▁Lijkt	-8403
anie	-8404
▁woordenboek	-8405
opl	-8406
less	-8407
▁edel	-8408
▁aardige	-8409
▁opgaven	-8410
kon	-8411
usie	-8412
emarken	-8413
▁betrek	-8414
▁Sab	-8415
ressief	-8416
▁voortd	-8417
▁literatuur	-8418
rem	-8419
▁What	-8420
▁Holland	-8421
▁drijven	-8422
ijp	-8423
▁klasse	-8424
▁meerder	-8425
▁Eva	-8426
▁feesten	-8427
▁chec	-8428
▁positief	-8429
ao	-8430
toen	-8431
▁Ruim	-8432
▁Eerlijk	-8433
▁Fer	-8434
geteld	-8435
▁plassen	-8436
loven	-8437
▁Barb	-8438
▁shirt	-8439
TIF	-8440
iepen	-8441
▁islam	-8442
▁meten	-8443
▁bekijk	-8444
instru	-8445
neming	-8446
▁geduld	-8447
▁hertog	-8448
issingen	-8449
▁Ondanks	-8450
AVO	-8451
ois	-8452
utter	-8453
▁Rose	-8454
▁gereedschap	-8455
▁Hall	-8456
▁parkeer	-8457
▁Charlotte	-8458
▁Eh	-8459
weeg	-8460
▁redt	-8461
▁Opschieten	-8462
87	-8463
kool	-8464
rokod	-8465
▁kring	-8466
▁bommen	-8467
▁Serieus	-8468
▁generatie	-8469
▁mosl	-8470
▁stapel	-8471
ieuwd	-8472
▁tegenstander	-8473
▁bag	-8474
▁piep	-8475
uizenden	-8476
Heb	-8477
gsel	-8478
▁koekjes	-8479
▁achterlaten	-8480
▁herinnering	-8481
leid	-8482
▁Iris	-8483
▁Oceaan	-8484
bit	-8485
car	-8486
Kijk	-8487
ochters	-8488
▁zetels	-8489
▁uitgaven	-8490
▁Hy	-8491
▁Ir	-8492
▁Jaap	-8493
▁gekleur	-8494
▁opvallen	-8495
▁herinnert	-8496
Wel	-8497
paal	-8498
▁cal	-8499
▁plein	-8500
▁Moskou	-8501
▁erheen	-8502
▁waarden	-8503
▁café	-8504
ategie	-8505
▁geste	-8506
▁dinosaur	-8507
verk	-8508
▁Tar	-8509
▁pet	-8510
geles	-8511
▁Johnson	-8512
▁vit	-8513
gramm	-8514
vogel	-8515
▁Arme	-8516
27	-8517
35	-8518
ense	-8519
wan	-8520
braak	-8521
andoor	-8522
▁Marsh	-8523
▁negent	-8524
▁gym	-8525
▁Amer	-8526
▁droge	-8527
▁ontpl	-8528
hart	-8529
▁non	-8530
toets	-8531
▁Pete	-8532
▁centraal	-8533
GE	-8534
iform	-8535
▁materialen	-8536
▁Jong	-8537
▁plus	-8538
oeiend	-8539
zit	-8540
▁FBI	-8541
▁appels	-8542
▁minste	-8543
▁Angeles	-8544
▁veilige	-8545
▁vermeld	-8546
▁moeilijker	-8547
▁vluchtelingen	-8548
▁sens	-8549
▁verdr	-8550
isky	-8551
▁zeil	-8552
▁tegenstelling	-8553
bond	-8554
ianus	-8555
▁Eindproduct	-8556
▁ras	-8557
▁bewaard	-8558
▁kolonie	-8559
▁elementen	-8560
▁zichtbaar	-8561
▁poppen	-8562
▁weleens	-8563
▁medische	-8564
IER	-8565
▁feite	-8566
▁snijden	-8567
▁universum	-8568
4-1	-8569
▁Vond	-8570
▁vmbo	-8571
▁vrijwel	-8572
▁instrument	-8573
▁Voorbeelden	-8574
ulier	-8575
▁onszelf	-8576
▁handelen	-8577
Jij	-8578
aafd	-8579
▁Liz	-8580
▁gemeenschap	-8581
schema	-8582
▁ontdekte	-8583
fig	-8584
zeren	-8585
▁Veilig	-8586
▁waterstof	-8587
▁probeerden	-8588
ases	-8589
deels	-8590
▁Spec	-8591
▁trop	-8592
▁studio	-8593
igranten	-8594
▁eventjes	-8595
▁journalist	-8596
▁Mis	-8597
▁One	-8598
▁ego	-8599
▁scène	-8600
▁vormt	-8601
▁opruimen	-8602
avië	-8603
▁mun	-8604
▁stoom	-8605
zetting	-8606
▁vlakbij	-8607
gor	-8608
blok	-8609
▁voltooid	-8610
▁uiterlijk	-8611
bers	-8612
alisten	-8613
voorschijn	-8614
▁communicatie	-8615
▁factoren	-8616
▁accepteren	-8617
oose	-8618
▁bossen	-8619
▁ervandoor	-8620
anch	-8621
ukte	-8622
IDENTIF	-8623
▁flinke	-8624
▁manager	-8625
▁boem	-8626
▁definitie	-8627
▁Tel	-8628
▁rommel	-8629
▁vergissing	-8630
▁overeenkomst	-8631
fst	-8632
▁win	-8633
▁clown	-8634
▁gemak	-8635
▁tentoon	-8636
ootzakken	-8637
perk	-8638
▁nazi	-8639
▁magische	-8640
ban	-8641
▁Eef	-8642
UNIDENTIF	-8643
▁Klootzak	-8644
▁Denemarken	-8645
UNIDENTIFIED	-8646
ogram	-8647
etische	-8648
▁toestand	-8649
▁Universiteit	-8650
▁tevoorschijn	-8651
▁ur	-8652
etta	-8653
▁Beck	-8654
urend	-8655
▁voeg	-8656
▁tradit	-8657
▁uitnodig	-8658
▁Cle	-8659
ketten	-8660
udeerde	-8661
▁special	-8662
▁→	-8663
▁lukte	-8664
▁knikt	-8665
dings	-8666
keten	-8667
resent	-8668
▁noten	-8669
merken	-8670
▁Hiermee	-8671
▁inleiding	-8672
wand	-8673
vlies	-8674
▁Spring	-8675
▁opn	-8676
ata	-8677
▁Hard	-8678
▁verplaatsen	-8679
▁lawaai	-8680
▁verdween	-8681
▁Vlug	-8682
▁gegooid	-8683
▁mijnheer	-8684
kleur	-8685
▁gooide	-8686
▁honing	-8687
▁letterlijk	-8688
▁smeer	-8689
▁bliksem	-8690
jas	-8691
anna	-8692
▁beet	-8693
▁lening	-8694
▁veronder	-8695
▁ontwerpen	-8696
▁belofte	-8697
vaten	-8698
▁daarheen	-8699
▁smaakt	-8700
▁Sher	-8701
rijpen	-8702
▁World	-8703
▁heden	-8704
▁momenten	-8705
▁Akk	-8706
▁aanzien	-8707
▁gelopen	-8708
▁Dun	-8709
▁ramen	-8710
▁verbr	-8711
11	-8712
▁Jud	-8713
▁enz	-8714
▁organismen	-8715
ssen	-8716
▁lux	-8717
▁Ondertussen	-8718
▁vraagnummer	-8719
AAN	-8720
imp	-8721
▁wort	-8722
▁prest	-8723
stukken	-8724
▁berekenen	-8725
▁tijdelijk	-8726
ér	-8727
nik	-8728
▁2023	-8729
meisje	-8730
▁Saint	-8731
akel	-8732
▁map	-8733
▁gedr	-8734
▁achteren	-8735
▁achterna	-8736
▁staal	-8737
▁melden	-8738
vlucht	-8739
▁Klein	-8740
▁bepaalt	-8741
▁Palest	-8742
▁paragraaf	-8743
kap	-8744
▁advis	-8745
arije	-8746
▁inc	-8747
▁Howard	-8748
▁Chinees	-8749
▁Jou	-8750
▁bijlage	-8751
▁bovenop	-8752
▁snelweg	-8753
iol	-8754
eraad	-8755
▁klik	-8756
▁sing	-8757
▁Harris	-8758
▁hoefde	-8759
▁fantasie	-8760
▁Pop	-8761
▁bruine	-8762
▁verscheen	-8763
fort	-8764
amide	-8765
▁Cast	-8766
uke	-8767
▁Verm	-8768
▁gigant	-8769
▁klassieke	-8770
wijken	-8771
▁marine	-8772
▁verstandig	-8773
▁Off	-8774
▁Wilde	-8775
▁atoom	-8776
▁truck	-8777
▁begele	-8778
▁struik	-8779
zem	-8780
▁zwaarte	-8781
▁oorzaken	-8782
▁gedwongen	-8783
stijl	-8784
▁Pepijn	-8785
500	-8786
cir	-8787
zou	-8788
boekje	-8789
vloeden	-8790
▁Andrew	-8791
▁Bil	-8792
▁vrouwtje	-8793
▁zekerheid	-8794
▁basisschool	-8795
▁Patrick	-8796
▁constant	-8797
▁daarover	-8798
▁toernooi	-8799
anner	-8800
▁priester	-8801
HE	-8802
▁Cro	-8803
▁nul	-8804
achen	-8805
hoven	-8806
▁omgezet	-8807
98	-8808
aaide	-8809
▁Ajax	-8810
▁Okay	-8811
▁achterkant	-8812
iot	-8813
antal	-8814
▁mart	-8815
▁handels	-8816
▁stijgen	-8817
▁historische	-8818
alys	-8819
▁Uwe	-8820
▁Broo	-8821
quentie	-8822
▁verwerkt	-8823
▁antwoordt	-8824
▁getrokken	-8825
uv	-8826
▁Lor	-8827
affen	-8828
▁prop	-8829
▁kluis	-8830
▁geheimen	-8831
▁nationaal	-8832
had	-8833
▁1990	-8834
▁graan	-8835
▁gepublic	-8836
▁officier	-8837
▁Hollywood	-8838
▁opgebouwd	-8839
ario	-8840
mann	-8841
▁vel	-8842
▁onth	-8843
▁humor	-8844
▁gord	-8845
▁uitgelegd	-8846
▁Amy	-8847
ussel	-8848
▁dient	-8849
▁koekje	-8850
mot	-8851
isjes	-8852
▁hoofdl	-8853
▁opgegeten	-8854
▁Johan	-8855
▁zender	-8856
▁Portugal	-8857
▁ogenblik	-8858
hen	-8859
▁dolf	-8860
reiding	-8861
▁orders	-8862
▁aangedaan	-8863
▁kansen	-8864
▁Revolutie	-8865
▁Julia	-8866
▁liber	-8867
▁verdediging	-8868
▁Gez	-8869
▁situaties	-8870
imenten	-8871
▁indianen	-8872
▁voorlopig	-8873
Wie	-8874
▁lichten	-8875
▁machtig	-8876
industrie	-8877
igend	-8878
▁dwer	-8879
ique	-8880
▁trie	-8881
▁Lucas	-8882
▁diner	-8883
gehaald	-8884
▁neut	-8885
leut	-8886
rank	-8887
▁dict	-8888
▁vere	-8889
Ind	-8890
▁Start	-8891
anische	-8892
▁tenzij	-8893
▁dochters	-8894
arg	-8895
lood	-8896
▁hekel	-8897
▁figuren	-8898
ils	-8899
▁Sas	-8900
▁Luke	-8901
▁zachtjes	-8902
▁horm	-8903
▁Nummer	-8904
▁bevelen	-8905
▁bestaande	-8906
▁positieve	-8907
ux	-8908
lah	-8909
▁fluit	-8910
▁financiële	-8911
▁nieuwsgierig	-8912
agon	-8913
ardo	-8914
heeft	-8915
▁XIII	-8916
▁gezorgd	-8917
Ge	-8918
▁34	-8919
▁Form	-8920
▁vertegenwoord	-8921
▁bra	-8922
▁veer	-8923
▁diensten	-8924
geboren	-8925
▁uitgezonden	-8926
▁schijn	-8927
▁schu	-8928
velden	-8929
▁beïnvloed	-8930
▁Sport	-8931
▁joden	-8932
ieve	-8933
▁vest	-8934
schepen	-8935
▁mijl	-8936
▁gedag	-8937
▁kapit	-8938
▁rondom	-8939
helm	-8940
vacu	-8941
▁schaap	-8942
uilen	-8943
▁Gord	-8944
▁duim	-8945
ecteur	-8946
omt	-8947
vle	-8948
odem	-8949
▁Est	-8950
▁Wind	-8951
ulatie	-8952
▁hit	-8953
▁ezel	-8954
dering	-8955
▁geniet	-8956
▁gepland	-8957
▁bloot	-8958
▁slagen	-8959
▁wellicht	-8960
▁datum	-8961
▁muizen	-8962
▁che	-8963
brief	-8964
▁zuiver	-8965
▁gepubliceerd	-8966
▁horiz	-8967
▁minst	-8968
▁Steden	-8969
▁Conn	-8970
▁lust	-8971
▁hitte	-8972
▁traditie	-8973
ht	-8974
▁stinkt	-8975
▁verwar	-8976
▁uitzicht	-8977
▁standpunt	-8978
▁enthousiast	-8979
aptain	-8980
eleken	-8981
▁lading	-8982
raakt	-8983
ulance	-8984
▁verneder	-8985
▁geesten	-8986
PLA	-8987
▁geme	-8988
▁vervl	-8989
▁ratten	-8990
▁stilte	-8991
uste	-8992
▁Juni	-8993
▁kooi	-8994
▁strij	-8995
▁leiders	-8996
▁neergeschoten	-8997
kkers	-8998
▁Sand	-8999
13	-9000
Goed	-9001
▁Vreem	-9002
▁Natuur	-9003
▁mooier	-9004
Met	-9005
oege	-9006
▁slimme	-9007
▁afl	-9008
culen	-9009
▁scheiding	-9010
▁vergeleken	-9011
otie	-9012
▁Rel	-9013
beurt	-9014
▁1999	-9015
▁NS	-9016
▁golven	-9017
uft	-9018
antel	-9019
▁sier	-9020
▁Sophie	-9021
▁daaraan	-9022
▁medicijn	-9023
▁succesvol	-9024
▁39	-9025
bere	-9026
▁beë	-9027
▁kre	-9028
▁3:	-9029
rapt	-9030
agent	-9031
▁1945	-9032
▁Inst	-9033
▁plak	-9034
amers	-9035
▁Brian	-9036
▁verlegen	-9037
▁gevuld	-9038
▁klinken	-9039
ipen	-9040
uinen	-9041
▁bakken	-9042
▁Noorwegen	-9043
▁Koen	-9044
▁Susan	-9045
▁patiënten	-9046
▁verkracht	-9047
▁middeleeuwen	-9048
zod	-9049
dert	-9050
nest	-9051
▁Shaw	-9052
▁bekl	-9053
▁date	-9054
no	-9055
elten	-9056
▁Mexic	-9057
▁Liefde	-9058
▁maf	-9059
endom	-9060
▁stik	-9061
▁Wakker	-9062
▁ellende	-9063
,6	-9064
lag	-9065
uber	-9066
voort	-9067
▁Rand	-9068
▁werkten	-9069
ynam	-9070
▁Radio	-9071
▁doelwit	-9072
▁beschouw	-9073
▁ophangen	-9074
▁WAT	-9075
▁Enkele	-9076
▁vermoed	-9077
▁job	-9078
▁buis	-9079
unning	-9080
▁koper	-9081
▁Vanwege	-9082
▁diagram	-9083
▁steunen	-9084
▁georganis	-9085
tekst	-9086
arming	-9087
▁kabel	-9088
▁export	-9089
▁gewaar	-9090
▁voordelen	-9091
▁aanleiding	-9092
romos	-9093
veilig	-9094
velings	-9095
verkiezingen	-9096
▁verwijderen	-9097
▁Corn	-9098
▁Gall	-9099
alk	-9100
"")."	-9101
▁Doordat	-9102
▁Limburg	-9103
bleem	-9104
▁tweet	-9105
▁maaltijd	-9106
wekker	-9107
▁Intro	-9108
iliteit	-9109
▁Europees	-9110
▁Go	-9111
▁Kro	-9112
knop	-9113
▁Cool	-9114
▁haten	-9115
▁metro	-9116
▁overtuigd	-9117
▁Osc	-9118
▁kanaal	-9119
▁Daarbij	-9120
onderzoek	-9121
vatten	-9122
▁Blijk	-9123
▁aanget	-9124
▁Annie	-9125
ctieve	-9126
▁vuurwerk	-9127
▁wegwezen	-9128
▁IJs	-9129
▁Veg	-9130
inten	-9131
ockey	-9132
▁masker	-9133
▁gereden	-9134
▁onbekende	-9135
18	-9136
▁zint	-9137
bewijs	-9138
▁greep	-9139
▁gaande	-9140
▁wanhop	-9141
▁schrijvers	-9142
▁Kort	-9143
atsoen	-9144
▁dwaas	-9145
▁dagboek	-9146
▁verliet	-9147
▁Gri	-9148
zucht	-9149
anneke	-9150
▁straal	-9151
unen	-9152
▁gif	-9153
▁Shar	-9154
▁slaaf	-9155
▁verblijf	-9156
ani	-9157
steden	-9158
▁rijtje	-9159
▁demonstr	-9160
▁Mogen	-9161
▁stads	-9162
▁vloot	-9163
▁ervaren	-9164
▁overeind	-9165
▁Bay	-9166
reeuw	-9167
▁Robbie	-9168
rekening	-9169
sey	-9170
▁Larry	-9171
▁diepe	-9172
▁tempel	-9173
▁bevinden	-9174
arium	-9175
▁Thor	-9176
▁Bloed	-9177
▁brilj	-9178
▁duwen	-9179
producten	-9180
▁Tsje	-9181
ferentie	-9182
▁satelliet	-9183
iten	-9184
▁percentage	-9185
jecten	-9186
▁stapt	-9187
▁Woorden	-9188
voren	-9189
▁bedenk	-9190
▁specif	-9191
▁Doen	-9192
▁Eruit	-9193
ruchten	-9194
wisseling	-9195
▁Zul	-9196
aaie	-9197
ktes	-9198
honden	-9199
▁Surin	-9200
▁lat	-9201
▁LE	-9202
▁186	-9203
▁treinen	-9204
▁monsters	-9205
▁Vanuit	-9206
▁champagne	-9207
!!	-9208
Sp	-9209
ife	-9210
comm	-9211
▁ops	-9212
ichter	-9213
▁amper	-9214
▁vaart	-9215
▁oorlogs	-9216
ieter	-9217
netjes	-9218
▁uitdaging	-9219
▁verrassen	-9220
▁Ali	-9221
ograaf	-9222
klimaat	-9223
▁erdoor	-9224
OG	-9225
plo	-9226
ologisch	-9227
▁bekijkt	-9228
arie	-9229
▁Nieuws	-9230
ankelijk	-9231
▁bevolkings	-9232
fectie	-9233
▁Britt	-9234
▁stromen	-9235
▁onderscheiden	-9236
Van	-9237
▁Sven	-9238
▁plas	-9239
▁huilt	-9240
▁ongerust	-9241
▁speelden	-9242
▁vijftien	-9243
▁verwerken	-9244
▁ingewikkeld	-9245
▁SCH	-9246
eres	-9247
▁spring	-9248
▁uitst	-9249
▁Normaal	-9250
ki	-9251
rug	-9252
DR	-9253
▁zeem	-9254
▁hobby	-9255
▁prettig	-9256
▁uitgaan	-9257
▁Felix	-9258
▁weder	-9259
▁stront	-9260
▁ontspannen	-9261
▁Reb	-9262
▁put	-9263
▁wegge	-9264
▁negatieve	-9265
▁AAN	-9266
▁mit	-9267
kanen	-9268
▁Handen	-9269
▁verdachte	-9270
issa	-9271
plic	-9272
▁cow	-9273
▁duid	-9274
▁benieuwd	-9275
▁nogmaals	-9276
▁welvaart	-9277
VV	-9278
jer	-9279
lect	-9280
▁Francisco	-9281
apie	-9282
▁Hil	-9283
ffect	-9284
▁smeek	-9285
schakeld	-9286
▁Ly	-9287
▁krokod	-9288
▁comment	-9289
▁metalen	-9290
▁Ryan	-9291
ucose	-9292
▁Alan	-9293
▁verbranden	-9294
irl	-9295
▁Cass	-9296
▁beesten	-9297
▁Gek	-9298
▁Oud	-9299
▁Bravo	-9300
Holland	-9301
▁genie	-9302
▁rotzooi	-9303
▁uitziet	-9304
▁veroveren	-9305
bol	-9306
meel	-9307
▁120	-9308
▁Ges	-9309
▁heilig	-9310
ategorie	-9311
▁onzicht	-9312
▁glimlach	-9313
▁zenuwachtig	-9314
lijnen	-9315
▁vanochtend	-9316
▁organiseren	-9317
reen	-9318
annië	-9319
▁wa	-9320
▁Mas	-9321
▁game	-9322
▁gekn	-9323
▁gesm	-9324
▁bezet	-9325
▁waaraan	-9326
▁meerderheid	-9327
ics	-9328
▁Pool	-9329
▁meub	-9330
▁zang	-9331
zitten	-9332
ios	-9333
▁dergelijke	-9334
edel	-9335
bomen	-9336
inson	-9337
▁danken	-9338
▁65	-9339
▁jood	-9340
oofden	-9341
racticum	-9342
▁overleefd	-9343
aï	-9344
▁leen	-9345
▁genot	-9346
redenen	-9347
▁uiteen	-9348
▁stro	-9349
▁Hoogheid	-9350
▁bijten	-9351
▁gezegde	-9352
▁presenteren	-9353
oln	-9354
Britt	-9355
igens	-9356
▁vuist	-9357
▁blazen	-9358
aanderen	-9359
▁hersens	-9360
▁sommigen	-9361
iki	-9362
raat	-9363
intjes	-9364
▁beveiliging	-9365
range	-9366
▁bakker	-9367
▁politici	-9368
30)	-9369
▁ec	-9370
▁skel	-9371
▁Fijne	-9372
▁dossier	-9373
▁beloofde	-9374
emburg	-9375
kring	-9376
▁Sneller	-9377
▁verrast	-9378
3-	-9379
39	-9380
▁geschenk	-9381
▁voorwaarden	-9382
▁Bour	-9383
zaamheid	-9384
Nu	-9385
ika	-9386
▁Cy	-9387
▁losl	-9388
▁Jason	-9389
▁reser	-9390
590	-9391
▁trut	-9392
▁sliep	-9393
▁goedkoop	-9394
ENT	-9395
▁vat	-9396
risch	-9397
▁1998	-9398
▁mamma	-9399
▁biologie	-9400
▁beschrijving	-9401
asius	-9402
▁jongeman	-9403
Om	-9404
▁vervolg	-9405
▁Mol	-9406
ienen	-9407
pagina	-9408
▁baard	-9409
▁sin	-9410
▁hing	-9411
▁aardbeving	-9412
▁werkloosheid	-9413
▁US	-9414
schuwd	-9415
▁Joseph	-9416
▁aangepast	-9417
isd	-9418
▁Roger	-9419
▁uitger	-9420
▁°	-9421
any	-9422
bec	-9423
▁Bul	-9424
▁gezonde	-9425
▁trui	-9426
▁dunne	-9427
▁groots	-9428
▁actrice	-9429
▁kostuum	-9430
▁Adrianus	-9431
▁afgeleid	-9432
▁families	-9433
▁gezondheids	-9434
▁ka	-9435
▁1,5	-9436
▁Rachel	-9437
▁gevoelig	-9438
ray	-9439
▁schande	-9440
▁voortplant	-9441
▁Edu	-9442
▁rele	-9443
▁gebrek	-9444
▁ts	-9445
▁Zeer	-9446
▁walvis	-9447
▁bewering	-9448
▁Bab	-9449
▁hete	-9450
doc	-9451
▁Linc	-9452
▁Argent	-9453
▁behoefte	-9454
▁onderscheid	-9455
▁besproken	-9456
pat	-9457
▁ER	-9458
▁Meg	-9459
▁afger	-9460
ifer	-9461
▁brein	-9462
▁Sj	-9463
▁this	-9464
▁lepel	-9465
▁beloning	-9466
▁weerstand	-9467
jaars	-9468
▁boten	-9469
▁beschadigd	-9470
▁ontmoeting	-9471
▁It	-9472
ulde	-9473
▁kogels	-9474
lu	-9475
▁keur	-9476
▁herfst	-9477
▁hemelsnaam	-9478
▁uitgebreid	-9479
acy	-9480
▁Rud	-9481
▁ZIJN	-9482
aarzen	-9483
ird	-9484
▁spook	-9485
▁zwakke	-9486
Duitsland	-9487
▁Schotland	-9488
▁doek	-9489
▁toegeven	-9490
ulf	-9491
▁repareren	-9492
schappelijk	-9493
▁provincies	-9494
▁geproduceerd	-9495
ön	-9496
wis	-9497
code	-9498
▁Wolf	-9499
▁anim	-9500
▁boze	-9501
▁oorlogen	-9502
88	-9503
▁4,	-9504
▁sur	-9505
▁vorst	-9506
▁filmen	-9507
▁overleef	-9508
▁stroming	-9509
rekenen	-9510
▁biertje	-9511
▁inkomsten	-9512
▁AB	-9513
ague	-9514
▁Spaans	-9515
▁vergat	-9516
▁conflict	-9517
▁oorspronkelijke	-9518
▁Wa	-9519
Hier	-9520
▁bun	-9521
▁aant	-9522
▁gezag	-9523
▁korter	-9524
▁lievelings	-9525
▁gewaarschuwd	-9526
▁oorspronkelijk	-9527
22	-9528
weef	-9529
schouw	-9530
ftal	-9531
outh	-9532
▁sto	-9533
▁Mount	-9534
▁aanpassen	-9535
▁1980	-9536
jongen	-9537
▁groente	-9538
▁Blijkbaar	-9539
▁godsdienst	-9540
▁eit	-9541
▁gewassen	-9542
uiling	-9543
▁koninklijke	-9544
▁HEB	-9545
oetsen	-9546
▁pakje	-9547
▁Controleer	-9548
▁Lib	-9549
azing	-9550
▁bezocht	-9551
▁verpleeg	-9552
ïst	-9553
▁Fa	-9554
rend	-9555
▁dorst	-9556
▁schen	-9557
▁Schatje	-9558
▁chemische	-9559
▁Rood	-9560
▁grijze	-9561
▁verdelen	-9562
▁vernoemd	-9563
ioenen	-9564
▁Examen	-9565
rec	-9566
ures	-9567
▁Moh	-9568
▁dader	-9569
▁stapte	-9570
▁treden	-9571
▁betover	-9572
▁Gemeenten	-9573
▁Š	-9574
ikki	-9575
▁nuttig	-9576
plein	-9577
▁populaire	-9578
▁waarna	-9579
▁element	-9580
ato	-9581
show	-9582
▁Berg	-9583
▁mut	-9584
▁negatief	-9585
54)	-9586
▁by	-9587
▁Maur	-9588
▁gebruikten	-9589
CT	-9590
▁lef	-9591
▁zone	-9592
▁lachte	-9593
▁onbekend	-9594
▁waarover	-9595
ves	-9596
orter	-9597
▁Betty	-9598
▁Jackie	-9599
▁buurman	-9600
▁eigendom	-9601
▁vos	-9602
witten	-9603
atorium	-9604
▁Lincoln	-9605
▁onjuist	-9606
▁momenteel	-9607
▁Burger	-9608
IM	-9609
ova	-9610
▁hoorden	-9611
▁ed	-9612
▁Hee	-9613
▁Sky	-9614
▁helm	-9615
▁Emily	-9616
▁Gelder	-9617
▁schudden	-9618
▁teruggaan	-9619
▁Wow	-9620
▁Verl	-9621
▁weef	-9622
▁Constant	-9623
▁tovenaar	-9624
▁fa	-9625
▁Lopen	-9626
▁debat	-9627
▁Julius	-9628
po	-9629
▁600	-9630
▁Rij	-9631
▁Cele	-9632
▁knip	-9633
aptop	-9634
zodat	-9635
▁smerig	-9636
▁Brussel	-9637
ooch	-9638
front	-9639
▁Robin	-9640
▁scheid	-9641
85)	-9642
skist	-9643
▁mate	-9644
▁chaos	-9645
▁grootvader	-9646
▁Valent	-9647
▁piraten	-9648
▁zangeres	-9649
▁ruik	-9650
staand	-9651
ziekte	-9652
▁5,	-9653
▁spin	-9654
▁afgev	-9655
▁rozen	-9656
▁schone	-9657
):	-9658
▁eth	-9659
▁spe	-9660
lap	-9661
▁foss	-9662
▁aparte	-9663
▁schoonmaken	-9664
58)	-9665
▁wond	-9666
▁blokken	-9667
▁verzonnen	-9668
▁duisternis	-9669
uls	-9670
▁gru	-9671
scoop	-9672
wikkel	-9673
▁Hierin	-9674
▁klassen	-9675
▁Claire	-9676
▁immers	-9677
▁gemeten	-9678
▁behouden	-9679
▁Provincies	-9680
loaden	-9681
▁atlas	-9682
▁wiens	-9683
▁bedekt	-9684
▁meegeteld	-9685
▁verspreiden	-9686
▁aantekeningen	-9687
34	-9688
ota	-9689
▁mult	-9690
▁voormalige	-9691
▁Benodigdheden	-9692
ami	-9693
ungle	-9694
▁gevangene	-9695
▁sigaretten	-9696
▁fantastische	-9697
▁waarschuwing	-9698
78)	-9699
som	-9700
▁Eefie	-9701
▁ingev	-9702
beelding	-9703
▁gemeent	-9704
▁AN	-9705
▁Doei	-9706
▁Virgin	-9707
▁artikelen	-9708
organisatie	-9709
▁advertentie	-9710
▁Kir	-9711
▁Las	-9712
▁getroffen	-9713
▁ping	-9714
▁aar	-9715
don	-9716
▁ZE	-9717
▁gej	-9718
papier	-9719
▁Vegas	-9720
▁medaille	-9721
▁Afrikaanse	-9722
▁wreed	-9723
▁Luxemburg	-9724
bevol	-9725
▁Cuba	-9726
mensen	-9727
▁uitgevonden	-9728
pens	-9729
▁Okà	-9730
▁Pieter	-9731
itische	-9732
cuus	-9733
elta	-9734
▁Law	-9735
▁Beth	-9736
bronnen	-9737
▁altern	-9738
▁verlen	-9739
▁reputatie	-9740
▁instructies	-9741
▁melod	-9742
▁tri	-9743
▁allang	-9744
▁dekking	-9745
▁schilderen	-9746
ta	-9747
ften	-9748
▁tur	-9749
doende	-9750
uisterd	-9751
▁sparen	-9752
▁vermoordt	-9753
▁personages	-9754
▁Boy	-9755
▁overkomt	-9756
IEN	-9757
▁Tod	-9758
▁potje	-9759
uïn	-9760
▁por	-9761
apend	-9762
▁Margar	-9763
▁gemeenten	-9764
veen	-9765
▁Rid	-9766
▁oke	-9767
▁verhe	-9768
▁vuren	-9769
▁uniform	-9770
can	-9771
▁Griff	-9772
▁lichaams	-9773
wijn	-9774
▁Doel	-9775
▁maagd	-9776
steking	-9777
▁emoties	-9778
▁koelkast	-9779
▁aangeboden	-9780
▁Seb	-9781
wintig	-9782
▁whisky	-9783
▁beleefd	-9784
▁Kyle	-9785
▁Steek	-9786
▁gelijke	-9787
▁spons	-9788
▁lagere	-9789
rr	-9790
yer	-9791
apte	-9792
arth	-9793
koek	-9794
▁kraan	-9795
ijten	-9796
rogen	-9797
▁Aven	-9798
▁Josh	-9799
▁fasc	-9800
▁zachte	-9801
▁Houston	-9802
▁onderzoeks	-9803
oler	-9804
▁voorkeur	-9805
96)	-9806
▁extr	-9807
voerder	-9808
▁Luitenant	-9809
5-1	-9810
▁bioscoop	-9811
▁voortdurend	-9812
▁bovenstaande	-9813
▁hiernaast	-9814
alf	-9815
▁ep	-9816
▁Hob	-9817
▁waardeloos	-9818
▁irrit	-9819
FT	-9820
▁noot	-9821
▁bewegingen	-9822
stop	-9823
▁Afg	-9824
▁Ring	-9825
kwamen	-9826
▁lafaard	-9827
▁brachten	-9828
ses	-9829
▁lit	-9830
aardige	-9831
▁plegen	-9832
▁Amerikaan	-9833
▁beschouwd	-9834
▁leugens	-9835
▁opsomming	-9836
▁munten	-9837
▁Florida	-9838
▁leraren	-9839
skundigen	-9840
avo	-9841
▁basket	-9842
▁zelfde	-9843
inkeltje	-9844
▁elektron	-9845
▁dam	-9846
▁huh	-9847
▁tar	-9848
▁Teddy	-9849
84	-9850
▁grie	-9851
▁toont	-9852
▁leugenaar	-9853
oeide	-9854
▁Tess	-9855
baller	-9856
▁maten	-9857
▁doelen	-9858
▁zekere	-9859
zakelijk	-9860
▁Kennedy	-9861
▁gelegenheid	-9862
icket	-9863
▁Post	-9864
▁explosie	-9865
▁Vrouw	-9866
formule	-9867
▁gewild	-9868
▁knuffel	-9869
▁gezichten	-9870
▁beren	-9871
▁Geniet	-9872
▁Luther	-9873
ettelijk	-9874
91	-9875
adijs	-9876
▁kook	-9877
gewicht	-9878
▁Beloof	-9879
▁student	-9880
▁eenvoudige	-9881
ilis	-9882
▁Gol	-9883
matica	-9884
▁overkant	-9885
artier	-9886
stil	-9887
keuze	-9888
▁activ	-9889
▁plank	-9890
▁beëind	-9891
▁overheen	-9892
▁2024	-9893
▁zonen	-9894
▁Bijbel	-9895
daag	-9896
▁Sing	-9897
▁Glor	-9898
▁pomp	-9899
▁omzet	-9900
▁vloek	-9901
▁ontstonden	-9902
▁verschijnt	-9903
oeik	-9904
▁prote	-9905
▁schol	-9906
▁termijn	-9907
▁koolstofdioxide	-9908
zon	-9909
▁Bank	-9910
▁geluiden	-9911
▁snor	-9912
▁jongste	-9913
▁verdwaald	-9914
▁vooraf	-9915
aka	-9916
unk	-9917
vecht	-9918
▁hoopt	-9919
▁nachtmerrie	-9920
aha	-9921
▁ment	-9922
▁slok	-9923
▁sleep	-9924
▁wolven	-9925
▁klootzakken	-9926
archie	-9927
▁status	-9928
▁Download	-9929
▁koningen	-9930
eeuwse	-9931
▁onvol	-9932
▁pillen	-9933
▁bezorgen	-9934
bod	-9935
▁py	-9936
▁Verz	-9937
▁schok	-9938
▁jochie	-9939
▁coördin	-9940
ump	-9941
▁Dire	-9942
▁Math	-9943
▁Einde	-9944
▁blaad	-9945
aks	-9946
▁FC	-9947
halte	-9948
▁song	-9949
▁Zaken	-9950
▁ondergrond	-9951
achtbare	-9952
▁praktijk	-9953
▁georganiseerd	-9954
▁MET	-9955
isseur	-9956
▁toekomstige	-9957
jagen	-9958
▁Grace	-9959
▁kaars	-9960
▁Command	-9961
omin	-9962
▁Team	-9963
reactie	-9964
residen	-9965
▁Proost	-9966
▁secret	-9967
▁Station	-9968
▁uitdrukking	-9969
dek	-9970
▁Di	-9971
▁text	-9972
▁zegen	-9973
tenaren	-9974
▁Kerstman	-9975
▁kauw	-9976
▁blokk	-9977
▁Jongen	-9978
fragment	-9979
▁Externe	-9980
▁campagne	-9981
▁konijnen	-9982
▁Linda	-9983
▁dalen	-9984
atholieke	-9985
▁paspoort	-9986
▁commentaar	-9987
▁handtekening	-9988
▁tegelijkertijd	-9989
▁Ak	-9990
▁Check	-9991
▁vroege	-9992
▁toenemen	-9993
▁Ass	-9994
▁luxe	-9995
▁Agent	-9996
▁alvast	-9997
▁afgesch	-9998
vard	-9999
ilveren	-10000
▁Stilte	-10001
▁stoelen	-10002
cuul	-10003
doel	-10004
▁dor	-10005
▁fol	-10006
▁dure	-10007
▁onbel	-10008
▁tocht	-10009
▁elkaars	-10010
▁assistent	-10011
appy	-10012
▁ere	-10013
▁stoot	-10014
▁voorlezen	-10015
ulen	-10016
allie	-10017
plicht	-10018
▁tegenstanders	-10019
▁Techn	-10020
▁wille	-10021
▁Mod	-10022
▁banen	-10023
▁Wilhelm	-10024
▁bedreigd	-10025
har	-10026
eech	-10027
▁obs	-10028
GRAND	-10029
ionen	-10030
▁zijk	-10031
▁Mitch	-10032
▁zogen	-10033
▁klooster	-10034
▁Mari	-10035
▁Schip	-10036
▁uitvoer	-10037
werker	-10038
well	-10039
▁plekje	-10040
▁voorraad	-10041
▁43	-10042
ebook	-10043
▁opgele	-10044
▁47	-10045
▁Amen	-10046
▁data	-10047
sporen	-10048
▁keuzes	-10049
▁Republike	-10050
valu	-10051
▁staf	-10052
▁fatsoen	-10053
▁musical	-10054
▁wereldwijd	-10055
4-	-10056
▁zing	-10057
▁meent	-10058
atherine	-10059
▁verschillend	-10060
▁XIV	-10061
▁Arch	-10062
▁jonger	-10063
▁zussen	-10064
▁bedreiging	-10065
ava	-10066
▁vari	-10067
▁Verklaar	-10068
▁beschermt	-10069
86	-10070
ité	-10071
▁bijt	-10072
▁gekken	-10073
▁diploma	-10074
▁automatisch	-10075
▁stren	-10076
▁voortaan	-10077
87)	-10078
ating	-10079
temis	-10080
▁play	-10081
▁kwets	-10082
▁Marokko	-10083
uen	-10084
item	-10085
roer	-10086
▁Idi	-10087
▁5000	-10088
▁Antwerpen	-10089
▁genees	-10090
▁Mic	-10091
▁Well	-10092
▁mengsel	-10093
▁Vel	-10094
ertog	-10095
techn	-10096
wagens	-10097
▁Gerard	-10098
▁zenuwen	-10099
▁schulden	-10100
ope	-10101
zag	-10102
inker	-10103
▁pleeg	-10104
▁netwerk	-10105
verdeling	-10106
2-1	-10107
wal	-10108
lich	-10109
▁lelijke	-10110
▁straling	-10111
▁ins	-10112
▁pech	-10113
▁correct	-10114
▁iemands	-10115
▁personage	-10116
oney	-10117
uipen	-10118
▁1960	-10119
▁Stomme	-10120
▁wortels	-10121
▁ambulance	-10122
▁EK	-10123
▁Ich	-10124
▁roos	-10125
▁stim	-10126
▁voeden	-10127
▁voorbereiden	-10128
▁gave	-10129
kanaal	-10130
▁Bronnen	-10131
▁glucose	-10132
▁VM	-10133
▁dokt	-10134
▁Diana	-10135
▁valse	-10136
▁verraad	-10137
▁oppervlak	-10138
JE	-10139
mo	-10140
ELD	-10141
▁OM	-10142
▁ongew	-10143
▁Hierna	-10144
▁winters	-10145
▁opvolger	-10146
▁aff	-10147
greep	-10148
▁Tran	-10149
▁neur	-10150
▁overtre	-10151
▁betrekking	-10152
samen	-10153
▁natte	-10154
▁terugkeren	-10155
▁interesseert	-10156
▁grijs	-10157
▁complex	-10158
▁wachtte	-10159
▁Sergeant	-10160
▁kerstfeest	-10161
▁nauwkeurig	-10162
wend	-10163
rediet	-10164
▁Mario	-10165
▁westerse	-10166
▁tenslotte	-10167
fabriek	-10168
▁toetsen	-10169
▁bovenste	-10170
▁meervoud	-10171
▁durven	-10172
▁Vincent	-10173
▁Ta	-10174
ware	-10175
▁Eur	-10176
▁fen	-10177
▁Bell	-10178
▁MAAR	-10179
▁hierna	-10180
structuur	-10181
ERS	-10182
imens	-10183
▁langzamer	-10184
▁politicus	-10185
▁800	-10186
▁auteur	-10187
▁elektro	-10188
▁verschijnen	-10189
▁doof	-10190
▁Stand	-10191
▁teams	-10192
▁overige	-10193
▁menu	-10194
▁vroegen	-10195
gom	-10196
ïde	-10197
lege	-10198
lieden	-10199
snelheid	-10200
▁noemden	-10201
▁toegestaan	-10202
▁zwaartekracht	-10203
beg	-10204
bloed	-10205
▁asiel	-10206
▁klank	-10207
▁applaus	-10208
▁verrader	-10209
umn	-10210
uild	-10211
▁Grijp	-10212
▁lezer	-10213
▁stoer	-10214
▁oproep	-10215
roomd	-10216
▁High	-10217
▁Plan	-10218
▁creëren	-10219
▁time	-10220
▁zweet	-10221
elijkse	-10222
voorstel	-10223
▁uitkomen	-10224
▁daarboven	-10225
▁verloofde	-10226
▁kunstenaars	-10227
▁Hay	-10228
vings	-10229
▁Test	-10230
isschop	-10231
▁acteurs	-10232
verandering	-10233
2,	-10234
▁sap	-10235
▁waardeer	-10236
▁bevestigd	-10237
LU	-10238
▁gezw	-10239
▁Waren	-10240
▁import	-10241
▁aanslag	-10242
▁vreugde	-10243
▁vaardigheden	-10244
▁kud	-10245
entjes	-10246
staten	-10247
vorming	-10248
▁Rh	-10249
▁Voer	-10250
▁Tante	-10251
▁onderv	-10252
▁meegaan	-10253
▁ther	-10254
▁ju	-10255
▁Vriend	-10256
schakelen	-10257
oca	-10258
▁Coop	-10259
▁Ging	-10260
▁omgek	-10261
▁boterham	-10262
▁toespraak	-10263
▁juw	-10264
iezen	-10265
ademie	-10266
usters	-10267
▁Slim	-10268
▁diepte	-10269
ustriële	-10270
▁Julie	-10271
▁haaien	-10272
▁Nationale	-10273
voorschrift	-10274
sens	-10275
geluk	-10276
▁ingezet	-10277
▁inspiratie	-10278
▁zest	-10279
dingen	-10280
▁groten	-10281
▁Tha	-10282
▁fys	-10283
▁set	-10284
barst	-10285
▁oven	-10286
▁banken	-10287
▁excuus	-10288
▁laptop	-10289
▁sporten	-10290
▁voorgesteld	-10291
▁opgeschreven	-10292
ruc	-10293
mens	-10294
immen	-10295
Oosten	-10296
▁verlangen	-10297
richten	-10298
▁slangen	-10299
rof	-10300
▁55	-10301
▁Nor	-10302
▁Druk	-10303
▁pant	-10304
etisch	-10305
▁Frodo	-10306
▁tieten	-10307
▁senator	-10308
▁krachtig	-10309
oa	-10310
▁storen	-10311
Brittannië	-10312
▁Ein	-10313
▁Camp	-10314
▁Jedi	-10315
▁Justin	-10316
▁balans	-10317
▁opname	-10318
▁doodgaan	-10319
▁raketten	-10320
▁morgenochtend	-10321
▁tip	-10322
slacht	-10323
▁Uiter	-10324
▁jagers	-10325
▁wortel	-10326
▁bijzonders	-10327
▁Tal	-10328
miraal	-10329
▁klagen	-10330
▁opende	-10331
▁werkstuk	-10332
▁telefoontje	-10333
cast	-10334
rollen	-10335
▁zevent	-10336
▁kwartier	-10337
67	-10338
ques	-10339
▁Walt	-10340
▁momp	-10341
▁commer	-10342
▁duidelijke	-10343
hedr	-10344
kent	-10345
▁Deb	-10346
▁high	-10347
delijk	-10348
▁Denkt	-10349
▁sfeer	-10350
▁heelal	-10351
▁oordeel	-10352
▁Museum	-10353
▁trouwt	-10354
▁grappen	-10355
▁kruisje	-10356
tegr	-10357
▁Way	-10358
▁zwe	-10359
▁Grand	-10360
▁Celest	-10361
oup	-10362
▁geï	-10363
▁uil	-10364
▁visie	-10365
▁Westen	-10366
▁ontdekk	-10367
▁kennisbank	-10368
▁christendom	-10369
-104	-10370
▁eek	-10371
▁sector	-10372
volution	-10373
▁spijker	-10374
belasting	-10375
▁straffen	-10376
▁republiek	-10377
▁Cam	-10378
oxide	-10379
▁Show	-10380
▁klei	-10381
▁ernstige	-10382
▁verplaatst	-10383
▁uitnodiging	-10384
stan	-10385
▁Maas	-10386
▁Steeds	-10387
▁Slechts	-10388
▁uitslag	-10389
▁Hi	-10390
▁Irak	-10391
▁geslaagd	-10392
▁RE	-10393
▁gewonden	-10394
▁piramide	-10395
▁veroordeeld	-10396
velt	-10397
eloze	-10398
▁Bost	-10399
▁Woon	-10400
▁overgenomen	-10401
teit	-10402
▁onderb	-10403
Wij	-10404
▁1995	-10405
▁Lucht	-10406
▁antwoordde	-10407
Ar	-10408
zig	-10409
▁Hotel	-10410
inië	-10411
ituut	-10412
▁openbare	-10413
▁reeks	-10414
▁besturen	-10415
▁function	-10416
edure	-10417
▁just	-10418
EER	-10419
post	-10420
tele	-10421
▁simp	-10422
oefend	-10423
▁volkomen	-10424
uten	-10425
quest	-10426
rennen	-10427
▁Oscar	-10428
▁Wilson	-10429
▁andersom	-10430
Ga	-10431
half	-10432
▁HIJ	-10433
oosje	-10434
▁Gary	-10435
▁front	-10436
▁eekhoorn	-10437
▁mannelijke	-10438
leen	-10439
▁Sun	-10440
▁Grant	-10441
▁Econom	-10442
▁Zoveel	-10443
76)	-10444
etti	-10445
▁bonen	-10446
▁Victoria	-10447
▁invester	-10448
mus	-10449
Weet	-10450
▁atmos	-10451
▁Juffrouw	-10452
▁principe	-10453
▁voedingsstoffen	-10454
▁Hemel	-10455
rië	-10456
▁prooi	-10457
▁46	-10458
▁pijp	-10459
▁rang	-10460
ailles	-10461
pesten	-10462
▁tenen	-10463
▁zoogd	-10464
--------	-10465
▁algemene	-10466
▁getraind	-10467
▁É	-10468
▁Gil	-10469
▁groepjes	-10470
afels	-10471
▁vakant	-10472
▁verdere	-10473
▁Virginia	-10474
▁beslissingen	-10475
▁omschrijving	-10476
oedd	-10477
reer	-10478
▁Serg	-10479
▁keih	-10480
grootte	-10481
▁slotte	-10482
▁potlood	-10483
▁driehoek	-10484
▁verwachtte	-10485
▁1997	-10486
zitter	-10487
▁bagage	-10488
▁zoenen	-10489
▁ongelijk	-10490
▁sprookje	-10491
▁schildpad	-10492
▁Gold	-10493
gedrag	-10494
▁stemming	-10495
▁Zeeland	-10496
▁wanhopig	-10497
één	-10498
wiel	-10499
▁VMBO	-10500
▁Sid	-10501
oesten	-10502
▁smelt	-10503
adelijk	-10504
▁ls	-10505
ness	-10506
▁grijpen	-10507
▁apparaten	-10508
bew	-10509
hrer	-10510
▁Niels	-10511
▁hamer	-10512
▁zaden	-10513
uistere	-10514
24)	-10515
▁Fen	-10516
itsen	-10517
▁Club	-10518
▁mail	-10519
▁Koude	-10520
▁Jeetje	-10521
▁voegen	-10522
▁machtige	-10523
▁bloedcellen	-10524
29	-10525
▁Tip	-10526
amine	-10527
▁Jamie	-10528
▁roman	-10529
gericht	-10530
▁ballet	-10531
▁warmer	-10532
▁flessen	-10533
▁rijkdom	-10534
▁bestellen	-10535
▁bestemming	-10536
▁rechtstreeks	-10537
▁Au	-10538
▁ul	-10539
▁Ama	-10540
▁joh	-10541
▁zins	-10542
▁inzet	-10543
▁invest	-10544
▁tennis	-10545
▁directe	-10546
▁onzeker	-10547
▁stralen	-10548
▁aflevering	-10549
▁Ari	-10550
riter	-10551
▁Jenn	-10552
▁Roep	-10553
▁ruilen	-10554
▁stikstof	-10555
digd	-10556
▁Lot	-10557
▁Wapen	-10558
▁blaas	-10559
▁Pierre	-10560
god	-10561
▁Koop	-10562
▁vice	-10563
▁wegens	-10564
▁aanpakken	-10565
OET	-10566
boer	-10567
▁ven	-10568
udeert	-10569
▁doodt	-10570
▁scheep	-10571
1,	-10572
web	-10573
▁correctie	-10574
▁kut	-10575
ersey	-10576
▁Moge	-10577
rengst	-10578
▁stammen	-10579
▁ontbreken	-10580
▁ministerie	-10581
neus	-10582
kleed	-10583
▁Niger	-10584
kantoor	-10585
▁sokken	-10586
▁ontvoerd	-10587
▁Hor	-10588
kenning	-10589
▁koorts	-10590
▁stress	-10591
ogh	-10592
onte	-10593
▁pos	-10594
▁Clark	-10595
amelijk	-10596
▁beslag	-10597
▁bijdra	-10598
▁idioten	-10599
gesproken	-10600
▁invullen	-10601
▁veiligheids	-10602
▁Pad	-10603
▁meel	-10604
▁Haast	-10605
▁scheelt	-10606
▁trokken	-10607
omie	-10608
vier	-10609
▁Voed	-10610
▁sele	-10611
▁poesje	-10612
▁Russisch	-10613
▁Pinkeltje	-10614
aadt	-10615
▁Ser	-10616
staart	-10617
▁trakt	-10618
)"	-10619
▁Ou	-10620
▁gan	-10621
▁Heerlijk	-10622
▁inclusief	-10623
▁Goud	-10624
▁brandt	-10625
▁uitgek	-10626
▁doorlopen	-10627
▁verdiende	-10628
actor	-10629
▁ondertussen	-10630
99)	-10631
ards	-10632
▁Athene	-10633
▁beloven	-10634
▁Ee	-10635
▁Island	-10636
▁knippen	-10637
▁toegekend	-10638
97	-10639
lok	-10640
reur	-10641
jamin	-10642
acebook	-10643
▁dieper	-10644
▁magnet	-10645
dernacht	-10646
▁gedichten	-10647
Man	-10648
▁Cons	-10649
▁datje	-10650
▁degenen	-10651
▁vergist	-10652
rat	-10653
▁no	-10654
▁orgaan	-10655
▁Nij	-10656
▁Wall	-10657
▁beland	-10658
▁draken	-10659
▁aanwijzingen	-10660
kest	-10661
▁beurs	-10662
▁wennen	-10663
▁bijdrage	-10664
▁heerlijke	-10665
▁buitenaard	-10666
▁drinkwater	-10667
▁Lewis	-10668
▁extreem	-10669
▁hieruit	-10670
stigd	-10671
koning	-10672
▁Sixtus	-10673
▁meesten	-10674
▁voeding	-10675
▁dodelijk	-10676
▁huwelijks	-10677
▁wereldkampioen	-10678
▁cer	-10679
▁mobiele	-10680
▁relaties	-10681
kust	-10682
▁dia	-10683
83	-10684
ei	-10685
▁Cat	-10686
proces	-10687
▁Chuck	-10688
▁Eduard	-10689
▁Michel	-10690
▁Philip	-10691
Oké	-10692
▁Karl	-10693
▁dwingen	-10694
▁Ever	-10695
▁myth	-10696
▁unie	-10697
▁romantisch	-10698
▁Bev	-10699
▁gor	-10700
▁Santa	-10701
ollicit	-10702
▁Roemen	-10703
▁verbazing	-10704
alie	-10705
namen	-10706
▁knal	-10707
structie	-10708
▁concurrentie	-10709
gerd	-10710
▁Gand	-10711
▁broeik	-10712
▁publie	-10713
▁geluids	-10714
▁bevrucht	-10715
lob	-10716
odigen	-10717
waardig	-10718
▁kenmerk	-10719
▁laarzen	-10720
▁vergift	-10721
ksel	-10722
▁opd	-10723
▁Get	-10724
▁Donder	-10725
▁verzorgen	-10726
▁uitgegeven	-10727
03	-10728
vdA	-10729
alem	-10730
asser	-10731
elaars	-10732
▁bewakers	-10733
▁Celestinus	-10734
▁Godverdomme	-10735
ypt	-10736
edie	-10737
▁1970	-10738
▁bijn	-10739
▁kolom	-10740
ango	-10741
▁like	-10742
apparaat	-10743
▁Hartelijk	-10744
eurd	-10745
▁but	-10746
▁merkt	-10747
▁vermen	-10748
▁vergeef	-10749
▁gestoken	-10750
▁Fu	-10751
▁(200	-10752
▁Hiervoor	-10753
▁gespannen	-10754
▁mannetjes	-10755
▁UIT	-10756
▁Zon	-10757
▁sigaret	-10758
▁goedkoper	-10759
▁tientallen	-10760
umin	-10761
lessen	-10762
▁Gloria	-10763
▁afspraakje	-10764
tit	-10765
▁Boek	-10766
▁Wend	-10767
schrij	-10768
▁Marco	-10769
▁knikte	-10770
▁gedroomd	-10771
▁genoemde	-10772
▁weglopen	-10773
▁opgeslagen	-10774
▁duiken	-10775
▁artiesten	-10776
ANG	-10777
cep	-10778
ootball	-10779
▁makker	-10780
▁spinnen	-10781
▁oorsprong	-10782
▁overnemen	-10783
▁Hannah	-10784
▁Ob	-10785
bber	-10786
stij	-10787
▁tim	-10788
▁Trump	-10789
▁kostte	-10790
▁skelet	-10791
▁besefte	-10792
▁microfoon	-10793
▁realiteit	-10794
my	-10795
films	-10796
▁bocht	-10797
▁pannen	-10798
▁kruipen	-10799
▁Onzin	-10800
▁Ned	-10801
▁passie	-10802
▁spoorweg	-10803
▁KL	-10804
▁Long	-10805
▁krank	-10806
▁penis	-10807
houders	-10808
▁hierop	-10809
▁moedig	-10810
▁klappen	-10811
▁bestrijden	-10812
▁Spanjaarden	-10813
OK	-10814
Bij	-10815
sterf	-10816
▁Hein	-10817
▁kart	-10818
▁veget	-10819
▁jongere	-10820
▁traditionele	-10821
▁fel	-10822
▁1996	-10823
▁peper	-10824
▁Sneeuw	-10825
▁reuzen	-10826
▁camping	-10827
▁ontwikkelingen	-10828
▁Kamp	-10829
▁rijen	-10830
lid	-10831
moed	-10832
▁Rol	-10833
brood	-10834
▁them	-10835
▁gecon	-10836
▁Little	-10837
▁beperkt	-10838
▁Benjamin	-10839
▁gecontrole	-10840
▁BR	-10841
xamen	-10842
▁Beat	-10843
▁Stal	-10844
▁Miller	-10845
▁100.000	-10846
▁aangelegd	-10847
daar	-10848
▁banaan	-10849
ossingen	-10850
▁scherpe	-10851
▁presiden	-10852
▁ongelukkig	-10853
▁Herm	-10854
▁Ross	-10855
▁Slag	-10856
▁Dennis	-10857
▁nieuwste	-10858
77	-10859
PS	-10860
iche	-10861
▁train	-10862
▁zieke	-10863
▁Jordan	-10864
▁drukte	-10865
▁nadelen	-10866
▁huisdier	-10867
ough	-10868
▁Bor	-10869
▁Hum	-10870
irurg	-10871
beleid	-10872
▁Ergens	-10873
▁Harold	-10874
▁besluiten	-10875
ci	-10876
ugel	-10877
▁3000	-10878
▁Past	-10879
arische	-10880
▁Margaret	-10881
▁betaalde	-10882
▁opzetten	-10883
ros	-10884
ient	-10885
model	-10886
grippen	-10887
▁robots	-10888
diensten	-10889
▁borsten	-10890
▁sug	-10891
▁Bren	-10892
▁Eten	-10893
kaarten	-10894
▁jungle	-10895
uigt	-10896
banken	-10897
gedragen	-10898
▁lunchen	-10899
▁Verander	-10900
▁originele	-10901
▁jur	-10902
lobal	-10903
▁glorie	-10904
bescherm	-10905
▁Stanley	-10906
▁Vrienden	-10907
▁verwijst	-10908
ffe	-10909
▁Centraal	-10910
▁kla	-10911
▁puur	-10912
▁blote	-10913
▁sloten	-10914
ues	-10915
▁oer	-10916
ertjes	-10917
korting	-10918
▁expert	-10919
▁smerige	-10920
▁jaarlijks	-10921
▁Tan	-10922
▁Cole	-10923
gaande	-10924
leiden	-10925
▁goeds	-10926
▁lichte	-10927
▁ontplo	-10928
▁rechte	-10929
delingen	-10930
▁broodje	-10931
▁Mem	-10932
▁one	-10933
appere	-10934
gooien	-10935
▁eeuwige	-10936
▁Engelsen	-10937
▁onged	-10938
▁opent	-10939
indy	-10940
▁run	-10941
▁menig	-10942
▁stoep	-10943
▁Plaats	-10944
▁practicum	-10945
ibr	-10946
▁Wed	-10947
grens	-10948
▁Evan	-10949
▁katoen	-10950
▁Persoon	-10951
▁bedenkt	-10952
▁evenveel	-10953
arao	-10954
▁baar	-10955
▁Feder	-10956
▁Vreemd	-10957
▁Der	-10958
ompen	-10959
oedend	-10960
▁aanleg	-10961
▁Verschillen	-10962
▁vertegenwoordig	-10963
▁Ie	-10964
alyse	-10965
streep	-10966
▁breek	-10967
▁opzet	-10968
▁snappen	-10969
▁weggaat	-10970
▁voorkant	-10971
▁Christian	-10972
▁bovendien	-10973
▁BB	-10974
accin	-10975
▁okee	-10976
▁leukste	-10977
▁klachten	-10978
▁Arabische	-10979
▁afsluiting	-10980
9.	-10981
▁sms	-10982
vechten	-10983
▁Junior	-10984
kwartier	-10985
▁geleefd	-10986
▁raakten	-10987
▁dringend	-10988
▁verpesten	-10989
▁verzekering	-10990
lig	-10991
gelegenheid	-10992
vaardigheid	-10993
vi	-10994
paard	-10995
vliegt	-10996
▁verdomd	-10997
▁kleintje	-10998
▁deelwoord	-10999
▁verzameling	-11000
-,	-11001
rob	-11002
wor	-11003
▁1)	-11004
eept	-11005
kins	-11006
▁DAG	-11007
▁Zom	-11008
aaier	-11009
▁gebl	-11010
▁inkt	-11011
▁Vindt	-11012
untje	-11013
▁alfab	-11014
▁opslag	-11015
▁katholieke	-11016
ho	-11017
▁DIE	-11018
malig	-11019
▁zong	-11020
gedachte	-11021
▁zwijgen	-11022
▁gedraagt	-11023
▁reddings	-11024
▁atmosfeer	-11025
▁concentreren	-11026
1-	-11027
▁etc	-11028
▁Blue	-11029
▁Love	-11030
▁stat	-11031
▁zestig	-11032
▁consumenten	-11033
▁uniek	-11034
standen	-11035
2-	-11036
leer	-11037
▁deeltjes	-11038
▁Vlaanderen	-11039
▁single	-11040
gisch	-11041
▁tandarts	-11042
▁zu	-11043
▁abs	-11044
rukken	-11045
▁Ander	-11046
▁sergeant	-11047
▁verschijn	-11048
ongfestival	-11049
▁Drent	-11050
▁Jonge	-11051
▁opgegroeid	-11052
acul	-11053
oker	-11054
▁Rocky	-11055
▁Vrede	-11056
▁luchthaven	-11057
▁11.	-11058
▁Guy	-11059
▁studeerde	-11060
8-	-11061
these	-11062
▁chips	-11063
▁Jersey	-11064
▁simpele	-11065
▁effecten	-11066
8.	-11067
▁Pru	-11068
ritor	-11069
▁1500	-11070
gevaar	-11071
roting	-11072
ulling	-11073
▁leeuwen	-11074
▁Ball	-11075
▁dronk	-11076
▁orkaan	-11077
▁Vrolijk	-11078
▁eronder	-11079
▁verzameld	-11080
zelen	-11081
▁what	-11082
▁White	-11083
geslagen	-11084
▁portret	-11085
▁verdrag	-11086
SE	-11087
▁Gi	-11088
▁Anast	-11089
rep	-11090
▁6,	-11091
▁Ul	-11092
▁Sak	-11093
cirkel	-11094
▁Colum	-11095
▁Artemis	-11096
73	-11097
blijf	-11098
▁Joep	-11099
▁Majoor	-11100
▁mislukt	-11101
▁GT	-11102
▁Vlak	-11103
wijfeld	-11104
▁promotie	-11105
ivia	-11106
lamp	-11107
Korea	-11108
▁Erik	-11109
elings	-11110
▁vakken	-11111
SCH	-11112
bom	-11113
zan	-11114
▁boe	-11115
icatie	-11116
▁Ellen	-11117
gebleven	-11118
▁illegaal	-11119
▁technische	-11120
orr	-11121
▁44	-11122
sels	-11123
▁12.	-11124
liver	-11125
iseerd	-11126
oegosl	-11127
▁ritme	-11128
▁Vlaamse	-11129
▁kruiden	-11130
▁opgevoed	-11131
▁Hongarije	-11132
Deze	-11133
geer	-11134
rukte	-11135
▁gepleegd	-11136
▁communistische	-11137
sz	-11138
▁_	-11139
▁christelijke	-11140
ply	-11141
▁VR	-11142
Toen	-11143
ouse	-11144
▁Tara	-11145
▁Zand	-11146
▁amus	-11147
aga	-11148
gat	-11149
oorn	-11150
▁Til	-11151
▁Morg	-11152
▁verze	-11153
▁biologische	-11154
yen	-11155
▁By	-11156
▁ket	-11157
▁gevoeld	-11158
▁commissie	-11159
agel	-11160
empl	-11161
▁Maggie	-11162
▁gezamen	-11163
▁schreeuwde	-11164
▁Ba	-11165
▁Day	-11166
▁Pac	-11167
enario	-11168
▁Senaat	-11169
▁toestel	-11170
▁achterin	-11171
▁onderhandelen	-11172
▁Wes	-11173
▁Good	-11174
▁League	-11175
gestuurd	-11176
▁opgegeven	-11177
▁gemeenteraad	-11178
▁GR	-11179
▁tik	-11180
▁Venet	-11181
▁Boston	-11182
▁commando	-11183
▁gebakken	-11184
▁arresteren	-11185
ettige	-11186
▁autos	-11187
▁molen	-11188
▁rugzak	-11189
▁eenheden	-11190
▁kleinste	-11191
uite	-11192
▁Cru	-11193
▁Hoo	-11194
ffende	-11195
▁monument	-11196
'?	-11197
balk	-11198
▁vacht	-11199
ituatie	-11200
zinnige	-11201
▁cowboy	-11202
▁rechtop	-11203
▁eerlijke	-11204
▁categorie	-11205
ko	-11206
▁Bad	-11207
loten	-11208
stalige	-11209
▁toename	-11210
▁mete	-11211
gingen	-11212
▁Daarin	-11213
▁zwangerschap	-11214
▁Noah	-11215
diging	-11216
▁losse	-11217
▁Aangezien	-11218
▁weggegaan	-11219
▁Belangrijk	-11220
▁organisaties	-11221
▁Dra	-11222
▁gok	-11223
vogels	-11224
▁Eerder	-11225
▁scoren	-11226
▁wissel	-11227
▁Jazeker	-11228
▁Italiaans	-11229
▁vertrouwt	-11230
55)	-11231
roet	-11232
▁Tob	-11233
bruik	-11234
jaren	-11235
▁velen	-11236
▁auditie	-11237
▁plakken	-11238
▁broeders	-11239
▁Dol	-11240
▁modern	-11241
▁Langzaam	-11242
Hé	-11243
lauwe	-11244
▁Zwee	-11245
westen	-11246
▁Parker	-11247
▁Bew	-11248
loopt	-11249
▁gelden	-11250
▁tijdperk	-11251
▁wetenschapper	-11252
zelig	-11253
▁Gram	-11254
▁quest	-11255
gerecht	-11256
▁Turkse	-11257
▁pijnlijk	-11258
obel	-11259
▁vermist	-11260
▁eis	-11261
▁wolk	-11262
▁wegkomt	-11263
▁verdacht	-11264
▁Kor	-11265
▁Lig	-11266
praten	-11267
▁onweer	-11268
beweging	-11269
▁herkent	-11270
▁afleiding	-11271
eline	-11272
rijke	-11273
▁boete	-11274
▁beters	-11275
▁Joegosl	-11276
▁Momentje	-11277
▁Kal	-11278
keurd	-11279
▁1950	-11280
▁mill	-11281
▁Hebbes	-11282
▁liefdes	-11283
▁versier	-11284
▁olifanten	-11285
▁middernacht	-11286
lon	-11287
rium	-11288
▁voorgoed	-11289
▁documenten	-11290
▁voorwaarde	-11291
Ben	-11292
▁Diego	-11293
▁Graaf	-11294
▁acties	-11295
▁staren	-11296
▁gekleed	-11297
ATER	-11298
▁curs	-11299
▁crimineel	-11300
▁vriendjes	-11301
▁Hog	-11302
▁Sean	-11303
▁Eugen	-11304
▁ploeg	-11305
▁stunt	-11306
▁viool	-11307
▁schoten	-11308
▁modellen	-11309
%.	-11310
The	-11311
ience	-11312
ijsten	-11313
▁Sally	-11314
▁gozer	-11315
▁kerken	-11316
▁afnemen	-11317
▁lijstje	-11318
▁maximale	-11319
vey	-11320
lein	-11321
▁Hup	-11322
▁Hank	-11323
▁feder	-11324
Na	-11325
▁eik	-11326
aasapp	-11327
▁Wester	-11328
▁Janneke	-11329
▁nachten	-11330
▁salaris	-11331
65	-11332
arc	-11333
ouch	-11334
▁Naam	-11335
▁hoorn	-11336
eedback	-11337
▁52	-11338
▁bod	-11339
ologen	-11340
▁slimmer	-11341
▁bevroren	-11342
▁Win	-11343
▁ret	-11344
▁Holl	-11345
▁Kong	-11346
▁Todd	-11347
▁Barry	-11348
▁reist	-11349
▁bemoeien	-11350
▁gevechten	-11351
▁gewelddad	-11352
▁interessante	-11353
uift	-11354
▁ich	-11355
▁Interess	-11356
▁uitgeschakeld	-11357
ón	-11358
▁fir	-11359
oedel	-11360
▁gereg	-11361
▁weegt	-11362
▁Wonder	-11363
alistisch	-11364
▁schatten	-11365
▁Uitstekend	-11366
▁Ms	-11367
ppig	-11368
ther	-11369
▁tempo	-11370
Brabant	-11371
ams	-11372
▁anti	-11373
▁prot	-11374
▁Joodse	-11375
▁beleven	-11376
▁Roemenië	-11377
▁uitkomst	-11378
▁gesprekken	-11379
);	-11380
tas	-11381
▁zonneb	-11382
oordeeld	-11383
▁planeten	-11384
▁buitenkant	-11385
▁Lk	-11386
selen	-11387
▁Degene	-11388
▁Muziek	-11389
▁moslims	-11390
▁popp	-11391
achines	-11392
▁Bepaal	-11393
ween	-11394
graaf	-11395
orpor	-11396
▁going	-11397
▁Carter	-11398
▁Sebast	-11399
▁invasie	-11400
▁overdag	-11401
▁afsluiten	-11402
81	-11403
zië	-11404
▁afk	-11405
ictie	-11406
▁Mand	-11407
otische	-11408
▁bewezen	-11409
▁instrumenten	-11410
MAT	-11411
hes	-11412
▁...(	-11413
gevers	-11414
▁IJsland	-11415
▁lichamen	-11416
▁cadeautje	-11417
▁regisseur	-11418
▁Marty	-11419
▁wijken	-11420
▁ontvangt	-11421
32	-11422
CE	-11423
▁67	-11424
waren	-11425
▁Verk	-11426
iteren	-11427
▁triest	-11428
▁bijvoeg	-11429
med	-11430
▁Mah	-11431
beste	-11432
▁ongem	-11433
▁aanged	-11434
▁doodde	-11435
▁Captain	-11436
▁Minister	-11437
loyd	-11438
sper	-11439
▁Rub	-11440
▁Vis	-11441
▁besmet	-11442
▁hardop	-11443
▁tevens	-11444
▁Jonathan	-11445
aph	-11446
adden	-11447
▁Gast	-11448
▁riem	-11449
▁Negen	-11450
▁barst	-11451
▁Lauren	-11452
▁luisterde	-11453
▁vrouwtjes	-11454
okkel	-11455
serie	-11456
▁snij	-11457
▁dynam	-11458
▁aanpak	-11459
▁batterij	-11460
▁herhalen	-11461
▁opvatting	-11462
STE	-11463
▁Hè	-11464
ition	-11465
▁Spart	-11466
▁koloniën	-11467
▁samenstelling	-11468
wie	-11469
pect	-11470
▁Hoge	-11471
▁Vecht	-11472
verwege	-11473
▁beheersen	-11474
▁vlek	-11475
▁beleg	-11476
▁optie	-11477
istorie	-11478
▁bezitt	-11479
▁folder	-11480
▁rotsen	-11481
▁schand	-11482
stip	-11483
unch	-11484
▁Juan	-11485
▁Zwij	-11486
▁spot	-11487
▁bombar	-11488
▁Mickey	-11489
▁huishouden	-11490
▁gecontroleerd	-11491
▁Il	-11492
haalt	-11493
▁script	-11494
▁Caroline	-11495
buis	-11496
ucky	-11497
▁Gor	-11498
▁1900	-11499
▁Jenny	-11500
▁spuit	-11501
▁kunstwerk	-11502
▁verklaard	-11503
iening	-11504
▁Frederik	-11505
▁doorbrengen	-11506
▁geschrokken	-11507
▁uitgebracht	-11508
82	-11509
meth	-11510
ydro	-11511
▁sym	-11512
▁Bouw	-11513
acteur	-11514
▁huren	-11515
▁gevierd	-11516
▁inzicht	-11517
▁momentje	-11518
▁biz	-11519
▁zun	-11520
▁Lake	-11521
▁plaf	-11522
emonie	-11523
selier	-11524
wijzer	-11525
▁jasje	-11526
▁stoor	-11527
rachten	-11528
▁opgehangen	-11529
▁Kus	-11530
▁oogst	-11531
behoren	-11532
▁psychi	-11533
▁Hierheen	-11534
IEK	-11535
iko	-11536
▁Lam	-11537
▁cla	-11538
▁Ford	-11539
ialisme	-11540
Te	-11541
kerk	-11542
dicht	-11543
drank	-11544
▁Zoon	-11545
daagse	-11546
argument	-11547
▁verkrij	-11548
productie	-11549
▁stierven	-11550
▁Binnenkort	-11551
▁grondstoffen	-11552
UT	-11553
dog	-11554
hai	-11555
▁PS	-11556
▁Bag	-11557
▁Evel	-11558
▁zeilen	-11559
▁honkbal	-11560
essie	-11561
▁loog	-11562
▁bevor	-11563
▁chocola	-11564
▁grappige	-11565
▁architect	-11566
▁geruchten	-11567
glas	-11568
huid	-11569
ienst	-11570
ruikt	-11571
▁Laatste	-11572
▁passende	-11573
▁tentoonstelling	-11574
tw	-11575
hier	-11576
urig	-11577
▁ouderen	-11578
▁veertig	-11579
Misschien	-11580
▁verzorgd	-11581
▁dra	-11582
ijpen	-11583
▁reserv	-11584
▁schitterend	-11585
ws	-11586
▁ü	-11587
▁Ral	-11588
slang	-11589
▁Maat	-11590
▁Voet	-11591
▁drukt	-11592
▁schep	-11593
▁Onthoud	-11594
▁Facebook	-11595
▁lieveling	-11596
ited	-11597
wekt	-11598
▁Taal	-11599
▁gezinnen	-11600
jonge	-11601
vroeg	-11602
▁Dw	-11603
▁VVD	-11604
▁Molly	-11605
▁Vorige	-11606
▁Zitten	-11607
▁ladder	-11608
71	-11609
uge	-11610
▁64	-11611
ührer	-11612
▁Golf	-11613
▁accent	-11614
▁bewaar	-11615
▁verschenen	-11616
▁meegebracht	-11617
offie	-11618
werper	-11619
▁Regel	-11620
▁nabij	-11621
▁onderaan	-11622
CO	-11623
▁ikke	-11624
hedraal	-11625
▁opkomst	-11626
▁gewoonte	-11627
▁ontdekking	-11628
▁belastingen	-11629
▁Gev	-11630
aller	-11631
basis	-11632
itaire	-11633
▁daden	-11634
▁Tsjech	-11635
▁exempl	-11636
▁noodzakelijk	-11637
oogt	-11638
▁ruggen	-11639
▁volume	-11640
▁relatief	-11641
▁origineel	-11642
▁leerkracht	-11643
▁bijeenkomst	-11644
▁Pel	-11645
▁ijsk	-11646
▁offer	-11647
▁stadje	-11648
▁jaarlijkse	-11649
▁overstromingen	-11650
5.	-11651
bos	-11652
▁Sie	-11653
▁kapper	-11654
▁hypothe	-11655
▁oprecht	-11656
▁redding	-11657
via	-11658
mpel	-11659
▁eic	-11660
centra	-11661
▁Ethan	-11662
▁jager	-11663
▁blinde	-11664
▁omheen	-11665
▁verhuisd	-11666
▁constante	-11667
Kl	-11668
▁Raf	-11669
▁Syd	-11670
▁muts	-11671
▁exact	-11672
▁labor	-11673
▁Lucius	-11674
MA	-11675
arbeid	-11676
▁gemen	-11677
ariteit	-11678
oordelen	-11679
▁veiliger	-11680
▁afgenomen	-11681
▁toevoegen	-11682
▁zoektocht	-11683
aiss	-11684
▁Lil	-11685
▁Iran	-11686
▁pappa	-11687
zijdank	-11688
▁Familie	-11689
▁verloopt	-11690
▁gekleurde	-11691
▁uitstekend	-11692
ër	-11693
klas	-11694
▁Wol	-11695
▁kub	-11696
▁Ruben	-11697
▁genen	-11698
▁heksen	-11699
▁afgebroken	-11700
▁Cir	-11701
▁hip	-11702
▁Andr	-11703
▁Beer	-11704
▁enge	-11705
terwijl	-11706
▁vervoeren	-11707
▁christenen	-11708
▁Kennisbankitem	-11709
rus	-11710
▁big	-11711
▁Wint	-11712
▁char	-11713
udding	-11714
▁opera	-11715
▁cheque	-11716
▁schaar	-11717
▁beschuld	-11718
▁aangesloten	-11719
▁vooruitgang	-11720
lock	-11721
twee	-11722
▁Fab	-11723
▁Cher	-11724
koppen	-11725
▁pesten	-11726
eman	-11727
▁aanhang	-11728
▁gevaren	-11729
▁vrijgez	-11730
III	-11731
▁mal	-11732
fensie	-11733
▁redde	-11734
spiegel	-11735
▁Mohamm	-11736
▁hoofdpijn	-11737
▁schreeuwt	-11738
▁{	-11739
merk	-11740
ries	-11741
wijst	-11742
▁kaal	-11743
▁gehand	-11744
▁morgens	-11745
.,	-11746
day	-11747
▁Thuis	-11748
machtig	-11749
▁Rechts	-11750
straling	-11751
▁ochtends	-11752
▁onschuldige	-11753
flatie	-11754
tering	-11755
▁zesde	-11756
▁gevlucht	-11757
vuur	-11758
▁Krab	-11759
▁opgr	-11760
▁ofwel	-11761
▁steeg	-11762
▁drieën	-11763
▁uitkomt	-11764
▁Parlement	-11765
▁Sub	-11766
▁1940	-11767
▁schrok	-11768
▁continu	-11769
▁eindigde	-11770
▁veroverd	-11771
▁Det	-11772
▁wijz	-11773
akelijk	-11774
▁uitmaken	-11775
▁plaatsvinden	-11776
▁>	-11777
aud	-11778
imo	-11779
▁ln	-11780
▁Tai	-11781
chnie	-11782
▁mech	-11783
▁Nathan	-11784
▁belangen	-11785
▁hersteld	-11786
▁sollicit	-11787
▁sterkste	-11788
▁websites	-11789
▁grotendeels	-11790
▁verbranding	-11791
cur	-11792
▁Pin	-11793
▁mix	-11794
shirt	-11795
ummers	-11796
▁oneer	-11797
▁inzetten	-11798
▁economisch	-11799
▁Verschillende	-11800
spe	-11801
emin	-11802
ading	-11803
oogde	-11804
▁daalt	-11805
familie	-11806
▁Totaal	-11807
▁gekost	-11808
▁dokters	-11809
▁beïnvloeden	-11810
▁cab	-11811
ooter	-11812
▁Abel	-11813
▁Zegt	-11814
▁takken	-11815
▁zelden	-11816
hanistan	-11817
▁Suriname	-11818
▁afgebeeld	-11819
ela	-11820
derde	-11821
▁vlam	-11822
▁Willy	-11823
▁nucle	-11824
▁verte	-11825
▁vestig	-11826
▁So	-11827
▁160	-11828
▁under	-11829
▁vleerm	-11830
▁negeren	-11831
▁gezongen	-11832
▁uitvinding	-11833
ador	-11834
▁haai	-11835
▁Hawaï	-11836
▁Opzij	-11837
▁stout	-11838
bedrijven	-11839
▁litteken	-11840
▁vierkant	-11841
▁walgelijk	-11842
▁beschrijft	-11843
ierp	-11844
▁lek	-11845
▁rijd	-11846
Jullie	-11847
▁leuks	-11848
handeling	-11849
part	-11850
▁Allen	-11851
▁kudde	-11852
▁schudt	-11853
▁fluisterde	-11854
belt	-11855
daan	-11856
▁poë	-11857
▁1989	-11858
▁padden	-11859
▁53	-11860
▁Rosa	-11861
iviteit	-11862
▁Hetzelfde	-11863
▁behorende	-11864
▁overgeven	-11865
▁Amb	-11866
▁Kit	-11867
▁Puck	-11868
▁Spijt	-11869
▁Zowel	-11870
▁danst	-11871
▁dozen	-11872
▁gewen	-11873
zoekers	-11874
▁compon	-11875
▁écht	-11876
▁Geest	-11877
ificeerd	-11878
▁innemen	-11879
allieerden	-11880
▁Goedenacht	-11881
ondon	-11882
▁North	-11883
chnieken	-11884
brengt	-11885
▁uitgeput	-11886
▁strategie	-11887
▁examenvragen	-11888
uma	-11889
▁41	-11890
▁Hulp	-11891
▁typen	-11892
▁vrijk	-11893
▁baarmoeder	-11894
quent	-11895
temon	-11896
▁Lind	-11897
rechter	-11898
▁bewustzijn	-11899
▁toepassing	-11900
▁Afghanistan	-11901
▁Bow	-11902
▁Dirk	-11903
▁stief	-11904
▁zonlicht	-11905
▁soft	-11906
▁Komen	-11907
▁intens	-11908
▁zuidelijke	-11909
uttle	-11910
▁Mocht	-11911
▁Stark	-11912
▁energ	-11913
akantie	-11914
izigers	-11915
▁schedel	-11916
▁achterste	-11917
▁verdragen	-11918
▁oplossingen	-11919
iami	-11920
dheid	-11921
zamen	-11922
▁Nacht	-11923
▁50.000	-11924
▁dollars	-11925
▁loslaten	-11926
▁zeldzaam	-11927
▁uitzondering	-11928
▁Boris	-11929
▁therm	-11930
gebonden	-11931
istratie	-11932
▁beweert	-11933
▁zó	-11934
▁Mond	-11935
scherm	-11936
▁handje	-11937
▁kandidaten	-11938
▁Lok	-11939
▁Mün	-11940
utsch	-11941
▁piraat	-11942
▁vochten	-11943
▁bovenaan	-11944
▁stelletje	-11945
40)	-11946
vere	-11947
▁Marcel	-11948
▁verval	-11949
▁motoren	-11950
▁ingevoerd	-11951
▁krist	-11952
leveren	-11953
▁Attentie	-11954
▁indeling	-11955
▁weigerde	-11956
ey	-11957
ieso	-11958
▁Azi	-11959
▁Loc	-11960
▁Baas	-11961
▁moeras	-11962
▁vooraan	-11963
Nederland	-11964
▁Im	-11965
▁Mass	-11966
▁Storm	-11967
▁Argentinië	-11968
▁tat	-11969
▁Kant	-11970
▁absol	-11971
▁gesticht	-11972
▁twintigste	-11973
fouten	-11974
▁zielen	-11975
▁Present	-11976
▁frequentie	-11977
UM	-11978
Aan	-11979
▁1992	-11980
▁Idioot	-11981
▁aspect	-11982
▁gestraft	-11983
▁gewoonlijk	-11984
▁rib	-11985
▁Code	-11986
▁loge	-11987
▁vang	-11988
▁beken	-11989
▁eiwit	-11990
▁varia	-11991
elijken	-11992
gesprek	-11993
▁Democr	-11994
▁Turner	-11995
▁verschuldigd	-11996
▁(20	-11997
▁1994	-11998
▁Joris	-11999
▁Spider	-12000
vermogen	-12001
▁keihard	-12002
nel	-12003
gedr	-12004
▁Vat	-12005
roten	-12006
▁dram	-12007
▁Raymond	-12008
▁tomaten	-12009
▁meningen	-12010
▁sprookjes	-12011
▁daarbuiten	-12012
▁teruggekomen	-12013
42)	-12014
▁Ast	-12015
kunnen	-12016
▁deken	-12017
▁typisch	-12018
▁ministers	-12019
isy	-12020
▁Zien	-12021
▁dwerg	-12022
▁patroon	-12023
▁competitie	-12024
▁militairen	-12025
aldo	-12026
▁Glen	-12027
▁Pearl	-12028
▁racen	-12029
▁onduidelijk	-12030
▁plattegrond	-12031
200	-12032
aps	-12033
▁Vik	-12034
▁wijf	-12035
▁knopen	-12036
▁omvang	-12037
▁uitweg	-12038
▁Bull	-12039
innetje	-12040
▁spraken	-12041
▁briljant	-12042
▁aardappel	-12043
▁gevestigd	-12044
osh	-12045
▁auf	-12046
Zeeland	-12047
▁zonden	-12048
▁deels	-12049
▁gunst	-12050
▁herrie	-12051
ades	-12052
▁(155	-12053
▁NAAR	-12054
▁garn	-12055
wering	-12056
▁bedraagt	-12057
▁hartslag	-12058
▁vruchten	-12059
box	-12060
▁VW	-12061
icky	-12062
▁afw	-12063
filmd	-12064
zijds	-12065
apende	-12066
▁Freddy	-12067
▁volkeren	-12068
6.	-12069
▁aqu	-12070
▁gecom	-12071
▁naamwoorden	-12072
fun	-12073
igan	-12074
▁Isa	-12075
▁wél	-12076
▁tege	-12077
▁Derde	-12078
▁Miami	-12079
▁Rijden	-12080
▁wielen	-12081
▁Lach	-12082
▁Ralph	-12083
▁geres	-12084
▁afleiden	-12085
▁aantrekken	-12086
▁Es	-12087
span	-12088
▁Nad	-12089
▁klem	-12090
▁evacu	-12091
▁Arnold	-12092
▁achteraan	-12093
Amerikaanse	-12094
cker	-12095
anisme	-12096
▁Vorig	-12097
olgd	-12098
▁Syl	-12099
▁pel	-12100
alender	-12101
▁overleeft	-12102
ng	-12103
able	-12104
▁var	-12105
▁Edel	-12106
▁Nikki	-12107
▁schijf	-12108
▁diegene	-12109
▁wisselen	-12110
▁Friesland	-12111
▁jarenlang	-12112
ju	-12113
aux	-12114
sky	-12115
▁(=	-12116
verv	-12117
▁Saar	-12118
▁spect	-12119
▁artsen	-12120
▁koppel	-12121
▁artiest	-12122
▁zenuwstelsel	-12123
BS	-12124
-200	-12125
ummie	-12126
▁vamp	-12127
owieso	-12128
▁keertje	-12129
▁Inleiding	-12130
▁pH	-12131
slid	-12132
▁Squ	-12133
▁Grond	-12134
▁zilveren	-12135
▁oeh	-12136
▁Lanc	-12137
▁mest	-12138
▁pick	-12139
▁besef	-12140
▁collage	-12141
▁misselijk	-12142
▁overdreven	-12143
▁(53	-12144
▁Leeuw	-12145
▁Vlucht	-12146
▁geladen	-12147
vertrouwen	-12148
▁noordelijke	-12149
,2	-12150
▁0,5	-12151
▁blz	-12152
celona	-12153
▁koets	-12154
▁papeg	-12155
▁Grappig	-12156
▁groenten	-12157
▁geslachts	-12158
ppe	-12159
▁Lever	-12160
▁jawel	-12161
▁Pic	-12162
▁arrog	-12163
▁verse	-12164
▁partic	-12165
▁besteld	-12166
▁talenten	-12167
omo	-12168
▁prikk	-12169
▁Vandaar	-12170
▁stabiel	-12171
▁ziektes	-12172
▁tegemoet	-12173
▁verschilt	-12174
▁4:	-12175
▁use	-12176
▁ruimt	-12177
▁beschaving	-12178
lip	-12179
▁cola	-12180
erveerd	-12181
▁smelten	-12182
▁ontslaan	-12183
▁opwinden	-12184
▁portemon	-12185
▁Jay	-12186
▁pool	-12187
▁vierk	-12188
▁waarderen	-12189
ican	-12190
▁Ree	-12191
▁Ruth	-12192
wapens	-12193
▁Domin	-12194
▁Karen	-12195
▁Stalin	-12196
▁inheem	-12197
▁regenen	-12198
▁diamanten	-12199
▁Gelderland	-12200
▁rechtszaak	-12201
uwd	-12202
▁Theod	-12203
▁schop	-12204
▁keerde	-12205
▁Kareltje	-12206
rou	-12207
bele	-12208
bels	-12209
wind	-12210
▁mmm	-12211
▁plafond	-12212
▁festival	-12213
▁Wim	-12214
▁Waal	-12215
graven	-12216
uzalem	-12217
▁miste	-12218
▁column	-12219
ZE	-12220
iev	-12221
rupt	-12222
▁Bella	-12223
▁Jonas	-12224
▁griep	-12225
▁Leiden	-12226
▁heuvels	-12227
▁zochten	-12228
▁Sindsdien	-12229
94	-12230
OW	-12231
ancy	-12232
▁Raven	-12233
▁gillen	-12234
voorzien	-12235
▁fortuin	-12236
▁illustr	-12237
▁Waarover	-12238
▁bacterie	-12239
▁kerstman	-12240
▁daarnaast	-12241
▁CH	-12242
kind	-12243
handig	-12244
▁weigeren	-12245
▁(14	-12246
▁Huh	-12247
▁prim	-12248
kleden	-12249
▁Alban	-12250
▁Ineens	-12251
▁verwel	-12252
▁comfort	-12253
▁druppel	-12254
▁mankeert	-12255
▁Anastasius	-12256
▁onverwacht	-12257
▁vertrouwde	-12258
▁voorouders	-12259
▁verwachting	-12260
AC	-12261
▁Cit	-12262
▁Groeps	-12263
anningen	-12264
wedstrijden	-12265
osf	-12266
▁install	-12267
▁bereiden	-12268
▁hoofdrol	-12269
▁amm	-12270
▁dop	-12271
redit	-12272
▁gran	-12273
▁schoor	-12274
▁vleugel	-12275
▁Cre	-12276
▁Eng	-12277
▁Iron	-12278
▁hakken	-12279
▁overleg	-12280
▁trommel	-12281
▁vernieuw	-12282
cium	-12283
iler	-12284
ière	-12285
▁OVER	-12286
▁lampen	-12287
▁razend	-12288
▁zolder	-12289
▁schamen	-12290
▁trainer	-12291
problemen	-12292
▁uitmaakt	-12293
▁verlopen	-12294
▁communiceren	-12295
▁iP	-12296
dijk	-12297
lozen	-12298
urger	-12299
▁Brits	-12300
keurige	-12301
▁gemerkt	-12302
verzekering	-12303
▁mug	-12304
Indië	-12305
aders	-12306
groei	-12307
ootjes	-12308
▁Wemel	-12309
▁meren	-12310
▁Marshall	-12311
▁verminder	-12312
ée	-12313
jan	-12314
▁(70	-12315
▁Mill	-12316
▁Micro	-12317
terings	-12318
verslag	-12319
▁Carlos	-12320
▁tekent	-12321
.000.000	-12322
▁gebeden	-12323
▁menigte	-12324
▁Els	-12325
▁Tik	-12326
ustin	-12327
▁will	-12328
versch	-12329
▁vrijen	-12330
▁onsterf	-12331
mmet	-12332
stone	-12333
▁Commun	-12334
▁lokken	-12335
▁nuttel	-12336
▁geweren	-12337
▁feedback	-12338
▁Werkelijk	-12339
▁pie	-12340
uning	-12341
▁spoel	-12342
▁verwond	-12343
92	-12344
▁Shang	-12345
▁wandeling	-12346
▁ped	-12347
▁Fuck	-12348
▁contra	-12349
▁puinhoop	-12350
zitt	-12351
▁Delta	-12352
attingen	-12353
▁verloop	-12354
ondergang	-12355
▁bijbehoren	-12356
hebber	-12357
slanden	-12358
uminium	-12359
▁Liefje	-12360
▁lokaal	-12361
▁Chinezen	-12362
▁sinaasapp	-12363
kar	-12364
wol	-12365
▁Web	-12366
Nieuw	-12367
droom	-12368
▁drum	-12369
▁extre	-12370
▁laken	-12371
▁Cooper	-12372
▁Sergius	-12373
▁Williams	-12374
▁terroristen	-12375
Chr	-12376
ppels	-12377
▁afwez	-12378
▁naald	-12379
▁gehakt	-12380
**	-12381
TEN	-12382
wart	-12383
▁know	-12384
ionale	-12385
iveren	-12386
stoelen	-12387
▁speech	-12388
achtigen	-12389
centrale	-12390
▁Drenthe	-12391
▁Honorius	-12392
ely	-12393
▁sa	-12394
▁ye	-12395
video	-12396
document	-12397
▁Honderd	-12398
▁krediet	-12399
entwintig	-12400
▁ingenomen	-12401
▁terugbrengen	-12402
MATE	-12403
▁Rat	-12404
icale	-12405
urige	-12406
▁gids	-12407
▁haan	-12408
gedame	-12409
▁IJssel	-12410
▁harten	-12411
▁nadeel	-12412
▁Broeder	-12413
▁Eugenius	-12414
▁Mohammed	-12415
▁overeenkomsten	-12416
jen	-12417
drie	-12418
▁Org	-12419
▁Cath	-12420
▁onaan	-12421
▁dorpje	-12422
▁dappere	-12423
▁Christen	-12424
▁berekend	-12425
▁winkelen	-12426
jewel	-12427
storm	-12428
▁Adem	-12429
▁bied	-12430
▁wijd	-12431
▁Roose	-12432
gehalte	-12433
▁Führer	-12434
▁vallei	-12435
▁douchen	-12436
▁uitgeven	-12437
▁deelnemers	-12438
▁AF	-12439
▁bast	-12440
reking	-12441
▁braaf	-12442
▁hapje	-12443
▁frisse	-12444
▁sowieso	-12445
LIE	-12446
abl	-12447
▁51	-12448
acties	-12449
▁Louise	-12450
▁hinder	-12451
▁snelste	-12452
▁versieren	-12453
▁eigenschap	-12454
SP	-12455
4-9	-12456
cal	-12457
iod	-12458
bevel	-12459
▁porn	-12460
gezond	-12461
▁deelt	-12462
▁football	-12463
▁handdoek	-12464
▁majesteit	-12465
olo	-12466
▁cat	-12467
▁durfde	-12468
▁gelukkige	-12469
▁opgevolgd	-12470
rif	-12471
pels	-12472
wets	-12473
▁Zsa	-12474
megen	-12475
▁Zeus	-12476
niveau	-12477
branden	-12478
▁expres	-12479
▁opgezet	-12480
▁paradijs	-12481
▁verhogen	-12482
▁ondergoed	-12483
▁Samenvatten	-12484
▁antwoordblad	-12485
-5	-12486
vy	-12487
dis	-12488
roen	-12489
▁borden	-12490
▁vereist	-12491
▁verveel	-12492
▁krokodil	-12493
▁verbouwen	-12494
icten	-12495
iving	-12496
▁koor	-12497
▁lijm	-12498
▁London	-12499
▁reserve	-12500
▁zijkant	-12501
▁schoppen	-12502
▁webquest	-12503
▁vrijwilligers	-12504
yc	-12505
PLAY	-12506
▁Riv	-12507
▁bio	-12508
▁rok	-12509
alling	-12510
▁Tomas	-12511
▁brede	-12512
▁alsnog	-12513
▁buigen	-12514
▁gebonden	-12515
▁selectie	-12516
▁communisme	-12517
▁Democratische	-12518
▁bud	-12519
aturen	-12520
▁Wenen	-12521
▁moois	-12522
▁wenst	-12523
▁bijbel	-12524
▁dieven	-12525
▁schaatsen	-12526
▁Yeah	-12527
▁mini	-12528
▁pijlen	-12529
PLAYMATE	-12530
▁scheids	-12531
▁Barcelona	-12532
BE	-12533
▁Vij	-12534
▁Vit	-12535
▁Jaar	-12536
▁stuw	-12537
▁ertoe	-12538
▁bedrijfs	-12539
sid	-12540
▁Bah	-12541
uurde	-12542
▁20.000	-12543
▁chromos	-12544
▁concept	-12545
▁Id	-12546
▁Kru	-12547
aagden	-12548
ilderd	-12549
▁Grieks	-12550
▁Schiphol	-12551
▁geoefend	-12552
▁Bosn	-12553
cultuur	-12554
▁onderhoud	-12555
▁veroorloven	-12556
▁moeilijkheden	-12557
hulp	-12558
hydr	-12559
▁Ale	-12560
▁droomde	-12561
geschreven	-12562
▁Uiteraard	-12563
▁regenwoud	-12564
▁hoeveelheden	-12565
hor	-12566
ronk	-12567
▁1848	-12568
dement	-12569
▁Toets	-12570
▁gigantische	-12571
▁ZO	-12572
▁"""	-12573
iness	-12574
▁slet	-12575
▁Opstaan	-12576
▁spellen	-12577
ople	-12578
▁Pim	-12579
▁Sad	-12580
▁matr	-12581
result	-12582
▁egoïst	-12583
▁zonsop	-12584
▁munitie	-12585
▁bevriend	-12586
▁eiwitten	-12587
▁beledigen	-12588
fer	-12589
icks	-12590
▁Daw	-12591
▁Hof	-12592
▁Bast	-12593
▁Vuile	-12594
▁bruik	-12595
▁gebed	-12596
▁mieren	-12597
▁hoofdgedachte	-12598
▁vergelijkbaar	-12599
oda	-12600
Laat	-12601
ciale	-12602
▁Gran	-12603
▁WAAR	-12604
▁dieet	-12605
▁hecht	-12606
eedschap	-12607
▁bananen	-12608
▁bijnaam	-12609
▁woedend	-12610
▁Jeruzalem	-12611
oz	-12612
zuig	-12613
▁pal	-12614
▁Quint	-12615
▁aansch	-12616
▁legers	-12617
▁raadsel	-12618
▁schrikt	-12619
▁doorgaat	-12620
▁enzovoort	-12621
és	-12622
verh	-12623
verz	-12624
▁Bir	-12625
gooid	-12626
▁Apol	-12627
▁Apple	-12628
▁Count	-12629
▁Europe	-12630
▁Frankie	-12631
▁spoorlijn	-12632
▁uitvoering	-12633
ral	-12634
nede	-12635
▁lee	-12636
▁Champ	-12637
▁omroep	-12638
▁premie	-12639
▁dichtst	-12640
▁Nietwaar	-12641
▁spannende	-12642
bijvoorbeeld	-12643
sess	-12644
▁cong	-12645
▁strijden	-12646
▁avonturen	-12647
▁uiteraard	-12648
UK	-12649
án	-12650
▁AR	-12651
osis	-12652
elson	-12653
uider	-12654
ynast	-12655
▁Bush	-12656
▁pols	-12657
▁teen	-12658
▁Roosevelt	-12659
▁fluistert	-12660
▁kwetsbaar	-12661
▁vermoeden	-12662
▁bijbehorende	-12663
urn	-12664
fase	-12665
▁Viv	-12666
▁Zach	-12667
▁besteed	-12668
▁bewaakt	-12669
▁Superman	-12670
▁geleverd	-12671
▁Nationaal	-12672
▁Middellandse	-12673
▁ongelofelijk	-12674
Re	-12675
oter	-12676
▁Dyl	-12677
▁Steen	-12678
▁diale	-12679
oeiende	-12680
▁agenda	-12681
▁schoft	-12682
▁trillen	-12683
golf	-12684
wijde	-12685
▁faill	-12686
▁aankomt	-12687
▁herhaal	-12688
▁logeren	-12689
▁Waarheen	-12690
▁terugkeer	-12691
▁dagelijkse	-12692
Vol	-12693
top	-12694
elpen	-12695
▁East	-12696
sturen	-12697
▁Katie	-12698
▁richtte	-12699
▁voertuig	-12700
▁weghalen	-12701
abul	-12702
kies	-12703
▁Sig	-12704
▁Leuke	-12705
▁Werkt	-12706
▁verlo	-12707
▁Zouden	-12708
▁gegroeid	-12709
▁Sof	-12710
ftige	-12711
▁Oliver	-12712
▁bloedvaten	-12713
,7	-12714
hoed	-12715
▁Fig	-12716
▁Leef	-12717
▁PvdA	-12718
▁cake	-12719
▁harm	-12720
▁busje	-12721
▁Zuster	-12722
▁Galerij	-12723
▁trekker	-12724
▁vergroten	-12725
▁aansluiten	-12726
▁back	-12727
▁Totdat	-12728
gestoken	-12729
▁vorming	-12730
▁indrukwekkend	-12731
▁KN	-12732
▁bab	-12733
ookte	-12734
zender	-12735
▁charm	-12736
▁Eentje	-12737
▁kletsen	-12738
▁filosofie	-12739
▁Commandant	-12740
▁ontwikkelde	-12741
map	-12742
lengte	-12743
ptomen	-12744
▁maling	-12745
▁benoemd	-12746
▁Thailand	-12747
▁beweringen	-12748
▁000	-12749
▁Kid	-12750
▁gruw	-12751
▁worm	-12752
▁Servië	-12753
▁Welnee	-12754
▁aanbid	-12755
▁tekens	-12756
▁klikken	-12757
▁Antwoord	-12758
▁district	-12759
▁fotograaf	-12760
▁kilometers	-12761
uppy	-12762
▁Wiss	-12763
▁Liber	-12764
▁godin	-12765
▁Hoorde	-12766
▁Madrid	-12767
▁voerde	-12768
▁Meisjes	-12769
▁vlammen	-12770
▁Waardoor	-12771
▁toegepast	-12772
▁verbinden	-12773
▁Joegoslavië	-12774
kamers	-12775
▁onrecht	-12776
▁opkomen	-12777
▁goedkope	-12778
▁ingevuld	-12779
▁overheer	-12780
▁internationaal	-12781
▁Kast	-12782
koeken	-12783
▁Houdt	-12784
onsieur	-12785
telefoon	-12786
▁diamant	-12787
werkelijk	-12788
▁Goedemiddag	-12789
▁spreekbeurt	-12790
▁zonsondergang	-12791
ualiteit	-12792
▁coördinaten	-12793
omstandigheden	-12794
iona	-12795
plek	-12796
▁Gijs	-12797
▁Apollo	-12798
▁remmen	-12799
▁vijver	-12800
▁regeren	-12801
▁Si	-12802
oster	-12803
▁Ogen	-12804
▁schut	-12805
▁Bereid	-12806
woordige	-12807
▁ridders	-12808
28	-12809
aki	-12810
▁fit	-12811
spire	-12812
anners	-12813
▁verrot	-12814
▁conserv	-12815
▁contain	-12816
▁culturele	-12817
▁loy	-12818
niken	-12819
▁...,	-12820
▁Jules	-12821
▁doorb	-12822
▁Morris	-12823
▁stinken	-12824
▁tevoren	-12825
AF	-12826
weken	-12827
▁from	-12828
▁South	-12829
▁Voort	-12830
▁Arnhem	-12831
▁Cornel	-12832
▁fantas	-12833
▁majoor	-12834
▁voorbe	-12835
▁praatte	-12836
▁slechtste	-12837
eralen	-12838
▁voorhoofd	-12839
▁religieuze	-12840
37	-12841
uer	-12842
▁Gh	-12843
head	-12844
▁sne	-12845
woner	-12846
▁mees	-12847
gangers	-12848
issaris	-12849
▁grazen	-12850
afdeling	-12851
▁Finland	-12852
▁betrapt	-12853
▁publieke	-12854
▁seksuele	-12855
▁ontploffen	-12856
olis	-12857
▁Aar	-12858
▁Bin	-12859
▁Zen	-12860
schoon	-12861
waarom	-12862
▁natie	-12863
▁mijnen	-12864
controle	-12865
▁scenario	-12866
▁Cindy	-12867
vormige	-12868
▁pikken	-12869
▁vliegende	-12870
▁grondgebied	-12871
▁mad	-12872
▁Minist	-12873
▁duurder	-12874
▁kikkers	-12875
▁verklaart	-12876
NEN	-12877
mere	-12878
▁Leid	-12879
▁drama	-12880
▁Aantal	-12881
▁Connor	-12882
▁rebellen	-12883
▁verzamel	-12884
▁kwijtgeraakt	-12885
▁NE	-12886
imus	-12887
chester	-12888
racties	-12889
▁Duidelijk	-12890
▁zoogdieren	-12891
Don	-12892
▁ehm	-12893
▁voc	-12894
periode	-12895
▁Aanbod	-12896
▁melodie	-12897
▁opdagen	-12898
ynn	-12899
▁mr	-12900
▁ALS	-12901
▁inb	-12902
▁LATER	-12903
▁blond	-12904
▁migratie	-12905
▁ervaringen	-12906
...)	-12907
▁Ian	-12908
zocht	-12909
▁Canade	-12910
molen	-12911
uiker	-12912
▁Alas	-12913
▁Drag	-12914
▁verp	-12915
▁Brave	-12916
ynthese	-12917
▁Groene	-12918
▁bitter	-12919
▁eventuele	-12920
▁onderhouden	-12921
ét	-12922
type	-12923
aasje	-12924
▁quiz	-12925
▁ruit	-12926
▁über	-12927
zeggen	-12928
▁Tokio	-12929
▁revol	-12930
▁opties	-12931
Europese	-12932
▁uitgekozen	-12933
▁opschrijven	-12934
27)	-12935
iling	-12936
route	-12937
▁Mess	-12938
▁Award	-12939
▁Studio	-12940
▁staken	-12941
▁discuss	-12942
▁tijdstip	-12943
▁belangrijks	-12944
▁VOC	-12945
▁onn	-12946
▁teef	-12947
▁Enter	-12948
▁Gordon	-12949
▁huilde	-12950
ettingen	-12951
▁Kay	-12952
▁Nik	-12953
▁Vres	-12954
rusten	-12955
ukkels	-12956
▁Dylan	-12957
wijking	-12958
erspelen	-12959
▁Atlantische	-12960
▁voortplanting	-12961
▁Poe	-12962
▁mast	-12963
arisch	-12964
stigen	-12965
▁Latijn	-12966
▁hypotheek	-12967
nood	-12968
▁Hugo	-12969
▁zoen	-12970
▁Merel	-12971
▁krijger	-12972
▁schudde	-12973
▁opletten	-12974
▁zeldzame	-12975
▁schimmels	-12976
▁Ongelofelijk	-12977
▁journalisten	-12978
▁intelligentie	-12979
igv	-12980
eedt	-12981
▁Sec	-12982
▁lar	-12983
▁rod	-12984
figuur	-12985
gestort	-12986
▁unieke	-12987
▁landing	-12988
▁ingrijpen	-12989
▁achternaam	-12990
▁Py	-12991
▁Pil	-12992
rence	-12993
▁versta	-12994
▁Miranda	-12995
▁onderzoekt	-12996
▁uwe	-12997
▁duwde	-12998
▁scheur	-12999
▁stalen	-13000
▁compliment	-13001
▁betrouwbaar	-13002
uimd	-13003
vand	-13004
▁Dal	-13005
▁NAS	-13006
auten	-13007
cules	-13008
▁Otto	-13009
▁carn	-13010
ijntje	-13011
▁doods	-13012
gedeelte	-13013
▁privacy	-13014
▁Godzijdank	-13015
▁bescheiden	-13016
▁uitsluiten	-13017
▁Nederlander	-13018
▁neerschieten	-13019
▁voornaamwoord	-13020
▁opdr	-13021
▁Zwijg	-13022
▁waait	-13023
▁gijzel	-13024
oppervlak	-13025
▁National	-13026
ACHT	-13027
dans	-13028
itisch	-13029
▁Edgar	-13030
▁Egypt	-13031
▁urine	-13032
▁nation	-13033
▁stevige	-13034
▁waanzin	-13035
▁Os	-13036
▁Typ	-13037
▁lip	-13038
onium	-13039
bestand	-13040
▁horizont	-13041
▁programm	-13042
▁GA	-13043
othy	-13044
▁pup	-13045
ailey	-13046
▁NAVO	-13047
▁Kunst	-13048
▁Lilly	-13049
▁ideale	-13050
▁meende	-13051
▁molecuul	-13052
▁portemonnee	-13053
▁laboratorium	-13054
aplu	-13055
onië	-13056
▁2,5	-13057
▁box	-13058
eelde	-13059
▁paal	-13060
▁tiener	-13061
▁scheppen	-13062
ocus	-13063
▁Vogel	-13064
▁vette	-13065
▁gemene	-13066
▁ruimen	-13067
▁account	-13068
35)	-13069
kaar	-13070
▁Gru	-13071
▁roe	-13072
sdoel	-13073
spunt	-13074
▁vaat	-13075
ieleden	-13076
▁object	-13077
▁blijken	-13078
▁giftige	-13079
▁reactor	-13080
▁Nijmegen	-13081
▁bekennen	-13082
▁vergader	-13083
▁verdeling	-13084
ops	-13085
▁49	-13086
▁bil	-13087
spoor	-13088
▁1991	-13089
▁huft	-13090
▁item	-13091
klasse	-13092
uiving	-13093
▁profiel	-13094
▁weefsel	-13095
▁Michelle	-13096
▁mobieltje	-13097
▁vermijden	-13098
geef	-13099
ores	-13100
urch	-13101
kruid	-13102
leken	-13103
▁Ivan	-13104
▁Tina	-13105
▁diff	-13106
▁dijk	-13107
▁gelov	-13108
▁zoete	-13109
▁koffers	-13110
▁Tour	-13111
▁lens	-13112
▁Butler	-13113
aissance	-13114
▁Congres	-13115
▁bewaker	-13116
▁besteden	-13117
▁geroepen	-13118
IV	-13119
bek	-13120
hatt	-13121
▁Fat	-13122
aalden	-13123
akespe	-13124
makers	-13125
▁meubels	-13126
▁Catherine	-13127
▁weergeven	-13128
▁13.	-13129
▁Spr	-13130
olten	-13131
▁wets	-13132
▁misver	-13133
aco	-13134
akije	-13135
▁Deed	-13136
▁Dert	-13137
burgers	-13138
▁temper	-13139
▁zomers	-13140
▁zusters	-13141
▁complete	-13142
oir	-13143
uzz	-13144
▁Bewaar	-13145
▁bloeddruk	-13146
▁omdraaien	-13147
▁restaurants	-13148
▁plaatselijke	-13149
▁Lily	-13150
▁scheik	-13151
▁betekend	-13152
▁continent	-13153
▁telefoons	-13154
hok	-13155
aarn	-13156
orps	-13157
pert	-13158
raan	-13159
utch	-13160
blijft	-13161
gering	-13162
▁Concent	-13163
▁Opnieuw	-13164
▁Venetië	-13165
▁onlangs	-13166
ori	-13167
oniem	-13168
▁zwij	-13169
ective	-13170
▁Wayne	-13171
▁hoogtepunt	-13172
atië	-13173
cret	-13174
jullie	-13175
▁evalu	-13176
▁groeps	-13177
▁gestaan	-13178
▁territor	-13179
▁succesvolle	-13180
▁Dod	-13181
▁rap	-13182
onade	-13183
▁Halt	-13184
▁Meteen	-13185
▁bestuurd	-13186
▁lam	-13187
stekens	-13188
▁Sydney	-13189
▁Shakespe	-13190
▁woningen	-13191
▁zelfstand	-13192
ows	-13193
▁Ricky	-13194
▁zwaaien	-13195
▁binnenkant	-13196
▁VN	-13197
▁Hmm	-13198
▁kin	-13199
raging	-13200
▁Lange	-13201
▁zetel	-13202
▁onzichtbaar	-13203
mag	-13204
nas	-13205
verl	-13206
▁Pir	-13207
▁Sue	-13208
▁Kijken	-13209
▁bloedt	-13210
▁Anderen	-13211
▁zevende	-13212
▁Goedendag	-13213
▁Ferd	-13214
▁Neen	-13215
▁gewoond	-13216
▁veertien	-13217
uan	-13218
▁vo	-13219
schild	-13220
▁Willie	-13221
vrijheid	-13222
▁gestegen	-13223
▁uitgever	-13224
▁sindsdien	-13225
▁bevestigen	-13226
IP	-13227
fit	-13228
ality	-13229
etsel	-13230
ommer	-13231
verde	-13232
▁Moon	-13233
▁lesje	-13234
osaurus	-13235
▁latere	-13236
▁minimum	-13237
▁wijsheid	-13238
▁Aanbodsdoel	-13239
graf	-13240
rive	-13241
aafde	-13242
ecial	-13243
▁gevoerd	-13244
▁verward	-13245
▁omgekomen	-13246
▁industriële	-13247
von	-13248
▁ram	-13249
erent	-13250
▁late	-13251
▁Stoppen	-13252
▁chirurg	-13253
▁rolstoel	-13254
isp	-13255
pie	-13256
▁eed	-13257
proef	-13258
▁Mann	-13259
▁Papp	-13260
▁gliml	-13261
▁doosje	-13262
▁vogeltje	-13263
▁moleculen	-13264
▁toepassen	-13265
igg	-13266
▁nier	-13267
▁saus	-13268
▁convers	-13269
▁langere	-13270
▁naderen	-13271
▁stations	-13272
26	-13273
eigen	-13274
▁(100	-13275
▁regelt	-13276
aseffect	-13277
▁Nigeria	-13278
▁monarchie	-13279
▁verhuisde	-13280
▁vereniging	-13281
▁Um	-13282
wolf	-13283
▁GEL	-13284
utten	-13285
▁Play	-13286
▁Paris	-13287
▁ionen	-13288
▁reeds	-13289
▁aluminium	-13290
▁Constantijn	-13291
▁¶	-13292
pha	-13293
▁ns	-13294
▁buff	-13295
▁love	-13296
▁Davis	-13297
▁insch	-13298
▁Naties	-13299
▁billen	-13300
▁vrijgelaten	-13301
▁afschuwelijk	-13302
Doe	-13303
izz	-13304
imil	-13305
zeer	-13306
hield	-13307
▁Gabr	-13308
▁logo	-13309
geerde	-13310
▁keert	-13311
rolijke	-13312
▁ingred	-13313
▁Begrippen	-13314
▁vermoordde	-13315
▁communisten	-13316
soc	-13317
▁XX	-13318
▁afd	-13319
▁Eeuw	-13320
leutel	-13321
gelijke	-13322
gevecht	-13323
▁zwavel	-13324
▁dolfijnen	-13325
ii	-13326
▁54	-13327
▁Mens	-13328
▁opleveren	-13329
▁plaatsvindt	-13330
▁voorspellen	-13331
18)	-13332
Men	-13333
iak	-13334
vor	-13335
Geen	-13336
onica	-13337
▁Coll	-13338
▁leed	-13339
cepten	-13340
rusting	-13341
▁oneind	-13342
▁rassen	-13343
wich	-13344
▁Kam	-13345
▁lieg	-13346
▁roer	-13347
▁heers	-13348
▁Silver	-13349
▁voorop	-13350
aastricht	-13351
57)	-13352
▁AD	-13353
▁luc	-13354
▁Maya	-13355
▁Muur	-13356
▁Stone	-13357
▁grapjes	-13358
▁bedrogen	-13359
ên	-13360
sla	-13361
sta	-13362
▁99	-13363
▁DR	-13364
▁PR	-13365
inand	-13366
▁Barbara	-13367
▁schakel	-13368
▁vissers	-13369
▁inspecteur	-13370
econ	-13371
▁Chi	-13372
▁Gaaf	-13373
▁Hoop	-13374
▁explo	-13375
▁opbouw	-13376
▁verkle	-13377
▁weigert	-13378
▁krijgers	-13379
,3	-13380
▁2)	-13381
cuit	-13382
ortus	-13383
ucker	-13384
ureel	-13385
▁1988	-13386
▁Vera	-13387
▁Miles	-13388
▁ringen	-13389
▁gevlogen	-13390
sterd	-13391
▁staaf	-13392
▁steelt	-13393
▁schimmel	-13394
▁Tja	-13395
agnie	-13396
▁hect	-13397
▁Blauw	-13398
fteling	-13399
▁binden	-13400
▁alfabet	-13401
▁uitverk	-13402
▁lancering	-13403
▁aardappelen	-13404
▁Bou	-13405
ooier	-13406
beheer	-13407
▁Alpen	-13408
▁lerares	-13409
▁rondjes	-13410
▁daarbinnen	-13411
Dus	-13412
illon	-13413
▁1984	-13414
▁Winn	-13415
keting	-13416
▁aansp	-13417
▁foute	-13418
▁leken	-13419
▁rijbewijs	-13420
▁schakelen	-13421
▁hoofdletter	-13422
bell	-13423
▁Wou	-13424
▁ans	-13425
▁Pass	-13426
▁fotos	-13427
▁stijf	-13428
▁Twaalf	-13429
▁strepen	-13430
▁hartaanval	-13431
▁radioactie	-13432
▁uitschakelen	-13433
jou	-13434
kin	-13435
▁Lo	-13436
▁Zin	-13437
▁pony	-13438
▁Belle	-13439
▁Alaska	-13440
▁langste	-13441
▁duistere	-13442
▁schijnen	-13443
▁opgehaald	-13444
▁gerechtigheid	-13445
jun	-13446
olas	-13447
▁duwt	-13448
▁onbew	-13449
▁watje	-13450
▁Alfred	-13451
7.	-13452
xy	-13453
ido	-13454
tuin	-13455
▁Ner	-13456
geerd	-13457
trekt	-13458
▁sten	-13459
▁Versp	-13460
▁decor	-13461
izoenen	-13462
▁dikker	-13463
▁organisme	-13464
▁verbannen	-13465
aler	-13466
▁Hond	-13467
ations	-13468
▁Wendy	-13469
▁treedt	-13470
▁uiterste	-13471
▁Koninklijke	-13472
▁introductie	-13473
▁schuilplaats	-13474
IJD	-13475
inny	-13476
▁Fle	-13477
▁pit	-13478
ganger	-13479
stijds	-13480
▁class	-13481
▁laden	-13482
moorden	-13483
sterkte	-13484
▁Stuart	-13485
▁gekwet	-13486
fon	-13487
▁opz	-13488
▁Kath	-13489
ftewel	-13490
utters	-13491
verlen	-13492
▁Langs	-13493
▁bezorg	-13494
▁flesje	-13495
▁Manhatt	-13496
▁aanraakt	-13497
▁advocaten	-13498
▁winkelcentrum	-13499
klier	-13500
▁piek	-13501
▁wang	-13502
▁verste	-13503
▁Noordzee	-13504
▁opbrengst	-13505
▁Onmogelijk	-13506
Maak	-13507
▁Clay	-13508
▁HIER	-13509
hoewel	-13510
▁Offic	-13511
▁Sammy	-13512
riteria	-13513
▁elftal	-13514
▁nagels	-13515
▁recens	-13516
rijvingen	-13517
▁rechthoek	-13518
Bl	-13519
Jan	-13520
dorp	-13521
▁Kaz	-13522
▁Lud	-13523
▁McG	-13524
heorie	-13525
voeren	-13526
▁arche	-13527
diagram	-13528
oefening	-13529
▁Kroatië	-13530
▁experimenten	-13531
▁voorzieningen	-13532
war	-13533
atte	-13534
▁DAN	-13535
▁hob	-13536
allas	-13537
house	-13538
order	-13539
alings	-13540
▁smaken	-13541
▁zweven	-13542
▁voordeur	-13543
▁afspreken	-13544
▁verwachte	-13545
▁beoordeeld	-13546
▁Cob	-13547
▁Dur	-13548
iniek	-13549
▁Abra	-13550
▁rend	-13551
▁Oekraï	-13552
vakantie	-13553
▁klokken	-13554
vereniging	-13555
▁aangeraakt	-13556
agh	-13557
▁HÃ	-13558
▁aarz	-13559
▁onbet	-13560
▁smart	-13561
Bestand	-13562
▁hoeren	-13563
▁gebeten	-13564
▁woonkamer	-13565
▁intelligent	-13566
▁telefoonnummer	-13567
Over	-13568
chec	-13569
neem	-13570
▁Lola	-13571
▁STAP	-13572
▁zakt	-13573
▁Coach	-13574
▁Enkel	-13575
▁afgezet	-13576
▁Nogmaals	-13577
▁zwaarder	-13578
▁specifieke	-13579
,8	-13580
yon	-13581
valt	-13582
▁Lul	-13583
▁Buck	-13584
▁Villa	-13585
▁beseft	-13586
▁symbolen	-13587
▁verloofd	-13588
▁ademhalen	-13589
▁collectie	-13590
tuig	-13591
▁sie	-13592
▁Khan	-13593
▁bijk	-13594
rouwde	-13595
landers	-13596
▁Stella	-13597
▁dijken	-13598
▁geiten	-13599
▁schurk	-13600
▁tapijt	-13601
▁criminelen	-13602
▁kathedraal	-13603
74)	-13604
zzel	-13605
▁Das	-13606
▁Hang	-13607
▁rijm	-13608
bladen	-13609
kanker	-13610
▁Adolf	-13611
▁nakom	-13612
▁heerst	-13613
▁pijpen	-13614
▁Sheriff	-13615
▁dertien	-13616
▁broodjes	-13617
▁Aller	-13618
▁envel	-13619
▁overlijden	-13620
▁Edelachtbare	-13621
▁overlevenden	-13622
▁gemakkelijker	-13623
TL	-13624
▁Kh	-13625
jama	-13626
▁Brun	-13627
▁roofd	-13628
▁koppen	-13629
▁wekken	-13630
▁indiaan	-13631
▁doorgeven	-13632
▁Yo	-13633
▁Cody	-13634
istiek	-13635
istrict	-13636
spireerd	-13637
stekende	-13638
▁piloten	-13639
▁oppassen	-13640
voorzitter	-13641
▁zintuigen	-13642
ijz	-13643
▁Bem	-13644
visie	-13645
▁Hunt	-13646
genote	-13647
▁effic	-13648
▁Madame	-13649
▁München	-13650
vergelijk	-13651
ografische	-13652
hm	-13653
Wil	-13654
jets	-13655
bodem	-13656
▁prik	-13657
▁Fiona	-13658
▁initi	-13659
stralen	-13660
▁parach	-13661
▁gedrukt	-13662
▁bedoelen	-13663
▁onderling	-13664
LEN	-13665
▁CDA	-13666
▁Jak	-13667
▁Mul	-13668
andra	-13669
▁troost	-13670
▁blanken	-13671
▁bedragen	-13672
SEN	-13673
ugh	-13674
kong	-13675
acten	-13676
▁lijdt	-13677
▁Morgan	-13678
▁incident	-13679
▁overvallen	-13680
oseks	-13681
strid	-13682
▁1993	-13683
▁gefl	-13684
inders	-13685
▁Klimaat	-13686
▁zestien	-13687
▁opgeblazen	-13688
▁700	-13689
antha	-13690
▁Boer	-13691
▁Sanne	-13692
keuring	-13693
▁vaccin	-13694
ragmenten	-13695
▁populatie	-13696
▁vormgeving	-13697
Me	-13698
▁~	-13699
▁sw	-13700
heven	-13701
▁uitsp	-13702
▁boeten	-13703
▁nakijken	-13704
▁verkleed	-13705
▁werknemer	-13706
▁verspillen	-13707
▁onvoldoende	-13708
uug	-13709
ekent	-13710
▁Rico	-13711
ornado	-13712
schaal	-13713
▁Adams	-13714
betalen	-13715
▁Dingen	-13716
▁bruggen	-13717
▁discrimin	-13718
fum	-13719
inch	-13720
▁air	-13721
jarig	-13722
▁falen	-13723
▁games	-13724
▁Barney	-13725
▁hockey	-13726
verhalen	-13727
▁Manhattan	-13728
▁opstellen	-13729
eta	-13730
omf	-13731
reizen	-13732
▁heftig	-13733
▁Harvard	-13734
▁Jacobus	-13735
▁ijzeren	-13736
▁mijzelf	-13737
▁toestaan	-13738
▁Groepsgrootte	-13739
yo	-13740
▁SS	-13741
itst	-13742
▁Orle	-13743
▁trof	-13744
handelen	-13745
▁wegging	-13746
▁gesneden	-13747
▁toerisme	-13748
▁basketbal	-13749
keuzevragen	-13750
▁teleurstellen	-13751
▁tikt	-13752
rotten	-13753
anderen	-13754
▁strenge	-13755
▁Jennifer	-13756
▁grootmoeder	-13757
▁verminderen	-13758
▁Middeleeuwen	-13759
!)	-13760
slaat	-13761
▁Nich	-13762
▁Spen	-13763
▁gaatje	-13764
▁indien	-13765
▁commerc	-13766
▁agressie	-13767
▁geluisterd	-13768
17)	-13769
BER	-13770
▁Spar	-13771
afdruk	-13772
▁kolen	-13773
▁verdwijn	-13774
▁Leerlingen	-13775
▁tegenwoordige	-13776
▁hup	-13777
▁NASA	-13778
▁boor	-13779
▁grof	-13780
gewone	-13781
▁ritje	-13782
▁goedge	-13783
▁Antonio	-13784
▁geraken	-13785
▁gekwetst	-13786
▁woonplaats	-13787
▁voorkomende	-13788
▁Hu	-13789
sbang	-13790
▁aten	-13791
▁clubs	-13792
▁traag	-13793
▁uzelf	-13794
▁tractor	-13795
▁zinloos	-13796
▁mislukte	-13797
▁langskomen	-13798
Ber	-13799
▁06	-13800
▁Rex	-13801
ignaal	-13802
▁Krist	-13803
▁kermis	-13804
▁geneukt	-13805
▁filosoof	-13806
▁partners	-13807
▁spelling	-13808
▁opgesteld	-13809
GRANDFATHER	-13810
▁criminaliteit	-13811
▁]	-13812
inja	-13813
▁Link	-13814
rekers	-13815
▁Benny	-13816
▁Verzamel	-13817
▁Leerdoelen	-13818
▁ingewikkel	-13819
El	-13820
▁NU	-13821
▁Aud	-13822
▁tof	-13823
▁Gren	-13824
▁stre	-13825
▁Claud	-13826
▁ingel	-13827
nemingen	-13828
▁poetsen	-13829
▁toezicht	-13830
éér	-13831
ixon	-13832
▁Pip	-13833
▁Joch	-13834
alleen	-13835
▁dimens	-13836
aliseerd	-13837
▁calcium	-13838
wikkeling	-13839
▁Vrijheid	-13840
▁ontploft	-13841
▁verdorie	-13842
▁Eindhoven	-13843
▁jongedame	-13844
▁bondgenoot	-13845
▁weggelopen	-13846
▁uitbreiding	-13847
pte	-13848
▁KOM	-13849
jacht	-13850
record	-13851
▁Sandy	-13852
annings	-13853
▁orkest	-13854
barsting	-13855
▁Overleg	-13856
▁gefaald	-13857
▁deskundigen	-13858
▁medewerkers	-13859
▁uitgestorven	-13860
72)	-13861
roll	-13862
▁credit	-13863
▁diplom	-13864
oplossing	-13865
▁ontvangst	-13866
▁Ü	-13867
Gen	-13868
uay	-13869
▁56	-13870
ibel	-13871
lust	-13872
accept	-13873
▁opsch	-13874
kleding	-13875
▁Martha	-13876
▁United	-13877
▁afweer	-13878
▁technisch	-13879
,1	-13880
OND	-13881
▁72	-13882
▁Dog	-13883
tocht	-13884
▁bijl	-13885
deelde	-13886
itatie	-13887
▁Hoort	-13888
▁Jaren	-13889
▁Tracy	-13890
▁gilde	-13891
volking	-13892
▁Herman	-13893
▁eitjes	-13894
▁voorjaar	-13895
23)	-13896
erk	-13897
▁Gaza	-13898
▁bezwaar	-13899
▁American	-13900
▁duurzame	-13901
▁winnaars	-13902
▁versterkt	-13903
uun	-13904
voc	-13905
ecut	-13906
▁1,0	-13907
▁meed	-13908
▁Chili	-13909
inklijk	-13910
▁geland	-13911
▁huisarts	-13912
▁afkorting	-13913
▁Mexicaanse	-13914
oera	-13915
▁(30	-13916
▁Mia	-13917
▁Brig	-13918
▁Stom	-13919
▁Terry	-13920
▁Beweeg	-13921
▁propag	-13922
▁stervende	-13923
▁Shakespeare	-13924
83)	-13925
kern	-13926
▁Exp	-13927
▁Rap	-13928
aatje	-13929
aming	-13930
▁eine	-13931
▁kale	-13932
▁Volle	-13933
▁ingen	-13934
▁omver	-13935
gevende	-13936
spieren	-13937
wekkende	-13938
▁moordenaars	-13939
lan	-13940
▁Wy	-13941
▁Fox	-13942
tieme	-13943
▁Joey	-13944
▁Spoor	-13945
▁Beetje	-13946
▁drukke	-13947
▁afkomst	-13948
▁felicit	-13949
▁tropische	-13950
▁ambassadeur	-13951
▁voorbereiding	-13952
▁belangstelling	-13953
elli	-13954
▁Lit	-13955
▁amat	-13956
cherch	-13957
▁Syrië	-13958
▁slaag	-13959
▁Hercules	-13960
▁absolute	-13961
▁batterijen	-13962
▁gelul	-13963
▁Wadden	-13964
▁Wesley	-13965
▁inheemse	-13966
▁waardevol	-13967
▁halverwege	-13968
▁Lin	-13969
baren	-13970
inton	-13971
itair	-13972
▁pure	-13973
▁hoelang	-13974
▁huisdieren	-13975
▁luchtvaart	-13976
UG	-13977
hoeken	-13978
▁gooch	-13979
▁kwade	-13980
▁gerekend	-13981
vet	-13982
igden	-13983
▁Elli	-13984
kament	-13985
schoen	-13986
▁marin	-13987
bestuur	-13988
▁deksel	-13989
▁wagens	-13990
▁wonnen	-13991
▁wormen	-13992
▁zeuren	-13993
▁Efteling	-13994
ulk	-13995
▁mL	-13996
ockt	-13997
▁Sah	-13998
▁hooi	-13999
▁Wales	-14000
▁integr	-14001
kinderen	-14002
▁referend	-14003
▁schuiven	-14004
▁overigens	-14005
▁twijfelen	-14006
▁afgeschaft	-14007
▁generaties	-14008
▁verkiezing	-14009
▁vervelende	-14010
▁onderneming	-14011
▁burgeroorlog	-14012
paar	-14013
▁Elf	-14014
▁Mob	-14015
▁Mun	-14016
▁kne	-14017
museum	-14018
olletje	-14019
▁mekaar	-14020
▁bewaken	-14021
▁college	-14022
▁reageer	-14023
▁vorsten	-14024
▁Dezelfde	-14025
▁aanvaard	-14026
▁afgerond	-14027
▁primaire	-14028
▁vervoerd	-14029
▁maatregel	-14030
▁mineralen	-14031
▁Ministerie	-14032
geschiedenis	-14033
ammy	-14034
▁Dik	-14035
▁esc	-14036
▁sem	-14037
mpath	-14038
ietjes	-14039
▁River	-14040
▁bizar	-14041
▁ingeh	-14042
▁bouwde	-14043
▁naaien	-14044
gevangen	-14045
▁Lawrence	-14046
AA	-14047
▁Vo	-14048
▁Blij	-14049
verkeer	-14050
▁Opeens	-14051
▁boksen	-14052
▁factor	-14053
▁weiger	-14054
▁Bernard	-14055
▁gebruikers	-14056
era	-14057
agan	-14058
▁Rab	-14059
board	-14060
▁Blok	-14061
▁Minder	-14062
▁poëzie	-14063
▁uurtje	-14064
▁eenzame	-14065
▁laagste	-14066
▁bisschop	-14067
▁geloofden	-14068
▁ruimteschip	-14069
▁aardbevingen	-14070
▁Fair	-14071
▁Mevr	-14072
▁boef	-14073
▁droe	-14074
▁wiet	-14075
▁Media	-14076
▁farao	-14077
▁kanon	-14078
snijden	-14079
▁snavel	-14080
▁Orleans	-14081
▁inpakken	-14082
▁struiken	-14083
▁vastgelegd	-14084
gift	-14085
▁Nem	-14086
varen	-14087
▁Loek	-14088
▁borrel	-14089
▁cliënt	-14090
▁College	-14091
▁inkomens	-14092
▁Ferdinand	-14093
▁behandelt	-14094
▁Eb	-14095
▁1920	-14096
▁klimt	-14097
▁Alweer	-14098
▁budget	-14099
▁verpak	-14100
▁korting	-14101
▁overgang	-14102
▁verlicht	-14103
▁bezetting	-14104
▁krankzinnig	-14105
attle	-14106
▁Dion	-14107
kampen	-14108
▁Capit	-14109
▁riool	-14110
▁tromp	-14111
oernooi	-14112
▁giftig	-14113
▁zinken	-14114
republiek	-14115
▁Samantha	-14116
AAL	-14117
▁jazz	-14118
▁slee	-14119
▁spreuk	-14120
▁herstel	-14121
▁tropisch	-14122
Natuurlijk	-14123
▁International	-14124
▁Kok	-14125
scher	-14126
▁klop	-14127
▁slip	-14128
▁magne	-14129
eenkomst	-14130
▁pinguïn	-14131
▁ingesteld	-14132
▁kampioenschap	-14133
▁Ban	-14134
▁Roll	-14135
▁tact	-14136
astiek	-14137
▁Floor	-14138
▁weers	-14139
▁beledigd	-14140
▁kalender	-14141
TS	-14142
än	-14143
imi	-14144
ometer	-14145
▁prent	-14146
▁Poolse	-14147
▁duinen	-14148
lowakije	-14149
activeerd	-14150
▁Martinus	-14151
▁achtbaan	-14152
▁bevallen	-14153
)?	-14154
▁naa	-14155
▁Harm	-14156
▁drug	-14157
bracht	-14158
▁Daisy	-14159
▁Night	-14160
▁Zijne	-14161
▁verbroken	-14162
▁betreffende	-14163
Vl	-14164
Echt	-14165
acks	-14166
▁alt	-14167
▁emb	-14168
elding	-14169
▁kleink	-14170
eltelijk	-14171
▁dominee	-14172
▁grafieken	-14173
▁negentiende	-14174
▁66	-14175
arct	-14176
jong	-14177
stud	-14178
▁Tam	-14179
kopen	-14180
snede	-14181
▁ever	-14182
uleerd	-14183
▁Zweed	-14184
▁beveel	-14185
▁nadert	-14186
▁Vreselijk	-14187
aline	-14188
▁1944	-14189
▁Duck	-14190
▁Whit	-14191
▁accu	-14192
apping	-14193
ogingen	-14194
▁Franken	-14195
▁verwarm	-14196
Ne	-14197
▁Ni	-14198
ando	-14199
▁WER	-14200
▁Lukt	-14201
▁Jasper	-14202
▁getest	-14203
▁onverm	-14204
▁superh	-14205
▁allereer	-14206
▁beroepen	-14207
lichtingen	-14208
▁Halloween	-14209
▁verzetten	-14210
▁voetballer	-14211
▁gefeliciteerd	-14212
▁nare	-14213
▁adopt	-14214
▁haatte	-14215
▁onrust	-14216
▁vlieger	-14217
▁Politiek	-14218
▁Vertaald	-14219
▁digitaal	-14220
▁broeikaseffect	-14221
UZ	-14222
64)	-14223
iop	-14224
mund	-14225
▁Fal	-14226
▁Jar	-14227
▁balk	-14228
▁hemd	-14229
▁preh	-14230
▁sand	-14231
editie	-14232
delijke	-14233
krachten	-14234
▁treffen	-14235
▁plaatsje	-14236
▁werkzaam	-14237
▁vierkante	-14238
▁begrippenlijst	-14239
ourt	-14240
▁Gun	-14241
▁Oog	-14242
▁Sold	-14243
▁Buddy	-14244
▁sjaal	-14245
alingen	-14246
▁kleuter	-14247
▁bezitten	-14248
▁hormonen	-14249
instrument	-14250
▁ontkennen	-14251
AB	-14252
qui	-14253
lace	-14254
▁Lab	-14255
bergt	-14256
▁Kart	-14257
▁buit	-14258
iering	-14259
▁Filip	-14260
▁radar	-14261
▁vangt	-14262
ongeluk	-14263
▁gunstig	-14264
▁podcast	-14265
▁Noordpool	-14266
▁overgebleven	-14267
▁0,0	-14268
▁Hav	-14269
▁Joy	-14270
▁end	-14271
aters	-14272
▁Grapje	-14273
▁messen	-14274
▁zwaait	-14275
ificeren	-14276
▁verbaast	-14277
▁architectuur	-14278
mate	-14279
rich	-14280
▁BEN	-14281
▁qua	-14282
wonen	-14283
▁imper	-14284
▁kreng	-14285
weefsel	-14286
▁Pruisen	-14287
▁spoedig	-14288
▁beseffen	-14289
▁onderbouw	-14290
▁zonsopgang	-14291
oli	-14292
snel	-14293
moeten	-14294
▁magaz	-14295
▁paras	-14296
▁Kracht	-14297
▁Simply	-14298
▁opvang	-14299
▁bijdragen	-14300
▁Balt	-14301
▁Ierse	-14302
▁nagel	-14303
somloop	-14304
houdingen	-14305
▁onderkant	-14306
inkh	-14307
▁afb	-14308
boten	-14309
▁1972	-14310
▁Toel	-14311
▁lampje	-14312
▁avondeten	-14313
▁kleintjes	-14314
houw	-14315
oont	-14316
▁Yank	-14317
aresse	-14318
▁gemat	-14319
▁ideaal	-14320
▁Gandalf	-14321
▁formules	-14322
▁werelden	-14323
▁wachtwoord	-14324
▁aangetrokken	-14325
44)	-14326
etst	-14327
▁Room	-14328
▁info	-14329
▁begaan	-14330
▁verlang	-14331
olom	-14332
time	-14333
▁Vlieg	-14334
▁friet	-14335
opgaven	-14336
svormen	-14337
▁Koffie	-14338
▁merkte	-14339
▁ambitie	-14340
▁storten	-14341
▁vulkanen	-14342
▁geschikte	-14343
▁vertaling	-14344
▁bezittingen	-14345
wo	-14346
bbel	-14347
▁Ade	-14348
▁Som	-14349
▁dir	-14350
▁mop	-14351
eerle	-14352
ventie	-14353
▁Power	-14354
▁vrezen	-14355
▁Jessica	-14356
▁verbouw	-14357
▁drankjes	-14358
▁signalen	-14359
oké	-14360
erek	-14361
rakel	-14362
▁1968	-14363
▁Kans	-14364
▁Zulke	-14365
energie	-14366
schapen	-14367
▁poosje	-14368
▁Valerie	-14369
▁belooft	-14370
▁botsing	-14371
▁geintje	-14372
▁systemen	-14373
▁vergroot	-14374
▁grondwater	-14375
▁presidents	-14376
41)	-14377
▁Wr	-14378
odige	-14379
▁sted	-14380
▁Matthe	-14381
▁omring	-14382
▁kwetsen	-14383
▁formulier	-14384
▁misverstand	-14385
89)	-14386
OEK	-14387
▁Mi	-14388
▁Cec	-14389
Wacht	-14390
▁1918	-14391
▁rijp	-14392
▁roll	-14393
reerde	-14394
▁Ernie	-14395
▁steel	-14396
▁onbesch	-14397
▁verbouwd	-14398
ontsteking	-14399
▁werkgelegenheid	-14400
▁95	-14401
▁Ay	-14402
pret	-14403
pton	-14404
atiet	-14405
▁Elis	-14406
▁GEEN	-14407
▁Nijl	-14408
▁Paus	-14409
▁Theo	-14410
▁hotels	-14411
▁kenden	-14412
▁Twintig	-14413
▁hieraan	-14414
▁paraplu	-14415
▁klaarmaken	-14416
▁bewusteloos	-14417
sal	-14418
ISCH	-14419
▁jam	-14420
▁spir	-14421
dernis	-14422
▁April	-14423
▁diagn	-14424
pectief	-14425
▁Thunder	-14426
▁etentje	-14427
▁stijging	-14428
▁excuseren	-14429
▁emotioneel	-14430
odka	-14431
▁DDR	-14432
▁havo	-14433
otisch	-14434
▁grinn	-14435
▁manip	-14436
▁paarse	-14437
▁bewijst	-14438
▁herkende	-14439
▁zeewater	-14440
▁ballonnen	-14441
Azië	-14442
grote	-14443
offic	-14444
▁Mong	-14445
▁vlot	-14446
uifmeel	-14447
▁Deutsch	-14448
▁Planten	-14449
▁betwijf	-14450
▁divisie	-14451
▁kleinzoon	-14452
▁bestudeerd	-14453
▁taalfouten	-14454
68)	-14455
▁fat	-14456
▁kot	-14457
▁1948	-14458
ipline	-14459
▁Russell	-14460
▁vereerd	-14461
▁klimaten	-14462
▁protesten	-14463
mas	-14464
Lees	-14465
▁Mak	-14466
▁has	-14467
▁ontl	-14468
gangen	-14469
▁achtste	-14470
▁hoofden	-14471
▁smeerlap	-14472
▁aangenaam	-14473
▁bestudeer	-14474
▁doodsbang	-14475
Zijn	-14476
atra	-14477
krab	-14478
onna	-14479
zegd	-14480
▁kenn	-14481
▁ritu	-14482
▁Drake	-14483
ynastie	-14484
▁Marcell	-14485
▁directie	-14486
▁tweetallen	-14487
▁opvattingen	-14488
61)	-14489
igo	-14490
warm	-14491
▁ecos	-14492
ijsver	-14493
▁1.000	-14494
▁Zwart	-14495
▁lezers	-14496
▁engelen	-14497
▁sukkels	-14498
▁voorstander	-14499
,4	-14500
91)	-14501
reef	-14502
berts	-14503
▁Cost	-14504
▁exer	-14505
rijksk	-14506
▁Moest	-14507
▁paste	-14508
▁genoten	-14509
▁oudheid	-14510
▁Duizenden	-14511
▁ceremonie	-14512
▁Afgesproken	-14513
▁verpleegster	-14514
-20	-14515
ANT	-14516
rip	-14517
▁Katr	-14518
platen	-14519
▁Beach	-14520
▁kookt	-14521
eilanden	-14522
schappers	-14523
▁Gisteravond	-14524
▁Samenvattend	-14525
OED	-14526
iane	-14527
imal	-14528
▁Dub	-14529
▁Ill	-14530
ELIJK	-14531
aakte	-14532
garije	-14533
▁puber	-14534
▁Angela	-14535
▁stoere	-14536
▁Ontspan	-14537
▁genetische	-14538
▁uitgesproken	-14539
fol	-14540
mole	-14541
▁(60	-14542
▁Jerem	-14543
▁Lezen	-14544
▁Romeo	-14545
sterren	-14546
▁mantel	-14547
▁resten	-14548
▁serieuze	-14549
ozef	-14550
usea	-14551
album	-14552
tieel	-14553
▁Peru	-14554
▁Road	-14555
▁aanbe	-14556
▁stichting	-14557
▁Ep	-14558
meter	-14559
iseren	-14560
▁House	-14561
▁Suzan	-14562
gewerkt	-14563
▁hoogst	-14564
▁pyjama	-14565
▁aardappels	-14566
▁Goeiemorgen	-14567
OEN	-14568
oga	-14569
hard	-14570
▁WEL	-14571
geert	-14572
▁Afro	-14573
▁Moze	-14574
▁Alinea	-14575
▁droomt	-14576
▁kreeft	-14577
▁rondlopen	-14578
bul	-14579
rood	-14580
▁obl	-14581
▁Fern	-14582
▁Orde	-14583
hanger	-14584
▁slijm	-14585
aciteit	-14586
▁examens	-14587
▁failliet	-14588
eeper	-14589
ettig	-14590
loper	-14591
▁duif	-14592
▁Ottom	-14593
afstand	-14594
ondanks	-14595
▁schoorsteen	-14596
▁uitsluitend	-14597
,9	-14598
eton	-14599
▁sper	-14600
opbouw	-14601
▁think	-14602
vliegen	-14603
▁Walker	-14604
▁aanger	-14605
▁vervang	-14606
▁katholiek	-14607
▁cadeautjes	-14608
▁Dale	-14609
wachte	-14610
▁hopeloos	-14611
▁parkeerplaats	-14612
IR	-14613
uri	-14614
vij	-14615
ides	-14616
klok	-14617
ights	-14618
ademen	-14619
▁zowat	-14620
arissen	-14621
▁Michiel	-14622
▁heersen	-14623
▁vlekken	-14624
▁onderzee	-14625
▁oversteken	-14626
▁familieleden	-14627
21)	-14628
olle	-14629
▁cam	-14630
▁1985	-14631
▁saaie	-14632
▁Gezien	-14633
▁Stadion	-14634
▁stelsel	-14635
▁afgemaakt	-14636
cha	-14637
sst	-14638
utje	-14639
owinst	-14640
▁afzet	-14641
spartij	-14642
▁Isabel	-14643
▁voldoet	-14644
▁zachter	-14645
▁vermenigv	-14646
IND	-14647
kat	-14648
▁SE	-14649
▁Chan	-14650
▁zwee	-14651
leraar	-14652
vuldig	-14653
▁prior	-14654
▁Gezond	-14655
▁Melanie	-14656
▁Toppers	-14657
▁opgelucht	-14658
ompt	-14659
▁Ple	-14660
▁Tin	-14661
▁ruw	-14662
enken	-14663
▁Bailey	-14664
▁venster	-14665
afdrukken	-14666
▁verkozen	-14667
▁Interessant	-14668
▁goedgekeurd	-14669
anst	-14670
▁vir	-14671
▁Foto	-14672
▁Gwen	-14673
▁afgewezen	-14674
▁onderteken	-14675
▁buitenaardse	-14676
ae	-14677
▁MA	-14678
▁BIJ	-14679
▁Fall	-14680
▁breuk	-14681
▁snuit	-14682
anceerd	-14683
▁gedeeld	-14684
▁monniken	-14685
oco	-14686
▁Sul	-14687
▁Wet	-14688
▁Knap	-14689
▁Moor	-14690
▁Amand	-14691
Schrijf	-14692
artikel	-14693
▁Claude	-14694
▁Hadden	-14695
▁Wouter	-14696
▁huishoud	-14697
▁alternatief	-14698
phy	-14699
▁BM	-14700
winn	-14701
▁sou	-14702
▁Mees	-14703
▁kond	-14704
▁deugd	-14705
▁malen	-14706
▁Blauwe	-14707
▁handschoenen	-14708
▁willekeurige	-14709
FC	-14710
UIS	-14711
▁Dru	-14712
▁Wis	-14713
▁eur	-14714
▁Pink	-14715
▁Zing	-14716
▁afsp	-14717
seizoen	-14718
▁baasje	-14719
▁sieraden	-14720
▁populairste	-14721
▁schrijfster	-14722
▁buitengewoon	-14723
lade	-14724
▁Boo	-14725
▁Mes	-14726
▁beu	-14727
▁did	-14728
▁brut	-14729
▁wenk	-14730
oester	-14731
▁email	-14732
▁vergez	-14733
▁opnames	-14734
▁vervloekt	-14735
▁uitnodigen	-14736
▁beschuldigd	-14737
md	-14738
▁Ky	-14739
▁oce	-14740
locht	-14741
rijders	-14742
▁gestart	-14743
▁beheerst	-14744
▁marketing	-14745
▁eeuwigheid	-14746
bot	-14747
▁85	-14748
▁gên	-14749
ulsen	-14750
▁Ellie	-14751
▁Astrid	-14752
▁hoeken	-14753
▁meekomen	-14754
▁begeleiden	-14755
▁controleer	-14756
▁rechterhand	-14757
cia	-14758
kov	-14759
klyn	-14760
▁Gas	-14761
▁Ped	-14762
▁cas	-14763
▁zui	-14764
kennis	-14765
▁Mozes	-14766
▁Regen	-14767
▁perman	-14768
▁sticht	-14769
▁plukken	-14770
▁Franklin	-14771
▁diefstal	-14772
▁vrolijke	-14773
poten	-14774
▁geëx	-14775
▁bouwt	-14776
▁Person	-14777
▁omsing	-14778
▁onvoor	-14779
wachting	-14780
kenmerken	-14781
▁Verdomde	-14782
▁Inmiddels	-14783
▁Sebastian	-14784
▁immigranten	-14785
jov	-14786
slam	-14787
ageer	-14788
▁Okee	-14789
isering	-14790
oordeel	-14791
▁Duncan	-14792
▁editie	-14793
probleem	-14794
▁eruitziet	-14795
▁geschilderd	-14796
▁verwachtingen	-14797
Qu	-14798
84)	-14799
▁Sin	-14800
▁afgel	-14801
▁count	-14802
▁Stefan	-14803
▁Tarzan	-14804
▁weduwe	-14805
scheiden	-14806
▁Indianen	-14807
61	-14808
aro	-14809
lis	-14810
▁Sav	-14811
lectie	-14812
▁Opper	-14813
▁jaagt	-14814
▁spont	-14815
▁Monten	-14816
▁postze	-14817
▁Robinson	-14818
▁aanwijzing	-14819
ache	-14820
oeddh	-14821
▁lint	-14822
▁mind	-14823
▁Namen	-14824
▁Wissel	-14825
▁dreigt	-14826
▁rijken	-14827
▁Abraham	-14828
▁gestemd	-14829
scheiding	-14830
▁adviezen	-14831
▁bloedsomloop	-14832
hh	-14833
fent	-14834
▁opkn	-14835
▁Eurov	-14836
▁fonte	-14837
▁haard	-14838
▁snijdt	-14839
▁Bescherm	-14840
▁hartelijk	-14841
▁onbeleefd	-14842
▁seizoenen	-14843
Dag	-14844
UUR	-14845
adig	-14846
▁Lex	-14847
▁essen	-14848
▁blaast	-14849
▁besparen	-14850
▁Toelichting	-14851
▁hÚ	-14852
▁HAVO	-14853
▁abon	-14854
▁lost	-14855
afhank	-14856
▁kusje	-14857
▁tatoe	-14858
▁Energie	-14859
▁inflatie	-14860
▁procedure	-14861
OOF	-14862
aca	-14863
gard	-14864
▁Tes	-14865
stift	-14866
hebbers	-14867
▁secund	-14868
▁tekende	-14869
▁verdubb	-14870
▁Bulgarije	-14871
▁gordijnen	-14872
▁demonstratie	-14873
▁verbindingen	-14874
Mar	-14875
\""	-14876
▁McK	-14877
aarse	-14878
ardin	-14879
ichen	-14880
▁1975	-14881
▁Melk	-14882
▁okay	-14883
▁neger	-14884
▁onget	-14885
▁afgest	-14886
▁kompas	-14887
▁natrium	-14888
▁Plotseling	-14889
▁scholieren	-14890
▁mysterieuze	-14891
▁onderstaand	-14892
▁taalgebruik	-14893
▁Rio	-14894
▁Portuge	-14895
duizenden	-14896
▁Conclusie	-14897
▁Jefferson	-14898
▁overheids	-14899
▁tegenkomen	-14900
NL	-14901
fu	-14902
gië	-14903
ippi	-14904
straal	-14905
▁Draag	-14906
▁hyper	-14907
▁villa	-14908
methode	-14909
▁Brooklyn	-14910
▁opgewekt	-14911
▁krachtige	-14912
▁questions	-14913
62	-14914
urd	-14915
loon	-14916
▁XVI	-14917
banden	-14918
crisis	-14919
▁Phill	-14920
▁insect	-14921
▁velden	-14922
▁wateren	-14923
▁kostbaar	-14924
▁agressief	-14925
▁informeren	-14926
verbindingen	-14927
▁professionele	-14928
00)	-14929
etto	-14930
lote	-14931
bloem	-14932
▁koste	-14933
▁fractie	-14934
▁brandstoffen	-14935
GT	-14936
heel	-14937
▁...!	-14938
▁vult	-14939
▁bezem	-14940
▁vloed	-14941
verlies	-14942
wachter	-14943
▁August	-14944
▁Church	-14945
▁ticket	-14946
▁geleend	-14947
elie	-14948
▁crash	-14949
▁kassa	-14950
▁smeken	-14951
▁geliefd	-14952
▁vocabul	-14953
▁destijds	-14954
▁gespaard	-14955
▁Tenminste	-14956
▁eindexamen	-14957
▁Allemachtig	-14958
▁ontdekkings	-14959
▁57	-14960
poot	-14961
▁Maan	-14962
▁kann	-14963
▁onop	-14964
streek	-14965
vaardig	-14966
▁brutaal	-14967
▁inhoudt	-14968
▁culturen	-14969
▁luchtmacht	-14970
▁ondersteunen	-14971
▁terugtrekken	-14972
acte	-14973
▁Jop	-14974
Sorry	-14975
▁Penn	-14976
▁armb	-14977
▁vaas	-14978
ipatie	-14979
▁Beest	-14980
▁traged	-14981
▁downloaden	-14982
▁voetbalclub	-14983
16)	-14984
iao	-14985
Hong	-14986
▁1939	-14987
▁Duke	-14988
▁Half	-14989
▁rede	-14990
▁they	-14991
▁vork	-14992
ickets	-14993
iljoen	-14994
▁Douglas	-14995
▁posters	-14996
▁Vermoord	-14997
▁bestanden	-14998
▁dichtheid	-14999
ingssysteem	-15000
▁conflicten	-15001
▁Gene	-15002
Engels	-15003
▁Jozef	-15004
▁stick	-15005
nelheid	-15006
▁transp	-15007
▁gerucht	-15008
▁individu	-15009
▁Onderwijs	-15010
kok	-15011
rut	-15012
▁(49	-15013
▁Hag	-15014
▁Nona	-15015
▁Akkie	-15016
klaring	-15017
▁Schoon	-15018
▁baantje	-15019
▁bloeden	-15020
▁vaarwel	-15021
▁evolutie	-15022
▁verkoper	-15023
▁revolution	-15024
Uit	-15025
▁Ko	-15026
Alex	-15027
omot	-15028
▁15.	-15029
▁Cha	-15030
▁Jup	-15031
▁Ler	-15032
stoot	-15033
▁Reed	-15034
Nieuws	-15035
marijn	-15036
ucking	-15037
▁Saksen	-15038
▁fabrik	-15039
lot	-15040
▁140	-15041
▁Kas	-15042
jectie	-15043
▁Fleur	-15044
▁Obama	-15045
sterven	-15046
▁hormoon	-15047
▁knooppunt	-15048
▁Maastricht	-15049
▁referendum	-15050
▁teruggeven	-15051
33	-15052
▁hak	-15053
achus	-15054
jager	-15055
▁tref	-15056
▁Lloyd	-15057
▁bevoegd	-15058
▁daarnet	-15059
▁magneet	-15060
▁Silvester	-15061
▁elektrisch	-15062
▁respecteren	-15063
14)	-15064
▁AI	-15065
iven	-15066
werd	-15067
▁110	-15068
▁lap	-15069
motor	-15070
▁Kind	-15071
▁zuin	-15072
Donald	-15073
burger	-15074
▁Queen	-15075
▁opoff	-15076
gelegen	-15077
▁smeren	-15078
omgeving	-15079
▁illegale	-15080
▁teruggek	-15081
▁therapie	-15082
awa	-15083
quê	-15084
autom	-15085
lepen	-15086
▁tabak	-15087
▁zakje	-15088
▁slepen	-15089
▁Allebei	-15090
▁Blijven	-15091
▁regerings	-15092
▁Tib	-15093
▁Time	-15094
abella	-15095
leiders	-15096
▁verzin	-15097
▁verleid	-15098
▁landgoed	-15099
▁vernield	-15100
▁wonderen	-15101
▁apparatuur	-15102
▁vastgesteld	-15103
iël	-15104
itty	-15105
▁Sel	-15106
▁Brug	-15107
▁Plus	-15108
▁Thema	-15109
▁paars	-15110
▁geïnspireerd	-15111
1-1	-15112
doe	-15113
ogn	-15114
kans	-15115
▁(160	-15116
▁kalf	-15117
▁leve	-15118
▁tour	-15119
[...]
