<pad>	0
<unk>	0
<s>	0
</s>	0
[PAD]	0
[UNK]	0
[CLS]	0
[SEP]	0
[MASK]	0
▁*	-0
""	-1
CH	-2
ER	-3
LD	-4
CHI	-5
CHILD	-6
TA	-7
ET	-8
RG	-9
RGET	-10
TARGET	-11
TH	-12
THER	-13
OTHER	-14
MOTHER	-15
▁我	-16
▁这	-17
▁你	-18
什么	-19
▁是	-20
一个	-21
TI	-22
就是	-23
VE	-24
AT	-25
OR	-26
IN	-27
STI	-28
GAT	-29
INVE	-30
GATOR	-31
INVESTI	-32
INVESTIGATOR	-33
。""	-34
▁了	-35
▁他	-36
:""	-37
xx	-38
▁嗯	-39
没有	-40
▁那	-41
▁好	-42
然后	-43
▁一	-44
▁个	-45
▁不	-46
▁的	-47
这个	-48
▁小	-49
我们	-50
自己	-51
EA	-52
TEA	-53
CHER	-54
TEACHER	-55
▁对	-56
知道	-57
可以	-58
▁有	-59
时候	-60
哈哈	-61
怎么	-62
!""	-63
▁啊	-64
▁"	-65
妈妈	-66
不是	-67
他们	-68
喜欢	-69
▁然后	-70
▁就	-71
现在	-72
▁在	-73
▁看	-74
还是	-75
xxx	-76
▁xxx	-77
觉得	-78
那个	-79
▁什么	-80
了一	-81
..	-82
因为	-83
真的	-84
还有	-85
但是	-86
起来	-87
▁要	-88
。"	-89
?""	-90
这样	-91
到了	-92
▁大	-93
朋友	-94
也是	-95
an	-96
AD	-97
LT	-98
ADU	-99
ADULT	-100
的时候	-101
出来	-102
▁它	-103
ao	-104
▁呢	-105
他的	-106
可是	-107
▁来	-108
孩子	-109
东西	-110
▁我们	-111
都是	-112
en	-113
的人	-114
的小	-115
▁到	-116
爸爸	-117
也不	-118
ai	-119
比赛	-120
▁""	-121
▁n	-122
所以	-123
你好	-124
这么	-125
▁说	-126
故事	-127
▁z	-128
▁哦	-129
我的	-130
已经	-131
ei	-132
有一	-133
▁还	-134
▁哈哈	-135
很多	-136
▁嗯嗯	-137
中国	-138
感觉	-139
FA	-140
▁去	-141
FATHER	-142
▁上	-143
▁y	-144
,""	-145
里面	-146
▁b	-147
▁d	-148
▁也	-149
▁吃	-150
大家	-151
可能	-152
自己的	-153
其实	-154
不过	-155
一起	-156
开始	-157
时间	-158
应该	-159
▁呀	-160
电影	-161
来了	-162
...	-163
▁l	-164
▁给	-165
的话	-166
▁就是	-167
而且	-168
拜拜	-169
好的	-170
如果	-171
▁s	-172
你们	-173
今天	-174
▁是啊	-175
▁h	-176
一样	-177
再见	-178
这些	-179
非常	-180
▁他们	-181
▁把	-182
最近	-183
比较	-184
走了	-185
▁妈妈	-186
青蛙	-187
一点	-188
新闻	-189
一下	-190
▁没	-191
看到	-192
▁怎么	-193
特别	-194
▁你好	-195
不好	-196
▁讲	-197
大的	-198
下来	-199
▁没有	-200
▁sh	-201
的一	-202
狐狸	-203
不会	-204
这种	-205
一只	-206
的是	-207
AN	-208
百分	-209
不能	-210
发现	-211
为什么	-212
▁都	-213
▁会	-214
你的	-215
那么	-216
一定	-217
ou	-218
以后	-219
老鼠	-220
▁zh	-221
人的	-222
百分之	-223
地方	-224
生活	-225
看看	-226
4.	-227
▁对啊	-228
去了	-229
事情	-230
这是	-231
那种	-232
▁吗	-233
▁还有	-234
苹果	-235
▁拿	-236
上的	-237
一直	-238
▁哎	-239
公司	-240
厉害	-241
▁想	-242
之前	-243
▁喔	-244
不知道	-245
我觉得	-246
世界	-247
▁很	-248
好像	-249
需要	-250
肯定	-251
▁只	-252
ang	-253
高兴	-254
▁玩	-255
两个	-256
二十	-257
▁吧	-258
关注	-259
我就	-260
一些	-261
▁可以	-262
于是	-263
最后	-264
▁但是	-265
希望	-266
▁m	-267
动物	-268
确实	-269
老师	-270
一天	-271
看了	-272
▁下	-273
▁哪	-274
问题	-275
▁人	-276
▁里	-277
告诉	-278
▁en	-279
▁g	-280
我也	-281
不错	-282
▁爸爸	-283
看见	-284
▁ni	-285
这里	-286
一次	-287
为了	-288
ji	-289
xi	-290
之后	-291
原来	-292
兔子	-293
手机	-294
国家	-295
不要	-296
眼睛	-297
▁着	-298
▁这样	-299
过来	-300
地说	-301
▁因为	-302
的大	-303
那些	-304
1.	-305
有点	-306
▁现在	-307
▁这个	-308
它们	-309
▁w	-310
后来	-311
好了	-312
里的	-313
回家	-314
足球	-315
以前	-316
出了	-317
游戏	-318
▁所以	-319
听说	-320
▁当	-321
ch	-322
▁知道	-323
▁再	-324
第二	-325
▁青蛙	-326
会儿	-327
咱们	-328
▁从	-329
虽然	-330
▁le	-331
先生	-332
谢谢	-333
要是	-334
二零	-335
▁放	-336
▁好的	-337
森林	-338
工作	-339
漂亮	-340
突然	-341
色的	-342
▁打	-343
每天	-344
--	-345
真是	-346
ng	-347
办法	-348
▁可	-349
了一个	-350
姐姐	-351
我是	-352
GR	-353
AND	-354
GRAND	-355
XX	-356
篮球	-357
▁t	-358
晚上	-359
▁这里	-360
意思	-361
▁狗	-362
▁啦	-363
就会	-364
回来	-365
▁猫	-366
电视	-367
变成	-368
有一个	-369
是一	-370
有的	-371
太阳	-372
别人	-373
▁a	-374
▁哈哈哈	-375
睡觉	-376
真的是	-377
▁又	-378
▁xi	-379
运动	-380
都不	-381
这次	-382
发生	-383
▁谁	-384
▁做	-385
▁家	-386
▁飞	-387
▁跟	-388
!"	-389
当时	-390
正在	-391
的故事	-392
市场	-393
▁是不是	-394
声音	-395
▁她	-396
妖怪	-397
▁但	-398
爷爷	-399
过去	-400
方面	-401
房子	-402
▁掉	-403
给我	-404
只是	-405
宝宝	-406
准备	-407
国王	-408
第一	-409
▁k	-410
人家	-411
出去	-412
▁阿	-413
不到	-414
结果	-415
上了	-416
▁干	-417
好多	-418
▁ji	-419
衣服	-420
▁是的	-421
3.	-422
了解	-423
▁长	-424
美国	-425
毕竟	-426
身体	-427
▁完	-428
▁其实	-429
来到	-430
▁水	-431
一边	-432
小熊	-433
▁多	-434
猴子	-435
先走了	-436
了吗	-437
▁大象	-438
个人	-439
▁三	-440
2.	-441
老虎	-442
好看	-443
▁bu	-444
这一	-445
看着	-446
来的	-447
地上	-448
一个人	-449
平时	-450
或者	-451
▁哇	-452
▁今天	-453
人们	-454
学校	-455
▁快	-456
GRANDMOTHER	-457
▁如果	-458
说的	-459
出现	-460
▁拜拜	-461
在看	-462
我要	-463
有人	-464
终于	-465
表示	-466
哥哥	-467
▁东西	-468
发展	-469
奶奶	-470
心里	-471
▁听	-472
uo	-473
...""	-474
▁用	-475
样子	-476
她的	-477
记得	-478
。""""	-479
儿子	-480
想到	-481
▁ch	-482
姑娘	-483
给你	-484
这样的	-485
今年	-486
它的	-487
▁能	-488
▁里面	-489
▁找	-490
主人	-491
开心	-492
了吧	-493
看过	-494
后面	-495
我还	-496
▁而	-497
▁过	-498
▁可是	-499
有什么	-500
▁妖怪	-501
子里	-502
有个	-503
▁那个	-504
不对	-505
越来	-506
继续	-507
容易	-508
公主	-509
越来越	-510
家里	-511
美丽	-512
只有	-513
快乐	-514
一看	-515
松鼠	-516
是不是	-517
许多	-518
学习	-519
▁天	-520
反正	-521
不了	-522
以为	-523
情况	-524
▁让	-525
我们的	-526
蚂蚁	-527
▁树	-528
▁q	-529
关系	-530
开了	-531
重要	-532
小白	-533
身边	-534
三十	-535
是一个	-536
狮子	-537
▁shi	-538
表现	-539
▁走	-540
▁zhei	-541
多的	-542
▁ba	-543
▁苹果	-544
▁ma	-545
▁得	-546
亿元	-547
你知道	-548
▁对呀	-549
▁和	-550
是个	-551
小猪	-552
也很	-553
BL	-554
ANK	-555
BLANK	-556
这时	-557
才能	-558
经常	-559
一般	-560
名字	-561
▁两	-562
的东西	-563
▁边	-564
慢慢	-565
的一个	-566
生气	-567
起了	-568
进行	-569
▁好不好	-570
成了	-571
认为	-572
医生	-573
影响	-574
▁有没有	-575
不得	-576
的事	-577
也没有	-578
马上	-579
身上	-580
的地方	-581
▁那么	-582
其他	-583
都会	-584
尾巴	-585
中的	-586
几个	-587
ge	-588
同学	-589
▁跑	-590
▁yi	-591
月亮	-592
着一	-593
颜色	-594
▁真	-595
只要	-596
比如	-597
这部	-598
▁看看	-599
▁故事	-600
他们的	-601
你是	-602
▁叫	-603
过了	-604
住了	-605
就不	-606
▁孩	-607
▁哪里	-608
你说	-609
帮助	-610
很好	-611
找到	-612
▁洗	-613
外面	-614
▁的时候	-615
▁起来	-616
消息	-617
▁球	-618
的啊	-619
了起来	-620
学生	-621
喜欢看	-622
▁为什么	-623
▁我觉得	-624
我看	-625
你好啊	-626
冠军	-627
有些	-628
就在	-629
▁先	-630
不起	-631
三个	-632
决定	-633
▁而且	-634
一会儿	-635
进了	-636
是什么	-637
我不	-638
▁我是	-639
你看	-640
?""""	-641
也没	-642
▁不是	-643
子的	-644
害怕	-645
▁you	-646
当然	-647
我想	-648
企业	-649
直接	-650
年的	-651
技术	-652
努力	-653
▁喜欢	-654
▁阿姨	-655
下了	-656
成为	-657
进去	-658
球员	-659
相信	-660
总是	-661
二零一	-662
男孩	-663
听到	-664
多了	-665
来说	-666
能够	-667
肚子	-668
朋友们	-669
都有	-670
▁再见	-671
▁na	-672
不行	-673
实力	-674
回答	-675
那里	-676
ui	-677
哪里	-678
都在	-679
你也	-680
大了	-681
年轻	-682
▁不过	-683
参加	-684
只能	-685
弟弟	-686
十分	-687
吃的	-688
明白	-689
BA	-690
投资	-691
上去	-692
多少	-693
带着	-694
女儿	-695
▁hao	-696
刚才	-697
女孩	-698
▁出来	-699
▁自己	-700
坐在	-701
▁同	-702
▁手	-703
听了	-704
好好	-705
▁像	-706
!""""	-707
死了	-708
上面	-709
机会	-710
我都	-711
旁边	-712
▁你们	-713
回去	-714
说了	-715
几天	-716
▁本	-717
在一起	-718
来看	-719
▁太	-720
星星	-721
▁是呀	-722
也有	-723
奇怪	-724
兄弟	-725
赶紧	-726
▁等	-727
▁最	-728
和小	-729
哈哈哈	-730
怎么样	-731
就要	-732
的那个	-733
十二	-734
乌龟	-735
▁一下	-736
说话	-737
▁"*	-738
小白兔	-739
▁老	-740
me	-741
见了	-742
发布	-743
长的	-744
愿意	-745
▁呃	-746
▁对不对	-747
"",	-748
▁画	-749
下去	-750
蝴蝶	-751
体育	-752
部分	-753
让我	-754
健康	-755
刚刚	-756
▁飞机	-757
的事情	-758
一条	-759
的比赛	-760
一百	-761
聪明	-762
有一天	-763
极了	-764
就像	-765
▁wo	-766
小的	-767
经济	-768
还要	-769
很有	-770
▁坐	-771
球队	-772
▁花	-773
刺猬	-774
必须	-775
关于	-776
汽车	-777
是在	-778
回到	-779
清楚	-780
其中	-781
十五	-782
▁真的	-783
欢迎	-784
▁你也	-785
城市	-786
都没有	-787
他说	-788
安全	-789
各种	-790
eng	-791
电视剧	-792
小兔	-793
ian	-794
父亲	-795
根本	-796
通过	-797
萝卜	-798
房间	-799
."	-800
第二天	-801
很快	-802
可爱	-803
▁后来	-804
电话	-805
▁需要	-806
大学	-807
▁马	-808
一种	-809
路上	-810
那你	-811
忽然	-812
▁还是	-813
注意	-814
耳朵	-815
样的	-816
就可以	-817
种子	-818
目前	-819
对于	-820
颈鹿	-821
主要	-822
ong	-823
宝贝	-824
教育	-825
去看	-826
的好	-827
数据	-828
uai	-829
▁开	-830
▁这么	-831
保护	-832
显示	-833
还没	-834
选择	-835
妹妹	-836
完了	-837
▁de	-838
科技	-839
▁da	-840
在这	-841
▁弄	-842
昨天	-843
▁被	-844
长得	-845
▁zhe	-846
▁谢谢	-847
他就	-848
▁红	-849
翅膀	-850
一定要	-851
她们	-852
给他	-853
得到	-854
▁我也	-855
都很	-856
鼻子	-857
石头	-858
一块	-859
▁那你	-860
研究	-861
的那	-862
树上	-863
▁中	-864
▁睡觉	-865
▁哈	-866
▁每	-867
报道	-868
新的	-869
简直	-870
小老鼠	-871
他是	-872
▁二	-873
下的	-874
医院	-875
嘴巴	-876
不同	-877
只好	-878
社会	-879
桌子	-880
▁行	-881
小心	-882
▁四	-883
小猴	-884
变得	-885
山羊	-886
认识	-887
得了	-888
基本	-889
所有	-890
他在	-891
甚至	-892
小花	-893
日本	-894
高的	-895
场比赛	-896
▁别	-897
▁猪	-898
蜜蜂	-899
▁点	-900
增长	-901
垃圾	-902
就把	-903
看来	-904
能力	-905
吃了	-906
还在	-907
娃娃	-908
家的	-909
有了	-910
演的	-911
▁诶	-912
不太	-913
作为	-914
服务	-915
00	-916
价格	-917
成功	-918
接着	-919
▁男	-920
▁头	-921
除了	-922
所有的	-923
说是	-924
▁噢	-925
吃饭	-926
感到	-927
十一	-928
▁出	-929
动物们	-930
让人	-931
去找	-932
""。	-933
很喜欢	-934
大象	-935
休息	-936
站在	-937
食物	-938
前面	-939
放在	-940
经过	-941
小鸟	-942
了啊	-943
美丽的	-944
更多	-945
想要	-946
▁ai	-947
原因	-948
幸福	-949
▁张	-950
好吧	-951
森林里	-952
的声音	-953
了个	-954
疫情	-955
一刻	-956
事儿	-957
实在	-958
有没有	-959
▁你好啊	-960
期待	-961
木头	-962
也会	-963
演员	-964
还挺	-965
伙伴	-966
类的	-967
跟着	-968
▁qi	-969
日子	-970
状态	-971
的样子	-972
▁带	-973
▁并	-974
天天	-975
小猫	-976
产品	-977
],	-978
都要	-979
任何	-980
可惜	-981
▁倒	-982
明星	-983
进入	-984
不知	-985
一声	-986
▁ya	-987
▁这些	-988
▁书	-989
遇到	-990
公鸡	-991
▁跳	-992
不然	-993
北京	-994
▁地	-995
▁ta	-996
▁熊	-997
用的	-998
▁唉	-999
华为	-1000
大声	-1001
父母	-1002
是我	-1003
要求	-1004
行业	-1005
明天	-1006
离开	-1007
▁哦哦	-1008
了呢	-1009
五十	-1010
▁e	-1011
打开	-1012
早上	-1013
分享	-1014
对对	-1015
一步	-1016
不多	-1017
的吗	-1018
面前	-1019
整个	-1020
冬天	-1021
怎么办	-1022
▁全	-1023
一片	-1024
羽毛	-1025
给了	-1026
教练	-1027
本来	-1028
成绩	-1029
不想	-1030
把它	-1031
做的	-1032
更加	-1033
▁确实	-1034
段时间	-1035
正好	-1036
活动	-1037
两只	-1038
天空	-1039
母亲	-1040
说完	-1041
结束	-1042
不住	-1043
▁觉得	-1044
轻轻	-1045
如此	-1046
▁gei	-1047
会有	-1048
美元	-1049
历史	-1050
▁睡	-1051
喜欢的	-1052
月二十	-1053
哪儿	-1054
完全	-1055
▁颜色	-1056
掉了	-1057
春天	-1058
NBA	-1059
RE	-1060
▁以	-1061
资讯	-1062
支持	-1063
漂亮的	-1064
灰狼	-1065
国的	-1066
之间	-1067
▁大家	-1068
大家都	-1069
出来了	-1070
伤心	-1071
是谁	-1072
就能	-1073
担心	-1074
专业	-1075
运动员	-1076
没想到	-1077
▁ei	-1078
管理	-1079
满了	-1080
▁中国	-1081
▁好像	-1082
我知道	-1083
相关	-1084
是吧	-1085
笑着	-1086
第三	-1087
▁当然	-1088
小兔子	-1089
住在	-1090
兴趣	-1091
脑袋	-1092
礼物	-1093
不用	-1094
都没	-1095
那样	-1096
什么的	-1097
是啊	-1098
银行	-1099
西瓜	-1100
人民	-1101
悄悄	-1102
唱歌	-1103
很久	-1104
王子	-1105
节目	-1106
▁孩儿	-1107
▁帮	-1108
我去	-1109
▁这是	-1110
电脑	-1111
正常	-1112
如何	-1113
不错的	-1114
消费	-1115
▁没错	-1116
有很多	-1117
现在的	-1118
,[	-1119
▁皮	-1120
每次	-1121
网球	-1122
让他	-1123
真的很	-1124
还不	-1125
小松鼠	-1126
走到	-1127
阳光	-1128
下次	-1129
人员	-1130
竟然	-1131
我说	-1132
我也是	-1133
▁请	-1134
看的	-1135
你要	-1136
信息	-1137
你就	-1138
不管	-1139
面包	-1140
主要是	-1141
一年	-1142
20	-1143
乌鸦	-1144
训练	-1145
▁mei	-1146
句话	-1147
政策	-1148
财经	-1149
▁喝	-1150
方式	-1151
的新闻	-1152
挺好的	-1153
的家	-1154
精神	-1155
超级	-1156
▁kan	-1157
到底	-1158
游泳	-1159
好朋友	-1160
南方	-1161
▁七	-1162
不仅	-1163
▁五	-1164
一个小	-1165
四十	-1166
鸭子	-1167
笑了	-1168
▁lai	-1169
居然	-1170
一阵	-1171
九年	-1172
比如说	-1173
原来是	-1174
的呢	-1175
中医	-1176
▁好吧	-1177
跑到	-1178
▁也是	-1179
▁哎呀	-1180
件事	-1181
孩子们	-1182
同时	-1183
打球	-1184
▁上面	-1185
受伤	-1186
那边	-1187
▁高	-1188
无法	-1189
国内	-1190
真正	-1191
的那种	-1192
精彩	-1193
舒服	-1194
得很	-1195
简单	-1196
▁白	-1197
实现	-1198
太太	-1199
小姐	-1200
一千	-1201
在了	-1202
爱的	-1203
还能	-1204
妻子	-1205
出的	-1206
哪个	-1207
老人	-1208
根据	-1209
小狗	-1210
我在	-1211
自然	-1212
接受	-1213
视频	-1214
▁才	-1215
应该是	-1216
选手	-1217
坏了	-1218
永远	-1219
▁希望	-1220
不少	-1221
天上	-1222
▁可能	-1223
▁买	-1224
叶子	-1225
看不	-1226
从来	-1227
环境	-1228
由于	-1229
资金	-1230
还没有	-1231
好啊	-1232
别的	-1233
生日	-1234
蘑菇	-1235
不可	-1236
人都	-1237
河马	-1238
▁长颈鹿	-1239
▁回	-1240
▁宝宝	-1241
说着	-1242
学会	-1243
▁爬	-1244
我感觉	-1245
生命	-1246
▁几	-1247
使用	-1248
不是很	-1249
小狐狸	-1250
▁ao	-1251
▁新	-1252
门口	-1253
一位	-1254
压力	-1255
难道	-1256
是因为	-1257
▁nei	-1258
蛋糕	-1259
出来的	-1260
▁我也是	-1261
危险	-1262
无聊	-1263
▁车	-1264
▁耶	-1265
严重	-1266
获得	-1267
不敢	-1268
看到了	-1269
女排	-1270
▁据	-1271
▁告诉	-1272
基金	-1273
国际	-1274
一家	-1275
值得	-1276
坚持	-1277
蜗牛	-1278
你在	-1279
财经资讯	-1280
▁一点	-1281
▁老师	-1282
西安	-1283
适合	-1284
不一样	-1285
不断	-1286
音乐	-1287
位置	-1288
皇帝	-1289
系统	-1290
包括	-1291
道理	-1292
不停	-1293
说不	-1294
要去	-1295
大树	-1296
了一下	-1297
▁地方	-1298
味道	-1299
超过	-1300
立刻	-1301
▁shen	-1302
国足	-1303
▁嗯呢	-1304
就是说	-1305
也不知道	-1306
这么多	-1307
▁一起	-1308
▁最后	-1309
尤其	-1310
全部	-1311
天气	-1312
▁见	-1313
想着	-1314
答应	-1315
妈妈说	-1316
▁ne	-1317
▁是吗	-1318
估计	-1319
因此	-1320
起来了	-1321
怎样	-1322
着急	-1323
水平	-1324
帽子	-1325
生的	-1326
项目	-1327
人类	-1328
方便	-1329
蜘蛛	-1330
计划	-1331
算是	-1332
▁果	-1333
小猴子	-1334
心想	-1335
▁下来	-1336
中国的	-1337
▁十	-1338
优秀	-1339
出门	-1340
我现在	-1341
▁木头	-1342
你怎么	-1343
的花	-1344
月十	-1345
才是	-1346
这儿	-1347
树林	-1348
ua	-1349
▁咱们	-1350
让你	-1351
习惯	-1352
10	-1353
▁yao	-1354
▁最近	-1355
分钟	-1356
▁欢迎	-1357
吓得	-1358
地问	-1359
玩儿	-1360
那儿	-1361
听见	-1362
▁chi	-1363
▁f	-1364
曾经	-1365
改变	-1366
寻找	-1367
感谢	-1368
▁黄	-1369
这部电影	-1370
时代	-1371
介绍	-1372
心的	-1373
我还是	-1374
几年	-1375
▁这样子	-1376
▁嘿	-1377
增加	-1378
随着	-1379
拿着	-1380
还可以	-1381
差不多	-1382
你可以	-1383
智能	-1384
可怜	-1385
未来	-1386
▁桌子	-1387
赛季	-1388
哎呀	-1389
▁发生	-1390
躺在	-1391
▁一个	-1392
处理	-1393
▁hai	-1394
婆婆	-1395
的老	-1396
导致	-1397
lai	-1398
还会	-1399
存在	-1400
仔细	-1401
很大的	-1402
的一些	-1403
平台	-1404
不容易	-1405
乒乓	-1406
知识	-1407
主意	-1408
▁qu	-1409
第一次	-1410
动了	-1411
都能	-1412
麻烦	-1413
▁其中	-1414
头上	-1415
的心	-1416
一下子	-1417
小刺猬	-1418
网络	-1419
――	-1420
sh	-1421
出一	-1422
就说	-1423
随便	-1424
这只	-1425
二零一九年	-1426
内容	-1427
一定会	-1428
锻炼	-1429
的呀	-1430
发挥	-1431
那是	-1432
把他	-1433
▁小朋友	-1434
▁主人	-1435
谢谢你	-1436
多么	-1437
解决	-1438
▁为	-1439
▁jiu	-1440
网上	-1441
以及	-1442
你不	-1443
▁bi	-1444
说道	-1445
方法	-1446
▁哈哈哈哈	-1447
见过	-1448
梅西	-1449
▁饭	-1450
母鸡	-1451
了一只	-1452
点儿	-1453
树叶	-1454
属于	-1455
大王	-1456
▁虽然	-1457
恢复	-1458
河边	-1459
受到	-1460
急忙	-1461
全国	-1462
▁以后	-1463
的生活	-1464
叔叔	-1465
的就是	-1466
的时间	-1467
我有	-1468
▁抓	-1469
忘了	-1470
▁坏	-1471
英雄	-1472
跟我	-1473
就这样	-1474
建议	-1475
▁哥哥	-1476
送给	-1477
打的	-1478
月份	-1479
XXX	-1480
最好的	-1481
XXXXX	-1482
点点	-1483
从前	-1484
▁开始	-1485
行为	-1486
▁p	-1487
了好	-1488
下面	-1489
▁你知道	-1490
达到	-1491
一把	-1492
ma	-1493
无论	-1494
▁一样	-1495
以来	-1496
▁空	-1497
保持	-1498
小朋友	-1499
六十	-1500
粉丝	-1501
世界上	-1502
过去了	-1503
▁该	-1504
没错	-1505
队的	-1506
魔法	-1507
其他的	-1508
到处	-1509
对了	-1510
可怕	-1511
大灰狼	-1512
机构	-1513
一听	-1514
只见	-1515
▁于是	-1516
▁它们	-1517
我先	-1518
▁鱼	-1519
文章	-1520
了很多	-1521
星期	-1522
▁吓	-1523
见到	-1524
作用	-1525
普通	-1526
考虑	-1527
▁结果	-1528
进来	-1529
变成了	-1530
的这个	-1531
证券	-1532
▁圆	-1533
▁应该	-1534
▁我看	-1535
毛毛	-1536
池塘	-1537
▁接	-1538
你有	-1539
来到了	-1540
小时	-1541
并不	-1542
演技	-1543
羡慕	-1544
yi	-1545
的说	-1546
飞机	-1547
▁我的	-1548
忘记	-1549
自由	-1550
读书	-1551
播报	-1552
一口	-1553
从小	-1554
身子	-1555
每个	-1556
爱情	-1557
三百	-1558
还是很	-1559
比较喜欢	-1560
▁li	-1561
睡着	-1562
他想	-1563
没事	-1564
一场	-1565
▁南	-1566
我先走了	-1567
机器	-1568
▁菜	-1569
推荐	-1570
回来了	-1571
我可以	-1572
▁xiao	-1573
公公	-1574
对手	-1575
过程	-1576
不久	-1577
很大	-1578
名的	-1579
阿姨	-1580
跑了	-1581
鳄鱼	-1582
▁脚	-1583
美的	-1584
还好	-1585
玉米	-1586
那么多	-1587
上来	-1588
政府	-1589
底下	-1590
是真的	-1591
下降	-1592
我还有	-1593
精灵	-1594
全球	-1595
的手	-1596
金融	-1597
上市	-1598
一棵	-1599
头鹰	-1600
干什么	-1601
动作	-1602
另外	-1603
当中	-1604
嘟嘟	-1605
气球	-1606
▁房间	-1607
乒乓球	-1608
三点	-1609
我了	-1610
百姓	-1611
很难	-1612
▁ge	-1613
好像是	-1614
重新	-1615
▁这儿	-1616
夏天	-1617
牙齿	-1618
经历	-1619
不好意思	-1620
爸爸妈妈	-1621
职业	-1622
回事	-1623
赶快	-1624
▁事	-1625
也要	-1626
▁今年	-1627
完成	-1628
伯伯	-1629
洞里	-1630
打篮球	-1631
规模	-1632
▁r	-1633
现场	-1634
也就	-1635
看见了	-1636
▁摔	-1637
季度	-1638
▁医生	-1639
▁穿	-1640
偷偷	-1641
对方	-1642
微博	-1643
发出	-1644
干净	-1645
着小	-1646
然后就	-1647
巫婆	-1648
从此	-1649
我得	-1650
合作	-1651
是的	-1652
水里	-1653
▁zai	-1654
▁黑	-1655
打算	-1656
连忙	-1657
红的	-1658
胡子	-1659
厉害的	-1660
再也不	-1661
实际	-1662
也可以	-1663
你好呀	-1664
最大的	-1665
头发	-1666
力量	-1667
是有	-1668
小蚂蚁	-1669
邀请	-1670
去看看	-1671
善良	-1672
千万	-1673
方向	-1674
早就	-1675
椅子	-1676
树枝	-1677
行了	-1678
队伍	-1679
的电影	-1680
常常	-1681
▁你说	-1682
晚安	-1683
一会	-1684
上课	-1685
嘻嘻	-1686
床上	-1687
▁躲	-1688
业务	-1689
火车	-1690
▁吃饭	-1691
也不是	-1692
交易	-1693
更多的	-1694
幼儿	-1695
把我	-1696
和你	-1697
高兴地	-1698
▁种子	-1699
速度	-1700
▁反正	-1701
▁翻	-1702
哈喽	-1703
点评	-1704
▁感觉	-1705
也在	-1706
理解	-1707
去吧	-1708
▁di	-1709
控制	-1710
什么时候	-1711
▁朋友	-1712
球迷	-1713
结婚	-1714
嘴里	-1715
不在	-1716
代表	-1717
做了	-1718
微信	-1719
▁bao	-1720
报告	-1721
▁对对对	-1722
就有	-1723
渐渐	-1724
这个人	-1725
GRANDFATHER	-1726
八十	-1727
▁过来	-1728
分析	-1729
一大	-1730
很多人	-1731
▁嘛	-1732
。[	-1733
认真	-1734
▁已经	-1735
到这里	-1736
都市	-1737
九十	-1738
▁晚上	-1739
将军	-1740
▁加	-1741
不上	-1742
在您	-1743
带来	-1744
果然	-1745
uan	-1746
一切	-1747
左右	-1748
女生	-1749
脖子	-1750
这天	-1751
▁香	-1752
在这里	-1753
等等	-1754
小时候	-1755
▁要不要	-1756
娱乐	-1757
有时候	-1758
文化	-1759
调整	-1760
过的	-1761
或者是	-1762
怪物	-1763
提供	-1764
▁肯定	-1765
▁哭	-1766
五百	-1767
▁特别	-1768
力气	-1769
▁种	-1770
七十	-1771
▁那里	-1772
生产	-1773
似的	-1774
分别	-1775
乖乖	-1776
并没有	-1777
▁床	-1778
的歌	-1779
困难	-1780
四个	-1781
的问题	-1782
▁有一天	-1783
不喜欢	-1784
胡萝卜	-1785
小孩	-1786
▁原来	-1787
上涨	-1788
纷纷	-1789
尤其是	-1790
运会	-1791
功能	-1792
聊天	-1793
▁kuai	-1794
▁shuo	-1795
▁2	-1796
热点	-1797
葡萄	-1798
▁起	-1799
在您身边	-1800
勇敢	-1801
▁事情	-1802
▁外面	-1803
摇头	-1804
知道了	-1805
记者	-1806
你想	-1807
具体	-1808
下一	-1809
眼泪	-1810
我会	-1811
▁学	-1812
和我	-1813
想法	-1814
鞋子	-1815
我来	-1816
辛苦	-1817
可能是	-1818
上映	-1819
好吃	-1820
附近	-1821
非常的	-1822
个子	-1823
多久	-1824
风险	-1825
有一只	-1826
按照	-1827
兴奋	-1828
变化	-1829
的孩子	-1830
治疗	-1831
跟你	-1832
邻居	-1833
面对	-1834
感兴趣	-1835
你能	-1836
了下来	-1837
▁可不是	-1838
泡泡	-1839
收入	-1840
不如	-1841
警察	-1842
国外	-1843
就被	-1844
了出来	-1845
世界杯	-1846
你这	-1847
好看的	-1848
指数	-1849
▁听说	-1850
也不会	-1851
让我们	-1852
主任	-1853
国家的	-1854
▁八	-1855
两个人	-1856
就是这些	-1857
玻璃	-1858
镜子	-1859
找到了	-1860
导演	-1861
吸引	-1862
考试	-1863
不着	-1864
赢了	-1865
▁佩	-1866
股份	-1867
讨厌	-1868
叫做	-1869
很少	-1870
幼儿园	-1871
一件	-1872
鼹鼠	-1873
上海	-1874
这就是	-1875
我就是	-1876
提高	-1877
▁写	-1878
四点	-1879
性的	-1880
发现了	-1881
持续	-1882
妈妈的	-1883
温暖	-1884
病毒	-1885
长大	-1886
就没有	-1887
里面的	-1888
本领	-1889
▁变	-1890
等着	-1891
厨房	-1892
也太	-1893
支付	-1894
第一个	-1895
二零二零	-1896
得好	-1897
旅游	-1898
▁这次	-1899
倒是	-1900
好奇	-1901
的吧	-1902
那只	-1903
家庭	-1904
▁广	-1905
▁hua	-1906
卫生	-1907
对不起	-1908
▁牛	-1909
不动	-1910
▁衣服	-1911
两天	-1912
了嘛	-1913
软件	-1914
▁我想	-1915
得意	-1916
提升	-1917
都市报	-1918
边的	-1919
专门	-1920
销售	-1921
而已	-1922
南方都市报	-1923
一样的	-1924
▁前	-1925
花儿	-1926
▁你是	-1927
小小的	-1928
直到	-1929
老板	-1930
▁住	-1931
也许	-1932
大海	-1933
小姐姐	-1934
▁怎么样	-1935
▁成	-1936
上一	-1937
呵呵	-1938
▁目前	-1939
▁同比	-1940
什么呢	-1941
零点	-1942
踢球	-1943
他把	-1944
地里	-1945
还不错	-1946
麻雀	-1947
看起来	-1948
湖人	-1949
梦想	-1950
给我们	-1951
ing	-1952
地球	-1953
CA	-1954
帮忙	-1955
▁万	-1956
▁这种	-1957
▁更	-1958
使劲	-1959
鸡蛋	-1960
▁收	-1961
▁c	-1962
集团	-1963
增长百分之	-1964
玩具	-1965
说他	-1966
▁la	-1967
整天	-1968
望着	-1969
设计	-1970
▁孩名	-1971
并且	-1972
笨笨	-1973
▁洗澡	-1974
了几	-1975
决赛	-1976
走着	-1977
▁拍	-1978
▁此	-1979
既然	-1980
九点	-1981
可真	-1982
早晨	-1983
七点	-1984
又是	-1985
了我	-1986
▁截	-1987
中心	-1988
公交	-1989
明显	-1990
▁看来	-1991
▁外	-1992
首先	-1993
周围	-1994
少年	-1995
没看	-1996
螃蟹	-1997
交通	-1998
几乎	-1999
4!	-2000
的新	-2001
▁生气	-2002
宣布	-2003
▁佩奇	-2004
我记得	-2005
不说	-2006
▁下面	-2007
了一会儿	-2008
不见	-2009
一点儿	-2010
▁抱	-2011
▁房子	-2012
六点	-2013
KER	-2014
CARE	-2015
就好了	-2016
TAKER	-2017
CARETAKER	-2018
天下	-2019
白的	-2020
的情况	-2021
听说过	-2022
11	-2023
生病	-2024
找不到	-2025
今晚	-2026
口袋	-2027
电子	-2028
神奇	-2029
科学	-2030
▁che	-2031
▁总	-2032
剧情	-2033
大哥	-2034
不再	-2035
直播	-2036
都被	-2037
女人	-2038
也挺	-2039
失望	-2040
智慧	-2041
可能会	-2042
中间	-2043
有关	-2044
面上	-2045
▁下去	-2046
小鸡	-2047
没什么	-2048
▁正	-2049
在关注	-2050
有趣	-2051
规定	-2052
没办法	-2053
一头	-2054
家人	-2055
▁姐姐	-2056
一张	-2057
虫子	-2058
一颗	-2059
亿美元	-2060
韩国	-2061
我朋友	-2062
就很	-2063
FI	-2064
不及	-2065
之一	-2066
女主	-2067
小鱼	-2068
▁一直	-2069
联网	-2070
最喜欢	-2071
▁海	-2072
地区	-2073
玩的	-2074
伙伴们	-2075
▁你看	-2076
相当	-2077
负责	-2078
这件事	-2079
▁棒	-2080
对啊	-2081
有多	-2082
▁一定	-2083
小黑	-2084
小青蛙	-2085
不小心	-2086
意义	-2087
条件	-2088
也能	-2089
八点	-2090
笑着说	-2091
平常	-2092
是这样	-2093
的故事点评	-2094
飞到	-2095
屁股	-2096
才会	-2097
也不能	-2098
重要的	-2099
▁六	-2100
在地上	-2101
ED	-2102
口气	-2103
想去	-2104
感情	-2105
那时候	-2106
旅行	-2107
激动	-2108
家伙	-2109
果子	-2110
一根	-2111
依然	-2112
▁回来	-2113
ID	-2114
都可以	-2115
哭了	-2116
年纪	-2117
价值	-2118
绝对	-2119
绿色	-2120
我之前	-2121
放弃	-2122
他又	-2123
窗户	-2124
▁却	-2125
联赛	-2126
真实	-2127
照片	-2128
▁垃圾	-2129
就开始	-2130
伤害	-2131
▁们	-2132
因为他	-2133
真的太	-2134
上学	-2135
草地上	-2136
车来了	-2137
▁关	-2138
有一次	-2139
成的	-2140
放心	-2141
在一个	-2142
▁比	-2143
场上	-2144
类型	-2145
是怎么	-2146
小羊	-2147
那就	-2148
▁往	-2149
che	-2150
▁wan	-2151
目标	-2152
不可以	-2153
公司的	-2154
。"""	-2155
呼呼	-2156
▁将	-2157
▁怕	-2158
这部剧	-2159
空中	-2160
的感觉	-2161
一座	-2162
▁恩	-2163
了一些	-2164
别人的	-2165
厉害了	-2166
年轻人	-2167
他俩	-2168
而是	-2169
?"	-2170
秘密	-2171
跳舞	-2172
▁有一次	-2173
抓住	-2174
河里	-2175
对着	-2176
连续	-2177
广播	-2178
UN	-2179
试试	-2180
那天	-2181
在家	-2182
的水	-2183
观众	-2184
是很	-2185
EN	-2186
下车	-2187
▁不知道	-2188
恒大	-2189
基本上	-2190
上班	-2191
年龄	-2192
男主	-2193
园里	-2194
大概	-2195
▁只要	-2196
之类的	-2197
你喜欢	-2198
▁出去	-2199
出现了	-2200
我这	-2201
老头	-2202
需求	-2203
▁刚才	-2204
▁第二	-2205
▁进去	-2206
ENTI	-2207
FIED	-2208
UNID	-2209
ENTIFIED	-2210
UNIDENTIFIED	-2211
城堡	-2212
想想	-2213
对他	-2214
这位	-2215
了他	-2216
热闹	-2217
山上	-2218
帮我	-2219
这下	-2220
马拉	-2221
行动	-2222
会不会	-2223
三年	-2224
现实	-2225
》,	-2226
大叫	-2227
骄傲	-2228
二零二零年	-2229
瓶子	-2230
太好了	-2231
]。	-2232
名叫	-2233
问道	-2234
▁拼	-2235
不出	-2236
手道	-2237
▁非常	-2238
传说	-2239
孔雀	-2240
紧张	-2241
错了	-2242
▁对于	-2243
基础	-2244
白兔	-2245
CBA	-2246
期间	-2247
▁zuo	-2248
产生	-2249
它是	-2250
▁我就	-2251
有一些	-2252
制造	-2253
▁楼	-2254
刚好	-2255
这篇	-2256
毛毛虫	-2257
▁后	-2258
▁自	-2259
互相	-2260
穿着	-2261
LA	-2262
▁爱	-2263
一定是	-2264
肯定是	-2265
好久	-2266
你知道吗	-2267
▁喂	-2268
的嘛	-2269
脸上	-2270
远远	-2271
对吧	-2272
到时候	-2273
明白了	-2274
再次	-2275
▁猫咪	-2276
回家了	-2277
醒了	-2278
互联网	-2279
zi	-2280
▁哼	-2281
后的	-2282
▁空手道	-2283
手里	-2284
草丛	-2285
你了	-2286
眼前	-2287
猎人	-2288
甜甜	-2289
一直在	-2290
LATI	-2291
LATIVE	-2292
RELATIVE	-2293
丈夫	-2294
睡着了	-2295
发了	-2296
客气	-2297
球赛	-2298
走去	-2299
悄悄地	-2300
大人	-2301
强的	-2302
玫瑰	-2303
吃掉	-2304
姐妹	-2305
you	-2306
怎么会	-2307
说明	-2308
怎么说	-2309
两千	-2310
▁弟弟	-2311
▁美国	-2312
事件	-2313
你去	-2314
难过	-2315
▁进	-2316
块钱	-2317
效果	-2318
但是我	-2319
组织	-2320
▁我要	-2321
在这个	-2322
还是挺	-2323
他还	-2324
▁shang	-2325
▁办	-2326
立即	-2327
退役	-2328
产业	-2329
高中	-2330
彩虹	-2331
和他	-2332
火箭	-2333
照顾	-2334
练习	-2335
解释	-2336
然而	-2337
股票	-2338
队员	-2339
袋鼠	-2340
买了	-2341
即使	-2342
远处	-2343
站了	-2344
白天	-2345
▁死	-2346
发生了	-2347
安静	-2348
满意	-2349
没有人	-2350
新闻啊	-2351
每个人	-2352
▁nar	-2353
田鼠	-2354
慢慢地	-2355
下午	-2356
资产	-2357
去年	-2358
秋天	-2359
最终	-2360
草莓	-2361
▁我知道	-2362
▁遍	-2363
呜呜	-2364
是不	-2365
树下	-2366
安排	-2367
调查	-2368
快地	-2369
表演	-2370
这个电影	-2371
把小	-2372
稳定	-2373
▁发现	-2374
▁当时	-2375
我喜欢	-2376
▁蓝	-2377
半天	-2378
▁厉害	-2379
综艺	-2380
看了看	-2381
刺激	-2382
qi	-2383
空气	-2384
--""	-2385
▁与	-2386
板块	-2387
话说	-2388
鸟儿	-2389
仍然	-2390
建设	-2391
▁小心	-2392
离开了	-2393
一个大	-2394
资本	-2395
媒体	-2396
好听	-2397
就没	-2398
不见了	-2399
一群	-2400
再说	-2401
燕子	-2402
▁jiao	-2403
我能	-2404
公开	-2405
仙女	-2406
部电影	-2407
半年	-2408
好吗	-2409
欺负	-2410
博士	-2411
屋里	-2412
▁dou	-2413
往前	-2414
▁站	-2415
走路	-2416
奥运会	-2417
ba	-2418
两人	-2419
懂得	-2420
经验	-2421
似乎	-2422
你会	-2423
八年	-2424
期的	-2425
累了	-2426
▁zen	-2427
▁山	-2428
▁羊	-2429
用户	-2430
▁吵	-2431
数据显示	-2432
想起	-2433
请问	-2434
便宜	-2435
跳跳	-2436
进步	-2437
都说	-2438
发行	-2439
拥有	-2440
消失	-2441
住着	-2442
部门	-2443
▁美	-2444
想了	-2445
熬夜	-2446
▁嗨	-2447
拿出	-2448
客人	-2449
搞笑	-2450
眼镜	-2451
小朋友们	-2452
醒来	-2453
同意	-2454
帮你	-2455
男人	-2456
角色	-2457
特别的	-2458
长长的	-2459
一夜	-2460
ianr	-2461
可不是	-2462
差点	-2463
是一种	-2464
的表现	-2465
最好	-2466
老爷爷	-2467
▁搭	-2468
接触	-2469
最高	-2470
跑步	-2471
▁害怕	-2472
这时候	-2473
毕业	-2474
的了	-2475
不去	-2476
减少	-2477
心情	-2478
真正的	-2479
二百	-2480
惊讶	-2481
感动	-2482
▁对的	-2483
不停地	-2484
我家	-2485
预计	-2486
19	-2487
绳子	-2488
不开	-2489
作品	-2490
▁好多	-2491
▁问	-2492
有所	-2493
▁看见	-2494
回了	-2495
男篮	-2496
力的	-2497
小象	-2498
屋子	-2499
▁那是	-2500
不够	-2501
新官	-2502
什么事	-2503
方面的	-2504
二点	-2505
传来	-2506
轻松	-2507
做好	-2508
陕西	-2509
多多	-2510
利润	-2511
利用	-2512
在地	-2513
在大	-2514
太多	-2515
胖胖	-2516
贝贝	-2517
这么说	-2518
人了	-2519
到的	-2520
来自	-2521
姆斯	-2522
怪兽	-2523
阅读	-2524
大笑	-2525
就去	-2526
观察	-2527
长颈鹿	-2528
跑去	-2529
投资者	-2530
▁动	-2531
重点	-2532
▁太阳	-2533
您的	-2534
情绪	-2535
开放	-2536
▁后面	-2537
bao	-2538
怎么了	-2539
英国	-2540
身上的	-2541
还是要	-2542
尽管	-2543
我很	-2544
网友	-2545
▁门	-2546
收听	-2547
▁zou	-2548
忍不住	-2549
保证	-2550
咪咪	-2551
地的	-2552
抱着	-2553
最近的	-2554
南方都市报播报	-2555
员工	-2556
呼噜	-2557
▁王	-2558
他一	-2559
▁擦	-2560
我没有	-2561
四百	-2562
夜里	-2563
提醒	-2564
到站了	-2565
zh	-2566
不聊	-2567
乔治	-2568
并不是	-2569
一起去	-2570
▁其	-2571
▁次	-2572
正是	-2573
标准	-2574
质量	-2575
▁哎哟	-2576
干嘛	-2577
举行	-2578
女孩子	-2579
享受	-2580
长大了	-2581
了呀	-2582
▁好了	-2583
在小	-2584
▁he	-2585
▁就是啊	-2586
满足	-2587
▁ye	-2588
▁甚至	-2589
再见吧	-2590
主播	-2591
感染	-2592
很厉害	-2593
向前	-2594
这条	-2595
▁从前	-2596
▁图	-2597
关键	-2598
唯一	-2599
措施	-2600
▁以前	-2601
反而	-2602
操作	-2603
没人	-2604
输了	-2605
▁妹妹	-2606
回头	-2607
这边	-2608
的眼睛	-2609
▁踢	-2610
心理	-2611
▁时候	-2612
偶尔	-2613
▁声	-2614
外国	-2615
▁昨天	-2616
▁hui	-2617
下雨	-2618
任务	-2619
一个个	-2620
印度	-2621
听过	-2622
就算	-2623
圆圆	-2624
们都	-2625
是吗	-2626
▁干嘛	-2627
你还	-2628
患者	-2629
▁zher	-2630
巴巴	-2631
的高	-2632
▁不要	-2633
偶像	-2634
肺炎	-2635
愿望	-2636
把你	-2637
背上	-2638
广播剧	-2639
故意	-2640
▁雪	-2641
农夫	-2642
在一	-2643
救命	-2644
破了	-2645
▁九	-2646
人生	-2647
影子	-2648
我对	-2649
▁漂亮	-2650
早知道	-2651
作业	-2652
检查	-2653
老婆	-2654
至于	-2655
亲爱的	-2656
喜鹊	-2657
▁那些	-2658
确实是	-2659
人说	-2660
正式	-2661
羽毛球	-2662
▁eng	-2663
▁wu	-2664
轻轻地	-2665
不像	-2666
▁根据	-2667
一万	-2668
气的	-2669
浑身	-2670
加油	-2671
用了	-2672
▁玩具	-2673
把自己	-2674
三天	-2675
利率	-2676
大叔	-2677
辈子	-2678
▁好吃	-2679
真好	-2680
计算	-2681
责任	-2682
▁人家	-2683
小鸭	-2684
散步	-2685
明明	-2686
竞争	-2687
联系	-2688
就是那个	-2689
不懂	-2690
创业	-2691
拿起	-2692
▁煮	-2693
皮皮	-2694
叫着	-2695
看得	-2696
巴萨	-2697
▁孩子	-2698
有意思	-2699
▁他的	-2700
皇马	-2701
加入	-2702
▁眼睛	-2703
▁第	-2704
不怕	-2705
以上	-2706
生物	-2707
进一步	-2708
▁就是说	-2709
是你	-2710
的地	-2711
▁各	-2712
至少	-2713
豆豆	-2714
小动物们	-2715
▁狗狗	-2716
啥的	-2717
家长	-2718
桃子	-2719
球星	-2720
▁小熊	-2721
剩下	-2722
阶段	-2723
热点财经资讯	-2724
师傅	-2725
讲故事	-2726
蔬菜	-2727
▁对了	-2728
货币	-2729
▁男孩	-2730
你说的	-2731
▁摆	-2732
恐怖	-2733
▁每天	-2734
全身	-2735
感冒	-2736
招呼	-2737
▁红色	-2738
▁这一刻	-2739
或许	-2740
采访	-2741
▁打翻	-2742
不可能	-2743
公布	-2744
系列	-2745
▁生活	-2746
小花猫	-2747
想象	-2748
确定	-2749
太多了	-2750
小女孩	-2751
不足	-2752
人物	-2753
合适	-2754
难受	-2755
▁奶奶	-2756
长时间	-2757
很多的	-2758
▁装	-2759
体验	-2760
农民	-2761
医疗	-2762
地产	-2763
拿到	-2764
这场比赛	-2765
打了	-2766
▁或者	-2767
詹姆斯	-2768
皮肤	-2769
▁椅子	-2770
小姑娘	-2771
▁bie	-2772
留下	-2773
2!	-2774
南瓜	-2775
领域	-2776
好几	-2777
风吹	-2778
▁会不会	-2779
命令	-2780
紧紧	-2781
贷款	-2782
证明	-2783
▁盖	-2784
态度	-2785
成长	-2786
死的	-2787
一起玩	-2788
夜晚	-2789
▁换	-2790
恐龙	-2791
意识	-2792
▁突然	-2793
▁国	-2794
他对	-2795
▁dao	-2796
痛苦	-2797
▁这一	-2798
真的好	-2799
个月	-2800
接下来	-2801
说不定	-2802
着头	-2803
▁之前	-2804
回答说	-2805
我们要	-2806
想的	-2807
印象	-2808
▁金	-2809
他不	-2810
的主	-2811
▁果实	-2812
▁为了	-2813
抬头	-2814
黑熊	-2815
▁对对	-2816
▁这时	-2817
中午	-2818
三千	-2819
跟他	-2820
▁嘿嘿	-2821
亲自	-2822
12	-2823
这不是	-2824
▁您	-2825
▁牠	-2826
里边	-2827
之下	-2828
▁洞	-2829
公众	-2830
所谓	-2831
意见	-2832
你们的	-2833
口罩	-2834
一部	-2835
我可	-2836
就是一个	-2837
▁近	-2838
来着	-2839
熟悉	-2840
▁小孩	-2841
买的	-2842
共同	-2843
欧洲	-2844
童话	-2845
一动	-2846
亮的	-2847
姚明	-2848
小男孩	-2849
人士	-2850
据说	-2851
明年	-2852
蜂蜜	-2853
走吧	-2854
我把	-2855
这个故事	-2856
地对	-2857
落在	-2858
躲在	-2859
小鹿	-2860
大大的	-2861
大熊	-2862
钢琴	-2863
开始了	-2864
我最近	-2865
▁汤	-2866
他也	-2867
优势	-2868
植物	-2869
做什么	-2870
盒子	-2871
红色的	-2872
▁河	-2873
教授	-2874
还得	-2875
猫头鹰	-2876
她说	-2877
居民	-2878
必要	-2879
有钱	-2880
为什么要	-2881
一说	-2882
叫声	-2883
▁皮球	-2884
保险	-2885
口水	-2886
拉着	-2887
老大	-2888
▁无	-2889
广州	-2890
要不	-2891
城里	-2892
女子	-2893
请你	-2894
机器人	-2895
安慰	-2896
联盟	-2897
喜马拉	-2898
喜马拉雅	-2899
▁李	-2900
糖果	-2901
角落	-2902
这才	-2903
▁同时	-2904
▁咦	-2905
▁笑	-2906
我我	-2907
走进	-2908
就不会	-2909
之外	-2910
令人	-2911
十年	-2912
品牌	-2913
拼命	-2914
积极	-2915
什么东西	-2916
百分之十	-2917
引起	-2918
心中	-2919
创造	-2920
时刻	-2921
你这个	-2922
▁页	-2923
上次	-2924
蛤蟆	-2925
▁xing	-2926
两年	-2927
记录	-2928
!"""	-2929
▁截至	-2930
我没	-2931
空间	-2932
被人	-2933
了一条	-2934
▁你好呀	-2935
哪些	-2936
黄金	-2937
土地	-2938
脾气	-2939
▁姊	-2940
在这儿	-2941
我才	-2942
流浪	-2943
▁之后	-2944
另一个	-2945
一日	-2946
劳动	-2947
的一种	-2948
听听	-2949
工具	-2950
转身	-2951
大部分	-2952
这样啊	-2953
在我	-2954
定的	-2955
如今	-2956
水果	-2957
没了	-2958
▁所以说	-2959
小说	-2960
数字	-2961
公园	-2962
团队	-2963
那一	-2964
巨大的	-2965
▁快点	-2966
▁都是	-2967
我怎么	-2968
不一会儿	-2969
▁你也在看	-2970
一刻再见吧	-2971
等到	-2972
玩游戏	-2973
利亚	-2974
小米	-2975
就想	-2976
指着	-2977
一起来	-2978
让他们	-2979
功夫	-2980
发展的	-2981
▁发	-2982
一路	-2983
听着	-2984
培训	-2985
很不	-2986
还有一个	-2987
▁强	-2988
的意思	-2989
很远	-2990
如果你	-2991
的风	-2992
▁只有	-2993
儿童	-2994
在那里	-2995
男朋友	-2996
更多财经资讯	-2997
勇士	-2998
参与	-2999
大臣	-3000
背后	-3001
▁回家	-3002
反应	-3003
圣诞	-3004
工资	-3005
时期	-3006
玩了	-3007
呼吸	-3008
实施	-3009
是最	-3010
爬到	-3011
作者	-3012
我只	-3013
树林里	-3014
刚开始	-3015
能不能	-3016
五点	-3017
梅花	-3018
▁那就	-3019
我们就	-3020
本身	-3021
深圳	-3022
告诉你	-3023
开门	-3024
给她	-3025
有空	-3026
跑得	-3027
夫妻	-3028
罗斯	-3029
说什么	-3030
▁奥	-3031
加上	-3032
失败	-3033
意外	-3034
这不	-3035
给大家	-3036
迅速	-3037
回聊	-3038
涨停	-3039
的对	-3040
排名	-3041
▁老鼠	-3042
实在是	-3043
创新	-3044
坐车	-3045
失误	-3046
拿了	-3047
经营	-3048
万元	-3049
五年	-3050
香港	-3051
男子	-3052
胜利	-3053
提前	-3054
▁动物	-3055
▁兔子	-3056
▁干么	-3057
▁我在	-3058
我还有事	-3059
▁打开	-3060
数量	-3061
有时	-3062
来找	-3063
喊道	-3064
▁比如	-3065
▁小朋友们	-3066
一眼	-3067
最大	-3068
花的	-3069
▁到处	-3070
▁比较	-3071
你呢	-3072
杀了	-3073
没有什么	-3074
▁青	-3075
是他	-3076
配合	-3077
食品	-3078
的原因	-3079
一朵	-3080
当地	-3081
骨头	-3082
伙子	-3083
咖啡	-3084
在哪里	-3085
草原	-3086
错误	-3087
觉得自己	-3088
沙发	-3089
蚊子	-3090
▁扔	-3091
外婆	-3092
时的	-3093
曼联	-3094
在他	-3095
很好的	-3096
面的	-3097
▁来自	-3098
▁狮子	-3099
粮食	-3100
不同的	-3101
▁敢	-3102
出生	-3103
现象	-3104
被子	-3105
香味	-3106
主动	-3107
台上	-3108
学的	-3109
广告	-3110
男生	-3111
累计	-3112
▁拉	-3113
断了	-3114
统计	-3115
做到	-3116
人民币	-3117
▁xia	-3118
▁养	-3119
裙子	-3120
▁第二天	-3121
上前	-3122
减肥	-3123
觉得很	-3124
▁这样啊	-3125
一号	-3126
艺术	-3127
六百	-3128
周末	-3129
商业	-3130
花瓣	-3131
更好的	-3132
去的	-3133
乐乐	-3134
山坡	-3135
▁一些	-3136
小乌龟	-3137
▁比如说	-3138
▁乱	-3139
相比	-3140
绿色的	-3141
更新	-3142
快递	-3143
生意	-3144
也好	-3145
决心	-3146
通知	-3147
大伙	-3148
我一	-3149
爪子	-3150
伸出	-3151
记住	-3152
孩子的	-3153
足球比赛	-3154
那个时候	-3155
▁教	-3156
▁时	-3157
大地	-3158
战争	-3159
热情	-3160
实话	-3161
快要	-3162
斯拉	-3163
▁热点财经资讯	-3164
那我	-3165
说过	-3166
获得了	-3167
▁wanr	-3168
之中	-3169
人在	-3170
多数	-3171
挂在	-3172
用手	-3173
百分之二十	-3174
把这	-3175
模样	-3176
碰到	-3177
不聊了	-3178
叫什么	-3179
因素	-3180
点头	-3181
快点	-3182
排球	-3183
病例	-3184
评论	-3185
回到家	-3186
IS	-3187
▁兔	-3188
最近有	-3189
就和	-3190
是否	-3191
五个	-3192
小灰	-3193
欣赏	-3194
程度	-3195
红色	-3196
联合	-3197
资源	-3198
打着	-3199
更是	-3200
蹦蹦	-3201
▁没关系	-3202
检测	-3203
这可	-3204
▁姊姊	-3205
在家里	-3206
有机会	-3207
女的	-3208
改革	-3209
▁贴	-3210
新鲜	-3211
贵的	-3212
下来了	-3213
每天都	-3214
on	-3215
来得	-3216
▁是吧	-3217
▁看到	-3218
喷嚏	-3219
小黄	-3220
整体	-3221
真的是太	-3222
礼貌	-3223
▁第一	-3224
实际上	-3225
全是	-3226
更好	-3227
洗澡	-3228
设备	-3229
百分之零点	-3230
的不	-3231
羊羊	-3232
送到	-3233
▁记得	-3234
▁痛	-3235
俱乐	-3236
不说了	-3237
▁你好你好	-3238
▁嘞	-3239
家族	-3240
▁西安	-3241
干活	-3242
建立	-3243
究竟	-3244
身份	-3245
造成	-3246
飞行	-3247
▁毕竟	-3248
俱乐部	-3249
肯定会	-3250
▁你也在关注	-3251
处于	-3252
奇妙	-3253
张开	-3254
方的	-3255
法律	-3256
玩耍	-3257
特别喜欢	-3258
初中	-3259
心地	-3260
和尚	-3261
打得	-3262
三只	-3263
四周	-3264
他就是	-3265
动漫	-3266
后悔	-3267
呱呱	-3268
用来	-3269
▁摸	-3270
不来	-3271
等待	-3272
▁乖乖	-3273
▁哪儿	-3274
办公	-3275
去做	-3276
▁杯	-3277
的头	-3278
道歉	-3279
队友	-3280
一点点	-3281
可爱的	-3282
好吃的	-3283
▁dong	-3284
特别是	-3285
风筝	-3286
▁南都	-3287
出一个	-3288
▁铺	-3289
人啊	-3290
思想	-3291
挑战	-3292
的日子	-3293
▁哟	-3294
带领	-3295
不错啊	-3296
了一大	-3297
叫起来	-3298
一名	-3299
去买	-3300
我一直	-3301
真是太	-3302
啦啦	-3303
逐渐	-3304
▁送	-3305
▁钱	-3306
也都	-3307
咚咚	-3308
执行	-3309
每年	-3310
告诉我	-3311
▁你这是	-3312
概念	-3313
巧克	-3314
长了	-3315
再聊	-3316
的路	-3317
青年	-3318
驾驶	-3319
小蜜蜂	-3320
生活中	-3321
的发展	-3322
培养	-3323
成熟	-3324
我和	-3325
武汉	-3326
闪闪	-3327
业绩	-3328
会上	-3329
对呀	-3330
用力	-3331
▁些	-3332
放下	-3333
是要	-3334
当年	-3335
▁除了	-3336
距离	-3337
长期	-3338
问他	-3339
▁昂	-3340
十八	-3341
巨人	-3342
是呀	-3343
点点头	-3344
感受	-3345
路过	-3346
打电话	-3347
▁有时候	-3348
人间	-3349
关心	-3350
往往	-3351
菲菲	-3352
▁身	-3353
快的	-3354
牡丹	-3355
范围	-3356
▁照	-3357
司机	-3358
针对	-3359
出现在	-3360
的一声	-3361
踢足球	-3362
八百	-3363
具有	-3364
四处	-3365
大婶	-3366
背着	-3367
他们在	-3368
广东	-3369
自行	-3370
就好	-3371
你觉得	-3372
怎么能	-3373
▁报	-3374
股价	-3375
顶上	-3376
就是在	-3377
箱子	-3378
说说	-3379
▁一天	-3380
不但	-3381
咕噜	-3382
商量	-3383
少了	-3384
苍蝇	-3385
怎么办呢	-3386
传统	-3387
动画	-3388
的美	-3389
遗憾	-3390
重的	-3391
▁终于	-3392
▁转	-3393
花园	-3394
▁一边	-3395
▁huai	-3396
制作	-3397
多年	-3398
老爷	-3399
老鹰	-3400
领导	-3401
受不了	-3402
喇叭	-3403
她就	-3404
提出	-3405
显得	-3406
告诉了	-3407
雪花	-3408
▁乔治	-3409
摇摇头	-3410
▁样	-3411
及时	-3412
晚饭	-3413
王后	-3414
▁好啊	-3415
▁有些	-3416
▁没事	-3417
▁狐狸	-3418
各种各	-3419
的小朋友	-3420
前的	-3421
形状	-3422
收拾	-3423
▁很多	-3424
名医	-3425
涨幅	-3426
饿了	-3427
鼓励	-3428
▁我还	-3429
地看着	-3430
无人	-3431
疾病	-3432
巧克力	-3433
没关系	-3434
他要	-3435
拒绝	-3436
症状	-3437
qu	-3438
起床	-3439
▁玩儿	-3440
答应了	-3441
整整	-3442
▁干吗	-3443
要不然	-3444
腾讯	-3445
你自己	-3446
▁这一刻就是这些	-3447
他和	-3448
▁这边	-3449
打游戏	-3450
跟你说	-3451
▁七点	-3452
小树	-3453
重视	-3454
因为我	-3455
上帝	-3456
倒了	-3457
厕所	-3458
保障	-3459
IST	-3460
SIST	-3461
SISTER	-3462
看好	-3463
in	-3464
举办	-3465
全都	-3466
市值	-3467
明确	-3468
是我的	-3469
怀疑	-3470
想吃	-3471
成本	-3472
有限	-3473
量的	-3474
▁狗儿	-3475
在里面	-3476
▁藏	-3477
不大	-3478
身后	-3479
预告	-3480
▁戴	-3481
严格	-3482
很高	-3483
思考	-3484
留言	-3485
白云	-3486
满满	-3487
相对	-3488
自从	-3489
▁西	-3490
们的	-3491
士兵	-3492
媳妇	-3493
▁光	-3494
丰富	-3495
给你们	-3496
点了	-3497
运气	-3498
出了一	-3499
内心	-3500
购买	-3501
都不知道	-3502
▁朵	-3503
取得	-3504
小学	-3505
▁的话	-3506
的朋友	-3507
都不会	-3508
听到了	-3509
子上	-3510
讨论	-3511
调皮	-3512
▁是嘛	-3513
你看了	-3514
有一种	-3515
▁卡	-3516
一想	-3517
王国	-3518
▁只是	-3519
每一个	-3520
岁的	-3521
盯着	-3522
绿的	-3523
▁蜘蛛	-3524
的名字	-3525
给他们	-3526
高兴地说	-3527
原谅	-3528
大大	-3529
爱好	-3530
▁gan	-3531
再也	-3532
惊喜	-3533
白白	-3534
开发	-3535
牛奶	-3536
▁我们下	-3537
▁咬	-3538
汪汪	-3539
▁过去	-3540
微笑	-3541
收益	-3542
就行了	-3543
▁七点早知道	-3544
▁公	-3545
狠狠	-3546
股东	-3547
飞来	-3548
▁时间	-3549
▁巴	-3550
坐吧	-3551
三号	-3552
▁xie	-3553
当初	-3554
爬上	-3555
自动	-3556
也是很	-3557
宿舍	-3558
得多	-3559
▁我感觉	-3560
▁生	-3561
两百	-3562
地把	-3563
移动	-3564
龙王	-3565
▁声音	-3566
比较多	-3567
▁心	-3568
▁游泳	-3569
1!	-3570
到现在	-3571
▁我记得	-3572
给它	-3573
进球	-3574
▁旁边	-3575
▁蜜蜂	-3576
我不是	-3577
表达	-3578
首歌	-3579
他自己	-3580
老奶奶	-3581
》。	-3582
小小	-3583
称为	-3584
可不	-3585
独自	-3586
运营	-3587
难以	-3588
挺喜欢	-3589
成就	-3590
的树	-3591
会议	-3592
商品	-3593
小红	-3594
方案	-3595
回到了	-3596
想了想	-3597
▁你平时	-3598
就是因为	-3599
电动	-3600
高了	-3601
嘿嘿	-3602
天鹅	-3603
野猪	-3604
一个月	-3605
▁破	-3606
▁祝	-3607
吃过	-3608
进攻	-3609
青春	-3610
▁也许	-3611
▁亲	-3612
人才	-3613
双手	-3614
魔鬼	-3615
),	-3616
▁安	-3617
小了	-3618
火的	-3619
的脚	-3620
事业	-3621
亚洲	-3622
同样	-3623
都已经	-3624
个好	-3625
夺冠	-3626
实验	-3627
斑马	-3628
我自己	-3629
▁翅膀	-3630
中国队	-3631
▁deng	-3632
承认	-3633
▁好好	-3634
▁有点	-3635
▁dai	-3636
▁假	-3637
上有	-3638
强大	-3639
篮子	-3640
大家的	-3641
光了	-3642
尊重	-3643
眼里	-3644
兔妈妈	-3645
难了	-3646
▁就像	-3647
你也是	-3648
给自己	-3649
这一天	-3650
角度	-3651
走出	-3652
集中	-3653
告诉我们	-3654
怎么回事	-3655
▁班	-3656
南都	-3657
将会	-3658
啄木	-3659
外援	-3660
神仙	-3661
神秘	-3662
顿时	-3663
它就	-3664
▁em	-3665
白色的	-3666
飞走了	-3667
▁早	-3668
七八	-3669
坐着	-3670
形象	-3671
敌人	-3672
舌头	-3673
小动物	-3674
特斯拉	-3675
▁kai	-3676
穿上	-3677
评价	-3678
从来没有	-3679
德在您身边	-3680
▁陪	-3681
宝石	-3682
洋洋	-3683
犯罪	-3684
就是他	-3685
一十	-3686
嘲笑	-3687
学院	-3688
车上	-3689
之间的	-3690
新闻吗	-3691
的事儿	-3692
为他	-3693
糊涂	-3694
▁肚子	-3695
房地产	-3696
还是有	-3697
长着	-3698
预期	-3699
今天的	-3700
叫道	-3701
各自	-3702
英语	-3703
厉害啊	-3704
死亡	-3705
激烈	-3706
这场	-3707
不让	-3708
傻瓜	-3709
哎哟	-3710
鲜花	-3711
什么呀	-3712
是我们	-3713
院子里	-3714
▁妈	-3715
专家	-3716
鲨鱼	-3717
一开始	-3718
很高兴	-3719
▁好吗	-3720
▁脸	-3721
不吃	-3722
美味	-3723
啄木鸟	-3724
▁这就是	-3725
利的	-3726
平均	-3727
街上	-3728
▁北	-3729
发明	-3730
在水	-3731
经典	-3732
能源	-3733
融资	-3734
这件	-3735
▁瓶子	-3736
在那	-3737
孤独	-3738
数学	-3739
病人	-3740
营养	-3741
防控	-3742
女朋友	-3743
所以说	-3744
的这种	-3745
▁口	-3746
夫人	-3747
▁刚刚	-3748
一人	-3749
监管	-3750
看完	-3751
零一夜	-3752
yang	-3753
七百	-3754
也被	-3755
会的	-3756
我最	-3757
无数	-3758
▁药	-3759
三月	-3760
瞬间	-3761
▁俩	-3762
▁鸟	-3763
五月	-3764
否则	-3765
外的	-3766
怀里	-3767
确诊	-3768
▁马上	-3769
中央	-3770
佩服	-3771
走来	-3772
避免	-3773
里有	-3774
也就是	-3775
▁连	-3776
同比	-3777
申请	-3778
算了	-3779
颜值	-3780
不愿意	-3781
遇到了	-3782
他了	-3783
儿的	-3784
红了	-3785
讲讲	-3786
▁话	-3787
另一	-3788
我吃	-3789
赛事	-3790
傍晚	-3791
月光	-3792
稻草	-3793
一只小	-3794
不怎么	-3795
但是他	-3796
的机会	-3797
蓝狐狸	-3798
家门	-3799
一到	-3800
允许	-3801
天的	-3802
工厂	-3803
皇上	-3804
葫芦	-3805
财富	-3806
香蕉	-3807
宝贝们	-3808
看你	-3809
请求	-3810
限制	-3811
▁丢	-3812
信心	-3813
宣传	-3814
救了	-3815
你这是	-3816
过来了	-3817
一段时间	-3818
入了	-3819
又有	-3820
比例	-3821
车的	-3822
鼠狼	-3823
▁别人	-3824
▁市场	-3825
就觉得	-3826
我不知道	-3827
▁咪	-3828
化妆	-3829
规则	-3830
这两	-3831
鲤鱼	-3832
men	-3833
▁而是	-3834
的山	-3835
我已经	-3836
上升	-3837
骆驼	-3838
▁高兴	-3839
一个好	-3840
相处	-3841
我好	-3842
自语	-3843
得到了	-3844
但他	-3845
单位	-3846
教室	-3847
贡献	-3848
慢慢的	-3849
的世界	-3850
一跳	-3851
攻击	-3852
他们都	-3853
急得	-3854
模式	-3855
突破	-3856
老公	-3857
收获	-3858
这两个	-3859
性格	-3860
泥土	-3861
烦恼	-3862
阵容	-3863
不下	-3864
交流	-3865
恋爱	-3866
金额	-3867
▁准备	-3868
笨笨熊	-3869
▁网	-3870
上场	-3871
也想	-3872
花猫	-3873
▁你有	-3874
七月	-3875
彼此	-3876
快速	-3877
浪费	-3878
还说	-3879
看新闻	-3880
仿佛	-3881
队长	-3882
外卖	-3883
本书	-3884
有可能	-3885
工程	-3886
依旧	-3887
六月	-3888
出口	-3889
过得	-3890
▁介绍	-3891
曹操	-3892
河水	-3893
的妈妈	-3894
了两	-3895
就行	-3896
火虫	-3897
科比	-3898
走啊	-3899
的人都	-3900
就是那种	-3901
写的	-3902
的确	-3903
着大	-3904
▁zi	-3905
▁我去	-3906
▁lao	-3907
七号	-3908
把这个	-3909
走过来	-3910
▁字	-3911
的脸	-3912
素质	-3913
▁才能	-3914
▁明天	-3915
就已经	-3916
我也不	-3917
好处	-3918
忙着	-3919
狗熊	-3920
▁同比增长百分之	-3921
▁亮	-3922
叫他	-3923
滴滴	-3924
花花	-3925
足够	-3926
度的	-3927
建筑	-3928
符合	-3929
▁包括	-3930
不是说	-3931
又大	-3932
前段时间	-3933
18	-3934
把她	-3935
武器	-3936
离婚	-3937
让它	-3938
还真	-3939
喜欢吃	-3940
小孩子	-3941
▁灯	-3942
利益	-3943
自我	-3944
讲的	-3945
超市	-3946
也不错	-3947
了许多	-3948
王者	-3949
▁一般	-3950
▁其他	-3951
▁腿	-3952
心态	-3953
熊妈妈	-3954
中国女排	-3955
就跑	-3956
题材	-3957
▁样子	-3958
我真的	-3959
▁风	-3960
有效	-3961
电池	-3962
阿里	-3963
30	-3964
谷歌	-3965
的工作	-3966
八号	-3967
▁名字	-3968
很久以前	-3969
下课	-3970
劲儿	-3971
又要	-3972
她是	-3973
蜻蜓	-3974
采取	-3975
鱼儿	-3976
很快就	-3977
梅花鹿	-3978
▁接下来	-3979
还是比较	-3980
全面	-3981
100	-3982
不出来	-3983
十二点	-3984
看了一	-3985
萤火虫	-3986
▁xiang	-3987
bu	-3988
成立	-3989
降低	-3990
下车了	-3991
十一月	-3992
你为什么	-3993
久了	-3994
地向	-3995
抖音	-3996
淘宝	-3997
▁上去	-3998
3!	-3999
玩笑	-4000
田野	-4001
赚钱	-4002
金子	-4003
的消息	-4004
▁二零一	-4005
叫我	-4006
往下	-4007
一份	-4008
鸽子	-4009
甜甜的	-4010
▁东	-4011
他能	-4012
大师	-4013
草地	-4014
龙头	-4015
▁游戏	-4016
公告	-4017
加强	-4018
年代	-4019
结构	-4020
黑了	-4021
祖国	-4022
胖猪	-4023
首次	-4024
iao	-4025
我以前	-4026
▁猫头鹰	-4027
▁ting	-4028
裤子	-4029
我当时	-4030
把自己的	-4031
时光	-4032
研发	-4033
▁不然	-4034
让自己	-4035
去世	-4036
唱着	-4037
她在	-4038
小河	-4039
比分	-4040
法国	-4041
的天	-4042
这方面	-4043
小海	-4044
▁然后就	-4045
顺着	-4046
▁水果	-4047
▁皮皮	-4048
他现在	-4049
消费者	-4050
▁jia	-4051
会在	-4052
始终	-4053
暖和	-4054
语言	-4055
静静	-4056
BR	-4057
▁脏	-4058
工业	-4059
资格	-4060
身材	-4061
那时	-4062
▁一只	-4063
▁今晚	-4064
▁找到	-4065
对自己	-4066
▁zhi	-4067
高兴极了	-4068
放到	-4069
疑问	-4070
陪伴	-4071
飞去	-4072
▁二零一九年	-4073
停止	-4074
失去	-4075
小马	-4076
是从	-4077
淘淘	-4078
溜溜	-4079
带来了	-4080
▁我看了	-4081
BROTHER	-4082
▁少	-4083
七年	-4084
六号	-4085
是一只	-4086
▁够	-4087
意味	-4088
我国	-4089
熊猫	-4090
▁月亮	-4091
优秀的	-4092
看不见	-4093
九号	-4094
最佳	-4095
藏在	-4096
▁主要是	-4097
▁我现在	-4098
咕咕	-4099
目的	-4100
▁不管	-4101
经理	-4102
厚的	-4103
跳到	-4104
▁zhao	-4105
一遍	-4106
占比	-4107
放松	-4108
▁shou	-4109
乎乎	-4110
四号	-4111
▁dui	-4112
我很喜欢	-4113
花朵	-4114
袜子	-4115
蓝色的	-4116
过程中	-4117
哈哈大笑	-4118
我们可以	-4119
几只	-4120
四年	-4121
尴尬	-4122
的很	-4123
▁双	-4124
一句	-4125
为主	-4126
敲门	-4127
材料	-4128
▁可不	-4129
▁随着	-4130
一块儿	-4131
中国人	-4132
什么啊	-4133
小鸭子	-4134
没有了	-4135
高高的	-4136
2?	-4137
匆匆	-4138
女巫	-4139
▁真是	-4140
自行车	-4141
黄鼠狼	-4142
就是这个	-4143
▁咱	-4144
九百	-4145
枕头	-4146
处理器	-4147
▁一会儿	-4148
▁弹	-4149
▁面	-4150
在海	-4151
手指	-4152
拉拉	-4153
棉花	-4154
洞口	-4155
酒店	-4156
▁挺	-4157
▁鹿	-4158
好呀	-4159
比赛的	-4160
▁想了解	-4161
低头	-4162
的手机	-4163
uang	-4164
古代	-4165
命运	-4166
当他	-4167
的光	-4168
▁平时	-4169
▁看了	-4170
了好多	-4171
今年的	-4172
就是这样	-4173
为你	-4174
几次	-4175
土豆	-4176
就跟	-4177
着他	-4178
成为了	-4179
▁来自南方都市报播报	-4180
一面	-4181
公子	-4182
农业	-4183
小溪	-4184
毫不	-4185
dao	-4186
▁变成	-4187
▁娃娃	-4188
我看了	-4189
好事	-4190
好玩	-4191
温柔	-4192
窝里	-4193
露出	-4194
高考	-4195
就是你	-4196
言自语	-4197
大喊	-4198
打败	-4199
看上去	-4200
早已	-4201
看他	-4202
可以的	-4203
▁哈哈哈哈哈	-4204
本事	-4205
爱吃	-4206
稍微	-4207
动手	-4208
联储	-4209
让她	-4210
▁以上	-4211
电影院	-4212
~"	-4213
▁乖	-4214
一段	-4215
指出	-4216
睁开	-4217
结合	-4218
▁办法	-4219
可惜了	-4220
太大了	-4221
▁百	-4222
为啥	-4223
他会	-4224
写着	-4225
气得	-4226
现代	-4227
第四	-4228
远了	-4229
黑的	-4230
▁ha	-4231
的影响	-4232
▁shei	-4233
我又	-4234
搜索	-4235
村里	-4236
荷叶	-4237
▁好玩	-4238
le	-4239
一顿	-4240
不觉	-4241
收到	-4242
深刻	-4243
班牙	-4244
食堂	-4245
驴子	-4246
▁爷爷	-4247
新官肺炎	-4248
三分	-4249
快了	-4250
指挥	-4251
我们是	-4252
黄色的	-4253
▁可不是吗	-4254
▁块	-4255
老是	-4256
脚下	-4257
▁由于	-4258
我给你	-4259
▁按	-4260
内的	-4261
制度	-4262
▁赶快	-4263
▁唱	-4264
云朵	-4265
到来	-4266
央行	-4267
座位	-4268
接近	-4269
结局	-4270
▁下次	-4271
▁接着	-4272
俄罗斯	-4273
看不到	-4274
▁我喜欢	-4275
一旦	-4276
个大	-4277
客厅	-4278
就得	-4279
无奈	-4280
独立	-4281
的海	-4282
的钱	-4283
相互	-4284
门外	-4285
▁北京	-4286
那就是	-4287
▁浴	-4288
卧室	-4289
即将	-4290
笨狼	-4291
追求	-4292
净利润	-4293
这一次	-4294
这也是	-4295
不成	-4296
糟糕	-4297
裁判	-4298
走的	-4299
▁本来	-4300
了不起	-4301
下室	-4302
惊奇	-4303
▁台	-4304
▁越	-4305
呆了	-4306
六十五	-4307
世界上最	-4308
付出	-4309
教训	-4310
毛病	-4311
综合	-4312
饼干	-4313
大幅	-4314
没法	-4315
讲述	-4316
跟前	-4317
餐厅	-4318
▁真的是	-4319
自言自语	-4320
幸运	-4321
▁圆形	-4322
天上的	-4323
有一点	-4324
▁想了解更多财经资讯	-4325
▁,	-4326
万一	-4327
上下	-4328
五千	-4329
只会	-4330
才行	-4331
打扮	-4332
资料	-4333
▁厨房	-4334
▁另外	-4335
▁我之前	-4336
▁可不可以	-4337
不信	-4338
充满	-4339
平安	-4340
悟空	-4341
早餐	-4342
钻进	-4343
银子	-4344
随后	-4345
▁dianr	-4346
。。	-4347
各个	-4348
大雨	-4349
开的	-4350
此时	-4351
shi	-4352
你这么	-4353
我们国家	-4354
▁喊	-4355
最新	-4356
说到	-4357
▁不能	-4358
想看	-4359
走啦	-4360
上课了	-4361
小花狗	-4362
肚子里	-4363
▁冰	-4364
形成	-4365
棒了	-4366
活着	-4367
浙江	-4368
表情	-4369
闭上	-4370
▁第三	-4371
鸡妈妈	-4372
这个新闻	-4373
▁捡	-4374
▁数	-4375
不肯	-4376
四月	-4377
国产	-4378
影片	-4379
杭州	-4380
毫无	-4381
走过	-4382
靠近	-4383
▁要是	-4384
不就是	-4385
娱乐圈	-4386
菲菲姐姐	-4387
做出	-4388
实的	-4389
得太	-4390
核心	-4391
特殊	-4392
鹦鹉	-4393
黑暗	-4394
两条	-4395
公平	-4396
配置	-4397
▁吵架	-4398
▁篮球	-4399
动着	-4400
咯咯	-4401
生存	-4402
窗外	-4403
路了	-4404
老婆婆	-4405
的时候就	-4406
围着	-4407
的衣服	-4408
▁寻	-4409
▁重	-4410
供应	-4411
扑通	-4412
拿来	-4413
特点	-4414
▁国家	-4415
不过我	-4416
生活的	-4417
站起来	-4418
▁毛毛虫	-4419
书包	-4420
人和	-4421
大夫	-4422
头的	-4423
它说	-4424
很强	-4425
珍珠	-4426
知乎	-4427
是非常	-4428
不由	-4429
头来	-4430
女性	-4431
客户	-4432
庄稼	-4433
等我	-4434
答案	-4435
美美	-4436
节奏	-4437
▁也不	-4438
一句话	-4439
他们说	-4440
房子里	-4441
▁A	-4442
不幸	-4443
▁du	-4444
下次聊	-4445
人工	-4446
原本	-4447
都快	-4448
▁结束	-4449
这次的	-4450
▁万德在您身边	-4451
一半	-4452
一辆	-4453
你来	-4454
▁电视	-4455
可爱的小	-4456
▁推	-4457
不清	-4458
花了	-4459
▁无论	-4460
都知道	-4461
丢了	-4462
官方	-4463
了过来	-4464
怎么也	-4465
舍不得	-4466
▁分	-4467
▁满	-4468
启事	-4469
舞蹈	-4470
草丛里	-4471
达到了	-4472
▁疼	-4473
八月	-4474
听的	-4475
小弟	-4476
政治	-4477
荣耀	-4478
你旁边	-4479
▁滑	-4480
免费	-4481
咳嗽	-4482
山东	-4483
顺利	-4484
▁不会	-4485
带来的	-4486
▁neng	-4487
▁wang	-4488
自身	-4489
▁不见	-4490
六年	-4491
升级	-4492
奔跑	-4493
投入	-4494
爆发	-4495
着一个	-4496
吃完	-4497
校园	-4498
涉及	-4499
胆子	-4500
这回	-4501
失去了	-4502
小老虎	-4503
是为了	-4504
老百姓	-4505
再来	-4506
梯子	-4507
犹豫	-4508
的气	-4509
芯片	-4510
蚯蚓	-4511
不得不	-4512
你看过	-4513
我们一起	-4514
夫妇	-4515
委员	-4516
探索	-4517
男的	-4518
的笑	-4519
在中国	-4520
一时	-4521
成交	-4522
万亿元	-4523
所有人	-4524
个小	-4525
事故	-4526
差距	-4527
愉快	-4528
停下来	-4529
小蜗牛	-4530
才知道	-4531
他很	-4532
应用	-4533
指导	-4534
▁保护	-4535
▁汽车	-4536
很好看	-4537
谁也不	-4538
▁guo	-4539
出发	-4540
有着	-4541
▁创	-4542
趴在	-4543
高兴了	-4544
维持	-4545
▁并且	-4546
了一声	-4547
想办法	-4548
的儿子	-4549
▁难	-4550
主义	-4551
你别	-4552
小草	-4553
损失	-4554
纪录	-4555
地在	-4556
开展	-4557
我妈	-4558
正确	-4559
▁他是	-4560
▁刚	-4561
开车	-4562
▁电话	-4563
飞快地	-4564
的门	-4565
记忆	-4566
雪人	-4567
你先	-4568
喊着	-4569
明的	-4570
蝌蚪	-4571
行的	-4572
逃跑	-4573
这句话	-4574
▁刷	-4575
商人	-4576
市场的	-4577
我看到	-4578
百分之三十	-4579
上午	-4580
复杂	-4581
抬起	-4582
教师	-4583
民族	-4584
水的	-4585
老了	-4586
辣椒	-4587
你平时	-4588
你应该	-4589
主持	-4590
图书	-4591
的长	-4592
过分	-4593
结束了	-4594
吃得	-4595
面临	-4596
▁主要	-4597
不得了	-4598
出了一个	-4599
农村	-4600
吃饱	-4601
合理	-4602
学家	-4603
定了	-4604
杰克	-4605
樱桃	-4606
陌生	-4607
▁你的	-4608
可以说是	-4609
▁受	-4610
商店	-4611
太好	-4612
沙漠	-4613
航空	-4614
蟑螂	-4615
▁黄色	-4616
16	-4617
公共	-4618
又说	-4619
完美	-4620
什么都	-4621
▁duo	-4622
▁烧	-4623
对战	-4624
开口	-4625
是大	-4626
有一条	-4627
这个时候	-4628
一生	-4629
多个	-4630
天哪	-4631
感激	-4632
▁yu	-4633
小伙子	-4634
就感觉	-4635
有这么	-4636
爸爸说	-4637
▁"""	-4638
15	-4639
年了	-4640
窗口	-4641
阳台	-4642
▁人生	-4643
年轻的	-4644
个股	-4645
奇奇	-4646
得更	-4647
放进	-4648
这款	-4649
的方式	-4650
▁下一刻再见吧	-4651
发光	-4652
陪你	-4653
太狼	-4654
就连	-4655
讲解	-4656
▁ke	-4657
他还是	-4658
可怜的	-4659
太阳公公	-4660
▁热	-4661
至今	-4662
说我	-4663
▁怪物	-4664
▁慢慢	-4665
以为是	-4666
你在看	-4667
生气了	-4668
胖小猪	-4669
这个问题	-4670
▁错	-4671
你对	-4672
将来	-4673
带你	-4674
深深	-4675
要把	-4676
趋势	-4677
遇见	-4678
中了	-4679
体质	-4680
你快	-4681
公英	-4682
防守	-4683
默默	-4684
▁炒	-4685
在我们	-4686
睡不着	-4687
▁你在看	-4688
▁笔	-4689
取消	-4690
喝酒	-4691
最多	-4692
大多数	-4693
蒲公英	-4694
西班牙	-4695
▁七点早知道播报	-4696
委屈	-4697
找个	-4698
因为它	-4699
一道	-4700
嗓子	-4701
近日	-4702
▁钢琴	-4703
的味道	-4704
美好的	-4705
进行了	-4706
----	-4707
一点也不	-4708
两位	-4709
欢乐	-4710
走在	-4711
▁wa	-4712
百分点	-4713
考验	-4714
适应	-4715
kan	-4716
one	-4717
▁继续	-4718
喜欢他	-4719
抑郁	-4720
的前	-4721
不好的	-4722
意味着	-4723
的游戏	-4724
▁小老鼠	-4725
还有什么	-4726
▁电	-4727
▁碗	-4728
的一切	-4729
那会儿	-4730
▁绿	-4731
对话	-4732
波波	-4733
演唱	-4734
钥匙	-4735
的身体	-4736
▁跌	-4737
叽叽	-4738
袋子	-4739
钓鱼	-4740
他们就	-4741
好不好	-4742
▁木	-4743
百灵	-4744
落到	-4745
有时间	-4746
百分之一点	-4747
▁便	-4748
事实	-4749
哼哼	-4750
很小	-4751
拍的	-4752
画面	-4753
要和	-4754
还行	-4755
▁雪儿	-4756
回去了	-4757
毕竟是	-4758
的实力	-4759
▁可不是嘛	-4760
分手	-4761
饮食	-4762
▁开心	-4763
创业板	-4764
的人们	-4765
这可是	-4766
▁华	-4767
会被	-4768
帅的	-4769
昨晚	-4770
画画	-4771
飞翔	-4772
忘记了	-4773
怪不得	-4774
▁J	-4775
▁毛	-4776
台球	-4777
董事	-4778
采集	-4779
只不过	-4780
屋子里	-4781
一见	-4782
告别	-4783
改善	-4784
▁欢迎收听	-4785
像是	-4786
券商	-4787
地位	-4788
摇摇	-4789
羚羊	-4790
讲堂	-4791
领着	-4792
▁火	-4793
不不	-4794
传播	-4795
脚步	-4796
财主	-4797
隔离	-4798
▁叔叔	-4799
▁嗯哼	-4800
没问题	-4801
tian	-4802
▁jie	-4803
▁垃圾桶	-4804
大家分享	-4805
▁气	-4806
两次	-4807
吃着	-4808
孤单	-4809
尽量	-4810
理由	-4811
而言	-4812
都挺	-4813
▁长大	-4814
名中医	-4815
大讲堂	-4816
相当于	-4817
为您	-4818
主演	-4819
伤了	-4820
大事	-4821
年人	-4822
远的	-4823
▁那我	-4824
前几天	-4825
篮球比赛	-4826
交给	-4827
他人	-4828
地面	-4829
爱你	-4830
什么样的	-4831
吃到	-4832
找来	-4833
朵朵	-4834
▁世界	-4835
对他说	-4836
我们在	-4837
我平时	-4838
的一天	-4839
的人生	-4840
凳子	-4841
只得	-4842
批评	-4843
火了	-4844
▁B	-4845
中药	-4846
克斯	-4847
状况	-4848
蟋蟀	-4849
▁就在	-4850
特别好	-4851
高兴兴	-4852
到达	-4853
天赋	-4854
无比	-4855
李娜	-4856
瞧瞧	-4857
票房	-4858
茅台	-4859
软的	-4860
▁嘴巴	-4861
了过去	-4862
就知道	-4863
▁地下室	-4864
▁年	-4865
▁背	-4866
七个	-4867
六个	-4868
又把	-4869
理想	-4870
程序	-4871
蓝色	-4872
▁森林	-4873
成了一	-4874
!!	-4875
▁伸	-4876
去打	-4877
大口	-4878
就看	-4879
惩罚	-4880
战胜	-4881
生了	-4882
留在	-4883
白色	-4884
纪念	-4885
脑子	-4886
路边	-4887
▁陕西	-4888
▁皮皮鼠	-4889
做饭	-4890
喝水	-4891
成一	-4892
歌声	-4893
环比	-4894
都想	-4895
▁他说	-4896
了一点	-4897
小麻雀	-4898
de	-4899
秋千	-4900
支付宝	-4901
科学家	-4902
▁米	-4903
你把	-4904
债券	-4905
增速	-4906
风格	-4907
吃饭了	-4908
有好多	-4909
而且还	-4910
不定	-4911
整理	-4912
跑来	-4913
往前走	-4914
超过了	-4915
发现自己	-4916
这个东西	-4917
抱怨	-4918
▁谢谢你	-4919
这样一个	-4920
▁zhen	-4921
它想	-4922
小子	-4923
干了	-4924
规划	-4925
的方法	-4926
▁我也觉得	-4927
▁周	-4928
对面	-4929
同学们	-4930
这么大	-4931
▁ren	-4932
喜剧	-4933
新增	-4934
▁只能	-4935
的球员	-4936
哈哈哈哈	-4937
巧啊	-4938
能量	-4939
▁打针	-4940
这个是	-4941
假的	-4942
棕熊	-4943
的信	-4944
营收	-4945
▁寻猫	-4946
▁蝴蝶	-4947
不相信	-4948
都喜欢	-4949
▁寻猫启事	-4950
也得	-4951
淘气	-4952
爆炸	-4953
销量	-4954
聪明的	-4955
简直就是	-4956
▁记	-4957
再看	-4958
开着	-4959
晚了	-4960
聚集	-4961
▁二十	-4962
公众号	-4963
我看过	-4964
▁真的吗	-4965
▁aiyou	-4966
不听	-4967
半个	-4968
复工	-4969
流动	-4970
的就	-4971
▁抢	-4972
扩大	-4973
放学	-4974
艰难	-4975
下来的	-4976
▁你说的	-4977
中超	-4978
主席	-4979
体系	-4980
军事	-4981
向他	-4982
季节	-4983
对我	-4984
屏幕	-4985
彻底	-4986
报名	-4987
村民	-4988
笑话	-4989
道路	-4990
你不是	-4991
名医大讲堂	-4992
不禁	-4993
形容	-4994
德国	-4995
心疼	-4996
战斗	-4997
▁公司	-4998
这样说	-4999
▁fang	-5000
▁纸	-5001
▁茶	-5002
村庄	-5003
▁肉	-5004
场景	-5005
清晨	-5006
英超	-5007
青草	-5008
▁全国	-5009
▁学校	-5010
那个人	-5011
那我们	-5012
▁蛋	-5013
双方	-5014
家了	-5015
▁你要	-5016
▁讲讲	-5017
他们是	-5018
说的是	-5019
▁然后呢	-5020
京东	-5021
仙子	-5022
区别	-5023
推出	-5024
胳膊	-5025
▁fan	-5026
兼职	-5027
挣扎	-5028
▁蟑螂	-5029
全世界	-5030
我们家	-5031
有人吗	-5032
他有	-5033
判断	-5034
又在	-5035
发达	-5036
松树	-5037
比喻	-5038
污染	-5039
谁能	-5040
身高	-5041
上市公司	-5042
疫情防控	-5043
▁针	-5044
喳喳	-5045
回忆	-5046
棵树	-5047
踢得	-5048
▁前面	-5049
▁咧	-5050
企鹅	-5051
勇气	-5052
尝试	-5053
▁作为	-5054
倒霉	-5055
小木	-5056
挺好	-5057
注册	-5058
黄色	-5059
今天是	-5060
我看你	-5061
▁hei	-5062
这些东西	-5063
人心	-5064
健身	-5065
喝了	-5066
穿过	-5067
了一块	-5068
▁不客气	-5069
各位	-5070
恐怕	-5071
放了	-5072
林丹	-5073
生长	-5074
▁gen	-5075
没有办法	-5076
不理	-5077
大哭	-5078
对待	-5079
生涯	-5080
▁老虎	-5081
小山羊	-5082
我要去	-5083
▁子	-5084
吃惊	-5085
回应	-5086
黑色	-5087
▁别的	-5088
▁味道	-5089
不应该	-5090
听见了	-5091
下跌	-5092
王的	-5093
把它们	-5094
▁深	-5095
上山	-5096
乌云	-5097
贸易	-5098
的食物	-5099
▁《	-5100
上天	-5101
为人	-5102
十个	-5103
密切	-5104
对的	-5105
掌握	-5106
树木	-5107
▁每次	-5108
这种情况	-5109
▁搞	-5110
改编	-5111
皇后	-5112
着脸	-5113
组合	-5114
诸葛	-5115
开心地	-5116
现在已经	-5117
▁yang	-5118
yy	-5119
▁层	-5120
▁路	-5121
太婆	-5122
弄得	-5123
战略	-5124
日常	-5125
吃东西	-5126
比较好	-5127
▁刘	-5128
▁吹	-5129
▁条	-5130
▁锅	-5131
勤劳	-5132
合同	-5133
▁早上	-5134
做一个	-5135
打招呼	-5136
▁yyy	-5137
发表	-5138
库里	-5139
毛驴	-5140
着说	-5141
以前的	-5142
就可以了	-5143
一笑	-5144
太子	-5145
热爱	-5146
珍惜	-5147
美食	-5148
这话	-5149
陷阱	-5150
随时	-5151
飞过	-5152
▁首先	-5153
ya	-5154
快快	-5155
野兔	-5156
▁不仅	-5157
伟大的	-5158
我只是	-5159
睡觉了	-5160
我觉得他	-5161
▁啰	-5162
亮了	-5163
目光	-5164
耳机	-5165
领先	-5166
第二个	-5167
跑过去	-5168
▁你喜欢	-5169
高高兴兴	-5170
li	-5171
哇哇	-5172
响了	-5173
悲伤	-5174
矛盾	-5175
辽宁	-5176
好好的	-5177
现在是	-5178
笔记	-5179
色彩	-5180
菊花	-5181
xia	-5182
想不到	-5183
我今天	-5184
着眼睛	-5185
lo	-5186
你可	-5187
十四	-5188
型的	-5189
法院	-5190
积木	-5191
背景	-5192
自信	-5193
▁草莓	-5194
你有没有	-5195
▁欸	-5196
做事	-5197
共有	-5198
姿势	-5199
片子	-5200
来不及	-5201
没见过	-5202
都觉得	-5203
综艺节目	-5204
不就	-5205
处罚	-5206
店里	-5207
都不敢	-5208
案件	-5209
▁杯子	-5210
这一切	-5211
促进	-5212
引发	-5213
王宫	-5214
细细	-5215
▁预计	-5216
只剩下	-5217
圆圆的	-5218
▁排	-5219
▁轮	-5220
人就	-5221
充电	-5222
女神	-5223
老狼	-5224
200	-5225
他不是	-5226
没怎么	-5227
他们两个	-5228
对象	-5229
带上	-5230
说你	-5231
▁同同	-5232
的那些	-5233
说不是	-5234
▁shu	-5235
各种各样的	-5236
▁象	-5237
岁了	-5238
戴着	-5239
水面	-5240
玩过	-5241
老实	-5242
▁不好	-5243
又一	-5244
带到	-5245
眼看	-5246
网站	-5247
下一个	-5248
化的	-5249
疯狂	-5250
我就觉得	-5251
不和	-5252
山的	-5253
桌上	-5254
▁晚安	-5255
回来的	-5256
▁牙	-5257
人群	-5258
同伴	-5259
外出	-5260
展开	-5261
▁广东	-5262
红红的	-5263
对付	-5264
肚皮	-5265
费用	-5266
▁回去	-5267
男孩子	-5268
神奇的	-5269
高兴的	-5270
▁nai	-5271
这是一个	-5272
举起	-5273
军人	-5274
少女	-5275
饮料	-5276
做朋友	-5277
快乐的	-5278
的情况下	-5279
...""""	-5280
▁录	-5281
▁狼	-5282
多次	-5283
够了	-5284
天使	-5285
疫苗	-5286
破坏	-5287
黄牛	-5288
▁女	-5289
其它	-5290
对小	-5291
是那个	-5292
▁wei	-5293
▁一样的	-5294
el	-5295
三星	-5296
体现	-5297
和大	-5298
威胁	-5299
愤怒	-5300
了半天	-5301
偷偷地	-5302
十二月	-5303
我们中国	-5304
前来	-5305
来吧	-5306
站着	-5307
▁你可以	-5308
个个	-5309
听得	-5310
吱吱	-5311
小声	-5312
往上	-5313
玩玩	-5314
▁你这	-5315
▁花朵	-5316
发布了	-5317
的尾巴	-5318
▁小白兔	-5319
越来越多	-5320
锻炼身体	-5321
▁切	-5322
▁板	-5323
区域	-5324
看法	-5325
问好	-5326
陛下	-5327
百灵鸟	-5328
还不是	-5329
上说	-5330
发抖	-5331
就业	-5332
议论	-5333
▁感谢	-5334
手机的	-5335
哭了起来	-5336
▁饿	-5337
手上	-5338
技能	-5339
板上	-5340
绵羊	-5341
罢了	-5342
隔壁	-5343
就这么	-5344
有一位	-5345
计算机	-5346
▁救	-5347
万人	-5348
二号	-5349
估值	-5350
流行	-5351
白雪	-5352
贝壳	-5353
▁si	-5354
▁那儿	-5355
▁香蕉	-5356
听起来	-5357
很容易	-5358
伸手	-5359
你真	-5360
北方	-5361
大会	-5362
度过	-5363
支撑	-5364
铅笔	-5365
之王	-5366
却是	-5367
吃吧	-5368
得像	-5369
泉水	-5370
派人	-5371
说得	-5372
▁呵呵	-5373
之前的	-5374
和他的	-5375
强大的	-5376
这个游戏	-5377
了大	-5378
小偷	-5379
就叫	-5380
▁上海	-5381
打网球	-5382
▁包	-5383
前往	-5384
收盘	-5385
猩猩	-5386
类似	-5387
见面	-5388
跟在	-5389
▁我最近	-5390
到我	-5391
和平	-5392
悠悠	-5393
线上	-5394
老二	-5395
你还是	-5396
有许多	-5397
也是一个	-5398
世上	-5399
回归	-5400
地下	-5401
欢呼	-5402
灯笼	-5403
▁上班	-5404
▁星星	-5405
▁请问	-5406
不太好	-5407
不明白	-5408
多少钱	-5409
很不错	-5410
▁原来是	-5411
▁向	-5412
▁如	-5413
▁相	-5414
▁追	-5415
▁鸡	-5416
一双	-5417
世纪	-5418
九月	-5419
做得	-5420
场的	-5421
它在	-5422
就先	-5423
帅气	-5424
我真	-5425
热的	-5426
花生	-5427
部的	-5428
都看	-5429
不记得	-5430
那么大	-5431
蹦蹦跳跳	-5432
▁shui	-5433
充分	-5434
危机	-5435
就问	-5436
屋顶	-5437
把大	-5438
爸妈	-5439
▁他在	-5440
▁楼梯	-5441
受伤了	-5442
就喜欢	-5443
▁chu	-5444
丁丁	-5445
出行	-5446
咱俩	-5447
她想	-5448
宇宙	-5449
树的	-5450
语音	-5451
财政	-5452
赶到	-5453
又大又	-5454
有点儿	-5455
灰太狼	-5456
我一定要	-5457
太大	-5458
幸好	-5459
民间	-5460
盘子	-5461
▁蚂蚁	-5462
小田鼠	-5463
树上的	-5464
死我了	-5465
的位置	-5466
围巾	-5467
打击	-5468
担任	-5469
营业	-5470
遭遇	-5471
口袋里	-5472
只知道	-5473
图书馆	-5474
小鼹鼠	-5475
来了一	-5476
ye	-5477
▁直	-5478
三日	-5479
公里	-5480
威风	-5481
就用	-5482
干的	-5483
拥抱	-5484
的车	-5485
重大	-5486
黄的	-5487
为自己	-5488
了一跳	-5489
学会了	-5490
家公司	-5491
我不太	-5492
跟我说	-5493
▁这一课	-5494
一来	-5495
刷牙	-5496
小狼	-5497
统一	-5498
金鱼	-5499
▁人们	-5500
人类的	-5501
就是我	-5502
看到的	-5503
▁猜	-5504
吩咐	-5505
嗨喽	-5506
尖尖	-5507
应当	-5508
效力	-5509
用于	-5510
级的	-5511
美人	-5512
谁知	-5513
零零	-5514
▁大的	-5515
▁有的	-5516
▁你怎么	-5517
就更	-5518
也算是	-5519
了不少	-5520
告诉他	-5521
大伙儿	-5522
人数	-5523
军队	-5524
部剧	-5525
▁到了	-5526
▁最终	-5527
不需要	-5528
些什么	-5529
出去了	-5530
的动物	-5531
▁或者是	-5532
▁x	-5533
▁杨	-5534
▁甜	-5535
▁通	-5536
下滑	-5537
差不	-5538
平衡	-5539
成员	-5540
颜六	-5541
▁干净	-5542
办公室	-5543
看没看	-5544
hone	-5545
一股	-5546
反对	-5547
孙杨	-5548
最有	-5549
杀人	-5550
▁从此	-5551
▁懂	-5552
变的	-5553
天地	-5554
我从	-5555
橘子	-5556
章鱼	-5557
必须要	-5558
生活在	-5559
苹果的	-5560
▁没想到	-5561
还是没有	-5562
▁嘘	-5563
▁窗	-5564
国庆	-5565
欢喜	-5566
米粒	-5567
▁沙发	-5568
不住了	-5569
海里	-5570
细节	-5571
近期	-5572
▁同学	-5573
▁宝贝	-5574
天空中	-5575
有两个	-5576
▁P	-5577
当天	-5578
所在	-5579
推进	-5580
美好	-5581
充满了	-5582
有些人	-5583
▁不说了	-5584
一番	-5585
年来	-5586
披露	-5587
狡猾	-5588
问问	-5589
黑猫	-5590
▁你想	-5591
▁小猫	-5592
▁火车	-5593
在网上	-5594
湖人队	-5595
吓了一跳	-5596
▁由	-5597
▁远	-5598
二人	-5599
它会	-5600
总统	-5601
拖鞋	-5602
有事	-5603
运行	-5604
高大	-5605
魔术	-5606
他已经	-5607
▁对不起	-5608
是这样的	-5609
有限公司	-5610
这是什么	-5611
孔子	-5612
我叫	-5613
早点	-5614
暂时	-5615
流入	-5616
能在	-5617
▁怎样	-5618
国王的	-5619
它们的	-5620
',	-5621
使得	-5622
医学	-5623
受了	-5624
正要	-5625
水中	-5626
点事	-5627
警方	-5628
说起	-5629
▁如果你	-5630
▁能不能	-5631
然后就是	-5632
er	-5633
他从	-5634
做梦	-5635
十几	-5636
宫殿	-5637
平静	-5638
我再	-5639
我吧	-5640
报纸	-5641
流量	-5642
衣裳	-5643
吓坏了	-5644
我到站了	-5645
▁特	-5646
一对	-5647
减持	-5648
司马	-5649
白菜	-5650
神气	-5651
门前	-5652
▁鼻子	-5653
渐渐地	-5654
的人物	-5655
shang	-5656
pp	-5657
寒冷	-5658
强盗	-5659
赢得	-5660
了这个	-5661
简直是	-5662
我也觉得	-5663
这样的话	-5664
▁即	-5665
官员	-5666
寂寞	-5667
情感	-5668
拍拍	-5669
那条	-5670
▁气球	-5671
▁里边	-5672
过了一	-5673
▁那我们	-5674
一千零一夜	-5675
一身	-5676
化了	-5677
尊敬	-5678
星球	-5679
眉头	-5680
老的	-5681
赶忙	-5682
你现在	-5683
▁现在的	-5684
▁布	-5685
不服	-5686
写字	-5687
力度	-5688
承担	-5689
暴力	-5690
沙滩	-5691
着的	-5692
舅舅	-5693
高高	-5694
▁学会	-5695
我不会	-5696
新闻呢	-5697
桌子上	-5698
▁冷	-5699
人口	-5700
半夜	-5701
飞了	-5702
前两天	-5703
▁曾	-5704
一支	-5705
姥姥	-5706
有望	-5707
这块	-5708
在哪儿	-5709
就这些	-5710
一九	-5711
摸摸	-5712
是用	-5713
测试	-5714
的后	-5715
翼翼	-5716
对这个	-5717
的家伙	-5718
这样做	-5719
▁小兔子	-5720
▁小松鼠	-5721
东方	-5722
做成	-5723
喜爱	-5724
意大	-5725
深处	-5726
老汉	-5727
▁通过	-5728
学校的	-5729
我们去	-5730
13	-5731
乞丐	-5732
冲击	-5733
地跑	-5734
完善	-5735
干吗	-5736
得分	-5737
淘汰	-5738
说呢	-5739
小公鸡	-5740
▁幼儿园	-5741
▁tang	-5742
▁草	-5743
喷喷	-5744
塑料	-5745
展示	-5746
筷子	-5747
贝尔	-5748
他觉得	-5749
的房子	-5750
森林里的	-5751
▁啥	-5752
很想	-5753
灵活	-5754
球技	-5755
蝙蝠	-5756
这事	-5757
高手	-5758
主演的	-5759
跳起来	-5760
进去了	-5761
小伙伴们	-5762
▁你这是在看	-5763
不爱	-5764
买个	-5765
去过	-5766
在山	-5767
地叫	-5768
帅了	-5769
意的	-5770
接过	-5771
摩托	-5772
是说	-5773
普遍	-5774
继承	-5775
贝克	-5776
国家队	-5777
晒太阳	-5778
上看	-5779
亏损	-5780
反映	-5781
四千	-5782
将在	-5783
当了	-5784
文字	-5785
点的	-5786
社交	-5787
紧急	-5788
花钱	-5789
▁具体	-5790
一个是	-5791
▁你也是	-5792
的是什么	-5793
凤凰	-5794
吃一	-5795
推动	-5796
江苏	-5797
不起来	-5798
生病了	-5799
做了一个	-5800
好不容易	-5801
过了一会儿	-5802
收集	-5803
给予	-5804
荣誉	-5805
里去	-5806
未来的	-5807
了的	-5808
封信	-5809
流传	-5810
演过	-5811
热血	-5812
莫雷	-5813
风景	-5814
▁小猪	-5815
▁里头	-5816
类型的	-5817
美国的	-5818
▁知	-5819
他用	-5820
大赛	-5821
把头	-5822
歌唱	-5823
者的	-5824
自豪	-5825
覆盖	-5826
香的	-5827
▁就算	-5828
小伙伴	-5829
想起了	-5830
我一般	-5831
兰特	-5832
变了	-5833
居住	-5834
得知	-5835
牛逼	-5836
美女	-5837
补贴	-5838
那位	-5839
不舒服	-5840
新闻由	-5841
的作用	-5842
▁qiu	-5843
▁rang	-5844
新闻由南方都市报播报	-5845
今日	-5846
原则	-5847
哗哗	-5848
大鱼	-5849
尝尝	-5850
帮他	-5851
庆祝	-5852
当当	-5853
得上	-5854
朝廷	-5855
违法	-5856
▁gu	-5857
一只大	-5858
高兴得	-5859
▁gao	-5860
出名	-5861
咔嚓	-5862
对你	-5863
的名	-5864
禁止	-5865
▁形状	-5866
不远处	-5867
你看看	-5868
可以用	-5869
一脸	-5870
各地	-5871
吵架	-5872
尸体	-5873
热搜	-5874
到一个	-5875
历史上	-5876
著名的	-5877
退役了	-5878
书豪	-5879
喵喵	-5880
布朗	-5881
还想	-5882
露珠	-5883
▁难道	-5884
双十一	-5885
..."	-5886
▁jin	-5887
再也没有	-5888
百分之五十	-5889
▁蹦	-5890
也算	-5891
剪刀	-5892
岸边	-5893
年前	-5894
性能	-5895
飞船	-5896
马尔	-5897
▁亲爱	-5898
下去了	-5899
了口气	-5900
这些人	-5901
那以后	-5902
还有很多	-5903
oo	-5904
不安	-5905
妖精	-5906
汉姆	-5907
眯眯	-5908
▁强盗	-5909
▁未来	-5910
▁mao	-5911
中有	-5912
小区	-5913
快来	-5914
欧冠	-5915
▁石头	-5916
人工智能	-5917
在你	-5918
地走	-5919
墙上	-5920
婚姻	-5921
快活	-5922
持股	-5923
秀才	-5924
打开了	-5925
抓住了	-5926
比赛吗	-5927
了一口气	-5928
讲的故事	-5929
▁游	-5930
▁醒	-5931
六千	-5932
讲话	-5933
▁因此	-5934
七八糟	-5935
的歌声	-5936
进入了	-5937
我还以为	-5938
▁好的再见	-5939
一分	-5940
做过	-5941
全力	-5942
哭声	-5943
小牛	-5944
强烈	-5945
收购	-5946
淇淋	-5947
游去	-5948
疑惑	-5949
饺子	-5950
普通的	-5951
iP	-5952
▁C	-5953
▁砍	-5954
了你	-5955
冷了	-5956
凌晨	-5957
出色	-5958
十六	-5959
想过	-5960
成语	-5961
最爱	-5962
机制	-5963
转眼	-5964
金牌	-5965
▁说话	-5966
发布会	-5967
我听说	-5968
的路上	-5969
有的时候	-5970
这么大的	-5971
不通	-5972
人呢	-5973
忙碌	-5974
戴上	-5975
换了	-5976
正当	-5977
没过	-5978
科创	-5979
零售	-5980
▁蛋糕	-5981
山坡上	-5982
是没有	-5983
消失了	-5984
火箭队	-5985
的文章	-5986
的第一	-5987
都不是	-5988
一二	-5989
千里	-5990
比我	-5991
首席	-5992
鬼子	-5993
于是他	-5994
你最近	-5995
你要是	-5996
我一定	-5997
我们班	-5998
爸爸的	-5999
▁bai	-6000
很是	-6001
的上	-6002
风雨	-6003
紧紧地	-6004
▁一个人	-6005
▁liang	-6006
▁嘉	-6007
▁短	-6008
▁碰	-6009
反复	-6010
手术	-6011
灰灰	-6012
看啊	-6013
谁的	-6014
这就	-6015
道的	-6016
个不停	-6017
知道的	-6018
非常好	-6019
什么事情	-6020
的好朋友	-6021
▁龙	-6022
才有	-6023
累得	-6024
胆小	-6025
透露	-6026
高达	-6027
五颜六	-6028
看电影	-6029
花园里	-6030
▁可以啊	-6031
▁这时候	-6032
金币	-6033
▁我说	-6034
▁截止	-6035
了一口	-6036
几个月	-6037
有一座	-6038
让大家	-6039
▁我到站了	-6040
17	-6041
强了	-6042
强调	-6043
豆子	-6044
身影	-6045
轻易	-6046
野兽	-6047
我可是	-6048
把我的	-6049
着自己	-6050
jian	-6051
小心翼翼	-6052
▁今天的故事	-6053
异常	-6054
泥巴	-6055
秦国	-6056
这座	-6057
▁ou	-6058
在那个	-6059
比赛了	-6060
然后他	-6061
▁指	-6062
你你	-6063
八戒	-6064
吃鸡	-6065
听完	-6066
坐吗	-6067
多啊	-6068
干脆	-6069
打扰	-6070
物质	-6071
落地	-6072
▁嘻嘻	-6073
在水里	-6074
地走了	-6075
树枝上	-6076
鸭妈妈	-6077
▁好吃的	-6078
你也在看	-6079
随便看看	-6080
▁你最近有	-6081
周期	-6082
太空	-6083
好啦	-6084
机场	-6085
甜的	-6086
维斯	-6087
把他们	-6088
里面有	-6089
▁就是说啊	-6090
▁修	-6091
东京	-6092
医药	-6093
拍摄	-6094
每当	-6095
的红	-6096
看书	-6097
迷藏	-6098
比赛中	-6099
黑色的	-6100
东北	-6101
梦中	-6102
浇水	-6103
肌肉	-6104
观看	-6105
院子	-6106
▁我会	-6107
一点的	-6108
到哪里	-6109
喜羊羊	-6110
有道理	-6111
玫瑰花	-6112
不止	-6113
牺牲	-6114
▁女孩	-6115
▁你觉得	-6116
▁就这样	-6117
▁我就是	-6118
怎么样啊	-6119
一闪	-6120
主题	-6121
小龙	-6122
快船	-6123
真心	-6124
缺点	-6125
股权	-6126
部队	-6127
▁即使	-6128
▁就会	-6129
▁本次	-6130
专业的	-6131
吃完了	-6132
▁唐	-6133
动力	-6134
可可	-6135
大头	-6136
画的	-6137
过年	-6138
郎平	-6139
马路	-6140
▁值得	-6141
▁根本	-6142
和妈妈	-6143
拿出来	-6144
最后的	-6145
池塘里	-6146
看电视	-6147
你看了吗	-6148
14	-6149
▁折	-6150
刘邦	-6151
场了	-6152
打发	-6153
棒的	-6154
眼神	-6155
笨熊	-6156
了他的	-6157
十五点	-6158
捉迷藏	-6159
▁胡萝卜	-6160
一小	-6161
到大	-6162
北极	-6163
四川	-6164
她把	-6165
应对	-6166
我太	-6167
扫帚	-6168
来来	-6169
现金	-6170
而来	-6171
起身	-6172
▁ku	-6173
▁玉米	-6174
了一阵	-6175
▁han	-6176
▁没有人	-6177
你不知道	-6178
还是不错的	-6179
▁胖	-6180
中华	-6181
利物	-6182
它又	-6183
时尚	-6184
行吧	-6185
▁据说	-6186
▁猫猫	-6187
中的小	-6188
利物浦	-6189
最后一	-6190
▁贵	-6191
十三	-6192
呈现	-6193
干啥	-6194
提着	-6195
每一	-6196
过后	-6197
▁点儿	-6198
下课了	-6199
已经是	-6200
我不能	-6201
的叫声	-6202
都是在	-6203
里的水	-6204
实在是太	-6205
信任	-6206
后边	-6207
场所	-6208
新高	-6209
电商	-6210
百度	-6211
睡了	-6212
蜡烛	-6213
▁了解	-6214
▁广州	-6215
▁日本	-6216
▁河马	-6217
感觉到	-6218
我先去	-6219
狐狸说	-6220
过生日	-6221
▁钻	-6222
他去	-6223
参观	-6224
女士	-6225
我该	-6226
荷花	-6227
要在	-6228
都得	-6229
▁全部	-6230
▁所有	-6231
三个月	-6232
对我们	-6233
很重要	-6234
诸葛亮	-6235
为什么不	-6236
到了一个	-6237
阅读我是	-6238
▁慢	-6239
不已	-6240
不算	-6241
你没	-6242
同期	-6243
奖励	-6244
米米	-6245
结实	-6246
给您	-6247
药物	-6248
家里的	-6249
意大利	-6250
成功的	-6251
听广播剧	-6252
PP	-6253
▁神	-6254
哭泣	-6255
啊啊	-6256
美妙	-6257
观点	-6258
车辆	-6259
▁南瓜	-6260
▁蓝色	-6261
一辈子	-6262
了一件	-6263
二十五	-6264
你就是	-6265
小公主	-6266
我们也	-6267
来得及	-6268
▁dian	-6269
▁谁说不是	-6270
不完	-6271
大众	-6272
小山	-6273
微软	-6274
情节	-6275
湖北	-6276
节日	-6277
讲了	-6278
▁他就	-6279
▁多少	-6280
▁按照	-6281
奇怪的	-6282
回到家里	-6283
▁骑	-6284
主角	-6285
国藩	-6286
桃花	-6287
牌子	-6288
罐子	-6289
而不	-6290
锦赛	-6291
hao	-6292
▁必须	-6293
掉下来	-6294
注意到	-6295
落下来	-6296
亲戚	-6297
做客	-6298
内部	-6299
去玩	-6300
合计	-6301
大门	-6302
痒痒	-6303
真相	-6304
着呢	-6305
群众	-6306
设施	-6307
钱的	-6308
▁好看	-6309
▁直接	-6310
发布的	-6311
打了个	-6312
▁清	-6313
为此	-6314
住房	-6315
影视	-6316
普及	-6317
有几	-6318
消灭	-6319
要吃	-6320
要有	-6321
hui	-6322
不断地	-6323
了一场	-6324
你没有	-6325
大公鸡	-6326
最重要	-6327
那样的	-6328
▁nong	-6329
乘客	-6330
写了	-6331
大山	-6332
巴西	-6333
彼得	-6334
果实	-6335
树干	-6336
沿着	-6337
消化	-6338
种的	-6339
▁既然	-6340
▁认识	-6341
▁阳台	-6342
为大家	-6343
只有一个	-6344
躺在床上	-6345
50	-6346
▁澡	-6347
冬眠	-6348
哗啦	-6349
坏事	-6350
奇迹	-6351
小青	-6352
把手	-6353
来讲	-6354
立马	-6355
越大	-6356
顾客	-6357
骨碌	-6358
▁哈喽	-6359
▁有啊	-6360
受到了	-6361
在外面	-6362
就应该	-6363
简单的	-6364
这么好	-6365
希望他们	-6366
大力	-6367
效率	-6368
超越	-6369
边上	-6370
防止	-6371
精彩的	-6372
千万不要	-6373
▁糖	-6374
信用	-6375
更有	-6376
运输	-6377
遍了	-6378
可怕的	-6379
在路上	-6380
我也想	-6381
我在看	-6382
房间里	-6383
林书豪	-6384
比赛啊	-6385
老太婆	-6386
工作人员	-6387
▁停	-6388
下山	-6389
二月	-6390
收费	-6391
猪肉	-6392
回了家	-6393
我们都	-6394
抑郁症	-6395
的颜色	-6396
看一下	-6397
▁好像是	-6398
一不小心	-6399
在森林里	-6400
▁冲	-6401
别说	-6402
同事	-6403
实行	-6404
村子	-6405
澳大	-6406
的这	-6407
祝福	-6408
在上面	-6409
一篇	-6410
再去	-6411
协会	-6412
心了	-6413
无可	-6414
柜子	-6415
睡眠	-6416
等你	-6417
脑筋	-6418
集体	-6419
▁晚饭	-6420
▁泡泡	-6421
▁那他	-6422
严重的	-6423
大石头	-6424
▁涂	-6425
仆人	-6426
外星	-6427
战绩	-6428
手下	-6429
斯诺	-6430
暑假	-6431
竹子	-6432
能把	-6433
话题	-6434
边说	-6435
远方	-6436
wan	-6437
▁你就	-6438
以来的	-6439
另一只	-6440
杜兰特	-6441
香喷喷	-6442
个子老鼠	-6443
二零一八年	-6444
我也不知道	-6445
▁卖	-6446
下班	-6447
之内	-6448
公安	-6449
哪吒	-6450
抽屉	-6451
这家	-6452
分析师	-6453
在他的	-6454
我比较喜欢	-6455
▁以上新闻由南方都市报播报	-6456
一一	-6457
下载	-6458
争取	-6459
做个	-6460
回报	-6461
总会	-6462
朱婷	-6463
歌手	-6464
着手	-6465
策略	-6466
西西	-6467
通道	-6468
霸王	-6469
▁猴子	-6470
希望能	-6471
我的小	-6472
有这个	-6473
静静地	-6474
为百分之	-6475
优惠	-6476
头顶	-6477
急了	-6478
暂停	-6479
灾难	-6480
购物	-6481
进的	-6482
▁正在	-6483
一边说	-6484
了一座	-6485
温暖的	-6486
就是我们	-6487
▁某	-6488
▁流	-6489
协议	-6490
又不	-6491
咒语	-6492
密的	-6493
当成	-6494
悬疑	-6495
比你	-6496
火星	-6497
的书	-6498
风儿	-6499
▁松鼠	-6500
了一片	-6501
厚厚的	-6502
熊爸爸	-6503
这样子	-6504
长鼻子	-6505
打个	-6506
晶晶	-6507
暖暖	-6508
相机	-6509
胎教	-6510
自杀	-6511
舞台	-6512
他们俩	-6513
临时	-6514
作家	-6515
朝着	-6516
游客	-6517
相同	-6518
言论	-6519
公交车	-6520
给我的	-6521
走过去	-6522
为什么会	-6523
一代	-6524
他都	-6525
头大	-6526
宠物	-6527
家中	-6528
早了	-6529
歧视	-6530
田里	-6531
肩膀	-6532
要想	-6533
项链	-6534
预防	-6535
▁说的	-6536
▁那边	-6537
一点都不	-6538
我也喜欢	-6539
的小动物	-6540
几十	-6541
同情	-6542
海龟	-6543
看出	-6544
说来	-6545
▁窗户	-6546
▁车子	-6547
出发了	-6548
在空中	-6549
怎么说呢	-6550
最喜欢的	-6551
▁苏	-6552
八个	-6553
发芽	-6554
夸张	-6555
小人	-6556
连连	-6557
▁华为	-6558
▁巴比	-6559
▁梯子	-6560
不动了	-6561
不断的	-6562
对他的	-6563
了自己的	-6564
味儿	-6565
海洋	-6566
着我	-6567
肥皂	-6568
船上	-6569
规矩	-6570
非洲	-6571
只有一	-6572
我有点	-6573
笑眯眯	-6574
▁欢迎打开	-6575
▁餐	-6576
个儿	-6577
十月	-6578
而去	-6579
▁绿色	-6580
你是谁	-6581
地上的	-6582
演唱会	-6583
的小鸟	-6584
真的吗	-6585
简直太	-6586
▁尤其是	-6587
勺子	-6588
吸收	-6589
嗡嗡	-6590
晓得	-6591
机灵	-6592
柳树	-6593
电器	-6594
解答	-6595
透了	-6596
长安	-6597
▁人民	-6598
▁奇怪	-6599
▁有人	-6600
▁牛奶	-6601
他可是	-6602
参加了	-6603
开玩笑	-6604
心里想	-6605
然后又	-6606
的状态	-6607
问题的	-6608
▁没办法	-6609
做法	-6610
常见	-6611
精力	-6612
落后	-6613
行啊	-6614
长出	-6615
鱼的	-6616
▁到底	-6617
其实是	-6618
却没有	-6619
不知不觉	-6620
什么地方	-6621
惨了	-6622
技巧	-6623
挣钱	-6624
核桃	-6625
给人	-6626
连胜	-6627
▁身体	-6628
了一把	-6629
先生的	-6630
比较少	-6631
怎么可能	-6632
这么厉害	-6633
▁平	-6634
九日	-6635
他那	-6636
冒险	-6637
有两	-6638
本人	-6639
格力	-6640
欢欢	-6641
裁缝	-6642
起的	-6643
骑着	-6644
了好久	-6645
在树上	-6646
我相信	-6647
有的人	-6648
说实话	-6649
还有一些	-6650
这个赛季	-6651
可乐	-6652
我刚	-6653
――""	-6654
还有那个	-6655
但是我觉得	-6656
一副	-6657
哪怕	-6658
摄像	-6659
统治	-6660
▁国王	-6661
不行了	-6662
住着一	-6663
我这个	-6664
▁小时候	-6665
ro	-6666
假装	-6667
吐槽	-6668
在于	-6669
女篮	-6670
小水	-6671
猫的	-6672
说法	-6673
起码	-6674
飞呀	-6675
▁受伤	-6676
一天天	-6677
在自己的	-6678
不堪	-6679
众人	-6680
和她	-6681
地从	-6682
婚礼	-6683
孙子	-6684
悬崖	-6685
手中	-6686
就不能	-6687
斯诺克	-6688
苹果树	-6689
▁bei	-6690
▁我们下期	-6691
▁陈	-6692
之处	-6693
厨师	-6694
提到	-6695
木匠	-6696
洪水	-6697
耐烦	-6698
过着	-6699
▁圆圆	-6700
▁然而	-6701
说话了	-6702
运动会	-6703
▁没有啊	-6704
▁经	-6705
▁臭	-6706
东海	-6707
人体	-6708
动的	-6709
四只	-6710
在线	-6711
害羞	-6712
尽快	-6713
想念	-6714
想把	-6715
拿下	-6716
灌木	-6717
甜蜜	-6718
盈利	-6719
走向	-6720
▁你还	-6721
大眼睛	-6722
很生气	-6723
新能源	-6724
比较喜欢看	-6725
一致	-6726
乐观	-6727
出台	-6728
哭着	-6729
子弹	-6730
掉的	-6731
接到	-6732
是被	-6733
杀死	-6734
此前	-6735
聪聪	-6736
他看见	-6737
动画片	-6738
小家伙	-6739
就是要	-6740
电影吗	-6741
让孩子	-6742
起来的	-6743
还不如	-6744
▁半	-6745
也说	-6746
冲着	-6747
墙壁	-6748
好呢	-6749
小组	-6750
小镇	-6751
就从	-6752
手段	-6753
春节	-6754
来源	-6755
渔夫	-6756
英俊	-6757
▁邀请	-6758
足球的	-6759
下令	-6760
单纯	-6761
奶茶	-6762
拇指	-6763
走走	-6764
门的	-6765
▁不用	-6766
▁它的	-6767
了一张	-6768
人们的	-6769
咱们的	-6770
孙悟空	-6771
完成了	-6772
是一位	-6773
▁当然了	-6774
▁巧	-6775
一连	-6776
又问	-6777
哪有	-6778
实体	-6779
家乡	-6780
掉进	-6781
活跃	-6782
溜达	-6783
缓解	-6784
缺乏	-6785
补充	-6786
▁两个	-6787
▁真正	-6788
▁葡萄	-6789
他那个	-6790
伤心地	-6791
大声说	-6792
小螃蟹	-6793
表现的	-6794
▁我还有	-6795
▁反	-6796
九个	-6797
加快	-6798
千玺	-6799
吹牛	-6800
嘎嘎	-6801
广场	-6802
科普	-6803
▁关于	-6804
▁它是	-6805
他没有	-6806
关注的	-6807
小星星	-6808
电影啊	-6809
这个剧	-6810
▁是的啊	-6811
挺不错的	-6812
贝克汉姆	-6813
不是很了解	-6814
五彩	-6815
南京	-6816
团团	-6817
奋斗	-6818
带我	-6819
很长	-6820
莫名	-6821
语文	-6822
适当	-6823
▁以及	-6824
▁客厅	-6825
▁说明	-6826
很奇怪	-6827
魔法师	-6828
▁因	-6829
▁烫	-6830
发热	-6831
打扫	-6832
挂着	-6833
治理	-6834
灰兔	-6835
的鱼	-6836
石油	-6837
见识	-6838
雨水	-6839
▁乌龟	-6840
很开心	-6841
问一下	-6842
▁欧	-6843
伤病	-6844
信号	-6845
团结	-6846
泪水	-6847
笑笑	-6848
▁xu	-6849
在学校	-6850
▁那肯定	-6851
睁开眼睛	-6852
不该	-6853
二年	-6854
他家	-6855
发的	-6856
奶油	-6857
过于	-6858
这点	-6859
▁忽然	-6860
任何的	-6861
下次再聊	-6862
大家一起	-6863
▁这部电影	-6864
▁呜	-6865
▁尿	-6866
上个	-6867
为何	-6868
伤口	-6869
友谊	-6870
只听	-6871
哥们	-6872
声说	-6873
大量	-6874
战术	-6875
消防	-6876
番茄	-6877
称赞	-6878
肥胖	-6879
tou	-6880
▁不错	-6881
▁各位	-6882
▁小猴	-6883
二十四	-6884
因为她	-6885
在那儿	-6886
我也要	-6887
狐狸的	-6888
▁西安市	-6889
了就	-6890
利于	-6891
微微	-6892
文件	-6893
注重	-6894
海边	-6895
的神	-6896
重重	-6897
▁好嘞	-6898
▁怪兽	-6899
▁意思	-6900
▁能够	-6901
交朋友	-6902
要不是	-6903
都不能	-6904
▁结束对话	-6905
▁待	-6906
低于	-6907
坏人	-6908
形式	-6909
整齐	-6910
有啥	-6911
治病	-6912
的最	-6913
转过	-6914
遭到	-6915
▁朵拉	-6916
你给我	-6917
回家去	-6918
在我的	-6919
这一点	-6920
▁实际上	-6921
你知道吧	-6922
事物	-6923
博物	-6924
好大	-6925
然大	-6926
违规	-6927
▁厕所	-6928
很正常	-6929
来看看	-6930
这里的	-6931
▁差不多	-6932
丛中	-6933
五号	-6934
会员	-6935
八千	-6936
移民	-6937
约翰	-6938
蓝天	-6939
要到	-6940
金钱	-6941
出去玩	-6942
应该会	-6943
的新闻吗	-6944
▁算	-6945
上车	-6946
小事	-6947
情景	-6948
拍照	-6949
轰隆	-6950
▁赶紧	-6951
▁还好	-6952
的女儿	-6953
看到过	-6954
跟我们	-6955
▁我们的	-6956
体温	-6957
化学	-6958
名单	-6959
权益	-6960
法官	-6961
猎物	-6962
约了	-6963
迎接	-6964
▁这天	-6965
不说啦	-6966
之所以	-6967
可以去	-6968
点了点头	-6969
确诊病例	-6970
这件事情	-6971
三大	-6972
三次	-6973
台湾	-6974
大嘴	-6975
清洁	-6976
谁也	-6977
里皮	-6978
陆续	-6979
鸵鸟	-6980
▁盒子	-6981
▁经过	-6982
也不好	-6983
剩下的	-6984
又不是	-6985
好多人	-6986
干净净	-6987
想起来	-6988
拿到了	-6989
狠狠地	-6990
▁且	-6991
何况	-6992
吃点	-6993
嗓门	-6994
日前	-6995
浪漫	-6996
理论	-6997
社区	-6998
谨慎	-6999
送你	-7000
阻止	-7001
▁玻璃	-7002
一路上	-7003
▁特别是	-7004
就是为了	-7005
▁南都记者	-7006
▁保	-7007
▁已	-7008
▁拔	-7009
一早	-7010
吃草	-7011
就对	-7012
打仗	-7013
沟通	-7014
老牛	-7015
被他	-7016
都好	-7017
一口气	-7018
乎乎的	-7019
熊奶奶	-7020
的行为	-7021
▁zan	-7022
▁当然可以	-7023
为难	-7024
买入	-7025
从未	-7026
巴黎	-7027
柿子	-7028
毛衣	-7029
疼痛	-7030
镜头	-7031
黑狗	-7032
不能再	-7033
恢复了	-7034
把这些	-7035
电影的	-7036
的话呢	-7037
马上就	-7038
先走了哈	-7039
很多人都	-7040
你再	-7041
地去	-7042
大雁	-7043
版本	-7044
版的	-7045
答道	-7046
证据	-7047
追赶	-7048
▁那种	-7049
太难了	-7050
相关的	-7051
▁今天的	-7052
▁今晚就和	-7053
我们国家的	-7054
全民	-7055
浣熊	-7056
温度	-7057
舒适	-7058
追剧	-7059
一定能	-7060
你坐吧	-7061
到最后	-7062
当然是	-7063
快乐地	-7064
yu	-7065
一度	-7066
一手	-7067
假如	-7068
哆嗦	-7069
塞尔	-7070
差了	-7071
忙了	-7072
我吗	-7073
打过	-7074
日的	-7075
朗普	-7076
气愤	-7077
滑梯	-7078
缺少	-7079
自在	-7080
名字叫	-7081
逃走了	-7082
▁这也是	-7083
一齐	-7084
以外	-7085
奇艺	-7086
害虫	-7087
恶的	-7088
战士	-7089
拍了	-7090
河南	-7091
眼的	-7092
骑士	-7093
▁卧室	-7094
▁小兔	-7095
好几个	-7096
的爸爸	-7097
西安市	-7098
ce	-7099
▁趴	-7100
不许	-7101
争吵	-7102
位于	-7103
停了	-7104
我用	-7105
摸着	-7106
细胞	-7107
著名	-7108
▁从来	-7109
上半年	-7110
然后再	-7111
的都是	-7112
▁dei	-7113
▁pao	-7114
苹果手机	-7115
过了几天	-7116
闭上眼睛	-7117
大小	-7118
必然	-7119
承受	-7120
换个	-7121
每人	-7122
身旁	-7123
这对	-7124
一个叫	-7125
委员会	-7126
的耳朵	-7127
笑起来	-7128
▁每个人	-7129
事了	-7130
召开	-7131
年间	-7132
灵魂	-7133
着了	-7134
科幻	-7135
绕着	-7136
规范	-7137
设置	-7138
跳着	-7139
那他	-7140
也比较	-7141
卫生间	-7142
岂不是	-7143
快乐狼	-7144
癞蛤蟆	-7145
远远地	-7146
颜色的	-7147
iPhone	-7148
di	-7149
仪式	-7150
出租	-7151
十万	-7152
工人	-7153
晃晃	-7154
棍子	-7155
面积	-7156
革命	-7157
▁估计	-7158
▁经常	-7159
小燕子	-7160
▁huo	-7161
▁古	-7162
▁宝	-7163
▁粉	-7164
仅仅	-7165
便是	-7166
坏蛋	-7167
娘娘	-7168
性命	-7169
桔子	-7170
的爱	-7171
眼珠	-7172
结了	-7173
返回	-7174
这项	-7175
那场	-7176
饿得	-7177
▁ti	-7178
买东西	-7179
和我们	-7180
国外的	-7181
在自己	-7182
的讲解	-7183
确实很	-7184
评论区	-7185
百分之四十	-7186
▁久	-7187
一带	-7188
不料	-7189
心灵	-7190
新疆	-7191
梦见	-7192
逐步	-7193
难得	-7194
▁镜子	-7195
主人的	-7196
小河边	-7197
希望他	-7198
笔记本	-7199
第二次	-7200
▁来关注	-7201
ar	-7202
▁除	-7203
包子	-7204
可他	-7205
味的	-7206
嚷嚷	-7207
夸奖	-7208
婴儿	-7209
总裁	-7210
懒惰	-7211
治愈	-7212
灰尘	-7213
矮人	-7214
▁嘉嘉	-7215
不仅仅	-7216
惊呆了	-7217
看那个	-7218
▁看一看	-7219
▁这一课就是这些	-7220
▁忙	-7221
▁月	-7222
▁读	-7223
▁较	-7224
一本	-7225
一线	-7226
壁虎	-7227
天生	-7228
强壮	-7229
最低	-7230
服装	-7231
照着	-7232
规律	-7233
▁西瓜	-7234
到了一	-7235
就是个	-7236
找一个	-7237
也挺好的	-7238
▁就是那个	-7239
▁二零二零年	-7240
▁谁说不是呢	-7241
3?	-7242
▁骂	-7243
为止	-7244
人人	-7245
具备	-7246
商务	-7247
心思	-7248
我到	-7249
打架	-7250
滑冰	-7251
要用	-7252
▁公主	-7253
了一遍	-7254
善良的	-7255
大学生	-7256
已经被	-7257
自己是	-7258
金色的	-7259
他们一起	-7260
这个故事告诉我们	-7261
就就	-7262
是三	-7263
▁尽管	-7264
▁足球	-7265
七亿元	-7266
不过他	-7267
我一个	-7268
稻草人	-7269
自己也	-7270
▁据了解	-7271
京城	-7272
卫星	-7273
太平	-7274
我呢	-7275
武帝	-7276
水桶	-7277
滚滚	-7278
饭菜	-7279
高级	-7280
一般的	-7281
三亿元	-7282
人家的	-7283
和一个	-7284
地回答	-7285
无聊啊	-7286
科创板	-7287
▁那时候	-7288
有一定的	-7289
▁我们下一刻再见吧	-7290
▁油	-7291
▁胡	-7292
承诺	-7293
把那	-7294
机关	-7295
湖南	-7296
相传	-7297
黄帝	-7298
▁动作	-7299
▁积木	-7300
吃了一	-7301
我们来	-7302
我还要	-7303
清楚了	-7304
看比赛	-7305
你也喜欢	-7306
▁diao	-7307
增强	-7308
好心	-7309
岁月	-7310
得不	-7311
林里	-7312
校长	-7313
牧羊	-7314
皮球	-7315
等他	-7316
豆腐	-7317
▁国内	-7318
不及待	-7319
事情的	-7320
真是个	-7321
迫不及待	-7322
lu	-7323
▁。	-7324
一匹	-7325
不愿	-7326
业内	-7327
传染	-7328
冲冲	-7329
可见	-7330
小雨	-7331
模仿	-7332
特意	-7333
理发	-7334
航天	-7335
又一次	-7336
吃掉了	-7337
因为你	-7338
大家对	-7339
急忙忙	-7340
救命啊	-7341
▁lou	-7342
该怎么办	-7343
这次比赛	-7344
三四	-7345
不解	-7346
乐园	-7347
们说	-7348
把握	-7349
环保	-7350
确保	-7351
高速	-7352
▁培训	-7353
家门口	-7354
这一刻	-7355
▁这不是	-7356
你有什么	-7357
他为	-7358
光明	-7359
冰箱	-7360
半场	-7361
又能	-7362
员外	-7363
大陆	-7364
工夫	-7365
早早	-7366
玉帝	-7367
田径	-7368
要做	-7369
论文	-7370
▁医院	-7371
▁熊熊	-7372
他之前	-7373
对不对	-7374
小黑熊	-7375
的还是	-7376
▁我没有	-7377
走着走着	-7378
4?	-7379
娘子	-7380
学问	-7381
帅哥	-7382
开花	-7383
是好	-7384
生态	-7385
相应	-7386
警告	-7387
▁对吧	-7388
▁成为	-7389
不好了	-7390
使劲地	-7391
去参加	-7392
听说了	-7393
广东省	-7394
跑过来	-7395
这是我	-7396
▁ang	-7397
▁mai	-7398
因为这个	-7399
当作	-7400
恐惧	-7401
显然	-7402
满脸	-7403
监督	-7404
▁上来	-7405
▁你在	-7406
不开心	-7407
他看到	-7408
取得了	-7409
为什么呢	-7410
▁占	-7411
依法	-7412
像个	-7413
几百	-7414
向上	-7415
哈欠	-7416
天津	-7417
无所	-7418
特尔	-7419
玛丽	-7420
监会	-7421
车子	-7422
▁以为	-7423
了解到	-7424
大声喊	-7425
好像在	-7426
没时间	-7427
送给你	-7428
露出了	-7429
反正就是	-7430
不顾	-7431
加速	-7432
动静	-7433
安卓	-7434
形的	-7435
放过	-7436
迎来	-7437
▁比赛	-7438
制造业	-7439
实现了	-7440
非常喜欢	-7441
马上就要	-7442
▁niao	-7443
▁H	-7444
不舍	-7445
人是	-7446
准确	-7447
房屋	-7448
有只	-7449
的外	-7450
眼光	-7451
耐心	-7452
赶上	-7453
道德	-7454
铃铛	-7455
顺便	-7456
▁更多	-7457
▁随便	-7458
▁喜马拉雅	-7459
▁蛇	-7460
一模	-7461
宰相	-7462
岩石	-7463
弟子	-7464
弯弯	-7465
打猎	-7466
找出	-7467
望去	-7468
松果	-7469
空调	-7470
越多	-7471
还被	-7472
难怪	-7473
▁直到	-7474
想到了	-7475
的精神	-7476
非常高兴	-7477
制的	-7478
斯特	-7479
水晶	-7480
维护	-7481
该多	-7482
过河	-7483
预测	-7484
▁帽子	-7485
▁o	-7486
▁若	-7487
今后	-7488
体力	-7489
你瞧	-7490
就到	-7491
往外	-7492
成果	-7493
手套	-7494
炫耀	-7495
等于	-7496
等车	-7497
纳入	-7498
还很	-7499
飞的	-7500
▁许多	-7501
、""	-7502
不认识	-7503
也喜欢	-7504
如果是	-7505
快去吧	-7506
才发现	-7507
日本的	-7508
最高的	-7509
第一名	-7510
负责人	-7511
▁然	-7512
不时	-7513
十点	-7514
开学	-7515
排队	-7516
玩得	-7517
财产	-7518
▁头发	-7519
▁果汁	-7520
了自己	-7521
你不要	-7522
那我就	-7523
到处都是	-7524
我们学校	-7525
▁tian	-7526
▁方	-7527
保留	-7528
反弹	-7529
想买	-7530
我听	-7531
招聘	-7532
持有	-7533
猛地	-7534
肖战	-7535
记载	-7536
这几	-7537
这片	-7538
难看	-7539
▁大概	-7540
了一种	-7541
手里的	-7542
▁hen	-7543
▁原	-7544
上线	-7545
功劳	-7546
地铁	-7547
学着	-7548
山谷	-7549
推送	-7550
来一	-7551
灿烂	-7552
用心	-7553
野猫	-7554
▁an	-7555
▁正好	-7556
一下吧	-7557
就比较	-7558
就在这时	-7559
的小老鼠	-7560
我还有事先走了	-7561
一转	-7562
中小	-7563
啥呀	-7564
大风	-7565
对她	-7566
山顶	-7567
新人	-7568
无限	-7569
火锅	-7570
的两	-7571
老三	-7572
装备	-7573
赛车	-7574
跳进	-7575
躺着	-7576
途中	-7577
▁星期	-7578
六亿元	-7579
去哪儿	-7580
可怕了	-7581
实在太	-7582
抬起头	-7583
有趣的	-7584
爬起来	-7585
▁那这个	-7586
急急忙忙	-7587
我的朋友	-7588
百分之二点	-7589
??	-7590
▁瓶	-7591
一试	-7592
七日	-7593
不满	-7594
你都	-7595
到位	-7596
又被	-7597
抽烟	-7598
来接	-7599
楚国	-7600
王爷	-7601
部落	-7602
高校	-7603
▁角落	-7604
▁那样	-7605
已经很	-7606
的成绩	-7607
澳大利亚	-7608
这个名字	-7609
这种事情	-7610
▁hong	-7611
▁数据显示	-7612
八卦	-7613
担忧	-7614
栗子	-7615
自主	-7616
蓝的	-7617
表明	-7618
那人	-7619
不是有	-7620
就不用	-7621
我以为	-7622
我好像	-7623
的身上	-7624
▁创业板	-7625
干干净净	-7626
这个新闻啊	-7627
▁呐	-7628
低下	-7629
到晚	-7630
啪啪	-7631
喔喔	-7632
总体	-7633
抗议	-7634
指标	-7635
放着	-7636
股市	-7637
落实	-7638
采用	-7639
nai	-7640
▁尾巴	-7641
▁屋子	-7642
▁电影	-7643
总冠军	-7644
总觉得	-7645
的公司	-7646
叹了口气	-7647
自己的孩子	-7648
▁另	-7649
▁零	-7650
不远	-7651
专项	-7652
像我	-7653
冰冰	-7654
头脑	-7655
岗位	-7656
康熙	-7657
找了	-7658
控股	-7659
摇晃	-7660
无力	-7661
昆虫	-7662
桃树	-7663
用啊	-7664
笑容	-7665
翻了	-7666
非要	-7667
▁上次	-7668
▁你会	-7669
▁清楚	-7670
到这个	-7671
小河马	-7672
戴口罩	-7673
的价格	-7674
自己在	-7675
要不要	-7676
说的话	-7677
说这个	-7678
▁fei	-7679
▁应该是	-7680
超百分之	-7681
与人	-7682
你得	-7683
卡卡	-7684
喊声	-7685
她又	-7686
帅啊	-7687
村长	-7688
标志	-7689
狗狗	-7690
石子	-7691
耳边	-7692
耽误	-7693
订单	-7694
个子猫	-7695
听故事	-7696
大树下	-7697
手中的	-7698
把他的	-7699
我也看了	-7700
五颜六色的	-7701
很久很久以前	-7702
▁紫	-7703
▁闻	-7704
优点	-7705
停下	-7706
军训	-7707
掉到	-7708
朱元	-7709
沉默	-7710
海报	-7711
演出	-7712
用它	-7713
病了	-7714
负担	-7715
▁er	-7716
▁嗯呐	-7717
▁想想	-7718
▁或许	-7719
中医的	-7720
就不是	-7721
打比赛	-7722
早上好	-7723
的方向	-7724
这里吗	-7725
很有意思	-7726
那个那个	-7727
在意	-7728
坚决	-7729
天堂	-7730
威尔	-7731
总额	-7732
球的	-7733
高度	-7734
可以啊	-7735
可以在	-7736
吃一惊	-7737
有多少	-7738
看什么	-7739
美联储	-7740
谁知道	-7741
一脚	-7742
不良	-7743
拼个	-7744
教学	-7745
春秋	-7746
橡皮	-7747
用过	-7748
碎了	-7749
礼拜	-7750
足了	-7751
问你	-7752
龙宫	-7753
为我们	-7754
了一天	-7755
博物馆	-7756
外国人	-7757
大老虎	-7758
结婚了	-7759
这几天	-7760
▁我平时	-7761
▁说不定	-7762
体育新闻	-7763
王者荣耀	-7764
▁然后就是	-7765
一刻在您身边	-7766
▁热点财经资讯一刻在您身边	-7767
▁件	-7768
▁轩	-7769
丞相	-7770
发言	-7771
大战	-7772
小屋	-7773
展现	-7774
开启	-7775
总算	-7776
摇了	-7777
某某	-7778
死后	-7779
气了	-7780
渠道	-7781
袭击	-7782
还蛮	-7783
▁手机	-7784
▁起床	-7785
你刚才	-7786
你就会	-7787
其他人	-7788
地说道	-7789
是谁啊	-7790
的一只	-7791
▁chang	-7792
▁你也在看这篇	-7793
仙人	-7794
向往	-7795
商家	-7796
西湖	-7797
马车	-7798
▁聪明	-7799
做好了	-7800
所以就	-7801
▁然后他	-7802
了一个大	-7803
我们现在	-7804
看到一个	-7805
▁不好意思	-7806
▁今天我们	-7807
▁云	-7808
上门	-7809
亚马	-7810
关闭	-7811
其妙	-7812
嫉妒	-7813
文学	-7814
笑得	-7815
红红	-7816
翻译	-7817
通报	-7818
骗子	-7819
可以说	-7820
坐下来	-7821
我都不	-7822
朱元璋	-7823
正常的	-7824
的关系	-7825
的冠军	-7826
看一看	-7827
不过现在	-7828
加大	-7829
学到	-7830
思维	-7831
树洞	-7832
栗鼠	-7833
海豚	-7834
竞技	-7835
糊糊	-7836
自律	-7837
行吗	-7838
趁着	-7839
释放	-7840
闪电	-7841
▁底下	-7842
▁建议	-7843
勒布朗	-7844
猪妈妈	-7845
的办法	-7846
笑了笑	-7847
""""	-7848
越来越好	-7849
是怎么回事	-7850
丁俊	-7851
作战	-7852
启动	-7853
喉咙	-7854
妇女	-7855
新型	-7856
灯光	-7857
确认	-7858
艺人	-7859
在天上	-7860
的同时	-7861
的能力	-7862
因为他们	-7863
▁那你知道	-7864
微信公众号	-7865
主帅	-7866
周琦	-7867
复苏	-7868
富翁	-7869
巨大	-7870
延续	-7871
机长	-7872
流星	-7873
睡得	-7874
认可	-7875
遵守	-7876
任何人	-7877
意识到	-7878
摩托车	-7879
电动车	-7880
咱们这个	-7881
漂亮的小	-7882
严肃	-7883
体会	-7884
余额	-7885
先去	-7886
包裹	-7887
基地	-7888
存款	-7889
救我	-7890
沙沙	-7891
男女	-7892
跑着	-7893
阿布	-7894
▁她们	-7895
▁好啦	-7896
▁萝卜	-7897
丁俊晖	-7898
▁我不知道	-7899
,《	-7900
▁撞	-7901
不看	-7902
偶然	-7903
八日	-7904
房企	-7905
时机	-7906
来临	-7907
流着	-7908
猎狗	-7909
落下	-7910
镇上	-7911
也不敢	-7912
了出去	-7913
二零二	-7914
把那个	-7915
朋友圈	-7916
此同时	-7917
的狐狸	-7918
还是在	-7919
▁hou	-7920
▁T	-7921
▁何	-7922
▁首	-7923
一共	-7924
打死	-7925
气质	-7926
渴望	-7927
火柴	-7928
犯了	-7929
精心	-7930
陷入	-7931
雨伞	-7932
▁恐龙	-7933
▁蔬菜	-7934
也跟着	-7935
实力的	-7936
收益率	-7937
的粉丝	-7938
赛场上	-7939
▁大家好	-7940
但是现在	-7941
你是不是	-7942
▁xian	-7943
by	-7944
不光	-7945
响声	-7946
女友	-7947
抓起	-7948
护士	-7949
探出	-7950
搬到	-7951
易烊	-7952
权利	-7953
的太	-7954
红柿	-7955
课程	-7956
顽皮	-7957
飘飘	-7958
鼻涕	-7959
mao	-7960
▁坏人	-7961
主教练	-7962
更大的	-7963
的力量	-7964
还需要	-7965
选择了	-7966
▁还行吧	-7967
te	-7968
住宅	-7969
使者	-7970
听后	-7971
山洞	-7972
往回	-7973
清晰	-7974
狼的	-7975
进口	-7976
不管是	-7977
习惯了	-7978
兴奋地	-7979
就是有	-7980
薇姐姐	-7981
那么好	-7982
▁小猴子	-7983
▁我可以	-7984
挺好看的	-7985
一蹦	-7986
东尼	-7987
华德	-7988
响起	-7989
在外	-7990
散发	-7991
玩意	-7992
缘故	-7993
脾胃	-7994
街道	-7995
]。[	-7996
▁关系	-7997
▁被子	-7998
从树上	-7999
兔宝宝	-8000
努力的	-8001
就一直	-8002
过得好	-8003
还真是	-8004
这首歌	-8005
一个人的	-8006
不一样的	-8007
春天来了	-8008
bianr	-8009
)。	-8010
乐意	-8011
励志	-8012
打打	-8013
斯的	-8014
来啦	-8015
油油	-8016
热刺	-8017
特的	-8018
登记	-8019
绝了	-8020
请您	-8021
赞同	-8022
走开	-8023
逆转	-8024
两个月	-8025
什么样	-8026
家孩子	-8027
是一部	-8028
离不开	-8029
觉得他	-8030
这种事	-8031
都是有	-8032
▁我还是	-8033
这个世界	-8034
:'	-8035
为我	-8036
共享	-8037
叹气	-8038
文中	-8039
是由	-8040
没能	-8041
我其实	-8042
留下来	-8043
的小孩	-8044
霍华德	-8045
预告片	-8046
▁很多人	-8047
是什么呢	-8048
智慧语音	-8049
莫名其妙	-8050
▁压	-8051
一同	-8052
不论	-8053
争夺	-8054
冬冬	-8055
向你	-8056
多大	-8057
情的	-8058
旅客	-8059
暗暗	-8060
靴子	-8061
▁轩轩	-8062
只要你	-8063
爱奇艺	-8064
的主人	-8065
要知道	-8066
当然可以	-8067
还不知道	-8068
智慧语音采集	-8069
主场	-8070
公元	-8071
前三	-8072
加班	-8073
升起	-8074
后期	-8075
城的	-8076
嫌疑	-8077
守护	-8078
惊慌	-8079
春风	-8080
滋味	-8081
爱数	-8082
的病	-8083
再见了	-8084
同一个	-8085
太小了	-8086
对他们	-8087
总决赛	-8088
我不想	-8089
电子烟	-8090
电视机	-8091
从此以后	-8092
易烊千玺	-8093
一亮	-8094
上网	-8095
偏偏	-8096
山西	-8097
成都	-8098
提起	-8099
斧头	-8100
是想	-8101
琪琪	-8102
破产	-8103
穷人	-8104
脚印	-8105
谁啊	-8106
跟她	-8107
还给	-8108
里了	-8109
▁休息	-8110
▁去年	-8111
▁导致	-8112
▁耳朵	-8113
了一圈	-8114
五亿元	-8115
你这样	-8116
▁我在看	-8117
孩子下课了	-8118
人多	-8119
儿女	-8120
办理	-8121
和新	-8122
喘气	-8123
声明	-8124
子说	-8125
律师	-8126
感恩	-8127
打造	-8128
教我	-8129
格外	-8130
皮鞋	-8131
篱笆	-8132
部长	-8133
▁mo	-8134
▁全球	-8135
▁睡着	-8136
一大早	-8137
小狮子	-8138
开心的	-8139
的重要	-8140
脖子上	-8141
还好吧	-8142
大吃一惊	-8143
这部电视剧	-8144
▁偷	-8145
一月	-8146
会了	-8147
出身	-8148
分数	-8149
卡车	-8150
却说	-8151
发愁	-8152
周五	-8153
山下	-8154
平方	-8155
并非	-8156
没啥	-8157
活泼	-8158
游来	-8159
相反	-8160
绝望	-8161
罚款	-8162
那那	-8163
▁也对	-8164
▁我不	-8165
▁相信	-8166
一家人	-8167
千万别	-8168
现在都	-8169
的影子	-8170
这也太	-8171
▁wai	-8172
先不聊了	-8173
可能就是	-8174
好多好多	-8175
bi	-8176
兮兮	-8177
农场	-8178
北风	-8179
友好	-8180
唧唧	-8181
幸亏	-8182
拖着	-8183
晚餐	-8184
根廷	-8185
涉嫌	-8186
滋滋	-8187
纳闷	-8188
行人	-8189
▁跳跳	-8190
▁麻烦	-8191
了一百	-8192
二零零	-8193
才是最	-8194
掉进了	-8195
我一个人	-8196
还有就是	-8197
▁guan	-8198
▁鞋	-8199
伟大	-8200
公路	-8201
县官	-8202
史上	-8203
地想	-8204
大火	-8205
将于	-8206
带动	-8207
新年	-8208
服了	-8209
深入	-8210
的都	-8211
睡前	-8212
花香	-8213
讲究	-8214
贫穷	-8215
辞职	-8216
随意	-8217
▁eh	-8218
一部分	-8219
不一定	-8220
不好看	-8221
研究院	-8222
着自己的	-8223
一点儿也不	-8224
叫什么名字	-8225
爱数智慧语音采集	-8226
▁线	-8227
三人	-8228
主力	-8229
储备	-8230
出场	-8231
十七	-8232
外界	-8233
形势	-8234
死去	-8235
般的	-8236
错过	-8237
鸡毛	-8238
鼓鼓	-8239
冰淇淋	-8240
同意了	-8241
所谓的	-8242
▁zui	-8243
▁zang	-8244
▁今天天气	-8245
▁你知道吗	-8246
do	-8247
▁汉	-8248
三国	-8249
他妈	-8250
吉米	-8251
就走	-8252
建造	-8253
恶心	-8254
招待	-8255
清澈	-8256
见他	-8257
预备	-8258
▁嗯对	-8259
▁是呢	-8260
是这个	-8261
更喜欢	-8262
自己去	-8263
不平	-8264
不愧	-8265
从不	-8266
依靠	-8267
制定	-8268
定位	-8269
小船	-8270
巅峰	-8271
猕猴	-8272
画家	-8273
茸茸	-8274
要看	-8275
长成	-8276
问我	-8277
马云	-8278
不高兴	-8279
拼个桌	-8280
讲的是	-8281
陌生人	-8282
▁要不然	-8283
▁喷	-8284
▁断	-8285
▁日	-8286
你呀	-8287
善于	-8288
噜噜	-8289
回落	-8290
子了	-8291
彩色	-8292
或是	-8293
明朝	-8294
来买	-8295
的金	-8296
着嘴	-8297
绿叶	-8298
他也是	-8299
大家说	-8300
我刚刚	-8301
的态度	-8302
的父亲	-8303
▁还好吧	-8304
""、""	-8305
▁记不记得	-8306
上月	-8307
下调	-8308
价钱	-8309
冠状	-8310
境外	-8311
安娜	-8312
放假	-8313
果果	-8314
格局	-8315
梦里	-8316
犀牛	-8317
而出	-8318
越高	-8319
隐私	-8320
000	-8321
▁三百	-8322
▁可惜	-8323
世锦赛	-8324
也表示	-8325
从来不	-8326
先走啦	-8327
又开始	-8328
好东西	-8329
感觉很	-8330
没多久	-8331
的技术	-8332
▁ban	-8333
我最喜欢	-8334
那么多的	-8335
▁我们一起来	-8336
▁左	-8337
场面	-8338
外资	-8339
大黄	-8340
恭喜	-8341
成年	-8342
掏出	-8343
焦急	-8344
的有	-8345
等人	-8346
说出	-8347
起舞	-8348
▁巧虎	-8349
该怎么	-8350
胎教故事	-8351
▁林	-8352
▁窝	-8353
三角	-8354
你啊	-8355
创作	-8356
刷刷	-8357
危害	-8358
卷心	-8359
市民	-8360
湖边	-8361
片段	-8362
的中	-8363
笑声	-8364
第五	-8365
贾乃	-8366
进门	-8367
透过	-8368
递给	-8369
逻辑	-8370
那次	-8371
麦子	-8372
1],	-8373
;""	-8374
▁凳子	-8375
▁忘记	-8376
亚马逊	-8377
小哥哥	-8378
是中国	-8379
▁我是主播	-8380
世间	-8381
国民	-8382
想啊	-8383
愚蠢	-8384
捉住	-8385
搬家	-8386
活了	-8387
电信	-8388
白马	-8389
窗子	-8390
辅助	-8391
退休	-8392
难的	-8393
▁整个	-8394
在后面	-8395
是可以	-8396
的肚子	-8397
▁我的天	-8398
一个一个	-8399
不是很好	-8400
现在这个	-8401
香喷喷的	-8402
▁tiao	-8403
我都不知道	-8404
一间	-8405
七千	-8406
以下	-8407
会把	-8408
凭借	-8409
参赛	-8410
好友	-8411
寝室	-8412
循环	-8413
甲虫	-8414
鲜艳	-8415
中医院	-8416
就走了	-8417
的小花	-8418
的过程	-8419
附近的	-8420
太厉害了	-8421
南都名医大讲堂	-8422
代替	-8423
佳佳	-8424
却被	-8425
叫人	-8426
图画	-8427
在哪	-8428
学了	-8429
尽了	-8430
游玩	-8431
白了	-8432
真诚	-8433
笼子	-8434
请教	-8435
进屋	-8436
钱了	-8437
▁城堡	-8438
奇妙的	-8439
女主角	-8440
的生日	-8441
的阳光	-8442
这一个	-8443
作为一个	-8444
本来就是	-8445
▁是啊是啊	-8446
我也很喜欢	-8447
这是怎么回事	-8448
▁夹	-8449
▁浇	-8450
一瞧	-8451
从事	-8452
你一	-8453
分开	-8454
别提	-8455
哇克	-8456
往后	-8457
很早	-8458
是小	-8459
标赛	-8460
特色	-8461
看点	-8462
谦虚	-8463
这张	-8464
道士	-8465
那块	-8466
▁咪咪	-8467
上映了	-8468
从小就	-8469
傻瓜熊	-8470
几个人	-8471
发挥的	-8472
在一旁	-8473
在美国	-8474
是比较	-8475
老头儿	-8476
而不是	-8477
身边的	-8478
迟到了	-8479
▁那就是	-8480
各种各样	-8481
有意思的	-8482
然后我就	-8483
资本市场	-8484
这个消息	-8485
这样的人	-8486
百分之六十	-8487
▁么	-8488
▁赵	-8489
下雪	-8490
保健	-8491
先后	-8492
双眼	-8493
天才	-8494
姑姑	-8495
安装	-8496
岸上	-8497
待遇	-8498
手的	-8499
报答	-8500
文明	-8501
无意	-8502
活儿	-8503
点心	-8504
白鹅	-8505
鲜肉	-8506
▁哇塞	-8507
▁学习	-8508
▁要不	-8509
一定很	-8510
以上的	-8511
再加上	-8512
华为的	-8513
可不能	-8514
呜呜呜	-8515
对对对	-8516
怎么看	-8517
的小猫	-8518
▁小狐狸	-8519
▁截止到	-8520
一直都是	-8521
这个事情	-8522
▁结	-8523
上港	-8524
传奇	-8525
击败	-8526
到这	-8527
听话	-8528
大约	-8529
戒指	-8530
湿了	-8531
豌豆	-8532
边走	-8533
过冬	-8534
退出	-8535
长长	-8536
▁也有	-8537
可是他	-8538
头上的	-8539
尖尖的	-8540
没看过	-8541
的小熊	-8542
笑嘻嘻	-8543
说自己	-8544
▁你最近	-8545
▁圈	-8546
▁挂	-8547
▁船	-8548
临床	-8549
之心	-8550
到你	-8551
基因	-8552
实习	-8553
往常	-8554
猫耳	-8555
皇宫	-8556
突出	-8557
蛋壳	-8558
这也	-8559
黑夜	-8560
▁深圳	-8561
下了头	-8562
可真是	-8563
我认为	-8564
更加的	-8565
树洞里	-8566
给孩子	-8567
董事长	-8568
试一试	-8569
货币政策	-8570
这么好的	-8571
阿里巴巴	-8572
40	-8573
▁师	-8574
不高	-8575
作出	-8576
儿们	-8577
出轨	-8578
四季	-8579
嫦娥	-8580
学历	-8581
尼亚	-8582
山里	-8583
幻想	-8584
懂了	-8585
捧着	-8586
时常	-8587
贫困	-8588
零食	-8589
不清楚	-8590
和朋友	-8591
好孩子	-8592
当时的	-8593
最多的	-8594
这故事	-8595
▁我们下期再见	-8596
si	-8597
六日	-8598
固定	-8599
我怕	-8600
才华	-8601
拿过	-8602
明珠	-8603
民生	-8604
音频	-8605
了下去	-8606
出门了	-8607
新闻说	-8608
草原上	-8609
谈恋爱	-8610
还是会	-8611
冠状病毒	-8612
对自己的	-8613
我们这个	-8614
▁非常感谢	-8615
人为	-8616
你像	-8617
凶猛	-8618
奈何	-8619
康复	-8620
打滚	-8621
捕捉	-8622
散了	-8623
洞穴	-8624
能让	-8625
详细	-8626
餐饮	-8627
▁pi	-8628
了上去	-8629
什么是	-8630
害怕了	-8631
老太太	-8632
这么快	-8633
这几年	-8634
这样吧	-8635
飞过来	-8636
▁yan	-8637
一动不动	-8638
不过我觉得	-8639
我还有点事	-8640
,3	-8641
▁S	-8642
三万	-8643
九九	-8644
余年	-8645
午饭	-8646
地图	-8647
房里	-8648
捡起	-8649
流水	-8650
空的	-8651
美满	-8652
赶来	-8653
▁小米	-8654
▁讨厌	-8655
八亿元	-8656
公开赛	-8657
回去吧	-8658
我发现	-8659
然后我	-8660
的话就	-8661
钻进了	-8662
飞到了	-8663
2019	-8664
▁累	-8665
一趟	-8666
不必	-8667
井里	-8668
到此	-8669
打听	-8670
报警	-8671
拳击	-8672
擅长	-8673
深的	-8674
电台	-8675
的面	-8676
觅食	-8677
默契	-8678
龙的	-8679
了一家	-8680
低着头	-8681
可能性	-8682
增加了	-8683
您晚安	-8684
才可以	-8685
新闻呀	-8686
的心情	-8687
给别人	-8688
英雄联盟	-8689
乔丹	-8690
大胆	-8691
李小	-8692
森纳	-8693
灭了	-8694
纠结	-8695
老家	-8696
脸色	-8697
良心	-8698
西甲	-8699
难度	-8700
飞舞	-8701
饥饿	-8702
▁当前	-8703
你有看	-8704
拼命地	-8705
生命的	-8706
的速度	-8707
角落里	-8708
▁tao	-8709
▁但是他	-8710
和你聊天	-8711
这方面的	-8712
▁了解更多财经资讯	-8713
▁织	-8714
之人	-8715
便利	-8716
卖了	-8717
在她	-8718
天黑	-8719
尽力	-8720
温和	-8721
游到	-8722
监狱	-8723
要多	-8724
诗人	-8725
走近	-8726
逃走	-8727
三个人	-8728
不行啊	-8729
了进去	-8730
还有个	-8731
这都是	-8732
那可是	-8733
也很喜欢	-8734
用自己的	-8735
大个子老鼠	-8736
▁其实我觉得	-8737
。(	-8738
两万	-8739
他才	-8740
国君	-8741
天陪	-8742
很像	-8743
神经	-8744
罐头	-8745
那年	-8746
震惊	-8747
题目	-8748
2],	-8749
▁hu	-8750
一边走	-8751
到这儿	-8752
十五号	-8753
小熊说	-8754
幸福的	-8755
成功了	-8756
打开门	-8757
放弃了	-8758
▁zhu	-8759
回家去了	-8760
我们应该	-8761
我只知道	-8762
那个什么	-8763
重要的是	-8764
▁眼	-8765
▁脱	-8766
原油	-8767
又跳	-8768
发觉	-8769
杜鹃	-8770
正想	-8771
看吧	-8772
硬的	-8773
站牌	-8774
第六	-8775
精英	-8776
航班	-8777
艾伦	-8778
表面	-8779
踏实	-8780
防护	-8781
阿凡	-8782
zhe	-8783
▁勇敢	-8784
▁小狗	-8785
▁报告	-8786
▁浴室	-8787
买一个	-8788
十分钟	-8789
就看看	-8790
您分享	-8791
爷爷的	-8792
锦标赛	-8793
▁所有的	-8794
那你平时	-8795
天陪在您身边	-8796
▁练	-8797
一粒	-8798
他呢	-8799
刘备	-8800
商场	-8801
声优	-8802
幅画	-8803
景区	-8804
有过	-8805
此事	-8806
淡淡	-8807
疯了	-8808
的多	-8809
约定	-8810
送去	-8811
▁lu	-8812
▁好呀	-8813
▁此次	-8814
▁老鹰	-8815
▁面对	-8816
下雨了	-8817
他发现	-8818
就特别	-8819
池塘边	-8820
还是得	-8821
晚安妈妈	-8822
有人坐吗	-8823
百分之九十	-8824
高高兴兴地	-8825
▁躺	-8826
》、	-8827
之时	-8828
停在	-8829
分为	-8830
又好	-8831
名为	-8832
嫁给	-8833
幽默	-8834
总结	-8835
战场	-8836
报仇	-8837
蝈蝈	-8838
转移	-8839
陪着	-8840
马的	-8841
上班了	-8842
球队的	-8843
第一天	-8844
还是不	-8845
阿根廷	-8846
▁广东省	-8847
动物们都	-8848
在评论区	-8849
我车来了	-8850
真的是很	-8851
知道自己	-8852
▁交	-8853
仓鼠	-8854
字母	-8855
我呀	-8856
曼城	-8857
爱心	-8858
质疑	-8859
贵了	-8860
达尔	-8861
野花	-8862
青青	-8863
韩信	-8864
项羽	-8865
▁安静	-8866
已经在	-8867
有问题	-8868
的妻子	-8869
飞来了	-8870
▁谁知道	-8871
我的孩子	-8872
笑了起来	-8873
gu	-8874
人也	-8875
务院	-8876
呆呆	-8877
头了	-8878
平稳	-8879
手臂	-8880
欲望	-8881
爱国	-8882
瓢虫	-8883
用处	-8884
穿越	-8885
网吧	-8886
网红	-8887
要么	-8888
试验	-8889
调节	-8890
陪我	-8891
也是有	-8892
从来没	-8893
动物园	-8894
唯一的	-8895
是自己	-8896
漂亮了	-8897
而且他	-8898
huir	-8899
一下子就	-8900
不和你说	-8901
中国足球	-8902
▁你说的是	-8903
▁我看了啊	-8904
下水	-8905
乡亲	-8906
交所	-8907
充足	-8908
凉的	-8909
出版	-8910
发射	-8911
吓人	-8912
嫌弃	-8913
将他	-8914
得过	-8915
快讯	-8916
惭愧	-8917
有大	-8918
洗手	-8919
海底	-8920
深夜	-8921
物品	-8922
病的	-8923
聚会	-8924
行政	-8925
计较	-8926
违反	-8927
▁小鸟	-8928
▁讲话	-8929
也不要	-8930
人们都	-8931
和其他	-8932
棉花糖	-8933
雪白的	-8934
▁有什么	-8935
▁还可以	-8936
另外一个	-8937
新官病毒	-8938
自言自语地说	-8939
▁摘	-8940
▁沙	-8941
▁罗	-8942
▁隔	-8943
一堆	-8944
不长	-8945
之地	-8946
之际	-8947
几步	-8948
单独	-8949
又想	-8950
召集	-8951
咕咚	-8952
奖项	-8953
对岸	-8954
就打	-8955
沮丧	-8956
球场	-8957
琢磨	-8958
组成	-8959
能有	-8960
茉莉	-8961
▁轮子	-8962
▁阿里	-8963
买了一	-8964
了一句	-8965
出色的	-8966
分别是	-8967
大声地	-8968
感受到	-8969
村子里	-8970
▁美联储	-8971
我要走了	-8972
▁儿	-8973
万分	-8974
他他	-8975
加盟	-8976
壮壮	-8977
就来	-8978
带了	-8979
快到	-8980
怪的	-8981
搞得	-8982
是哪	-8983
景色	-8984
▁多的	-8985
▁担心	-8986
卷心菜	-8987
同样的	-8988
我以后	-8989
是多么	-8990
有一年	-8991
?"""	-8992
六十五天天	-8993
▁嗳	-8994
坐下	-8995
年度	-8996
广泛	-8997
李白	-8998
氛围	-8999
烈的	-9000
行李	-9001
还用	-9002
闻到	-9003
随手	-9004
▁我国	-9005
▁跳舞	-9006
最小的	-9007
绿油油	-9008
那种感觉	-9009
领着孩子	-9010
▁对啊对啊	-9011
▁祝您晚安	-9012
六十五天天天陪在您身边	-9013
▁乐	-9014
▁使	-9015
▁插	-9016
吞吞	-9017
在乎	-9018
失业	-9019
年底	-9020
抱歉	-9021
的黑	-9022
童年	-9023
草帽	-9024
被打	-9025
重了	-9026
防疫	-9027
3],	-9028
▁恩恩	-9029
世界的	-9030
内马尔	-9031
小袋鼠	-9032
▁gai	-9033
还挺好的	-9034
▁武	-9035
▁酒	-9036
也对	-9037
创始	-9038
吃不	-9039
回过	-9040
完整	-9041
此次	-9042
波迪	-9043
赛场	-9044
闪着	-9045
风车	-9046
馒头	-9047
▁pa	-9048
▁不如	-9049
▁心里	-9050
一定的	-9051
主持人	-9052
伤心的	-9053
微笑着	-9054
情况下	-9055
所说的	-9056
的鼻子	-9057
这个小	-9058
那不是	-9059
▁确实是	-9060
一般都是	-9061
不知道了	-9062
准备好了	-9063
在草地上	-9064
打乒乓球	-9065
▁咋	-9066
▁沪	-9067
▁滚	-9068
县令	-9069
叮当	-9070
坚固	-9071
子和	-9072
扇子	-9073
摆脱	-9074
板凳	-9075
灿灿	-9076
螳螂	-9077
路的	-9078
闹钟	-9079
震撼	-9080
▁每个	-9081
你不能	-9082
安东尼	-9083
工作的	-9084
父亲的	-9085
石头上	-9086
▁gou	-9087
▁可能是	-9088
叽叽喳喳	-9089
差不多了	-9090
有自己的	-9091
百分之三点	-9092
▁吴	-9093
一杯	-9094
列车	-9095
吓唬	-9096
啤酒	-9097
大雪	-9098
妇人	-9099
硬币	-9100
蜈蚣	-9101
解除	-9102
过度	-9103
这人	-9104
都给	-9105
魅力	-9106
龙虾	-9107
▁我我	-9108
了一次	-9109
是一条	-9110
有人在	-9111
行业的	-9112
还以为	-9113
▁小刺猬	-9114
职业生涯	-9115
那你知道	-9116
▁你也喜欢	-9117
给我们留言	-9118
ad	-9119
▁靠	-9120
丫丫	-9121
之类	-9122
侦探	-9123
债务	-9124
冷静	-9125
包装	-9126
发烧	-9127
大片	-9128
疼得	-9129
运用	-9130
近视	-9131
追逐	-9132
齐国	-9133
▁一是	-9134
▁兄弟	-9135
▁哎呦	-9136
▁广告	-9137
▁想要	-9138
▁鞋子	-9139
一直都	-9140
不由得	-9141
可以吗	-9142
可惜啊	-9143
咚咚咚	-9144
我倒是	-9145
户人家	-9146
老师说	-9147
走出来	-9148
那么高	-9149
▁一点点	-9150
今天晚上	-9151
▁同比下降	-9152
专注	-9153
两口	-9154
们在	-9155
后卫	-9156
外套	-9157
它把	-9158
导体	-9159
就给	-9160
得起	-9161
心脏	-9162
港元	-9163
玩着	-9164
聊着	-9165
茫茫	-9166
跟头	-9167
长江	-9168
集市	-9169
6],	-9170
▁tu	-9171
九亿元	-9172
了一位	-9173
产生了	-9174
小王子	-9175
微博上	-9176
本来就	-9177
正准备	-9178
班主任	-9179
留下了	-9180
▁tai	-9181
他的比赛	-9182
99	-9183
例子	-9184
分的	-9185
北控	-9186
四日	-9187
坏的	-9188
外表	-9189
安安	-9190
当前	-9191
摇篮	-9192
焦虑	-9193
疲惫	-9194
穿的	-9195
纸上	-9196
耗子	-9197
胡须	-9198
降临	-9199
唱着歌	-9200
它就是	-9201
我要是	-9202
胖胖熊	-9203
▁tui	-9204
好奇地问	-9205
百分之八十	-9206
▁D	-9207
不忍	-9208
向您	-9209
君子	-9210
拉丁	-9211
救援	-9212
最早	-9213
杂志	-9214
来回	-9215
烟囱	-9216
状元	-9217
纳德	-9218
继科	-9219
财务	-9220
这棵	-9221
4],	-9222
5],	-9223
▁可爱	-9224
▁树叶	-9225
他这个	-9226
带回家	-9227
感觉他	-9228
接着说	-9229
爬上了	-9230
的要求	-9231
第三天	-9232
阿森纳	-9233
▁怎么了	-9234
中医中药	-9235
也没什么	-9236
叫了起来	-9237
这个位置	-9238
足球运动员	-9239
ha	-9240
▁造	-9241
乱了	-9242
修复	-9243
冰雪	-9244
动听	-9245
复产	-9246
大涨	-9247
大狼	-9248
布局	-9249
的哦	-9250
真想	-9251
细菌	-9252
茄子	-9253
诸侯	-9254
那颗	-9255
面子	-9256
▁唉呀	-9257
▁的确	-9258
▁问题	-9259
不适合	-9260
城市的	-9261
我看看	-9262
的大树	-9263
的演技	-9264
▁好巧啊	-9265
低下了头	-9266
千零一夜	-9267
疫情影响	-9268
超级喜欢	-9269
▁英	-9270
▁调	-9271
一周	-9272
一套	-9273
光芒	-9274
好人	-9275
始皇	-9276
子女	-9277
巫师	-9278
德勒	-9279
挺有	-9280
的下	-9281
羞愧	-9282
警惕	-9283
诱惑	-9284
不过是	-9285
也很好	-9286
他们也	-9287
危险的	-9288
呼呼地	-9289
和自己	-9290
很简单	-9291
悄悄的	-9292
我还没	-9293
把你的	-9294
的太阳	-9295
知道吗	-9296
这一块	-9297
钻出来	-9298
▁到时候	-9299
什么游戏	-9300
妈妈的话	-9301
▁你有没有	-9302
▁这个故事	-9303
▁共	-9304
▁刀	-9305
亲切	-9306
他被	-9307
养老	-9308
前进	-9309
卖的	-9310
咨询	-9311
太不	-9312
局面	-9313
情愿	-9314
打量	-9315
抓到	-9316
挑选	-9317
攻打	-9318
波动	-9319
洛阳	-9320
爬树	-9321
的木	-9322
相遇	-9323
积累	-9324
笨蛋	-9325
缓缓	-9326
贪婪	-9327
阿嚏	-9328
黑黑	-9329
▁帮助	-9330
我就会	-9331
还是一个	-9332
这些都是	-9333
那场比赛	-9334
▁先不说啦	-9335
公交车来了	-9336
▁呦	-9337
仙鹤	-9338
入选	-9339
出道	-9340
岛上	-9341
徒弟	-9342
房价	-9343
掌声	-9344
收藏	-9345
是对	-9346
来吃	-9347
男神	-9348
眨眼	-9349
福建	-9350
行情	-9351
鲁鲁	-9352
▁七月	-9353
▁小小	-9354
▁我有	-9355
▁这就	-9356
不早了	-9357
四亿元	-9358
在身上	-9359
太棒了	-9360
是不会	-9361
的学生	-9362
这是个	-9363
醒过来	-9364
▁有一个	-9365
爱数智慧语音采集二零一九年	-9366
▁瑞	-9367
一旁	-9368
乡下	-9369
当做	-9370
怀孕	-9371
思议	-9372
把门	-9373
提议	-9374
教你	-9375
点燃	-9376
熟了	-9377
狼群	-9378
说要	-9379
赞美	-9380
▁一块	-9381
▁如今	-9382
妈妈在	-9383
就直接	-9384
引起了	-9385
我刚才	-9386
挡住了	-9387
认真地	-9388
▁我以前	-9389
人士表示	-9390
这样的一个	-9391
▁明	-9392
会更	-9393
便把	-9394
全家	-9395
公牛	-9396
她和	-9397
宽松	-9398
懒腰	-9399
这段	-9400
金丝	-9401
金刚	-9402
钻石	-9403
附属	-9404
雪莉	-9405
先生说	-9406
我不要	-9407
最新的	-9408
长出了	-9409
▁大灰狼	-9410
▁陕西省	-9411
▁G	-9412
一团	-9413
一找	-9414
光的	-9415
嫩的	-9416
忍受	-9417
我爸	-9418
晚间	-9419
有有	-9420
江南	-9421
膝盖	-9422
铁路	-9423
香肠	-9424
guo	-9425
三十号	-9426
向资金	-9427
已经有	-9428
普通人	-9429
看球赛	-9430
给你的	-9431
贾乃亮	-9432
长着一	-9433
▁大家都	-9434
挺厉害的	-9435
东坡	-9436
久的	-9437
传出	-9438
傻了	-9439
后续	-9440
唐朝	-9441
如同	-9442
小丑	-9443
带的	-9444
赔偿	-9445
输入	-9446
边儿	-9447
预约	-9448
▁化妆	-9449
▁说说	-9450
然后呢	-9451
真实的	-9452
但是还是	-9453
新闻快讯	-9454
▁baby	-9455
好吃的东西	-9456
一款	-9457
严厉	-9458
倒在	-9459
免疫	-9460
品质	-9461
尔特	-9462
投篮	-9463
晋级	-9464
欺骗	-9465
灵机	-9466
祈祷	-9467
绿灯	-9468
苏宁	-9469
警长	-9470
那棵	-9471
▁客人	-9472
▁柜子	-9473
▁牙齿	-9474
》、《	-9475
兄弟俩	-9476
圣诞节	-9477
当然了	-9478
流动性	-9479
闪闪发光	-9480
▁威	-9481
上岸	-9482
住的	-9483
公斤	-9484
出院	-9485
千年	-9486
向了	-9487
坚强	-9488
就让	-9489
快去	-9490
您好	-9491
条腿	-9492
正巧	-9493
清水	-9494
狂风	-9495
百合	-9496
种族	-9497
进展	-9498
▁很快	-9499
▁果然	-9500
不要再	-9501
为他们	-9502
哭起来	-9503
旁边的	-9504
用的是	-9505
着一只	-9506
跑出来	-9507
送给了	-9508
ello	-9509
▁cha	-9510
▁悄悄地	-9511
也越来越	-9512
▁三百六十五天天天陪在您身边	-9513
▁杀	-9514
丑陋	-9515
乾隆	-9516
她还	-9517
差的	-9518
弱的	-9519
打法	-9520
新款	-9521
求婚	-9522
而又	-9523
▁四月	-9524
▁山羊	-9525
▁我啊	-9526
▁鸡蛋	-9527
了好几	-9528
俗话说	-9529
月十号	-9530
▁一定要	-9531
▁我看过	-9532
小宝贝们	-9533
自己的小	-9534
都有自己的	-9535
▁颗	-9536
一首	-9537
事的	-9538
五六	-9539
刻苦	-9540
手了	-9541
才好	-9542
拯救	-9543
是真	-9544
比起	-9545
气喘	-9546
纽约	-9547
苦恼	-9548
走得	-9549
重复	-9550
高铁	-9551
▁冬天	-9552
▁英国	-9553
一百零	-9554
了很久	-9555
去寻找	-9556
叙利亚	-9557
女孩儿	-9558
小母鸡	-9559
感到很	-9560
毛茸茸	-9561
现在就	-9562
花栗鼠	-9563
这样呀	-9564
都比较	-9565
青少年	-9566
大象伯伯	-9567
来了一个	-9568
在评论区给我们留言	-9569
▁念	-9570
▁舔	-9571
▁艾	-9572
为国	-9573
丽的	-9574
也将	-9575
写道	-9576
十足	-9577
号码	-9578
在玩	-9579
复习	-9580
大型	-9581
战国	-9582
捂着	-9583
棒啊	-9584
毛巾	-9585
百万	-9586
美了	-9587
高啊	-9588
▁中间	-9589
九健康	-9590
也不用	-9591
基础上	-9592
太多的	-9593
小灰鼠	-9594
彩色的	-9595
有人说	-9596
点什么	-9597
过日子	-9598
非常有	-9599
不容易啊	-9600
已经开始	-9601
很多很多	-9602
摇摇头说	-9603
每天都要	-9604
飞来飞去	-9605
中医中药有	-9606
▁害	-9607
▁根	-9608
▁雨	-9609
一层	-9610
交往	-9611
位的	-9612
十九	-9613
只顾	-9614
吃个	-9615
岁时	-9616
想出	-9617
懒得	-9618
拿走	-9619
指责	-9620
洗脸	-9621
▁我对	-9622
▁找找	-9623
▁超级	-9624
新赛季	-9625
是他的	-9626
看不懂	-9627
第三个	-9628
美国队	-9629
肯定要	-9630
▁也不是	-9631
▁曾国藩	-9632
▁让我们	-9633
可以一起	-9634
灵机一动	-9635
▁怎么说呢	-9636
变成了一个	-9637
▁灰	-9638
丽莎	-9639
亲人	-9640
价比	-9641
低调	-9642
却不	-9643
在想	-9644
大脑	-9645
摸了	-9646
易建	-9647
牵牛	-9648
看呢	-9649
识别	-9650
转型	-9651
高山	-9652
▁天哪	-9653
▁能干	-9654
▁部分	-9655
两银子	-9656
吃起来	-9657
怎么啦	-9658
我马上	-9659
戴维斯	-9660
有哪些	-9661
的结果	-9662
里的小	-9663
▁亲爱的	-9664
名中医来	-9665
成为一个	-9666
打了一个	-9667
每个人的	-9668
▁二零一八年	-9669
▁梨	-9670
一吹	-9671
一的	-9672
全年	-9673
勉强	-9674
发誓	-9675
愁眉	-9676
慢了	-9677
找我	-9678
放开	-9679
文艺	-9680
早饭	-9681
朵花	-9682
村的	-9683
漫画	-9684
父子	-9685
物流	-9686
特效	-9687
的发	-9688
离家	-9689
签约	-9690
芝麻	-9691
药品	-9692
走呀	-9693
金银	-9694
▁白色	-9695
▁看着	-9696
▁还要	-9697
▁这下	-9698
之后就	-9699
挺多的	-9700
飞起来	-9701
就是就是	-9702
成了一个	-9703
根本没有	-9704
每个人都	-9705
这样下去	-9706
更多的名中医来	-9707
前锋	-9708
勤奋	-9709
卧槽	-9710
哎呦	-9711
嗯嗯	-9712
尖牙	-9713
巴克	-9714
恶魔	-9715
日葵	-9716
暴露	-9717
有位	-9718
海马	-9719
爱护	-9720
男友	-9721
的去	-9722
的首	-9723
祖先	-9724
胖子	-9725
自已	-9726
花草	-9727
诚实	-9728
这份	-9729
这颗	-9730
迷了	-9731
遥控	-9732
黄河	-9733
▁假装	-9734
▁实在	-9735
▁话说	-9736
丑小鸭	-9737
吃饱了	-9738
平方米	-9739
易建联	-9740
的礼物	-9741
▁有道理	-9742
怎么这么	-9743
这个样子	-9744
▁shuai	-9745
▁如果大家对	-9746
▁j	-9747
▁非	-9748
了三	-9749
二手	-9750
大姐	-9751
宝藏	-9752
心事	-9753
改造	-9754
早日	-9755
来做	-9756
某个	-9757
燃烧	-9758
登上	-9759
说啊	-9760
跌幅	-9761
踢的	-9762
还算	-9763
高于	-9764
▁屁股	-9765
▁每晚	-9766
▁累计	-9767
上前去	-9768
不注意	-9769
所以我	-9770
网陪你	-9771
蝴蝶结	-9772
还有点	-9773
远远的	-9774
▁好好好	-9775
为您解答	-9776
另一方面	-9777
有一个人	-9778
这个地方	-9779
▁扶	-9780
一圈	-9781
不给	-9782
九千	-9783
出演	-9784
图片	-9785
坑里	-9786
她也	-9787
她了	-9788
富有	-9789
当下	-9790
更大	-9791
樵夫	-9792
留着	-9793
疲劳	-9794
的热	-9795
老远	-9796
装着	-9797
询问	-9798
请他	-9799
财报	-9800
这类	-9801
飞得	-9802
▁假如	-9803
一件事	-9804
亮晶晶	-9805
你听说	-9806
和那个	-9807
小胖猪	-9808
心爱的	-9809
日本人	-9810
每一次	-9811
特朗普	-9812
抬头一看	-9813
百分之五	-9814
都是这样	-9815
▁邀请更多的名中医来	-9816
▁敲	-9817
▁选	-9818
▁顶	-9819
一处	-9820
义务	-9821
播放	-9822
教堂	-9823
日夜	-9824
楼下	-9825
每日	-9826
福利	-9827
金球	-9828
shu	-9829
▁央行	-9830
▁画画	-9831
上一个	-9832
下起了	-9833
净流入	-9834
小乌鸦	-9835
我还真	-9836
接受了	-9837
跑回家	-9838
过来的	-9839
▁因为他	-9840
一模一样	-9841
很厉害的	-9842
▁所以我们	-9843
什么也没有	-9844
▁土	-9845
一滴	-9846
七天	-9847
五万	-9848
代价	-9849
体操	-9850
你请	-9851
口的	-9852
同志	-9853
回升	-9854
富贵	-9855
对外	-9856
少数	-9857
引导	-9858
我做	-9859
敏感	-9860
歌曲	-9861
火烧	-9862
红狼	-9863
聊聊	-9864
落了	-9865
谁呀	-9866
降息	-9867
露露	-9868
鞋匠	-9869
▁进来	-9870
一下就	-9871
低下头	-9872
受欢迎	-9873
实验室	-9874
小蝴蝶	-9875
很高的	-9876
把我们	-9877
漂亮啊	-9878
绿绿的	-9879
许许多	-9880
都会有	-9881
阿凡提	-9882
一百二十	-9883
交通事故	-9884
体育运动	-9885
这么多的	-9886
▁故事中的小	-9887
MV	-9888
su	-9889
▁常	-9890
▁考	-9891
冒着	-9892
助攻	-9893
发动	-9894
叫来	-9895
品尝	-9896
回购	-9897
好想	-9898
就拿	-9899
已被	-9900
抵抗	-9901
斯坦	-9902
没钱	-9903
统统	-9904
评分	-9905
轮到	-9906
辉煌	-9907
▁不知	-9908
▁他还	-9909
▁天天	-9910
也非常	-9911
像我们	-9912
到哪儿	-9913
学习的	-9914
小鱼儿	-9915
红狐狸	-9916
能看到	-9917
足球吗	-9918
这种人	-9919
▁你这个	-9920
不可思议	-9921
。【	-9922
不准	-9923
优化	-9924
先走	-9925
叫啥	-9926
大衣	-9927
家家	-9928
成龙	-9929
有三	-9930
用小	-9931
的口	-9932
科研	-9933
送来	-9934
wei	-9935
仔细地	-9936
和他们	-9937
国内的	-9938
小鳄鱼	-9939
是那么	-9940
的兔子	-9941
长大的	-9942
陕西省	-9943
▁我已经	-9944
南都记者	-9945
我吃完了	-9946
打羽毛球	-9947
月二十号	-9948
▁法	-9949
▁盘	-9950
丰收	-9951
会很	-9952
客场	-9953
投降	-9954
抱起	-9955
本期	-9956
本次	-9957
楼上	-9958
珊瑚	-9959
的白	-9960
秒钟	-9961
菜园	-9962
醉了	-9963
▁近期	-9964
但还是	-9965
森林的	-9966
的小猪	-9967
经历了	-9968
九健康网	-9969
圣诞老人	-9970
每一个人	-9971
没有一个	-9972
▁好的拜拜	-9973
1?	-9974
▁额	-9975
一等	-9976
不死	-9977
以往	-9978
军的	-9979
又会	-9980
和它	-9981
在上	-9982
天猫	-9983
太小	-9984
师父	-9985
当你	-9986
摘下	-9987
文物	-9988
消耗	-9989
清朝	-9990
自私	-9991
贵族	-9992
越长	-9993
身的	-9994
通常	-9995
▁一位	-9996
了我的	-9997
十一点	-9998
十二号	-9999
半决赛	-10000
就到了	-10001
性价比	-10002
所以他	-10003
留下的	-10004
费德勒	-10005
长得很	-10006
▁san	-10007
▁也可以	-10008
每天晚上	-10009
邀请到了	-10010
▁这个时候	-10011
▁如果大家对中医中药有	-10012
24	-10013
一丝	-10014
一向	-10015
乐得	-10016
代的	-10017
作文	-10018
可就	-10019
在此	-10020
地震	-10021
志愿	-10022
接待	-10023
武磊	-10024
水了	-10025
浏览	-10026
清理	-10027
物资	-10028
真人	-10029
笑脸	-10030
群体	-10031
还把	-10032
远离	-10033
间的	-10034
8],	-10035
产品的	-10036
后面的	-10037
导演的	-10038
怎么做	-10039
我都是	-10040
聊聊天	-10041
嗨你好啊	-10042
生气地说	-10043
阅读我是主播	-10044
则是	-10045
大佬	-10046
年后	-10047
扔到	-10048
有缘	-10049
清了	-10050
满贯	-10051
演戏	-10052
牵着	-10053
知县	-10054
短期	-10055
稀奇	-10056
网易	-10057
设立	-10058
试着	-10059
赶路	-10060
跟随	-10061
除非	-10062
靠着	-10063
也是个	-10064
企业的	-10065
关注过	-10066
小熊的	-10067
怎样的	-10068
我昨天	-10069
我经常	-10070
明显的	-10071
现在在	-10072
的不是	-10073
美味的	-10074
夏薇姐姐	-10075
我小时候	-10076
没过多久	-10077
的时候呢	-10078
▁还有一个	-10079
▁湿	-10080
▁管	-10081
▁认	-10082
▁道	-10083
义词	-10084
云彩	-10085
体重	-10086
保罗	-10087
先是	-10088
叫你	-10089
吁吁	-10090
就往	-10091
带回	-10092
强啊	-10093
感叹	-10094
球鞋	-10095
追上	-10096
闺蜜	-10097
青菜	-10098
鞭炮	-10099
饿死	-10100
高峰	-10101
▁春天	-10102
▁自由	-10103
他来到	-10104
好看啊	-10105
很难过	-10106
没那么	-10107
秦始皇	-10108
▁我们要	-10109
世界第一	-10110
▁还有就是	-10111
▁吸	-10112
。'	-10113
万物	-10114
中最	-10115
伙计	-10116
呆在	-10117
四大	-10118
妹子	-10119
年初	-10120
态势	-10121
感慨	-10122
抓紧	-10123
拜访	-10124
武术	-10125
痛快	-10126
羊群	-10127
老天	-10128
西方	-10129
重庆	-10130
▁专门	-10131
不了了	-10132
做一些	-10133
再见啊	-10134
发生在	-10135
在阳光	-10136
就会有	-10137
庆余年	-10138
很好啊	-10139
很愉快	-10140
我每次	-10141
新鲜的	-10142
有个人	-10143
足球赛	-10144
▁也就是	-10145
最近有什么	-10146
la	-10147
wa	-10148
▁N	-10149
▁座	-10150
▁棵	-10151
▁采	-10152
不讲	-10153
办事	-10154
又长	-10155
只想	-10156
大伯	-10157
天乐	-10158
打到	-10159
球了	-10160
的剧	-10161
知名	-10162
翩翩	-10163
院长	-10164
▁虫子	-10165
小心地	-10166
我有事	-10167
是一件	-10168
没事儿	-10169
电影节	-10170
的国家	-10171
看出来	-10172
着急了	-10173
▁我今天	-10174
到了晚上	-10175
▁jian	-10176
▁邀请更多的名中医来为您解答	-10177
CP	-10178
▁剥	-10179
▁鸭	-10180
主体	-10181
啥呢	-10182
坚定	-10183
天啊	-10184
央视	-10185
密码	-10186
摆摆	-10187
操场	-10188
旋转	-10189
梦乡	-10190
棒棒	-10191
次数	-10192
海水	-10193
疼了	-10194
的我	-10195
线的	-10196
花盆	-10197
蜡笔	-10198
长相	-10199
障碍	-10200
▁小强	-10201
▁欺负	-10202
人生的	-10203
但是她	-10204
出租车	-10205
好办法	-10206
摄像头	-10207
有一颗	-10208
爸爸和	-10209
老师的	-10210
良好的	-10211
荡秋千	-10212
从那以后	-10213
任何的疑问	-10214
我觉得这个	-10215
AI	-10216
不离	-10217
占据	-10218
发放	-10219
叫它	-10220
妮妮	-10221
委会	-10222
它对	-10223
小明	-10224
已有	-10225
情地	-10226
斯卡	-10227
树梢	-10228
正义	-10229
海外	-10230
游乐	-10231
玩家	-10232
睡在	-10233
谁都	-10234
都用	-10235
飞飞	-10236
▁中信	-10237
▁也请	-10238
▁从而	-10239
▁叶子	-10240
▁马桶	-10241
一起看	-10242
不一会	-10243
不耐烦	-10244
了一会	-10245
倒在地	-10246
大嘴巴	-10247
得意地	-10248
我带你	-10249
停了下来	-10250
游来游去	-10251
外面的世界	-10252
,5	-10253
兰花	-10254
分子	-10255
刚出	-10256
只剩	-10257
场地	-10258
把钱	-10259
摄影	-10260
景象	-10261
楼梯	-10262
欧文	-10263
画眉	-10264
美团	-10265
较为	-10266
鲸鱼	-10267
▁一旦	-10268
▁抽屉	-10269
今晚的	-10270
公布了	-10271
女主人	-10272
成年人	-10273
打喷嚏	-10274
有名的	-10275
的本领	-10276
红着脸	-10277
高大的	-10278
只是一个	-10279
小白兔说	-10280
新闻上说	-10281
越来越大	-10282
▁叉	-10283
举重	-10284
但它	-10285
凉快	-10286
别墅	-10287
大妈	-10288
店铺	-10289
意料	-10290
描述	-10291
照样	-10292
花瓶	-10293
苏州	-10294
账户	-10295
都来	-10296
▁哇哦	-10297
▁当地	-10298
了我们	-10299
写了一	-10300
好大的	-10301
小蝌蚪	-10302
是你的	-10303
的一位	-10304
的人啊	-10305
的家庭	-10306
那个啥	-10307
不敢相信	-10308
什么都不	-10309
但是他们	-10310
最后一个	-10311
▁与此同时	-10312
很远的地方	-10313
▁我比较喜欢	-10314
▁忘	-10315
▁虫	-10316
为她	-10317
二日	-10318
亲眼	-10319
仓库	-10320
包里	-10321
大觉	-10322
她要	-10323
宴会	-10324
巨星	-10325
打出	-10326
打起	-10327
旗下	-10328
晶莹	-10329
更高	-10330
核酸	-10331
毁了	-10332
父王	-10333
的三	-10334
票了	-10335
赶走	-10336
躲避	-10337
靠谱	-10338
一切都	-10339
十一号	-10340
好多了	-10341
好好地	-10342
看这个	-10343
跟他们	-10344
都非常	-10345
▁men	-10346
▁他们的	-10347
最后还是	-10348
新能源汽车	-10349
?!	-10350
▁单	-10351
▁封	-10352
▁搬	-10353
体内	-10354
先进	-10355
发起	-10356
名声	-10357
和红	-10358
唱的	-10359
垂头	-10360
失了	-10361
奶牛	-10362
对此	-10363
就讲	-10364
挥手	-10365
期望	-10366
求求	-10367
点赞	-10368
留学	-10369
看我	-10370
碰上	-10371
给小	-10372
维奇	-10373
西亚	-10374
贵妃	-10375
达克	-10376
迷茫	-10377
野生	-10378
难题	-10379
高声	-10380
交易日	-10381
他知道	-10382
完之后	-10383
小猴说	-10384
就是很	-10385
山脚下	-10386
我们会	-10387
打败了	-10388
的帮助	-10389
超喜欢	-10390
那些人	-10391
韩国的	-10392
indo	-10393
▁cai	-10394
▁可以的	-10395
什么什么	-10396
仔细一看	-10397
大叫起来	-10398
的电视剧	-10399
来到喜马拉雅	-10400
▁饱	-10401
一项	-10402
上台	-10403
交换	-10404
做人	-10405
原地	-10406
外边	-10407
多远	-10408
对抗	-10409
尤文	-10410
就吃	-10411
猜测	-10412
珠宝	-10413
缝里	-10414
腾腾	-10415
药水	-10416
落叶	-10417
行走	-10418
谁来	-10419
迟到	-10420
▁一会	-10421
▁大人	-10422
在北京	-10423
差一点	-10424
没有啊	-10425
留学生	-10426
迷路了	-10427
长耳朵	-10428
马拉松	-10429
也有很多	-10430
但是这个	-10431
摇了摇头	-10432
有什么用	-10433
看了一个	-10434
▁这是一个	-10435
▁歌	-10436
不忙	-10437
两眼	-10438
也来	-10439
依赖	-10440
元素	-10441
凉了	-10442
又来	-10443
叮嘱	-10444
命的	-10445
失踪	-10446
晚会	-10447
留意	-10448
诉讼	-10449
跳下	-10450
长高	-10451
7],	-10452
▁青菜	-10453
▁香港	-10454
不服气	-10455
了一颗	-10456
其中的	-10457
四十五	-10458
在心里	-10459
张继科	-10460
是不能	-10461
有关系	-10462
树爷爷	-10463
正确的	-10464
看了吗	-10465
给他的	-10466
还是个	-10467
鸟妈妈	-10468
也是非常	-10469
复工复产	-10470
密切接触	-10471
很喜欢看	-10472
过得好吗	-10473
的小朋友们	-10474
篮球运动员	-10475
大家分享到这里	-10476
一觉	-10477
分类	-10478
处处	-10479
娜娜	-10480
得住	-10481
得直	-10482
思念	-10483
我倒	-10484
扩张	-10485
推开	-10486
显卡	-10487
欧元	-10488
残酷	-10489
江湖	-10490
沙子	-10491
生怕	-10492
维尼	-10493
蜥蜴	-10494
趁机	-10495
▁一口	-10496
▁加油	-10497
九十九	-10498
先下了	-10499
外星人	-10500
大老鼠	-10501
好几天	-10502
好玩的	-10503
必须得	-10504
我身边	-10505
来关注	-10506
真不错	-10507
真的有	-10508
是好朋友	-10509
演的那个	-10510
▁也就是说	-10511
25	-10512
60	-10513
▁Q	-10514
▁撒	-10515
▁片	-10516
亲手	-10517
你家	-10518
公益	-10519
刚一	-10520
前途	-10521
市长	-10522
布置	-10523
律宾	-10524
机械	-10525
的问	-10526
穿了	-10527
竖起	-10528
蹲在	-10529
难免	-10530
香气	-10531
▁二是	-10532
▁儿子	-10533
了一根	-10534
他们把	-10535
国王说	-10536
垂头丧	-10537
很期待	-10538
拿着一	-10539
收到了	-10540
特别多	-10541
的羽毛	-10542
瞧不起	-10543
老公公	-10544
菲律宾	-10545
遇见了	-10546
▁tuo	-10547
中国男篮	-10548
乱七八糟	-10549
的话就是	-10550
▁guai	-10551
▁我还有事	-10552
▁sheng	-10553
▁摇	-10554
▁黏	-10555
专心	-10556
举动	-10557
乐趣	-10558
从他	-10559
但她	-10560
全场	-10561
出声	-10562
又高	-10563
品种	-10564
很火	-10565
拍着	-10566
探险	-10567
摆着	-10568
无忧	-10569
格林	-10570
特征	-10571
理财	-10572
纸条	-10573
编剧	-10574
股的	-10575
菜了	-10576
装进	-10577
▁上学	-10578
一季度	-10579
不同意	-10580
了一棵	-10581
向日葵	-10582
大树上	-10583
好奇地	-10584
它那个	-10585
安全的	-10586
拿出一	-10587
推出了	-10588
沙滩上	-10589
给了他	-10590
过几天	-10591
▁想一想	-10592
不过这个	-10593
听见知乎	-10594
干什么呢	-10595
这段时间	-10596
indow	-10597
wu	-10598
▁石	-10599
乘坐	-10600
地点	-10601
基建	-10602
张望	-10603
想让	-10604
慌忙	-10605
抱住	-10606
期货	-10607
架子	-10608
治好	-10609
激励	-10610
爬山	-10611
疙瘩	-10612
的马	-10613
秩序	-10614
脂肪	-10615
袋里	-10616
较大	-10617
金光	-10618
▁八月	-10619
▁有了	-10620
回答道	-10621
小精灵	-10622
我正好	-10623
有一棵	-10624
然后你	-10625
白白的	-10626
的内容	-10627
的老鼠	-10628
紧接着	-10629
过一个	-10630
住着一只	-10631
因为我们	-10632
每天都在	-10633
气喘吁吁	-10634
没有任何	-10635
的小姑娘	-10636
▁bang	-10637
▁你最近有关注	-10638
22	-10639
▁右	-10640
▁鬼	-10641
一拍	-10642
不相	-10643
借口	-10644
冬季	-10645
又去	-10646
合格	-10647
成分	-10648
打工	-10649
曲子	-10650
残忍	-10651
祝贺	-10652
网剧	-10653
车祸	-10654
那头	-10655
颤抖	-10656
hua	-10657
▁一路	-10658
▁五月	-10659
▁喇叭	-10660
▁往往	-10661
▁相比	-10662
会出现	-10663
做游戏	-10664
对身体	-10665
开心了	-10666
才开始	-10667
拼多多	-10668
搞笑的	-10669
教育部	-10670
浪微博	-10671
满满的	-10672
看到他	-10673
等一下	-10674
jing	-10675
什么也没	-10676
有什么事	-10677
现在很多	-10678
这种东西	-10679
▁下次再说	-10680
他便	-10681
使他	-10682
元宵	-10683
凶手	-10684
力地	-10685
可恶	-10686
周边	-10687
唱起	-10688
学者	-10689
打破	-10690
批准	-10691
无缘	-10692
柱子	-10693
浪花	-10694
王位	-10695
王朝	-10696
终点	-10697
缤纷	-10698
▁一切	-10699
▁看过	-10700
▁筷子	-10701
▁腾讯	-10702
不在家	-10703
但是你	-10704
哗啦啦	-10705
哪一个	-10706
声优祭	-10707
少年的	-10708
就像是	-10709
急匆匆	-10710
给妈妈	-10711
▁是的呢	-10712
我有一个	-10713
的时候啊	-10714
还是有点	-10715
▁bing	-10716
▁欢迎收听听见知乎	-10717
▁力	-10718
▁铁	-10719
亚军	-10720
亲密	-10721
值班	-10722
到他	-10723
叫到	-10724
吉祥	-10725
嘴唇	-10726
多种	-10727
巨头	-10728
快跑	-10729
找找	-10730
演奏	-10731
社团	-10732
积分	-10733
花样	-10734
血液	-10735
锅里	-10736
9],	-10737
创始人	-10738
太帅了	-10739
就是不	-10740
赢得了	-10741
这东西	-10742
风吹来	-10743
▁不不不	-10744
▁我也不	-10745
▁知道啊	-10746
今天食堂	-10747
他们都是	-10748
好无聊啊	-10749
我知道了	-10750
新闻了吗	-10751
没有想到	-10752
那么大的	-10753
百分之七十	-10754
▁超	-10755
▁逃	-10756
两种	-10757
书生	-10758
争议	-10759
人大	-10760
啥啊	-10761
嘀咕	-10762
处置	-10763
幅度	-10764
弄脏	-10765
毯子	-10766
飞奔	-10767
▁我都	-10768
也觉得	-10769
又来了	-10770
感冒了	-10771
我爱你	-10772
摸了摸	-10773
的香味	-10774
轰隆隆	-10775
这个大	-10776
咱们中国	-10777
注意的是	-10778
给我讲讲	-10779
东京奥运会	-10780
▁如果大家对中医中药有任何的疑问	-10781
àn	-10782
▁借	-10783
▁文	-10784
份额	-10785
公寓	-10786
内存	-10787
学期	-10788
式的	-10789
成人	-10790
持仓	-10791
杰伦	-10792
海上	-10793
潜力	-10794
献给	-10795
的他	-10796
等下	-10797
老弟	-10798
花粉	-10799
要比	-10800
跳跃	-10801
身为	-10802
都比	-10803
▁ka	-10804
▁你别	-10805
▁哪个	-10806
三分钟	-10807
多年的	-10808
就是她	-10809
工作了	-10810
我妈妈	-10811
没看见	-10812
然大悟	-10813
玩手机	-10814
的报道	-10815
的脑袋	-10816
证监会	-10817
这样了	-10818
向您问好	-10819
的文章是	-10820
走来走去	-10821
▁拜	-10822
▁莫	-10823
▁表	-10824
上床	-10825
丝毫	-10826
减轻	-10827
刚要	-10828
可谓	-10829
土里	-10830
开会	-10831
急事	-10832
惊恐	-10833
搭档	-10834
榜样	-10835
物理	-10836
着它	-10837
红花	-10838
舞会	-10839
豪华	-10840
财宝	-10841
越想	-10842
面粉	-10843
APP	-10844
chu	-10845
▁此前	-10846
▁这位	-10847
不在乎	-10848
周围的	-10849
就成了	-10850
很有趣	-10851
我希望	-10852
打球啊	-10853
改变了	-10854
的叶子	-10855
说出来	-10856
跳跳猴	-10857
鼠妈妈	-10858
▁小青蛙	-10859
▁感谢收听	-10860
or	-10861
何必	-10862
停车	-10863
奶酪	-10864
嫂子	-10865
急着	-10866
明亮	-10867
月的	-10868
此刻	-10869
汗水	-10870
装满	-10871
走势	-10872
金属	-10873
钻出	-10874
▁不同	-10875
▁每周	-10876
▁阿公	-10877
▁餐厅	-10878
他们还	-10879
关注了	-10880
回事儿	-10881
有几个	-10882
见到了	-10883
跟那个	-10884
跳下来	-10885
那个小	-10886
▁lei	-10887
▁我是诺	-10888
▁我朋友	-10889
打发时间	-10890
先不和你说	-10891
小心翼翼地	-10892
自己的身体	-10893
▁也请在评论区给我们留言	-10894
MD	-10895
争论	-10896
他问	-10897
你太	-10898
冷的	-10899
取出	-10900
外地	-10901
女单	-10902
她对	-10903
帝国	-10904
带走	-10905
店的	-10906
投票	-10907
拉斯	-10908
推广	-10909
期限	-10910
河流	-10911
流泪	-10912
索尼	-10913
能干	-10914
营销	-10915
话来	-10916
赛跑	-10917
ook	-10918
▁回答	-10919
▁舒服	-10920
▁警察	-10921
使劲儿	-10922
出名的	-10923
和一只	-10924
小宝宝	-10925
恒大的	-10926
探索吧	-10927
放心吧	-10928
是那种	-10929
椅子上	-10930
然后把	-10931
熊先生	-10932
的什么	-10933
真多啊	-10934
输给了	-10935
霸王龙	-10936
也没办法	-10937
看不出来	-10938
这条新闻	-10939
▁每晚九点	-10940
▁人民网陪你	-10941
da	-10942
hi	-10943
▁信	-10944
▁园	-10945
▁工	-10946
▁枪	-10947
▁盆	-10948
中秋	-10949
埋怨	-10950
多亏	-10951
大水	-10952
它了	-10953
很爱	-10954
总之	-10955
慌张	-10956
报复	-10957
拳道	-10958
添加	-10959
这群	-10960
震荡	-10961
魔王	-10962
▁hi	-10963
▁中午	-10964
▁曾经	-10965
▁这不	-10966
也开始	-10967
件事情	-10968
地站在	-10969
就会被	-10970
很精彩	-10971
成一个	-10972
我也有	-10973
提出了	-10974
时代的	-10975
经历过	-10976
辽宁队	-10977
这孩子	-10978
▁那可不	-10979
再也不敢	-10980
我不喜欢	-10981
▁愿	-10982
之力	-10983
书法	-10984
伸进	-10985
前后	-10986
友情	-10987
四面	-10988
对比	-10989
少的	-10990
手脚	-10991
折磨	-10992
捡到	-10993
消毒	-10994
滴答	-10995
激情	-10996
考生	-10997
让小	-10998
请来	-10999
负面	-11000
那啥	-11001
野牛	-11002
降落	-11003
▁此刻	-11004
▁箱子	-11005
东西吃	-11006
公园里	-11007
是他们	-11008
没意思	-11009
洗干净	-11010
满满一	-11011
的一片	-11012
的小狗	-11013
篮球的	-11014
如果没有	-11015
恍然大悟	-11016
有很多人	-11017
注意安全	-11018
▁qiao	-11019
indows	-11020
二的	-11021
余的	-11022
刷到	-11023
受益	-11024
四万	-11025
失眠	-11026
夺得	-11027
巴掌	-11028
强制	-11029
探头	-11030
流通	-11031
海军	-11032
熊的	-11033
爬呀	-11034
独角	-11035
莉莉	-11036
获取	-11037
走上	-11038
跑的	-11039
跑进	-11040
里斯	-11041
铁匠	-11042
▁三月	-11043
可能就	-11044
地叫着	-11045
小猪说	-11046
我就不	-11047
牛伯伯	-11048
过去的	-11049
一直没有	-11050
三月二十	-11051
发布会上	-11052
我还没有	-11053
现在就是	-11054
70	-11055
▁初	-11056
▁民	-11057
▁衣	-11058
乌龙	-11059
保存	-11060
儿了	-11061
冲突	-11062
分配	-11063
助于	-11064
古装	-11065
听众	-11066
回复	-11067
在它	-11068
小虾	-11069
崇拜	-11070
差异	-11071
得罪	-11072
放大	-11073
果树	-11074
格兰	-11075
津津	-11076
相爱	-11077
福气	-11078
私人	-11079
胃口	-11080
观念	-11081
貂蝉	-11082
貌似	-11083
邮递	-11084
雷霆	-11085
jia	-11086
▁可怜	-11087
▁否则	-11088
不停的	-11089
不能吃	-11090
感觉好	-11091
挺大的	-11092
换一个	-11093
的主要	-11094
老山羊	-11095
认真的	-11096
都是很	-11097
▁如果您	-11098
不起来了	-11099
我去坐车	-11100
▁chou	-11101
睡觉的时候	-11102
▁套	-11103
▁拳	-11104
个头	-11105
之上	-11106
人来	-11107
传到	-11108
匹马	-11109
及其	-11110
后果	-11111
和谐	-11112
奥运	-11113
强势	-11114
当场	-11115
怀念	-11116
智商	-11117
杯子	-11118
硬件	-11119
第七	-11120
精致	-11121
累的	-11122
藏着	-11123
蛋白	-11124
蛋蛋	-11125
轮子	-11126
长在	-11127
集合	-11128
雨点	-11129
▁十一	-11130
▁十二	-11131
▁这部	-11132
一棵树	-11133
二亿元	-11134
完美的	-11135
有个好	-11136
猴妈妈	-11137
的这些	-11138
碰到了	-11139
老虎的	-11140
这个啊	-11141
送到了	-11142
都这么	-11143
▁nao	-11144
▁就可以	-11145
的比赛吗	-11146
其实我觉得	-11147
百分之四点	-11148
▁欢迎打开今晚的	-11149
▁今天我们邀请到了	-11150
▁挖	-11151
一讲	-11152
七彩	-11153
人不	-11154
念头	-11155
意志	-11156
无敌	-11157
暴雨	-11158
有用	-11159
汤姆	-11160
环节	-11161
皮毛	-11162
米的	-11163
糟了	-11164
荷兰	-11165
要来	-11166
要说	-11167
试图	-11168
门上	-11169
闹闹	-11170
黄瓜	-11171
▁决定	-11172
▁马蜂	-11173
不超过	-11174
带着一	-11175
是一片	-11176
是谁呀	-11177
眼看着	-11178
你最近有	-11179
咱们国家	-11180
在一起了	-11181
大哭起来	-11182
就是没有	-11183
怎么样了	-11184
我一定会	-11185
最近不是	-11186
hello	-11187
▁dang	-11188
▁既	-11189
▁朱	-11190
两边	-11191
五日	-11192
优质	-11193
境内	-11194
声响	-11195
它也	-11196
拉的	-11197
播出	-11198
气势	-11199
窗帘	-11200
菩萨	-11201
走后	-11202
辫子	-11203
钢铁	-11204
qiu	-11205
不好吃	-11206
他决定	-11207
内容请	-11208
内心的	-11209
再一次	-11210
去世了	-11211
小猫咪	-11212
总经理	-11213
我都会	-11214
的座位	-11215
第一位	-11216
老人家	-11217
边走边	-11218
造成的	-11219
一步一步	-11220
的小兔子	-11221
音频早餐	-11222
▁huir	-11223
我的车来了	-11224
比赛的时候	-11225
he	-11226
▁则	-11227
▁响	-11228
三夜	-11229
关节	-11230
养的	-11231
吹着	-11232
圈子	-11233
坐到	-11234
大河	-11235
官网	-11236
富人	-11237
扛着	-11238
提示	-11239
朝天	-11240
清脆	-11241
玉皇	-11242
缸里	-11243
脱下	-11244
资管	-11245
赞叹	-11246
转向	-11247
透明	-11248
遥远	-11249
风铃	-11250
kai	-11251
▁偷偷	-11252
了解过	-11253
只要是	-11254
合适的	-11255
得不到	-11256
有办法	-11257
▁我不是	-11258
▁我真的	-11259
▁这个是	-11260
▁这里是三	-11261
▁或	-11262
一轮	-11263
不绝	-11264
买卖	-11265
你听	-11266
叮叮	-11267
右手	-11268
各类	-11269
后羿	-11270
哈利	-11271
多岁	-11272
宽容	-11273
常规	-11274
当她	-11275
当它	-11276
情形	-11277
捉到	-11278
法子	-11279
活的	-11280
电梯	-11281
男性	-11282
界的	-11283
监测	-11284
等会	-11285
老王	-11286
艾玛	-11287
花开	-11288
苦苦	-11289
蚕豆	-11290
要命	-11291
锤子	-11292
▁原谅	-11293
▁总是	-11294
▁盘子	-11295
▁礼拜	-11296
一下吗	-11297
买不起	-11298
付出了	-11299
厨房里	-11300
布娃娃	-11301
打破了	-11302
朋友的	-11303
猫妈妈	-11304
的数据	-11305
看看吧	-11306
着一条	-11307
藏起来	-11308
西红柿	-11309
▁他就是	-11310
▁我一直	-11311
▁我看到	-11312
一百一十	-11313
把所有的	-11314
有很大的	-11315
这么觉得	-11316
我去坐车啦	-11317
还是可以的	-11318
▁今天过得好吗	-11319
▁剪	-11320
▁现	-11321
不自	-11322
举措	-11323
匈奴	-11324
大多	-11325
孤儿	-11326
家务	-11327
将它	-11328
尼奥	-11329
成群	-11330
我爱	-11331
拉克	-11332
无疑	-11333
架上	-11334
没用	-11335
泰国	-11336
清清	-11337
溪水	-11338
率领	-11339
看重	-11340
祝你	-11341
练练	-11342
能吃	-11343
获胜	-11344
解禁	-11345
路口	-11346
通信	-11347
院的	-11348
鼓掌	-11349
▁一九	-11350
▁中医	-11351
▁你能	-11352
▁唉唷	-11353
▁针对	-11354
不至于	-11355
小灰兔	-11356
手机上	-11357
有点像	-11358
的翅膀	-11359
近几年	-11360
销售额	-11361
▁我当时	-11362
▁看了啊	-11363
粉红色的	-11364
这篇文章	-11365
▁今年以来	-11366
▁喽	-11367
▁宋	-11368
▁轻	-11369
不易	-11370
八哥	-11371
包围	-11372
午后	-11373
太郎	-11374
好在	-11375
它有	-11376
射门	-11377
希腊	-11378
想来	-11379
扫地	-11380
提琴	-11381
是是	-11382
晴天	-11383
月饼	-11384
流出	-11385
片的	-11386
球衣	-11387
蚂蚱	-11388
装饰	-11389
转转	-11390
这支	-11391
造型	-11392
阵阵	-11393
风中	-11394
香啊	-11395
香香	-11396
黄昏	-11397
▁下雨	-11398
▁个人	-11399
▁会儿	-11400
上了一	-11401
你们看	-11402
就因为	-11403
效力于	-11404
有一百	-11405
被称为	-11406
▁也没有	-11407
上面写着	-11408
应该不会	-11409
开心极了	-11410
感兴趣的	-11411
的小男孩	-11412
觉得这个	-11413
▁我们可以	-11414
和你聊天很愉快	-11415
▁留	-11416
▁麦	-11417
之路	-11418
供给	-11419
修炼	-11420
几句	-11421
单打	-11422
台词	-11423
命中	-11424
图案	-11425
局长	-11426
左手	-11427
平了	-11428
平原	-11429
按摩	-11430
效应	-11431
最最	-11432
杀手	-11433
某些	-11434
温馨	-11435
猫和	-11436
相似	-11437
神的	-11438
说她	-11439
躲到	-11440
进城	-11441
那会	-11442
陪您	-11443
预赛	-11444
hou	-11445
▁年龄	-11446
▁韩国	-11447
了上来	-11448
他们会	-11449
前面的	-11450
又没有	-11451
很好奇	-11452
无所谓	-11453
的爱情	-11454
的缘故	-11455
跳出来	-11456
那这个	-11457
不太了解	-11458
做的事情	-11459
哈喽你好	-11460
怎么样呢	-11461
格力电器	-11462
然后他就	-11463
走了过来	-11464
广东省中医院	-11465
▁zhuang	-11466
▁我们一起来探索吧	-11467
▁击	-11468
▁喜	-11469
▁粮	-11470
一事	-11471
一心	-11472
上路	-11473
兄妹	-11474
八万	-11475
利文	-11476
别急	-11477
增幅	-11478
太后	-11479
尼克	-11480
想当	-11481
方形	-11482
活力	-11483
牛肉	-11484
联想	-11485
钻到	-11486
门票	-11487
▁录音	-11488
▁明白	-11489
也是在	-11490
了一起	-11491
做成的	-11492
古时候	-11493
方便了	-11494
洁白的	-11495
电视台	-11496
肯定的	-11497
过去吧	-11498
金球奖	-11499
长满了	-11500
▁我们将	-11501
无可奈何	-11502
跳了起来	-11503
这种感觉	-11504
▁创业板指	-11505
还是挺好的	-11506
▁伤	-11507
买到	-11508
乱跳	-11509
众多	-11510
会长	-11511
低的	-11512
出国	-11513
医科	-11514
十天	-11515
婶婶	-11516
崛起	-11517
捕鱼	-11518
早起	-11519
有谁	-11520
本科	-11521
湖水	-11522
激凌	-11523
火焰	-11524
生死	-11525
白发	-11526
的你	-11527
种种	-11528
血压	-11529
认知	-11530
话了	-11531
豹子	-11532
逃脱	-11533
重组	-11534
▁你不	-11535
▁流浪	-11536
不错了	-11537
了之后	-11538
凭什么	-11539
可真多	-11540
吃什么	-11541
和狐狸	-11542
对方的	-11543
就是啊	-11544
星期天	-11545
是一场	-11546
比以前	-11547
灌木丛	-11548
爱好者	-11549
玩意儿	-11550
考虑到	-11551
跆拳道	-11552
这么久	-11553
这真是	-11554
河马先生	-11555
生日快乐	-11556
21	-11557
▁嘴	-11558
▁孙	-11559
▁拖	-11560
▁梳	-11561
▁齐	-11562
中学	-11563
了她	-11564
交代	-11565
从头	-11566
依依	-11567
原野	-11568
各有	-11569
奥沙	-11570
宇航	-11571
带有	-11572
日记	-11573
最先	-11574
流畅	-11575
猫咪	-11576
病情	-11577
的腿	-11578
皱着	-11579
联手	-11580
芦苇	-11581
荡荡	-11582
这把	-11583
追着	-11584
随即	-11585
霸道	-11586
▁mi	-11587
▁打扫	-11588
▁马车	-11589
个人的	-11590
了多少	-11591
从天上	-11592
兴奋剂	-11593
呱呱呱	-11594
好几次	-11595
妻子的	-11596
它看见	-11597
感动了	-11598
所以才	-11599
拿冠军	-11600
洋娃娃	-11601
的模样	-11602
窗台上	-11603
范围内	-11604
这会儿	-11605
▁是的呀	-11606
什么故事	-11607
住着一个	-11608
就是这么	-11609
看了一眼	-11610
到底是什么	-11611
▁哥	-11612
▁捉	-11613
▁橘	-11614
▁色	-11615
下手	-11616
东南	-11617
丫头	-11618
临走	-11619
剧本	-11620
口碑	-11621
哀求	-11622
大军	-11623
宠爱	-11624
拉开	-11625
搭配	-11626
斑点	-11627
有味	-11628
极其	-11629
水喝	-11630
眼了	-11631
羊仔	-11632
花费	-11633
蒙古	-11634
虚拟	-11635
血管	-11636
账号	-11637
路人	-11638
退了	-11639
遭受	-11640
那张	-11641
鼓起	-11642
▁听完	-11643
▁工作	-11644
▁工具	-11645
▁随后	-11646
产业链	-11647
但是它	-11648
你愿意	-11649
使用的	-11650
几天后	-11651
可惜的	-11652
地望着	-11653
好一点	-11654
如果我	-11655
帮助你	-11656
我爸爸	-11657
现在我	-11658
看他的	-11659
算什么	-11660
精彩了	-11661
老年人	-11662
让我来	-11663
jiao	-11664
一个小时	-11665
主要还是	-11666
也不是很	-11667
大家都很	-11668
怎样才能	-11669
狮子大王	-11670
▁qian	-11671
▁我也不知道	-11672
▁招	-11673
一笔	-11674
中年	-11675
他刚	-11676
南极	-11677
去呢	-11678
叫她	-11679
哈登	-11680
地毯	-11681
宝剑	-11682
心上	-11683
怀抱	-11684
总要	-11685
悠闲	-11686
懂事	-11687
手表	-11688
掌柜	-11689
改正	-11690
流感	-11691
漏洞	-11692
热了	-11693
猛龙	-11694
班的	-11695
谈论	-11696
遇上	-11697
闹得	-11698
500	-11699
▁夏天	-11700
▁蘑菇	-11701
▁那天	-11702
三十五	-11703
二季度	-11704
从哪里	-11705
他们又	-11706
你真是	-11707
全都是	-11708
其实我	-11709
勇士队	-11710
发生的	-11711
失望了	-11712
就变成	-11713
是哪个	-11714
有一对	-11715
老鼠的	-11716
解决了	-11717
逃跑了	-11718
错过了	-11719
▁xiu	-11720
你怎么了	-11721
别的地方	-11722
就到这里	-11723
很长时间	-11724
美丽的小	-11725
都没有了	-11726
第二天早上	-11727
▁撕	-11728
▁限	-11729
修养	-11730
同声	-11731
向她	-11732
多吃	-11733
子孙	-11734
情侣	-11735
施肥	-11736
柔软	-11737
比一	-11738
泄露	-11739
湖里	-11740
热气	-11741
百年	-11742
石涛	-11743
胡歌	-11744
都吃	-11745
▁你对	-11746
▁疫情	-11747
像一个	-11748
在他们	-11749
大学的	-11750
想看看	-11751
想知道	-11752
我看见	-11753
的人才	-11754
的功能	-11755
的演员	-11756
笼子里	-11757
紫色的	-11758
线城市	-11759
对妈妈说	-11760
▁我是石涛	-11761
▁于	-11762
▁秦	-11763
两家	-11764
动态	-11765
协调	-11766
取了	-11767
听你	-11768
唯有	-11769
天亮	-11770
布谷	-11771
德里	-11772
慈善	-11773
挥舞	-11774
晴朗	-11775
某种	-11776
狗的	-11777
瞌睡	-11778
知了	-11779
米饭	-11780
精准	-11781
蜜桃	-11782
蟾蜍	-11783
街头	-11784
解开	-11785
误会	-11786
迎面	-11787
颈椎	-11788
▁三角	-11789
▁关键	-11790
▁哪怕	-11791
▁国际	-11792
▁鸭子	-11793
一亿元	-11794
不是我	-11795
以后的	-11796
体育馆	-11797
变得更	-11798
大海里	-11799
带我去	-11800
我就要	-11801
还是蛮	-11802
▁我只是	-11803
▁我看你	-11804
也是这样	-11805
就比如说	-11806
我和我的	-11807
的一部分	-11808
真的很好	-11809
这个比赛	-11810
这是我的	-11811
都是一些	-11812
非常好的	-11813
▁beng	-11814
▁你有关注	-11815
▁M	-11816
▁酸	-11817
下蛋	-11818
不乐	-11819
不当	-11820
你猜	-11821
假期	-11822
做完	-11823
到家	-11824
前十	-11825
勃勃	-11826
叹息	-11827
呼唤	-11828
大一	-11829
妈呀	-11830
捉弄	-11831
显著	-11832
泡沫	-11833
注定	-11834
珍贵	-11835
生素	-11836
等啊	-11837
融合	-11838
起路	-11839
那可	-11840
雕刻	-11841
▁噢噢	-11842
▁当你	-11843
▁快乐	-11844
▁生病	-11845
体育课	-11846
你不会	-11847
回家后	-11848
在一片	-11849
心中的	-11850
我也会	-11851
李小璐	-11852
牵牛花	-11853
获得过	-11854
软软的	-11855
辛苦了	-11856
先不说了	-11857
核酸检测	-11858
飞了起来	-11859
▁我也看了	-11860
也没有什么	-11861
叹了一口气	-11862
密切接触者	-11863
▁这里是三九健康网	-11864
▁内	-11865
▁复	-11866
▁夜	-11867
▁理	-11868
一摸	-11869
会计	-11870
修改	-11871
前方	-11872
各国	-11873
团体	-11874
多好	-11875
小路	-11876
尖叫	-11877
崩溃	-11878
左边	-11879
布鲁	-11880
徒手	-11881
心愿	-11882
按时	-11883
正经	-11884
监控	-11885
等的	-11886
越好	-11887
鳗鱼	-11888
▁两只	-11889
不允许	-11890
军运会	-11891
到底是	-11892
参加过	-11893
又一个	-11894
大量的	-11895
好听的	-11896
宝宝们	-11897
真漂亮	-11898
第二年	-11899
等平台	-11900
草丛中	-11901
装满了	-11902
试试看	-11903
这里面	-11904
遥远的	-11905
▁tou	-11906
▁太好了	-11907
他是一个	-11908
分析认为	-11909
好久不见	-11910
我们还是	-11911
的小女孩	-11912
知不知道	-11913
都不一样	-11914
▁还有那个	-11915
这个电视剧	-11916
涨百分之零点	-11917
▁吼	-11918
▁宁	-11919
▁顺	-11920
使人	-11921
势力	-11922
周年	-11923
太难	-11924
奉献	-11925
女王	-11926
平凡	-11927
广大	-11928
手游	-11929
排在	-11930
派出	-11931
潇洒	-11932
痕迹	-11933
直叫	-11934
神话	-11935
称号	-11936
随风	-11937
▁姿势	-11938
三十六	-11939
了一顿	-11940
于是就	-11941
什么也	-11942
其它的	-11943
副主任	-11944
古天乐	-11945
吵醒了	-11946
在怀里	-11947
小笨熊	-11948
差点儿	-11949
电影了	-11950
看不起	-11951
箱子里	-11952
▁小孩子	-11953
▁红红的	-11954
▁这一天	-11955
兄弟姐妹	-11956
咕噜咕噜	-11957
所有人都	-11958
是不是很	-11959
没有那么	-11960
▁活	-11961
下场	-11962
专利	-11963
举报	-11964
圆的	-11965
在做	-11966
外观	-11967
安宁	-11968
少林	-11969
师兄	-11970
感人	-11971
房门	-11972
着你	-11973
离了	-11974
私募	-11975
脚上	-11976
蟒蛇	-11977
西北	-11978
闲着	-11979
闷闷	-11980
阿尔	-11981
▁裤子	-11982
不愧是	-11983
不要紧	-11984
也应该	-11985
再看看	-11986
只能说	-11987
大自然	-11988
市场上	-11989
暖暖的	-11990
有三个	-11991
的夜晚	-11992
的视频	-11993
的队伍	-11994
睡大觉	-11995
篮球赛	-11996
落在了	-11997
蚂蚁们	-11998
过分了	-11999
这里是	-12000
▁是因为	-12001
▁而不是	-12002
两个孩子	-12003
岁的时候	-12004
我得走了	-12005
我跟你说	-12006
袋鼠妈妈	-12007
金融机构	-12008
▁zhan	-12009
▁你也在关注这篇	-12010
▁谢	-12011
保安	-12012
功效	-12013
区块	-12014
升机	-12015
安心	-12016
就诊	-12017
平板	-12018
得对	-12019
恭敬	-12020
提交	-12021
支出	-12022
有好	-12023
枝条	-12024
特地	-12025
猫说	-12026
理念	-12027
盛开	-12028
示范	-12029
终结	-12030
芒果	-12031
评估	-12032
▁但他	-12033
▁唱歌	-12034
▁遇到	-12035
▁银行	-12036
了一番	-12037
勇敢的	-12038
发脾气	-12039
垃圾桶	-12040
州茅台	-12041
我的话	-12042
的城市	-12043
盒子里	-12044
邮递员	-12045
2020	-12046
▁在这个	-12047
▁如果是	-12048
▁小姐姐	-12049
▁这部剧	-12050
倒在地上	-12051
啊什么的	-12052
摇摇晃晃	-12053
比较好的	-12054
的小伙子	-12055
第一时间	-12056
而且还是	-12057
▁shir	-12058
▁围	-12059
▁桌	-12060
传递	-12061
出售	-12062
又香	-12063
多人	-12064
室友	-12065
往家	-12066
我带	-12067
抄袭	-12068
明媚	-12069
是以	-12070
本地	-12071
枝头	-12072
清香	-12073
灰熊	-12074
看去	-12075
评审	-12076
越看	-12077
转了	-12078
采购	-12079
门诊	-12080
非凡	-12081
鱼说	-12082
鸭蛋	-12083
▁下午	-12084
▁大大	-12085
▁平常	-12086
▁经济	-12087
▁过了	-12088
▁音乐	-12089
上面的	-12090
不了解	-12091
他以前	-12092
休息了	-12093
准备了	-12094
大尾巴	-12095
父母的	-12096
结束后	-12097
要健康	-12098
走进了	-12099
运营商	-12100
这么做	-12101
郭艾伦	-12102
▁sui	-12103
▁有的人	-12104
太可怕了	-12105
得不得了	-12106
感觉自己	-12107
还是可以	-12108
那个地方	-12109
▁不一会儿	-12110
我最喜欢的	-12111
孩子比较喜欢	-12112
新型冠状病毒	-12113
▁亲爱的小朋友	-12114
90	-12115
~~	-12116
▁低	-12117
去吃	-12118
又从	-12119
同一	-12120
啪嗒	-12121
喝茶	-12122
回国	-12123
夏季	-12124
妞妞	-12125
异口	-12126
弥补	-12127
想找	-12128
我跟	-12129
投放	-12130
拦住	-12131
新品	-12132
无线	-12133
景向	-12134
杀害	-12135
概率	-12136
比他	-12137
疲力	-12138
的画	-12139
节课	-12140
莲花	-12141
裁员	-12142
观赏	-12143
这年	-12144
迪士	-12145
AMD	-12146
▁公鸡	-12147
▁天气	-12148
▁总体	-12149
▁科技	-12150
▁车车	-12151
了一段	-12152
他怎么	-12153
区块链	-12154
头大汗	-12155
时间的	-12156
是一名	-12157
根本就	-12158
现在还	-12159
生孩子	-12160
的一块	-12161
眼前的	-12162
让你们	-12163
说不出	-12164
还不够	-12165
造成了	-12166
小的时候	-12167
帮助别人	-12168
有这样的	-12169
身体素质	-12170
这么一说	-12171
不好意思地说	-12172
se	-12173
▁K	-12174
▁仅	-12175
▁嚯	-12176
▁蛮	-12177
▁豆	-12178
▁间	-12179
亚冠	-12180
产党	-12181
他将	-12182
分了	-12183
厂商	-12184
原始	-12185
叮咚	-12186
吸烟	-12187
地狱	-12188
对阵	-12189
戏团	-12190
所得	-12191
扔掉	-12192
新生	-12193
是她	-12194
秃秃	-12195
船长	-12196
试点	-12197
起到	-12198
配音	-12199
野鸡	-12200
面条	-12201
sui	-12202
▁勺子	-12203
▁可怕	-12204
二十二	-12205
价值的	-12206
停止了	-12207
去看了	-12208
恨不得	-12209
的中国	-12210
设计师	-12211
这本书	-12212
迪士尼	-12213
采蘑菇	-12214
▁那你们	-12215
有很多的	-12216
白雪公主	-12217
这么一个	-12218
▁乱七八糟	-12219
公司的员工	-12220
▁主	-12221
▁硬	-12222
丛林	-12223
休班	-12224
先把	-12225
再不	-12226
出自	-12227
和水	-12228
啊呜	-12229
多月	-12230
大吼	-12231
太过	-12232
奖杯	-12233
学术	-12234
小美	-12235
折腾	-12236
捣蛋	-12237
攀登	-12238
斧子	-12239
瘦瘦	-12240
站住	-12241
超人	-12242
过人	-12243
采蜜	-12244
鼻孔	-12245
lao	-12246
▁作者	-12247
也不想	-12248
动脑筋	-12249
可是它	-12250
她们的	-12251
它就会	-12252
小矮人	-12253
用什么	-12254
的脚步	-12255
目前的	-12256
相应的	-12257
科主任	-12258
跑得快	-12259
▁这样的	-12260
》:""	-12261
你请坐吧	-12262
大家都在	-12263
就是他们	-12264
打篮球吗	-12265
突然发现	-12266
还是很有	-12267
出来的时候	-12268
▁篇	-12269
一串	-12270
以翔	-12271
养生	-12272
变形	-12273
口中	-12274
哭得	-12275
喝的	-12276
天然	-12277
快看	-12278
抛弃	-12279
故乡	-12280
教官	-12281
最为	-12282
比尔	-12283
毛线	-12284
汉堡	-12285
短暂	-12286
砍柴	-12287
草坪	-12288
认定	-12289
购房	-12290
闪烁	-12291
▁你像	-12292
▁拼图	-12293
▁自从	-12294
他是个	-12295
你真的	-12296
健康的	-12297
在河边	-12298
大臣们	-12299
小鲜肉	-12300
我个人	-12301
我还挺	-12302
最开始	-12303
这个事	-12304
▁zei	-12305
▁妈妈说	-12306
医科大学	-12307
吃的东西	-12308
年的时间	-12309
这样一来	-12310
▁前段时间	-12311
这一刻就是这些	-12312
80	-12313
▁吉	-12314
▁名	-12315
▁整	-12316
▁离	-12317
▁绑	-12318
信封	-12319
农家	-12320
可要	-12321
在花	-12322
坐了	-12323
奖金	-12324
完毕	-12325
审核	-12326
层面	-12327
必定	-12328
执法	-12329
拉住	-12330
摔跤	-12331
查看	-12332
气氛	-12333
泥鳅	-12334
洁白	-12335
着脚	-12336
碎片	-12337
舍得	-12338
苦的	-12339
蒙蒙	-12340
被抓	-12341
负债	-12342
逛街	-12343
▁一次	-12344
▁大哥	-12345
▁女生	-12346
▁环比	-12347
▁脑袋	-12348
▁说到	-12349
▁面包	-12350
你关注	-12351
和她的	-12352
大森林	-12353
必须的	-12354
慢吞吞	-12355
我应该	-12356
打球了	-12357
是关于	-12358
毕业生	-12359
确实挺	-12360
肯定有	-12361
转过身	-12362
▁xin	-12363
三十一号	-12364
回头一看	-12365
太可惜了	-12366
月十八号	-12367
童话故事	-12368
这么多年	-12369
▁我也喜欢	-12370
▁菲菲姐姐	-12371
我很喜欢看	-12372
优雅	-12373
前期	-12374
可好	-12375
可贴	-12376
吃肉	-12377
在树	-12378
境界	-12379
大啊	-12380
宏观	-12381
寡妇	-12382
应急	-12383
懒觉	-12384
投诉	-12385
有座	-12386
热门	-12387
痛得	-12388
看个	-12389
视着	-12390
解放	-12391
讽刺	-12392
足以	-12393
鲁能	-12394
▁有个	-12395
下一次	-12396
嫌疑人	-12397
就那个	-12398
改编的	-12399
深深地	-12400
谢谢您	-12401
▁所以啊	-12402
不是特别	-12403
同学你好	-12404
异口同声	-12405
我就知道	-12406
生日礼物	-12407
属于自己的	-12408
我们的生活	-12409
我特别喜欢	-12410
fa	-12411
it	-12412
▁未	-12413
▁端	-12414
一晃	-12415
偷吃	-12416
冬雨	-12417
出手	-12418
可别	-12419
喜悦	-12420
地吃	-12421
外号	-12422
多万	-12423
天神	-12424
套餐	-12425
实践	-12426
尽头	-12427
恰恰	-12428
才对	-12429
拳头	-12430
柠檬	-12431
母子	-12432
流的	-12433
火龙	-12434
爱丽	-12435
留给	-12436
老子	-12437
聊了	-12438
辅导	-12439
非法	-12440
高端	-12441
黄渤	-12442
▁业内	-12443
▁他把	-12444
▁出门	-12445
▁反而	-12446
▁摸摸	-12447
不下来	-12448
做出了	-12449
发出了	-12450
可是我	-12451
它可以	-12452
小白鼠	-12453
山上的	-12454
慌不忙	-12455
我的天	-12456
的一条	-12457
的人群	-12458
的母亲	-12459
细细的	-12460
脸上的	-12461
规模的	-12462
辛辛苦	-12463
那里的	-12464
▁但是我	-12465
▁卫生间	-12466
一到周五	-12467
拼个桌吗	-12468
来不及了	-12469
这么想的	-12470
非常生气	-12471
▁生活要健康	-12472
互动	-12473
传球	-12474
使命	-12475
再度	-12476
前去	-12477
前景	-12478
反抗	-12479
和国	-12480
嬉戏	-12481
宙斯	-12482
尚未	-12483
强队	-12484
成指	-12485
替补	-12486
机智	-12487
查阅	-12488
民众	-12489
沸腾	-12490
海鸥	-12491
跃进	-12492
连接	-12493
门槛	-12494
▁不得	-12495
▁先生	-12496
▁练习	-12497
▁要求	-12498
▁说完	-12499
▁运动	-12500
下车啦	-12501
也都是	-12502
于是它	-12503
好像有	-12504
如果不	-12505
姐姐的	-12506
孤零零	-12507
家里人	-12508
就把它	-12509
是一对	-12510
没看到	-12511
白胡子	-12512
而且是	-12513
让我想	-12514
越想越	-12515
问题了	-12516
▁man	-12517
▁我们在	-12518
▁特斯拉	-12519
▁越来越	-12520
一百五十	-12521
为自己的	-12522
他的妻子	-12523
你就可以	-12524
其实就是	-12525
坐在地上	-12526
我就喜欢	-12527
满头大汗	-12528
这部电影的	-12529
▁今晚就和大家分享到这里	-12530
iv	-12531
▁千	-12532
▁量	-12533
▁银	-12534
一提	-12535
亮亮	-12536
会让	-12537
你又	-12538
写信	-12539
几下	-12540
分明	-12541
刷新	-12542
增量	-12543
大帝	-12544
大摆	-12545
女婿	-12546
扮演	-12547
招生	-12548
挡住	-12549
梁山	-12550
水塘	-12551
牢牢	-12552
犯规	-12553
男足	-12554
真美	-12555
篮网	-12556
花狗	-12557
赢的	-12558
跳绳	-12559
配的	-12560
▁企业	-12561
▁头条	-12562
▁实现	-12563
▁睡衣	-12564
▁跑步	-12565
公布的	-12566
再见哈	-12567
写作业	-12568
到外面	-12569
嘴巴里	-12570
太大的	-12571
很伤心	-12572
来这里	-12573
没必要	-12574
狐狸和	-12575
用这个	-12576
的话题	-12577
统计局	-12578
记住了	-12579
这几个	-12580
▁xue	-12581
▁中国的	-12582
▁你看过	-12583
▁跳跳糖	-12584
▁这一次	-12585
也是一种	-12586
参加比赛	-12587
和我一起	-12588
月十三号	-12589
电视剧啊	-12590
的是一个	-12591
中医的奇妙	-12592
▁F	-12593
不容	-12594
不打	-12595
不甘	-12596
中文	-12597
仍在	-12598
位子	-12599
入境	-12600
右边	-12601
咕嘟	-12602
嘱咐	-12603
墙角	-12604
大将	-12605
天文	-12606
山林	-12607
广阔	-12608
归来	-12609
时分	-12610
演得	-12611
着气	-12612
研报	-12613
秘书	-12614
笑道	-12615
美术	-12616
苗苗	-12617
谈话	-12618
货物	-12619
阿木	-12620
风的	-12621
首诗	-12622
马斯	-12623
▁明明	-12624
▁祝你	-12625
一回事	-12626
一系列	-12627
上来了	-12628
不了的	-12629
了几下	-12630
亲自讲	-12631
他演的	-12632
做不到	-12633
各方面	-12634
地问道	-12635
失败了	-12636
有一片	-12637
汉武帝	-12638
看样子	-12639
穿上了	-12640
胖胖的	-12641
还有人	-12642
那一天	-12643
亿美元的	-12644
但是没有	-12645
在树林里	-12646
娱乐新闻	-12647
山羊老师	-12648
希望他能	-12649
陪您度过	-12650
得干干净净	-12651
等平台陪您度过	-12652
▁唔	-12653
一举	-12654
三七	-12655
乡村	-12656
做着	-12657
儿啊	-12658
区的	-12659
去去	-12660
去啊	-12661
各大	-12662
咩咩	-12663
大爷	-12664
对吗	-12665
强劲	-12666
斯科	-12667
是啥	-12668
权力	-12669
梳理	-12670
步伐	-12671
水草	-12672
清早	-12673
盛的	-12674
箱里	-12675
行驶	-12676
被迫	-12677
重量	-12678
飞向	-12679
鲁班	-12680
黄鱼	-12681
▁完成	-12682
▁有时	-12683
▁轻松	-12684
不是在	-12685
净买入	-12686
加入了	-12687
原来的	-12688
叫我了	-12689
地球上	-12690
服务业	-12691
田野里	-12692
的心态	-12693
的角度	-12694
脑子里	-12695
腿就跑	-12696
这才是	-12697
▁我怎么	-12698
以为自己	-12699
佩戴口罩	-12700
就知道了	-12701
的过程中	-12702
美满健康	-12703
▁财经资讯	-12704
▁还有一些	-12705
主任的讲解	-12706
这可怎么办	-12707
还是很不错的	-12708
一回	-12709
公民	-12710
卫视	-12711
复出	-12712
奴隶	-12713
守着	-12714
寓言	-12715
很棒	-12716
心协	-12717
房贷	-12718
松子	-12719
橡树	-12720
渣男	-12721
的分	-12722
短短	-12723
稳稳	-12724
美股	-12725
词语	-12726
通的	-12727
通红	-12728
金色	-12729
铲子	-12730
陈情	-12731
▁各种	-12732
▁同意	-12733
▁听见	-12734
▁期待	-12735
▁这也	-12736
他可以	-12737
半导体	-12738
危险了	-12739
可爱了	-12740
地笑了	-12741
她就是	-12742
将成为	-12743
小汽车	-12744
想一想	-12745
的人了	-12746
的想法	-12747
虽然说	-12748
这么小	-12749
▁头条号	-12750
三天三夜	-12751
他们就是	-12752
千万不能	-12753
小个子猫	-12754
智能手机	-12755
狐狸先生	-12756
电视剧吗	-12757
都不愿意	-12758
▁故事中的	-12759
▁然后我就	-12760
名医亲自讲	-12761
你旁边的座位	-12762
我孩子下课了	-12763
▁七点早知道新闻快讯	-12764
▁欢迎收听听见知乎本期	-12765
▁扛	-12766
一溜	-12767
一碗	-12768
与众	-12769
书记	-12770
人鱼	-12771
但我	-12772
别怕	-12773
咋样	-12774
堆里	-12775
头疼	-12776
好象	-12777
射手	-12778
布拉	-12779
弟兄	-12780
张三	-12781
手艺	-12782
拿去	-12783
新娘	-12784
无声	-12785
有名	-12786
木板	-12787
本质	-12788
果园	-12789
比比	-12790
浓眉	-12791
热水	-12792
级别	-12793
谁呢	-12794
谷子	-12795
跑啊	-12796
近了	-12797
阴影	-12798
频道	-12799
▁他又	-12800
▁叫做	-12801
一阵风	-12802
了解的	-12803
二十六	-12804
你可能	-12805
听的你	-12806
如果说	-12807
有个叫	-12808
游乐场	-12809
的是的	-12810
的照片	-12811
纳达尔	-12812
老巫婆	-12813
说起来	-12814
闪闪的	-12815
▁回不来	-12816
▁有些人	-12817
▁红色的	-12818
不容易的	-12819
二零一九	-12820
往常一样	-12821
没有时间	-12822
浪微博号	-12823
就是这样的	-12824
百分之五点	-12825
▁每周一到周五	-12826
等平台陪您度过美满健康	-12827
hu	-12828
▁[	-12829
▁德	-12830
乐了	-12831
争光	-12832
兴致	-12833
医护	-12834
司令	-12835
否认	-12836
国债	-12837
多家	-12838
宁愿	-12839
宫廷	-12840
屋檐	-12841
平日	-12842
建成	-12843
很深	-12844
播的	-12845
整治	-12846
无能	-12847
杜甫	-12848
来听	-12849
极限	-12850
楚王	-12851
死在	-12852
片刻	-12853
电竞	-12854
百花	-12855
看病	-12856
笑的	-12857
说吧	-12858
象征	-12859
贴在	-12860
赶着	-12861
颜料	-12862
饱了	-12863
鲜血	-12864
▁不太	-12865
▁价格	-12866
▁卧槽	-12867
▁天空	-12868
▁梅西	-12869
▁樱桃	-12870
▁预备	-12871
也不行	-12872
优美的	-12873
准备好	-12874
动物的	-12875
回家吧	-12876
太累了	-12877
有实力	-12878
生活着	-12879
的人呢	-12880
的小鱼	-12881
的笑容	-12882
送给我	-12883
▁小男孩	-12884
▁说实话	-12885
一天晚上	-12886
资料显示	-12887
▁这一刻就这些	-12888
)"	-12889
▁3	-12890
▁所	-12891
七万	-12892
也快	-12893
会说	-12894
前行	-12895
力了	-12896
增持	-12897
它能	-12898
就怕	-12899
开来	-12900
心动	-12901
执教	-12902
报了	-12903
损伤	-12904
无关	-12905
有看	-12906
林子	-12907
比特	-12908
水牛	-12909
江西	-12910
演讲	-12911
澳门	-12912
猫猫	-12913
男单	-12914
职责	-12915
虽说	-12916
见的	-12917
足协	-12918
飞着	-12919
首钢	-12920
▁他想	-12921
▁盖子	-12922
▁简单	-12923
一直是	-12924
公主的	-12925
就只有	-12926
就是一	-12927
英特尔	-12928
表现得	-12929
都不想	-12930
▁喜欢啊	-12931
▁我到了	-12932
健康科普	-12933
关注体育	-12934
关注这些	-12935
没听说过	-12936
睡前故事	-12937
谢谢你啊	-12938
▁teng	-12939
发生了什么事	-12940
▁凡	-12941
▁溜	-12942
一数	-12943
伊朗	-12944
侮辱	-12945
兴高	-12946
典礼	-12947
助手	-12948
劲地	-12949
医师	-12950
又饿	-12951
变色	-12952
喝着	-12953
地板	-12954
场合	-12955
宝物	-12956
将是	-12957
小虎	-12958
日报	-12959
武功	-12960
沟里	-12961
河北	-12962
湿的	-12963
炎帝	-12964
狼狈	-12965
着要	-12966
等了	-12967
老爸	-12968
肥肥	-12969
西兰	-12970
解读	-12971
语气	-12972
赵国	-12973
降价	-12974
顶级	-12975
饭吃	-12976
骑马	-12977
高三	-12978
ppo	-12979
▁天使	-12980
▁小白	-12981
▁我这	-12982
不方便	-12983
也来了	-12984
二十一	-12985
他每天	-12986
你已经	-12987
去医院	-12988
商银行	-12989
对我说	-12990
拒绝了	-12991
无论是	-12992
有那么	-12993
的风险	-12994
虽然是	-12995
让别人	-12996
讲完了	-12997
走到了	-12998
轻轻的	-12999
那边的	-13000
重重地	-13001
我们都是	-13002
是真的很	-13003
我们中国的	-13004
等平台陪您度过美满健康的一天	-13005
du	-13006
▁嘟	-13007
▁许	-13008
丢失	-13009
丸子	-13010
主张	-13011
乱的	-13012
他跟	-13013
传媒	-13014
参考	-13015
嘀嘀	-13016
女足	-13017
季报	-13018
就越	-13019
彤彤	-13020
心来	-13021
悲哀	-13022
来玩	-13023
案例	-13024
的背	-13025
良好	-13026
辜负	-13027
达成	-13028
面试	-13029
香甜	-13030
▁卡儿	-13031
▁当天	-13032
▁新的	-13033
▁那这	-13034
什么人	-13035
他就会	-13036
只需要	-13037
影响到	-13038
我们不	-13039
是个大	-13040
特别大	-13041
的变化	-13042
眼睛里	-13043
这么高	-13044
闭上了	-13045
▁我听说	-13046
▁然后我	-13047
然后那个	-13048
聆听的你	-13049
▁这个电影	-13050
一个小小的	-13051
不是很清楚	-13052
觉得很奇怪	-13053
▁烤	-13054
万里	-13055
不小	-13056
伯特	-13057
冒出	-13058
冬奥	-13059
出于	-13060
午餐	-13061
又叫	-13062
困扰	-13063
小胖	-13064
怎能	-13065
总理	-13066
意甲	-13067
打完	-13068
拿大	-13069
指点	-13070
数的	-13071
新建	-13072
武魂	-13073
火炉	-13074
热度	-13075
独特	-13076
盲目	-13077
穴位	-13078
管家	-13079
米兰	-13080
这三	-13081
这头	-13082
选秀	-13083
非得	-13084
▁他也	-13085
▁做成	-13086
▁努力	-13087
乖乖地	-13088
但是在	-13089
你们都	-13090
傻孩子	-13091
光秃秃	-13092
冰激凌	-13093
听不懂	-13094
地发现	-13095
外面的	-13096
就是想	-13097
应该有	-13098
很难受	-13099
捉虫子	-13100
熊宝宝	-13101
爱健康	-13102
球场上	-13103
电视上	-13104
的努力	-13105
的身边	-13106
穿衣服	-13107
飞行员	-13108
10],	-13109
▁就是你	-13110
了解一下	-13111
垂头丧气	-13112
大了眼睛	-13113
带着您的	-13114
根本就不	-13115
毫不犹豫	-13116
自动驾驶	-13117
▁gang	-13118
▁我也是啊	-13119
▁看了看了	-13120
你这是在看	-13121
变得越来越	-13122
▁怪	-13123
▁韩	-13124
不做	-13125
亿股	-13126
位列	-13127
你很	-13128
化为	-13129
单身	-13130
太高	-13131
好用	-13132
姨妈	-13133
学过	-13134
层次	-13135
心啊	-13136
志玲	-13137
我啊	-13138
接连	-13139
月初	-13140
杨幂	-13141
每到	-13142
爱上	-13143
紫色	-13144
考研	-13145
花蜜	-13146
落户	-13147
表扬	-13148
装扮	-13149
连声	-13150
长久	-13151
阅兵	-13152
jin	-13153
▁不久	-13154
▁不行	-13155
▁也会	-13156
▁斑马	-13157
了一样	-13158
了以后	-13159
和别人	-13160
在森林	-13161
天黑了	-13162
寒冷的	-13163
意思是	-13164
爷爷说	-13165
生下来	-13166
的一下	-13167
的一次	-13168
的身影	-13169
确定性	-13170
自己做	-13171
落到了	-13172
这一年	-13173
都很好	-13174
默默地	-13175
▁一下子	-13176
▁真的啊	-13177
我喜欢的	-13178
▁chen	-13179
▁另一方面	-13180
▁我很喜欢	-13181
▁知不知道	-13182
的小动物们	-13183
一走	-13184
冷啊	-13185
台阶	-13186
嘴八	-13187
大气	-13188
强度	-13189
惊醒	-13190
有啊	-13191
格里	-13192
汇率	-13193
沉沉	-13194
油价	-13195
火灾	-13196
玲玲	-13197
班长	-13198
的开	-13199
知府	-13200
篮板	-13201
美容	-13202
老将	-13203
胖了	-13204
蛋儿	-13205
说罢	-13206
请坐	-13207
豪猪	-13208
躺下	-13209
键盘	-13210
黑影	-13211
xie	-13212
▁主意	-13213
▁我和	-13214
▁走路	-13215
▁超市	-13216
他最近	-13217
兴高采	-13218
却发现	-13219
去哪里	-13220
啊这些	-13221
多一点	-13222
大家好	-13223
就是那	-13224
很漂亮	-13225
我帮你	-13226
有一块	-13227
爱上了	-13228
的大象	-13229
看他们	-13230
等待着	-13231
蹦乱跳	-13232
问妈妈	-13233
青蛙说	-13234
鸡毛鸭	-13235
传来一阵	-13236
确实有点	-13237
是什么样子	-13238
▁定	-13239
▁急	-13240
不留	-13241
他叫	-13242
他来	-13243
们也	-13244
傲慢	-13245
冤枉	-13246
区间	-13247
口渴	-13248
名人	-13249
听我	-13250
夜间	-13251
就向	-13252
差别	-13253
已是	-13254
库存	-13255
底的	-13256
快手	-13257
思索	-13258
感触	-13259
指甲	-13260
改了	-13261
敬佩	-13262
涨价	-13263
琳娜	-13264
由此	-13265
离去	-13266
竹竿	-13267
终究	-13268
自家	-13269
获悉	-13270
转发	-13271
通讯	-13272
降幅	-13273
▁sa	-13274
▁我才	-13275
▁注意	-13276
▁还没	-13277
▁餐桌	-13278
一般人	-13279
一起打	-13280
不公平	-13281
了一道	-13282
他心里	-13283
你妈妈	-13284
你想要	-13285
出现的	-13286
嘴八舌	-13287
小仙女	-13288
小熊猫	-13289
就算是	-13290
时间了	-13291
气坏了	-13292
热情地	-13293
的一生	-13294
的到来	-13295
的力气	-13296
的姑娘	-13297
的投资	-13298
着脑袋	-13299
老母鸡	-13300
能找到	-13301
莱纳德	-13302
▁奇妙的	-13303
▁怪不得	-13304
▁我相信	-13305
到此结束	-13306
四月二十	-13307
▁yong	-13308
中医名中医	-13309
▁但是我觉得	-13310
▁头条号和新	-13311
▁头条号和新浪微博号	-13312
▁取	-13313
▁岁	-13314
▁徐	-13315
▁碎	-13316
▁约	-13317
▁袋	-13318
一台	-13319
一级	-13320
不分	-13321
功课	-13322
合约	-13323
威武	-13324
得以	-13325
我被	-13326
替他	-13327
望远	-13328
机遇	-13329
案子	-13330
洞宾	-13331
满地	-13332
皇冠	-13333
磨合	-13334
称呼	-13335
竟敢	-13336
缘分	-13337
蓬蓬	-13338
设法	-13339
谁会	-13340
跟踪	-13341
踪影	-13342
轮流	-13343
露水	-13344
飘着	-13345
黄豆	-13346
▁ca	-13347
▁咖啡	-13348
▁容易	-13349
▁照片	-13350
▁行业	-13351
上一次	-13352
他的话	-13353
喊起来	-13354
大儿子	-13355
形成了	-13356
我的家	-13357
灰色的	-13358
球员的	-13359
的企业	-13360
麻烦了	-13361
▁机器人	-13362
▁第二个	-13363
我是一只	-13364
给我说说	-13365
辛辛苦苦	-13366
▁gong	-13367
▁reng	-13368
▁此刻正在	-13369
咱们国家的	-13370
我朋友来了	-13371
▁chuan	-13372
▁南都名医大讲堂	-13373
▁扫	-13374
▁朝	-13375
下行	-13376
两名	-13377
五只	-13378
他却	-13379
佛教	-13380
你到	-13381
关羽	-13382
再把	-13383
南山	-13384
咬住	-13385
大神	-13386
失落	-13387
尔斯	-13388
巴士	-13389
忠实	-13390
打进	-13391
找啊	-13392
挖掘	-13393
撒谎	-13394
救治	-13395
时而	-13396
是非	-13397
更为	-13398
标签	-13399
槐树	-13400
欣喜	-13401
歪歪	-13402
沼泽	-13403
满身	-13404
玩吧	-13405
疑似	-13406
睡衣	-13407
祖宗	-13408
英文	-13409
视为	-13410
解说	-13411
踩着	-13412
躲进	-13413
顺手	-13414
鸟类	-13415
jie	-13416
▁煮饭	-13417
一方面	-13418
下半年	-13419
他们要	-13420
以至于	-13421
去了解	-13422
在国内	-13423
好看吗	-13424
好起来	-13425
存在的	-13426
小兔说	-13427
小壁虎	-13428
小学生	-13429
成这样	-13430
我就想	-13431
报道说	-13432
林子里	-13433
沙发上	-13434
然后她	-13435
珍贵的	-13436
给我讲	-13437
背上的	-13438
透明的	-13439
都需要	-13440
陈情令	-13441
▁今年的	-13442
▁我一般	-13443
你有关注	-13444
年的时候	-13445
绿油油的	-13446
自己的家	-13447
里面还有	-13448
就先下车啦	-13449
带着您的疑问	-13450
ww	-13451
▁钟	-13452
一无	-13453
侵犯	-13454
公正	-13455
刚想	-13456
刚落	-13457
却又	-13458
去当	-13459
国有	-13460
处的	-13461
将要	-13462
常态	-13463
年内	-13464
弯腰	-13465
怒气	-13466
损害	-13467
放声	-13468
模糊	-13469
深了	-13470
混合	-13471
热心	-13472
热身	-13473
用品	-13474
要出	-13475
谈判	-13476
输给	-13477
道上	-13478
零八	-13479
WTA	-13480
▁做好	-13481
▁家里	-13482
上大学	-13483
了一千	-13484
大数据	-13485
小孩儿	-13486
屋顶上	-13487
心协力	-13488
我回去	-13489
手指头	-13490
新闻上	-13491
渐渐的	-13492
湖人的	-13493
真好看	-13494
让它们	-13495
走起路	-13496
还喜欢	-13497
▁也是哈	-13498
▁哦哦哦	-13499
▁孩子们	-13500
▁梅花鹿	-13501
一点一点	-13502
基础设施	-13503
我再也不	-13504
月十九号	-13505
然后我们	-13506
谢谢你们	-13507
谢谢你的	-13508
足球比赛吗	-13509
-0	-13510
▁立	-13511
▁野	-13512
也行	-13513
亮光	-13514
他啊	-13515
伦敦	-13516
光彩	-13517
克的	-13518
大米	-13519
得出	-13520
悲剧	-13521
救救	-13522
新股	-13523
替代	-13524
桥上	-13525
演了	-13526
炸弹	-13527
爱了	-13528
的药	-13529
能否	-13530
苦脸	-13531
车站	-13532
轮船	-13533
部位	-13534
▁不少	-13535
▁他会	-13536
▁只好	-13537
▁块钱	-13538
▁坚持	-13539
▁好听	-13540
▁小象	-13541
▁感冒	-13542
▁懂得	-13543
▁我来	-13544
▁我能	-13545
一点五	-13546
之后呢	-13547
大拇指	-13548
妈妈和	-13549
小房子	-13550
得到的	-13551
惊醒了	-13552
成一团	-13553
走出了	-13554
跑到了	-13555
那两个	-13556
都一样	-13557
问题啊	-13558
▁小蚂蚁	-13559
不下去了	-13560
的小伙伴	-13561
约了朋友	-13562
非常非常	-13563
▁这是什么	-13564
初中的时候	-13565
mi	-13566
▁盛	-13567
▁雷	-13568
两下	-13569
为生	-13570
八九	-13571
关在	-13572
卖掉	-13573
占了	-13574
去拿	-13575
向我	-13576
圆形	-13577
多米	-13578
大话	-13579
失利	-13580
将其	-13581
少爷	-13582
忽略	-13583
意愿	-13584
斗争	-13585
最初	-13586
有余	-13587
期末	-13588
木屋	-13589
杰瑞	-13590
格格	-13591
没完	-13592
没得	-13593
画了	-13594
破旧	-13595
社保	-13596
窟窿	-13597
能手	-13598
跳出	-13599
跳去	-13600
道夫	-13601
长到	-13602
长腿	-13603
青岛	-13604
▁ci	-13605
▁交通	-13606
▁分钟	-13607
▁听听	-13608
▁大声	-13609
▁永远	-13610
▁蜗牛	-13611
东西了	-13612
二十八	-13613
产生的	-13614
他们家	-13615
会说话	-13616
传来了	-13617
你只要	-13618
在前面	-13619
城里的	-13620
很久了	-13621
战胜了	-13622
教室里	-13623
期待的	-13624
的花瓣	-13625
的需求	-13626
纪录片	-13627
老和尚	-13628
越看越	-13629
▁enh	-13630
▁wen	-13631
▁什么样	-13632
▁但是呢	-13633
▁我要去	-13634
不是一个	-13635
什么意思	-13636
怎么会有	-13637
我是一个	-13638
昨天晚上	-13639
最重要的	-13640
▁我是压力	-13641
我可以坐在	-13642
类型的电影	-13643
迫不及待地	-13644
我和我的祖国	-13645
▁此刻正在聆听的你	-13646
▁凉	-13647
不变	-13648
之事	-13649
人吗	-13650
人马	-13651
仍旧	-13652
他到	-13653
全体	-13654
去哪	-13655
受过	-13656
向着	-13657
土壤	-13658
室内	-13659
摇着	-13660
生下	-13661
看谁	-13662
约车	-13663
线索	-13664
细心	-13665
能和	-13666
要好	-13667
轻盈	-13668
铁锅	-13669
长城	-13670
难听	-13671
雪橇	-13672
骚扰	-13673
骨折	-13674
魔镜	-13675
chi	-13676
▁小姐	-13677
▁重新	-13678
上去了	-13679
几十年	-13680
出来吧	-13681
城市里	-13682
字母哥	-13683
尽全力	-13684
我们有	-13685
拿下了	-13686
消息吗	-13687
的光芒	-13688
舒舒服	-13689
适当的	-13690
马戏团	-13691
高以翔	-13692
鸟儿们	-13693
▁www	-13694
▁你是说	-13695
▁可以呀	-13696
不是什么	-13697
也是因为	-13698
他的实力	-13699
你说的是	-13700
月十七号	-13701
▁haha	-13702
▁然后那个	-13703
看没看前两天	-13704
同比增长百分之	-13705
ti	-13706
▁呵	-13707
▁闭	-13708
上过	-13709
五天	-13710
从中	-13711
保姆	-13712
六万	-13713
养成	-13714
吴京	-13715
呼哧	-13716
孙女	-13717
学费	-13718
导弹	-13719
弓箭	-13720
往里	-13721
待在	-13722
懒汉	-13723
打雷	-13724
最强	-13725
机的	-13726
极为	-13727
沉思	-13728
王一	-13729
白银	-13730
盖上	-13731
眉毛	-13732
车厢	-13733
通了	-13734
▁徒手	-13735
▁折腾	-13736
▁而在	-13737
▁金融	-13738
也不动	-13739
也只能	-13740
你也在	-13741
别着急	-13742
吕洞宾	-13743
吸引了	-13744
告别了	-13745
呢就是	-13746
多大的	-13747
好主意	-13748
想出了	-13749
比我们	-13750
的压力	-13751
的头上	-13752
真的挺	-13753
脏兮兮	-13754
要注意	-13755
这棵树	-13756
▁创可贴	-13757
▁小蜗牛	-13758
公交站牌	-13759
去年同期	-13760
大声喊道	-13761
媒体报道	-13762
微笑着说	-13763
每天早上	-13764
看见一只	-13765
舒舒服服	-13766
闷闷不乐	-13767
▁但是现在	-13768
▁就是因为	-13769
变成了一只	-13770
继续往前走	-13771
▁5	-13772
▁堆	-13773
▁查	-13774
▁随	-13775
一气	-13776
上火	-13777
东东	-13778
介意	-13779
他呀	-13780
你那	-13781
入口	-13782
发财	-13783
吕布	-13784
哒哒	-13785
圈粉	-13786
大嫂	-13787
好不	-13788
小鬼	-13789
尼斯	-13790
布袋	-13791
我正	-13792
无辜	-13793
有心	-13794
模特	-13795
气候	-13796
流程	-13797
王母	-13798
珠海	-13799
瓜子	-13800
盘旋	-13801
石块	-13802
红灯	-13803
考察	-13804
跑出	-13805
选赛	-13806
那片	-13807
▁支持	-13808
▁此时	-13809
▁考验	-13810
▁食物	-13811
不进去	-13812
乡亲们	-13813
位置了	-13814
做生意	-13815
共产党	-13816
受伤的	-13817
地来到	-13818
太高了	-13819
就是了	-13820
我正在	-13821
找工作	-13822
无聊了	-13823
每次都	-13824
生气地	-13825
的花朵	-13826
皮皮鲁	-13827
设计的	-13828
走开了	-13829
chen	-13830
▁你们好	-13831
▁动物园	-13832
▁是一个	-13833
一百三十	-13834
七嘴八舌	-13835
不得不说	-13836
去电影院	-13837
好多人都	-13838
小松鼠说	-13839
很有道理	-13840
愁眉苦脸	-13841
百分之四	-13842
▁那你平时	-13843
基本上都是	-13844
年轻的时候	-13845
最好的朋友	-13846
哈哈大笑起来	-13847
▁欢迎打开全民	-13848
▁吐	-13849
▁绝	-13850
一则	-13851
一方	-13852
两颗	-13853
也该	-13854
人品	-13855
亿的	-13856
从天	-13857
伤的	-13858
元的	-13859
出战	-13860
分成	-13861
判决	-13862
呼吁	-13863
圈圈	-13864
基于	-13865
复仇	-13866
大白	-13867
它还	-13868
将近	-13869
小妹	-13870
得一	-13871
戏骨	-13872
我给	-13873
排行	-13874
旁的	-13875
最怕	-13876
月球	-13877
梧桐	-13878
比方	-13879
点钱	-13880
牛的	-13881
狗说	-13882
羊肉	-13883
舆论	-13884
荆棘	-13885
视野	-13886
触角	-13887
调控	-13888
足足	-13889
迎着	-13890
连夜	-13891
里头	-13892
难为	-13893
MVP	-13894
▁分别	-13895
▁听了	-13896
▁沪指	-13897
了一份	-13898
他好像	-13899
好巧啊	-13900
就有点	-13901
我非常	-13902
有那个	-13903
本来是	-13904
比较有	-13905
流口水	-13906
的心理	-13907
碧绿的	-13908
老鼠说	-13909
荷叶上	-13910
踢球啊	-13911
还没等	-13912
还记得	-13913
▁你现在	-13914
一天到晚	-13915
他的儿子	-13916
其中一个	-13917
想了想说	-13918
皱着眉头	-13919
▁就是我们	-13920
▁这场比赛	-13921
吃饭的时候	-13922
回家的路上	-13923
得在您身边	-13924
一千零一夜我是	-13925
▁塞	-13926
▁试	-13927
上万	-13928
不放	-13929
不负	-13930
不走	-13931
光滑	-13932
关门	-13933
内地	-13934
发育	-13935
受害	-13936
变出	-13937
大黑	-13938
富裕	-13939
幼稚	-13940
当个	-13941
慌了	-13942
手帕	-13943
把水	-13944
拐杖	-13945
楼房	-13946
海盗	-13947
深山	-13948
玩啊	-13949
眼花	-13950
织女	-13951
终身	-13952
绒绒	-13953
草药	-13954
西部	-13955
责怪	-13956
迷惑	-13957
送的	-13958
阳气	-13959
雕像	-13960
顶着	-13961
高位	-13962
鹈鹕	-13963
▁ce	-13964
▁帅气	-13965
▁相关	-13966
不仅是	-13967
你肯定	-13968
到自己	-13969
大尖牙	-13970
就来了	-13971
山洞里	-13972
我有个	-13973
新房子	-13974
有这种	-13975
比自己	-13976
溜溜的	-13977
的家里	-13978
社会的	-13979
被别人	-13980
足够的	-13981
这么想	-13982
三个儿子	-13983
也就是说	-13984
大口大口	-13985
掉了下来	-13986
跑来跑去	-13987
ān	-13988
▁抬	-13989
▁摩	-13990
像素	-13991
再多	-13992
发呆	-13993
咬牙	-13994
在的	-13995
官司	-13996
心眼	-13997
成名	-13998
无知	-13999
朦胧	-14000
源于	-14001
烈地	-14002
珠子	-14003
皇家	-14004
相继	-14005
融入	-14006
行行	-14007
诈骗	-14008
边缘	-14009
过敏	-14010
麦克	-14011
黑人	-14012
▁威风	-14013
▁居然	-14014
▁想象	-14015
▁池塘	-14016
▁算了	-14017
▁见识	-14018
▁黄金	-14019
一直到	-14020
乐呵呵	-14021
向前走	-14022
团团转	-14023
它这个	-14024
小羚羊	-14025
我们俩	-14026
提供了	-14027
新衣服	-14028
无聊嘛	-14029
来自于	-14030
柔软的	-14031
每一天	-14032
猎人的	-14033
的信息	-14034
▁宝贝们	-14035
▁怎么会	-14036
▁肯定的	-14037
▁进一步	-14038
不用担心	-14039
了一个小	-14040
你很喜欢	-14041
你能不能	-14042
我也看过	-14043
确实不错	-14044
▁不知道啊	-14045
三百六十五	-14046
..."""	-14047
不知道为什么	-14048
▁欢迎来到喜马拉雅	-14049
爱数智慧语音采集二零一九年十一月	-14050
▁提	-14051
三家	-14052
下巴	-14053
不响	-14054
丽颖	-14055
之恩	-14056
书本	-14057
分泌	-14058
原先	-14059
合并	-14060
后就	-14061
含着	-14062
国人	-14063
在河	-14064
太极	-14065
学姐	-14066
宁静	-14067
就又	-14068
慈禧	-14069
我买	-14070
挣脱	-14071
时辰	-14072
死人	-14073
毒的	-14074
洗衣	-14075
球球	-14076
窗前	-14077
经纪	-14078
脚的	-14079
问了	-14080
闺女	-14081
防御	-14082
阿卡	-14083
雄鹿	-14084
▁六月	-14085
▁喘气	-14086
▁姑娘	-14087
▁我妈	-14088
▁板凳	-14089
▁点点	-14090
▁还给	-14091
他喜欢	-14092
伴随着	-14093
好久没	-14094
开满了	-14095
当年的	-14096
很强的	-14097
拍了拍	-14098
摇大摆	-14099
月十日	-14100
服务员	-14101
望远镜	-14102
气呼呼	-14103
然后在	-14104
的剧情	-14105
的训练	-14106
睡梦中	-14107
认识的	-14108
跟别人	-14109
?!""	-14110
▁两个人	-14111
▁可不嘛	-14112
▁怎么说	-14113
▁我不会	-14114
一场比赛	-14115
一棵大树	-14116
了不起的	-14117
奇怪的是	-14118
是这样呀	-14119
▁你是不是	-14120
你也在关注	-14121
▁我们将带着您的疑问	-14122
Ma	-14123
──	-14124
▁应	-14125
▁店	-14126
▁猛	-14127
▁瞧	-14128
一出	-14129
一枚	-14130
一言	-14131
下周	-14132
专辑	-14133
两大	-14134
保卫	-14135
光荣	-14136
冬瓜	-14137
准时	-14138
出席	-14139
包袱	-14140
反思	-14141
口味	-14142
合法	-14143
吹得	-14144
四下	-14145
地主	-14146
塞进	-14147
宫中	-14148
宫里	-14149
山鸡	-14150
开个	-14151
征求	-14152
恰好	-14153
找呀	-14154
景点	-14155
服用	-14156
栅栏	-14157
欧阳	-14158
癌症	-14159
眼中	-14160
绰号	-14161
老猫	-14162
迹象	-14163
醒醒	-14164
闻了	-14165
频繁	-14166
飞上	-14167
骗人	-14168
▁一百	-14169
▁仔细	-14170
▁完了	-14171
▁尿尿	-14172
三十日	-14173
三季度	-14174
从这里	-14175
他人的	-14176
以后就	-14177
就好像	-14178
很长的	-14179
我想要	-14180
淘汰了	-14181
真好吃	-14182
篮球吗	-14183
维生素	-14184
还会有	-14185
进来了	-14186
▁但是你	-14187
半个小时	-14188
在生活中	-14189
就不见了	-14190
这有什么	-14191
这样子的	-14192
▁值得注意的是	-14193
▁哈哈哈哈哈哈	-14194
ip	-14195
▁踩	-14196
一顶	-14197
上当	-14198
不掉	-14199
中说	-14200
产量	-14201
像他	-14202
关上	-14203
养活	-14204
出个	-14205
售价	-14206
围绕	-14207
圈儿	-14208
奢侈	-14209
它那	-14210
并未	-14211
很帅	-14212
抚养	-14213
招手	-14214
捉虫	-14215
是指	-14216
最美	-14217
望望	-14218
朝前	-14219
来打	-14220
模型	-14221
每周	-14222
水流	-14223
波比	-14224
相貌	-14225
砰砰	-14226
破烂	-14227
翻过	-14228
职务	-14229
胡说	-14230
获奖	-14231
被你	-14232
设定	-14233
转变	-14234
这根	-14235
违约	-14236
都去	-14237
钱包	-14238
闪光	-14239
颁奖	-14240
餐桌	-14241
齐齐	-14242
▁bo	-14243
▁整理	-14244
▁消费	-14245
▁父母	-14246
▁竟然	-14247
▁调皮	-14248
交易所	-14249
交给了	-14250
化妆品	-14251
去看的	-14252
唱起了	-14253
喜欢了	-14254
村民们	-14255
正能量	-14256
牌子的	-14257
的大门	-14258
的小草	-14259
的小鸡	-14260
的目标	-14261
▁这个人	-14262
不容易了	-14263
你喜欢看	-14264
去看一下	-14265
受不了了	-14266
大笑起来	-14267
很多东西	-14268
我可以坐	-14269
现在我们	-14270
种族歧视	-14271
都差不多	-14272
▁有的时候	-14273
▁晚	-14274
为之	-14275
从而	-14276
关了	-14277
动车	-14278
占领	-14279
又怕	-14280
发亮	-14281
周刊	-14282
和人	-14283
啪啦	-14284
大盗	-14285
太乙	-14286
嫩芽	-14287
屋外	-14288
得无	-14289
悲痛	-14290
或将	-14291
比的	-14292
洗个	-14293
穆雷	-14294
给的	-14295
证实	-14296
谁是	-14297
起诉	-14298
迷迷	-14299
队里	-14300
马丁	-14301
马刺	-14302
zhu	-14303
▁嗨喽	-14304
▁就说	-14305
▁我没	-14306
▁武汉	-14307
▁没人	-14308
一看到	-14309
也特别	-14310
周冬雨	-14311
太忙了	-14312
小东西	-14313
工智能	-14314
带走了	-14315
推荐的	-14316
有一定	-14317
激烈的	-14318
点事情	-14319
爬到了	-14320
的对手	-14321
眨眼睛	-14322
老人的	-14323
这以后	-14324
里边儿	-14325
bing	-14326
huan	-14327
▁巧克力	-14328
▁所以呢	-14329
变成一个	-14330
奇怪地问	-14331
山羊爷爷	-14332
得意地说	-14333
日子过得	-14334
而且现在	-14335
聚在一起	-14336
之情	-14337
他向	-14338
代言	-14339
会对	-14340
况且	-14341
去问	-14342
古怪	-14343
史蒂	-14344
吃药	-14345
后天	-14346
和风	-14347
四肢	-14348
大街	-14349
太宗	-14350
它要	-14351
局势	-14352
扔下	-14353
折叠	-14354
抹布	-14355
捂住	-14356
日期	-14357
杨紫	-14358
灰色	-14359
目瞪	-14360
看她	-14361
精打	-14362
维亚	-14363
职工	-14364
臭臭	-14365
融化	-14366
被我	-14367
视力	-14368
诊断	-14369
轿车	-14370
还原	-14371
都打	-14372
队啊	-14373
馅饼	-14374
魏国	-14375
▁一半	-14376
▁小鹿	-14377
▁窗台	-14378
▁说着	-14379
▁贝贝	-14380
万美元	-14381
与大家	-14382
中医药	-14383
之后的	-14384
什么了	-14385
做了个	-14386
几分钟	-14387
去上学	-14388
周杰伦	-14389
王国的	-14390
的习惯	-14391
的花儿	-14392
祖国的	-14393
篇文章	-14394
网消息	-14395
老先生	-14396
考试了	-14397
讲一个	-14398
请来了	-14399
还不能	-14400
都不太	-14401
雪地里	-14402
""。"	-14403
▁三角形	-14404
▁你不是	-14405
▁因为我	-14406
▁我刚刚	-14407
▁那我就	-14408
六月二十	-14409
喜欢足球	-14410
多长时间	-14411
我觉得她	-14412
真的超级	-14413
那我先走了	-14414
▁我觉得也是	-14415
您分享到这里	-14416
▁角	-14417
一批	-14418
三岁	-14419
上年	-14420
事啊	-14421
亚当	-14422
亲热	-14423
伯乐	-14424
信托	-14425
出货	-14426
利好	-14427
医保	-14428
却在	-14429
和张	-14430
嘴上	-14431
城镇	-14432
备受	-14433
夜幕	-14434
大厦	-14435
寻求	-14436
将士	-14437
就别	-14438
很冷	-14439
扭头	-14440
控球	-14441
教养	-14442
暗中	-14443
果冻	-14444
波浪	-14445
独行	-14446
生机	-14447
相亲	-14448
看球	-14449
而过	-14450
舍友	-14451
芭蕉	-14452
落山	-14453
视觉	-14454
话音	-14455
诞生	-14456
跳上	-14457
跳得	-14458
都怪	-14459
阴谋	-14460
hai	-14461
▁叉子	-14462
▁白天	-14463
▁礼物	-14464
动物都	-14465
呼噜噜	-14466
和这个	-14467
妈妈把	-14468
就只能	-14469
很好吃	-14470
懒洋洋	-14471
最近在	-14472
男主角	-14473
的历史	-14474
的水平	-14475
目的地	-14476
老头子	-14477
茂密的	-14478
跳到了	-14479
这三个	-14480
这事儿	-14481
遥控器	-14482
黑黑的	-14483
▁圆圆的	-14484
▁我是亚	-14485
华为手机	-14486
又有什么	-14487
可以看到	-14488
奥沙利文	-14489
希望自己	-14490
很感兴趣	-14491
得意洋洋	-14492
月十四号	-14493
毕竟现在	-14494
津津有味	-14495
特别特别	-14496
玉皇大帝	-14497
的小猴子	-14498
谁也没有	-14499
都是为了	-14500
▁谁知道呢	-14501
什么新闻啊	-14502
我还挺喜欢	-14503
新官肺炎疫情	-14504
,,	-14505
;"	-14506
▁举	-14507
不屑	-14508
与他	-14509
之道	-14510
乱跑	-14511
了指	-14512
从没	-14513
例外	-14514
依据	-14515
偷懒	-14516
入侵	-14517
写得	-14518
叫醒	-14519
城门	-14520
害得	-14521
干草	-14522
座山	-14523
开枪	-14524
忠诚	-14525
恩诺	-14526
挠挠	-14527
振东	-14528
牛郎	-14529
的梦	-14530
石榴	-14531
空了	-14532
线下	-14533
胸脯	-14534
虚弱	-14535
要走	-14536
逃避	-14537
钳子	-14538
面向	-14539
风光	-14540
饭店	-14541
首领	-14542
验证	-14543
▁保持	-14544
▁出现	-14545
▁读书	-14546
▁轻轻	-14547
你一个	-14548
去年的	-14549
又大的	-14550
多好啊	-14551
大熊猫	-14552
大狮子	-14553
学生的	-14554
我比较	-14555
故意的	-14556
整个人	-14557
来帮忙	-14558
正坐在	-14559
瓶子里	-14560
的小溪	-14561
的那只	-14562
目瞪口	-14563
第一部	-14564
虎大王	-14565
要好好	-14566
认为是	-14567
这里有	-14568
锋利的	-14569
▁大部分	-14570
不过这次	-14571
躺在地上	-14572
▁你不知道	-14573
▁就是那种	-14574
我要下车了	-14575
▁称	-14576
一摇	-14577
上都	-14578
不明	-14579
两头	-14580
人性	-14581
几根	-14582
十字	-14583
又甜	-14584
可笑	-14585
吃吃	-14586
四人	-14587
天真	-14588
它一	-14589
帮她	-14590
开拓	-14591
恩爱	-14592
才把	-14593
指引	-14594
排除	-14595
敬业	-14596
有序	-14597
棉被	-14598
海南	-14599
照料	-14600
理性	-14601
的毛	-14602
的肉	-14603
着她	-14604
着想	-14605
葵花	-14606
言语	-14607
调侃	-14608
谣言	-14609
野狼	-14610
马虎	-14611
高空	-14612
▁偶尔	-14613
▁当年	-14614
▁浴帘	-14615
▁至少	-14616
上路了	-14617
不过来	-14618
他开始	-14619
你一定	-14620
太强了	-14621
对她说	-14622
应该很	-14623
第三次	-14624
经济的	-14625
苏东坡	-14626
都不好	-14627
▁投资者	-14628
中国选手	-14629
休息一下	-14630
可高兴了	-14631
大叫一声	-14632
寻找食物	-14633
就不一样	-14634
▁以上就是	-14635
从前有一个	-14636
还没来得及	-14637
▁房	-14638
】:	-14639
一行	-14640
他吗	-14641
低了	-14642
何时	-14643
克服	-14644
公募	-14645
出过	-14646
剧啊	-14647
包容	-14648
合伙	-14649
后腿	-14650
噩梦	-14651
四分	-14652
城墙	-14653
头条	-14654
布里	-14655
带给	-14656
底线	-14657
性质	-14658
恳求	-14659
恶劣	-14660
惨的	-14661
打车	-14662
无际	-14663
曝光	-14664
求救	-14665
理会	-14666
省份	-14667
看在	-14668
突发	-14669
老年	-14670
贵啊	-14671
逮捕	-14672
钱买	-14673
院里	-14674
随之	-14675
雪白	-14676
麦田	-14677
▁等到	-14678
▁至于	-14679
▁还能	-14680
▁这倒	-14681
一屁股	-14682
不会有	-14683
不来了	-14684
于是她	-14685
公安局	-14686
出什么	-14687
到地上	-14688
古老的	-14689
可以让	-14690
和小兔	-14691
大将军	-14692
好心的	-14693
成交额	-14694
我也去	-14695
或者说	-14696
来参加	-14697
然后说	-14698
的一部	-14699
的事件	-14700
的产品	-14701
的大海	-14702
的大臣	-14703
的老板	-14704
的选手	-14705
程度上	-14706
级别的	-14707
赶紧把	-14708
长尾巴	-14709
▁liu	-14710
▁小乌龟	-14711
一起分享	-14712
八月二十	-14713
变成了一	-14714
我男朋友	-14715
电动汽车	-14716
网球比赛	-14717
还是需要	-14718
这个这个	-14719
这篇新闻	-14720
就是不知道	-14721
ke	-14722
ta	-14723
分辨	-14724
县城	-14725
双双	-14726
名将	-14727
在前	-14728
夕阳	-14729
大使	-14730
头晕	-14731
市的	-14732
忍着	-14733
情商	-14734
扎克	-14735
找你	-14736
有条	-14737
楠楠	-14738
热火	-14739
熊说	-14740
爆了	-14741
看似	-14742
睡的	-14743
纳斯	-14744
纳瓦	-14745
老树	-14746
考核	-14747
肩上	-14748
蔷薇	-14749
补习	-14750
请了	-14751
课堂	-14752
队了	-14753
顶尖	-14754
飘来	-14755
▁乌鸦	-14756
▁伤心	-14757
▁印度	-14758
▁咳嗽	-14759
▁滑梯	-14760
▁父亲	-14761
▁自然	-14762
▁要么	-14763
▁鳄鱼	-14764
一辆车	-14765
你看我	-14766
半个月	-14767
哥们儿	-14768
多少人	-14769
它们都	-14770
对面的	-14771
就有了	-14772
当他们	-14773
我是个	-14774
找吃的	-14775
摘下来	-14776
救命呀	-14777
日子里	-14778
比一天	-14779
注意力	-14780
淡淡的	-14781
电影呢	-14782
电视里	-14783
的效果	-14784
的背上	-14785
的脚印	-14786
篮子里	-14787
肯定能	-14788
胖胖猪	-14789
▁我认为	-14790
▁没事儿	-14791
▁这是我	-14792
世界冠军	-14793
大摇大摆	-14794
差不多的	-14795
正在这时	-14796
▁那可不是	-14797
内容请查阅	-14798
▁这个我知道	-14799
内容请查阅南方都市报	-14800
▁今天的南都名医大讲堂	-14801
万万	-14802
业余	-14803
云南	-14804
他给	-14805
保佑	-14806
出海	-14807
口红	-14808
孝顺	-14809
就买	-14810
当上	-14811
当即	-14812
拼搏	-14813
拼音	-14814
放的	-14815
无穷	-14816
无踪	-14817
没说	-14818
爆米	-14819
疲倦	-14820
碰碰	-14821
穆里	-14822
美金	-14823
职位	-14824
腰带	-14825
轮车	-14826
金发	-14827
门将	-14828
问她	-14829
额度	-14830
飞快	-14831
饮酒	-14832
黄狗	-14833
黄鹂	-14834
▁不了	-14835
▁尤其	-14836
▁涨幅	-14837
▁这可	-14838
不会是	-14839
举行的	-14840
他只好	-14841
你的小	-14842
医生说	-14843
只是一	-14844
只是在	-14845
只要一	-14846
大股东	-14847
对它说	-14848
捡起来	-14849
有那种	-14850
生气的	-14851
的球队	-14852
睡懒觉	-14853
说的对	-14854
边说边	-14855
deng	-14856
xing	-14857
▁阿拉丁	-14858
也没有了	-14859
了一大跳	-14860
五彩缤纷	-14861
什么样子	-14862
你一定要	-14863
变成一只	-14864
很多时候	-14865
我们这些	-14866
目瞪口呆	-14867
▁我是恩诺	-14868
你的好朋友	-14869
我看你家孩子	-14870
▁亲爱的小朋友们	-14871
▁今晚就和您分享到这里	-14872
▁军	-14873
▁桥	-14874
▁鼠	-14875
九万	-14876
写作	-14877
到山	-14878
劲了	-14879
吧嗒	-14880
基点	-14881
小哥	-14882
故宫	-14883
无语	-14884
杀掉	-14885
泰山	-14886
深度	-14887
笛子	-14888
绵绵	-14889
美梦	-14890
美洲	-14891
讲完	-14892
较高	-14893
过上	-14894
▁一年	-14895
▁打架	-14896
▁收拾	-14897
▁王子	-14898
▁研究	-14899
一起吃	-14900
不过这	-14901
五分钟	-14902
你们俩	-14903
健身房	-14904
它们在	-14905
小蜘蛛	-14906
就那种	-14907
我愿意	-14908
打死了	-14909
放在了	-14910
新朋友	-14911
有意义	-14912
来进行	-14913
没事吧	-14914
给我吧	-14915
许多人	-14916
那好吧	-14917
都不用	-14918
吃了一惊	-14919
干什么呀	-14920
开了一家	-14921
想到这里	-14922
新闻发布会	-14923
足球俱乐部	-14924
32	-14925
▁凯	-14926
▁呆	-14927
▁形	-14928
▁爸	-14929
一五	-14930
优先	-14931
优美	-14932
你做	-14933
你用	-14934
初步	-14935
前辈	-14936
包包	-14937
发作	-14938
发病	-14939
可得	-14940
哧溜	-14941
天色	-14942
对它	-14943
帐篷	-14944
延期	-14945
扬扬	-14946
拍戏	-14947
挫折	-14948
揉揉	-14949
文武	-14950
旗舰	-14951
极端	-14952
滑板	-14953
痛哭	-14954
皮特	-14955
盆里	-14956
碰见	-14957
粗气	-14958
补助	-14959
装的	-14960
谁在	-14961
赛后	-14962
▁哪些	-14963
▁小的	-14964
▁行啊	-14965
▁饼干	-14966
不会的	-14967
丰富的	-14968
人人都	-14969
分手了	-14970
咕噜噜	-14971
啥时候	-14972
在头上	-14973
城堡里	-14974
我都要	-14975
救了我	-14976
洗衣服	-14977
现在也	-14978
的一棵	-14979
的笑声	-14980
的风景	-14981
网约车	-14982
网络上	-14983
觉得好	-14984
走啊走	-14985
跑起来	-14986
▁不是啊	-14987
▁就是他	-14988
上幼儿园	-14989
不过还是	-14990
对自己说	-14991
是不可能	-14992
走起路来	-14993
进一步的	-14994
金黄色的	-14995
▁因为我们	-14996
一天比一天	-14997
可能是因为	-14998
一波	-14999
万能	-15000
体能	-15001
俩人	-15002
修理	-15003
像你	-15004
几条	-15005
告示	-15006
困境	-15007
培育	-15008
大惊	-15009
大方	-15010
它呢	-15011
家具	-15012
密集	-15013
对联	-15014
小宝	-15015
就该	-15016
尼尔	-15017
尽的	-15018
开水	-15019
张家	-15020
当着	-15021
战队	-15022
指头	-15023
换成	-15024
标的	-15025
格斯	-15026
椅上	-15027
椰子	-15028
江山	-15029
沐浴	-15030
痛啊	-15031
登陆	-15032
种植	-15033
莎莎	-15034
调理	-15035
赛了	-15036
连着	-15037
长老	-15038
首位	-15039
黑洞	-15040
ivo	-15041
mei	-15042
▁ju	-15043
▁九月	-15044
▁他俩	-15045
▁确保	-15046
▁阿妈	-15047
▁阿秀	-15048
一溜烟	-15049
两个字	-15050
他终于	-15051
其实也	-15052
到我的	-15053
十分的	-15054
喜欢你	-15055
国王和	-15056
导致的	-15057
我就说	-15058
新出的	-15059
曾国藩	-15060
有一双	-15061
深刻的	-15062
然后去	-15063
牧羊人	-15064
男孩儿	-15065
的环境	-15066
美滋滋	-15067
自己了	-15068
英格兰	-15069
被窝里	-15070
说完就	-15071
长脖子	-15072
▁第一个	-15073
一百四十	-15074
一蹦一跳	-15075
什么也不	-15076
你也可以	-15077
怎么关注	-15078
所以我们	-15079
打篮球的	-15080
这么多人	-15081
▁今天天气真	-15082
▁南都爱健康	-15083
你旁边这个位置	-15084
▁呱	-15085
▁熟	-15086
一株	-15087
三位	-15088
丢下	-15089
事务	-15090
交警	-15091
人称	-15092
休闲	-15093
传承	-15094
信仰	-15095
剧了	-15096
务员	-15097
单车	-15098
含有	-15099
和睦	-15100
工匠	-15101
携带	-15102
新奇	-15103
是挺	-15104
未必	-15105
每股	-15106
沉迷	-15107
洛克	-15108
满面	-15109
演绎	-15110
端午	-15111
笃笃	-15112
纯粹	-15113
薄的	-15114
随身	-15115
▁社会	-15116
▁第五	-15117
▁让我	-15118
▁边儿	-15119
一点二	-15120
下去的	-15121
不错呢	-15122
之前在	-15123
他的小	-15124
去现场	-15125
发出的	-15126
另一边	-15127
向他们	-15128
吸引力	-15129
大概是	-15130
就不要	-15131
很好玩	-15132
必要的	-15133
懒巫婆	-15134
我当然	-15135
樊振东	-15136
的梦想	-15137
的音乐	-15138
类似于	-15139
见到你	-15140
车到了	-15141
都开始	-15142
vivo	-15143
▁其实我	-15144
▁甜甜的	-15145
一件事情	-15146
也是为了	-15147
咬了一口	-15148
忍不住了	-15149
我真的是	-15150
这个就是	-15151
都喜欢看	-15152
xiang	-15153
▁我最喜欢	-15154
▁然后他就	-15155
你这么一说	-15156
高中的时候	-15157
▁你知道最近	-15158
▁实	-15159
▁虾	-15160
一擦	-15161
三的	-15162
不受	-15163
专科	-15164
任命	-15165
储存	-15166
全程	-15167
剧组	-15168
北斗	-15169
可它	-15170
商户	-15171
地道	-15172
大为	-15173
定价	-15174
工艺	-15175
庙里	-15176
手掌	-15177
扑向	-15178
扔进	-15179
担当	-15180
整改	-15181
有意	-15182
枝叶	-15183
枯萎	-15184
片儿	-15185
猎枪	-15186
真像	-15187
礁石	-15188
粗心	-15189
翻身	-15190
肿瘤	-15191
腻了	-15192
见证	-15193
观的	-15194
许可	-15195
路线	-15196
重心	-15197
阴阳	-15198
零二	-15199
风暴	-15200
首个	-15201
▁男生	-15202
▁螃蟹	-15203
一阵阵	-15204
七月份	-15205
不会再	-15206
严重了	-15207
了一跤	-15208
你今天	-15209
你们要	-15210
增长的	-15211
宇航员	-15212
往回走	-15213
很多啊	-15214
愣住了	-15215
成长的	-15216
我准备	-15217
无人机	-15218
比较大	-15219
照镜子	-15220
的人员	-15221
精打采	-15222
身体的	-15223
过不去	-15224
都是些	-15225
金灿灿	-15226
▁我也很	-15227
不慌不忙	-15228
传说中的	-15229
几个小时	-15230
医护人员	-15231
好的朋友	-15232
应该就是	-15233
挺喜欢的	-15234
来的时候	-15235
每天都会	-15236
认为自己	-15237
▁就是就是	-15238
▁我是亚丽	-15239
▁是的是的	-15240
▁没有没有	-15241
▁热点财经资讯万	-15242
FM	-15243
tu	-15244
▁丑	-15245
▁科	-15246
▁稳	-15247
一摆	-15248
不休	-15249
之为	-15250
买点	-15251
他这	-15252
体的	-15253
偷了	-15254
冻得	-15255
分布	-15256
劝告	-15257
卫兵	-15258
反驳	-15259
吃啊	-15260
名气	-15261
咆哮	-15262
和李	-15263
好巧	-15264
带鱼	-15265
开得	-15266
引进	-15267
成天	-15268
我所	-15269
打水	-15270
捣乱	-15271
施展	-15272
无事	-15273
法规	-15274
消除	-15275
混乱	-15276
瀑布	-15277
玄宗	-15278
的在	-15279
的坏	-15280
眼皮	-15281
粽子	-15282
美貌	-15283
自习	-15284
衬衫	-15285
证书	-15286
说谎	-15287
转让	-15288
轻声	-15289
还小	-15290
防范	-15291
魔怪	-15292
.""	-15293
▁说起	-15294
主要的	-15295
你如果	-15296
又可以	-15297
大满贯	-15298
肯定很	-15299
该有多	-15300
跳起了	-15301
躲起来	-15302
还真的	-15303
送给他	-15304
高科技	-15305
▁我不想	-15306
一个声音	-15307
一直都在	-15308
住着一位	-15309
因为他的	-15310
在了地上	-15311
就变成了	-15312
爷爷奶奶	-15313
的时候会	-15314
解决问题	-15315
迷迷糊糊	-15316
都不喜欢	-15317
▁反正就是	-15318
▁那个时候	-15319
你为什么要	-15320
▁奇妙的中医名中医	-15321
▁咯	-15322
▁琴	-15323
上任	-15324
不合	-15325
不胜	-15326
中锋	-15327
亲爱	-15328
光线	-15329
协助	-15330
发球	-15331
吃亏	-15332
吵闹	-15333
学位	-15334
守门	-15335
家电	-15336
就听	-15337
山区	-15338
年年	-15339
开朗	-15340
惊叹	-15341
早晚	-15342
望了	-15343
构成	-15344
海棠	-15345
清醒	-15346
理智	-15347
百鸟	-15348
相差	-15349
真有	-15350
第八	-15351
糖尿	-15352
衙门	-15353
誉为	-15354
课本	-15355
躲雨	-15356
车了	-15357
送了	-15358
送信	-15359
通宵	-15360
金星	-15361
院士	-15362
青龙	-15363
魔力	-15364
▁me	-15365
▁即便	-15366
▁都会	-15367
不出去	-15368
也需要	-15369
创造了	-15370
到那个	-15371
厉害呀	-15372
可以把	-15373
告诉她	-15374
在今年	-15375
外婆家	-15376
心里很	-15377
才能够	-15378
打呼噜	-15379
指了指	-15380
晚上好	-15381
月亮上	-15382
没有被	-15383
的动作	-15384
的最后	-15385
着身子	-15386
管理员	-15387
美人鱼	-15388
wanr	-15389
▁就是在	-15390
▁无论是	-15391
▁然后再	-15392
关注一下	-15393
就先走了	-15394
年纪大了	-15395
怎么才能	-15396
找到一个	-15397
苹果公司	-15398
这个道理	-15399
▁cong	-15400
▁也不知道	-15401
吓了一大跳	-15402
▁qiang	-15403
▁我看你在看	-15404
▁托	-15405
▁投	-15406
▁支	-15407
▁泡	-15408
上街	-15409
下棋	-15410
也多	-15411
书上	-15412
了十	-15413
予以	-15414
出差	-15415
北上	-15416
压根	-15417
呼救	-15418
哪天	-15419
四五	-15420
国安	-15421
大勋	-15422
孟子	-15423
它俩	-15424
客运	-15425
屈原	-15426
岳飞	-15427
得有	-15428
换上	-15429
木偶	-15430
权的	-15431
橙子	-15432
疼爱	-15433
的全	-15434
续约	-15435
跟上	-15436
辛勤	-15437
过瘾	-15438
采摘	-15439
银河	-15440
齐声	-15441
▁健康	-15442
▁几乎	-15443
▁听话	-15444
▁大学	-15445
▁完全	-15446
▁我可	-15447
▁老板	-15448
▁花生	-15449
▁黑色	-15450
一个很	-15451
你也来	-15452
动不动	-15453
在水中	-15454
地区的	-15455
地坐在	-15456
多多的	-15457
小鲤鱼	-15458
就是被	-15459
就没了	-15460
痒痒的	-15461
的响声	-15462
解释说	-15463
跟自己	-15464
还是没	-15465
那里去	-15466
醒来了	-15467
风娃娃	-15468
魔术师	-15469
▁一开始	-15470
▁小鸭子	-15471
▁就感觉	-15472
▁第一次	-15473
一个孩子	-15474
一个问题	-15475
告诉大家	-15476
在水面上	-15477
当地时间	-15478
手里拿着	-15479
的好孩子	-15480
那你喜欢	-15481
▁huan	-15482
▁从此以后	-15483
▁人民网陪你阅读我是	-15484
▁今天的南都名医大讲堂到此结束	-15485
QQ	-15486
▁病	-15487
▁觉	-15488
一刀	-15489
不被	-15490
与你	-15491
两步	-15492
乘凉	-15493
也去	-15494
他没	-15495
但也	-15496
划算	-15497
南北	-15498
吉吉	-15499
呻吟	-15500
咬着	-15501
墨鱼	-15502
壮的	-15503
官府	-15504
少吃	-15505
怒了	-15506
恶意	-15507
惊险	-15508
想个	-15509
感的	-15510
我那	-15511
抢着	-15512
是只	-15513
歌儿	-15514
每逢	-15515
海浪	-15516
照耀	-15517
白鹤	-15518
的狗	-15519
租赁	-15520
菠萝	-15521
蔓延	-15522
触及	-15523
费了	-15524
起义	-15525
迷路	-15526
钱呢	-15527
钱啊	-15528
零五	-15529
领袖	-15530
鲫鱼	-15531
麻辣	-15532
▁任何	-15533
▁就能	-15534
▁提高	-15535
▁汪汪	-15536
▁猜猜	-15537
▁肥皂	-15538
▁让他	-15539
▁连续	-15540
不能说	-15541
也是挺	-15542
他真的	-15543
兄弟们	-15544
只要有	-15545
可是她	-15546
吃光了	-15547
国务院	-15548
开开心	-15549
影响力	-15550
我跟你	-15551
政策的	-15552
晚上的	-15553
白天鹅	-15554
的时代	-15555
的说法	-15556
知道啊	-15557
离婚了	-15558
经常会	-15559
这么个	-15560
送来了	-15561
那么小	-15562
长大后	-15563
马路上	-15564
huai	-15565
kuai	-15566
▁你也在	-15567
▁你要是	-15568
数字货币	-15569
月十六号	-15570
的时间了	-15571
穆里尼奥	-15572
该多好啊	-15573
不过我还是	-15574
出现了一个	-15575
想出了一个	-15576
是什么意思	-15577
▁zhang	-15578
▁句	-15579
▁市	-15580
▁星	-15581
▁福	-15582
一瓶	-15583
七七	-15584
不忘	-15585
之战	-15586
人嘛	-15587
刑事	-15588
加了	-15589
厘米	-15590
团长	-15591
增添	-15592
太监	-15593
学业	-15594
封闭	-15595
废物	-15596
当兵	-15597
惋惜	-15598
我将	-15599
我打	-15600
播种	-15601
新兴	-15602
木马	-15603
枫叶	-15604
正规	-15605
气血	-15606
水珠	-15607
沉浸	-15608
活活	-15609
湿热	-15610
点子	-15611
申报	-15612
结论	-15613
绿草	-15614
耀眼	-15615
解救	-15616
起伏	-15617
跳蚤	-15618
选的	-15619
通往	-15620
那件	-15621
OPP	-15622
▁万一	-15623
▁只见	-15624
▁开车	-15625
▁所谓	-15626
▁最高	-15627
▁毛巾	-15628
▁第四	-15629
▁难怪	-15630
了一眼	-15631
他的手	-15632
做的事	-15633
好期待	-15634
小猪的	-15635
就把他	-15636
帮帮我	-15637
平台上	-15638
往上爬	-15639
我得去	-15640
手机了	-15641
更高的	-15642
有两只	-15643
棒棒糖	-15644
游戏的	-15645
的一面	-15646
红帽子	-15647
自在地	-15648
舞台上	-15649
青蛙们	-15650
OPPO	-15651
▁有可能	-15652
一个劲儿	-15653
住在一起	-15654
公众人物	-15655
我来帮你	-15656
有一个小	-15657
身体健康	-15658
那是因为	-15659
▁peng	-15660
一个好主意	-15661
第二天一早	-15662
▁我也觉得是	-15663
一局	-15664
万岁	-15665
上述	-15666
不进	-15667
丛里	-15668
两句	-15669
了它	-15670
从容	-15671
例如	-15672
午觉	-15673
卖出	-15674
变动	-15675
同行	-15676
堂堂	-15677
她会	-15678
宫女	-15679
对准	-15680
战狼	-15681
所能	-15682
拿个	-15683
晒得	-15684
未能	-15685
本土	-15686
照射	-15687
爱看	-15688
独眼	-15689
相如	-15690
看待	-15691
精卫	-15692
绘本	-15693
编织	-15694
艰苦	-15695
莱克	-15696
货车	-15697
还将	-15698
钉子	-15699
阳性	-15700
零年	-15701
面具	-15702
香水	-15703
骑上	-15704
▁也要	-15705
▁占比	-15706
▁坚固	-15707
▁狗熊	-15708
▁电脑	-15709
▁进入	-15710
变得很	-15711
四条腿	-15712
太快了	-15713
就真的	-15714
当地的	-15715
找来了	-15716
报道呀	-15717
有点事	-15718
来跳去	-15719
比较高	-15720
给它们	-15721
赵丽颖	-15722
领域的	-15723
▁pai	-15724
▁不会吧	-15725
▁小花猫	-15726
▁房地产	-15727
。""[	-15728
不过最近	-15729
大森林里	-15730
是这样啊	-15731
讲的这个	-15732
▁然后我们	-15733
是一个非常	-15734
第二天早晨	-15735
▁增长百分之	-15736
ci	-15737
人均	-15738
使出	-15739
做些	-15740
冲动	-15741
又小	-15742
可我	-15743
唐僧	-15744
喂养	-15745
增值	-15746
就干	-15747
当我	-15748
性和	-15749
情怀	-15750
想说	-15751
找他	-15752
抗日	-15753
拿的	-15754
授权	-15755
撞到	-15756
替我	-15757
有小	-15758
木桥	-15759
气象	-15760
水池	-15761
法庭	-15762
瘸腿	-15763
的叫	-15764
看呀	-15765
种类	-15766
等候	-15767
越过	-15768
身躯	-15769
辣的	-15770
逛逛	-15771
金山	-15772
错的	-15773
▁台灯	-15774
▁嘟嘟	-15775
▁图画	-15776
▁恒大	-15777
▁欧洲	-15778
▁浙江	-15779
了一半	-15780
他们了	-15781
以为然	-15782
再见啦	-15783
别忘了	-15784
到后来	-15785
听不到	-15786
咱中国	-15787
夫妻俩	-15788
好好看	-15789
妈妈了	-15790
彼得潘	-15791
房子的	-15792
扑过去	-15793
打台球	-15794
是多少	-15795
母亲的	-15796
知道吧	-15797
较大的	-15798
这下子	-15799
一个星期	-15800
一千五百	-15801
中国机长	-15802
你可以去	-15803
向你问好	-15804
喜欢他的	-15805
大家都说	-15806
虽然没有	-15807
谢谢你了	-15808
那个电影	-15809
静悄悄的	-15810
▁我一定会	-15811
▁截至收盘	-15812
喜欢看这种	-15813
▁每周一到周五晚上	-15814
▁L	-15815
▁拆	-15816
▁波	-15817
一幅	-15818
不倒	-15819
习俗	-15820
以待	-15821
你该	-15822
免得	-15823
冰棍	-15824
去给	-15825
和黄	-15826
因而	-15827
大脚	-15828
实地	-15829
就将	-15830
当家	-15831
无虑	-15832
更快	-15833
有你	-15834
朝的	-15835
来呢	-15836
桂花	-15837
母牛	-15838
比亚	-15839
水来	-15840
满是	-15841
烂了	-15842
祖父	-15843
红包	-15844
自卑	-15845
要被	-15846
观音	-15847
诚恳	-15848
跌停	-15849
野鸭	-15850
铁皮	-15851
食用	-15852
驮着	-15853
3]。	-15854
▁安全	-15855
▁糖果	-15856
一次性	-15857
世预赛	-15858
好消息	-15859
小黄狗	-15860
就是嗯	-15861
庞大的	-15862
成熟了	-15863
文章啊	-15864
有一部	-15865
泥土里	-15866
猪八戒	-15867
的风格	-15868
自身的	-15869
花蝴蝶	-15870
跳进了	-15871
这个的	-15872
风婆婆	-15873
饿死了	-15874
▁zao	-15875
▁那好吧	-15876
一起去看	-15877
山羊公公	-15878
是越来越	-15879
电子产品	-15880
自己喜欢	-15881
这项运动	-15882
天上的星星	-15883
是什么样的	-15884
原来是这样啊	-15885
接下来的比赛	-15886
▁贾	-15887
一甩	-15888
一聊	-15889
不经	-15890
丢丢	-15891
争先	-15892
全靠	-15893
勒斯	-15894
去见	-15895
发力	-15896
变回	-15897
听懂	-15898
呢是	-15899
周周	-15900
唱了	-15901
嘴角	-15902
嘴边	-15903
大怒	-15904
安利	-15905
寿命	-15906
帮着	-15907
抢救	-15908
指指	-15909
搏斗	-15910
李子	-15911
淹死	-15912
溜冰	-15913
炒作	-15914
看清	-15915
知的	-15916
签订	-15917
过你	-15918
还敢	-15919
造的	-15920
酸的	-15921
预报	-15922
魂技	-15923
▁同样	-15924
▁啊对	-15925
▁图片	-15926
▁报纸	-15927
▁数数	-15928
▁白雪	-15929
▁豆豆	-15930
▁这只	-15931
也不太	-15932
他总是	-15933
供应商	-15934
出一副	-15935
出了个	-15936
听不见	-15937
唱起歌	-15938
在一棵	-15939
大狗熊	-15940
尊敬的	-15941
就是从	-15942
引起的	-15943
当中的	-15944
更何况	-15945
有的是	-15946
本赛季	-15947
的嘴巴	-15948
的大学	-15949
请你们	-15950
跟不上	-15951
遭到了	-15952
那么快	-15953
▁但是在	-15954
▁所以我	-15955
▁这次的	-15956
一只小鸟	-15957
你听说过	-15958
发生什么	-15959
很早以前	-15960
月亮婆婆	-15961
没有看过	-15962
锻炼锻炼	-15963
二零一七年	-15964
发现了一个	-15965
姐姐讲故事	-15966
▁你平时喜欢看	-15967
▁合	-15968
▁捞	-15969
▁补	-15970
一跃	-15971
一辈	-15972
上周	-15973
下定	-15974
两周	-15975
举着	-15976
利息	-15977
加坡	-15978
加工	-15979
动弹	-15980
哼着	-15981
围观	-15982
坚守	-15983
奋力	-15984
孩儿	-15985
富豪	-15986
封为	-15987
就此	-15988
层的	-15989
延长	-15990
报酬	-15991
持平	-15992
掉头	-15993
教导	-15994
族的	-15995
是来	-15996
最快	-15997
条纹	-15998
来历	-15999
来呀	-16000
查理	-16001
树根	-16002
步子	-16003
洋葱	-16004
灰鼠	-16005
炸了	-16006
犹如	-16007
猜猜	-16008
玩呢	-16009
田地	-16010
秦王	-16011
纠纷	-16012
约束	-16013
胸前	-16014
花纹	-16015
这双	-16016
部署	-16017
镇的	-16018
韩剧	-16019
风雪	-16020
马克	-16021
▁一种	-16022
▁事实	-16023
▁如何	-16024
▁给我	-16025
他当时	-16026
关上了	-16027
十五日	-16028
又来到	-16029
发现的	-16030
啊哈哈	-16031
在床上	-16032
太贵了	-16033
她觉得	-16034
小木屋	-16035
急坏了	-16036
我心里	-16037
把你们	-16038
搞不懂	-16039
方便的	-16040
日本队	-16041
泡泡糖	-16042
球队啊	-16043
用鼻子	-16044
的是吧	-16045
的那样	-16046
老朋友	-16047
胆小鬼	-16048
让妈妈	-16049
还比较	-16050
迷了路	-16051
送来的	-16052
金丝猴	-16053
闻到了	-16054
鼓鼓的	-16055
▁然后你	-16056
一只老鼠	-16057
不仅仅是	-16058
偶尔看看	-16059
历史新高	-16060
好像就是	-16061
好好学习	-16062
很快就会	-16063
现在不是	-16064
说来听听	-16065
身边的人	-16066
都很喜欢	-16067
▁yuan	-16068
▁小动物们	-16069
二零一五年	-16070
的比赛了吗	-16071
,4	-16072
▁聊	-16073
一艘	-16074
两块	-16075
也看	-16076
事项	-16077
二话	-16078
你吃	-16079
决于	-16080
刘翔	-16081
办了	-16082
去向	-16083
去呀	-16084
处在	-16085
天帝	-16086
她那	-16087
好转	-16088
妈咪	-16089
子啊	-16090
学学	-16091
小飞	-16092
平平	-16093
床边	-16094
开盘	-16095
所说	-16096
放缓	-16097
果真	-16098
水分	-16099
河豚	-16100
法师	-16101
洗完	-16102
涂山	-16103
灭亡	-16104
球啊	-16105
用到	-16106
畏惧	-16107
而后	-16108
职场	-16109
肉的	-16110
自称	-16111
艰辛	-16112
西游	-16113
这这	-16114
都把	-16115
长啊	-16116
长满	-16117
黑龙	-16118
xin	-16119
▁fa	-16120
▁三是	-16121
▁双层	-16122
▁天呐	-16123
▁紫色	-16124
▁阳光	-16125
一下啊	-16126
不好好	-16127
他应该	-16128
医生的	-16129
十二个	-16130
只见他	-16131
史蒂芬	-16132
在上海	-16133
基金的	-16134
头也不	-16135
很好听	-16136
我本来	-16137
我看着	-16138
有一头	-16139
有的像	-16140
爱丽丝	-16141
特殊的	-16142
的目光	-16143
的眼泪	-16144
真的会	-16145
给我买	-16146
老戏骨	-16147
跟你们	-16148
难受了	-16149
鹅太太	-16150
book	-16151
▁kou	-16152
▁刚开始	-16153
你是怎么	-16154
值得我们	-16155
就是比较	-16156
感觉有点	-16157
这个孩子	-16158
这个手机	-16159
那是什么	-16160
麻烦你了	-16161
▁我跟你说	-16162
,'	-16163
▁今	-16164
▁圣	-16165
七只	-16166
二三	-16167
代谢	-16168
你敢	-16169
侥幸	-16170
催眠	-16171
入学	-16172
决策	-16173
刘诗	-16174
别看	-16175
制止	-16176
包含	-16177
化成	-16178
去追	-16179
反击	-16180
叫了	-16181
各项	-16182
唱得	-16183
在说	-16184
地冲	-16185
夜的	-16186
契奇	-16187
如意	-16188
常年	-16189
年级	-16190
式各	-16191
强迫	-16192
得快	-16193
急急	-16194
摔倒	-16195
收了	-16196
敏捷	-16197
新区	-16198
有种	-16199
来过	-16200
次的	-16201
气来	-16202
法的	-16203
清华	-16204
滑稽	-16205
烦了	-16206
爵士	-16207
现状	-16208
瑞拉	-16209
生猪	-16210
盛顿	-16211
直奔	-16212
瞄准	-16213
绅士	-16214
而起	-16215
脏的	-16216
装修	-16217
谌龙	-16218
退市	-16219
送我	-16220
链接	-16221
阴虚	-16222
面孔	-16223
高等	-16224
魂师	-16225
黄莺	-16226
▁不断	-16227
▁京东	-16228
▁剩下	-16229
▁剪刀	-16230
▁好久	-16231
▁照样	-16232
丁点儿	-16233
企业家	-16234
关注到	-16235
吃完饭	-16236
她看见	-16237
小蟋蟀	-16238
影响了	-16239
影无踪	-16240
怎么走	-16241
才不会	-16242
救救我	-16243
星期五	-16244
朋友说	-16245
独行侠	-16246
的老人	-16247
研究所	-16248
表现出	-16249
要是能	-16250
足球场	-16251
这些话	-16252
里边的	-16253
需要的	-16254
魏大勋	-16255
鲁道夫	-16256
dian	-16257
▁如果说	-16258
你有看吗	-16259
因为没有	-16260
就找不到	-16261
很厉害啊	-16262
溜达溜达	-16263
的大眼睛	-16264
看的时候	-16265
说到这里	-16266
钻了出来	-16267
▁就在这时	-16268
▁截至目前	-16269
▁说的也是	-16270
发生了什么	-16271
大家都知道	-16272
还挺不错的	-16273
上涨百分之零点	-16274
最近有什么新闻啊	-16275
:「	-16276
mm	-16277
▁号	-16278
▁桶	-16279
▁节	-16280
▁软	-16281
一架	-16282
一洗	-16283
一米	-16284
丁香	-16285
三下	-16286
世民	-16287
乐器	-16288
了又	-16289
他好	-16290
以此	-16291
传闻	-16292
但又	-16293
你拿	-16294
去抓	-16295
后代	-16296
咯吱	-16297
喵呜	-16298
就当	-16299
干燥	-16300
情人	-16301
找回	-16302
机型	-16303
条例	-16304
林中	-16305
树皮	-16306
树荫	-16307
活得	-16308
球类	-16309
用脚	-16310
画上	-16311
的血	-16312
睡吧	-16313
短信	-16314
繁荣	-16315
织布	-16316
虎王	-16317
跺脚	-16318
身心	-16319
身穿	-16320
边跑	-16321
随从	-16322
鸟窝	-16323
bei	-16324
▁整体	-16325
▁是我	-16326
▁甜甜	-16327
一年的	-16328
下降了	-16329
不到了	-16330
不只是	-16331
东西都	-16332
为了让	-16333
到我们	-16334
只有在	-16335
和小熊	-16336
响起了	-16337
回来后	-16338
在手里	-16339
就看见	-16340
尽可能	-16341
居住在	-16342
崭新的	-16343
当我们	-16344
我特别	-16345
数不清	-16346
有多大	-16347
每年的	-16348
的两个	-16349
的看着	-16350
真奇怪	-16351
类似的	-16352
糊涂了	-16353
脚下的	-16354
足球队	-16355
还行吧	-16356
这家伙	-16357
那个叫	-16358
那几个	-16359
▁各位大	-16360
变得更加	-16361
哪儿去了	-16362
无忧无虑	-16363
有一点点	-16364
现在开始	-16365
百分之百	-16366
秋天到了	-16367
跑了过来	-16368
▁白雪公主	-16369
但是我还是	-16370
很大很大的	-16371
涨超百分之	-16372
这可怎么办呢	-16373
锻炼身体为主	-16374
▁梦	-16375
▁维	-16376
▁血	-16377
丢掉	-16378
之子	-16379
也给	-16380
伸到	-16381
八只	-16382
凶狠	-16383
出汗	-16384
化作	-16385
十多	-16386
哎哥	-16387
多美	-16388
大喜	-16389
天庭	-16390
头儿	-16391
套路	-16392
它从	-16393
官的	-16394
小虫	-16395
尖嘴	-16396
就象	-16397
带头	-16398
影院	-16399
总能	-16400
情报	-16401
惊人	-16402
我啦	-16403
把球	-16404
拳王	-16405
提倡	-16406
收取	-16407
改进	-16408
是和	-16409
毅力	-16410
毒蛇	-16411
民国	-16412
渔民	-16413
满怀	-16414
牙刷	-16415
琴声	-16416
甲壳	-16417
绣花	-16418
绿了	-16419
缺陷	-16420
背起	-16421
记着	-16422
迟早	-16423
选拔	-16424
酒窝	-16425
阿丽	-16426
麒麟	-16427
黑白	-16428
▁其次	-16429
▁加上	-16430
▁帮忙	-16431
▁最好	-16432
▁脖子	-16433
不要太	-16434
些日子	-16435
他一个	-16436
他老婆	-16437
你是个	-16438
信用卡	-16439
努力地	-16440
变色龙	-16441
吓人的	-16442
哪来的	-16443
小主人	-16444
小妖精	-16445
就够了	-16446
带领下	-16447
干嘛呢	-16448
我们还	-16449
我的心	-16450
提高了	-16451
是怎样	-16452
更好地	-16453
演的啊	-16454
爆米花	-16455
用自己	-16456
的主题	-16457
的面前	-16458
知道他	-16459
研究生	-16460
美美地	-16461
耳朵里	-16462
舒服的	-16463
那肯定	-16464
陌生的	-16465
▁也不能	-16466
▁喜羊羊	-16467
一会儿就	-16468
之前不是	-16469
在院子里	-16470
我们不能	-16471
有一个叫	-16472
每天早晨	-16473
翩翩起舞	-16474
许许多多	-16475
这样才能	-16476
▁你喜欢看	-16477
▁就比如说	-16478
一个大大的	-16479
什么游戏啊	-16480
大大小小的	-16481
**	-16482
▁郑	-16483
一拐	-16484
不等	-16485
两市	-16486
两手	-16487
也从	-16488
二哥	-16489
但在	-16490
但愿	-16491
位居	-16492
你打	-16493
公孙	-16494
创意	-16495
变态	-16496
可她	-16497
吃呢	-16498
后人	-16499
听歌	-16500
呀呀	-16501
咸阳	-16502
地步	-16503
多想	-16504
室里	-16505
对人	-16506
局的	-16507
得去	-16508
性子	-16509
拍手	-16510
挨饿	-16511
擦擦	-16512
教的	-16513
月经	-16514
果汁	-16515
标普	-16516
樱花	-16517
欧美	-16518
正面	-16519
气息	-16520
法术	-16521
深受	-16522
猛然	-16523
考古	-16524
联通	-16525
背心	-16526
视线	-16527
贪心	-16528
连个	-16529
途径	-16530
野果	-16531
长跑	-16532
骗了	-16533
zhi	-16534
▁不再	-16535
▁券商	-16536
▁学生	-16537
▁幸福	-16538
▁探头	-16539
一分钟	-16540
也在看	-16541
也许是	-16542
他一边	-16543
关系的	-16544
单纯的	-16545
四面八	-16546
基本面	-16547
外国的	-16548
怎么不	-16549
搞笑了	-16550
的球迷	-16551
看不清	-16552
结构性	-16553
老老实	-16554
转眼间	-16555
▁不可能	-16556
▁净利润	-16557
▁基本上	-16558
▁说说看	-16559
他的身体	-16560
无论如何	-16561
来了一只	-16562
民生周刊	-16563
的时候还	-16564
继续分享	-16565
趴在地上	-16566
这个节目	-16567
▁三月二十	-16568
▁爸爸妈妈	-16569
不知道怎么	-16570
原来是这样	-16571
我得先走了	-16572
最近的新闻	-16573
▁jiang	-16574
▁你在看什么	-16575
▁屋	-16576
▁格	-16577
▁温	-16578
三尺	-16579
世了	-16580
中毒	-16581
书中	-16582
二个	-16583
二次	-16584
住院	-16585
光头	-16586
入围	-16587
兵马	-16588
办的	-16589
去学	-16590
发夹	-16591
叼着	-16592
商议	-16593
在下	-16594
奇特	-16595
女仆	-16596
女娲	-16597
子韬	-16598
害人	-16599
导航	-16600
小块	-16601
布丁	-16602
庄园	-16603
异地	-16604
很累	-16605
快啊	-16606
我心	-16607
扣子	-16608
指南	-16609
杠杆	-16610
枣子	-16611
检察	-16612
民警	-16613
洛杉	-16614
漉漉	-16615
番话	-16616
的雨	-16617
盖茨	-16618
相见	-16619
科的	-16620
而行	-16621
膨胀	-16622
芳香	-16623
莱坞	-16624
袖子	-16625
读者	-16626
贺卡	-16627
越远	-16628
转动	-16629
转换	-16630
邮政	-16631
野外	-16632
金的	-16633
飞啊	-16634
首富	-16635
首都	-16636
骑在	-16637
5]。	-16638
▁孔雀	-16639
▁生日	-16640
▁让人	-16641
一步步	-16642
不会吧	-16643
举行了	-16644
也只是	-16645
了进来	-16646
他一直	-16647
前不久	-16648
和你们	-16649
和大家	-16650
对别人	-16651
将继续	-16652
小喜鹊	-16653
打起了	-16654
投资的	-16655
敲门声	-16656
概念股	-16657
比赛呢	-16658
灰姑娘	-16659
然后用	-16660
的小猴	-16661
的小说	-16662
的感情	-16663
的时刻	-16664
的相关	-16665
看的是	-16666
社会王	-16667
艺术家	-16668
过一次	-16669
都是用	-16670
顾不上	-16671
bian	-16672
▁前几天	-16673
▁十二月	-16674
▁我经常	-16675
不太清楚	-16676
可真多呀	-16677
回家的路	-16678
感觉就是	-16679
挺好的啊	-16680
是一个很	-16681
看了一下	-16682
踢足球吗	-16683
那么多人	-16684
""。""	-16685
▁jing	-16686
▁为什么呢	-16687
你怎么知道	-16688
▁O	-16689
▁母	-16690
▁赶	-16691
▁达	-16692
不作	-16693
丹麦	-16694
代理	-16695
余生	-16696
你和	-16697
再会	-16698
几位	-16699
几千	-16700
别再	-16701
卫冕	-16702
同胞	-16703
向它	-16704
吓的	-16705
哪能	-16706
在后	-16707
基站	-16708
夜空	-16709
姿态	-16710
尚书	-16711
巨响	-16712
店主	-16713
录取	-16714
得的	-16715
总部	-16716
恶作	-16717
我玩	-16718
扶持	-16719
改天	-16720
暗自	-16721
曾在	-16722
步行	-16723
氧气	-16724
汉子	-16725
特长	-16726
签名	-16727
糯米	-16728
蚩尤	-16729
说有	-16730
这让	-16731
选中	-16732
通胀	-16733
遗传	-16734
阻挡	-16735
难啊	-16736
鞭子	-16737
驱动	-16738
骏马	-16739
高处	-16740
高贵	-16741
鱼竿	-16742
▁与其	-16743
▁促进	-16744
▁圣诞	-16745
▁就要	-16746
▁快快	-16747
▁无聊	-16748
▁树干	-16749
▁跟着	-16750
不好吗	-16751
不好啊	-16752
了一年	-16753
他也不	-16754
他突然	-16755
偷走了	-16756
在旁边	-16757
如果有	-16758
对你的	-16759
工程师	-16760
我们能	-16761
旗下的	-16762
有一群	-16763
浏览器	-16764
演的是	-16765
甚至连	-16766
的人民	-16767
的脸上	-16768
的青蛙	-16769
看完了	-16770
该如何	-16771
这个了	-16772
连忙说	-16773
那里面	-16774
阳台上	-16775
1000	-16776
好像没有	-16777
好自己的	-16778
我的偶像	-16779
而且还有	-16780
自己身上	-16781
▁这些都是	-16782
回来的时候	-16783
百分之六点	-16784
跌百分之零点	-16785
▁拎	-16786
东汉	-16787
乐于	-16788
了小	-16789
争执	-16790
产能	-16791
他正	-16792
但却	-16793
光是	-16794
入手	-16795
切尔	-16796
又累	-16797
同步	-16798
听他	-16799
喝点	-16800
大侠	-16801
天宫	-16802
字的	-16803
庄子	-16804
开头	-16805
开局	-16806
弯曲	-16807
房顶	-16808
抓着	-16809
拔掉	-16810
排着	-16811
摩擦	-16812
柔和	-16813
火苗	-16814
盖子	-16815
稀里	-16816
紧了	-16817
约合	-16818
脚地	-16819
讨好	-16820
许昕	-16821
豆瓣	-16822
贪吃	-16823
锄头	-16824
隐患	-16825
隐约	-16826
鸟巢	-16827
,20	-16828
---	-16829
nba	-16830
▁刚好	-16831
▁国足	-16832
▁擦擦	-16833
▁浴缸	-16834
▁等等	-16835
▁辣椒	-16836
一共有	-16837
一天的	-16838
一条鱼	-16839
不听话	-16840
他认为	-16841
便宜的	-16842
呼噜声	-16843
地一声	-16844
失望的	-16845
她不是	-16846
岁那年	-16847
得救了	-16848
快乐乐	-16849
我也很	-16850
我可能	-16851
我忘了	-16852
我终于	-16853
投资人	-16854
抢走了	-16855
新闻了	-16856
欢快地	-16857
沉重的	-16858
清楚楚	-16859
皇帝的	-16860
看到你	-16861
笑呵呵	-16862
蓝蓝的	-16863
该死的	-16864
请大家	-16865
迎来了	-16866
这下可	-16867
邻居们	-16868
郭先生	-16869
yuan	-16870
▁yue	-16871
▁水龙头	-16872
一部电影	-16873
不一样了	-16874
两个小时	-16875
到自己的	-16876
我们没有	-16877
睁大眼睛	-16878
竞争对手	-16879
肯定不会	-16880
都是因为	-16881
▁你也喜欢看	-16882
▁你也在看这篇新闻啊	-16883
▁旁	-16884
▁蜜	-16885
与其	-16886
丝丝	-16887
丽丽	-16888
亲亲	-16889
体制	-16890
修建	-16891
写在	-16892
出处	-16893
发型	-16894
变大	-16895
召唤	-16896
后退	-16897
咋了	-16898
哪种	-16899
唠叨	-16900
大国	-16901
大楼	-16902
大禹	-16903
小幅	-16904
就都	-16905
开通	-16906
强国	-16907
成千	-16908
松松	-16909
死不	-16910
百兽	-16911
看那	-16912
示弱	-16913
药业	-16914
西边	-16915
要开	-16916
要的	-16917
追捕	-16918
食疗	-16919
麦粒	-16920
▁三只	-16921
▁短期	-16922
不小的	-16923
亿港元	-16924
出水面	-16925
分不清	-16926
刷微博	-16927
各自的	-16928
呼噜猪	-16929
和小猪	-16930
在地里	-16931
子公司	-16932
很可爱	-16933
我看的	-16934
我说的	-16935
最美的	-16936
洛杉矶	-16937
激动地	-16938
生活了	-16939
的头发	-16940
的政策	-16941
的现象	-16942
短视频	-16943
禁不住	-16944
纳瓦罗	-16945
自个儿	-16946
都特别	-16947
镜子里	-16948
▁一方面	-16949
▁他现在	-16950
▁因为它	-16951
一只狐狸	-16952
他自己的	-16953
在阳光下	-16954
塞尔维亚	-16955
成语故事	-16956
我们自己	-16957
清清楚楚	-16958
销售价格	-16959
先走了拜拜	-16960
还挺好看的	-16961
闭上了眼睛	-16962
▁欢迎打开今晚的民生周刊	-16963
33	-16964
fu	-16965
án	-16966
▁春	-16967
▁汪	-16968
▁省	-16969
▁矮	-16970
▁辣	-16971
▁陆	-16972
三三	-16973
借着	-16974
其余	-16975
凡是	-16976
别哭	-16977
到尾	-16978
功臣	-16979
化解	-16980
匹配	-16981
向下	-16982
吵了	-16983
告诫	-16984
周瑜	-16985
哭的	-16986
夜莺	-16987
大块	-16988
姓名	-16989
宽敞	-16990
小毛	-16991
小金	-16992
布斯	-16993
弥漫	-16994
弹琴	-16995
心生	-16996
战的	-16997
手续	-16998
抢劫	-16999
担保	-17000
指示	-17001
无处	-17002
服气	-17003
柜里	-17004
洗了	-17005
清新	-17006
爱人	-17007
率先	-17008
盲人	-17009
真多	-17010
瞎子	-17011
研制	-17012
端的	-17013
绕过	-17014
而上	-17015
莹莹	-17016
装作	-17017
要让	-17018
警官	-17019
订阅	-17020
输的	-17021
送上	-17022
避雨	-17023
那好	-17024
邮件	-17025
鬼脸	-17026
黄花	-17027
▁te	-17028
▁不去	-17029
▁他对	-17030
▁贴纸	-17031
▁鼓励	-17032
不是你	-17033
不是吗	-17034
严格的	-17035
举办的	-17036
也会有	-17037
了解吗	-17038
像以前	-17039
冲冲地	-17040
几年的	-17041
大西瓜	-17042
头顶上	-17043
媳妇儿	-17044
小棕熊	-17045
得很好	-17046
把孩子	-17047
放心了	-17048
是谁呢	-17049
最起码	-17050
游过来	-17051
王子的	-17052
睡觉的	-17053
站出来	-17054
这样呢	-17055
遇到过	-17056
长期的	-17057
▁该公司	-17058
▁轻轻地	-17059
完全可以	-17060
完全没有	-17061
对我来说	-17062
想起来了	-17063
是最好的	-17064
还有好多	-17065
这个项目	-17066
▁feng	-17067
▁很多时候	-17068
我可以坐在这里吗	-17069
▁富	-17070
▁梁	-17071
▁配	-17072
三五	-17073
不干	-17074
丝绸	-17075
人之	-17076
伶俐	-17077
你啦	-17078
出事	-17079
到期	-17080
劝说	-17081
吃喝	-17082
吸取	-17083
告知	-17084
咔咔	-17085
埋伏	-17086
家有	-17087
察觉	-17088
射击	-17089
废话	-17090
录音	-17091
我等	-17092
救助	-17093
教会	-17094
明了	-17095
模拟	-17096
气啊	-17097
活该	-17098
游着	-17099
烘烘	-17100
片啊	-17101
猎豹	-17102
等级	-17103
缝隙	-17104
要买	-17105
调研	-17106
跑呀	-17107
跳啊	-17108
这小	-17109
那段	-17110
量子	-17111
问候	-17112
隐藏	-17113
高楼	-17114
麦苗	-17115
zai	-17116
▁事儿	-17117
▁婆婆	-17118
▁蚊子	-17119
一点六	-17120
了他们	-17121
他们能	-17122
他可能	-17123
作用的	-17124
做了一	-17125
冠军了	-17126
决定了	-17127
圆滚滚	-17128
在你的	-17129
基本的	-17130
好喜欢	-17131
帮我们	-17132
快到了	-17133
恶作剧	-17134
我的手	-17135
我都没	-17136
找不着	-17137
明亮的	-17138
杀死了	-17139
的秘密	-17140
盖房子	-17141
穿着一	-17142
老乌龟	-17143
背后的	-17144
花母鸡	-17145
▁没问题	-17146
一百六十	-17147
三十一日	-17148
不怎么样	-17149
人民法院	-17150
他们来到	-17151
他的表现	-17152
你怎么啦	-17153
和我一样	-17154
意想不到	-17155
的大灰狼	-17156
这个公司	-17157
这样想着	-17158
都是一个	-17159
野生动物	-17160
谁也不知道	-17161
▁建	-17162
▁横	-17163
▁猴	-17164
上空	-17165
丢脸	-17166
主管	-17167
他可	-17168
伪装	-17169
借助	-17170
儿歌	-17171
冰块	-17172
出众	-17173
别想	-17174
助力	-17175
古人	-17176
只在	-17177
台下	-17178
塌了	-17179
备案	-17180
好远	-17181
州的	-17182
巡视	-17183
干部	-17184
开出	-17185
总量	-17186
护理	-17187
无情	-17188
早期	-17189
旺旺	-17190
末年	-17191
死神	-17192
流淌	-17193
灵敏	-17194
祈求	-17195
繁华	-17196
翻盘	-17197
胞胎	-17198
苦了	-17199
草叶	-17200
要找	-17201
跳动	-17202
轮椅	-17203
郑国	-17204
长处	-17205
驸马	-17206
▁为啥	-17207
▁农业	-17208
▁常常	-17209
▁彩虹	-17210
▁我先	-17211
▁我很	-17212
▁推动	-17213
▁模样	-17214
▁送给	-17215
一本书	-17216
三月份	-17217
东西啊	-17218
个朋友	-17219
从里面	-17220
北极熊	-17221
半空中	-17222
嘟嘟熊	-17223
塑料袋	-17224
它没有	-17225
小河里	-17226
布谷鸟	-17227
很聪明	-17228
悄悄话	-17229
把那些	-17230
早不如	-17231
是这么	-17232
有多么	-17233
湿漉漉	-17234
特别有	-17235
看过了	-17236
经常在	-17237
见不到	-17238
那你们	-17239
▁所以呀	-17240
▁跆拳道	-17241
▁这倒是	-17242
亮晶晶的	-17243
反应过来	-17244
我先走啦	-17245
更多的是	-17246
有个好梦	-17247
的缘故吧	-17248
肚子饿了	-17249
营业收入	-17250
觉得有点	-17251
走了出来	-17252
76	-17253
os	-17254
▁唷	-17255
▁夏	-17256
▁烂	-17257
不接	-17258
两国	-17259
两根	-17260
九天	-17261
也比	-17262
了对	-17263
亲生	-17264
兔说	-17265
再三	-17266
凉爽	-17267
即便	-17268
地址	-17269
大睡	-17270
头部	-17271
奇葩	-17272
岁数	-17273
平民	-17274
性情	-17275
恐慌	-17276
户外	-17277
房产	-17278
操心	-17279
施工	-17280
有不	-17281
杂货	-17282
树苗	-17283
楼市	-17284
河中	-17285
甜瓜	-17286
的狼	-17287
真爱	-17288
眨巴	-17289
瞪着	-17290
硬盘	-17291
私下	-17292
罗罗	-17293
而死	-17294
脏了	-17295
自尊	-17296
苦难	-17297
讲过	-17298
赞成	-17299
跑回	-17300
身价	-17301
转来	-17302
这都	-17303
选了	-17304
酒吧	-17305
钱财	-17306
▁ho	-17307
▁体育	-17308
▁变形	-17309
▁杭州	-17310
▁橘子	-17311
▁洗手	-17312
▁跃进	-17313
▁达到	-17314
不都是	-17315
也不知	-17316
二十七	-17317
以后呢	-17318
刚说完	-17319
咯咯哒	-17320
天上去	-17321
好像要	-17322
家族的	-17323
小弟弟	-17324
开始的	-17325
散发着	-17326
最快的	-17327
条件的	-17328
洗个澡	-17329
直接就	-17330
看一些	-17331
看这种	-17332
站起身	-17333
等方面	-17334
老虎说	-17335
耐心地	-17336
起床了	-17337
还是被	-17338
这两天	-17339
里去了	-17340
长出来	-17341
鸡宝宝	-17342
人真多啊	-17343
其他国家	-17344
发布公告	-17345
的时候我	-17346
议论纷纷	-17347
这是一只	-17348
liang	-17349
▁我车来了	-17350
▁没事没事	-17351
时间不早了	-17352
▁如果你喜欢	-17353
▁刺	-17354
▁曹	-17355
▁编	-17356
两点	-17357
临死	-17358
便说	-17359
信半	-17360
信贷	-17361
元宝	-17362
入睡	-17363
全班	-17364
农历	-17365
别处	-17366
刮风	-17367
力克	-17368
加重	-17369
又用	-17370
同道	-17371
品的	-17372
四强	-17373
回收	-17374
她从	-17375
小强	-17376
弯下	-17377
忙说	-17378
找着	-17379
把一	-17380
披着	-17381
推着	-17382
是嘛	-17383
最小	-17384
有力	-17385
欣慰	-17386
沉重	-17387
海的	-17388
满天	-17389
火啊	-17390
火腿	-17391
照得	-17392
爬去	-17393
生肖	-17394
画笔	-17395
的猫	-17396
看守	-17397
睁睁	-17398
空空	-17399
绘画	-17400
考拉	-17401
联邦	-17402
衡阳	-17403
装在	-17404
要我	-17405
认同	-17406
谈到	-17407
身亡	-17408
过往	-17409
进宫	-17410
金牛	-17411
队和	-17412
领头	-17413
飞出	-17414
香了	-17415
骡子	-17416
▁公开	-17417
▁小鱼	-17418
▁幸好	-17419
▁本周	-17420
▁生命	-17421
▁睡吧	-17422
不行的	-17423
之前还	-17424
也一样	-17425
什么叫	-17426
供应链	-17427
信半疑	-17428
全新的	-17429
去学习	-17430
发言人	-17431
只要能	-17432
图画书	-17433
地盯着	-17434
学校里	-17435
就住在	-17436
带回来	-17437
广场上	-17438
意义的	-17439
我这里	-17440
打不过	-17441
技术的	-17442
是一块	-17443
有利于	-17444
根本不	-17445
森林中	-17446
深深的	-17447
熟悉的	-17448
父亲说	-17449
的人也	-17450
的小河	-17451
的表情	-17452
直升机	-17453
着一根	-17454
竞争力	-17455
管理局	-17456
老鼠们	-17457
觉得这	-17458
试试吧	-17459
负责任	-17460
音乐家	-17461
预选赛	-17462
饰演的	-17463
▁下一刻	-17464
▁冰淇淋	-17465
人民医院	-17466
北向资金	-17467
实体经济	-17468
站了起来	-17469
转了一圈	-17470
这个角色	-17471
闭着眼睛	-17472
▁当地时间	-17473
▁那你喜欢	-17474
打的不错啊	-17475
根本就没有	-17476
百分之七点	-17477
这样的事情	-17478
23	-17479
▁易	-17480
下凡	-17481
世的	-17482
东边	-17483
中原	-17484
之神	-17485
九八	-17486
他打	-17487
会是	-17488
做起	-17489
充实	-17490
光临	-17491
几声	-17492
助理	-17493
千金	-17494
又蹦	-17495
双脚	-17496
号的	-17497
嘉宾	-17498
园长	-17499
圣旨	-17500
大红	-17501
天花	-17502
好评	-17503
就一	-17504
开场	-17505
心头	-17506
忽视	-17507
扁担	-17508
改成	-17509
新剧	-17510
旅馆	-17511
时空	-17512
昏迷	-17513
是为	-17514
晋国	-17515
木棍	-17516
杨树	-17517
班级	-17518
球呢	-17519
电了	-17520
短了	-17521
羊毛	-17522
脱离	-17523
脸蛋	-17524
腿上	-17525
虚假	-17526
许愿	-17527
论坛	-17528
起初	-17529
过节	-17530
还未	-17531
连冠	-17532
逃命	-17533
闻名	-17534
首批	-17535
4]。	-17536
yan	-17537
▁人类	-17538
▁原因	-17539
▁我刚	-17540
▁枕头	-17541
七十五	-17542
上厕所	-17543
不满意	-17544
了回来	-17545
你必须	-17546
几年了	-17547
反正是	-17548
可以做	-17549
在天空	-17550
大城市	-17551
她老公	-17552
小故事	-17553
我就来	-17554
攀登者	-17555
时期的	-17556
有一段	-17557
有不少	-17558
的事了	-17559
的对象	-17560
的气味	-17561
的父母	-17562
的狮子	-17563
的运动	-17564
看我的	-17565
空地上	-17566
聊一聊	-17567
要学会	-17568
训练了	-17569
跑来了	-17570
那么的	-17571
难道是	-17572
黑蚂蚁	-17573
oppo	-17574
▁gua	-17575
▁十一月	-17576
▁那不是	-17577
从前有个	-17578
你们这些	-17579
关注足球	-17580
在哪里呢	-17581
小老鼠说	-17582
很不高兴	-17583
我也不太	-17584
▁为什么啊	-17585
▁什么时候	-17586
▁因为他们	-17587
▁好的好的	-17588
今天食堂人	-17589
幸福的生活	-17590
现实生活中	-17591
的那种感觉	-17592
终于有一天	-17593
先不和你说啦	-17594
以锻炼身体为主	-17595
▁伐	-17596
▁博	-17597
▁均	-17598
▁差	-17599
▁赢	-17600
不妙	-17601
不快	-17602
不懈	-17603
中途	-17604
亲吻	-17605
他走	-17606
会去	-17607
传单	-17608
债权	-17609
偏僻	-17610
克尔	-17611
刹那	-17612
劳累	-17613
势头	-17614
取胜	-17615
只看	-17616
可比	-17617
吃上	-17618
含义	-17619
吴国	-17620
嘎吱	-17621
嘟囔	-17622
四方	-17623
大于	-17624
大娘	-17625
大步	-17626
大跌	-17627
夹着	-17628
尘土	-17629
居家	-17630
山猫	-17631
山腰	-17632
引入	-17633
抚摸	-17634
撒娇	-17635
斑鸠	-17636
来救	-17637
灵感	-17638
煎饼	-17639
爆出	-17640
申购	-17641
续航	-17642
绿绿	-17643
英台	-17644
进出	-17645
那把	-17646
里克	-17647
铃声	-17648
阿拉	-17649
除掉	-17650
青睐	-17651
鳓鱼	-17652
▁外婆	-17653
▁跳水	-17654
▁问问	-17655
不用谢	-17656
二十年	-17657
从床上	-17658
他爸爸	-17659
会影响	-17660
伤心了	-17661
伸出手	-17662
你一般	-17663
你以为	-17664
先生和	-17665
出去找	-17666
历史的	-17667
够不着	-17668
她自己	-17669
好奇心	-17670
安静静	-17671
家的门	-17672
小妖怪	-17673
很了解	-17674
很危险	-17675
很适合	-17676
悠悠地	-17677
懒羊羊	-17678
手机吗	-17679
接一个	-17680
李世民	-17681
欢迎你	-17682
猴子说	-17683
用爪子	-17684
的准备	-17685
的支持	-17686
还有事	-17687
都不错	-17688
都有了	-17689
▁den	-17690
▁zha	-17691
▁今天呀	-17692
▁他认为	-17693
▁像不像	-17694
一只青蛙	-17695
你一个人	-17696
再也不能	-17697
名字叫做	-17698
来了一位	-17699
的小孩子	-17700
▁怎么可能	-17701
一个小男孩	-17702
二零二一年	-17703
▁来领着孩子	-17704
三百六十五天	-17705
▁万得在您身边	-17706
27	-17707
▁落	-17708
▁郭	-17709
丹顶	-17710
主流	-17711
付费	-17712
低迷	-17713
侦察	-17714
信了	-17715
儿说	-17716
共计	-17717
前边	-17718
十里	-17719
升高	-17720
又细	-17721
吝啬	-17722
听吧	-17723
呼啦	-17724
唐代	-17725
唯独	-17726
在追	-17727
大发	-17728
寂静	-17729
寻常	-17730
很穷	-17731
怕了	-17732
慢性	-17733
成品	-17734
推销	-17735
斑斓	-17736
杂草	-17737
杜江	-17738
检验	-17739
武艺	-17740
海蜇	-17741
痛了	-17742
盼着	-17743
瞧着	-17744
老伴	-17745
节省	-17746
节约	-17747
解渴	-17748
赏赐	-17749
这还	-17750
远近	-17751
远门	-17752
那双	-17753
那根	-17754
郁闷	-17755
面目	-17756
顺风	-17757
首发	-17758
▁听到	-17759
▁小明	-17760
▁日子	-17761
▁饭饭	-17762
▁鼹鼠	-17763
一只只	-17764
下面的	-17765
了一层	-17766
停住了	-17767
冠军的	-17768
冬天的	-17769
取消了	-17770
可以看	-17771
地一下	-17772
增长了	-17773
大肚子	-17774
就算了	-17775
带到了	-17776
很少有	-17777
微企业	-17778
成熟的	-17779
我身上	-17780
我还想	-17781
昨天的	-17782
是谁在	-17783
永远是	-17784
爬上去	-17785
的牙齿	-17786
美国人	-17787
能力的	-17788
跟他说	-17789
身份证	-17790
过马路	-17791
那一场	-17792
都应该	-17793
颗星星	-17794
▁肯定是	-17795
二月二十	-17796
但是我们	-17797
你看过吗	-17798
先下车了	-17799
半信半疑	-17800
去看一看	-17801
商业银行	-17802
我们就是	-17803
放松一下	-17804
整整齐齐	-17805
的新闻啊	-17806
发现自己的	-17807
我觉得他们	-17808
我超级喜欢	-17809
ca	-17810
pi	-17811
▁咕	-17812
▁紧	-17813
▁贝	-17814
一尝	-17815
一玩	-17816
也叫	-17817
二郎	-17818
享用	-17819
亲近	-17820
他最	-17821
付款	-17822
勤快	-17823
取下	-17824
司法	-17825
响亮	-17826
啧啧	-17827
器官	-17828
大猫	-17829
审理	-17830
尊严	-17831
山楂	-17832
强行	-17833
怕是	-17834
总局	-17835
我猜	-17836
扭扭	-17837
技艺	-17838
时节	-17839
来个	-17840
来人	-17841
来往	-17842
棒子	-17843
死于	-17844
水花	-17845
淋漓	-17846
漆黑	-17847
火山	-17848
特曼	-17849
生理	-17850
睡醒	-17851
笼罩	-17852
等多	-17853
米尔	-17854
网速	-17855
老翁	-17856
而降	-17857
脱发	-17858
西施	-17859
追星	-17860
逃到	-17861
逍遥	-17862
闪耀	-17863
靠在	-17864
鲁迅	-17865
dan	-17866
▁关注	-17867
▁城市	-17868
▁如此	-17869
▁新增	-17870
▁熊猫	-17871
▁着急	-17872
▁见面	-17873
▁骨头	-17874
三点五	-17875
不能让	-17876
不说话	-17877
也没用	-17878
事实上	-17879
他非常	-17880
但他们	-17881
再也没	-17882
啊什么	-17883
喜欢上	-17884
因为在	-17885
大力士	-17886
女人的	-17887
好了吗	-17888
小鸟说	-17889
帮助他	-17890
帮妈妈	-17891
床底下	-17892
张开了	-17893
惊动了	-17894
感人的	-17895
扔进了	-17896
找了个	-17897
王一博	-17898
用不着	-17899
的市场	-17900
看这些	-17901
知道后	-17902
给人家	-17903
赶来了	-17904
辛苦的	-17905
还表示	-17906
这样想	-17907
这辈子	-17908
进出口	-17909
靠自己	-17910
▁nen	-17911
▁因为你	-17912
▁国务院	-17913
▁挺好的	-17914
▁擦一擦	-17915
▁森林里	-17916
▁证监会	-17917
一百八十	-17918
下定决心	-17919
不知道你	-17920
他一个人	-17921
关注的是	-17922
小兔子说	-17923
的一句话	-17924
自己想要	-17925
跟你说了	-17926
▁各种各样	-17927
▁我不喜欢	-17928
成了好朋友	-17929
▁你平时喜欢	-17930
你最近有没有	-17931
--------	-17932
▁净	-17933
▁康	-17934
。《	-17935
不适	-17936
书的	-17937
乱扔	-17938
事事	-17939
体谅	-17940
倒影	-17941
值钱	-17942
公狼	-17943
口哨	-17944
古力	-17945
只管	-17946
回暖	-17947
大呀	-17948
天王	-17949
容貌	-17950
就比	-17951
山雀	-17952
师范	-17953
救人	-17954
晕了	-17955
暴跌	-17956
港股	-17957
灰心	-17958
狂欢	-17959
的要	-17960
积电	-17961
纽扣	-17962
继母	-17963
而易	-17964
胸口	-17965
脚趾	-17966
薪酬	-17967
贴着	-17968
起步	-17969
蹄子	-17970
那不	-17971
问答	-17972
队在	-17973
降准	-17974
雪球	-17975
饭了	-17976
高层	-17977
jiu	-17978
▁南京	-17979
▁就连	-17980
▁显示	-17981
▁选择	-17982
▁香波	-17983
一只手	-17984
了一头	-17985
他走到	-17986
偷东西	-17987
公鸡说	-17988
分别为	-17989
地面上	-17990
大蘑菇	-17991
奶奶的	-17992
姑娘们	-17993
它不是	-17994
常见的	-17995
支球队	-17996
有一张	-17997
极大的	-17998
欢快的	-17999
爬出来	-18000
王国里	-18001
现实中	-18002
的哭声	-18003
的安全	-18004
的眼神	-18005
的经济	-18006
管理层	-18007
老黄牛	-18008
自己想	-18009
袋子里	-18010
路公交	-18011
过上了	-18012
过得很	-18013
那么久	-18014
▁想想看	-18015
不高兴了	-18016
你先走吧	-18017
再也不用	-18018
史蒂芬森	-18019
和小白兔	-18020
已经成为	-18021
年轻人的	-18022
我还记得	-18023
所有的人	-18024
然后还有	-18025
看见一个	-18026
美丽的花	-18027
非常漂亮	-18028
▁北向资金	-18029
▁那当然了	-18030
军人运动会	-18031
感觉还不错	-18032
我就不知道了	-18033
▁挑	-18034
▁步	-18035
▁田	-18036
一问	-18037
个性	-18038
以便	-18039
倾向	-18040
冲出	-18041
冲到	-18042
到时	-18043
华丽	-18044
卫士	-18045
反响	-18046
发文	-18047
号称	-18048
坐上	-18049
坦克	-18050
大胜	-18051
奇异	-18052
定义	-18053
审查	-18054
家去	-18055
度假	-18056
快把	-18057
念叨	-18058
怀着	-18059
怕他	-18060
播了	-18061
无名	-18062
榜单	-18063
正直	-18064
漫威	-18065
灵巧	-18066
牛皮	-18067
白猫	-18068
神来	-18069
种地	-18070
积雪	-18071
税务	-18072
等它	-18073
管控	-18074
精通	-18075
纸船	-18076
缓慢	-18077
缴纳	-18078
考的	-18079
聚焦	-18080
臣民	-18081
蚱蜢	-18082
装了	-18083
西医	-18084
诅咒	-18085
贪玩	-18086
赛赛	-18087
赞赏	-18088
越快	-18089
转债	-18090
较量	-18091
辆车	-18092
鱼虾	-18093
▁决心	-18094
▁它会	-18095
▁苍蝇	-18096
丹顶鹤	-18097
也知道	-18098
取决于	-18099
各式各	-18100
大街上	-18101
大鲨鱼	-18102
太少了	-18103
奇怪了	-18104
好可爱	-18105
如果能	-18106
希望的	-18107
年轻时	-18108
开心啊	-18109
我家的	-18110
我突然	-18111
才会有	-18112
拿走了	-18113
捉老鼠	-18114
时不时	-18115
有兴趣	-18116
村里的	-18117
来了个	-18118
火红的	-18119
现场的	-18120
背景下	-18121
财政部	-18122
马上要	-18123
▁我给你	-18124
▁洗手间	-18125
▁这也太	-18126
▁这都是	-18127
一百七十	-18128
不了多久	-18129
中国队的	-18130
但是他的	-18131
可不是吗	-18132
接受采访	-18133
最漂亮的	-18134
的小白兔	-18135
睡不着觉	-18136
笑死我了	-18137
越来越少	-18138
这样觉得	-18139
这种行为	-18140
那是一个	-18141
▁中信证券	-18142
▁你一个人	-18143
▁四月二十	-18144
▁然后还有	-18145
咱们中国的	-18146
的新闻了吗	-18147
越来越多了	-18148
▁你看最近的	-18149
▁南都记者从	-18150
Windows	-18151
一字	-18152
一息	-18153
买来	-18154
交谈	-18155
住宿	-18156
何不	-18157
保守	-18158
僧人	-18159
全省	-18160
出息	-18161
分给	-18162
压抑	-18163
又快	-18164
取笑	-18165
叶片	-18166
司职	-18167
吆喝	-18168
向外	-18169
听从	-18170
地响	-18171
大便	-18172
大壮	-18173
奔波	-18174
奖品	-18175
奖牌	-18176
妆台	-18177
安乐	-18178
实用	-18179
巴拉	-18180
平和	-18181
弄到	-18182
弄的	-18183
往来	-18184
忧愁	-18185
快走	-18186
想在	-18187
所欲	-18188
打在	-18189
打针	-18190
抑制	-18191
掀起	-18192
搞的	-18193
放牛	-18194
无边	-18195
朝鲜	-18196
桓公	-18197
棉袄	-18198
歌词	-18199
油菜	-18200
狼说	-18201
生不	-18202
看家	-18203
秋季	-18204
绯闻	-18205
考上	-18206
脆弱	-18207
英镑	-18208
衰退	-18209
西藏	-18210
起点	-18211
跃亭	-18212
雪山	-18213
黎明	-18214
▁ga	-18215
▁卫生	-18216
▁毛毛	-18217
▁风筝	-18218
上映的	-18219
不得已	-18220
争先恐	-18221
你跟我	-18222
兔子说	-18223
全国的	-18224
共和国	-18225
到河边	-18226
印象最	-18227
去旅行	-18228
句话说	-18229
叶子上	-18230
合理的	-18231
后来就	-18232
哭着说	-18233
好厉害	-18234
好自己	-18235
妈妈对	-18236
家门前	-18237
小红帽	-18238
就看到	-18239
建立了	-18240
当成了	-18241
怎么着	-18242
我们先	-18243
我都想	-18244
扑上去	-18245
找一找	-18246
无意中	-18247
明年的	-18248
熊爷爷	-18249
的老师	-18250
真好听	-18251
真好玩	-18252
稳定的	-18253
篇报道	-18254
红彤彤	-18255
红苹果	-18256
而来的	-18257
认识了	-18258
这是在	-18259
▁Pro	-18260
▁他不是	-18261
▁你应该	-18262
一个地方	-18263
一个朋友	-18264
个人信息	-18265
也很厉害	-18266
在一起的	-18267
并不知道	-18268
时间长了	-18269
有什么好	-18270
有空再聊	-18271
没有一点	-18272
没有找到	-18273
知乎文章	-18274
还挺喜欢	-18275
这个专业	-18276
靠自己的	-18277
▁这么厉害	-18278
▁阿里巴巴	-18279
什么都没有	-18280
所有的人都	-18281
没有一个人	-18282
笑眯眯地说	-18283
都是这样的	-18284
▁cheng	-18285
▁这一课就这些	-18286
▁商	-18287
▁群	-18288
▁钓	-18289
▁领	-18290
不哭	-18291
东张	-18292
买过	-18293
二楼	-18294
你最	-18295
停留	-18296
催促	-18297
光亮	-18298
卵石	-18299
压制	-18300
又没	-18301
合唱	-18302
吉他	-18303
呵护	-18304
唉声	-18305
嗨哟	-18306
埋头	-18307
家境	-18308
小将	-18309
局部	-18310
带她	-18311
待人	-18312
总共	-18313
我更	-18314
抵达	-18315
拍卖	-18316
探测	-18317
收窄	-18318
斗罗	-18319
有利	-18320
梨子	-18321
每只	-18322
波罗	-18323
流血	-18324
海中	-18325
游啊	-18326
灾害	-18327
狒狒	-18328
现有	-18329
的铁	-18330
盘中	-18331
相依	-18332
稻田	-18333
纵身	-18334
脑门	-18335
航海	-18336
若是	-18337
落的	-18338
诚意	-18339
诡计	-18340
轨道	-18341
通行	-18342
通通	-18343
闻闻	-18344
零六	-18345
音符	-18346
顿饭	-18347
饲养	-18348
高傲	-18349
鳞片	-18350
lin	-18351
zuo	-18352
▁山东	-18353
▁得到	-18354
▁行吧	-18355
▁这款	-18356
不知所	-18357
二十多	-18358
人喜欢	-18359
他不会	-18360
他只是	-18361
会变成	-18362
全部都	-18363
再见哦	-18364
冬奥会	-18365
凯尔特	-18366
华盛顿	-18367
吓跑了	-18368
在山上	-18369
好像还	-18370
妈妈就	-18371
实力派	-18372
尾巴上	-18373
屋檐下	-18374
敌人的	-18375
散发出	-18376
春姑娘	-18377
期待了	-18378
此之外	-18379
活下去	-18380
灰溜溜	-18381
球迷们	-18382
疫情的	-18383
的存在	-18384
的水果	-18385
的病人	-18386
真的要	-18387
组成的	-18388
网上的	-18389
肚子饿	-18390
肥嘟嘟	-18391
通过了	-18392
雪地上	-18393
▁我们家	-18394
一千三百	-18395
一闪一闪	-18396
五百指数	-18397
山羊伯伯	-18398
怎么办啊	-18399
有那么多	-18400
的小松鼠	-18401
眼前一亮	-18402
一边走一边	-18403
我不太了解	-18404
有没有什么	-18405
百分之十五	-18406
这个电影的	-18407
▁过了一会儿	-18408
AR	-18409
ty	-18410
ǎn	-18411
▁扁	-18412
了点	-18413
交了	-18414
华山	-18415
危急	-18416
吉利	-18417
咋地	-18418
咧咧	-18419
地朝	-18420
声中	-18421
太守	-18422
寒风	-18423
对决	-18424
就差	-18425
山大	-18426
当劳	-18427
彬彬	-18428
很很	-18429
想必	-18430
我俩	-18431
抢到	-18432
提问	-18433
收缩	-18434
放出	-18435
机了	-18436
杰米	-18437
枯燥	-18438
欺凌	-18439
气味	-18440
漫长	-18441
潮流	-18442
炉子	-18443
百亿	-18444
穿梭	-18445
素的	-18446
自闭	-18447
虚荣	-18448
衙役	-18449
要紧	-18450
跟谁	-18451
路旁	-18452
这般	-18453
邓伦	-18454
长发	-18455
阔的	-18456
零七	-18457
零后	-18458
青虫	-18459
飞进	-18460
高一	-18461
▁上课	-18462
▁东方	-18463
▁小鸡	-18464
▁果子	-18465
▁熬夜	-18466
▁美团	-18467
▁认为	-18468
▁谷歌	-18469
▁重要	-18470
▁鱼缸	-18471
一直很	-18472
也只有	-18473
五十五	-18474
准备的	-18475
发芽了	-18476
和孩子	-18477
奥斯卡	-18478
学习了	-18479
弯弯的	-18480
恶狠狠	-18481
想了解	-18482
我这么	-18483
教我们	-18484
数字化	-18485
热闹的	-18486
玻璃瓶	-18487
突然间	-18488
精彩啊	-18489
糖尿病	-18490
给爸爸	-18491
说故事	-18492
这个吗	-18493
这名字	-18494
集市上	-18495
pple	-18496
▁听起来	-18497
▁嗯嗯嗯	-18498
▁小鼹鼠	-18499
▁我们就	-18500
▁有人说	-18501
中超联赛	-18502
买了一个	-18503
我觉得这	-18504
掉下来了	-18505
更多的人	-18506
未成年人	-18507
特别好看	-18508
的新闻呢	-18509
那么厉害	-18510
阳光明媚	-18511
非常大的	-18512
一个好办法	-18513
越来越多的	-18514
▁捏	-18515
▁运	-18516
下个	-18517
不利	-18518
之意	-18519
事先	-18520
五大	-18521
人情	-18522
仅有	-18523
他只	-18524
你吗	-18525
倒数	-18526
再用	-18527
冷冷	-18528
叫小	-18529
同桌	-18530
后生	-18531
和气	-18532
头和	-18533
奄奄	-18534
妙招	-18535
威力	-18536
存量	-18537
它用	-18538
容量	-18539
密密	-18540
就挺	-18541
带队	-18542
干得	-18543
强者	-18544
思路	-18545
总爱	-18546
搬来	-18547
摆在	-18548
擦了	-18549
放羊	-18550
文帝	-18551
有毒	-18552
比利	-18553
汇报	-18554
油漆	-18555
男二	-18556
的伤	-18557
科尔	-18558
稳了	-18559
空军	-18560
绑架	-18561
结尾	-18562
翻滚	-18563
股指	-18564
脑的	-18565
自有	-18566
豪门	-18567
责备	-18568
走廊	-18569
越走	-18570
踢了	-18571
过我	-18572
郁金	-18573
阳虚	-18574
黑马	-18575
齐尔	-18576
▁你去	-18577
▁南方	-18578
▁在这	-18579
▁橘色	-18580
▁给你	-18581
▁网络	-18582
▁这回	-18583
下一站	-18584
不要去	-18585
从地上	-18586
力气大	-18587
半路上	-18588
在一座	-18589
大师赛	-18590
大胡子	-18591
她已经	-18592
好帅啊	-18593
小蘑菇	-18594
小野兔	-18595
少林寺	-18596
就坐在	-18597
就是用	-18598
心里的	-18599
我那个	-18600
手机啊	-18601
挣扎着	-18602
推出的	-18603
操场上	-18604
教练的	-18605
是一座	-18606
暴风雨	-18607
来得巧	-18608
来源于	-18609
漫长的	-18610
狮子说	-18611
男人的	-18612
的地位	-18613
的老婆	-18614
着头皮	-18615
种颜色	-18616
空空的	-18617
要开始	-18618
还没到	-18619
zhao	-18620
▁suo	-18621
▁他们在	-18622
▁当然是	-18623
▁意大利	-18624
▁报两千	-18625
▁詹姆斯	-18626
▁这里是	-18627
▁那看来	-18628
一只兔子	-18629
不太喜欢	-18630
我就可以	-18631
摔了一跤	-18632
然后他们	-18633
的比赛中	-18634
的运动员	-18635
真不知道	-18636
这不刚好	-18637
那段时间	-18638
非常重要	-18639
▁ming	-18640
▁但是我们	-18641
▁还有什么	-18642
小动物们都	-18643
越来越好了	-18644
这故事说明	-18645
从来没有见过	-18646
的一千零一夜	-18647
28	-18648
▁咚	-18649
▁胶	-18650
▁鹅	-18651
一所	-18652
一至	-18653
不佳	-18654
世代	-18655
也像	-18656
书房	-18657
书籍	-18658
他吧	-18659
便问	-18660
修订	-18661
再吃	-18662
凶残	-18663
募集	-18664
去路	-18665
又多	-18666
反省	-18667
只吃	-18668
吵得	-18669
告状	-18670
命了	-18671
嚷道	-18672
困了	-18673
坐坐	-18674
外衣	-18675
大名	-18676
天长	-18677
奇缘	-18678
奖了	-18679
她能	-18680
孵蛋	-18681
客观	-18682
带货	-18683
开工	-18684
当心	-18685
彩笔	-18686
心意	-18687
忙忙	-18688
急切	-18689
扑腾	-18690
批发	-18691
拓展	-18692
支援	-18693
改掉	-18694
无故	-18695
景气	-18696
样样	-18697
没等	-18698
滚到	-18699
激发	-18700
纠缠	-18701
老爹	-18702
芬芳	-18703
花痴	-18704
被窝	-18705
要对	-18706
试探	-18707
身处	-18708
辐射	-18709
过几	-18710
陆地	-18711
雨淋	-18712
飘呀	-18713
▁一共	-18714
▁下降	-18715
▁两市	-18716
▁地球	-18717
▁早晨	-18718
▁正如	-18719
▁江苏	-18720
▁滴滴	-18721
▁男主	-18722
▁让你	-18723
▁超过	-18724
▁这场	-18725
上学了	-18726
下半场	-18727
不放心	-18728
不错呀	-18729
东契奇	-18730
也是啊	-18731
了什么	-18732
仙人掌	-18733
你居然	-18734
冲过去	-18735
在她的	-18736
大嗓门	-18737
小浣熊	-18738
小蜻蜓	-18739
小青虫	-18740
我们把	-18741
拥有的	-18742
放进了	-18743
水面上	-18744
注册制	-18745
满意的	-18746
眼睁睁	-18747
睁开眼	-18748
称之为	-18749
赶走了	-18750
这些年	-18751
黄子韬	-18752
▁一个是	-18753
▁对就是	-18754
▁小蜜蜂	-18755
▁或者说	-18756
▁没什么	-18757
▁这件事	-18758
与众不同	-18759
五月二十	-18760
他们没有	-18761
他们现在	-18762
他的女儿	-18763
你的朋友	-18764
关键时刻	-18765
其实我也	-18766
可以通过	-18767
同比下降	-18768
安娜妈咪	-18769
很不错的	-18770
微微一笑	-18771
我超喜欢	-18772
是个什么	-18773
航空公司	-18774
高兴的说	-18775
▁heng	-18776
▁我的天哪	-18777
不管怎么说	-18778
开心地笑了	-18779
确实是这样	-18780
美丽的蝴蝶	-18781
自由自在地	-18782
早不如来得巧	-18783
可以一起拼个桌吗	-18784
26	-18785
▁串	-18786
▁任	-18787
▁抽	-18788
▁挤	-18789
万达	-18790
上调	-18791
之物	-18792
仍是	-18793
刚从	-18794
刹车	-18795
卡片	-18796
去接	-18797
反感	-18798
古老	-18799
可靠	-18800
哈里	-18801
回调	-18802
围墙	-18803
圆满	-18804
失措	-18805
委托	-18806
对策	-18807
就可	-18808
巴尔	-18809
形影	-18810
很美	-18811
惨啊	-18812
执着	-18813
无需	-18814
日后	-18815
早在	-18816
晓明	-18817
洗碗	-18818
浓浓	-18819
演艺	-18820
爬着	-18821
玉兔	-18822
礼仪	-18823
祭祀	-18824
竹林	-18825
索性	-18826
而知	-18827
谷雨	-18828
这句	-18829
闲事	-18830
阳明	-18831
隐瞒	-18832
韦德	-18833
馋嘴	-18834
黄黄	-18835
黑板	-18836
▁小羊	-18837
▁我只	-18838
▁放心	-18839
▁曹操	-18840
▁植物	-18841
▁认真	-18842
▁重点	-18843
一颗颗	-18844
三分球	-18845
事儿了	-18846
二十个	-18847
休息吧	-18848
传统的	-18849
全明星	-18850
公元前	-18851
厄齐尔	-18852
反义词	-18853
只好把	-18854
太阳光	-18855
女明星	-18856
孩子了	-18857
宝贝儿	-18858
实体店	-18859
对这些	-18860
就给你	-18861
尽情地	-18862
很快乐	-18863
我还得	-18864
排行榜	-18865
摔倒了	-18866
最强的	-18867
母亲说	-18868
比较忙	-18869
消防员	-18870
火车头	-18871
的一段	-18872
的人类	-18873
的任务	-18874
的好处	-18875
的小兔	-18876
的愿望	-18877
的男人	-18878
的话是	-18879
的那场	-18880
竟然是	-18881
花生米	-18882
跑出去	-18883
跟着我	-18884
还给我	-18885
这一幕	-18886
追不上	-18887
都有点	-18888
音乐会	-18889
▁lin	-18890
▁慢慢地	-18891
▁我昨天	-18892
▁有一些	-18893
一直都很	-18894
也不可能	-18895
了好几个	-18896
你的名字	-18897
你看看我	-18898
动画电影	-18899
发热门诊	-18900
告诉你们	-18901
很远很远	-18902
心地善良	-18903
感到非常	-18904
比较关注	-18905
治愈出院	-18906
的一个小	-18907
的小蚂蚁	-18908
的那一刻	-18909
看到这个	-18910
跳来跳去	-18911
还是非常	-18912
飞起来了	-18913
讲的故事是	-18914
▁欢迎打开全民阅读	-18915
cp	-18916
不为	-18917
中考	-18918
之日	-18919
也蛮	-18920
二级	-18921
会用	-18922
你却	-18923
便会	-18924
倾听	-18925
共鸣	-18926
再过	-18927
出入	-18928
出新	-18929
剧中	-18930
卡尔	-18931
卷发	-18932
厌恶	-18933
和狼	-18934
和马	-18935
地往	-18936
垄断	-18937
壳郎	-18938
壳里	-18939
奋勇	-18940
安德	-18941
安逸	-18942
封建	-18943
就变	-18944
峡谷	-18945
干粮	-18946
战役	-18947
指纹	-18948
敲了	-18949
无效	-18950
晃动	-18951
暴躁	-18952
沈阳	-18953
男排	-18954
略有	-18955
疯子	-18956
百货	-18957
真假	-18958
睡呀	-18959
稻子	-18960
第十	-18961
终止	-18962
结伴	-18963
缩小	-18964
罕见	-18965
翠花	-18966
老马	-18967
见人	-18968
诚信	-18969
越飞	-18970
跳水	-18971
长官	-18972
▁二月	-18973
▁从小	-18974
▁加强	-18975
▁多多	-18976
▁封面	-18977
▁神勇	-18978
▁离开	-18979
▁糟糕	-18980
▁长期	-18981
不对劲	-18982
不用说	-18983
也没啥	-18984
他这次	-18985
传来的	-18986
你刚刚	-18987
出货量	-18988
加拿大	-18989
又漂亮	-18990
发生过	-18991
咯咯咯	-18992
喜欢我	-18993
大花猫	-18994
太差了	-18995
学到了	-18996
屎壳郎	-18997
强大了	-18998
影响的	-18999
是个好	-19000
是属于	-19001
梅西的	-19002
激动了	-19003
爬上树	-19004
猴子们	-19005
看见过	-19006
神奇了	-19007
神秘的	-19008
等一等	-19009
给了我	-19010
裂开了	-19011
许多的	-19012
资金的	-19013
轻轻一	-19014
mian	-19015
▁不用谢	-19016
▁我们是	-19017
▁早上好	-19018
▁晚上好	-19019
▁老爷爷	-19020
一提的是	-19021
七月二十	-19022
他的那个	-19023
低头一看	-19024
你们知道	-19025
先走了啊	-19026
和朋友们	-19027
国家队的	-19028
情况来看	-19029
我去看看	-19030
我有办法	-19031
是我们的	-19032
来到一个	-19033
现在还是	-19034
的可能性	-19035
的广播剧	-19036
青蛙妈妈	-19037
鳄鱼先生	-19038
▁ying	-19039
一动也不动	-19040
不好意思地	-19041
才是真正的	-19042
有什么办法	-19043
自己喜欢的	-19044
▁热点财经资讯万德在您身边	-19045
!'	-19046
![	-19047
ni	-19048
▁蹲	-19049
▁闪	-19050
一期	-19051
七五	-19052
三条	-19053
三观	-19054
世人	-19055
乘车	-19056
也和	-19057
会飞	-19058
免税	-19059
再加	-19060
几分	-19061
却很	-19062
又到	-19063
反倒	-19064
呆着	-19065
响应	-19066
嘲讽	-19067
堪称	-19068
天后	-19069
季后	-19070
安徽	-19071
宋朝	-19072
小蛇	-19073
就大	-19074
山水	-19075
巡逻	-19076
布熊	-19077
带他	-19078
张嘴	-19079
忧伤	-19080
我拿	-19081
挺多	-19082
掌管	-19083
教他	-19084
斯顿	-19085
新房	-19086
既往	-19087
本性	-19088
查询	-19089
此人	-19090
求生	-19091
滋润	-19092
烧了	-19093
牛顿	-19094
用水	-19095
盼望	-19096
积金	-19097
站立	-19098
笨猪	-19099
粒粒	-19100
结算	-19101
若昀	-19102
英勇	-19103
英寸	-19104
茂盛	-19105
装上	-19106
路克	-19107
载着	-19108
违背	-19109
那这	-19110
重返	-19111
金鸡	-19112
针灸	-19113
长毛	-19114
隐蔽	-19115
难忘	-19116
饿着	-19117
鱼和	-19118
6]。	-19119
▁公公	-19120
▁分析	-19121
▁参加	-19122
▁影响	-19123
▁每年	-19124
▁水壶	-19125
▁番茄	-19126
▁立刻	-19127
。19	-19128
一朵花	-19129
一百个	-19130
下一步	-19131
不去了	-19132
不自禁	-19133
也不算	-19134
了哈哈	-19135
了那个	-19136
仔细看	-19137
他赶紧	-19138
他还在	-19139
会关注	-19140
你也有	-19141
兔子的	-19142
哥哥的	-19143
哪里有	-19144
四个人	-19145
四月份	-19146
在河里	-19147
多看看	-19148
大人们	-19149
她没有	-19150
它看到	-19151
就是把	-19152
就死了	-19153
店老板	-19154
很害怕	-19155
得这么	-19156
提出的	-19157
新疆队	-19158
无比的	-19159
检票了	-19160
比别人	-19161
的国王	-19162
的增长	-19163
盛大的	-19164
福格斯	-19165
篮球场	-19166
紧紧的	-19167
董明珠	-19168
让人们	-19169
风吹过	-19170
魔法棒	-19171
▁不是的	-19172
▁不是说	-19173
▁乒乓球	-19174
▁你也来	-19175
▁你以为	-19176
▁并不是	-19177
▁我其实	-19178
▁我希望	-19179
▁找一找	-19180
▁是那个	-19181
▁看起来	-19182
不过他们	-19183
优秀的人	-19184
信息技术	-19185
呆在家里	-19186
就不行了	-19187
我就感觉	-19188
持股比例	-19189
玩捉迷藏	-19190
这两个人	-19191
那么容易	-19192
那些东西	-19193
▁那么我们	-19194
就讲到这里	-19195
▁你也在看这个新闻啊	-19196
▁挡	-19197
▁橱	-19198
一再	-19199
会给	-19200
传达	-19201
何处	-19202
便捷	-19203
充钱	-19204
关联	-19205
军官	-19206
出路	-19207
剧透	-19208
原著	-19209
和一	-19210
困惑	-19211
固执	-19212
埃梅	-19213
处境	-19214
复制	-19215
多彩	-19216
太保	-19217
学科	-19218
安然	-19219
家属	-19220
庆幸	-19221
床单	-19222
开幕	-19223
当过	-19224
想用	-19225
戏剧	-19226
手绢	-19227
扎尔	-19228
抵挡	-19229
拥挤	-19230
收回	-19231
放我	-19232
斯塔	-19233
方圆	-19234
明月	-19235
替你	-19236
本是	-19237
榴莲	-19238
欣欣	-19239
比重	-19240
氧化	-19241
火爆	-19242
烟斗	-19243
王妃	-19244
环球	-19245
瑞士	-19246
痰湿	-19247
的诗	-19248
签署	-19249
米拉	-19250
粉红	-19251
终端	-19252
绒毛	-19253
致敬	-19254
芙蓉	-19255
认出	-19256
许仙	-19257
跳的	-19258
过架	-19259
还和	-19260
这道	-19261
长辈	-19262
陶醉	-19263
雏菊	-19264
鞠躬	-19265
预言	-19266
频频	-19267
风云	-19268
1]。	-19269
gai	-19270
yao	-19271
▁HI	-19272
▁上证	-19273
▁两人	-19274
▁好喝	-19275
▁投资	-19276
▁新闻	-19277
▁秋天	-19278
▁篮子	-19279
▁网上	-19280
▁表现	-19281
▁警方	-19282
▁记者	-19283
▁高中	-19284
▁鼻涕	-19285
一抬头	-19286
了中国	-19287
亿元的	-19288
今天我	-19289
你们说	-19290
偶尔会	-19291
准备去	-19292
到处找	-19293
勇敢地	-19294
又不能	-19295
只能在	-19296
命中率	-19297
在内的	-19298
志愿者	-19299
更容易	-19300
有助于	-19301
没找到	-19302
演员的	-19303
爆发力	-19304
直播间	-19305
算了吧	-19306
篮球队	-19307
粉红色	-19308
红气球	-19309
金黄的	-19310
鼠小弟	-19311
▁还没有	-19312
▁这可是	-19313
上个赛季	-19314
两个儿子	-19315
他们那个	-19316
呼呼大睡	-19317
唱起歌来	-19318
四面八方	-19319
好长时间	-19320
就是我的	-19321
广州恒大	-19322
快快乐乐	-19323
怎么走啊	-19324
抱在怀里	-19325
还没说完	-19326
远的地方	-19327
▁好的回聊	-19328
▁谢谢你啊	-19329
你为什么不	-19330
生活在一起	-19331
▁我觉得这个	-19332
医科大学附属	-19333
周末的缘故吧	-19334
我还有点事情	-19335
▁更多内容请查阅南方都市报	-19336
▁傻	-19337
▁咻	-19338
▁瘦	-19339
不惜	-19340
事后	-19341
传授	-19342
住处	-19343
你懂	-19344
你才	-19345
先锋	-19346
养了	-19347
分散	-19348
前提	-19349
又红	-19350
反派	-19351
叫的	-19352
可有	-19353
同性	-19354
吞下	-19355
和中	-19356
和蔼	-19357
和阿	-19358
喝道	-19359
围住	-19360
地喊	-19361
地理	-19362
天了	-19363
太久	-19364
她一	-19365
好气	-19366
如其	-19367
子牙	-19368
客栈	-19369
家产	-19370
射箭	-19371
将领	-19372
念着	-19373
恶狼	-19374
悦耳	-19375
悬念	-19376
打柴	-19377
扬州	-19378
护车	-19379
收留	-19380
星驰	-19381
极致	-19382
比伯	-19383
汤圆	-19384
法宝	-19385
演义	-19386
点播	-19387
点球	-19388
熟练	-19389
牧童	-19390
理他	-19391
的字	-19392
瞎了	-19393
自愿	-19394
萨拉	-19395
薪资	-19396
蜷缩	-19397
衣衫	-19398
被它	-19399
跑过	-19400
转会	-19401
转悠	-19402
部下	-19403
都像	-19404
针线	-19405
长沙	-19406
霸气	-19407
2]。	-19408
dou	-19409
▁no	-19410
▁你先	-19411
▁公园	-19412
▁基金	-19413
▁家具	-19414
▁带着	-19415
▁我得	-19416
▁智能	-19417
▁木马	-19418
▁说是	-19419
一万零	-19420
一点吧	-19421
不重要	-19422
也已经	-19423
也还是	-19424
了几次	-19425
他正在	-19426
你们好	-19427
你的人	-19428
可能要	-19429
在一块	-19430
季度的	-19431
学生们	-19432
孩子啊	-19433
孩子都	-19434
小米的	-19435
带孩子	-19436
快点儿	-19437
总感觉	-19438
打排球	-19439
方便面	-19440
最主要	-19441
来一个	-19442
流浪狗	-19443
消费品	-19444
的小路	-19445
的房间	-19446
的手段	-19447
经过了	-19448
被人们	-19449
较高的	-19450
这是说	-19451
遮住了	-19452
都是看	-19453
面前说	-19454
▁NBA	-19455
为国争光	-19456
保护自己	-19457
全球经济	-19458
出自己的	-19459
到了地上	-19460
十分高兴	-19461
喜欢这个	-19462
奄奄一息	-19463
就是觉得	-19464
就有一个	-19465
我是真的	-19466
我有点事	-19467
我都没有	-19468
联系方式	-19469
聪明的人	-19470
越来越近	-19471
还是什么	-19472
▁就是这个	-19473
▁我告诉你	-19474
▁然后他们	-19475
▁这意味着	-19476
▁那太好了	-19477
下次有机会	-19478
像往常一样	-19479
听广播剧啊	-19480
每个人都有	-19481
狡猾的狐狸	-19482
瞪大了眼睛	-19483
▁huang	-19484
▁可以不可以	-19485
涨百分之一点	-19486
▁以上就是今天的	-19487
▁你也在关注这个新闻啊	-19488
为妻	-19489
亮相	-19490
全能	-19491
内战	-19492
写下	-19493
前天	-19494
取代	-19495
向来	-19496
命地	-19497
善待	-19498
团聚	-19499
在听	-19500
在场	-19501
外部	-19502
如愿	-19503
孟尝	-19504
学长	-19505
它不	-19506
宋江	-19507
害的	-19508
小不	-19509
小气	-19510
张大	-19511
往事	-19512
拼了	-19513
摇摆	-19514
收下	-19515
整日	-19516
有成	-19517
机票	-19518
残疾	-19519
毁灭	-19520
比试	-19521
水管	-19522
洛伊	-19523
灭火	-19524
版权	-19525
白花	-19526
的草	-19527
的飞	-19528
益于	-19529
真理	-19530
真话	-19531
秘诀	-19532
稀罕	-19533
缺席	-19534
老熊	-19535
考考	-19536
荔枝	-19537
董卓	-19538
被告	-19539
西望	-19540
诸位	-19541
跟人	-19542
逃出	-19543
选美	-19544
酱油	-19545
重伤	-19546
阿巧	-19547
预算	-19548
鸭毛	-19549
鹿晗	-19550
wai	-19551
▁hm	-19552
▁再说	-19553
▁医疗	-19554
▁小偷	-19555
▁小毅	-19556
▁总之	-19557
▁整齐	-19558
▁涉及	-19559
一时间	-19560
上哪儿	-19561
不过你	-19562
也有点	-19563
二十三	-19564
他曾经	-19565
你想想	-19566
出版社	-19567
出现过	-19568
在国外	-19569
地说着	-19570
多一些	-19571
妈妈要	-19572
孟尝君	-19573
它已经	-19574
小黑狗	-19575
山顶上	-19576
快来看	-19577
怎么还	-19578
把尾巴	-19579
挂满了	-19580
放风筝	-19581
新西兰	-19582
有效的	-19583
激动的	-19584
玩儿了	-19585
的人是	-19586
的工资	-19587
的心里	-19588
的旁边	-19589
目的是	-19590
着他的	-19591
红了脸	-19592
继续说	-19593
顾不得	-19594
▁在一个	-19595
▁它可以	-19596
▁有很多	-19597
。。。。	-19598
也不一定	-19599
也是比较	-19600
再也不会	-19601
去买菜了	-19602
和小松鼠	-19603
回去看看	-19604
我也在看	-19605
我们的小	-19606
是一样的	-19607
是什么啊	-19608
永远不会	-19609
火箭队的	-19610
真的可以	-19611
话音刚落	-19612
说的没错	-19613
那天晚上	-19614
长大以后	-19615
▁我们下一	-19616
▁那你可以	-19617
在这个时候	-19618
是世界上最	-19619
是什么东西	-19620
有什么关系	-19621
蹦蹦跳跳地	-19622
什么时候才能	-19623
▁原来是这样啊	-19624
IT	-19625
OS	-19626
▁剩	-19627
▁化	-19628
一扭	-19629
七岁	-19630
上还	-19631
不妨	-19632
个体	-19633
临近	-19634
之家	-19635
了么	-19636
交付	-19637
作弊	-19638
侍从	-19639
凡间	-19640
卡的	-19641
卷毛	-19642
反射	-19643
受人	-19644
吃苦	-19645
含量	-19646
哈维	-19647
喜好	-19648
四家	-19649
国米	-19650
在等	-19651
地窖	-19652
均衡	-19653
壮观	-19654
外人	-19655
大奖	-19656
奔驰	-19657
女娃	-19658
她很	-19659
好歹	-19660
家园	-19661
床前	-19662
应付	-19663
底层	-19664
强力	-19665
彩云	-19666
很忙	-19667
总得	-19668
户户	-19669
扑去	-19670
打气	-19671
拎着	-19672
挂了	-19673
操纵	-19674
攀升	-19675
欧盟	-19676
潜入	-19677
热啊	-19678
焦点	-19679
爬出	-19680
用嘴	-19681
画着	-19682
的的	-19683
的重	-19684
直流	-19685
磨坊	-19686
结交	-19687
给力	-19688
翻来	-19689
肥肉	-19690
胆量	-19691
背包	-19692
能不	-19693
虱子	-19694
说服	-19695
谁敢	-19696
贴近	-19697
轮胎	-19698
输球	-19699
配套	-19700
饱满	-19701
enr	-19702
▁ok	-19703
▁你你	-19704
▁本领	-19705
▁来到	-19706
▁洗洗	-19707
▁消失	-19708
▁看你	-19709
▁门口	-19710
一大堆	-19711
一般般	-19712
亮亮的	-19713
传到了	-19714
典型的	-19715
农产品	-19716
喇叭花	-19717
因为有	-19718
在一边	-19719
地躺在	-19720
坐飞机	-19721
太好啦	-19722
好奇的	-19723
好漂亮	-19724
姜子牙	-19725
小海豚	-19726
就不再	-19727
并不能	-19728
应有的	-19729
怎么去	-19730
我们了	-19731
抚摸着	-19732
的人家	-19733
的发生	-19734
的可能	-19735
的季节	-19736
的手里	-19737
眼珠子	-19738
着一群	-19739
着翅膀	-19740
等车吗	-19741
系列的	-19742
老狐狸	-19743
融化了	-19744
路上的	-19745
这一课	-19746
那个大	-19747
飞上了	-19748
骄傲的	-19749
▁rou	-19750
▁但其实	-19751
▁又到了	-19752
▁梳妆台	-19753
▁真正的	-19754
不知道他	-19755
两个人的	-19756
但是如果	-19757
体验一下	-19758
在天空中	-19759
很有可能	-19760
忽然听到	-19761
成千上万	-19762
我有时候	-19763
房贷利率	-19764
探出头来	-19765
新闻消息	-19766
热血沸腾	-19767
的时候也	-19768
知乎问答	-19769
美丽的大	-19770
这个国家	-19771
这是我们	-19772
那个就是	-19773
dianr	-19774
▁今晚要和	-19775
▁这样的话	-19776
▁那你觉得	-19777
一个小女孩	-19778
了一段时间	-19779
做了一个梦	-19780
最重要的是	-19781
你们的好朋友	-19782
hh	-19783
▁微	-19784
▁晒	-19785
▁籽	-19786
为一	-19787
也吃	-19788
书店	-19789
事吗	-19790
井边	-19791
亮眼	-19792
亲情	-19793
仪器	-19794
俘虏	-19795
保密	-19796
信念	-19797
动人	-19798
原理	-19799
双臂	-19800
合不	-19801
吊胆	-19802
吹过	-19803
和解	-19804
唤醒	-19805
围裙	-19806
填饱	-19807
外形	-19808
干扰	-19809
年糕	-19810
开关	-19811
当事	-19812
征服	-19813
心急	-19814
心血	-19815
总有	-19816
手说	-19817
打好	-19818
拍打	-19819
挑食	-19820
捉鱼	-19821
捕食	-19822
提心	-19823
敢于	-19824
无常	-19825
暗示	-19826
有理	-19827
朵拉	-19828
棺材	-19829
气温	-19830
汉字	-19831
泽东	-19832
深化	-19833
溪边	-19834
点击	-19835
理睬	-19836
甜了	-19837
生生	-19838
破案	-19839
碗里	-19840
纺织	-19841
组建	-19842
网的	-19843
芭比	-19844
蒂姆	-19845
观望	-19846
走高	-19847
越是	-19848
转去	-19849
过他	-19850
遮住	-19851
那部	-19852
钢笔	-19853
锦鸡	-19854
长工	-19855
闹着	-19856
闻着	-19857
陈念	-19858
陪他	-19859
雷龙	-19860
7]。	-19861
zou	-19862
▁上市	-19863
▁今日	-19864
▁骆驼	-19865
一边跑	-19866
三点二	-19867
不客气	-19868
他急忙	-19869
你以后	-19870
你去吧	-19871
史莱克	-19872
各有各	-19873
唱歌的	-19874
嘴里的	-19875
因为是	-19876
大家伙	-19877
天下的	-19878
她看到	-19879
小声说	-19880
小妹妹	-19881
小海龟	-19882
就不怕	-19883
就自己	-19884
怎么就	-19885
惊讶地	-19886
扑过来	-19887
把眼睛	-19888
撞到了	-19889
教育的	-19890
是一头	-19891
是有点	-19892
来说是	-19893
疲力尽	-19894
[...]
