<pad>	0
<unk>	0
<s>	0
</s>	0
[PAD]	0
[UNK]	0
[CLS]	0
[SEP]	0
[MASK]	0
▁*	-0
""	-1
CH	-2
ER	-3
LD	-4
CHI	-5
CHILD	-6
TA	-7
ET	-8
RG	-9
RGET	-10
TARGET	-11
TH	-12
THER	-13
OTHER	-14
MOTHER	-15
▁我	-16
▁这	-17
▁你	-18
什么	-19
▁是	-20
一个	-21
TI	-22
就是	-23
VE	-24
AT	-25
OR	-26
IN	-27
STI	-28
GAT	-29
INVE	-30
GATOR	-31
INVESTI	-32
INVESTIGATOR	-33
。""	-34
▁了	-35
▁他	-36
:""	-37
xx	-38
▁嗯	-39
没有	-40
▁那	-41
▁好	-42
然后	-43
▁一	-44
▁个	-45
▁不	-46
▁的	-47
这个	-48
▁小	-49
我们	-50
自己	-51
EA	-52
TEA	-53
CHER	-54
TEACHER	-55
▁对	-56
知道	-57
可以	-58
▁有	-59
时候	-60
哈哈	-61
怎么	-62
!""	-63
▁啊	-64
▁"	-65
妈妈	-66
不是	-67
他们	-68
喜欢	-69
▁然后	-70
▁就	-71
现在	-72
▁在	-73
▁看	-74
还是	-75
xxx	-76
▁xxx	-77
觉得	-78
那个	-79
▁什么	-80
了一	-81
..	-82
因为	-83
真的	-84
还有	-85
但是	-86
起来	-87
▁要	-88
。"	-89
?""	-90
这样	-91
到了	-92
▁大	-93
朋友	-94
也是	-95
an	-96
AD	-97
LT	-98
ADU	-99
ADULT	-100
的时候	-101
出来	-102
▁它	-103
ao	-104
▁呢	-105
他的	-106
可是	-107
▁来	-108
孩子	-109
东西	-110
▁我们	-111
都是	-112
en	-113
的人	-114
的小	-115
▁到	-116
爸爸	-117
也不	-118
ai	-119
比赛	-120
▁""	-121
▁n	-122
所以	-123
你好	-124
这么	-125
▁说	-126
故事	-127
▁z	-128
▁哦	-129
我的	-130
已经	-131
ei	-132
有一	-133
▁还	-134
▁哈哈	-135
很多	-136
▁嗯嗯	-137
中国	-138
感觉	-139
FA	-140
▁去	-141
FATHER	-142
▁上	-143
▁y	-144
,""	-145
里面	-146
▁b	-147
▁d	-148
▁也	-149
▁吃	-150
大家	-151
可能	-152
自己的	-153
其实	-154
不过	-155
一起	-156
开始	-157
时间	-158
应该	-159
▁呀	-160
电影	-161
来了	-162
...	-163
▁l	-164
▁给	-165
的话	-166
▁就是	-167
而且	-168
拜拜	-169
好的	-170
如果	-171
▁s	-172
你们	-173
今天	-174
▁是啊	-175
▁h	-176
一样	-177
再见	-178
这些	-179
非常	-180
▁他们	-181
▁把	-182
最近	-183
比较	-184
走了	-185
▁妈妈	-186
青蛙	-187
一点	-188
新闻	-189
一下	-190
▁没	-191
看到	-192
▁怎么	-193
特别	-194
▁你好	-195
不好	-196
▁讲	-197
大的	-198
下来	-199
▁没有	-200
▁sh	-201
的一	-202
狐狸	-203
不会	-204
这种	-205
一只	-206
的是	-207
AN	-208
百分	-209
不能	-210
发现	-211
为什么	-212
▁都	-213
▁会	-214
你的	-215
那么	-216
一定	-217
ou	-218
以后	-219
老鼠	-220
▁zh	-221
人的	-222
百分之	-223
地方	-224
生活	-225
看看	-226
4.	-227
▁对啊	-228
去了	-229
事情	-230
这是	-231
那种	-232
▁吗	-233
▁还有	-234
苹果	-235
▁拿	-236
上的	-237
一直	-238
▁哎	-239
公司	-240
厉害	-241
▁想	-242
之前	-243
▁喔	-244
不知道	-245
我觉得	-246
世界	-247
▁很	-248
好像	-249
需要	-250
肯定	-251
▁只	-252
ang	-253
高兴	-254
▁玩	-255
两个	-256
二十	-257
▁吧	-258
关注	-259
我就	-260
一些	-261
▁可以	-262
于是	-263
最后	-264
▁但是	-265
希望	-266
▁m	-267
动物	-268
确实	-269
老师	-270
一天	-271
看了	-272
▁下	-273
▁哪	-274
问题	-275
▁人	-276
▁里	-277
告诉	-278
▁en	-279
▁g	-280
我也	-281
不错	-282
▁爸爸	-283
看见	-284
▁ni	-285
这里	-286
一次	-287
为了	-288
ji	-289
xi	-290
之后	-291
原来	-292
兔子	-293
手机	-294
国家	-295
不要	-296
眼睛	-297
▁着	-298
▁这样	-299
过来	-300
地说	-301
▁因为	-302
的大	-303
那些	-304
1.	-305
有点	-306
▁现在	-307
▁这个	-308
它们	-309
▁w	-310
后来	-311
好了	-312
里的	-313
回家	-314
足球	-315
以前	-316
出了	-317
游戏	-318
▁所以	-319
听说	-320
▁当	-321
ch	-322
▁知道	-323
▁再	-324
第二	-325
▁青蛙	-326
会儿	-327
咱们	-328
▁从	-329
虽然	-330
▁le	-331
先生	-332
谢谢	-333
要是	-334
二零	-335
▁放	-336
▁好的	-337
森林	-338
工作	-339
漂亮	-340
突然	-341
色的	-342
▁打	-343
每天	-344
--	-345
真是	-346
ng	-347
办法	-348
▁可	-349
了一个	-350
姐姐	-351
我是	-352
GR	-353
AND	-354
GRAND	-355
XX	-356
篮球	-357
▁t	-358
晚上	-359
▁这里	-360
意思	-361
▁狗	-362
▁啦	-363
就会	-364
回来	-365
▁猫	-366
电视	-367
变成	-368
有一个	-369
是一	-370
有的	-371
太阳	-372
别人	-373
▁a	-374
▁哈哈哈	-375
睡觉	-376
真的是	-377
▁又	-378
▁xi	-379
运动	-380
都不	-381
这次	-382
发生	-383
▁谁	-384
▁做	-385
▁家	-386
▁飞	-387
▁跟	-388
!"	-389
当时	-390
正在	-391
的故事	-392
市场	-393
▁是不是	-394
声音	-395
▁她	-396
妖怪	-397
▁但	-398
爷爷	-399
过去	-400
方面	-401
房子	-402
▁掉	-403
给我	-404
只是	-405
宝宝	-406
准备	-407
国王	-408
第一	-409
▁k	-410
人家	-411
出去	-412
▁阿	-413
不到	-414
结果	-415
上了	-416
▁干	-417
好多	-418
▁ji	-419
衣服	-420
▁是的	-421
3.	-422
了解	-423
▁长	-424
美国	-425
毕竟	-426
身体	-427
▁完	-428
▁其实	-429
来到	-430
▁水	-431
一边	-432
小熊	-433
▁多	-434
猴子	-435
先走了	-436
了吗	-437
▁大象	-438
个人	-439
▁三	-440
2.	-441
老虎	-442
好看	-443
▁bu	-444
这一	-445
看着	-446
来的	-447
地上	-448
一个人	-449
平时	-450
或者	-451
▁哇	-452
▁今天	-453
人们	-454
学校	-455
▁快	-456
GRANDMOTHER	-457
▁如果	-458
说的	-459
出现	-460
▁拜拜	-461
在看	-462
我要	-463
有人	-464
终于	-465
表示	-466
哥哥	-467
▁东西	-468
发展	-469
奶奶	-470
心里	-471
▁听	-472
uo	-473
...""	-474
▁用	-475
样子	-476
她的	-477
记得	-478
。""""	-479
儿子	-480
想到	-481
▁ch	-482
姑娘	-483
给你	-484
这样的	-485
今年	-486
它的	-487
▁能	-488
▁里面	-489
▁找	-490
主人	-491
开心	-492
了吧	-493
看过	-494
后面	-495
我还	-496
▁而	-497
▁过	-498
▁可是	-499
有什么	-500
▁妖怪	-501
子里	-502
有个	-503
▁那个	-504
不对	-505
越来	-506
继续	-507
容易	-508
公主	-509
越来越	-510
家里	-511
美丽	-512
只有	-513
快乐	-514
一看	-515
松鼠	-516
是不是	-517
许多	-518
学习	-519
▁天	-520
反正	-521
不了	-522
以为	-523
情况	-524
▁让	-525
我们的	-526
蚂蚁	-527
▁树	-528
▁q	-529
关系	-530
开了	-531
重要	-532
小白	-533
身边	-534
三十	-535
是一个	-536
狮子	-537
▁shi	-538
表现	-539
▁走	-540
▁zhei	-541
多的	-542
▁ba	-543
▁苹果	-544
▁ma	-545
▁得	-546
亿元	-547
你知道	-548
▁对呀	-549
▁和	-550
是个	-551
小猪	-552
也很	-553
BL	-554
ANK	-555
BLANK	-556
这时	-557
才能	-558
经常	-559
一般	-560
名字	-561
▁两	-562
的东西	-563
▁边	-564
慢慢	-565
的一个	-566
生气	-567
起了	-568
进行	-569
▁好不好	-570
成了	-571
认为	-572
医生	-573
影响	-574
▁有没有	-575
不得	-576
的事	-577
也没有	-578
马上	-579
身上	-580
的地方	-581
▁那么	-582
其他	-583
都会	-584
尾巴	-585
中的	-586
几个	-587
ge	-588
同学	-589
▁跑	-590
▁yi	-591
月亮	-592
着一	-593
颜色	-594
▁真	-595
只要	-596
比如	-597
这部	-598
▁看看	-599
▁故事	-600
他们的	-601
你是	-602
▁叫	-603
过了	-604
住了	-605
就不	-606
▁孩	-607
▁哪里	-608
你说	-609
帮助	-610
很好	-611
找到	-612
▁洗	-613
外面	-614
▁的时候	-615
▁起来	-616
消息	-617
▁球	-618
的啊	-619
了起来	-620
学生	-621
喜欢看	-622
▁为什么	-623
▁我觉得	-624
我看	-625
你好啊	-626
冠军	-627
有些	-628
就在	-629
▁先	-630
不起	-631
三个	-632
决定	-633
▁而且	-634
一会儿	-635
进了	-636
是什么	-637
我不	-638
▁我是	-639
你看	-640
?""""	-641
也没	-642
▁不是	-643
子的	-644
害怕	-645
▁you	-646
当然	-647
我想	-648
企业	-649
直接	-650
年的	-651
技术	-652
努力	-653
▁喜欢	-654
▁阿姨	-655
下了	-656
成为	-657
进去	-658
球员	-659
相信	-660
总是	-661
二零一	-662
男孩	-663
听到	-664
多了	-665
来说	-666
能够	-667
肚子	-668
朋友们	-669
都有	-670
▁再见	-671
▁na	-672
不行	-673
实力	-674
回答	-675
那里	-676
ui	-677
哪里	-678
都在	-679
你也	-680
大了	-681
年轻	-682
▁不过	-683
参加	-684
只能	-685
弟弟	-686
十分	-687
吃的	-688
明白	-689
BA	-690
投资	-691
上去	-692
多少	-693
带着	-694
女儿	-695
▁hao	-696
刚才	-697
女孩	-698
▁出来	-699
▁自己	-700
坐在	-701
▁同	-702
▁手	-703
听了	-704
好好	-705
▁像	-706
!""""	-707
死了	-708
上面	-709
机会	-710
我都	-711
旁边	-712
▁你们	-713
回去	-714
说了	-715
几天	-716
▁本	-717
在一起	-718
来看	-719
▁太	-720
星星	-721
▁是呀	-722
也有	-723
奇怪	-724
兄弟	-725
赶紧	-726
▁等	-727
▁最	-728
和小	-729
哈哈哈	-730
怎么样	-731
就要	-732
的那个	-733
十二	-734
乌龟	-735
▁一下	-736
说话	-737
▁"*	-738
小白兔	-739
▁老	-740
me	-741
见了	-742
发布	-743
长的	-744
愿意	-745
▁呃	-746
▁对不对	-747
"",	-748
▁画	-749
下去	-750
蝴蝶	-751
体育	-752
部分	-753
让我	-754
健康	-755
刚刚	-756
▁飞机	-757
的事情	-758
一条	-759
的比赛	-760
一百	-761
聪明	-762
有一天	-763
极了	-764
就像	-765
▁wo	-766
小的	-767
经济	-768
还要	-769
很有	-770
▁坐	-771
球队	-772
▁花	-773
刺猬	-774
必须	-775
关于	-776
汽车	-777
是在	-778
回到	-779
清楚	-780
其中	-781
十五	-782
▁真的	-783
欢迎	-784
▁你也	-785
城市	-786
都没有	-787
他说	-788
安全	-789
各种	-790
eng	-791
电视剧	-792
小兔	-793
ian	-794
父亲	-795
根本	-796
通过	-797
萝卜	-798
房间	-799
."	-800
第二天	-801
很快	-802
可爱	-803
▁后来	-804
电话	-805
▁需要	-806
大学	-807
▁马	-808
一种	-809
路上	-810
那你	-811
忽然	-812
▁还是	-813
注意	-814
耳朵	-815
样的	-816
就可以	-817
种子	-818
目前	-819
对于	-820
颈鹿	-821
主要	-822
ong	-823
宝贝	-824
教育	-825
去看	-826
的好	-827
数据	-828
uai	-829
▁开	-830
▁这么	-831
保护	-832
显示	-833
还没	-834
选择	-835
妹妹	-836
完了	-837
▁de	-838
科技	-839
▁da	-840
在这	-841
▁弄	-842
昨天	-843
▁被	-844
长得	-845
▁zhe	-846
▁谢谢	-847
他就	-848
▁红	-849
翅膀	-850
一定要	-851
她们	-852
给他	-853
得到	-854
▁我也	-855
都很	-856
鼻子	-857
石头	-858
一块	-859
▁那你	-860
研究	-861
的那	-862
树上	-863
▁中	-864
▁睡觉	-865
▁哈	-866
▁每	-867
报道	-868
新的	-869
简直	-870
小老鼠	-871
他是	-872
▁二	-873
下的	-874
医院	-875
嘴巴	-876
不同	-877
只好	-878
社会	-879
桌子	-880
▁行	-881
小心	-882
▁四	-883
小猴	-884
变得	-885
山羊	-886
认识	-887
得了	-888
基本	-889
所有	-890
他在	-891
甚至	-892
小花	-893
日本	-894
高的	-895
场比赛	-896
▁别	-897
▁猪	-898
蜜蜂	-899
▁点	-900
增长	-901
垃圾	-902
就把	-903
看来	-904
能力	-905
吃了	-906
还在	-907
娃娃	-908
家的	-909
有了	-910
演的	-911
▁诶	-912
不太	-913
作为	-914
服务	-915
00	-916
价格	-917
成功	-918
接着	-919
▁男	-920
▁头	-921
除了	-922
所有的	-923
说是	-924
▁噢	-925
吃饭	-926
感到	-927
十一	-928
▁出	-929
动物们	-930
让人	-931
去找	-932
""。	-933
很喜欢	-934
大象	-935
休息	-936
站在	-937
食物	-938
前面	-939
放在	-940
经过	-941
小鸟	-942
了啊	-943
美丽的	-944
更多	-945
想要	-946
▁ai	-947
原因	-948
幸福	-949
▁张	-950
好吧	-951
森林里	-952
的声音	-953
了个	-954
疫情	-955
一刻	-956
事儿	-957
实在	-958
有没有	-959
▁你好啊	-960
期待	-961
木头	-962
也会	-963
演员	-964
还挺	-965
伙伴	-966
类的	-967
跟着	-968
▁qi	-969
日子	-970
状态	-971
的样子	-972
▁带	-973
▁并	-974
天天	-975
小猫	-976
产品	-977
],	-978
都要	-979
任何	-980
可惜	-981
▁倒	-982
明星	-983
进入	-984
不知	-985
一声	-986
▁ya	-987
▁这些	-988
▁书	-989
遇到	-990
公鸡	-991
▁跳	-992
不然	-993
北京	-994
▁地	-995
▁ta	-996
▁熊	-997
用的	-998
▁唉	-999
华为	-1000
大声	-1001
父母	-1002
是我	-1003
要求	-1004
行业	-1005
明天	-1006
离开	-1007
▁哦哦	-1008
了呢	-1009
五十	-1010
▁e	-1011
打开	-1012
早上	-1013
分享	-1014
对对	-1015
一步	-1016
不多	-1017
的吗	-1018
面前	-1019
整个	-1020
冬天	-1021
怎么办	-1022
▁全	-1023
一片	-1024
羽毛	-1025
给了	-1026
教练	-1027
本来	-1028
成绩	-1029
不想	-1030
把它	-1031
做的	-1032
更加	-1033
▁确实	-1034
段时间	-1035
正好	-1036
活动	-1037
两只	-1038
天空	-1039
母亲	-1040
说完	-1041
结束	-1042
不住	-1043
▁觉得	-1044
轻轻	-1045
如此	-1046
▁gei	-1047
会有	-1048
美元	-1049
历史	-1050
▁睡	-1051
喜欢的	-1052
月二十	-1053
哪儿	-1054
完全	-1055
▁颜色	-1056
掉了	-1057
春天	-1058
NBA	-1059
RE	-1060
▁以	-1061
资讯	-1062
支持	-1063
漂亮的	-1064
灰狼	-1065
国的	-1066
之间	-1067
▁大家	-1068
大家都	-1069
出来了	-1070
伤心	-1071
是谁	-1072
就能	-1073
担心	-1074
专业	-1075
运动员	-1076
没想到	-1077
▁ei	-1078
管理	-1079
满了	-1080
▁中国	-1081
▁好像	-1082
我知道	-1083
相关	-1084
是吧	-1085
笑着	-1086
第三	-1087
▁当然	-1088
小兔子	-1089
住在	-1090
兴趣	-1091
脑袋	-1092
礼物	-1093
不用	-1094
都没	-1095
那样	-1096
什么的	-1097
是啊	-1098
银行	-1099
西瓜	-1100
人民	-1101
悄悄	-1102
唱歌	-1103
很久	-1104
王子	-1105
节目	-1106
▁孩儿	-1107
▁帮	-1108
我去	-1109
▁这是	-1110
电脑	-1111
正常	-1112
如何	-1113
不错的	-1114
消费	-1115
▁没错	-1116
有很多	-1117
现在的	-1118
,[	-1119
▁皮	-1120
每次	-1121
网球	-1122
让他	-1123
真的很	-1124
还不	-1125
小松鼠	-1126
走到	-1127
阳光	-1128
下次	-1129
人员	-1130
竟然	-1131
我说	-1132
我也是	-1133
▁请	-1134
看的	-1135
你要	-1136
信息	-1137
你就	-1138
不管	-1139
面包	-1140
主要是	-1141
一年	-1142
20	-1143
乌鸦	-1144
训练	-1145
▁mei	-1146
句话	-1147
政策	-1148
财经	-1149
▁喝	-1150
方式	-1151
的新闻	-1152
挺好的	-1153
的家	-1154
精神	-1155
超级	-1156
▁kan	-1157
到底	-1158
游泳	-1159
好朋友	-1160
南方	-1161
▁七	-1162
不仅	-1163
▁五	-1164
一个小	-1165
四十	-1166
鸭子	-1167
笑了	-1168
▁lai	-1169
居然	-1170
一阵	-1171
九年	-1172
比如说	-1173
原来是	-1174
的呢	-1175
中医	-1176
▁好吧	-1177
跑到	-1178
▁也是	-1179
▁哎呀	-1180
件事	-1181
孩子们	-1182
同时	-1183
打球	-1184
▁上面	-1185
受伤	-1186
那边	-1187
▁高	-1188
无法	-1189
国内	-1190
真正	-1191
的那种	-1192
精彩	-1193
舒服	-1194
得很	-1195
简单	-1196
▁白	-1197
实现	-1198
太太	-1199
小姐	-1200
一千	-1201
在了	-1202
爱的	-1203
还能	-1204
妻子	-1205
出的	-1206
哪个	-1207
老人	-1208
根据	-1209
小狗	-1210
我在	-1211
自然	-1212
接受	-1213
视频	-1214
▁才	-1215
应该是	-1216
选手	-1217
坏了	-1218
永远	-1219
▁希望	-1220
不少	-1221
天上	-1222
▁可能	-1223
▁买	-1224
叶子	-1225
看不	-1226
从来	-1227
环境	-1228
由于	-1229
资金	-1230
还没有	-1231
好啊	-1232
别的	-1233
生日	-1234
蘑菇	-1235
不可	-1236
人都	-1237
河马	-1238
▁长颈鹿	-1239
▁回	-1240
▁宝宝	-1241
说着	-1242
学会	-1243
▁爬	-1244
我感觉	-1245
生命	-1246
▁几	-1247
使用	-1248
不是很	-1249
小狐狸	-1250
▁ao	-1251
▁新	-1252
门口	-1253
一位	-1254
压力	-1255
难道	-1256
是因为	-1257
▁nei	-1258
蛋糕	-1259
出来的	-1260
▁我也是	-1261
危险	-1262
无聊	-1263
▁车	-1264
▁耶	-1265
严重	-1266
获得	-1267
不敢	-1268
看到了	-1269
女排	-1270
▁据	-1271
▁告诉	-1272
基金	-1273
国际	-1274
一家	-1275
值得	-1276
坚持	-1277
蜗牛	-1278
你在	-1279
财经资讯	-1280
▁一点	-1281
▁老师	-1282
西安	-1283
适合	-1284
不一样	-1285
不断	-1286
音乐	-1287
位置	-1288
皇帝	-1289
系统	-1290
包括	-1291
道理	-1292
不停	-1293
说不	-1294
要去	-1295
大树	-1296
了一下	-1297
▁地方	-1298
味道	-1299
超过	-1300
立刻	-1301
▁shen	-1302
国足	-1303
▁嗯呢	-1304
就是说	-1305
也不知道	-1306
这么多	-1307
▁一起	-1308
▁最后	-1309
尤其	-1310
全部	-1311
天气	-1312
▁见	-1313
想着	-1314
答应	-1315
妈妈说	-1316
▁ne	-1317
▁是吗	-1318
估计	-1319
因此	-1320
起来了	-1321
怎样	-1322
着急	-1323
水平	-1324
帽子	-1325
生的	-1326
项目	-1327
人类	-1328
方便	-1329
蜘蛛	-1330
计划	-1331
算是	-1332
▁果	-1333
小猴子	-1334
心想	-1335
▁下来	-1336
中国的	-1337
▁十	-1338
优秀	-1339
出门	-1340
我现在	-1341
▁木头	-1342
你怎么	-1343
的花	-1344
月十	-1345
才是	-1346
这儿	-1347
树林	-1348
ua	-1349
▁咱们	-1350
让你	-1351
习惯	-1352
10	-1353
▁yao	-1354
▁最近	-1355
分钟	-1356
▁欢迎	-1357
吓得	-1358
地问	-1359
玩儿	-1360
那儿	-1361
听见	-1362
▁chi	-1363
▁f	-1364
曾经	-1365
改变	-1366
寻找	-1367
感谢	-1368
▁黄	-1369
这部电影	-1370
时代	-1371
介绍	-1372
心的	-1373
我还是	-1374
几年	-1375
▁这样子	-1376
▁嘿	-1377
增加	-1378
随着	-1379
拿着	-1380
还可以	-1381
差不多	-1382
你可以	-1383
智能	-1384
可怜	-1385
未来	-1386
▁桌子	-1387
赛季	-1388
哎呀	-1389
▁发生	-1390
躺在	-1391
▁一个	-1392
处理	-1393
▁hai	-1394
婆婆	-1395
的老	-1396
导致	-1397
lai	-1398
还会	-1399
存在	-1400
仔细	-1401
很大的	-1402
的一些	-1403
平台	-1404
不容易	-1405
乒乓	-1406
知识	-1407
主意	-1408
▁qu	-1409
第一次	-1410
动了	-1411
都能	-1412
麻烦	-1413
▁其中	-1414
头上	-1415
的心	-1416
一下子	-1417
小刺猬	-1418
网络	-1419
――	-1420
sh	-1421
出一	-1422
就说	-1423
随便	-1424
这只	-1425
二零一九年	-1426
内容	-1427
一定会	-1428
锻炼	-1429
的呀	-1430
发挥	-1431
那是	-1432
把他	-1433
▁小朋友	-1434
▁主人	-1435
谢谢你	-1436
多么	-1437
解决	-1438
▁为	-1439
▁jiu	-1440
网上	-1441
以及	-1442
你不	-1443
▁bi	-1444
说道	-1445
方法	-1446
▁哈哈哈哈	-1447
见过	-1448
梅西	-1449
▁饭	-1450
母鸡	-1451
了一只	-1452
点儿	-1453
树叶	-1454
属于	-1455
大王	-1456
▁虽然	-1457
恢复	-1458
河边	-1459
受到	-1460
急忙	-1461
全国	-1462
▁以后	-1463
的生活	-1464
叔叔	-1465
的就是	-1466
的时间	-1467
我有	-1468
▁抓	-1469
忘了	-1470
▁坏	-1471
英雄	-1472
跟我	-1473
就这样	-1474
建议	-1475
▁哥哥	-1476
送给	-1477
打的	-1478
月份	-1479
XXX	-1480
最好的	-1481
XXXXX	-1482
点点	-1483
从前	-1484
▁开始	-1485
行为	-1486
▁p	-1487
了好	-1488
下面	-1489
▁你知道	-1490
达到	-1491
一把	-1492
ma	-1493
无论	-1494
▁一样	-1495
以来	-1496
▁空	-1497
保持	-1498
小朋友	-1499
六十	-1500
粉丝	-1501
世界上	-1502
过去了	-1503
▁该	-1504
没错	-1505
队的	-1506
魔法	-1507
其他的	-1508
到处	-1509
对了	-1510
可怕	-1511
大灰狼	-1512
机构	-1513
一听	-1514
只见	-1515
▁于是	-1516
▁它们	-1517
我先	-1518
▁鱼	-1519
文章	-1520
了很多	-1521
星期	-1522
▁吓	-1523
见到	-1524
作用	-1525
普通	-1526
考虑	-1527
▁结果	-1528
进来	-1529
变成了	-1530
的这个	-1531
证券	-1532
▁圆	-1533
▁应该	-1534
▁我看	-1535
毛毛	-1536
池塘	-1537
▁接	-1538
你有	-1539
来到了	-1540
小时	-1541
并不	-1542
演技	-1543
羡慕	-1544
yi	-1545
的说	-1546
飞机	-1547
▁我的	-1548
忘记	-1549
自由	-1550
读书	-1551
播报	-1552
一口	-1553
从小	-1554
身子	-1555
每个	-1556
爱情	-1557
三百	-1558
还是很	-1559
比较喜欢	-1560
▁li	-1561
睡着	-1562
他想	-1563
没事	-1564
一场	-1565
▁南	-1566
我先走了	-1567
机器	-1568
▁菜	-1569
推荐	-1570
回来了	-1571
我可以	-1572
▁xiao	-1573
公公	-1574
对手	-1575
过程	-1576
不久	-1577
很大	-1578
名的	-1579
阿姨	-1580
跑了	-1581
鳄鱼	-1582
▁脚	-1583
美的	-1584
还好	-1585
玉米	-1586
那么多	-1587
上来	-1588
政府	-1589
底下	-1590
是真的	-1591
下降	-1592
我还有	-1593
精灵	-1594
全球	-1595
的手	-1596
金融	-1597
上市	-1598
一棵	-1599
头鹰	-1600
干什么	-1601
动作	-1602
另外	-1603
当中	-1604
嘟嘟	-1605
气球	-1606
▁房间	-1607
乒乓球	-1608
三点	-1609
我了	-1610
百姓	-1611
很难	-1612
▁ge	-1613
好像是	-1614
重新	-1615
▁这儿	-1616
夏天	-1617
牙齿	-1618
经历	-1619
不好意思	-1620
爸爸妈妈	-1621
职业	-1622
回事	-1623
赶快	-1624
▁事	-1625
也要	-1626
▁今年	-1627
完成	-1628
伯伯	-1629
洞里	-1630
打篮球	-1631
规模	-1632
▁r	-1633
现场	-1634
也就	-1635
看见了	-1636
▁摔	-1637
季度	-1638
▁医生	-1639
▁穿	-1640
偷偷	-1641
对方	-1642
微博	-1643
发出	-1644
干净	-1645
着小	-1646
然后就	-1647
巫婆	-1648
从此	-1649
我得	-1650
合作	-1651
是的	-1652
水里	-1653
▁zai	-1654
▁黑	-1655
打算	-1656
连忙	-1657
红的	-1658
胡子	-1659
厉害的	-1660
再也不	-1661
实际	-1662
也可以	-1663
你好呀	-1664
最大的	-1665
头发	-1666
力量	-1667
是有	-1668
小蚂蚁	-1669
邀请	-1670
去看看	-1671
善良	-1672
千万	-1673
方向	-1674
早就	-1675
椅子	-1676
树枝	-1677
行了	-1678
队伍	-1679
的电影	-1680
常常	-1681
▁你说	-1682
晚安	-1683
一会	-1684
上课	-1685
嘻嘻	-1686
床上	-1687
▁躲	-1688
业务	-1689
火车	-1690
▁吃饭	-1691
也不是	-1692
交易	-1693
更多的	-1694
幼儿	-1695
把我	-1696
和你	-1697
高兴地	-1698
▁种子	-1699
速度	-1700
▁反正	-1701
▁翻	-1702
哈喽	-1703
点评	-1704
▁感觉	-1705
也在	-1706
理解	-1707
去吧	-1708
▁di	-1709
控制	-1710
什么时候	-1711
▁朋友	-1712
球迷	-1713
结婚	-1714
嘴里	-1715
不在	-1716
代表	-1717
做了	-1718
微信	-1719
▁bao	-1720
报告	-1721
▁对对对	-1722
就有	-1723
渐渐	-1724
这个人	-1725
GRANDFATHER	-1726
八十	-1727
▁过来	-1728
分析	-1729
一大	-1730
很多人	-1731
▁嘛	-1732
。[	-1733
认真	-1734
▁已经	-1735
到这里	-1736
都市	-1737
九十	-1738
▁晚上	-1739
将军	-1740
▁加	-1741
不上	-1742
在您	-1743
带来	-1744
果然	-1745
uan	-1746
一切	-1747
左右	-1748
女生	-1749
脖子	-1750
这天	-1751
▁香	-1752
在这里	-1753
等等	-1754
小时候	-1755
▁要不要	-1756
娱乐	-1757
有时候	-1758
文化	-1759
调整	-1760
过的	-1761
或者是	-1762
怪物	-1763
提供	-1764
▁肯定	-1765
▁哭	-1766
五百	-1767
▁特别	-1768
力气	-1769
▁种	-1770
七十	-1771
▁那里	-1772
生产	-1773
似的	-1774
分别	-1775
乖乖	-1776
并没有	-1777
▁床	-1778
的歌	-1779
困难	-1780
四个	-1781
的问题	-1782
▁有一天	-1783
不喜欢	-1784
胡萝卜	-1785
小孩	-1786
▁原来	-1787
上涨	-1788
纷纷	-1789
尤其是	-1790
运会	-1791
功能	-1792
聊天	-1793
▁kuai	-1794
▁shuo	-1795
▁2	-1796
热点	-1797
葡萄	-1798
▁起	-1799
在您身边	-1800
勇敢	-1801
▁事情	-1802
▁外面	-1803
摇头	-1804
知道了	-1805
记者	-1806
你想	-1807
具体	-1808
下一	-1809
眼泪	-1810
我会	-1811
▁学	-1812
和我	-1813
想法	-1814
鞋子	-1815
我来	-1816
辛苦	-1817
可能是	-1818
上映	-1819
好吃	-1820
附近	-1821
非常的	-1822
个子	-1823
多久	-1824
风险	-1825
有一只	-1826
按照	-1827
兴奋	-1828
变化	-1829
的孩子	-1830
治疗	-1831
跟你	-1832
邻居	-1833
面对	-1834
感兴趣	-1835
你能	-1836
了下来	-1837
▁可不是	-1838
泡泡	-1839
收入	-1840
不如	-1841
警察	-1842
国外	-1843
就被	-1844
了出来	-1845
世界杯	-1846
你这	-1847
好看的	-1848
指数	-1849
▁听说	-1850
也不会	-1851
让我们	-1852
主任	-1853
国家的	-1854
▁八	-1855
两个人	-1856
就是这些	-1857
玻璃	-1858
镜子	-1859
找到了	-1860
导演	-1861
吸引	-1862
考试	-1863
不着	-1864
赢了	-1865
▁佩	-1866
股份	-1867
讨厌	-1868
叫做	-1869
很少	-1870
幼儿园	-1871
一件	-1872
鼹鼠	-1873
上海	-1874
这就是	-1875
我就是	-1876
提高	-1877
▁写	-1878
四点	-1879
性的	-1880
发现了	-1881
持续	-1882
妈妈的	-1883
温暖	-1884
病毒	-1885
长大	-1886
就没有	-1887
里面的	-1888
本领	-1889
▁变	-1890
等着	-1891
厨房	-1892
也太	-1893
支付	-1894
第一个	-1895
二零二零	-1896
得好	-1897
旅游	-1898
▁这次	-1899
倒是	-1900
好奇	-1901
的吧	-1902
那只	-1903
家庭	-1904
▁广	-1905
▁hua	-1906
卫生	-1907
对不起	-1908
▁牛	-1909
不动	-1910
▁衣服	-1911
两天	-1912
了嘛	-1913
软件	-1914
▁我想	-1915
得意	-1916
提升	-1917
都市报	-1918
边的	-1919
专门	-1920
销售	-1921
而已	-1922
南方都市报	-1923
一样的	-1924
▁前	-1925
花儿	-1926
▁你是	-1927
小小的	-1928
直到	-1929
老板	-1930
▁住	-1931
也许	-1932
大海	-1933
小姐姐	-1934
▁怎么样	-1935
▁成	-1936
上一	-1937
呵呵	-1938
▁目前	-1939
▁同比	-1940
什么呢	-1941
零点	-1942
踢球	-1943
他把	-1944
地里	-1945
还不错	-1946
麻雀	-1947
看起来	-1948
湖人	-1949
梦想	-1950
给我们	-1951
ing	-1952
地球	-1953
CA	-1954
帮忙	-1955
▁万	-1956
▁这种	-1957
▁更	-1958
使劲	-1959
鸡蛋	-1960
▁收	-1961
▁c	-1962
集团	-1963
增长百分之	-1964
玩具	-1965
说他	-1966
▁la	-1967
整天	-1968
望着	-1969
设计	-1970
▁孩名	-1971
并且	-1972
笨笨	-1973
▁洗澡	-1974
了几	-1975
决赛	-1976
走着	-1977
▁拍	-1978
▁此	-1979
既然	-1980
九点	-1981
可真	-1982
早晨	-1983
七点	-1984
又是	-1985
了我	-1986
▁截	-1987
中心	-1988
公交	-1989
明显	-1990
▁看来	-1991
▁外	-1992
首先	-1993
周围	-1994
少年	-1995
没看	-1996
螃蟹	-1997
交通	-1998
几乎	-1999
4!	-2000
的新	-2001
▁生气	-2002
宣布	-2003
▁佩奇	-2004
我记得	-2005
不说	-2006
▁下面	-2007
了一会儿	-2008
不见	-2009
一点儿	-2010
▁抱	-2011
▁房子	-2012
六点	-2013
KER	-2014
CARE	-2015
就好了	-2016
TAKER	-2017
CARETAKER	-2018
天下	-2019
白的	-2020
的情况	-2021
听说过	-2022
11	-2023
生病	-2024
找不到	-2025
今晚	-2026
口袋	-2027
电子	-2028
神奇	-2029
科学	-2030
▁che	-2031
▁总	-2032
剧情	-2033
大哥	-2034
不再	-2035
直播	-2036
都被	-2037
女人	-2038
也挺	-2039
失望	-2040
智慧	-2041
可能会	-2042
中间	-2043
有关	-2044
面上	-2045
▁下去	-2046
小鸡	-2047
没什么	-2048
▁正	-2049
在关注	-2050
有趣	-2051
规定	-2052
没办法	-2053
一头	-2054
家人	-2055
▁姐姐	-2056
一张	-2057
虫子	-2058
一颗	-2059
亿美元	-2060
韩国	-2061
我朋友	-2062
就很	-2063
FI	-2064
不及	-2065
之一	-2066
女主	-2067
小鱼	-2068
▁一直	-2069
联网	-2070
最喜欢	-2071
▁海	-2072
地区	-2073
玩的	-2074
伙伴们	-2075
▁你看	-2076
相当	-2077
负责	-2078
这件事	-2079
▁棒	-2080
对啊	-2081
有多	-2082
▁一定	-2083
小黑	-2084
小青蛙	-2085
不小心	-2086
意义	-2087
条件	-2088
也能	-2089
八点	-2090
笑着说	-2091
平常	-2092
是这样	-2093
的故事点评	-2094
飞到	-2095
屁股	-2096
才会	-2097
也不能	-2098
重要的	-2099
▁六	-2100
在地上	-2101
ED	-2102
口气	-2103
想去	-2104
感情	-2105
那时候	-2106
旅行	-2107
激动	-2108
家伙	-2109
果子	-2110
一根	-2111
依然	-2112
▁回来	-2113
ID	-2114
都可以	-2115
哭了	-2116
年纪	-2117
价值	-2118
绝对	-2119
绿色	-2120
我之前	-2121
放弃	-2122
他又	-2123
窗户	-2124
▁却	-2125
联赛	-2126
真实	-2127
照片	-2128
▁垃圾	-2129
就开始	-2130
伤害	-2131
▁们	-2132
因为他	-2133
真的太	-2134
上学	-2135
草地上	-2136
车来了	-2137
▁关	-2138
有一次	-2139
成的	-2140
放心	-2141
在一个	-2142
▁比	-2143
场上	-2144
类型	-2145
是怎么	-2146
小羊	-2147
那就	-2148
▁往	-2149
che	-2150
▁wan	-2151
目标	-2152
不可以	-2153
公司的	-2154
。"""	-2155
呼呼	-2156
▁将	-2157
▁怕	-2158
这部剧	-2159
空中	-2160
的感觉	-2161
一座	-2162
▁恩	-2163
了一些	-2164
别人的	-2165
厉害了	-2166
年轻人	-2167
他俩	-2168
而是	-2169
?"	-2170
秘密	-2171
跳舞	-2172
▁有一次	-2173
抓住	-2174
河里	-2175
对着	-2176
连续	-2177
广播	-2178
UN	-2179
试试	-2180
那天	-2181
在家	-2182
的水	-2183
观众	-2184
是很	-2185
EN	-2186
下车	-2187
▁不知道	-2188
恒大	-2189
基本上	-2190
上班	-2191
年龄	-2192
男主	-2193
园里	-2194
大概	-2195
▁只要	-2196
之类的	-2197
你喜欢	-2198
▁出去	-2199
出现了	-2200
我这	-2201
老头	-2202
需求	-2203
▁刚才	-2204
▁第二	-2205
▁进去	-2206
ENTI	-2207
FIED	-2208
UNID	-2209
ENTIFIED	-2210
UNIDENTIFIED	-2211
城堡	-2212
想想	-2213
对他	-2214
这位	-2215
了他	-2216
热闹	-2217
山上	-2218
帮我	-2219
这下	-2220
马拉	-2221
行动	-2222
会不会	-2223
三年	-2224
现实	-2225
》,	-2226
大叫	-2227
骄傲	-2228
二零二零年	-2229
瓶子	-2230
太好了	-2231
]。	-2232
名叫	-2233
问道	-2234
▁拼	-2235
不出	-2236
手道	-2237
▁非常	-2238
传说	-2239
孔雀	-2240
紧张	-2241
错了	-2242
▁对于	-2243
基础	-2244
白兔	-2245
CBA	-2246
期间	-2247
▁zuo	-2248
产生	-2249
它是	-2250
▁我就	-2251
有一些	-2252
制造	-2253
▁楼	-2254
刚好	-2255
这篇	-2256
毛毛虫	-2257
▁后	-2258
▁自	-2259
互相	-2260
穿着	-2261
LA	-2262
▁爱	-2263
一定是	-2264
肯定是	-2265
好久	-2266
你知道吗	-2267
▁喂	-2268
的嘛	-2269
脸上	-2270
远远	-2271
对吧	-2272
到时候	-2273
明白了	-2274
再次	-2275
▁猫咪	-2276
回家了	-2277
醒了	-2278
互联网	-2279
zi	-2280
▁哼	-2281
后的	-2282
▁空手道	-2283
手里	-2284
草丛	-2285
你了	-2286
眼前	-2287
猎人	-2288
甜甜	-2289
一直在	-2290
LATI	-2291
LATIVE	-2292
RELATIVE	-2293
丈夫	-2294
睡着了	-2295
发了	-2296
客气	-2297
球赛	-2298
走去	-2299
悄悄地	-2300
大人	-2301
强的	-2302
玫瑰	-2303
吃掉	-2304
姐妹	-2305
you	-2306
怎么会	-2307
说明	-2308
怎么说	-2309
两千	-2310
▁弟弟	-2311
▁美国	-2312
事件	-2313
你去	-2314
难过	-2315
▁进	-2316
块钱	-2317
效果	-2318
但是我	-2319
组织	-2320
▁我要	-2321
在这个	-2322
还是挺	-2323
他还	-2324
▁shang	-2325
▁办	-2326
立即	-2327
退役	-2328
产业	-2329
高中	-2330
彩虹	-2331
和他	-2332
火箭	-2333
照顾	-2334
练习	-2335
解释	-2336
然而	-2337
股票	-2338
队员	-2339
袋鼠	-2340
买了	-2341
即使	-2342
远处	-2343
站了	-2344
白天	-2345
▁死	-2346
发生了	-2347
安静	-2348
满意	-2349
没有人	-2350
新闻啊	-2351
每个人	-2352
▁nar	-2353
田鼠	-2354
慢慢地	-2355
下午	-2356
资产	-2357
去年	-2358
秋天	-2359
最终	-2360
草莓	-2361
▁我知道	-2362
▁遍	-2363
呜呜	-2364
是不	-2365
树下	-2366
安排	-2367
调查	-2368
快地	-2369
表演	-2370
这个电影	-2371
把小	-2372
稳定	-2373
▁发现	-2374
▁当时	-2375
我喜欢	-2376
▁蓝	-2377
半天	-2378
▁厉害	-2379
综艺	-2380
看了看	-2381
刺激	-2382
qi	-2383
空气	-2384
--""	-2385
▁与	-2386
板块	-2387
话说	-2388
鸟儿	-2389
仍然	-2390
建设	-2391
▁小心	-2392
离开了	-2393
一个大	-2394
资本	-2395
媒体	-2396
好听	-2397
就没	-2398
不见了	-2399
一群	-2400
再说	-2401
燕子	-2402
▁jiao	-2403
我能	-2404
公开	-2405
仙女	-2406
部电影	-2407
半年	-2408
好吗	-2409
欺负	-2410
博士	-2411
屋里	-2412
▁dou	-2413
往前	-2414
▁站	-2415
走路	-2416
奥运会	-2417
ba	-2418
两人	-2419
懂得	-2420
经验	-2421
似乎	-2422
你会	-2423
八年	-2424
期的	-2425
累了	-2426
▁zen	-2427
▁山	-2428
▁羊	-2429
用户	-2430
▁吵	-2431
数据显示	-2432
想起	-2433
请问	-2434
便宜	-2435
跳跳	-2436
进步	-2437
都说	-2438
发行	-2439
拥有	-2440
消失	-2441
住着	-2442
部门	-2443
▁美	-2444
想了	-2445
熬夜	-2446
▁嗨	-2447
拿出	-2448
客人	-2449
搞笑	-2450
眼镜	-2451
小朋友们	-2452
醒来	-2453
同意	-2454
帮你	-2455
男人	-2456
角色	-2457
特别的	-2458
长长的	-2459
一夜	-2460
ianr	-2461
可不是	-2462
差点	-2463
是一种	-2464
的表现	-2465
最好	-2466
老爷爷	-2467
▁搭	-2468
接触	-2469
最高	-2470
跑步	-2471
▁害怕	-2472
这时候	-2473
毕业	-2474
的了	-2475
不去	-2476
减少	-2477
心情	-2478
真正的	-2479
二百	-2480
惊讶	-2481
感动	-2482
▁对的	-2483
不停地	-2484
我家	-2485
预计	-2486
19	-2487
绳子	-2488
不开	-2489
作品	-2490
▁好多	-2491
▁问	-2492
有所	-2493
▁看见	-2494
回了	-2495
男篮	-2496
力的	-2497
小象	-2498
屋子	-2499
▁那是	-2500
不够	-2501
新官	-2502
什么事	-2503
方面的	-2504
二点	-2505
传来	-2506
轻松	-2507
做好	-2508
陕西	-2509
多多	-2510
利润	-2511
利用	-2512
在地	-2513
在大	-2514
太多	-2515
胖胖	-2516
贝贝	-2517
这么说	-2518
人了	-2519
到的	-2520
来自	-2521
姆斯	-2522
怪兽	-2523
阅读	-2524
大笑	-2525
就去	-2526
观察	-2527
长颈鹿	-2528
跑去	-2529
投资者	-2530
▁动	-2531
重点	-2532
▁太阳	-2533
您的	-2534
情绪	-2535
开放	-2536
▁后面	-2537
bao	-2538
怎么了	-2539
英国	-2540
身上的	-2541
还是要	-2542
尽管	-2543
我很	-2544
网友	-2545
▁门	-2546
收听	-2547
▁zou	-2548
忍不住	-2549
保证	-2550
咪咪	-2551
地的	-2552
抱着	-2553
最近的	-2554
南方都市报播报	-2555
员工	-2556
呼噜	-2557
▁王	-2558
他一	-2559
▁擦	-2560
我没有	-2561
四百	-2562
夜里	-2563
提醒	-2564
到站了	-2565
zh	-2566
不聊	-2567
乔治	-2568
并不是	-2569
一起去	-2570
▁其	-2571
▁次	-2572
正是	-2573
标准	-2574
质量	-2575
▁哎哟	-2576
干嘛	-2577
举行	-2578
女孩子	-2579
享受	-2580
长大了	-2581
了呀	-2582
▁好了	-2583
在小	-2584
▁he	-2585
▁就是啊	-2586
满足	-2587
▁ye	-2588
▁甚至	-2589
再见吧	-2590
主播	-2591
感染	-2592
很厉害	-2593
向前	-2594
这条	-2595
▁从前	-2596
▁图	-2597
关键	-2598
唯一	-2599
措施	-2600
▁以前	-2601
反而	-2602
操作	-2603
没人	-2604
输了	-2605
▁妹妹	-2606
回头	-2607
这边	-2608
的眼睛	-2609
▁踢	-2610
心理	-2611
▁时候	-2612
偶尔	-2613
▁声	-2614
外国	-2615
▁昨天	-2616
▁hui	-2617
下雨	-2618
任务	-2619
一个个	-2620
印度	-2621
听过	-2622
就算	-2623
圆圆	-2624
们都	-2625
是吗	-2626
▁干嘛	-2627
你还	-2628
患者	-2629
▁zher	-2630
巴巴	-2631
的高	-2632
▁不要	-2633
偶像	-2634
肺炎	-2635
愿望	-2636
把你	-2637
背上	-2638
广播剧	-2639
故意	-2640
▁雪	-2641
农夫	-2642
在一	-2643
救命	-2644
破了	-2645
▁九	-2646
人生	-2647
影子	-2648
我对	-2649
▁漂亮	-2650
早知道	-2651
作业	-2652
检查	-2653
老婆	-2654
至于	-2655
亲爱的	-2656
喜鹊	-2657
▁那些	-2658
确实是	-2659
人说	-2660
正式	-2661
羽毛球	-2662
▁eng	-2663
▁wu	-2664
轻轻地	-2665
不像	-2666
▁根据	-2667
一万	-2668
气的	-2669
浑身	-2670
加油	-2671
用了	-2672
▁玩具	-2673
把自己	-2674
三天	-2675
利率	-2676
大叔	-2677
辈子	-2678
▁好吃	-2679
真好	-2680
计算	-2681
责任	-2682
▁人家	-2683
小鸭	-2684
散步	-2685
明明	-2686
竞争	-2687
联系	-2688
就是那个	-2689
不懂	-2690
创业	-2691
拿起	-2692
▁煮	-2693
皮皮	-2694
叫着	-2695
看得	-2696
巴萨	-2697
▁孩子	-2698
有意思	-2699
▁他的	-2700
皇马	-2701
加入	-2702
▁眼睛	-2703
▁第	-2704
不怕	-2705
以上	-2706
生物	-2707
进一步	-2708
▁就是说	-2709
是你	-2710
的地	-2711
▁各	-2712
至少	-2713
豆豆	-2714
小动物们	-2715
▁狗狗	-2716
啥的	-2717
家长	-2718
桃子	-2719
球星	-2720
▁小熊	-2721
剩下	-2722
阶段	-2723
热点财经资讯	-2724
师傅	-2725
讲故事	-2726
蔬菜	-2727
▁对了	-2728
货币	-2729
▁男孩	-2730
你说的	-2731
▁摆	-2732
恐怖	-2733
▁每天	-2734
全身	-2735
感冒	-2736
招呼	-2737
▁红色	-2738
▁这一刻	-2739
或许	-2740
采访	-2741
▁打翻	-2742
不可能	-2743
公布	-2744
系列	-2745
▁生活	-2746
小花猫	-2747
想象	-2748
确定	-2749
太多了	-2750
小女孩	-2751
不足	-2752
人物	-2753
合适	-2754
难受	-2755
▁奶奶	-2756
长时间	-2757
很多的	-2758
▁装	-2759
体验	-2760
农民	-2761
医疗	-2762
地产	-2763
拿到	-2764
这场比赛	-2765
打了	-2766
▁或者	-2767
詹姆斯	-2768
皮肤	-2769
▁椅子	-2770
小姑娘	-2771
▁bie	-2772
留下	-2773
2!	-2774
南瓜	-2775
领域	-2776
好几	-2777
风吹	-2778
▁会不会	-2779
命令	-2780
紧紧	-2781
贷款	-2782
证明	-2783
▁盖	-2784
态度	-2785
成长	-2786
死的	-2787
一起玩	-2788
夜晚	-2789
▁换	-2790
恐龙	-2791
意识	-2792
▁突然	-2793
▁国	-2794
他对	-2795
▁dao	-2796
痛苦	-2797
▁这一	-2798
真的好	-2799
个月	-2800
接下来	-2801
说不定	-2802
着头	-2803
▁之前	-2804
回答说	-2805
我们要	-2806
想的	-2807
印象	-2808
▁金	-2809
他不	-2810
的主	-2811
▁果实	-2812
▁为了	-2813
抬头	-2814
黑熊	-2815
▁对对	-2816
▁这时	-2817
中午	-2818
三千	-2819
跟他	-2820
▁嘿嘿	-2821
亲自	-2822
12	-2823
这不是	-2824
▁您	-2825
▁牠	-2826
里边	-2827
之下	-2828
▁洞	-2829
公众	-2830
所谓	-2831
意见	-2832
你们的	-2833
口罩	-2834
一部	-2835
我可	-2836
就是一个	-2837
▁近	-2838
来着	-2839
熟悉	-2840
▁小孩	-2841
买的	-2842
共同	-2843
欧洲	-2844
童话	-2845
一动	-2846
亮的	-2847
姚明	-2848
小男孩	-2849
人士	-2850
据说	-2851
明年	-2852
蜂蜜	-2853
走吧	-2854
我把	-2855
这个故事	-2856
地对	-2857
落在	-2858
躲在	-2859
小鹿	-2860
大大的	-2861
大熊	-2862
钢琴	-2863
开始了	-2864
我最近	-2865
▁汤	-2866
他也	-2867
优势	-2868
植物	-2869
做什么	-2870
盒子	-2871
红色的	-2872
▁河	-2873
教授	-2874
还得	-2875
猫头鹰	-2876
她说	-2877
居民	-2878
必要	-2879
有钱	-2880
为什么要	-2881
一说	-2882
叫声	-2883
▁皮球	-2884
保险	-2885
口水	-2886
拉着	-2887
老大	-2888
▁无	-2889
广州	-2890
要不	-2891
城里	-2892
女子	-2893
请你	-2894
机器人	-2895
安慰	-2896
联盟	-2897
喜马拉	-2898
喜马拉雅	-2899
▁李	-2900
糖果	-2901
角落	-2902
这才	-2903
▁同时	-2904
▁咦	-2905
▁笑	-2906
我我	-2907
走进	-2908
就不会	-2909
之外	-2910
令人	-2911
十年	-2912
品牌	-2913
拼命	-2914
积极	-2915
什么东西	-2916
百分之十	-2917
引起	-2918
心中	-2919
创造	-2920
时刻	-2921
你这个	-2922
▁页	-2923
上次	-2924
蛤蟆	-2925
▁xing	-2926
两年	-2927
记录	-2928
!"""	-2929
▁截至	-2930
我没	-2931
空间	-2932
被人	-2933
了一条	-2934
▁你好呀	-2935
哪些	-2936
黄金	-2937
土地	-2938
脾气	-2939
▁姊	-2940
在这儿	-2941
我才	-2942
流浪	-2943
▁之后	-2944
另一个	-2945
一日	-2946
劳动	-2947
的一种	-2948
听听	-2949
工具	-2950
转身	-2951
大部分	-2952
这样啊	-2953
在我	-2954
定的	-2955
如今	-2956
水果	-2957
没了	-2958
▁所以说	-2959
小说	-2960
数字	-2961
公园	-2962
团队	-2963
那一	-2964
巨大的	-2965
▁快点	-2966
▁都是	-2967
我怎么	-2968
不一会儿	-2969
▁你也在看	-2970
一刻再见吧	-2971
等到	-2972
玩游戏	-2973
利亚	-2974
小米	-2975
就想	-2976
指着	-2977
一起来	-2978
让他们	-2979
功夫	-2980
发展的	-2981
▁发	-2982
一路	-2983
听着	-2984
培训	-2985
很不	-2986
还有一个	-2987
▁强	-2988
的意思	-2989
很远	-2990
如果你	-2991
的风	-2992
▁只有	-2993
儿童	-2994
在那里	-2995
男朋友	-2996
更多财经资讯	-2997
勇士	-2998
参与	-2999
大臣	-3000
背后	-3001
▁回家	-3002
反应	-3003
圣诞	-3004
工资	-3005
时期	-3006
玩了	-3007
呼吸	-3008
实施	-3009
是最	-3010
爬到	-3011
作者	-3012
我只	-3013
树林里	-3014
刚开始	-3015
能不能	-3016
五点	-3017
梅花	-3018
▁那就	-3019
我们就	-3020
本身	-3021
深圳	-3022
告诉你	-3023
开门	-3024
给她	-3025
有空	-3026
跑得	-3027
夫妻	-3028
罗斯	-3029
说什么	-3030
▁奥	-3031
加上	-3032
失败	-3033
意外	-3034
这不	-3035
给大家	-3036
迅速	-3037
回聊	-3038
涨停	-3039
的对	-3040
排名	-3041
▁老鼠	-3042
实在是	-3043
创新	-3044
坐车	-3045
失误	-3046
拿了	-3047
经营	-3048
万元	-3049
五年	-3050
香港	-3051
男子	-3052
胜利	-3053
提前	-3054
▁动物	-3055
▁兔子	-3056
▁干么	-3057
▁我在	-3058
我还有事	-3059
▁打开	-3060
数量	-3061
有时	-3062
来找	-3063
喊道	-3064
▁比如	-3065
▁小朋友们	-3066
一眼	-3067
最大	-3068
花的	-3069
▁到处	-3070
▁比较	-3071
你呢	-3072
杀了	-3073
没有什么	-3074
▁青	-3075
是他	-3076
配合	-3077
食品	-3078
的原因	-3079
一朵	-3080
当地	-3081
骨头	-3082
伙子	-3083
咖啡	-3084
在哪里	-3085
草原	-3086
错误	-3087
觉得自己	-3088
沙发	-3089
蚊子	-3090
▁扔	-3091
外婆	-3092
时的	-3093
曼联	-3094
在他	-3095
很好的	-3096
面的	-3097
▁来自	-3098
▁狮子	-3099
粮食	-3100
不同的	-3101
▁敢	-3102
出生	-3103
现象	-3104
被子	-3105
香味	-3106
主动	-3107
台上	-3108
学的	-3109
广告	-3110
男生	-3111
累计	-3112
▁拉	-3113
断了	-3114
统计	-3115
做到	-3116
人民币	-3117
▁xia	-3118
▁养	-3119
裙子	-3120
▁第二天	-3121
上前	-3122
减肥	-3123
觉得很	-3124
▁这样啊	-3125
一号	-3126
艺术	-3127
六百	-3128
周末	-3129
商业	-3130
花瓣	-3131
更好的	-3132
去的	-3133
乐乐	-3134
山坡	-3135
▁一些	-3136
小乌龟	-3137
▁比如说	-3138
▁乱	-3139
相比	-3140
绿色的	-3141
更新	-3142
快递	-3143
生意	-3144
也好	-3145
决心	-3146
通知	-3147
大伙	-3148
我一	-3149
爪子	-3150
伸出	-3151
记住	-3152
孩子的	-3153
足球比赛	-3154
那个时候	-3155
▁教	-3156
▁时	-3157
大地	-3158
战争	-3159
热情	-3160
实话	-3161
快要	-3162
斯拉	-3163
▁热点财经资讯	-3164
那我	-3165
说过	-3166
获得了	-3167
▁wanr	-3168
之中	-3169
人在	-3170
多数	-3171
挂在	-3172
用手	-3173
百分之二十	-3174
把这	-3175
模样	-3176
碰到	-3177
不聊了	-3178
叫什么	-3179
因素	-3180
点头	-3181
快点	-3182
排球	-3183
病例	-3184
评论	-3185
回到家	-3186
IS	-3187
▁兔	-3188
最近有	-3189
就和	-3190
是否	-3191
五个	-3192
小灰	-3193
欣赏	-3194
程度	-3195
红色	-3196
联合	-3197
资源	-3198
打着	-3199
更是	-3200
蹦蹦	-3201
▁没关系	-3202
检测	-3203
这可	-3204
▁姊姊	-3205
在家里	-3206
有机会	-3207
女的	-3208
改革	-3209
▁贴	-3210
新鲜	-3211
贵的	-3212
下来了	-3213
每天都	-3214
on	-3215
来得	-3216
▁是吧	-3217
▁看到	-3218
喷嚏	-3219
小黄	-3220
整体	-3221
真的是太	-3222
礼貌	-3223
▁第一	-3224
实际上	-3225
全是	-3226
更好	-3227
洗澡	-3228
设备	-3229
百分之零点	-3230
的不	-3231
羊羊	-3232
送到	-3233
▁记得	-3234
▁痛	-3235
俱乐	-3236
不说了	-3237
▁你好你好	-3238
▁嘞	-3239
家族	-3240
▁西安	-3241
干活	-3242
建立	-3243
究竟	-3244
身份	-3245
造成	-3246
飞行	-3247
▁毕竟	-3248
俱乐部	-3249
肯定会	-3250
▁你也在关注	-3251
处于	-3252
奇妙	-3253
张开	-3254
方的	-3255
法律	-3256
玩耍	-3257
特别喜欢	-3258
初中	-3259
心地	-3260
和尚	-3261
打得	-3262
三只	-3263
四周	-3264
他就是	-3265
动漫	-3266
后悔	-3267
呱呱	-3268
用来	-3269
▁摸	-3270
不来	-3271
等待	-3272
▁乖乖	-3273
▁哪儿	-3274
办公	-3275
去做	-3276
▁杯	-3277
的头	-3278
道歉	-3279
队友	-3280
一点点	-3281
可爱的	-3282
好吃的	-3283
▁dong	-3284
特别是	-3285
风筝	-3286
▁南都	-3287
出一个	-3288
▁铺	-3289
人啊	-3290
思想	-3291
挑战	-3292
的日子	-3293
▁哟	-3294
带领	-3295
不错啊	-3296
了一大	-3297
叫起来	-3298
一名	-3299
去买	-3300
我一直	-3301
真是太	-3302
啦啦	-3303
逐渐	-3304
▁送	-3305
▁钱	-3306
也都	-3307
咚咚	-3308
执行	-3309
每年	-3310
告诉我	-3311
▁你这是	-3312
概念	-3313
巧克	-3314
长了	-3315
再聊	-3316
的路	-3317
青年	-3318
驾驶	-3319
小蜜蜂	-3320
生活中	-3321
的发展	-3322
培养	-3323
成熟	-3324
我和	-3325
武汉	-3326
闪闪	-3327
业绩	-3328
会上	-3329
对呀	-3330
用力	-3331
▁些	-3332
放下	-3333
是要	-3334
当年	-3335
▁除了	-3336
距离	-3337
长期	-3338
问他	-3339
▁昂	-3340
十八	-3341
巨人	-3342
是呀	-3343
点点头	-3344
感受	-3345
路过	-3346
打电话	-3347
▁有时候	-3348
人间	-3349
关心	-3350
往往	-3351
菲菲	-3352
▁身	-3353
快的	-3354
牡丹	-3355
范围	-3356
▁照	-3357
司机	-3358
针对	-3359
出现在	-3360
的一声	-3361
踢足球	-3362
八百	-3363
具有	-3364
四处	-3365
大婶	-3366
背着	-3367
他们在	-3368
广东	-3369
自行	-3370
就好	-3371
你觉得	-3372
怎么能	-3373
▁报	-3374
股价	-3375
顶上	-3376
就是在	-3377
箱子	-3378
说说	-3379
▁一天	-3380
不但	-3381
咕噜	-3382
商量	-3383
少了	-3384
苍蝇	-3385
怎么办呢	-3386
传统	-3387
动画	-3388
的美	-3389
遗憾	-3390
重的	-3391
▁终于	-3392
▁转	-3393
花园	-3394
▁一边	-3395
▁huai	-3396
制作	-3397
多年	-3398
老爷	-3399
老鹰	-3400
领导	-3401
受不了	-3402
喇叭	-3403
她就	-3404
提出	-3405
显得	-3406
告诉了	-3407
雪花	-3408
▁乔治	-3409
摇摇头	-3410
▁样	-3411
及时	-3412
晚饭	-3413
王后	-3414
▁好啊	-3415
▁有些	-3416
▁没事	-3417
▁狐狸	-3418
各种各	-3419
的小朋友	-3420
前的	-3421
形状	-3422
收拾	-3423
▁很多	-3424
名医	-3425
涨幅	-3426
饿了	-3427
鼓励	-3428
▁我还	-3429
地看着	-3430
无人	-3431
疾病	-3432
巧克力	-3433
没关系	-3434
他要	-3435
拒绝	-3436
症状	-3437
qu	-3438
起床	-3439
▁玩儿	-3440
答应了	-3441
整整	-3442
▁干吗	-3443
要不然	-3444
腾讯	-3445
你自己	-3446
▁这一刻就是这些	-3447
他和	-3448
▁这边	-3449
打游戏	-3450
跟你说	-3451
▁七点	-3452
小树	-3453
重视	-3454
因为我	-3455
上帝	-3456
倒了	-3457
厕所	-3458
保障	-3459
IST	-3460
SIST	-3461
SISTER	-3462
看好	-3463
in	-3464
举办	-3465
全都	-3466
市值	-3467
明确	-3468
是我的	-3469
怀疑	-3470
想吃	-3471
成本	-3472
有限	-3473
量的	-3474
▁狗儿	-3475
在里面	-3476
▁藏	-3477
不大	-3478
身后	-3479
预告	-3480
▁戴	-3481
严格	-3482
很高	-3483
思考	-3484
留言	-3485
白云	-3486
满满	-3487
相对	-3488
自从	-3489
▁西	-3490
们的	-3491
士兵	-3492
媳妇	-3493
▁光	-3494
丰富	-3495
给你们	-3496
点了	-3497
运气	-3498
出了一	-3499
内心	-3500
购买	-3501
都不知道	-3502
▁朵	-3503
取得	-3504
小学	-3505
▁的话	-3506
的朋友	-3507
都不会	-3508
听到了	-3509
子上	-3510
讨论	-3511
调皮	-3512
▁是嘛	-3513
你看了	-3514
有一种	-3515
▁卡	-3516
一想	-3517
王国	-3518
▁只是	-3519
每一个	-3520
岁的	-3521
盯着	-3522
绿的	-3523
▁蜘蛛	-3524
的名字	-3525
给他们	-3526
高兴地说	-3527
原谅	-3528
大大	-3529
爱好	-3530
▁gan	-3531
再也	-3532
惊喜	-3533
白白	-3534
开发	-3535
牛奶	-3536
▁我们下	-3537
▁咬	-3538
汪汪	-3539
▁过去	-3540
微笑	-3541
收益	-3542
就行了	-3543
▁七点早知道	-3544
▁公	-3545
狠狠	-3546
股东	-3547
飞来	-3548
▁时间	-3549
▁巴	-3550
坐吧	-3551
三号	-3552
▁xie	-3553
当初	-3554
爬上	-3555
自动	-3556
也是很	-3557
宿舍	-3558
得多	-3559
▁我感觉	-3560
▁生	-3561
两百	-3562
地把	-3563
移动	-3564
龙王	-3565
▁声音	-3566
比较多	-3567
▁心	-3568
▁游泳	-3569
1!	-3570
到现在	-3571
▁我记得	-3572
给它	-3573
进球	-3574
▁旁边	-3575
▁蜜蜂	-3576
我不是	-3577
表达	-3578
首歌	-3579
他自己	-3580
老奶奶	-3581
》。	-3582
小小	-3583
称为	-3584
可不	-3585
独自	-3586
运营	-3587
难以	-3588
挺喜欢	-3589
成就	-3590
的树	-3591
会议	-3592
商品	-3593
小红	-3594
方案	-3595
回到了	-3596
想了想	-3597
▁你平时	-3598
就是因为	-3599
电动	-3600
高了	-3601
嘿嘿	-3602
天鹅	-3603
野猪	-3604
一个月	-3605
▁破	-3606
▁祝	-3607
吃过	-3608
进攻	-3609
青春	-3610
▁也许	-3611
▁亲	-3612
人才	-3613
双手	-3614
魔鬼	-3615
),	-3616
▁安	-3617
小了	-3618
火的	-3619
的脚	-3620
事业	-3621
亚洲	-3622
同样	-3623
都已经	-3624
个好	-3625
夺冠	-3626
实验	-3627
斑马	-3628
我自己	-3629
▁翅膀	-3630
中国队	-3631
▁deng	-3632
承认	-3633
▁好好	-3634
▁有点	-3635
▁dai	-3636
▁假	-3637
上有	-3638
强大	-3639
篮子	-3640
大家的	-3641
光了	-3642
尊重	-3643
眼里	-3644
兔妈妈	-3645
难了	-3646
▁就像	-3647
你也是	-3648
给自己	-3649
这一天	-3650
角度	-3651
走出	-3652
集中	-3653
告诉我们	-3654
怎么回事	-3655
▁班	-3656
南都	-3657
将会	-3658
啄木	-3659
外援	-3660
神仙	-3661
神秘	-3662
顿时	-3663
它就	-3664
▁em	-3665
白色的	-3666
飞走了	-3667
▁早	-3668
七八	-3669
坐着	-3670
形象	-3671
敌人	-3672
舌头	-3673
小动物	-3674
特斯拉	-3675
▁kai	-3676
穿上	-3677
评价	-3678
从来没有	-3679
德在您身边	-3680
▁陪	-3681
宝石	-3682
洋洋	-3683
犯罪	-3684
就是他	-3685
一十	-3686
嘲笑	-3687
学院	-3688
车上	-3689
之间的	-3690
新闻吗	-3691
的事儿	-3692
为他	-3693
糊涂	-3694
▁肚子	-3695
房地产	-3696
还是有	-3697
长着	-3698
预期	-3699
今天的	-3700
叫道	-3701
各自	-3702
英语	-3703
厉害啊	-3704
死亡	-3705
激烈	-3706
这场	-3707
不让	-3708
傻瓜	-3709
哎哟	-3710
鲜花	-3711
什么呀	-3712
是我们	-3713
院子里	-3714
▁妈	-3715
专家	-3716
鲨鱼	-3717
一开始	-3718
很高兴	-3719
▁好吗	-3720
▁脸	-3721
不吃	-3722
美味	-3723
啄木鸟	-3724
▁这就是	-3725
利的	-3726
平均	-3727
街上	-3728
▁北	-3729
发明	-3730
在水	-3731
经典	-3732
能源	-3733
融资	-3734
这件	-3735
▁瓶子	-3736
在那	-3737
孤独	-3738
数学	-3739
病人	-3740
营养	-3741
防控	-3742
女朋友	-3743
所以说	-3744
的这种	-3745
▁口	-3746
夫人	-3747
▁刚刚	-3748
一人	-3749
监管	-3750
看完	-3751
零一夜	-3752
yang	-3753
七百	-3754
也被	-3755
会的	-3756
我最	-3757
无数	-3758
▁药	-3759
三月	-3760
瞬间	-3761
▁俩	-3762
▁鸟	-3763
五月	-3764
否则	-3765
外的	-3766
怀里	-3767
确诊	-3768
▁马上	-3769
中央	-3770
佩服	-3771
走来	-3772
避免	-3773
里有	-3774
也就是	-3775
▁连	-3776
同比	-3777
申请	-3778
算了	-3779
颜值	-3780
不愿意	-3781
遇到了	-3782
他了	-3783
儿的	-3784
红了	-3785
讲讲	-3786
▁话	-3787
另一	-3788
我吃	-3789
赛事	-3790
傍晚	-3791
月光	-3792
稻草	-3793
一只小	-3794
不怎么	-3795
但是他	-3796
的机会	-3797
蓝狐狸	-3798
家门	-3799
一到	-3800
允许	-3801
天的	-3802
工厂	-3803
皇上	-3804
葫芦	-3805
财富	-3806
香蕉	-3807
宝贝们	-3808
看你	-3809
请求	-3810
限制	-3811
▁丢	-3812
信心	-3813
宣传	-3814
救了	-3815
你这是	-3816
过来了	-3817
一段时间	-3818
入了	-3819
又有	-3820
比例	-3821
车的	-3822
鼠狼	-3823
▁别人	-3824
▁市场	-3825
就觉得	-3826
我不知道	-3827
▁咪	-3828
化妆	-3829
规则	-3830
这两	-3831
鲤鱼	-3832
men	-3833
▁而是	-3834
的山	-3835
我已经	-3836
上升	-3837
骆驼	-3838
▁高兴	-3839
一个好	-3840
相处	-3841
我好	-3842
自语	-3843
得到了	-3844
但他	-3845
单位	-3846
教室	-3847
贡献	-3848
慢慢的	-3849
的世界	-3850
一跳	-3851
攻击	-3852
他们都	-3853
急得	-3854
模式	-3855
突破	-3856
老公	-3857
收获	-3858
这两个	-3859
性格	-3860
泥土	-3861
烦恼	-3862
阵容	-3863
不下	-3864
交流	-3865
恋爱	-3866
金额	-3867
▁准备	-3868
笨笨熊	-3869
▁网	-3870
上场	-3871
也想	-3872
花猫	-3873
▁你有	-3874
七月	-3875
彼此	-3876
快速	-3877
浪费	-3878
还说	-3879
看新闻	-3880
仿佛	-3881
队长	-3882
外卖	-3883
本书	-3884
有可能	-3885
工程	-3886
依旧	-3887
六月	-3888
出口	-3889
过得	-3890
▁介绍	-3891
曹操	-3892
河水	-3893
的妈妈	-3894
了两	-3895
就行	-3896
火虫	-3897
科比	-3898
走啊	-3899
的人都	-3900
就是那种	-3901
写的	-3902
的确	-3903
着大	-3904
▁zi	-3905
▁我去	-3906
▁lao	-3907
七号	-3908
把这个	-3909
走过来	-3910
▁字	-3911
的脸	-3912
素质	-3913
▁才能	-3914
▁明天	-3915
就已经	-3916
我也不	-3917
好处	-3918
忙着	-3919
狗熊	-3920
▁同比增长百分之	-3921
▁亮	-3922
叫他	-3923
滴滴	-3924
花花	-3925
足够	-3926
度的	-3927
建筑	-3928
符合	-3929
▁包括	-3930
不是说	-3931
又大	-3932
前段时间	-3933
18	-3934
把她	-3935
武器	-3936
离婚	-3937
让它	-3938
还真	-3939
喜欢吃	-3940
小孩子	-3941
▁灯	-3942
利益	-3943
自我	-3944
讲的	-3945
超市	-3946
也不错	-3947
了许多	-3948
王者	-3949
▁一般	-3950
▁其他	-3951
▁腿	-3952
心态	-3953
熊妈妈	-3954
中国女排	-3955
就跑	-3956
题材	-3957
▁样子	-3958
我真的	-3959
▁风	-3960
有效	-3961
电池	-3962
阿里	-3963
30	-3964
谷歌	-3965
的工作	-3966
八号	-3967
▁名字	-3968
很久以前	-3969
下课	-3970
劲儿	-3971
又要	-3972
她是	-3973
蜻蜓	-3974
采取	-3975
鱼儿	-3976
很快就	-3977
梅花鹿	-3978
▁接下来	-3979
还是比较	-3980
全面	-3981
100	-3982
不出来	-3983
十二点	-3984
看了一	-3985
萤火虫	-3986
▁xiang	-3987
bu	-3988
成立	-3989
降低	-3990
下车了	-3991
十一月	-3992
你为什么	-3993
久了	-3994
地向	-3995
抖音	-3996
淘宝	-3997
▁上去	-3998
3!	-3999
玩笑	-4000
田野	-4001
赚钱	-4002
金子	-4003
的消息	-4004
▁二零一	-4005
叫我	-4006
往下	-4007
一份	-4008
鸽子	-4009
甜甜的	-4010
▁东	-4011
他能	-4012
大师	-4013
草地	-4014
龙头	-4015
▁游戏	-4016
公告	-4017
加强	-4018
年代	-4019
结构	-4020
黑了	-4021
祖国	-4022
胖猪	-4023
首次	-4024
iao	-4025
我以前	-4026
▁猫头鹰	-4027
▁ting	-4028
裤子	-4029
我当时	-4030
把自己的	-4031
时光	-4032
研发	-4033
▁不然	-4034
让自己	-4035
去世	-4036
唱着	-4037
她在	-4038
小河	-4039
比分	-4040
法国	-4041
的天	-4042
这方面	-4043
小海	-4044
▁然后就	-4045
顺着	-4046
▁水果	-4047
▁皮皮	-4048
他现在	-4049
消费者	-4050
▁jia	-4051
会在	-4052
始终	-4053
暖和	-4054
语言	-4055
静静	-4056
BR	-4057
▁脏	-4058
工业	-4059
资格	-4060
身材	-4061
那时	-4062
▁一只	-4063
▁今晚	-4064
▁找到	-4065
对自己	-4066
▁zhi	-4067
高兴极了	-4068
放到	-4069
疑问	-4070
陪伴	-4071
飞去	-4072
▁二零一九年	-4073
停止	-4074
失去	-4075
小马	-4076
是从	-4077
淘淘	-4078
溜溜	-4079
带来了	-4080
▁我看了	-4081
BROTHER	-4082
▁少	-4083
七年	-4084
六号	-4085
是一只	-4086
▁够	-4087
意味	-4088
我国	-4089
熊猫	-4090
▁月亮	-4091
优秀的	-4092
看不见	-4093
九号	-4094
最佳	-4095
藏在	-4096
▁主要是	-4097
▁我现在	-4098
咕咕	-4099
目的	-4100
▁不管	-4101
经理	-4102
厚的	-4103
跳到	-4104
▁zhao	-4105
一遍	-4106
占比	-4107
放松	-4108
▁shou	-4109
乎乎	-4110
四号	-4111
▁dui	-4112
我很喜欢	-4113
花朵	-4114
袜子	-4115
蓝色的	-4116
过程中	-4117
哈哈大笑	-4118
我们可以	-4119
几只	-4120
四年	-4121
尴尬	-4122
的很	-4123
▁双	-4124
一句	-4125
为主	-4126
敲门	-4127
材料	-4128
▁可不	-4129
▁随着	-4130
一块儿	-4131
中国人	-4132
什么啊	-4133
小鸭子	-4134
没有了	-4135
高高的	-4136
2?	-4137
匆匆	-4138
女巫	-4139
▁真是	-4140
自行车	-4141
黄鼠狼	-4142
就是这个	-4143
▁咱	-4144
九百	-4145
枕头	-4146
处理器	-4147
▁一会儿	-4148
▁弹	-4149
▁面	-4150
在海	-4151
手指	-4152
拉拉	-4153
棉花	-4154
洞口	-4155
酒店	-4156
▁挺	-4157
▁鹿	-4158
好呀	-4159
比赛的	-4160
▁想了解	-4161
低头	-4162
的手机	-4163
uang	-4164
古代	-4165
命运	-4166
当他	-4167
的光	-4168
▁平时	-4169
▁看了	-4170
了好多	-4171
今年的	-4172
就是这样	-4173
为你	-4174
几次	-4175
土豆	-4176
就跟	-4177
着他	-4178
成为了	-4179
▁来自南方都市报播报	-4180
一面	-4181
公子	-4182
农业	-4183
小溪	-4184
毫不	-4185
dao	-4186
▁变成	-4187
▁娃娃	-4188
我看了	-4189
好事	-4190
好玩	-4191
温柔	-4192
窝里	-4193
露出	-4194
高考	-4195
就是你	-4196
言自语	-4197
大喊	-4198
打败	-4199
看上去	-4200
早已	-4201
看他	-4202
可以的	-4203
▁哈哈哈哈哈	-4204
本事	-4205
爱吃	-4206
稍微	-4207
动手	-4208
联储	-4209
让她	-4210
▁以上	-4211
电影院	-4212
~"	-4213
▁乖	-4214
一段	-4215
指出	-4216
睁开	-4217
结合	-4218
▁办法	-4219
可惜了	-4220
太大了	-4221
▁百	-4222
为啥	-4223
他会	-4224
写着	-4225
气得	-4226
现代	-4227
第四	-4228
远了	-4229
黑的	-4230
▁ha	-4231
的影响	-4232
▁shei	-4233
我又	-4234
搜索	-4235
村里	-4236
荷叶	-4237
▁好玩	-4238
le	-4239
一顿	-4240
不觉	-4241
收到	-4242
深刻	-4243
班牙	-4244
食堂	-4245
驴子	-4246
▁爷爷	-4247
新官肺炎	-4248
三分	-4249
快了	-4250
指挥	-4251
我们是	-4252
黄色的	-4253
▁可不是吗	-4254
▁块	-4255
老是	-4256
脚下	-4257
▁由于	-4258
我给你	-4259
▁按	-4260
内的	-4261
制度	-4262
▁赶快	-4263
▁唱	-4264
云朵	-4265
到来	-4266
央行	-4267
座位	-4268
接近	-4269
结局	-4270
▁下次	-4271
▁接着	-4272
俄罗斯	-4273
看不到	-4274
▁我喜欢	-4275
一旦	-4276
个大	-4277
客厅	-4278
就得	-4279
无奈	-4280
独立	-4281
的海	-4282
的钱	-4283
相互	-4284
门外	-4285
▁北京	-4286
那就是	-4287
▁浴	-4288
卧室	-4289
即将	-4290
笨狼	-4291
追求	-4292
净利润	-4293
这一次	-4294
这也是	-4295
不成	-4296
糟糕	-4297
裁判	-4298
走的	-4299
▁本来	-4300
了不起	-4301
下室	-4302
惊奇	-4303
▁台	-4304
▁越	-4305
呆了	-4306
六十五	-4307
世界上最	-4308
付出	-4309
教训	-4310
毛病	-4311
综合	-4312
饼干	-4313
大幅	-4314
没法	-4315
讲述	-4316
跟前	-4317
餐厅	-4318
▁真的是	-4319
自言自语	-4320
幸运	-4321
▁圆形	-4322
天上的	-4323
有一点	-4324
▁想了解更多财经资讯	-4325
▁,	-4326
万一	-4327
上下	-4328
五千	-4329
只会	-4330
才行	-4331
打扮	-4332
资料	-4333
▁厨房	-4334
▁另外	-4335
▁我之前	-4336
▁可不可以	-4337
不信	-4338
充满	-4339
平安	-4340
悟空	-4341
早餐	-4342
钻进	-4343
银子	-4344
随后	-4345
▁dianr	-4346
。。	-4347
各个	-4348
大雨	-4349
开的	-4350
此时	-4351
shi	-4352
你这么	-4353
我们国家	-4354
▁喊	-4355
最新	-4356
说到	-4357
▁不能	-4358
想看	-4359
走啦	-4360
上课了	-4361
小花狗	-4362
肚子里	-4363
▁冰	-4364
形成	-4365
棒了	-4366
活着	-4367
浙江	-4368
表情	-4369
闭上	-4370
▁第三	-4371
鸡妈妈	-4372
这个新闻	-4373
▁捡	-4374
▁数	-4375
不肯	-4376
四月	-4377
国产	-4378
影片	-4379
杭州	-4380
毫无	-4381
走过	-4382
靠近	-4383
▁要是	-4384
不就是	-4385
娱乐圈	-4386
菲菲姐姐	-4387
做出	-4388
实的	-4389
得太	-4390
核心	-4391
特殊	-4392
鹦鹉	-4393
黑暗	-4394
两条	-4395
公平	-4396
配置	-4397
▁吵架	-4398
▁篮球	-4399
动着	-4400
咯咯	-4401
生存	-4402
窗外	-4403
路了	-4404
老婆婆	-4405
的时候就	-4406
围着	-4407
的衣服	-4408
▁寻	-4409
▁重	-4410
供应	-4411
扑通	-4412
拿来	-4413
特点	-4414
▁国家	-4415
不过我	-4416
生活的	-4417
站起来	-4418
▁毛毛虫	-4419
书包	-4420
人和	-4421
大夫	-4422
头的	-4423
它说	-4424
很强	-4425
珍珠	-4426
知乎	-4427
是非常	-4428
不由	-4429
头来	-4430
女性	-4431
客户	-4432
庄稼	-4433
等我	-4434
答案	-4435
美美	-4436
节奏	-4437
▁也不	-4438
一句话	-4439
他们说	-4440
房子里	-4441
▁A	-4442
不幸	-4443
▁du	-4444
下次聊	-4445
人工	-4446
原本	-4447
都快	-4448
▁结束	-4449
这次的	-4450
▁万德在您身边	-4451
一半	-4452
一辆	-4453
你来	-4454
▁电视	-4455
可爱的小	-4456
▁推	-4457
不清	-4458
花了	-4459
▁无论	-4460
都知道	-4461
丢了	-4462
官方	-4463
了过来	-4464
怎么也	-4465
舍不得	-4466
▁分	-4467
▁满	-4468
启事	-4469
舞蹈	-4470
草丛里	-4471
达到了	-4472
▁疼	-4473
八月	-4474
听的	-4475
小弟	-4476
政治	-4477
荣耀	-4478
你旁边	-4479
▁滑	-4480
免费	-4481
咳嗽	-4482
山东	-4483
顺利	-4484
▁不会	-4485
带来的	-4486
▁neng	-4487
▁wang	-4488
自身	-4489
▁不见	-4490
六年	-4491
升级	-4492
奔跑	-4493
投入	-4494
爆发	-4495
着一个	-4496
吃完	-4497
校园	-4498
涉及	-4499
胆子	-4500
这回	-4501
失去了	-4502
小老虎	-4503
是为了	-4504
老百姓	-4505
再来	-4506
梯子	-4507
犹豫	-4508
的气	-4509
芯片	-4510
蚯蚓	-4511
不得不	-4512
你看过	-4513
我们一起	-4514
夫妇	-4515
委员	-4516
探索	-4517
男的	-4518
的笑	-4519
在中国	-4520
一时	-4521
成交	-4522
万亿元	-4523
所有人	-4524
个小	-4525
事故	-4526
差距	-4527
愉快	-4528
停下来	-4529
小蜗牛	-4530
才知道	-4531
他很	-4532
应用	-4533
指导	-4534
▁保护	-4535
▁汽车	-4536
很好看	-4537
谁也不	-4538
▁guo	-4539
出发	-4540
有着	-4541
▁创	-4542
趴在	-4543
高兴了	-4544
维持	-4545
▁并且	-4546
了一声	-4547
想办法	-4548
的儿子	-4549
▁难	-4550
主义	-4551
你别	-4552
小草	-4553
损失	-4554
纪录	-4555
地在	-4556
开展	-4557
我妈	-4558
正确	-4559
▁他是	-4560
▁刚	-4561
开车	-4562
▁电话	-4563
飞快地	-4564
的门	-4565
记忆	-4566
雪人	-4567
你先	-4568
喊着	-4569
明的	-4570
蝌蚪	-4571
行的	-4572
逃跑	-4573
这句话	-4574
▁刷	-4575
商人	-4576
市场的	-4577
我看到	-4578
百分之三十	-4579
上午	-4580
复杂	-4581
抬起	-4582
教师	-4583
民族	-4584
水的	-4585
老了	-4586
辣椒	-4587
你平时	-4588
你应该	-4589
主持	-4590
图书	-4591
的长	-4592
过分	-4593
结束了	-4594
吃得	-4595
面临	-4596
▁主要	-4597
不得了	-4598
出了一个	-4599
农村	-4600
吃饱	-4601
合理	-4602
学家	-4603
定了	-4604
杰克	-4605
樱桃	-4606
陌生	-4607
▁你的	-4608
可以说是	-4609
▁受	-4610
商店	-4611
太好	-4612
沙漠	-4613
航空	-4614
蟑螂	-4615
▁黄色	-4616
16	-4617
公共	-4618
又说	-4619
完美	-4620
什么都	-4621
▁duo	-4622
▁烧	-4623
对战	-4624
开口	-4625
是大	-4626
有一条	-4627
这个时候	-4628
一生	-4629
多个	-4630
天哪	-4631
感激	-4632
▁yu	-4633
小伙子	-4634
就感觉	-4635
有这么	-4636
爸爸说	-4637
▁"""	-4638
15	-4639
年了	-4640
窗口	-4641
阳台	-4642
▁人生	-4643
年轻的	-4644
个股	-4645
奇奇	-4646
得更	-4647
放进	-4648
这款	-4649
的方式	-4650
▁下一刻再见吧	-4651
发光	-4652
陪你	-4653
太狼	-4654
就连	-4655
讲解	-4656
▁ke	-4657
他还是	-4658
可怜的	-4659
太阳公公	-4660
▁热	-4661
至今	-4662
说我	-4663
▁怪物	-4664
▁慢慢	-4665
以为是	-4666
你在看	-4667
生气了	-4668
胖小猪	-4669
这个问题	-4670
▁错	-4671
你对	-4672
将来	-4673
带你	-4674
深深	-4675
要把	-4676
趋势	-4677
遇见	-4678
中了	-4679
体质	-4680
你快	-4681
公英	-4682
防守	-4683
默默	-4684
▁炒	-4685
在我们	-4686
睡不着	-4687
▁你在看	-4688
▁笔	-4689
取消	-4690
喝酒	-4691
最多	-4692
大多数	-4693
蒲公英	-4694
西班牙	-4695
▁七点早知道播报	-4696
委屈	-4697
找个	-4698
因为它	-4699
一道	-4700
嗓子	-4701
近日	-4702
▁钢琴	-4703
的味道	-4704
美好的	-4705
进行了	-4706
----	-4707
一点也不	-4708
两位	-4709
欢乐	-4710
走在	-4711
▁wa	-4712
百分点	-4713
考验	-4714
适应	-4715
kan	-4716
one	-4717
▁继续	-4718
喜欢他	-4719
抑郁	-4720
的前	-4721
不好的	-4722
意味着	-4723
的游戏	-4724
▁小老鼠	-4725
还有什么	-4726
▁电	-4727
▁碗	-4728
的一切	-4729
那会儿	-4730
▁绿	-4731
对话	-4732
波波	-4733
演唱	-4734
钥匙	-4735
的身体	-4736
▁跌	-4737
叽叽	-4738
袋子	-4739
钓鱼	-4740
他们就	-4741
好不好	-4742
▁木	-4743
百灵	-4744
落到	-4745
有时间	-4746
百分之一点	-4747
▁便	-4748
事实	-4749
哼哼	-4750
很小	-4751
拍的	-4752
画面	-4753
要和	-4754
还行	-4755
▁雪儿	-4756
回去了	-4757
毕竟是	-4758
的实力	-4759
▁可不是嘛	-4760
分手	-4761
饮食	-4762
▁开心	-4763
创业板	-4764
的人们	-4765
这可是	-4766
▁华	-4767
会被	-4768
帅的	-4769
昨晚	-4770
画画	-4771
飞翔	-4772
忘记了	-4773
怪不得	-4774
▁J	-4775
▁毛	-4776
台球	-4777
董事	-4778
采集	-4779
只不过	-4780
屋子里	-4781
一见	-4782
告别	-4783
改善	-4784
▁欢迎收听	-4785
像是	-4786
券商	-4787
地位	-4788
摇摇	-4789
羚羊	-4790
讲堂	-4791
领着	-4792
▁火	-4793
不不	-4794
传播	-4795
脚步	-4796
财主	-4797
隔离	-4798
▁叔叔	-4799
▁嗯哼	-4800
没问题	-4801
tian	-4802
▁jie	-4803
▁垃圾桶	-4804
大家分享	-4805
▁气	-4806
两次	-4807
吃着	-4808
孤单	-4809
尽量	-4810
理由	-4811
而言	-4812
都挺	-4813
▁长大	-4814
名中医	-4815
大讲堂	-4816
相当于	-4817
为您	-4818
主演	-4819
伤了	-4820
大事	-4821
年人	-4822
远的	-4823
▁那我	-4824
前几天	-4825
篮球比赛	-4826
交给	-4827
他人	-4828
地面	-4829
爱你	-4830
什么样的	-4831
吃到	-4832
找来	-4833
朵朵	-4834
▁世界	-4835
对他说	-4836
我们在	-4837
我平时	-4838
的一天	-4839
的人生	-4840
凳子	-4841
只得	-4842
批评	-4843
火了	-4844
▁B	-4845
中药	-4846
克斯	-4847
状况	-4848
蟋蟀	-4849
▁就在	-4850
特别好	-4851
高兴兴	-4852
到达	-4853
天赋	-4854
无比	-4855
李娜	-4856
瞧瞧	-4857
票房	-4858
茅台	-4859
软的	-4860
▁嘴巴	-4861
了过去	-4862
就知道	-4863
▁地下室	-4864
▁年	-4865
▁背	-4866
七个	-4867
六个	-4868
又把	-4869
理想	-4870
程序	-4871
蓝色	-4872
▁森林	-4873
成了一	-4874
!!	-4875
▁伸	-4876
去打	-4877
大口	-4878
就看	-4879
惩罚	-4880
战胜	-4881
生了	-4882
留在	-4883
白色	-4884
纪念	-4885
脑子	-4886
路边	-4887
▁陕西	-4888
▁皮皮鼠	-4889
做饭	-4890
喝水	-4891
成一	-4892
歌声	-4893
环比	-4894
都想	-4895
▁他说	-4896
了一点	-4897
小麻雀	-4898
de	-4899
秋千	-4900
支付宝	-4901
科学家	-4902
▁米	-4903
你把	-4904
债券	-4905
增速	-4906
风格	-4907
吃饭了	-4908
有好多	-4909
而且还	-4910
不定	-4911
整理	-4912
跑来	-4913
往前走	-4914
超过了	-4915
发现自己	-4916
这个东西	-4917
抱怨	-4918
▁谢谢你	-4919
这样一个	-4920
▁zhen	-4921
它想	-4922
小子	-4923
干了	-4924
规划	-4925
的方法	-4926
▁我也觉得	-4927
▁周	-4928
对面	-4929
同学们	-4930
这么大	-4931
▁ren	-4932
喜剧	-4933
新增	-4934
▁只能	-4935
的球员	-4936
哈哈哈哈	-4937
巧啊	-4938
能量	-4939
▁打针	-4940
这个是	-4941
假的	-4942
棕熊	-4943
的信	-4944
营收	-4945
▁寻猫	-4946
▁蝴蝶	-4947
不相信	-4948
都喜欢	-4949
▁寻猫启事	-4950
也得	-4951
淘气	-4952
爆炸	-4953
销量	-4954
聪明的	-4955
简直就是	-4956
▁记	-4957
再看	-4958
开着	-4959
晚了	-4960
聚集	-4961
▁二十	-4962
公众号	-4963
我看过	-4964
▁真的吗	-4965
▁aiyou	-4966
不听	-4967
半个	-4968
复工	-4969
流动	-4970
的就	-4971
▁抢	-4972
扩大	-4973
放学	-4974
艰难	-4975
下来的	-4976
▁你说的	-4977
中超	-4978
主席	-4979
体系	-4980
军事	-4981
向他	-4982
季节	-4983
对我	-4984
屏幕	-4985
彻底	-4986
报名	-4987
村民	-4988
笑话	-4989
道路	-4990
你不是	-4991
名医大讲堂	-4992
不禁	-4993
形容	-4994
德国	-4995
心疼	-4996
战斗	-4997
▁公司	-4998
这样说	-4999
▁fang	-5000
▁纸	-5001
▁茶	-5002
村庄	-5003
▁肉	-5004
场景	-5005
清晨	-5006
英超	-5007
青草	-5008
▁全国	-5009
▁学校	-5010
那个人	-5011
那我们	-5012
▁蛋	-5013
双方	-5014
家了	-5015
▁你要	-5016
▁讲讲	-5017
他们是	-5018
说的是	-5019
▁然后呢	-5020
京东	-5021
仙子	-5022
区别	-5023
推出	-5024
胳膊	-5025
▁fan	-5026
兼职	-5027
挣扎	-5028
▁蟑螂	-5029
全世界	-5030
我们家	-5031
有人吗	-5032
他有	-5033
判断	-5034
又在	-5035
发达	-5036
松树	-5037
比喻	-5038
污染	-5039
谁能	-5040
身高	-5041
上市公司	-5042
疫情防控	-5043
▁针	-5044
喳喳	-5045
回忆	-5046
棵树	-5047
踢得	-5048
▁前面	-5049
▁咧	-5050
企鹅	-5051
勇气	-5052
尝试	-5053
▁作为	-5054
倒霉	-5055
小木	-5056
挺好	-5057
注册	-5058
黄色	-5059
今天是	-5060
我看你	-5061
▁hei	-5062
这些东西	-5063
人心	-5064
健身	-5065
喝了	-5066
穿过	-5067
了一块	-5068
▁不客气	-5069
各位	-5070
恐怕	-5071
放了	-5072
林丹	-5073
生长	-5074
▁gen	-5075
没有办法	-5076
不理	-5077
大哭	-5078
对待	-5079
生涯	-5080
▁老虎	-5081
小山羊	-5082
我要去	-5083
▁子	-5084
吃惊	-5085
回应	-5086
黑色	-5087
▁别的	-5088
▁味道	-5089
不应该	-5090
听见了	-5091
下跌	-5092
王的	-5093
把它们	-5094
▁深	-5095
上山	-5096
乌云	-5097
贸易	-5098
的食物	-5099
▁《	-5100
上天	-5101
为人	-5102
十个	-5103
密切	-5104
对的	-5105
掌握	-5106
树木	-5107
▁每次	-5108
这种情况	-5109
▁搞	-5110
改编	-5111
皇后	-5112
着脸	-5113
组合	-5114
诸葛	-5115
开心地	-5116
现在已经	-5117
▁yang	-5118
yy	-5119
▁层	-5120
▁路	-5121
太婆	-5122
弄得	-5123
战略	-5124
日常	-5125
吃东西	-5126
比较好	-5127
▁刘	-5128
▁吹	-5129
▁条	-5130
▁锅	-5131
勤劳	-5132
合同	-5133
▁早上	-5134
做一个	-5135
打招呼	-5136
▁yyy	-5137
发表	-5138
库里	-5139
毛驴	-5140
着说	-5141
以前的	-5142
就可以了	-5143
一笑	-5144
太子	-5145
热爱	-5146
珍惜	-5147
美食	-5148
这话	-5149
陷阱	-5150
随时	-5151
飞过	-5152
▁首先	-5153
ya	-5154
快快	-5155
野兔	-5156
▁不仅	-5157
伟大的	-5158
我只是	-5159
睡觉了	-5160
我觉得他	-5161
▁啰	-5162
亮了	-5163
目光	-5164
耳机	-5165
领先	-5166
第二个	-5167
跑过去	-5168
▁你喜欢	-5169
高高兴兴	-5170
li	-5171
哇哇	-5172
响了	-5173
悲伤	-5174
矛盾	-5175
辽宁	-5176
好好的	-5177
现在是	-5178
笔记	-5179
色彩	-5180
菊花	-5181
xia	-5182
想不到	-5183
我今天	-5184
着眼睛	-5185
lo	-5186
你可	-5187
十四	-5188
型的	-5189
法院	-5190
积木	-5191
背景	-5192
自信	-5193
▁草莓	-5194
你有没有	-5195
▁欸	-5196
做事	-5197
共有	-5198
姿势	-5199
片子	-5200
来不及	-5201
没见过	-5202
都觉得	-5203
综艺节目	-5204
不就	-5205
处罚	-5206
店里	-5207
都不敢	-5208
案件	-5209
▁杯子	-5210
这一切	-5211
促进	-5212
引发	-5213
王宫	-5214
细细	-5215
▁预计	-5216
只剩下	-5217
圆圆的	-5218
▁排	-5219
▁轮	-5220
人就	-5221
充电	-5222
女神	-5223
老狼	-5224
200	-5225
他不是	-5226
没怎么	-5227
他们两个	-5228
对象	-5229
带上	-5230
说你	-5231
▁同同	-5232
的那些	-5233
说不是	-5234
▁shu	-5235
各种各样的	-5236
▁象	-5237
岁了	-5238
戴着	-5239
水面	-5240
玩过	-5241
老实	-5242
▁不好	-5243
又一	-5244
带到	-5245
眼看	-5246
网站	-5247
下一个	-5248
化的	-5249
疯狂	-5250
我就觉得	-5251
不和	-5252
山的	-5253
桌上	-5254
▁晚安	-5255
回来的	-5256
▁牙	-5257
人群	-5258
同伴	-5259
外出	-5260
展开	-5261
▁广东	-5262
红红的	-5263
对付	-5264
肚皮	-5265
费用	-5266
▁回去	-5267
男孩子	-5268
神奇的	-5269
高兴的	-5270
▁nai	-5271
这是一个	-5272
举起	-5273
军人	-5274
少女	-5275
饮料	-5276
做朋友	-5277
快乐的	-5278
的情况下	-5279
...""""	-5280
▁录	-5281
▁狼	-5282
多次	-5283
够了	-5284
天使	-5285
疫苗	-5286
破坏	-5287
黄牛	-5288
▁女	-5289
其它	-5290
对小	-5291
是那个	-5292
▁wei	-5293
▁一样的	-5294
el	-5295
三星	-5296
体现	-5297
和大	-5298
威胁	-5299
愤怒	-5300
了半天	-5301
偷偷地	-5302
十二月	-5303
我们中国	-5304
前来	-5305
来吧	-5306
站着	-5307
▁你可以	-5308
个个	-5309
听得	-5310
吱吱	-5311
小声	-5312
往上	-5313
玩玩	-5314
▁你这	-5315
▁花朵	-5316
发布了	-5317
的尾巴	-5318
▁小白兔	-5319
越来越多	-5320
锻炼身体	-5321
▁切	-5322
▁板	-5323
区域	-5324
看法	-5325
问好	-5326
陛下	-5327
百灵鸟	-5328
还不是	-5329
上说	-5330
发抖	-5331
就业	-5332
议论	-5333
▁感谢	-5334
手机的	-5335
哭了起来	-5336
▁饿	-5337
手上	-5338
技能	-5339
板上	-5340
绵羊	-5341
罢了	-5342
隔壁	-5343
就这么	-5344
有一位	-5345
计算机	-5346
▁救	-5347
万人	-5348
二号	-5349
估值	-5350
流行	-5351
白雪	-5352
贝壳	-5353
▁si	-5354
▁那儿	-5355
▁香蕉	-5356
听起来	-5357
很容易	-5358
伸手	-5359
你真	-5360
北方	-5361
大会	-5362
度过	-5363
支撑	-5364
铅笔	-5365
之王	-5366
却是	-5367
吃吧	-5368
得像	-5369
泉水	-5370
派人	-5371
说得	-5372
▁呵呵	-5373
之前的	-5374
和他的	-5375
强大的	-5376
这个游戏	-5377
了大	-5378
小偷	-5379
就叫	-5380
▁上海	-5381
打网球	-5382
▁包	-5383
前往	-5384
收盘	-5385
猩猩	-5386
类似	-5387
见面	-5388
跟在	-5389
▁我最近	-5390
到我	-5391
和平	-5392
悠悠	-5393
线上	-5394
老二	-5395
你还是	-5396
有许多	-5397
也是一个	-5398
世上	-5399
回归	-5400
地下	-5401
欢呼	-5402
灯笼	-5403
▁上班	-5404
▁星星	-5405
▁请问	-5406
不太好	-5407
不明白	-5408
多少钱	-5409
很不错	-5410
▁原来是	-5411
▁向	-5412
▁如	-5413
▁相	-5414
▁追	-5415
▁鸡	-5416
一双	-5417
世纪	-5418
九月	-5419
做得	-5420
场的	-5421
它在	-5422
就先	-5423
帅气	-5424
我真	-5425
热的	-5426
花生	-5427
部的	-5428
都看	-5429
不记得	-5430
那么大	-5431
蹦蹦跳跳	-5432
▁shui	-5433
充分	-5434
危机	-5435
就问	-5436
屋顶	-5437
把大	-5438
爸妈	-5439
▁他在	-5440
▁楼梯	-5441
受伤了	-5442
就喜欢	-5443
▁chu	-5444
丁丁	-5445
出行	-5446
咱俩	-5447
她想	-5448
宇宙	-5449
树的	-5450
语音	-5451
财政	-5452
赶到	-5453
又大又	-5454
有点儿	-5455
灰太狼	-5456
我一定要	-5457
太大	-5458
幸好	-5459
民间	-5460
盘子	-5461
▁蚂蚁	-5462
小田鼠	-5463
树上的	-5464
死我了	-5465
的位置	-5466
围巾	-5467
打击	-5468
担任	-5469
营业	-5470
遭遇	-5471
口袋里	-5472
只知道	-5473
图书馆	-5474
小鼹鼠	-5475
来了一	-5476
ye	-5477
▁直	-5478
三日	-5479
公里	-5480
威风	-5481
就用	-5482
干的	-5483
拥抱	-5484
的车	-5485
重大	-5486
黄的	-5487
为自己	-5488
了一跳	-5489
学会了	-5490
家公司	-5491
我不太	-5492
跟我说	-5493
▁这一课	-5494
一来	-5495
刷牙	-5496
小狼	-5497
统一	-5498
金鱼	-5499
▁人们	-5500
人类的	-5501
就是我	-5502
看到的	-5503
▁猜	-5504
吩咐	-5505
嗨喽	-5506
尖尖	-5507
应当	-5508
效力	-5509
用于	-5510
级的	-5511
美人	-5512
谁知	-5513
零零	-5514
▁大的	-5515
▁有的	-5516
▁你怎么	-5517
就更	-5518
也算是	-5519
了不少	-5520
告诉他	-5521
大伙儿	-5522
人数	-5523
军队	-5524
部剧	-5525
▁到了	-5526
▁最终	-5527
不需要	-5528
些什么	-5529
出去了	-5530
的动物	-5531
▁或者是	-5532
▁x	-5533
▁杨	-5534
▁甜	-5535
▁通	-5536
下滑	-5537
差不	-5538
平衡	-5539
成员	-5540
颜六	-5541
▁干净	-5542
办公室	-5543
看没看	-5544
hone	-5545
一股	-5546
反对	-5547
孙杨	-5548
最有	-5549
杀人	-5550
▁从此	-5551
▁懂	-5552
变的	-5553
天地	-5554
我从	-5555
橘子	-5556
章鱼	-5557
必须要	-5558
生活在	-5559
苹果的	-5560
▁没想到	-5561
还是没有	-5562
▁嘘	-5563
▁窗	-5564
国庆	-5565
欢喜	-5566
米粒	-5567
▁沙发	-5568
不住了	-5569
海里	-5570
细节	-5571
近期	-5572
▁同学	-5573
▁宝贝	-5574
天空中	-5575
有两个	-5576
▁P	-5577
当天	-5578
所在	-5579
推进	-5580
美好	-5581
充满了	-5582
有些人	-5583
▁不说了	-5584
一番	-5585
年来	-5586
披露	-5587
狡猾	-5588
问问	-5589
黑猫	-5590
▁你想	-5591
▁小猫	-5592
▁火车	-5593
在网上	-5594
湖人队	-5595
吓了一跳	-5596
▁由	-5597
▁远	-5598
二人	-5599
它会	-5600
总统	-5601
拖鞋	-5602
有事	-5603
运行	-5604
高大	-5605
魔术	-5606
他已经	-5607
▁对不起	-5608
是这样的	-5609
有限公司	-5610
这是什么	-5611
孔子	-5612
我叫	-5613
早点	-5614
暂时	-5615
流入	-5616
能在	-5617
▁怎样	-5618
国王的	-5619
它们的	-5620
',	-5621
使得	-5622
医学	-5623
受了	-5624
正要	-5625
水中	-5626
点事	-5627
警方	-5628
说起	-5629
▁如果你	-5630
▁能不能	-5631
然后就是	-5632
er	-5633
他从	-5634
做梦	-5635
十几	-5636
宫殿	-5637
平静	-5638
我再	-5639
我吧	-5640
报纸	-5641
流量	-5642
衣裳	-5643
吓坏了	-5644
我到站了	-5645
▁特	-5646
一对	-5647
减持	-5648
司马	-5649
白菜	-5650
神气	-5651
门前	-5652
▁鼻子	-5653
渐渐地	-5654
的人物	-5655
shang	-5656
pp	-5657
寒冷	-5658
强盗	-5659
赢得	-5660
了这个	-5661
简直是	-5662
我也觉得	-5663
这样的话	-5664
▁即	-5665
官员	-5666
寂寞	-5667
情感	-5668
拍拍	-5669
那条	-5670
▁气球	-5671
▁里边	-5672
过了一	-5673
▁那我们	-5674
一千零一夜	-5675
一身	-5676
化了	-5677
尊敬	-5678
星球	-5679
眉头	-5680
老的	-5681
赶忙	-5682
你现在	-5683
▁现在的	-5684
▁布	-5685
不服	-5686
写字	-5687
力度	-5688
承担	-5689
暴力	-5690
沙滩	-5691
着的	-5692
舅舅	-5693
高高	-5694
▁学会	-5695
我不会	-5696
新闻呢	-5697
桌子上	-5698
▁冷	-5699
人口	-5700
半夜	-5701
飞了	-5702
前两天	-5703
▁曾	-5704
一支	-5705
姥姥	-5706
有望	-5707
这块	-5708
在哪儿	-5709
就这些	-5710
一九	-5711
摸摸	-5712
是用	-5713
测试	-5714
的后	-5715
翼翼	-5716
对这个	-5717
的家伙	-5718
这样做	-5719
▁小兔子	-5720
▁小松鼠	-5721
东方	-5722
做成	-5723
喜爱	-5724
意大	-5725
深处	-5726
老汉	-5727
▁通过	-5728
学校的	-5729
我们去	-5730
13	-5731
乞丐	-5732
冲击	-5733
地跑	-5734
完善	-5735
干吗	-5736
得分	-5737
淘汰	-5738
说呢	-5739
小公鸡	-5740
▁幼儿园	-5741
▁tang	-5742
▁草	-5743
喷喷	-5744
塑料	-5745
展示	-5746
筷子	-5747
贝尔	-5748
他觉得	-5749
的房子	-5750
森林里的	-5751
▁啥	-5752
很想	-5753
灵活	-5754
球技	-5755
蝙蝠	-5756
这事	-5757
高手	-5758
主演的	-5759
跳起来	-5760
进去了	-5761
小伙伴们	-5762
▁你这是在看	-5763
不爱	-5764
买个	-5765
去过	-5766
在山	-5767
地叫	-5768
帅了	-5769
意的	-5770
接过	-5771
摩托	-5772
是说	-5773
普遍	-5774
继承	-5775
贝克	-5776
国家队	-5777
晒太阳	-5778
上看	-5779
亏损	-5780
反映	-5781
四千	-5782
将在	-5783
当了	-5784
文字	-5785
点的	-5786
社交	-5787
紧急	-5788
花钱	-5789
▁具体	-5790
一个是	-5791
▁你也是	-5792
的是什么	-5793
凤凰	-5794
吃一	-5795
推动	-5796
江苏	-5797
不起来	-5798
生病了	-5799
做了一个	-5800
好不容易	-5801
过了一会儿	-5802
收集	-5803
给予	-5804
荣誉	-5805
里去	-5806
未来的	-5807
了的	-5808
封信	-5809
流传	-5810
演过	-5811
热血	-5812
莫雷	-5813
风景	-5814
▁小猪	-5815
▁里头	-5816
类型的	-5817
美国的	-5818
▁知	-5819
他用	-5820
大赛	-5821
把头	-5822
歌唱	-5823
者的	-5824
自豪	-5825
覆盖	-5826
香的	-5827
▁就算	-5828
小伙伴	-5829
想起了	-5830
我一般	-5831
兰特	-5832
变了	-5833
居住	-5834
得知	-5835
牛逼	-5836
美女	-5837
补贴	-5838
那位	-5839
不舒服	-5840
新闻由	-5841
的作用	-5842
▁qiu	-5843
▁rang	-5844
新闻由南方都市报播报	-5845
今日	-5846
原则	-5847
哗哗	-5848
大鱼	-5849
尝尝	-5850
帮他	-5851
庆祝	-5852
当当	-5853
得上	-5854
朝廷	-5855
违法	-5856
▁gu	-5857
一只大	-5858
高兴得	-5859
▁gao	-5860
出名	-5861
咔嚓	-5862
对你	-5863
的名	-5864
禁止	-5865
▁形状	-5866
不远处	-5867
你看看	-5868
可以用	-5869
一脸	-5870
各地	-5871
吵架	-5872
尸体	-5873
热搜	-5874
到一个	-5875
历史上	-5876
著名的	-5877
退役了	-5878
书豪	-5879
喵喵	-5880
布朗	-5881
还想	-5882
露珠	-5883
▁难道	-5884
双十一	-5885
..."	-5886
▁jin	-5887
再也没有	-5888
百分之五十	-5889
▁蹦	-5890
也算	-5891
剪刀	-5892
岸边	-5893
年前	-5894
性能	-5895
飞船	-5896
马尔	-5897
▁亲爱	-5898
下去了	-5899
了口气	-5900
这些人	-5901
那以后	-5902
还有很多	-5903
oo	-5904
不安	-5905
妖精	-5906
汉姆	-5907
眯眯	-5908
▁强盗	-5909
▁未来	-5910
▁mao	-5911
中有	-5912
小区	-5913
快来	-5914
欧冠	-5915
▁石头	-5916
人工智能	-5917
在你	-5918
地走	-5919
墙上	-5920
婚姻	-5921
快活	-5922
持股	-5923
秀才	-5924
打开了	-5925
抓住了	-5926
比赛吗	-5927
了一口气	-5928
讲的故事	-5929
▁游	-5930
▁醒	-5931
六千	-5932
讲话	-5933
▁因此	-5934
七八糟	-5935
的歌声	-5936
进入了	-5937
我还以为	-5938
▁好的再见	-5939
一分	-5940
做过	-5941
全力	-5942
哭声	-5943
小牛	-5944
强烈	-5945
收购	-5946
淇淋	-5947
游去	-5948
疑惑	-5949
饺子	-5950
普通的	-5951
iP	-5952
▁C	-5953
▁砍	-5954
了你	-5955
冷了	-5956
凌晨	-5957
出色	-5958
十六	-5959
想过	-5960
成语	-5961
最爱	-5962
机制	-5963
转眼	-5964
金牌	-5965
▁说话	-5966
发布会	-5967
我听说	-5968
的路上	-5969
有的时候	-5970
这么大的	-5971
不通	-5972
人呢	-5973
忙碌	-5974
戴上	-5975
换了	-5976
正当	-5977
没过	-5978
科创	-5979
零售	-5980
▁蛋糕	-5981
山坡上	-5982
是没有	-5983
消失了	-5984
火箭队	-5985
的文章	-5986
的第一	-5987
都不是	-5988
一二	-5989
千里	-5990
比我	-5991
首席	-5992
鬼子	-5993
于是他	-5994
你最近	-5995
你要是	-5996
我一定	-5997
我们班	-5998
爸爸的	-5999
▁bai	-6000
很是	-6001
的上	-6002
风雨	-6003
紧紧地	-6004
▁一个人	-6005
▁liang	-6006
▁嘉	-6007
▁短	-6008
▁碰	-6009
反复	-6010
手术	-6011
灰灰	-6012
看啊	-6013
谁的	-6014
这就	-6015
道的	-6016
个不停	-6017
知道的	-6018
非常好	-6019
什么事情	-6020
的好朋友	-6021
▁龙	-6022
才有	-6023
累得	-6024
胆小	-6025
透露	-6026
高达	-6027
五颜六	-6028
看电影	-6029
花园里	-6030
▁可以啊	-6031
▁这时候	-6032
金币	-6033
▁我说	-6034
▁截止	-6035
了一口	-6036
几个月	-6037
有一座	-6038
让大家	-6039
▁我到站了	-6040
17	-6041
强了	-6042
强调	-6043
豆子	-6044
身影	-6045
轻易	-6046
野兽	-6047
我可是	-6048
把我的	-6049
着自己	-6050
jian	-6051
小心翼翼	-6052
▁今天的故事	-6053
异常	-6054
泥巴	-6055
秦国	-6056
这座	-6057
▁ou	-6058
在那个	-6059
比赛了	-6060
然后他	-6061
▁指	-6062
你你	-6063
八戒	-6064
吃鸡	-6065
听完	-6066
坐吗	-6067
多啊	-6068
干脆	-6069
打扰	-6070
物质	-6071
落地	-6072
▁嘻嘻	-6073
在水里	-6074
地走了	-6075
树枝上	-6076
鸭妈妈	-6077
▁好吃的	-6078
你也在看	-6079
随便看看	-6080
▁你最近有	-6081
周期	-6082
太空	-6083
好啦	-6084
机场	-6085
甜的	-6086
维斯	-6087
把他们	-6088
里面有	-6089
▁就是说啊	-6090
▁修	-6091
东京	-6092
医药	-6093
拍摄	-6094
每当	-6095
的红	-6096
看书	-6097
迷藏	-6098
比赛中	-6099
黑色的	-6100
东北	-6101
梦中	-6102
浇水	-6103
肌肉	-6104
观看	-6105
院子	-6106
▁我会	-6107
一点的	-6108
到哪里	-6109
喜羊羊	-6110
有道理	-6111
玫瑰花	-6112
不止	-6113
牺牲	-6114
▁女孩	-6115
▁你觉得	-6116
▁就这样	-6117
▁我就是	-6118
怎么样啊	-6119
一闪	-6120
主题	-6121
小龙	-6122
快船	-6123
真心	-6124
缺点	-6125
股权	-6126
部队	-6127
▁即使	-6128
▁就会	-6129
▁本次	-6130
专业的	-6131
吃完了	-6132
▁唐	-6133
动力	-6134
可可	-6135
大头	-6136
画的	-6137
过年	-6138
郎平	-6139
马路	-6140
▁值得	-6141
▁根本	-6142
和妈妈	-6143
拿出来	-6144
最后的	-6145
池塘里	-6146
看电视	-6147
你看了吗	-6148
14	-6149
▁折	-6150
刘邦	-6151
场了	-6152
打发	-6153
棒的	-6154
眼神	-6155
笨熊	-6156
了他的	-6157
十五点	-6158
捉迷藏	-6159
▁胡萝卜	-6160
一小	-6161
到大	-6162
北极	-6163
四川	-6164
她把	-6165
应对	-6166
我太	-6167
扫帚	-6168
来来	-6169
现金	-6170
而来	-6171
起身	-6172
▁ku	-6173
▁玉米	-6174
了一阵	-6175
▁han	-6176
▁没有人	-6177
你不知道	-6178
还是不错的	-6179
▁胖	-6180
中华	-6181
利物	-6182
它又	-6183
时尚	-6184
行吧	-6185
▁据说	-6186
▁猫猫	-6187
中的小	-6188
利物浦	-6189
最后一	-6190
▁贵	-6191
十三	-6192
呈现	-6193
干啥	-6194
提着	-6195
每一	-6196
过后	-6197
▁点儿	-6198
下课了	-6199
已经是	-6200
我不能	-6201
的叫声	-6202
都是在	-6203
里的水	-6204
实在是太	-6205
信任	-6206
后边	-6207
场所	-6208
新高	-6209
电商	-6210
百度	-6211
睡了	-6212
蜡烛	-6213
▁了解	-6214
▁广州	-6215
▁日本	-6216
▁河马	-6217
感觉到	-6218
我先去	-6219
狐狸说	-6220
过生日	-6221
▁钻	-6222
他去	-6223
参观	-6224
女士	-6225
我该	-6226
荷花	-6227
要在	-6228
都得	-6229
▁全部	-6230
▁所有	-6231
三个月	-6232
对我们	-6233
很重要	-6234
诸葛亮	-6235
为什么不	-6236
到了一个	-6237
阅读我是	-6238
▁慢	-6239
不已	-6240
不算	-6241
你没	-6242
同期	-6243
奖励	-6244
米米	-6245
结实	-6246
给您	-6247
药物	-6248
家里的	-6249
意大利	-6250
成功的	-6251
听广播剧	-6252
PP	-6253
▁神	-6254
哭泣	-6255
啊啊	-6256
美妙	-6257
观点	-6258
车辆	-6259
▁南瓜	-6260
▁蓝色	-6261
一辈子	-6262
了一件	-6263
二十五	-6264
你就是	-6265
小公主	-6266
我们也	-6267
来得及	-6268
▁dian	-6269
▁谁说不是	-6270
不完	-6271
大众	-6272
小山	-6273
微软	-6274
情节	-6275
湖北	-6276
节日	-6277
讲了	-6278
▁他就	-6279
▁多少	-6280
▁按照	-6281
奇怪的	-6282
回到家里	-6283
▁骑	-6284
主角	-6285
国藩	-6286
桃花	-6287
牌子	-6288
罐子	-6289
而不	-6290
锦赛	-6291
hao	-6292
▁必须	-6293
掉下来	-6294
注意到	-6295
落下来	-6296
亲戚	-6297
做客	-6298
内部	-6299
去玩	-6300
合计	-6301
大门	-6302
痒痒	-6303
真相	-6304
着呢	-6305
群众	-6306
设施	-6307
钱的	-6308
▁好看	-6309
▁直接	-6310
发布的	-6311
打了个	-6312
▁清	-6313
为此	-6314
住房	-6315
影视	-6316
普及	-6317
有几	-6318
消灭	-6319
要吃	-6320
要有	-6321
hui	-6322
不断地	-6323
了一场	-6324
你没有	-6325
大公鸡	-6326
最重要	-6327
那样的	-6328
▁nong	-6329
乘客	-6330
写了	-6331
大山	-6332
巴西	-6333
彼得	-6334
果实	-6335
树干	-6336
沿着	-6337
消化	-6338
种的	-6339
▁既然	-6340
▁认识	-6341
▁阳台	-6342
为大家	-6343
只有一个	-6344
躺在床上	-6345
50	-6346
▁澡	-6347
冬眠	-6348
哗啦	-6349
坏事	-6350
奇迹	-6351
小青	-6352
把手	-6353
来讲	-6354
立马	-6355
越大	-6356
顾客	-6357
骨碌	-6358
▁哈喽	-6359
▁有啊	-6360
受到了	-6361
在外面	-6362
就应该	-6363
简单的	-6364
这么好	-6365
希望他们	-6366
大力	-6367
效率	-6368
超越	-6369
边上	-6370
防止	-6371
精彩的	-6372
千万不要	-6373
▁糖	-6374
信用	-6375
更有	-6376
运输	-6377
遍了	-6378
可怕的	-6379
在路上	-6380
我也想	-6381
我在看	-6382
房间里	-6383
林书豪	-6384
比赛啊	-6385
老太婆	-6386
工作人员	-6387
▁停	-6388
下山	-6389
二月	-6390
收费	-6391
猪肉	-6392
回了家	-6393
我们都	-6394
抑郁症	-6395
的颜色	-6396
看一下	-6397
▁好像是	-6398
一不小心	-6399
在森林里	-6400
▁冲	-6401
别说	-6402
同事	-6403
实行	-6404
村子	-6405
澳大	-6406
的这	-6407
祝福	-6408
在上面	-6409
一篇	-6410
再去	-6411
协会	-6412
心了	-6413
无可	-6414
柜子	-6415
睡眠	-6416
等你	-6417
脑筋	-6418
集体	-6419
▁晚饭	-6420
▁泡泡	-6421
▁那他	-6422
严重的	-6423
大石头	-6424
▁涂	-6425
仆人	-6426
外星	-6427
战绩	-6428
手下	-6429
斯诺	-6430
暑假	-6431
竹子	-6432
能把	-6433
话题	-6434
边说	-6435
远方	-6436
wan	-6437
▁你就	-6438
以来的	-6439
另一只	-6440
杜兰特	-6441
香喷喷	-6442
个子老鼠	-6443
二零一八年	-6444
我也不知道	-6445
▁卖	-6446
下班	-6447
之内	-6448
公安	-6449
哪吒	-6450
抽屉	-6451
这家	-6452
分析师	-6453
在他的	-6454
我比较喜欢	-6455
▁以上新闻由南方都市报播报	-6456
一一	-6457
下载	-6458
争取	-6459
做个	-6460
回报	-6461
总会	-6462
朱婷	-6463
歌手	-6464
着手	-6465
策略	-6466
西西	-6467
通道	-6468
霸王	-6469
▁猴子	-6470
希望能	-6471
我的小	-6472
有这个	-6473
静静地	-6474
为百分之	-6475
优惠	-6476
头顶	-6477
急了	-6478
暂停	-6479
灾难	-6480
购物	-6481
进的	-6482
▁正在	-6483
一边说	-6484
了一座	-6485
温暖的	-6486
就是我们	-6487
▁某	-6488
▁流	-6489
协议	-6490
又不	-6491
咒语	-6492
密的	-6493
当成	-6494
悬疑	-6495
比你	-6496
火星	-6497
的书	-6498
风儿	-6499
▁松鼠	-6500
了一片	-6501
厚厚的	-6502
熊爸爸	-6503
这样子	-6504
长鼻子	-6505
打个	-6506
晶晶	-6507
暖暖	-6508
相机	-6509
胎教	-6510
自杀	-6511
舞台	-6512
他们俩	-6513
临时	-6514
作家	-6515
朝着	-6516
游客	-6517
相同	-6518
言论	-6519
公交车	-6520
给我的	-6521
走过去	-6522
为什么会	-6523
一代	-6524
他都	-6525
头大	-6526
宠物	-6527
家中	-6528
早了	-6529
歧视	-6530
田里	-6531
肩膀	-6532
要想	-6533
项链	-6534
预防	-6535
▁说的	-6536
▁那边	-6537
一点都不	-6538
我也喜欢	-6539
的小动物	-6540
几十	-6541
同情	-6542
海龟	-6543
看出	-6544
说来	-6545
▁窗户	-6546
▁车子	-6547
出发了	-6548
在空中	-6549
怎么说呢	-6550
最喜欢的	-6551
▁苏	-6552
八个	-6553
发芽	-6554
夸张	-6555
小人	-6556
连连	-6557
▁华为	-6558
▁巴比	-6559
▁梯子	-6560
不动了	-6561
不断的	-6562
对他的	-6563
了自己的	-6564
味儿	-6565
海洋	-6566
着我	-6567
肥皂	-6568
船上	-6569
规矩	-6570
非洲	-6571
只有一	-6572
我有点	-6573
笑眯眯	-6574
▁欢迎打开	-6575
▁餐	-6576
个儿	-6577
十月	-6578
而去	-6579
▁绿色	-6580
你是谁	-6581
地上的	-6582
演唱会	-6583
的小鸟	-6584
真的吗	-6585
简直太	-6586
▁尤其是	-6587
勺子	-6588
吸收	-6589
嗡嗡	-6590
晓得	-6591
机灵	-6592
柳树	-6593
电器	-6594
解答	-6595
透了	-6596
长安	-6597
▁人民	-6598
▁奇怪	-6599
▁有人	-6600
▁牛奶	-6601
他可是	-6602
参加了	-6603
开玩笑	-6604
心里想	-6605
然后又	-6606
的状态	-6607
问题的	-6608
▁没办法	-6609
做法	-6610
常见	-6611
精力	-6612
落后	-6613
行啊	-6614
长出	-6615
鱼的	-6616
▁到底	-6617
其实是	-6618
却没有	-6619
不知不觉	-6620
什么地方	-6621
惨了	-6622
技巧	-6623
挣钱	-6624
核桃	-6625
给人	-6626
连胜	-6627
▁身体	-6628
了一把	-6629
先生的	-6630
比较少	-6631
怎么可能	-6632
这么厉害	-6633
▁平	-6634
九日	-6635
他那	-6636
冒险	-6637
有两	-6638
本人	-6639
格力	-6640
欢欢	-6641
裁缝	-6642
起的	-6643
骑着	-6644
了好久	-6645
在树上	-6646
我相信	-6647
有的人	-6648
说实话	-6649
还有一些	-6650
这个赛季	-6651
可乐	-6652
我刚	-6653
――""	-6654
还有那个	-6655
但是我觉得	-6656
一副	-6657
哪怕	-6658
摄像	-6659
统治	-6660
▁国王	-6661
不行了	-6662
住着一	-6663
我这个	-6664
▁小时候	-6665
ro	-6666
假装	-6667
吐槽	-6668
在于	-6669
女篮	-6670
小水	-6671
猫的	-6672
说法	-6673
起码	-6674
飞呀	-6675
▁受伤	-6676
一天天	-6677
在自己的	-6678
不堪	-6679
众人	-6680
和她	-6681
地从	-6682
婚礼	-6683
孙子	-6684
悬崖	-6685
手中	-6686
就不能	-6687
斯诺克	-6688
苹果树	-6689
▁bei	-6690
▁我们下期	-6691
▁陈	-6692
之处	-6693
厨师	-6694
提到	-6695
木匠	-6696
洪水	-6697
耐烦	-6698
过着	-6699
▁圆圆	-6700
▁然而	-6701
说话了	-6702
运动会	-6703
▁没有啊	-6704
▁经	-6705
▁臭	-6706
东海	-6707
人体	-6708
动的	-6709
四只	-6710
在线	-6711
害羞	-6712
尽快	-6713
想念	-6714
想把	-6715
拿下	-6716
灌木	-6717
甜蜜	-6718
盈利	-6719
走向	-6720
▁你还	-6721
大眼睛	-6722
很生气	-6723
新能源	-6724
比较喜欢看	-6725
一致	-6726
乐观	-6727
出台	-6728
哭着	-6729
子弹	-6730
掉的	-6731
接到	-6732
是被	-6733
杀死	-6734
此前	-6735
聪聪	-6736
他看见	-6737
动画片	-6738
小家伙	-6739
就是要	-6740
电影吗	-6741
让孩子	-6742
起来的	-6743
还不如	-6744
▁半	-6745
也说	-6746
冲着	-6747
墙壁	-6748
好呢	-6749
小组	-6750
小镇	-6751
就从	-6752
手段	-6753
春节	-6754
来源	-6755
渔夫	-6756
英俊	-6757
▁邀请	-6758
足球的	-6759
下令	-6760
单纯	-6761
奶茶	-6762
拇指	-6763
走走	-6764
门的	-6765
▁不用	-6766
▁它的	-6767
了一张	-6768
人们的	-6769
咱们的	-6770
孙悟空	-6771
完成了	-6772
是一位	-6773
▁当然了	-6774
▁巧	-6775
一连	-6776
又问	-6777
哪有	-6778
实体	-6779
家乡	-6780
掉进	-6781
活跃	-6782
溜达	-6783
缓解	-6784
缺乏	-6785
补充	-6786
▁两个	-6787
▁真正	-6788
▁葡萄	-6789
他那个	-6790
伤心地	-6791
大声说	-6792
小螃蟹	-6793
表现的	-6794
▁我还有	-6795
▁反	-6796
九个	-6797
加快	-6798
千玺	-6799
吹牛	-6800
嘎嘎	-6801
广场	-6802
科普	-6803
▁关于	-6804
▁它是	-6805
他没有	-6806
关注的	-6807
小星星	-6808
电影啊	-6809
这个剧	-6810
▁是的啊	-6811
挺不错的	-6812
贝克汉姆	-6813
不是很了解	-6814
五彩	-6815
南京	-6816
团团	-6817
奋斗	-6818
带我	-6819
很长	-6820
莫名	-6821
语文	-6822
适当	-6823
▁以及	-6824
▁客厅	-6825
▁说明	-6826
很奇怪	-6827
魔法师	-6828
▁因	-6829
▁烫	-6830
发热	-6831
打扫	-6832
挂着	-6833
治理	-6834
灰兔	-6835
的鱼	-6836
石油	-6837
见识	-6838
雨水	-6839
▁乌龟	-6840
很开心	-6841
问一下	-6842
▁欧	-6843
伤病	-6844
信号	-6845
团结	-6846
泪水	-6847
笑笑	-6848
▁xu	-6849
在学校	-6850
▁那肯定	-6851
睁开眼睛	-6852
不该	-6853
二年	-6854
他家	-6855
发的	-6856
奶油	-6857
过于	-6858
这点	-6859
▁忽然	-6860
任何的	-6861
下次再聊	-6862
大家一起	-6863
▁这部电影	-6864
▁呜	-6865
▁尿	-6866
上个	-6867
为何	-6868
伤口	-6869
友谊	-6870
只听	-6871
哥们	-6872
声说	-6873
大量	-6874
战术	-6875
消防	-6876
番茄	-6877
称赞	-6878
肥胖	-6879
tou	-6880
▁不错	-6881
▁各位	-6882
▁小猴	-6883
二十四	-6884
因为她	-6885
在那儿	-6886
我也要	-6887
狐狸的	-6888
▁西安市	-6889
了就	-6890
利于	-6891
微微	-6892
文件	-6893
注重	-6894
海边	-6895
的神	-6896
重重	-6897
▁好嘞	-6898
▁怪兽	-6899
▁意思	-6900
▁能够	-6901
交朋友	-6902
要不是	-6903
都不能	-6904
▁结束对话	-6905
▁待	-6906
低于	-6907
坏人	-6908
形式	-6909
整齐	-6910
有啥	-6911
治病	-6912
的最	-6913
转过	-6914
遭到	-6915
▁朵拉	-6916
你给我	-6917
回家去	-6918
在我的	-6919
这一点	-6920
▁实际上	-6921
你知道吧	-6922
事物	-6923
博物	-6924
好大	-6925
然大	-6926
违规	-6927
▁厕所	-6928
很正常	-6929
来看看	-6930
这里的	-6931
▁差不多	-6932
丛中	-6933
五号	-6934
会员	-6935
八千	-6936
移民	-6937
约翰	-6938
蓝天	-6939
要到	-6940
金钱	-6941
出去玩	-6942
应该会	-6943
的新闻吗	-6944
▁算	-6945
上车	-6946
小事	-6947
情景	-6948
拍照	-6949
轰隆	-6950
▁赶紧	-6951
▁还好	-6952
的女儿	-6953
看到过	-6954
跟我们	-6955
▁我们的	-6956
体温	-6957
化学	-6958
名单	-6959
权益	-6960
法官	-6961
猎物	-6962
约了	-6963
迎接	-6964
▁这天	-6965
不说啦	-6966
之所以	-6967
可以去	-6968
点了点头	-6969
确诊病例	-6970
这件事情	-6971
三大	-6972
三次	-6973
台湾	-6974
大嘴	-6975
清洁	-6976
谁也	-6977
里皮	-6978
陆续	-6979
鸵鸟	-6980
▁盒子	-6981
▁经过	-6982
也不好	-6983
剩下的	-6984
又不是	-6985
好多人	-6986
干净净	-6987
想起来	-6988
拿到了	-6989
狠狠地	-6990
▁且	-6991
何况	-6992
吃点	-6993
嗓门	-6994
日前	-6995
浪漫	-6996
理论	-6997
社区	-6998
谨慎	-6999
送你	-7000
阻止	-7001
▁玻璃	-7002
一路上	-7003
▁特别是	-7004
就是为了	-7005
▁南都记者	-7006
▁保	-7007
▁已	-7008
▁拔	-7009
一早	-7010
吃草	-7011
就对	-7012
打仗	-7013
沟通	-7014
老牛	-7015
被他	-7016
都好	-7017
一口气	-7018
乎乎的	-7019
熊奶奶	-7020
的行为	-7021
▁zan	-7022
▁当然可以	-7023
为难	-7024
买入	-7025
从未	-7026
巴黎	-7027
柿子	-7028
毛衣	-7029
疼痛	-7030
镜头	-7031
黑狗	-7032
不能再	-7033
恢复了	-7034
把这些	-7035
电影的	-7036
的话呢	-7037
马上就	-7038
先走了哈	-7039
很多人都	-7040
你再	-7041
地去	-7042
大雁	-7043
版本	-7044
版的	-7045
答道	-7046
证据	-7047
追赶	-7048
▁那种	-7049
太难了	-7050
相关的	-7051
▁今天的	-7052
▁今晚就和	-7053
我们国家的	-7054
全民	-7055
浣熊	-7056
温度	-7057
舒适	-7058
追剧	-7059
一定能	-7060
你坐吧	-7061
到最后	-7062
当然是	-7063
快乐地	-7064
yu	-7065
一度	-7066
一手	-7067
假如	-7068
哆嗦	-7069
塞尔	-7070
差了	-7071
忙了	-7072
我吗	-7073
打过	-7074
日的	-7075
朗普	-7076
气愤	-7077
滑梯	-7078
缺少	-7079
自在	-7080
名字叫	-7081
逃走了	-7082
▁这也是	-7083
一齐	-7084
以外	-7085
奇艺	-7086
害虫	-7087
恶的	-7088
战士	-7089
拍了	-7090
河南	-7091
眼的	-7092
骑士	-7093
▁卧室	-7094
▁小兔	-7095
好几个	-7096
的爸爸	-7097
西安市	-7098
ce	-7099
▁趴	-7100
不许	-7101
争吵	-7102
位于	-7103
停了	-7104
我用	-7105
摸着	-7106
细胞	-7107
著名	-7108
▁从来	-7109
上半年	-7110
然后再	-7111
的都是	-7112
▁dei	-7113
▁pao	-7114
苹果手机	-7115
过了几天	-7116
闭上眼睛	-7117
大小	-7118
必然	-7119
承受	-7120
换个	-7121
每人	-7122
身旁	-7123
这对	-7124
一个叫	-7125
委员会	-7126
的耳朵	-7127
笑起来	-7128
▁每个人	-7129
事了	-7130
召开	-7131
年间	-7132
灵魂	-7133
着了	-7134
科幻	-7135
绕着	-7136
规范	-7137
设置	-7138
跳着	-7139
那他	-7140
也比较	-7141
卫生间	-7142
岂不是	-7143
快乐狼	-7144
癞蛤蟆	-7145
远远地	-7146
颜色的	-7147
iPhone	-7148
di	-7149
仪式	-7150
出租	-7151
十万	-7152
工人	-7153
晃晃	-7154
棍子	-7155
面积	-7156
革命	-7157
▁估计	-7158
▁经常	-7159
小燕子	-7160
▁huo	-7161
▁古	-7162
▁宝	-7163
▁粉	-7164
仅仅	-7165
便是	-7166
坏蛋	-7167
娘娘	-7168
性命	-7169
桔子	-7170
的爱	-7171
眼珠	-7172
结了	-7173
返回	-7174
这项	-7175
那场	-7176
饿得	-7177
▁ti	-7178
买东西	-7179
和我们	-7180
国外的	-7181
在自己	-7182
的讲解	-7183
确实很	-7184
评论区	-7185
百分之四十	-7186
▁久	-7187
一带	-7188
不料	-7189
心灵	-7190
新疆	-7191
梦见	-7192
逐步	-7193
难得	-7194
▁镜子	-7195
主人的	-7196
小河边	-7197
希望他	-7198
笔记本	-7199
第二次	-7200
▁来关注	-7201
ar	-7202
▁除	-7203
包子	-7204
可他	-7205
味的	-7206
嚷嚷	-7207
夸奖	-7208
婴儿	-7209
总裁	-7210
懒惰	-7211
治愈	-7212
灰尘	-7213
矮人	-7214
▁嘉嘉	-7215
不仅仅	-7216
惊呆了	-7217
看那个	-7218
▁看一看	-7219
▁这一课就是这些	-7220
▁忙	-7221
▁月	-7222
▁读	-7223
▁较	-7224
一本	-7225
一线	-7226
壁虎	-7227
天生	-7228
强壮	-7229
最低	-7230
服装	-7231
照着	-7232
规律	-7233
▁西瓜	-7234
到了一	-7235
就是个	-7236
找一个	-7237
也挺好的	-7238
▁就是那个	-7239
▁二零二零年	-7240
▁谁说不是呢	-7241
3?	-7242
▁骂	-7243
为止	-7244
人人	-7245
具备	-7246
商务	-7247
心思	-7248
我到	-7249
打架	-7250
滑冰	-7251
要用	-7252
▁公主	-7253
了一遍	-7254
善良的	-7255
大学生	-7256
已经被	-7257
自己是	-7258
金色的	-7259
他们一起	-7260
这个故事告诉我们	-7261
就就	-7262
是三	-7263
▁尽管	-7264
▁足球	-7265
七亿元	-7266
不过他	-7267
我一个	-7268
稻草人	-7269
自己也	-7270
▁据了解	-7271
京城	-7272
卫星	-7273
太平	-7274
我呢	-7275
武帝	-7276
水桶	-7277
滚滚	-7278
饭菜	-7279
高级	-7280
一般的	-7281
三亿元	-7282
人家的	-7283
和一个	-7284
地回答	-7285
无聊啊	-7286
科创板	-7287
▁那时候	-7288
有一定的	-7289
▁我们下一刻再见吧	-7290
▁油	-7291
▁胡	-7292
承诺	-7293
把那	-7294
机关	-7295
湖南	-7296
相传	-7297
黄帝	-7298
▁动作	-7299
▁积木	-7300
吃了一	-7301
我们来	-7302
我还要	-7303
清楚了	-7304
看比赛	-7305
你也喜欢	-7306
▁diao	-7307
增强	-7308
好心	-7309
岁月	-7310
得不	-7311
林里	-7312
校长	-7313
牧羊	-7314
皮球	-7315
等他	-7316
豆腐	-7317
▁国内	-7318
不及待	-7319
事情的	-7320
真是个	-7321
迫不及待	-7322
lu	-7323
▁。	-7324
一匹	-7325
不愿	-7326
业内	-7327
传染	-7328
冲冲	-7329
可见	-7330
小雨	-7331
模仿	-7332
特意	-7333
理发	-7334
航天	-7335
又一次	-7336
吃掉了	-7337
因为你	-7338
大家对	-7339
急忙忙	-7340
救命啊	-7341
▁lou	-7342
该怎么办	-7343
这次比赛	-7344
三四	-7345
不解	-7346
乐园	-7347
们说	-7348
把握	-7349
环保	-7350
确保	-7351
高速	-7352
▁培训	-7353
家门口	-7354
这一刻	-7355
▁这不是	-7356
你有什么	-7357
他为	-7358
光明	-7359
冰箱	-7360
半场	-7361
又能	-7362
员外	-7363
大陆	-7364
工夫	-7365
早早	-7366
玉帝	-7367
田径	-7368
要做	-7369
论文	-7370
▁医院	-7371
▁熊熊	-7372
他之前	-7373
对不对	-7374
小黑熊	-7375
的还是	-7376
▁我没有	-7377
走着走着	-7378
4?	-7379
娘子	-7380
学问	-7381
帅哥	-7382
开花	-7383
是好	-7384
生态	-7385
相应	-7386
警告	-7387
▁对吧	-7388
▁成为	-7389
不好了	-7390
使劲地	-7391
去参加	-7392
听说了	-7393
广东省	-7394
跑过来	-7395
这是我	-7396
▁ang	-7397
▁mai	-7398
因为这个	-7399
当作	-7400
恐惧	-7401
显然	-7402
满脸	-7403
监督	-7404
▁上来	-7405
▁你在	-7406
不开心	-7407
他看到	-7408
取得了	-7409
为什么呢	-7410
▁占	-7411
依法	-7412
像个	-7413
几百	-7414
向上	-7415
哈欠	-7416
天津	-7417
无所	-7418
特尔	-7419
玛丽	-7420
监会	-7421
车子	-7422
▁以为	-7423
了解到	-7424
大声喊	-7425
好像在	-7426
没时间	-7427
送给你	-7428
露出了	-7429
反正就是	-7430
不顾	-7431
加速	-7432
动静	-7433
安卓	-7434
形的	-7435
放过	-7436
迎来	-7437
▁比赛	-7438
制造业	-7439
实现了	-7440
非常喜欢	-7441
马上就要	-7442
▁niao	-7443
▁H	-7444
不舍	-7445
人是	-7446
准确	-7447
房屋	-7448
有只	-7449
的外	-7450
眼光	-7451
耐心	-7452
赶上	-7453
道德	-7454
铃铛	-7455
顺便	-7456
▁更多	-7457
▁随便	-7458
▁喜马拉雅	-7459
▁蛇	-7460
一模	-7461
宰相	-7462
岩石	-7463
弟子	-7464
弯弯	-7465
打猎	-7466
找出	-7467
望去	-7468
松果	-7469
空调	-7470
越多	-7471
还被	-7472
难怪	-7473
▁直到	-7474
想到了	-7475
的精神	-7476
非常高兴	-7477
制的	-7478
斯特	-7479
水晶	-7480
维护	-7481
该多	-7482
过河	-7483
预测	-7484
▁帽子	-7485
▁o	-7486
▁若	-7487
今后	-7488
体力	-7489
你瞧	-7490
就到	-7491
往外	-7492
成果	-7493
手套	-7494
炫耀	-7495
等于	-7496
等车	-7497
纳入	-7498
还很	-7499
飞的	-7500
▁许多	-7501
、""	-7502
不认识	-7503
也喜欢	-7504
如果是	-7505
快去吧	-7506
才发现	-7507
日本的	-7508
最高的	-7509
第一名	-7510
负责人	-7511
▁然	-7512
不时	-7513
十点	-7514
开学	-7515
排队	-7516
玩得	-7517
财产	-7518
▁头发	-7519
▁果汁	-7520
了自己	-7521
你不要	-7522
那我就	-7523
到处都是	-7524
我们学校	-7525
▁tian	-7526
▁方	-7527
保留	-7528
反弹	-7529
想买	-7530
我听	-7531
招聘	-7532
持有	-7533
猛地	-7534
肖战	-7535
记载	-7536
这几	-7537
这片	-7538
难看	-7539
▁大概	-7540
了一种	-7541
手里的	-7542
▁hen	-7543
▁原	-7544
上线	-7545
功劳	-7546
地铁	-7547
学着	-7548
山谷	-7549
推送	-7550
来一	-7551
灿烂	-7552
用心	-7553
野猫	-7554
▁an	-7555
▁正好	-7556
一下吧	-7557
就比较	-7558
就在这时	-7559
的小老鼠	-7560
我还有事先走了	-7561
一转	-7562
中小	-7563
啥呀	-7564
大风	-7565
对她	-7566
山顶	-7567
新人	-7568
无限	-7569
火锅	-7570
的两	-7571
老三	-7572
装备	-7573
赛车	-7574
跳进	-7575
躺着	-7576
途中	-7577
▁星期	-7578
六亿元	-7579
去哪儿	-7580
可怕了	-7581
实在太	-7582
抬起头	-7583
有趣的	-7584
爬起来	-7585
▁那这个	-7586
急急忙忙	-7587
我的朋友	-7588
百分之二点	-7589
??	-7590
▁瓶	-7591
一试	-7592
七日	-7593
不满	-7594
你都	-7595
到位	-7596
又被	-7597
抽烟	-7598
来接	-7599
楚国	-7600
王爷	-7601
部落	-7602
高校	-7603
▁角落	-7604
▁那样	-7605
已经很	-7606
的成绩	-7607
澳大利亚	-7608
这个名字	-7609
这种事情	-7610
▁hong	-7611
▁数据显示	-7612
八卦	-7613
担忧	-7614
栗子	-7615
自主	-7616
蓝的	-7617
表明	-7618
那人	-7619
不是有	-7620
就不用	-7621
我以为	-7622
我好像	-7623
的身上	-7624
▁创业板	-7625
干干净净	-7626
这个新闻啊	-7627
▁呐	-7628
低下	-7629
到晚	-7630
啪啪	-7631
喔喔	-7632
总体	-7633
抗议	-7634
指标	-7635
放着	-7636
股市	-7637
落实	-7638
采用	-7639
nai	-7640
▁尾巴	-7641
▁屋子	-7642
▁电影	-7643
总冠军	-7644
总觉得	-7645
的公司	-7646
叹了口气	-7647
自己的孩子	-7648
▁另	-7649
▁零	-7650
不远	-7651
专项	-7652
像我	-7653
冰冰	-7654
头脑	-7655
岗位	-7656
康熙	-7657
找了	-7658
控股	-7659
摇晃	-7660
无力	-7661
昆虫	-7662
桃树	-7663
用啊	-7664
笑容	-7665
翻了	-7666
非要	-7667
▁上次	-7668
▁你会	-7669
▁清楚	-7670
到这个	-7671
小河马	-7672
戴口罩	-7673
的价格	-7674
自己在	-7675
要不要	-7676
说的话	-7677
说这个	-7678
▁fei	-7679
▁应该是	-7680
超百分之	-7681
与人	-7682
你得	-7683
卡卡	-7684
喊声	-7685
她又	-7686
帅啊	-7687
村长	-7688
标志	-7689
狗狗	-7690
石子	-7691
耳边	-7692
耽误	-7693
订单	-7694
个子猫	-7695
听故事	-7696
大树下	-7697
手中的	-7698
把他的	-7699
我也看了	-7700
五颜六色的	-7701
很久很久以前	-7702
▁紫	-7703
▁闻	-7704
优点	-7705
停下	-7706
军训	-7707
掉到	-7708
朱元	-7709
沉默	-7710
海报	-7711
演出	-7712
用它	-7713
病了	-7714
负担	-7715
▁er	-7716
▁嗯呐	-7717
▁想想	-7718
▁或许	-7719
中医的	-7720
就不是	-7721
打比赛	-7722
早上好	-7723
的方向	-7724
这里吗	-7725
很有意思	-7726
那个那个	-7727
在意	-7728
坚决	-7729
天堂	-7730
威尔	-7731
总额	-7732
球的	-7733
高度	-7734
可以啊	-7735
可以在	-7736
吃一惊	-7737
有多少	-7738
看什么	-7739
美联储	-7740
谁知道	-7741
一脚	-7742
不良	-7743
拼个	-7744
教学	-7745
春秋	-7746
橡皮	-7747
用过	-7748
碎了	-7749
礼拜	-7750
足了	-7751
问你	-7752
龙宫	-7753
为我们	-7754
了一天	-7755
博物馆	-7756
外国人	-7757
大老虎	-7758
结婚了	-7759
这几天	-7760
▁我平时	-7761
▁说不定	-7762
体育新闻	-7763
王者荣耀	-7764
▁然后就是	-7765
一刻在您身边	-7766
▁热点财经资讯一刻在您身边	-7767
▁件	-7768
▁轩	-7769
丞相	-7770
发言	-7771
大战	-7772
小屋	-7773
展现	-7774
开启	-7775
总算	-7776
摇了	-7777
某某	-7778
死后	-7779
气了	-7780
渠道	-7781
袭击	-7782
还蛮	-7783
▁手机	-7784
▁起床	-7785
你刚才	-7786
你就会	-7787
其他人	-7788
地说道	-7789
是谁啊	-7790
的一只	-7791
▁chang	-7792
▁你也在看这篇	-7793
仙人	-7794
向往	-7795
商家	-7796
西湖	-7797
马车	-7798
▁聪明	-7799
做好了	-7800
所以就	-7801
▁然后他	-7802
了一个大	-7803
我们现在	-7804
看到一个	-7805
▁不好意思	-7806
▁今天我们	-7807
▁云	-7808
上门	-7809
亚马	-7810
关闭	-7811
其妙	-7812
嫉妒	-7813
文学	-7814
笑得	-7815
红红	-7816
翻译	-7817
通报	-7818
骗子	-7819
可以说	-7820
坐下来	-7821
我都不	-7822
朱元璋	-7823
正常的	-7824
的关系	-7825
的冠军	-7826
看一看	-7827
不过现在	-7828
加大	-7829
学到	-7830
思维	-7831
树洞	-7832
栗鼠	-7833
海豚	-7834
竞技	-7835
糊糊	-7836
自律	-7837
行吗	-7838
趁着	-7839
释放	-7840
闪电	-7841
▁底下	-7842
▁建议	-7843
勒布朗	-7844
猪妈妈	-7845
的办法	-7846
笑了笑	-7847
""""	-7848
越来越好	-7849
是怎么回事	-7850
丁俊	-7851
作战	-7852
启动	-7853
喉咙	-7854
妇女	-7855
新型	-7856
灯光	-7857
确认	-7858
艺人	-7859
在天上	-7860
的同时	-7861
的能力	-7862
因为他们	-7863
▁那你知道	-7864
微信公众号	-7865
主帅	-7866
周琦	-7867
复苏	-7868
富翁	-7869
巨大	-7870
延续	-7871
机长	-7872
流星	-7873
睡得	-7874
认可	-7875
遵守	-7876
任何人	-7877
意识到	-7878
摩托车	-7879
电动车	-7880
咱们这个	-7881
漂亮的小	-7882
严肃	-7883
体会	-7884
余额	-7885
先去	-7886
包裹	-7887
基地	-7888
存款	-7889
救我	-7890
沙沙	-7891
男女	-7892
跑着	-7893
阿布	-7894
▁她们	-7895
▁好啦	-7896
▁萝卜	-7897
丁俊晖	-7898
▁我不知道	-7899
,《	-7900
▁撞	-7901
不看	-7902
偶然	-7903
八日	-7904
房企	-7905
时机	-7906
来临	-7907
流着	-7908
猎狗	-7909
落下	-7910
镇上	-7911
也不敢	-7912
了出去	-7913
二零二	-7914
把那个	-7915
朋友圈	-7916
此同时	-7917
的狐狸	-7918
还是在	-7919
▁hou	-7920
▁T	-7921
▁何	-7922
▁首	-7923
一共	-7924
打死	-7925
气质	-7926
渴望	-7927
火柴	-7928
犯了	-7929
精心	-7930
陷入	-7931
雨伞	-7932
▁恐龙	-7933
▁蔬菜	-7934
也跟着	-7935
实力的	-7936
收益率	-7937
的粉丝	-7938
赛场上	-7939
▁大家好	-7940
但是现在	-7941
你是不是	-7942
▁xian	-7943
by	-7944
不光	-7945
响声	-7946
女友	-7947
抓起	-7948
护士	-7949
探出	-7950
搬到	-7951
易烊	-7952
权利	-7953
的太	-7954
红柿	-7955
课程	-7956
顽皮	-7957
飘飘	-7958
鼻涕	-7959
mao	-7960
▁坏人	-7961
主教练	-7962
更大的	-7963
的力量	-7964
还需要	-7965
选择了	-7966
▁还行吧	-7967
te	-7968
住宅	-7969
使者	-7970
听后	-7971
山洞	-7972
往回	-7973
清晰	-7974
狼的	-7975
进口	-7976
不管是	-7977
习惯了	-7978
兴奋地	-7979
就是有	-7980
薇姐姐	-7981
那么好	-7982
▁小猴子	-7983
▁我可以	-7984
挺好看的	-7985
一蹦	-7986
东尼	-7987
华德	-7988
响起	-7989
在外	-7990
散发	-7991
玩意	-7992
缘故	-7993
脾胃	-7994
街道	-7995
]。[	-7996
▁关系	-7997
▁被子	-7998
从树上	-7999
兔宝宝	-8000
努力的	-8001
就一直	-8002
过得好	-8003
还真是	-8004
这首歌	-8005
一个人的	-8006
不一样的	-8007
春天来了	-8008
bianr	-8009
)。	-8010
乐意	-8011
励志	-8012
打打	-8013
斯的	-8014
来啦	-8015
油油	-8016
热刺	-8017
特的	-8018
登记	-8019
绝了	-8020
请您	-8021
赞同	-8022
走开	-8023
逆转	-8024
两个月	-8025
什么样	-8026
家孩子	-8027
是一部	-8028
离不开	-8029
觉得他	-8030
这种事	-8031
都是有	-8032
▁我还是	-8033
这个世界	-8034
:'	-8035
为我	-8036
共享	-8037
叹气	-8038
文中	-8039
是由	-8040
没能	-8041
我其实	-8042
留下来	-8043
的小孩	-8044
霍华德	-8045
预告片	-8046
▁很多人	-8047
是什么呢	-8048
智慧语音	-8049
莫名其妙	-8050
▁压	-8051
一同	-8052
不论	-8053
争夺	-8054
冬冬	-8055
向你	-8056
多大	-8057
情的	-8058
旅客	-8059
暗暗	-8060
靴子	-8061
▁轩轩	-8062
只要你	-8063
爱奇艺	-8064
的主人	-8065
要知道	-8066
当然可以	-8067
还不知道	-8068
智慧语音采集	-8069
主场	-8070
公元	-8071
前三	-8072
加班	-8073
升起	-8074
后期	-8075
城的	-8076
嫌疑	-8077
守护	-8078
惊慌	-8079
春风	-8080
滋味	-8081
爱数	-8082
的病	-8083
再见了	-8084
同一个	-8085
太小了	-8086
对他们	-8087
总决赛	-8088
我不想	-8089
电子烟	-8090
电视机	-8091
从此以后	-8092
易烊千玺	-8093
一亮	-8094
上网	-8095
偏偏	-8096
山西	-8097
成都	-8098
提起	-8099
斧头	-8100
是想	-8101
琪琪	-8102
破产	-8103
穷人	-8104
脚印	-8105
谁啊	-8106
跟她	-8107
还给	-8108
里了	-8109
▁休息	-8110
▁去年	-8111
▁导致	-8112
▁耳朵	-8113
了一圈	-8114
五亿元	-8115
你这样	-8116
▁我在看	-8117
孩子下课了	-8118
人多	-8119
儿女	-8120
办理	-8121
和新	-8122
喘气	-8123
声明	-8124
子说	-8125
律师	-8126
感恩	-8127
打造	-8128
教我	-8129
格外	-8130
皮鞋	-8131
篱笆	-8132
部长	-8133
▁mo	-8134
▁全球	-8135
▁睡着	-8136
一大早	-8137
小狮子	-8138
开心的	-8139
的重要	-8140
脖子上	-8141
还好吧	-8142
大吃一惊	-8143
这部电视剧	-8144
▁偷	-8145
一月	-8146
会了	-8147
出身	-8148
分数	-8149
卡车	-8150
却说	-8151
发愁	-8152
周五	-8153
山下	-8154
平方	-8155
并非	-8156
没啥	-8157
活泼	-8158
游来	-8159
相反	-8160
绝望	-8161
罚款	-8162
那那	-8163
▁也对	-8164
▁我不	-8165
▁相信	-8166
一家人	-8167
千万别	-8168
现在都	-8169
的影子	-8170
这也太	-8171
▁wai	-8172
先不聊了	-8173
可能就是	-8174
好多好多	-8175
bi	-8176
兮兮	-8177
农场	-8178
北风	-8179
友好	-8180
唧唧	-8181
幸亏	-8182
拖着	-8183
晚餐	-8184
根廷	-8185
涉嫌	-8186
滋滋	-8187
纳闷	-8188
行人	-8189
▁跳跳	-8190
▁麻烦	-8191
了一百	-8192
二零零	-8193
才是最	-8194
掉进了	-8195
我一个人	-8196
还有就是	-8197
▁guan	-8198
▁鞋	-8199
伟大	-8200
公路	-8201
县官	-8202
史上	-8203
地想	-8204
大火	-8205
将于	-8206
带动	-8207
新年	-8208
服了	-8209
深入	-8210
的都	-8211
睡前	-8212
花香	-8213
讲究	-8214
贫穷	-8215
辞职	-8216
随意	-8217
▁eh	-8218
一部分	-8219
不一定	-8220
不好看	-8221
研究院	-8222
着自己的	-8223
一点儿也不	-8224
叫什么名字	-8225
爱数智慧语音采集	-8226
▁线	-8227
三人	-8228
主力	-8229
储备	-8230
出场	-8231
十七	-8232
外界	-8233
形势	-8234
死去	-8235
般的	-8236
错过	-8237
鸡毛	-8238
鼓鼓	-8239
冰淇淋	-8240
同意了	-8241
所谓的	-8242
▁zui	-8243
▁zang	-8244
▁今天天气	-8245
▁你知道吗	-8246
do	-8247
▁汉	-8248
三国	-8249
他妈	-8250
吉米	-8251
就走	-8252
建造	-8253
恶心	-8254
招待	-8255
清澈	-8256
见他	-8257
预备	-8258
▁嗯对	-8259
▁是呢	-8260
是这个	-8261
更喜欢	-8262
自己去	-8263
不平	-8264
不愧	-8265
从不	-8266
依靠	-8267
制定	-8268
定位	-8269
小船	-8270
巅峰	-8271
猕猴	-8272
画家	-8273
茸茸	-8274
要看	-8275
长成	-8276
问我	-8277
马云	-8278
不高兴	-8279
拼个桌	-8280
讲的是	-8281
陌生人	-8282
▁要不然	-8283
▁喷	-8284
▁断	-8285
▁日	-8286
你呀	-8287
善于	-8288
噜噜	-8289
回落	-8290
子了	-8291
彩色	-8292
或是	-8293
明朝	-8294
来买	-8295
的金	-8296
着嘴	-8297
绿叶	-8298
他也是	-8299
大家说	-8300
我刚刚	-8301
的态度	-8302
的父亲	-8303
▁还好吧	-8304
""、""	-8305
▁记不记得	-8306
上月	-8307
下调	-8308
价钱	-8309
冠状	-8310
境外	-8311
安娜	-8312
放假	-8313
果果	-8314
格局	-8315
梦里	-8316
犀牛	-8317
而出	-8318
越高	-8319
隐私	-8320
000	-8321
▁三百	-8322
▁可惜	-8323
世锦赛	-8324
也表示	-8325
从来不	-8326
先走啦	-8327
又开始	-8328
好东西	-8329
感觉很	-8330
没多久	-8331
的技术	-8332
▁ban	-8333
我最喜欢	-8334
那么多的	-8335
▁我们一起来	-8336
▁左	-8337
场面	-8338
外资	-8339
大黄	-8340
恭喜	-8341
成年	-8342
掏出	-8343
焦急	-8344
的有	-8345
等人	-8346
说出	-8347
起舞	-8348
▁巧虎	-8349
该怎么	-8350
胎教故事	-8351
▁林	-8352
▁窝	-8353
三角	-8354
你啊	-8355
创作	-8356
刷刷	-8357
危害	-8358
卷心	-8359
市民	-8360
湖边	-8361
片段	-8362
的中	-8363
笑声	-8364
第五	-8365
贾乃	-8366
进门	-8367
透过	-8368
递给	-8369
逻辑	-8370
那次	-8371
麦子	-8372
1],	-8373
;""	-8374
▁凳子	-8375
▁忘记	-8376
亚马逊	-8377
小哥哥	-8378
是中国	-8379
▁我是主播	-8380
世间	-8381
国民	-8382
想啊	-8383
愚蠢	-8384
捉住	-8385
搬家	-8386
活了	-8387
电信	-8388
白马	-8389
窗子	-8390
辅助	-8391
退休	-8392
难的	-8393
▁整个	-8394
在后面	-8395
是可以	-8396
的肚子	-8397
▁我的天	-8398
一个一个	-8399
不是很好	-8400
现在这个	-8401
香喷喷的	-8402
▁tiao	-8403
我都不知道	-8404
一间	-8405
七千	-8406
以下	-8407
会把	-8408
凭借	-8409
参赛	-8410
好友	-8411
寝室	-8412
循环	-8413
甲虫	-8414
鲜艳	-8415
中医院	-8416
就走了	-8417
的小花	-8418
的过程	-8419
附近的	-8420
太厉害了	-8421
南都名医大讲堂	-8422
代替	-8423
佳佳	-8424
却被	-8425
叫人	-8426
图画	-8427
在哪	-8428
学了	-8429
尽了	-8430
游玩	-8431
白了	-8432
真诚	-8433
笼子	-8434
请教	-8435
进屋	-8436
钱了	-8437
▁城堡	-8438
奇妙的	-8439
女主角	-8440
的生日	-8441
的阳光	-8442
这一个	-8443
作为一个	-8444
本来就是	-8445
▁是啊是啊	-8446
我也很喜欢	-8447
这是怎么回事	-8448
▁夹	-8449
▁浇	-8450
一瞧	-8451
从事	-8452
你一	-8453
分开	-8454
别提	-8455
哇克	-8456
往后	-8457
很早	-8458
是小	-8459
标赛	-8460
特色	-8461
看点	-8462
谦虚	-8463
这张	-8464
道士	-8465
那块	-8466
▁咪咪	-8467
上映了	-8468
从小就	-8469
傻瓜熊	-8470
几个人	-8471
发挥的	-8472
在一旁	-8473
在美国	-8474
是比较	-8475
老头儿	-8476
而不是	-8477
身边的	-8478
迟到了	-8479
▁那就是	-8480
各种各样	-8481
有意思的	-8482
然后我就	-8483
资本市场	-8484
这个消息	-8485
这样的人	-8486
百分之六十	-8487
▁么	-8488
▁赵	-8489
下雪	-8490
保健	-8491
先后	-8492
双眼	-8493
天才	-8494
姑姑	-8495
安装	-8496
岸上	-8497
待遇	-8498
手的	-8499
报答	-8500
文明	-8501
无意	-8502
活儿	-8503
点心	-8504
白鹅	-8505
鲜肉	-8506
▁哇塞	-8507
▁学习	-8508
▁要不	-8509
一定很	-8510
以上的	-8511
再加上	-8512
华为的	-8513
可不能	-8514
呜呜呜	-8515
对对对	-8516
怎么看	-8517
的小猫	-8518
▁小狐狸	-8519
▁截止到	-8520
一直都是	-8521
这个事情	-8522
▁结	-8523
上港	-8524
传奇	-8525
击败	-8526
到这	-8527
听话	-8528
大约	-8529
戒指	-8530
湿了	-8531
豌豆	-8532
边走	-8533
过冬	-8534
退出	-8535
长长	-8536
▁也有	-8537
可是他	-8538
头上的	-8539
尖尖的	-8540
没看过	-8541
的小熊	-8542
笑嘻嘻	-8543
说自己	-8544
▁你最近	-8545
▁圈	-8546
▁挂	-8547
▁船	-8548
临床	-8549
之心	-8550
到你	-8551
基因	-8552
实习	-8553
往常	-8554
猫耳	-8555
皇宫	-8556
突出	-8557
蛋壳	-8558
这也	-8559
黑夜	-8560
▁深圳	-8561
下了头	-8562
可真是	-8563
我认为	-8564
更加的	-8565
树洞里	-8566
给孩子	-8567
董事长	-8568
试一试	-8569
货币政策	-8570
这么好的	-8571
阿里巴巴	-8572
40	-8573
▁师	-8574
不高	-8575
作出	-8576
儿们	-8577
出轨	-8578
四季	-8579
嫦娥	-8580
学历	-8581
尼亚	-8582
山里	-8583
幻想	-8584
懂了	-8585
捧着	-8586
时常	-8587
贫困	-8588
零食	-8589
不清楚	-8590
和朋友	-8591
好孩子	-8592
当时的	-8593
最多的	-8594
这故事	-8595
▁我们下期再见	-8596
si	-8597
六日	-8598
固定	-8599
我怕	-8600
才华	-8601
拿过	-8602
明珠	-8603
民生	-8604
音频	-8605
了下去	-8606
出门了	-8607
新闻说	-8608
草原上	-8609
谈恋爱	-8610
还是会	-8611
冠状病毒	-8612
对自己的	-8613
我们这个	-8614
▁非常感谢	-8615
人为	-8616
你像	-8617
凶猛	-8618
奈何	-8619
康复	-8620
打滚	-8621
捕捉	-8622
散了	-8623
洞穴	-8624
能让	-8625
详细	-8626
餐饮	-8627
▁pi	-8628
了上去	-8629
什么是	-8630
害怕了	-8631
老太太	-8632
这么快	-8633
这几年	-8634
这样吧	-8635
飞过来	-8636
▁yan	-8637
一动不动	-8638
不过我觉得	-8639
我还有点事	-8640
,3	-8641
▁S	-8642
三万	-8643
九九	-8644
余年	-8645
午饭	-8646
地图	-8647
房里	-8648
捡起	-8649
流水	-8650
空的	-8651
美满	-8652
赶来	-8653
▁小米	-8654
▁讨厌	-8655
八亿元	-8656
公开赛	-8657
回去吧	-8658
我发现	-8659
然后我	-8660
的话就	-8661
钻进了	-8662
飞到了	-8663
2019	-8664
▁累	-8665
一趟	-8666
不必	-8667
井里	-8668
到此	-8669
打听	-8670
报警	-8671
拳击	-8672
擅长	-8673
深的	-8674
电台	-8675
的面	-8676
觅食	-8677
默契	-8678
龙的	-8679
了一家	-8680
低着头	-8681
可能性	-8682
增加了	-8683
您晚安	-8684
才可以	-8685
新闻呀	-8686
的心情	-8687
给别人	-8688
英雄联盟	-8689
乔丹	-8690
大胆	-8691
李小	-8692
森纳	-8693
灭了	-8694
纠结	-8695
老家	-8696
脸色	-8697
良心	-8698
西甲	-8699
难度	-8700
飞舞	-8701
饥饿	-8702
▁当前	-8703
你有看	-8704
拼命地	-8705
生命的	-8706
的速度	-8707
角落里	-8708
▁tao	-8709
▁但是他	-8710
和你聊天	-8711
这方面的	-8712
▁了解更多财经资讯	-8713
▁织	-8714
之人	-8715
便利	-8716
卖了	-8717
在她	-8718
天黑	-8719
尽力	-8720
温和	-8721
游到	-8722
监狱	-8723
要多	-8724
诗人	-8725
走近	-8726
逃走	-8727
三个人	-8728
不行啊	-8729
了进去	-8730
还有个	-8731
这都是	-8732
那可是	-8733
也很喜欢	-8734
用自己的	-8735
大个子老鼠	-8736
▁其实我觉得	-8737
。(	-8738
两万	-8739
他才	-8740
国君	-8741
天陪	-8742
很像	-8743
神经	-8744
罐头	-8745
那年	-8746
震惊	-8747
题目	-8748
2],	-8749
▁hu	-8750
一边走	-8751
到这儿	-8752
十五号	-8753
小熊说	-8754
幸福的	-8755
成功了	-8756
打开门	-8757
放弃了	-8758
▁zhu	-8759
回家去了	-8760
我们应该	-8761
我只知道	-8762
那个什么	-8763
重要的是	-8764
▁眼	-8765
▁脱	-8766
原油	-8767
又跳	-8768
发觉	-8769
杜鹃	-8770
正想	-8771
看吧	-8772
硬的	-8773
站牌	-8774
第六	-8775
精英	-8776
航班	-8777
艾伦	-8778
表面	-8779
踏实	-8780
防护	-8781
阿凡	-8782
zhe	-8783
▁勇敢	-8784
▁小狗	-8785
▁报告	-8786
▁浴室	-8787
买一个	-8788
十分钟	-8789
就看看	-8790
您分享	-8791
爷爷的	-8792
锦标赛	-8793
▁所有的	-8794
那你平时	-8795
天陪在您身边	-8796
▁练	-8797
一粒	-8798
他呢	-8799
刘备	-8800
商场	-8801
声优	-8802
幅画	-8803
景区	-8804
有过	-8805
此事	-8806
淡淡	-8807
疯了	-8808
的多	-8809
约定	-8810
送去	-8811
▁lu	-8812
▁好呀	-8813
▁此次	-8814
▁老鹰	-8815
▁面对	-8816
下雨了	-8817
他发现	-8818
就特别	-8819
池塘边	-8820
还是得	-8821
晚安妈妈	-8822
有人坐吗	-8823
百分之九十	-8824
高高兴兴地	-8825
▁躺	-8826
》、	-8827
之时	-8828
停在	-8829
分为	-8830
又好	-8831
名为	-8832
嫁给	-8833
幽默	-8834
总结	-8835
战场	-8836
报仇	-8837
蝈蝈	-8838
转移	-8839
陪着	-8840
马的	-8841
上班了	-8842
球队的	-8843
第一天	-8844
还是不	-8845
阿根廷	-8846
▁广东省	-8847
动物们都	-8848
在评论区	-8849
我车来了	-8850
真的是很	-8851
知道自己	-8852
▁交	-8853
仓鼠	-8854
字母	-8855
我呀	-8856
曼城	-8857
爱心	-8858
质疑	-8859
贵了	-8860
达尔	-8861
野花	-8862
青青	-8863
韩信	-8864
项羽	-8865
▁安静	-8866
已经在	-8867
有问题	-8868
的妻子	-8869
飞来了	-8870
▁谁知道	-8871
我的孩子	-8872
笑了起来	-8873
gu	-8874
人也	-8875
务院	-8876
呆呆	-8877
头了	-8878
平稳	-8879
手臂	-8880
欲望	-8881
爱国	-8882
瓢虫	-8883
用处	-8884
穿越	-8885
网吧	-8886
网红	-8887
要么	-8888
试验	-8889
调节	-8890
陪我	-8891
也是有	-8892
从来没	-8893
动物园	-8894
唯一的	-8895
是自己	-8896
漂亮了	-8897
而且他	-8898
huir	-8899
一下子就	-8900
不和你说	-8901
中国足球	-8902
▁你说的是	-8903
▁我看了啊	-8904
下水	-8905
乡亲	-8906
交所	-8907
充足	-8908
凉的	-8909
出版	-8910
发射	-8911
吓人	-8912
嫌弃	-8913
将他	-8914
得过	-8915
快讯	-8916
惭愧	-8917
有大	-8918
洗手	-8919
海底	-8920
深夜	-8921
物品	-8922
病的	-8923
聚会	-8924
行政	-8925
计较	-8926
违反	-8927
▁小鸟	-8928
▁讲话	-8929
也不要	-8930
人们都	-8931
和其他	-8932
棉花糖	-8933
雪白的	-8934
▁有什么	-8935
▁还可以	-8936
另外一个	-8937
新官病毒	-8938
自言自语地说	-8939
▁摘	-8940
▁沙	-8941
▁罗	-8942
▁隔	-8943
一堆	-8944
不长	-8945
之地	-8946
之际	-8947
几步	-8948
单独	-8949
又想	-8950
召集	-8951
咕咚	-8952
奖项	-8953
对岸	-8954
就打	-8955
沮丧	-8956
球场	-8957
琢磨	-8958
组成	-8959
能有	-8960
茉莉	-8961
▁轮子	-8962
▁阿里	-8963
买了一	-8964
了一句	-8965
出色的	-8966
分别是	-8967
大声地	-8968
感受到	-8969
村子里	-8970
▁美联储	-8971
我要走了	-8972
▁儿	-8973
万分	-8974
他他	-8975
加盟	-8976
壮壮	-8977
就来	-8978
带了	-8979
快到	-8980
怪的	-8981
搞得	-8982
是哪	-8983
景色	-8984
▁多的	-8985
▁担心	-8986
卷心菜	-8987
同样的	-8988
我以后	-8989
是多么	-8990
有一年	-8991
?"""	-8992
六十五天天	-8993
▁嗳	-8994
坐下	-8995
年度	-8996
广泛	-8997
李白	-8998
氛围	-8999
烈的	-9000
行李	-9001
还用	-9002
闻到	-9003
随手	-9004
▁我国	-9005
▁跳舞	-9006
最小的	-9007
绿油油	-9008
那种感觉	-9009
领着孩子	-9010
▁对啊对啊	-9011
▁祝您晚安	-9012
六十五天天天陪在您身边	-9013
▁乐	-9014
▁使	-9015
▁插	-9016
吞吞	-9017
在乎	-9018
失业	-9019
年底	-9020
抱歉	-9021
的黑	-9022
童年	-9023
草帽	-9024
被打	-9025
重了	-9026
防疫	-9027
3],	-9028
▁恩恩	-9029
世界的	-9030
内马尔	-9031
小袋鼠	-9032
▁gai	-9033
还挺好的	-9034
▁武	-9035
▁酒	-9036
也对	-9037
创始	-9038
吃不	-9039
回过	-9040
完整	-9041
此次	-9042
波迪	-9043
赛场	-9044
闪着	-9045
风车	-9046
馒头	-9047
▁pa	-9048
▁不如	-9049
▁心里	-9050
一定的	-9051
主持人	-9052
伤心的	-9053
微笑着	-9054
情况下	-9055
所说的	-9056
的鼻子	-9057
这个小	-9058
那不是	-9059
▁确实是	-9060
一般都是	-9061
不知道了	-9062
准备好了	-9063
在草地上	-9064
打乒乓球	-9065
▁咋	-9066
▁沪	-9067
▁滚	-9068
县令	-9069
叮当	-9070
坚固	-9071
子和	-9072
扇子	-9073
摆脱	-9074
板凳	-9075
灿灿	-9076
螳螂	-9077
路的	-9078
闹钟	-9079
震撼	-9080
▁每个	-9081
你不能	-9082
安东尼	-9083
工作的	-9084
父亲的	-9085
石头上	-9086
▁gou	-9087
▁可能是	-9088
叽叽喳喳	-9089
差不多了	-9090
有自己的	-9091
百分之三点	-9092
▁吴	-9093
一杯	-9094
列车	-9095
吓唬	-9096
啤酒	-9097
大雪	-9098
妇人	-9099
硬币	-9100
蜈蚣	-9101
解除	-9102
过度	-9103
这人	-9104
都给	-9105
魅力	-9106
龙虾	-9107
▁我我	-9108
了一次	-9109
是一条	-9110
有人在	-9111
行业的	-9112
还以为	-9113
▁小刺猬	-9114
职业生涯	-9115
那你知道	-9116
▁你也喜欢	-9117
给我们留言	-9118
ad	-9119
▁靠	-9120
丫丫	-9121
之类	-9122
侦探	-9123
债务	-9124
冷静	-9125
包装	-9126
发烧	-9127
大片	-9128
疼得	-9129
运用	-9130
近视	-9131
追逐	-9132
齐国	-9133
▁一是	-9134
▁兄弟	-9135
▁哎呦	-9136
▁广告	-9137
▁想要	-9138
▁鞋子	-9139
一直都	-9140
不由得	-9141
可以吗	-9142
可惜啊	-9143
咚咚咚	-9144
我倒是	-9145
户人家	-9146
老师说	-9147
走出来	-9148
那么高	-9149
▁一点点	-9150
今天晚上	-9151
▁同比下降	-9152
专注	-9153
两口	-9154
们在	-9155
后卫	-9156
外套	-9157
它把	-9158
导体	-9159
就给	-9160
得起	-9161
心脏	-9162
港元	-9163
玩着	-9164
聊着	-9165
茫茫	-9166
跟头	-9167
长江	-9168
集市	-9169
6],	-9170
▁tu	-9171
九亿元	-9172
了一位	-9173
产生了	-9174
小王子	-9175
微博上	-9176
本来就	-9177
正准备	-9178
班主任	-9179
留下了	-9180
▁tai	-9181
他的比赛	-9182
99	-9183
例子	-9184
分的	-9185
北控	-9186
四日	-9187
坏的	-9188
外表	-9189
安安	-9190
当前	-9191
摇篮	-9192
焦虑	-9193
疲惫	-9194
穿的	-9195
纸上	-9196
耗子	-9197
胡须	-9198
降临	-9199
唱着歌	-9200
它就是	-9201
我要是	-9202
胖胖熊	-9203
▁tui	-9204
好奇地问	-9205
百分之八十	-9206
▁D	-9207
不忍	-9208
向您	-9209
君子	-9210
拉丁	-9211
救援	-9212
最早	-9213
杂志	-9214
来回	-9215
烟囱	-9216
状元	-9217
纳德	-9218
继科	-9219
财务	-9220
这棵	-9221
4],	-9222
5],	-9223
▁可爱	-9224
▁树叶	-9225
他这个	-9226
带回家	-9227
感觉他	-9228
接着说	-9229
爬上了	-9230
的要求	-9231
第三天	-9232
阿森纳	-9233
▁怎么了	-9234
中医中药	-9235
也没什么	-9236
叫了起来	-9237
这个位置	-9238
足球运动员	-9239
ha	-9240
▁造	-9241
乱了	-9242
修复	-9243
冰雪	-9244
动听	-9245
复产	-9246
大涨	-9247
大狼	-9248
布局	-9249
的哦	-9250
真想	-9251
细菌	-9252
茄子	-9253
诸侯	-9254
那颗	-9255
面子	-9256
▁唉呀	-9257
▁的确	-9258
▁问题	-9259
不适合	-9260
城市的	-9261
我看看	-9262
的大树	-9263
的演技	-9264
▁好巧啊	-9265
低下了头	-9266
千零一夜	-9267
疫情影响	-9268
超级喜欢	-9269
▁英	-9270
▁调	-9271
一周	-9272
一套	-9273
光芒	-9274
好人	-9275
始皇	-9276
子女	-9277
巫师	-9278
德勒	-9279
挺有	-9280
的下	-9281
羞愧	-9282
警惕	-9283
诱惑	-9284
不过是	-9285
也很好	-9286
他们也	-9287
危险的	-9288
呼呼地	-9289
和自己	-9290
很简单	-9291
悄悄的	-9292
我还没	-9293
把你的	-9294
的太阳	-9295
知道吗	-9296
这一块	-9297
钻出来	-9298
▁到时候	-9299
什么游戏	-9300
妈妈的话	-9301
▁你有没有	-9302
▁这个故事	-9303
▁共	-9304
▁刀	-9305
亲切	-9306
他被	-9307
养老	-9308
前进	-9309
卖的	-9310
咨询	-9311
太不	-9312
局面	-9313
情愿	-9314
打量	-9315
抓到	-9316
挑选	-9317
攻打	-9318
波动	-9319
洛阳	-9320
爬树	-9321
的木	-9322
相遇	-9323
积累	-9324
笨蛋	-9325
缓缓	-9326
贪婪	-9327
阿嚏	-9328
黑黑	-9329
▁帮助	-9330
我就会	-9331
还是一个	-9332
这些都是	-9333
那场比赛	-9334
▁先不说啦	-9335
公交车来了	-9336
▁呦	-9337
仙鹤	-9338
入选	-9339
出道	-9340
岛上	-9341
徒弟	-9342
房价	-9343
掌声	-9344
收藏	-9345
是对	-9346
来吃	-9347
男神	-9348
眨眼	-9349
福建	-9350
行情	-9351
鲁鲁	-9352
▁七月	-9353
▁小小	-9354
▁我有	-9355
▁这就	-9356
不早了	-9357
四亿元	-9358
在身上	-9359
太棒了	-9360
是不会	-9361
的学生	-9362
这是个	-9363
醒过来	-9364
▁有一个	-9365
爱数智慧语音采集二零一九年	-9366
▁瑞	-9367
一旁	-9368
乡下	-9369
当做	-9370
怀孕	-9371
思议	-9372
把门	-9373
提议	-9374
教你	-9375
点燃	-9376
熟了	-9377
狼群	-9378
说要	-9379
赞美	-9380
▁一块	-9381
▁如今	-9382
妈妈在	-9383
就直接	-9384
引起了	-9385
我刚才	-9386
挡住了	-9387
认真地	-9388
▁我以前	-9389
人士表示	-9390
这样的一个	-9391
▁明	-9392
会更	-9393
便把	-9394
全家	-9395
公牛	-9396
她和	-9397
宽松	-9398
懒腰	-9399
这段	-9400
金丝	-9401
金刚	-9402
钻石	-9403
附属	-9404
雪莉	-9405
先生说	-9406
我不要	-9407
最新的	-9408
长出了	-9409
▁大灰狼	-9410
▁陕西省	-9411
▁G	-9412
一团	-9413
一找	-9414
光的	-9415
嫩的	-9416
忍受	-9417
我爸	-9418
晚间	-9419
有有	-9420
江南	-9421
膝盖	-9422
铁路	-9423
香肠	-9424
guo	-9425
三十号	-9426
向资金	-9427
已经有	-9428
普通人	-9429
看球赛	-9430
给你的	-9431
贾乃亮	-9432
长着一	-9433
▁大家都	-9434
挺厉害的	-9435
东坡	-9436
久的	-9437
传出	-9438
傻了	-9439
后续	-9440
唐朝	-9441
如同	-9442
小丑	-9443
带的	-9444
赔偿	-9445
输入	-9446
边儿	-9447
预约	-9448
▁化妆	-9449
▁说说	-9450
然后呢	-9451
真实的	-9452
但是还是	-9453
新闻快讯	-9454
▁baby	-9455
好吃的东西	-9456
一款	-9457
严厉	-9458
倒在	-9459
免疫	-9460
品质	-9461
尔特	-9462
投篮	-9463
晋级	-9464
欺骗	-9465
灵机	-9466
祈祷	-9467
绿灯	-9468
苏宁	-9469
警长	-9470
那棵	-9471
▁客人	-9472
▁柜子	-9473
▁牙齿	-9474
》、《	-9475
兄弟俩	-9476
圣诞节	-9477
当然了	-9478
流动性	-9479
闪闪发光	-9480
▁威	-9481
上岸	-9482
住的	-9483
公斤	-9484
出院	-9485
千年	-9486
向了	-9487
坚强	-9488
就让	-9489
快去	-9490
您好	-9491
条腿	-9492
正巧	-9493
清水	-9494
狂风	-9495
百合	-9496
种族	-9497
进展	-9498
▁很快	-9499
▁果然	-9500
不要再	-9501
为他们	-9502
哭起来	-9503
旁边的	-9504
用的是	-9505
着一只	-9506
跑出来	-9507
送给了	-9508
ello	-9509
▁cha	-9510
▁悄悄地	-9511
也越来越	-9512
▁三百六十五天天天陪在您身边	-9513
▁杀	-9514
丑陋	-9515
乾隆	-9516
她还	-9517
差的	-9518
弱的	-9519
打法	-9520
新款	-9521
求婚	-9522
而又	-9523
▁四月	-9524
▁山羊	-9525
▁我啊	-9526
▁鸡蛋	-9527
了好几	-9528
俗话说	-9529
月十号	-9530
▁一定要	-9531
▁我看过	-9532
小宝贝们	-9533
自己的小	-9534
都有自己的	-9535
▁颗	-9536
一首	-9537
事的	-9538
五六	-9539
刻苦	-9540
手了	-9541
才好	-9542
拯救	-9543
是真	-9544
比起	-9545
气喘	-9546
纽约	-9547
苦恼	-9548
走得	-9549
重复	-9550
高铁	-9551
▁冬天	-9552
▁英国	-9553
一百零	-9554
了很久	-9555
去寻找	-9556
叙利亚	-9557
女孩儿	-9558
小母鸡	-9559
感到很	-9560
毛茸茸	-9561
现在就	-9562
花栗鼠	-9563
这样呀	-9564
都比较	-9565
青少年	-9566
大象伯伯	-9567
来了一个	-9568
在评论区给我们留言	-9569
▁念	-9570
▁舔	-9571
▁艾	-9572
为国	-9573
丽的	-9574
也将	-9575
写道	-9576
十足	-9577
号码	-9578
在玩	-9579
复习	-9580
大型	-9581
战国	-9582
捂着	-9583
棒啊	-9584
毛巾	-9585
百万	-9586
美了	-9587
高啊	-9588
▁中间	-9589
九健康	-9590
也不用	-9591
基础上	-9592
太多的	-9593
小灰鼠	-9594
彩色的	-9595
有人说	-9596
点什么	-9597
过日子	-9598
非常有	-9599
不容易啊	-9600
已经开始	-9601
很多很多	-9602
摇摇头说	-9603
每天都要	-9604
飞来飞去	-9605
中医中药有	-9606
▁害	-9607
▁根	-9608
▁雨	-9609
一层	-9610
交往	-9611
位的	-9612
十九	-9613
只顾	-9614
吃个	-9615
岁时	-9616
想出	-9617
懒得	-9618
拿走	-9619
指责	-9620
洗脸	-9621
▁我对	-9622
▁找找	-9623
▁超级	-9624
新赛季	-9625
是他的	-9626
看不懂	-9627
第三个	-9628
美国队	-9629
肯定要	-9630
▁也不是	-9631
▁曾国藩	-9632
▁让我们	-9633
可以一起	-9634
灵机一动	-9635
▁怎么说呢	-9636
变成了一个	-9637
▁灰	-9638
丽莎	-9639
亲人	-9640
价比	-9641
低调	-9642
却不	-9643
在想	-9644
大脑	-9645
摸了	-9646
易建	-9647
牵牛	-9648
看呢	-9649
识别	-9650
转型	-9651
高山	-9652
▁天哪	-9653
▁能干	-9654
▁部分	-9655
两银子	-9656
吃起来	-9657
怎么啦	-9658
我马上	-9659
戴维斯	-9660
有哪些	-9661
的结果	-9662
里的小	-9663
▁亲爱的	-9664
名中医来	-9665
成为一个	-9666
打了一个	-9667
每个人的	-9668
▁二零一八年	-9669
▁梨	-9670
一吹	-9671
一的	-9672
全年	-9673
勉强	-9674
发誓	-9675
愁眉	-9676
慢了	-9677
找我	-9678
放开	-9679
文艺	-9680
早饭	-9681
朵花	-9682
村的	-9683
漫画	-9684
父子	-9685
物流	-9686
特效	-9687
的发	-9688
离家	-9689
签约	-9690
芝麻	-9691
药品	-9692
走呀	-9693
金银	-9694
▁白色	-9695
▁看着	-9696
▁还要	-9697
▁这下	-9698
之后就	-9699
挺多的	-9700
飞起来	-9701
就是就是	-9702
成了一个	-9703
根本没有	-9704
每个人都	-9705
这样下去	-9706
更多的名中医来	-9707
前锋	-9708
勤奋	-9709
卧槽	-9710
哎呦	-9711
嗯嗯	-9712
尖牙	-9713
巴克	-9714
恶魔	-9715
日葵	-9716
暴露	-9717
有位	-9718
海马	-9719
爱护	-9720
男友	-9721
的去	-9722
的首	-9723
祖先	-9724
胖子	-9725
自已	-9726
花草	-9727
诚实	-9728
这份	-9729
这颗	-9730
迷了	-9731
遥控	-9732
黄河	-9733
▁假装	-9734
▁实在	-9735
▁话说	-9736
丑小鸭	-9737
吃饱了	-9738
平方米	-9739
易建联	-9740
的礼物	-9741
▁有道理	-9742
怎么这么	-9743
这个样子	-9744
▁shuai	-9745
▁如果大家对	-9746
▁j	-9747
▁非	-9748
了三	-9749
二手	-9750
大姐	-9751
宝藏	-9752
心事	-9753
改造	-9754
早日	-9755
来做	-9756
某个	-9757
燃烧	-9758
登上	-9759
说啊	-9760
跌幅	-9761
踢的	-9762
还算	-9763
高于	-9764
▁屁股	-9765
▁每晚	-9766
▁累计	-9767
上前去	-9768
不注意	-9769
所以我	-9770
网陪你	-9771
蝴蝶结	-9772
还有点	-9773
远远的	-9774
▁好好好	-9775
为您解答	-9776
另一方面	-9777
有一个人	-9778
这个地方	-9779
▁扶	-9780
一圈	-9781
不给	-9782
九千	-9783
出演	-9784
图片	-9785
坑里	-9786
她也	-9787
她了	-9788
富有	-9789
当下	-9790
更大	-9791
樵夫	-9792
留着	-9793
疲劳	-9794
的热	-9795
老远	-9796
装着	-9797
询问	-9798
请他	-9799
财报	-9800
这类	-9801
飞得	-9802
▁假如	-9803
一件事	-9804
亮晶晶	-9805
你听说	-9806
和那个	-9807
小胖猪	-9808
心爱的	-9809
日本人	-9810
每一次	-9811
特朗普	-9812
抬头一看	-9813
百分之五	-9814
都是这样	-9815
▁邀请更多的名中医来	-9816
▁敲	-9817
▁选	-9818
▁顶	-9819
一处	-9820
义务	-9821
播放	-9822
教堂	-9823
日夜	-9824
楼下	-9825
每日	-9826
福利	-9827
金球	-9828
shu	-9829
▁央行	-9830
▁画画	-9831
上一个	-9832
下起了	-9833
净流入	-9834
小乌鸦	-9835
我还真	-9836
接受了	-9837
跑回家	-9838
过来的	-9839
▁因为他	-9840
一模一样	-9841
很厉害的	-9842
▁所以我们	-9843
什么也没有	-9844
▁土	-9845
一滴	-9846
七天	-9847
五万	-9848
代价	-9849
体操	-9850
你请	-9851
口的	-9852
同志	-9853
回升	-9854
富贵	-9855
对外	-9856
少数	-9857
引导	-9858
我做	-9859
敏感	-9860
歌曲	-9861
火烧	-9862
红狼	-9863
聊聊	-9864
落了	-9865
谁呀	-9866
降息	-9867
露露	-9868
鞋匠	-9869
▁进来	-9870
一下就	-9871
低下头	-9872
受欢迎	-9873
实验室	-9874
小蝴蝶	-9875
很高的	-9876
把我们	-9877
漂亮啊	-9878
绿绿的	-9879
许许多	-9880
都会有	-9881
阿凡提	-9882
一百二十	-9883
交通事故	-9884
体育运动	-9885
这么多的	-9886
▁故事中的小	-9887
MV	-9888
su	-9889
▁常	-9890
▁考	-9891
冒着	-9892
助攻	-9893
发动	-9894
叫来	-9895
品尝	-9896
回购	-9897
好想	-9898
就拿	-9899
已被	-9900
抵抗	-9901
斯坦	-9902
没钱	-9903
统统	-9904
评分	-9905
轮到	-9906
辉煌	-9907
▁不知	-9908
▁他还	-9909
▁天天	-9910
也非常	-9911
像我们	-9912
到哪儿	-9913
学习的	-9914
小鱼儿	-9915
红狐狸	-9916
能看到	-9917
足球吗	-9918
这种人	-9919
▁你这个	-9920
不可思议	-9921
。【	-9922
不准	-9923
优化	-9924
先走	-9925
叫啥	-9926
大衣	-9927
家家	-9928
成龙	-9929
有三	-9930
用小	-9931
的口	-9932
科研	-9933
送来	-9934
wei	-9935
仔细地	-9936
和他们	-9937
国内的	-9938
小鳄鱼	-9939
是那么	-9940
的兔子	-9941
长大的	-9942
陕西省	-9943
▁我已经	-9944
南都记者	-9945
我吃完了	-9946
打羽毛球	-9947
月二十号	-9948
▁法	-9949
▁盘	-9950
丰收	-9951
会很	-9952
客场	-9953
投降	-9954
抱起	-9955
本期	-9956
本次	-9957
楼上	-9958
珊瑚	-9959
的白	-9960
秒钟	-9961
菜园	-9962
醉了	-9963
▁近期	-9964
但还是	-9965
森林的	-9966
的小猪	-9967
经历了	-9968
九健康网	-9969
圣诞老人	-9970
每一个人	-9971
没有一个	-9972
▁好的拜拜	-9973
1?	-9974
▁额	-9975
一等	-9976
不死	-9977
以往	-9978
军的	-9979
又会	-9980
和它	-9981
在上	-9982
天猫	-9983
太小	-9984
师父	-9985
当你	-9986
摘下	-9987
文物	-9988
消耗	-9989
清朝	-9990
自私	-9991
贵族	-9992
越长	-9993
身的	-9994
通常	-9995
▁一位	-9996
了我的	-9997
十一点	-9998
十二号	-9999
半决赛	-10000
就到了	-10001
性价比	-10002
所以他	-10003
留下的	-10004
费德勒	-10005
长得很	-10006
▁san	-10007
▁也可以	-10008
每天晚上	-10009
邀请到了	-10010
▁这个时候	-10011
▁如果大家对中医中药有	-10012
24	-10013
一丝	-10014
一向	-10015
乐得	-10016
代的	-10017
作文	-10018
可就	-10019
在此	-10020
地震	-10021
志愿	-10022
接待	-10023
武磊	-10024
水了	-10025
浏览	-10026
清理	-10027
物资	-10028
真人	-10029
笑脸	-10030
群体	-10031
还把	-10032
远离	-10033
间的	-10034
8],	-10035
产品的	-10036
后面的	-10037
导演的	-10038
怎么做	-10039
我都是	-10040
聊聊天	-10041
嗨你好啊	-10042
生气地说	-10043
阅读我是主播	-10044
则是	-10045
大佬	-10046
年后	-10047
扔到	-10048
有缘	-10049
清了	-10050
满贯	-10051
演戏	-10052
牵着	-10053
知县	-10054
短期	-10055
稀奇	-10056
网易	-10057
设立	-10058
试着	-10059
赶路	-10060
跟随	-10061
除非	-10062
靠着	-10063
也是个	-10064
企业的	-10065
关注过	-10066
小熊的	-10067
怎样的	-10068
我昨天	-10069
我经常	-10070
明显的	-10071
现在在	-10072
的不是	-10073
美味的	-10074
夏薇姐姐	-10075
我小时候	-10076
没过多久	-10077
的时候呢	-10078
▁还有一个	-10079
▁湿	-10080
▁管	-10081
▁认	-10082
▁道	-10083
义词	-10084
云彩	-10085
体重	-10086
保罗	-10087
先是	-10088
叫你	-10089
吁吁	-10090
就往	-10091
带回	-10092
强啊	-10093
感叹	-10094
球鞋	-10095
追上	-10096
闺蜜	-10097
青菜	-10098
鞭炮	-10099
饿死	-10100
高峰	-10101
▁春天	-10102
▁自由	-10103
他来到	-10104
好看啊	-10105
很难过	-10106
没那么	-10107
秦始皇	-10108
▁我们要	-10109
世界第一	-10110
▁还有就是	-10111
▁吸	-10112
。'	-10113
万物	-10114
中最	-10115
伙计	-10116
呆在	-10117
四大	-10118
妹子	-10119
年初	-10120
态势	-10121
感慨	-10122
抓紧	-10123
拜访	-10124
武术	-10125
痛快	-10126
羊群	-10127
老天	-10128
西方	-10129
重庆	-10130
▁专门	-10131
不了了	-10132
做一些	-10133
再见啊	-10134
发生在	-10135
在阳光	-10136
就会有	-10137
庆余年	-10138
很好啊	-10139
很愉快	-10140
我每次	-10141
新鲜的	-10142
有个人	-10143
足球赛	-10144
▁也就是	-10145
最近有什么	-10146
la	-10147
wa	-10148
▁N	-10149
▁座	-10150
▁棵	-10151
▁采	-10152
不讲	-10153
办事	-10154
又长	-10155
只想	-10156
大伯	-10157
天乐	-10158
打到	-10159
球了	-10160
的剧	-10161
知名	-10162
翩翩	-10163
院长	-10164
▁虫子	-10165
小心地	-10166
我有事	-10167
是一件	-10168
没事儿	-10169
电影节	-10170
的国家	-10171
看出来	-10172
着急了	-10173
▁我今天	-10174
到了晚上	-10175
▁jian	-10176
▁邀请更多的名中医来为您解答	-10177
CP	-10178
▁剥	-10179
▁鸭	-10180
主体	-10181
啥呢	-10182
坚定	-10183
天啊	-10184
央视	-10185
密码	-10186
摆摆	-10187
操场	-10188
旋转	-10189
梦乡	-10190
棒棒	-10191
次数	-10192
海水	-10193
疼了	-10194
的我	-10195
线的	-10196
花盆	-10197
蜡笔	-10198
长相	-10199
障碍	-10200
▁小强	-10201
▁欺负	-10202
人生的	-10203
但是她	-10204
出租车	-10205
好办法	-10206
摄像头	-10207
有一颗	-10208
爸爸和	-10209
老师的	-10210
良好的	-10211
荡秋千	-10212
从那以后	-10213
任何的疑问	-10214
我觉得这个	-10215
AI	-10216
不离	-10217
占据	-10218
发放	-10219
叫它	-10220
妮妮	-10221
委会	-10222
它对	-10223
小明	-10224
已有	-10225
情地	-10226
斯卡	-10227
树梢	-10228
正义	-10229
海外	-10230
游乐	-10231
玩家	-10232
睡在	-10233
谁都	-10234
都用	-10235
飞飞	-10236
▁中信	-10237
▁也请	-10238
▁从而	-10239
▁叶子	-10240
▁马桶	-10241
一起看	-10242
不一会	-10243
不耐烦	-10244
了一会	-10245
倒在地	-10246
大嘴巴	-10247
得意地	-10248
我带你	-10249
停了下来	-10250
游来游去	-10251
外面的世界	-10252
,5	-10253
兰花	-10254
分子	-10255
刚出	-10256
只剩	-10257
场地	-10258
把钱	-10259
摄影	-10260
景象	-10261
楼梯	-10262
欧文	-10263
画眉	-10264
美团	-10265
较为	-10266
鲸鱼	-10267
▁一旦	-10268
▁抽屉	-10269
今晚的	-10270
公布了	-10271
女主人	-10272
成年人	-10273
打喷嚏	-10274
有名的	-10275
的本领	-10276
红着脸	-10277
高大的	-10278
只是一个	-10279
小白兔说	-10280
新闻上说	-10281
越来越大	-10282
▁叉	-10283
举重	-10284
但它	-10285
凉快	-10286
别墅	-10287
大妈	-10288
店铺	-10289
意料	-10290
描述	-10291
照样	-10292
花瓶	-10293
苏州	-10294
账户	-10295
都来	-10296
▁哇哦	-10297
▁当地	-10298
了我们	-10299
写了一	-10300
好大的	-10301
小蝌蚪	-10302
是你的	-10303
的一位	-10304
的人啊	-10305
的家庭	-10306
那个啥	-10307
不敢相信	-10308
什么都不	-10309
但是他们	-10310
最后一个	-10311
▁与此同时	-10312
很远的地方	-10313
▁我比较喜欢	-10314
▁忘	-10315
▁虫	-10316
为她	-10317
二日	-10318
亲眼	-10319
仓库	-10320
包里	-10321
大觉	-10322
她要	-10323
宴会	-10324
巨星	-10325
打出	-10326
打起	-10327
旗下	-10328
晶莹	-10329
更高	-10330
核酸	-10331
毁了	-10332
父王	-10333
的三	-10334
票了	-10335
赶走	-10336
躲避	-10337
靠谱	-10338
一切都	-10339
十一号	-10340
好多了	-10341
好好地	-10342
看这个	-10343
跟他们	-10344
都非常	-10345
▁men	-10346
▁他们的	-10347
最后还是	-10348
新能源汽车	-10349
?!	-10350
▁单	-10351
▁封	-10352
▁搬	-10353
体内	-10354
先进	-10355
发起	-10356
名声	-10357
和红	-10358
唱的	-10359
垂头	-10360
失了	-10361
奶牛	-10362
对此	-10363
就讲	-10364
挥手	-10365
期望	-10366
求求	-10367
点赞	-10368
留学	-10369
看我	-10370
碰上	-10371
给小	-10372
维奇	-10373
西亚	-10374
贵妃	-10375
达克	-10376
迷茫	-10377
野生	-10378
难题	-10379
高声	-10380
交易日	-10381
他知道	-10382
完之后	-10383
小猴说	-10384
就是很	-10385
山脚下	-10386
我们会	-10387
打败了	-10388
的帮助	-10389
超喜欢	-10390
那些人	-10391
韩国的	-10392
indo	-10393
▁cai	-10394
▁可以的	-10395
什么什么	-10396
仔细一看	-10397
大叫起来	-10398
的电视剧	-10399
来到喜马拉雅	-10400
▁饱	-10401
一项	-10402
上台	-10403
交换	-10404
做人	-10405
原地	-10406
外边	-10407
多远	-10408
对抗	-10409
尤文	-10410
就吃	-10411
猜测	-10412
珠宝	-10413
缝里	-10414
腾腾	-10415
药水	-10416
落叶	-10417
行走	-10418
谁来	-10419
迟到	-10420
▁一会	-10421
▁大人	-10422
在北京	-10423
差一点	-10424
没有啊	-10425
留学生	-10426
迷路了	-10427
长耳朵	-10428
马拉松	-10429
也有很多	-10430
但是这个	-10431
摇了摇头	-10432
有什么用	-10433
看了一个	-10434
▁这是一个	-10435
▁歌	-10436
不忙	-10437
两眼	-10438
也来	-10439
依赖	-10440
元素	-10441
凉了	-10442
又来	-10443
叮嘱	-10444
命的	-10445
失踪	-10446
晚会	-10447
留意	-10448
诉讼	-10449
跳下	-10450
长高	-10451
7],	-10452
▁青菜	-10453
▁香港	-10454
不服气	-10455
了一颗	-10456
其中的	-10457
四十五	-10458
在心里	-10459
张继科	-10460
是不能	-10461
有关系	-10462
树爷爷	-10463
正确的	-10464
看了吗	-10465
给他的	-10466
还是个	-10467
鸟妈妈	-10468
也是非常	-10469
复工复产	-10470
密切接触	-10471
很喜欢看	-10472
过得好吗	-10473
的小朋友们	-10474
篮球运动员	-10475
大家分享到这里	-10476
一觉	-10477
分类	-10478
处处	-10479
娜娜	-10480
得住	-10481
得直	-10482
思念	-10483
我倒	-10484
扩张	-10485
推开	-10486
显卡	-10487
欧元	-10488
残酷	-10489
江湖	-10490
沙子	-10491
生怕	-10492
维尼	-10493
蜥蜴	-10494
趁机	-10495
▁一口	-10496
▁加油	-10497
九十九	-10498
先下了	-10499
外星人	-10500
大老鼠	-10501
好几天	-10502
好玩的	-10503
必须得	-10504
我身边	-10505
来关注	-10506
真不错	-10507
真的有	-10508
是好朋友	-10509
演的那个	-10510
▁也就是说	-10511
25	-10512
60	-10513
▁Q	-10514
▁撒	-10515
▁片	-10516
亲手	-10517
你家	-10518
公益	-10519
刚一	-10520
前途	-10521
市长	-10522
布置	-10523
律宾	-10524
机械	-10525
的问	-10526
穿了	-10527
竖起	-10528
蹲在	-10529
难免	-10530
香气	-10531
▁二是	-10532
▁儿子	-10533
了一根	-10534
他们把	-10535
国王说	-10536
垂头丧	-10537
很期待	-10538
拿着一	-10539
收到了	-10540
特别多	-10541
的羽毛	-10542
瞧不起	-10543
老公公	-10544
菲律宾	-10545
遇见了	-10546
▁tuo	-10547
中国男篮	-10548
乱七八糟	-10549
的话就是	-10550
▁guai	-10551
▁我还有事	-10552
▁sheng	-10553
▁摇	-10554
▁黏	-10555
专心	-10556
举动	-10557
乐趣	-10558
从他	-10559
但她	-10560
全场	-10561
出声	-10562
又高	-10563
品种	-10564
很火	-10565
拍着	-10566
探险	-10567
摆着	-10568
无忧	-10569
格林	-10570
特征	-10571
理财	-10572
纸条	-10573
编剧	-10574
股的	-10575
菜了	-10576
装进	-10577
▁上学	-10578
一季度	-10579
不同意	-10580
了一棵	-10581
向日葵	-10582
大树上	-10583
好奇地	-10584
它那个	-10585
安全的	-10586
拿出一	-10587
推出了	-10588
沙滩上	-10589
给了他	-10590
过几天	-10591
▁想一想	-10592
不过这个	-10593
听见知乎	-10594
干什么呢	-10595
这段时间	-10596
indow	-10597
wu	-10598
▁石	-10599
乘坐	-10600
地点	-10601
基建	-10602
张望	-10603
想让	-10604
慌忙	-10605
抱住	-10606
期货	-10607
架子	-10608
治好	-10609
激励	-10610
爬山	-10611
疙瘩	-10612
的马	-10613
秩序	-10614
脂肪	-10615
袋里	-10616
较大	-10617
金光	-10618
▁八月	-10619
▁有了	-10620
回答道	-10621
小精灵	-10622
我正好	-10623
有一棵	-10624
然后你	-10625
白白的	-10626
的内容	-10627
的老鼠	-10628
紧接着	-10629
过一个	-10630
住着一只	-10631
因为我们	-10632
每天都在	-10633
气喘吁吁	-10634
没有任何	-10635
的小姑娘	-10636
▁bang	-10637
▁你最近有关注	-10638
22	-10639
▁右	-10640
▁鬼	-10641
一拍	-10642
不相	-10643
借口	-10644
冬季	-10645
又去	-10646
合格	-10647
成分	-10648
打工	-10649
曲子	-10650
残忍	-10651
祝贺	-10652
网剧	-10653
车祸	-10654
那头	-10655
颤抖	-10656
hua	-10657
▁一路	-10658
▁五月	-10659
▁喇叭	-10660
▁往往	-10661
▁相比	-10662
会出现	-10663
做游戏	-10664
对身体	-10665
开心了	-10666
才开始	-10667
拼多多	-10668
搞笑的	-10669
教育部	-10670
浪微博	-10671
满满的	-10672
看到他	-10673
等一下	-10674
jing	-10675
什么也没	-10676
有什么事	-10677
现在很多	-10678
这种东西	-10679
▁下次再说	-10680
他便	-10681
使他	-10682
元宵	-10683
凶手	-10684
力地	-10685
可恶	-10686
周边	-10687
唱起	-10688
学者	-10689
打破	-10690
批准	-10691
无缘	-10692
柱子	-10693
浪花	-10694
王位	-10695
王朝	-10696
终点	-10697
缤纷	-10698
▁一切	-10699
▁看过	-10700
▁筷子	-10701
▁腾讯	-10702
不在家	-10703
但是你	-10704
哗啦啦	-10705
哪一个	-10706
声优祭	-10707
少年的	-10708
就像是	-10709
急匆匆	-10710
给妈妈	-10711
▁是的呢	-10712
我有一个	-10713
的时候啊	-10714
还是有点	-10715
▁bing	-10716
▁欢迎收听听见知乎	-10717
▁力	-10718
▁铁	-10719
亚军	-10720
亲密	-10721
值班	-10722
到他	-10723
叫到	-10724
吉祥	-10725
嘴唇	-10726
多种	-10727
巨头	-10728
快跑	-10729
找找	-10730
演奏	-10731
社团	-10732
积分	-10733
花样	-10734
血液	-10735
锅里	-10736
9],	-10737
创始人	-10738
太帅了	-10739
就是不	-10740
赢得了	-10741
这东西	-10742
风吹来	-10743
▁不不不	-10744
▁我也不	-10745
▁知道啊	-10746
今天食堂	-10747
他们都是	-10748
好无聊啊	-10749
我知道了	-10750
新闻了吗	-10751
没有想到	-10752
那么大的	-10753
百分之七十	-10754
▁超	-10755
▁逃	-10756
两种	-10757
书生	-10758
争议	-10759
人大	-10760
啥啊	-10761
嘀咕	-10762
处置	-10763
幅度	-10764
弄脏	-10765
毯子	-10766
飞奔	-10767
▁我都	-10768
也觉得	-10769
又来了	-10770
感冒了	-10771
我爱你	-10772
摸了摸	-10773
的香味	-10774
轰隆隆	-10775
这个大	-10776
咱们中国	-10777
注意的是	-10778
给我讲讲	-10779
东京奥运会	-10780
▁如果大家对中医中药有任何的疑问	-10781
àn	-10782
▁借	-10783
▁文	-10784
份额	-10785
公寓	-10786
内存	-10787
学期	-10788
式的	-10789
成人	-10790
持仓	-10791
杰伦	-10792
海上	-10793
潜力	-10794
献给	-10795
的他	-10796
等下	-10797
老弟	-10798
花粉	-10799
要比	-10800
跳跃	-10801
身为	-10802
都比	-10803
▁ka	-10804
▁你别	-10805
▁哪个	-10806
三分钟	-10807
多年的	-10808
就是她	-10809
工作了	-10810
我妈妈	-10811
没看见	-10812
然大悟	-10813
玩手机	-10814
的报道	-10815
的脑袋	-10816
证监会	-10817
这样了	-10818
向您问好	-10819
的文章是	-10820
走来走去	-10821
▁拜	-10822
▁莫	-10823
▁表	-10824
上床	-10825
丝毫	-10826
减轻	-10827
刚要	-10828
可谓	-10829
土里	-10830
开会	-10831
急事	-10832
惊恐	-10833
搭档	-10834
榜样	-10835
物理	-10836
着它	-10837
红花	-10838
舞会	-10839
豪华	-10840
财宝	-10841
越想	-10842
面粉	-10843
APP	-10844
chu	-10845
▁此前	-10846
▁这位	-10847
不在乎	-10848
周围的	-10849
就成了	-10850
很有趣	-10851
我希望	-10852
打球啊	-10853
改变了	-10854
的叶子	-10855
说出来	-10856
跳跳猴	-10857
鼠妈妈	-10858
▁小青蛙	-10859
▁感谢收听	-10860
or	-10861
何必	-10862
停车	-10863
奶酪	-10864
嫂子	-10865
急着	-10866
明亮	-10867
月的	-10868
此刻	-10869
汗水	-10870
装满	-10871
走势	-10872
金属	-10873
钻出	-10874
▁不同	-10875
▁每周	-10876
▁阿公	-10877
▁餐厅	-10878
他们还	-10879
关注了	-10880
回事儿	-10881
有几个	-10882
见到了	-10883
跟那个	-10884
跳下来	-10885
那个小	-10886
▁lei	-10887
▁我是诺	-10888
▁我朋友	-10889
打发时间	-10890
先不和你说	-10891
小心翼翼地	-10892
自己的身体	-10893
▁也请在评论区给我们留言	-10894
MD	-10895
争论	-10896
他问	-10897
你太	-10898
冷的	-10899
取出	-10900
外地	-10901
女单	-10902
她对	-10903
帝国	-10904
带走	-10905
店的	-10906
投票	-10907
拉斯	-10908
推广	-10909
期限	-10910
河流	-10911
流泪	-10912
索尼	-10913
能干	-10914
营销	-10915
话来	-10916
赛跑	-10917
ook	-10918
▁回答	-10919
▁舒服	-10920
▁警察	-10921
使劲儿	-10922
出名的	-10923
和一只	-10924
小宝宝	-10925
恒大的	-10926
探索吧	-10927
放心吧	-10928
是那种	-10929
椅子上	-10930
然后把	-10931
熊先生	-10932
的什么	-10933
真多啊	-10934
输给了	-10935
霸王龙	-10936
也没办法	-10937
看不出来	-10938
这条新闻	-10939
▁每晚九点	-10940
▁人民网陪你	-10941
da	-10942
hi	-10943
▁信	-10944
▁园	-10945
▁工	-10946
▁枪	-10947
▁盆	-10948
中秋	-10949
埋怨	-10950
多亏	-10951
大水	-10952
它了	-10953
很爱	-10954
总之	-10955
慌张	-10956
报复	-10957
拳道	-10958
添加	-10959
这群	-10960
震荡	-10961
魔王	-10962
▁hi	-10963
▁中午	-10964
▁曾经	-10965
▁这不	-10966
也开始	-10967
件事情	-10968
地站在	-10969
就会被	-10970
很精彩	-10971
成一个	-10972
我也有	-10973
提出了	-10974
时代的	-10975
经历过	-10976
辽宁队	-10977
这孩子	-10978
▁那可不	-10979
再也不敢	-10980
我不喜欢	-10981
▁愿	-10982
之力	-10983
书法	-10984
伸进	-10985
前后	-10986
友情	-10987
四面	-10988
对比	-10989
少的	-10990
手脚	-10991
折磨	-10992
捡到	-10993
消毒	-10994
滴答	-10995
激情	-10996
考生	-10997
让小	-10998
请来	-10999
负面	-11000
那啥	-11001
野牛	-11002
降落	-11003
▁此刻	-11004
▁箱子	-11005
东西吃	-11006
公园里	-11007
是他们	-11008
没意思	-11009
洗干净	-11010
满满一	-11011
的一片	-11012
的小狗	-11013
篮球的	-11014
如果没有	-11015
恍然大悟	-11016
有很多人	-11017
注意安全	-11018
▁qiao	-11019
indows	-11020
二的	-11021
余的	-11022
刷到	-11023
受益	-11024
四万	-11025
失眠	-11026
夺得	-11027
巴掌	-11028
强制	-11029
探头	-11030
流通	-11031
海军	-11032
熊的	-11033
爬呀	-11034
独角	-11035
莉莉	-11036
获取	-11037
走上	-11038
跑的	-11039
跑进	-11040
里斯	-11041
铁匠	-11042
▁三月	-11043
可能就	-11044
地叫着	-11045
小猪说	-11046
我就不	-11047
牛伯伯	-11048
过去的	-11049
一直没有	-11050
三月二十	-11051
发布会上	-11052
我还没有	-11053
现在就是	-11054
70	-11055
▁初	-11056
▁民	-11057
▁衣	-11058
乌龙	-11059
保存	-11060
儿了	-11061
冲突	-11062
分配	-11063
助于	-11064
古装	-11065
听众	-11066
回复	-11067
在它	-11068
小虾	-11069
崇拜	-11070
差异	-11071
得罪	-11072
放大	-11073
果树	-11074
格兰	-11075
津津	-11076
相爱	-11077
福气	-11078
私人	-11079
胃口	-11080
观念	-11081
貂蝉	-11082
貌似	-11083
邮递	-11084
雷霆	-11085
jia	-11086
▁可怜	-11087
▁否则	-11088
不停的	-11089
不能吃	-11090
感觉好	-11091
挺大的	-11092
换一个	-11093
的主要	-11094
老山羊	-11095
认真的	-11096
都是很	-11097
▁如果您	-11098
不起来了	-11099
我去坐车	-11100
▁chou	-11101
睡觉的时候	-11102
▁套	-11103
▁拳	-11104
个头	-11105
之上	-11106
人来	-11107
传到	-11108
匹马	-11109
及其	-11110
后果	-11111
和谐	-11112
奥运	-11113
强势	-11114
当场	-11115
怀念	-11116
智商	-11117
杯子	-11118
硬件	-11119
第七	-11120
精致	-11121
累的	-11122
藏着	-11123
蛋白	-11124
蛋蛋	-11125
轮子	-11126
长在	-11127
集合	-11128
雨点	-11129
▁十一	-11130
▁十二	-11131
▁这部	-11132
一棵树	-11133
二亿元	-11134
完美的	-11135
有个好	-11136
猴妈妈	-11137
的这些	-11138
碰到了	-11139
老虎的	-11140
这个啊	-11141
送到了	-11142
都这么	-11143
▁nao	-11144
▁就可以	-11145
的比赛吗	-11146
其实我觉得	-11147
百分之四点	-11148
▁欢迎打开今晚的	-11149
▁今天我们邀请到了	-11150
▁挖	-11151
一讲	-11152
七彩	-11153
人不	-11154
念头	-11155
意志	-11156
无敌	-11157
暴雨	-11158
有用	-11159
汤姆	-11160
环节	-11161
皮毛	-11162
米的	-11163
糟了	-11164
荷兰	-11165
要来	-11166
要说	-11167
试图	-11168
门上	-11169
闹闹	-11170
黄瓜	-11171
▁决定	-11172
▁马蜂	-11173
不超过	-11174
带着一	-11175
是一片	-11176
是谁呀	-11177
眼看着	-11178
你最近有	-11179
咱们国家	-11180
在一起了	-11181
大哭起来	-11182
就是没有	-11183
怎么样了	-11184
我一定会	-11185
最近不是	-11186
hello	-11187
▁dang	-11188
▁既	-11189
▁朱	-11190
两边	-11191
五日	-11192
优质	-11193
境内	-11194
声响	-11195
它也	-11196
拉的	-11197
播出	-11198
气势	-11199
窗帘	-11200
菩萨	-11201
走后	-11202
辫子	-11203
钢铁	-11204
qiu	-11205
不好吃	-11206
他决定	-11207
内容请	-11208
内心的	-11209
再一次	-11210
去世了	-11211
小猫咪	-11212
总经理	-11213
我都会	-11214
的座位	-11215
第一位	-11216
老人家	-11217
边走边	-11218
造成的	-11219
一步一步	-11220
的小兔子	-11221
音频早餐	-11222
▁huir	-11223
我的车来了	-11224
比赛的时候	-11225
he	-11226
▁则	-11227
▁响	-11228
三夜	-11229
关节	-11230
养的	-11231
吹着	-11232
圈子	-11233
坐到	-11234
大河	-11235
官网	-11236
富人	-11237
扛着	-11238
提示	-11239
朝天	-11240
清脆	-11241
玉皇	-11242
缸里	-11243
脱下	-11244
资管	-11245
赞叹	-11246
转向	-11247
透明	-11248
遥远	-11249
风铃	-11250
kai	-11251
▁偷偷	-11252
了解过	-11253
只要是	-11254
合适的	-11255
得不到	-11256
有办法	-11257
▁我不是	-11258
▁我真的	-11259
▁这个是	-11260
▁这里是三	-11261
▁或	-11262
一轮	-11263
不绝	-11264
买卖	-11265
你听	-11266
叮叮	-11267
右手	-11268
各类	-11269
后羿	-11270
哈利	-11271
多岁	-11272
宽容	-11273
常规	-11274
当她	-11275
当它	-11276
情形	-11277
捉到	-11278
法子	-11279
活的	-11280
电梯	-11281
男性	-11282
界的	-11283
监测	-11284
等会	-11285
老王	-11286
艾玛	-11287
花开	-11288
苦苦	-11289
蚕豆	-11290
要命	-11291
锤子	-11292
▁原谅	-11293
▁总是	-11294
▁盘子	-11295
▁礼拜	-11296
一下吗	-11297
买不起	-11298
付出了	-11299
厨房里	-11300
布娃娃	-11301
打破了	-11302
朋友的	-11303
猫妈妈	-11304
的数据	-11305
看看吧	-11306
着一条	-11307
藏起来	-11308
西红柿	-11309
▁他就是	-11310
▁我一直	-11311
▁我看到	-11312
一百一十	-11313
把所有的	-11314
有很大的	-11315
这么觉得	-11316
我去坐车啦	-11317
还是可以的	-11318
▁今天过得好吗	-11319
▁剪	-11320
▁现	-11321
不自	-11322
举措	-11323
匈奴	-11324
大多	-11325
孤儿	-11326
家务	-11327
将它	-11328
尼奥	-11329
成群	-11330
我爱	-11331
拉克	-11332
无疑	-11333
架上	-11334
没用	-11335
泰国	-11336
清清	-11337
溪水	-11338
率领	-11339
看重	-11340
祝你	-11341
练练	-11342
能吃	-11343
获胜	-11344
解禁	-11345
路口	-11346
通信	-11347
院的	-11348
鼓掌	-11349
▁一九	-11350
▁中医	-11351
▁你能	-11352
▁唉唷	-11353
▁针对	-11354
不至于	-11355
小灰兔	-11356
手机上	-11357
有点像	-11358
的翅膀	-11359
近几年	-11360
销售额	-11361
▁我当时	-11362
▁看了啊	-11363
粉红色的	-11364
这篇文章	-11365
▁今年以来	-11366
▁喽	-11367
▁宋	-11368
▁轻	-11369
不易	-11370
八哥	-11371
包围	-11372
午后	-11373
太郎	-11374
好在	-11375
它有	-11376
射门	-11377
希腊	-11378
想来	-11379
扫地	-11380
提琴	-11381
是是	-11382
晴天	-11383
月饼	-11384
流出	-11385
片的	-11386
球衣	-11387
蚂蚱	-11388
装饰	-11389
转转	-11390
这支	-11391
造型	-11392
阵阵	-11393
风中	-11394
香啊	-11395
香香	-11396
黄昏	-11397
▁下雨	-11398
▁个人	-11399
▁会儿	-11400
上了一	-11401
你们看	-11402
就因为	-11403
效力于	-11404
有一百	-11405
被称为	-11406
▁也没有	-11407
上面写着	-11408
应该不会	-11409
开心极了	-11410
感兴趣的	-11411
的小男孩	-11412
觉得这个	-11413
▁我们可以	-11414
和你聊天很愉快	-11415
▁留	-11416
▁麦	-11417
之路	-11418
供给	-11419
修炼	-11420
几句	-11421
单打	-11422
台词	-11423
命中	-11424
图案	-11425
局长	-11426
左手	-11427
平了	-11428
平原	-11429
按摩	-11430
效应	-11431
最最	-11432
杀手	-11433
某些	-11434
温馨	-11435
猫和	-11436
相似	-11437
神的	-11438
说她	-11439
躲到	-11440
进城	-11441
那会	-11442
陪您	-11443
预赛	-11444
hou	-11445
▁年龄	-11446
▁韩国	-11447
了上来	-11448
他们会	-11449
前面的	-11450
又没有	-11451
很好奇	-11452
无所谓	-11453
的爱情	-11454
的缘故	-11455
跳出来	-11456
那这个	-11457
不太了解	-11458
做的事情	-11459
哈喽你好	-11460
怎么样呢	-11461
格力电器	-11462
然后他就	-11463
走了过来	-11464
广东省中医院	-11465
▁zhuang	-11466
▁我们一起来探索吧	-11467
▁击	-11468
▁喜	-11469
▁粮	-11470
一事	-11471
一心	-11472
上路	-11473
兄妹	-11474
八万	-11475
利文	-11476
别急	-11477
增幅	-11478
太后	-11479
尼克	-11480
想当	-11481
方形	-11482
活力	-11483
牛肉	-11484
联想	-11485
钻到	-11486
门票	-11487
▁录音	-11488
▁明白	-11489
也是在	-11490
了一起	-11491
做成的	-11492
古时候	-11493
方便了	-11494
洁白的	-11495
电视台	-11496
肯定的	-11497
过去吧	-11498
金球奖	-11499
长满了	-11500
▁我们将	-11501
无可奈何	-11502
跳了起来	-11503
这种感觉	-11504
▁创业板指	-11505
还是挺好的	-11506
▁伤	-11507
买到	-11508
乱跳	-11509
众多	-11510
会长	-11511
低的	-11512
出国	-11513
医科	-11514
十天	-11515
婶婶	-11516
崛起	-11517
捕鱼	-11518
早起	-11519
有谁	-11520
本科	-11521
湖水	-11522
激凌	-11523
火焰	-11524
生死	-11525
白发	-11526
的你	-11527
种种	-11528
血压	-11529
认知	-11530
话了	-11531
豹子	-11532
逃脱	-11533
重组	-11534
▁你不	-11535
▁流浪	-11536
不错了	-11537
了之后	-11538
凭什么	-11539
可真多	-11540
吃什么	-11541
和狐狸	-11542
对方的	-11543
就是啊	-11544
星期天	-11545
是一场	-11546
比以前	-11547
灌木丛	-11548
爱好者	-11549
玩意儿	-11550
考虑到	-11551
跆拳道	-11552
这么久	-11553
这真是	-11554
河马先生	-11555
生日快乐	-11556
21	-11557
▁嘴	-11558
▁孙	-11559
▁拖	-11560
▁梳	-11561
▁齐	-11562
中学	-11563
了她	-11564
交代	-11565
从头	-11566
依依	-11567
原野	-11568
各有	-11569
奥沙	-11570
宇航	-11571
带有	-11572
日记	-11573
最先	-11574
流畅	-11575
猫咪	-11576
病情	-11577
的腿	-11578
皱着	-11579
联手	-11580
芦苇	-11581
荡荡	-11582
这把	-11583
追着	-11584
随即	-11585
霸道	-11586
▁mi	-11587
▁打扫	-11588
▁马车	-11589
个人的	-11590
了多少	-11591
从天上	-11592
兴奋剂	-11593
呱呱呱	-11594
好几次	-11595
妻子的	-11596
它看见	-11597
感动了	-11598
所以才	-11599
拿冠军	-11600
洋娃娃	-11601
的模样	-11602
窗台上	-11603
范围内	-11604
这会儿	-11605
▁是的呀	-11606
什么故事	-11607
住着一个	-11608
就是这么	-11609
看了一眼	-11610
到底是什么	-11611
▁哥	-11612
▁捉	-11613
▁橘	-11614
▁色	-11615
下手	-11616
东南	-11617
丫头	-11618
临走	-11619
剧本	-11620
口碑	-11621
哀求	-11622
大军	-11623
宠爱	-11624
拉开	-11625
搭配	-11626
斑点	-11627
有味	-11628
极其	-11629
水喝	-11630
眼了	-11631
羊仔	-11632
花费	-11633
蒙古	-11634
虚拟	-11635
血管	-11636
账号	-11637
路人	-11638
退了	-11639
遭受	-11640
那张	-11641
鼓起	-11642
▁听完	-11643
▁工作	-11644
▁工具	-11645
▁随后	-11646
产业链	-11647
但是它	-11648
你愿意	-11649
使用的	-11650
几天后	-11651
可惜的	-11652
地望着	-11653
好一点	-11654
如果我	-11655
帮助你	-11656
我爸爸	-11657
现在我	-11658
看他的	-11659
算什么	-11660
精彩了	-11661
老年人	-11662
让我来	-11663
jiao	-11664
一个小时	-11665
主要还是	-11666
也不是很	-11667
大家都很	-11668
▁	-11669
,	-11670
的	-11671
T	-11672
。	-11673
"	-11674
:	-11675
了	-11676
是	-11677
E	-11678
*	-11679
一	-11680
R	-11681
H	-11682
.	-11683
我	-11684
不	-11685
A	-11686
I	-11687
这	-11688
有	-11689
个	-11690
你	-11691
G	-11692
C	-11693
他	-11694
就	-11695
在	-11696
D	-11697
L	-11698
好	-11699
小	-11700
O	-11701
来	-11702
?	-11703
_	-11704
看	-11705
们	-11706
人	-11707
啊	-11708
那	-11709
说	-11710
大	-11711
么	-11712
子	-11713
上	-11714
到	-11715
M	-11716
也	-11717
!	-11718
要	-11719
还	-11720
里	-11721
后	-11722
都	-11723
可	-11724
去	-11725
对	-11726
得	-11727
没	-11728
着	-11729
会	-11730
时	-11731
天	-11732
下	-11733
很	-11734
a	-11735
x	-11736
地	-11737
以	-11738
过	-11739
然	-11740
i	-11741
为	-11742
家	-11743
出	-11744
什	-11745
多	-11746
呢	-11747
能	-11748
N	-11749
妈	-11750
嗯	-11751
想	-11752
和	-11753
哈	-11754
e	-11755
起	-11756
道	-11757
4	-11758
S	-11759
点	-11760
生	-11761
自	-11762
n	-11763
它	-11764
V	-11765
中	-11766
吧	-11767
样	-11768
只	-11769
呀	-11770
国	-11771
把	-11772
吗	-11773
现	-11774
事	-11775
儿	-11776
面	-11777
老	-11778
真	-11779
开	-11780
比	-11781
给	-11782
1	-11783
吃	-11784
觉	-11785
发	-11786
心	-11787
知	-11788
年	-11789
球	-11790
十	-11791
最	-11792
前	-11793
她	-11794
3	-11795
h	-11796
之	-11797
打	-11798
头	-11799
见	-11800
己	-11801
o	-11802
走	-11803
些	-11804
太	-11805
用	-11806
又	-11807
u	-11808
长	-11809
2	-11810
实	-11811
成	-11812
回	-11813
动	-11814
但	-11815
听	-11816
二	-11817
三	-11818
学	-11819
种	-11820
手	-11821
喜	-11822
怎	-11823
欢	-11824
再	-11825
候	-11826
高	-11827
果	-11828
行	-11829
分	-11830
当	-11831
于	-11832
经	-11833
花	-11834
边	-11835
新	-11836
做	-11837
而	-11838
从	-11839
爸	-11840
定	-11841
公	-11842
方	-11843
快	-11844
话	-11845
水	-11846
别	-11847
像	-11848
西	-11849
进	-11850
因	-11851
次	-11852
所	-11853
两	-11854
电	-11855
g	-11856
主	-11857
身	-11858
被	-11859
情	-11860
孩	-11861
气	-11862
感	-11863
意	-11864
其	-11865
让	-11866
正	-11867
玩	-11868
力	-11869
百	-11870
如	-11871
赛	-11872
机	-11873
先	-11874
间	-11875
、	-11876
美	-11877
才	-11878
树	-11879
叫	-11880
东	-11881
拜	-11882
问	-11883
关	-11884
常	-11885
明	-11886
白	-11887
女	-11888
友	-11889
本	-11890
哦	-11891
找	-11892
王	-11893
月	-11894
车	-11895
场	-11896
马	-11897
声	-11898
跟	-11899
外	-11900
作	-11901
等	-11902
放	-11903
飞	-11904
物	-11905
讲	-11906
同	-11907
直	-11908
拿	-11909
五	-11910
四	-11911
全	-11912
法	-11913
鼠	-11914
色	-11915
U	-11916
已	-11917
山	-11918
几	-11919
哪	-11920
业	-11921
嘛	-11922
朋	-11923
完	-11924
影	-11925
爱	-11926
名	-11927
啦	-11928
跑	-11929
应	-11930
特	-11931
眼	-11932
无	-11933
体	-11934
今	-11935
第	-11936
猫	-11937
熊	-11938
兔	-11939
住	-11940
该	-11941
门	-11942
y	-11943
部	-11944
更	-11945
带	-11946
日	-11947
近	-11948
口	-11949
每	-11950
重	-11951
宝	-11952
金	-11953
队	-11954
变	-11955
干	-11956
活	-11957
故	-11958
谁	-11959
相	-11960
青	-11961
平	-11962
加	-11963
z	-11964
b	-11965
安	-11966
将	-11967
红	-11968
理	-11969
市	-11970
l	-11971
笑	-11972
刚	-11973
狗	-11974
路	-11975
d	-11976
员	-11977
向	-11978
少	-11979
错	-11980
鱼	-11981
接	-11982
姐	-11983
位	-11984
八	-11985
害	-11986
越	-11987
亮	-11988
游	-11989
星	-11990
信	-11991
者	-11992
s	-11993
挺	-11994
谢	-11995
风	-11996
原	-11997
工	-11998
非	-11999
乐	-12000
望	-12001
海	-12002
F	-12003
表	-12004
难	-12005
象	-12006
房	-12007
m	-12008
师	-12009
睡	-12010
七	-12011
男	-12012
结	-12013
期	-12014
怪	-12015
掉	-12016
且	-12017
六	-12018
哥	-12019
晚	-12020
跳	-12021
买	-12022
九	-12023
解	-12024
光	-12025
受	-12026
始	-12027
报	-12028
死	-12029
足	-12030
张	-12031
演	-12032
黑	-12033
较	-12034
阿	-12035
林	-12036
资	-12037
闻	-12038
兴	-12039
哎	-12040
早	-12041
巴	-12042
零	-12043
告	-12044
服	-12045
处	-12046
教	-12047
空	-12048
火	-12049
网	-12050
通	-12051
世	-12052
度	-12053
万	-12054
合	-12055
办	-12056
便	-12057
记	-12058
数	-12059
猪	-12060
拉	-12061
钱	-12062
坐	-12063
强	-12064
爷	-12065
书	-12066
奇	-12067
此	-12068
入	-12069
条	-12070
请	-12071
-	-12072
帮	-12073
利	-12074
注	-12075
怕	-12076
收	-12077
医	-12078
确	-12079
总	-12080
鸡	-12081
神	-12082
运	-12083
片	-12084
草	-12085
远	-12086
奶	-12087
剧	-12088
亲	-12089
蛙	-12090
元	-12091
往	-12092
视	-12093
内	-12094
黄	-12095
画	-12096
皮	-12097
满	-12098
弟	-12099
牛	-12100
提	-12101
布	-12102
千	-12103
并	-12104
毛	-12105
狼	-12106
连	-12107
军	-12108
号	-12109
轻	-12110
保	-12111
阳	-12112
热	-12113
狐	-12114
认	-12115
目	-12116
河	-12117
文	-12118
件	-12119
清	-12120
反	-12121
病	-12122
与	-12123
产	-12124
音	-12125
司	-12126
狸	-12127
饭	-12128
量	-12129
算	-12130
管	-12131
羊	-12132
流	-12133
思	-12134
交	-12135
0	-12136
题	-12137
却	-12138
股	-12139
米	-12140
性	-12141
猴	-12142
斯	-12143
慢	-12144
您	-12145
计	-12146
需	-12147
送	-12148
鸟	-12149
界	-12150
字	-12151
伤	-12152
龙	-12153
城	-12154
忙	-12155
南	-12156
指	-12157
民	-12158
超	-12159
步	-12160
根	-12161
整	-12162
持	-12163
传	-12164
肯	-12165
息	-12166
许	-12167
块	-12168
品	-12169
倒	-12170
包	-12171
木	-12172
战	-12173
容	-12174
篮	-12175
化	-12176
精	-12177
转	-12178
使	-12179
衣	-12180
消	-12181
歌	-12182
各	-12183
技	-12184
久	-12185
台	-12186
r	-12187
戏	-12188
香	-12189
命	-12190
站	-12191
脚	-12192
c	-12193
松	-12194
示	-12195
准	-12196
系	-12197
代	-12198
周	-12199
科	-12200
咱	-12201
喔	-12202
落	-12203
厉	-12204
格	-12205
离	-12206
赶	-12207
至	-12208
类	-12209
母	-12210
竟	-12211
w	-12212
苹	-12213
联	-12214
t	-12215
急	-12216
选	-12217
石	-12218
据	-12219
备	-12220
价	-12221
希	-12222
聊	-12223
B	-12224
节	-12225
紧	-12226
失	-12227
达	-12228
或	-12229
院	-12230
半	-12231
诉	-12232
任	-12233
克	-12234
食	-12235
求	-12236
决	-12237
终	-12238
易	-12239
嘴	-12240
制	-12241
夜	-12242
虎	-12243
喝	-12244
照	-12245
够	-12246
朵	-12247
商	-12248
哭	-12249
续	-12250
穿	-12251
蛋	-12252
突	-12253
考	-12254
习	-12255
由	-12256
排	-12257
立	-12258
单	-12259
北	-12260
洗	-12261
练	-12262
写	-12263
X	-12264
尔	-12265
基	-12266
j	-12267
夫	-12268
哇	-12269
脸	-12270
深	-12271
雪	-12272
雨	-12273
妹	-12274
展	-12275
菜	-12276
差	-12277
响	-12278
停	-12279
森	-12280
底	-12281
~	-12282
刻	-12283
班	-12284
唱	-12285
亿	-12286
建	-12287
丽	-12288
拍	-12289
坏	-12290
士	-12291
及	-12292
婆	-12293
何	-12294
睛	-12295
脑	-12296
装	-12297
领	-12298
答	-12299
务	-12300
增	-12301
园	-12302
调	-12303
校	-12304
虽	-12305
待	-12306
爬	-12307
娘	-12308
华	-12309
客	-12310
贝	-12311
呼	-12312
k	-12313
随	-12314
漂	-12315
推	-12316
试	-12317
微	-12318
李	-12319
灰	-12320
绿	-12321
费	-12322
叶	-12323
播	-12324
父	-12325
敢	-12326
取	-12327
啥	-12328
板	-12329
妖	-12330
德	-12331
线	-12332
首	-12333
功	-12334
投	-12335
极	-12336
英	-12337
广	-12338
洞	-12339
救	-12340
惊	-12341
留	-12342
卡	-12343
鹿	-12344
》	-12345
《	-12346
识	-12347
愿	-12348
复	-12349
呃	-12350
背	-12351
支	-12352
区	-12353
养	-12354
术	-12355
味	-12356
官	-12357
乌	-12358
改	-12359
;	-12360
抓	-12361
形	-12362
育	-12363
角	-12364
毕	-12365
级	-12366
具	-12367
段	-12368
袋	-12369
刺	-12370
必	-12371
值	-12372
伙	-12373
言	-12374
苦	-12375
弄	-12376
团	-12377
助	-12378
专	-12379
药	-12380
治	-12381
破	-12382
居	-12383
云	-12384
导	-12385
造	-12386
双	-12387
瓜	-12388
偷	-12389
虫	-12390
观	-12391
追	-12392
集	-12393
床	-12394
低	-12395
显	-12396
圆	-12397
换	-12398
证	-12399
冠	-12400
q	-12401
吓	-12402
牙	-12403
野	-12404
论	-12405
彩	-12406
朝	-12407
语	-12408
梦	-12409
屋	-12410
规	-12411
份	-12412
春	-12413
颜	-12414
般	-12415
胖	-12416
政	-12417
耳	-12418
踢	-12419
财	-12420
摇	-12421
蓝	-12422
娃	-12423
姑	-12424
喊	-12425
肉	-12426
皇	-12427
护	-12428
细	-12429
继	-12430
课	-12431
翻	-12432
参	-12433
K	-12434
遇	-12435
油	-12436
灵	-12437
鸭	-12438
卖	-12439
约	-12440
季	-12441
断	-12442
态	-12443
杀	-12444
险	-12445
冲	-12446
抱	-12447
群	-12448
豆	-12449
5	-12450
状	-12451
土	-12452
岁	-12453
器	-12454
围	-12455
罗	-12456
况	-12457
尾	-12458
式	-12459
甜	-12460
村	-12461
切	-12462
店	-12463
旁	-12464
醒	-12465
创	-12466
简	-12467
历	-12468
蜜	-12469
程	-12470
酒	-12471
礼	-12472
银	-12473
顶	-12474
胡	-12475
俩	-12476
升	-12477
统	-12478
福	-12479
姨	-12480
未	-12481
预	-12482
优	-12483
读	-12484
帝	-12485
座	-12486
局	-12487
质	-12488
举	-12489
吹	-12490
尽	-12491
嗨	-12492
称	-12493
船	-12494
众	-12495
除	-12496
舞	-12497
亚	-12498
冬	-12499
迷	-12500
降	-12501
汉	-12502
幸	-12503
肚	-12504
懂	-12505
设	-12506
冷	-12507
评	-12508
伯	-12509
魔	-12510
冰	-12511
乱	-12512
速	-12513
户	-12514
采	-12515
累	-12516
京	-12517
痛	-12518
引	-12519
乎	-12520
争	-12521
棒	-12522
沙	-12523
项	-12524
桌	-12525
假	-12526
田	-12527
涨	-12528
(	-12529
粉	-12530
)	-12531
念	-12532
笨	-12533
健	-12534
静	-12535
帅	-12536
压	-12537
叔	-12538
迎	-12539
图	-12540
武	-12541
康	-12542
诶	-12543
兵	-12544
农	-12545
查	-12546
嘿	-12547
议	-12548
狮	-12549
获	-12550
激	-12551
古	-12552
智	-12553
蚁	-12554
严	-12555
势	-12556
血	-12557
鞋	-12558
企	-12559
率	-12560
阵	-12561
温	-12562
款	-12563
伴	-12564
另	-12565
藏	-12566
句	-12567
逃	-12568
绝	-12569
存	-12570
贵	-12571
则	-12572
共	-12573
仙	-12574
环	-12575
适	-12576
湖	-12577
即	-12578
州	-12579
蚂	-12580
防	-12581
躲	-12582
忘	-12583
营	-12584
麻	-12585
社	-12586
波	-12587
室	-12588
模	-12589
楼	-12590
普	-12591
仅	-12592
咪	-12593
型	-12594
巧	-12595
曾	-12596
圈	-12597
楚	-12598
担	-12599
蜂	-12600
善	-12601
'	-12602
丝	-12603
靠	-12604
研	-12605
腿	-12606
博	-12607
露	-12608
悄	-12609
净	-12610
铁	-12611
控	-12612
窗	-12613
标	-12614
富	-12615
景	-12616
初	-12617
警	-12618
料	-12619
配	-12620
龟	-12621
[	-12622
独	-12623
]	-12624
负	-12625
职	-12626
令	-12627
似	-12628
兄	-12629
午	-12630
糖	-12631
吸	-12632
钟	-12633
趣	-12634
义	-12635
盘	-12636
案	-12637
密	-12638
奥	-12639
击	-12640
盖	-12641
唉	-12642
颗	-12643
玉	-12644
杯	-12645
退	-12646
依	-12647
赢	-12648
享	-12649
江	-12650
训	-12651
际	-12652
鼻	-12653
组	-12654
境	-12655
究	-12656
效	-12657
维	-12658
搞	-12659
休	-12660
胜	-12661
聪	-12662
棵	-12663
止	-12664
按	-12665
史	-12666
艺	-12667
笔	-12668
泡	-12669
置	-12670
招	-12671
修	-12672
纸	-12673
卫	-12674
灯	-12675
暖	-12676
致	-12677
票	-12678
遍	-12679
婚	-12680
戴	-12681
餐	-12682
p	-12683
权	-12684
摆	-12685
伸	-12686
秀	-12687
摸	-12688
镜	-12689
验	-12690
忽	-12691
牌	-12692
陪	-12693
鬼	-12694
哼	-12695
闪	-12696
努	-12697
拼	-12698
顺	-12699
坚	-12700
乖	-12701
梅	-12702
滑	-12703
软	-12704
闹	-12705
付	-12706
刷	-12707
须	-12708
惜	-12709
渐	-12710
输	-12711
哟	-12712
奖	-12713
勇	-12714
刘	-12715
划	-12716
减	-12717
巨	-12718
劲	-12719
毒	-12720
宫	-12721
烦	-12722
架	-12723
济	-12724
省	-12725
瞧	-12726
短	-12727
讯	-12728
饿	-12729
施	-12730
互	-12731
恩	-12732
尼	-12733
嘟	-12734
绩	-12735
充	-12736
疫	-12737
额	-12738
疑	-12739
散	-12740
摔	-12741
补	-12742
妻	-12743
秋	-12744
浪	-12745
弹	-12746
丢	-12747
顾	-12748
良	-12749
桃	-12750
恶	-12751
汽	-12752
寻	-12753
例	-12754
守	-12755
噢	-12756
堂	-12757
旅	-12758
蹦	-12759
―	-12760
鲜	-12761
丁	-12762
昨	-12763
兰	-12764
货	-12765
层	-12766
蝶	-12767
融	-12768
左	-12769
颈	-12770
鹰	-12771
怀	-12772
素	-12773
挂	-12774
轮	-12775
捉	-12776
疼	-12777
碰	-12778
咬	-12779
挥	-12780
斗	-12781
印	-12782
吵	-12783
齐	-12784
钻	-12785
烧	-12786
威	-12787
羽	-12788
属	-12789
雷	-12790
夏	-12791
珠	-12792
9	-12793
责	-12794
池	-12795
萝	-12796
源	-12797
孙	-12798
限	-12799
族	-12800
滚	-12801
套	-12802
汤	-12803
猎	-12804
膀	-12805
喽	-12806
察	-12807
熟	-12808
稳	-12809
恐	-12810
右	-12811
纪	-12812
溜	-12813
积	-12814
临	-12815
鼓	-12816
卜	-12817
瓶	-12818
肥	-12819
烟	-12820
顿	-12821
针	-12822
志	-12823
策	-12824
纷	-12825
枝	-12826
洋	-12827
蝴	-12828
蛇	-12829
童	-12830
幅	-12831
纳	-12832
尖	-12833
欧	-12834
危	-12835
抢	-12836
帽	-12837
舒	-12838
贴	-12839
败	-12840
翅	-12841
骨	-12842
扔	-12843
喷	-12844
购	-12845
呵	-12846
猬	-12847
讨	-12848
操	-12849
苏	-12850
择	-12851
雀	-12852
借	-12853
派	-12854
杨	-12855
飘	-12856
喂	-12857
劳	-12858
躺	-12859
跌	-12860
泥	-12861
承	-12862
束	-12863
谈	-12864
频	-12865
咕	-12866
擦	-12867
冒	-12868
供	-12869
币	-12870
甚	-12871
困	-12872
永	-12873
免	-12874
糕	-12875
沉	-12876
佩	-12877
章	-12878
索	-12879
扑	-12880
6	-12881
鹅	-12882
端	-12883
呆	-12884
忍	-12885
8	-12886
暗	-12887
韩	-12888
街	-12889
销	-12890
呜	-12891
嘻	-12892
托	-12893
测	-12894
益	-12895
滴	-12896
泪	-12897
懒	-12898
刀	-12899
搭	-12900
录	-12901
脱	-12902
售	-12903
淘	-12904
乡	-12905
姆	-12906
探	-12907
某	-12908
攻	-12909
丹	-12910
澡	-12911
占	-12912
构	-12913
券	-12914
陈	-12915
鲁	-12916
既	-12917
茶	-12918
P	-12919
列	-12920
误	-12921
封	-12922
偶	-12923
府	-12924
7	-12925
透	-12926
窝	-12927
篇	-12928
仔	-12929
吉	-12930
缺	-12931
菲	-12932
射	-12933
雄	-12934
垃	-12935
脏	-12936
材	-12937
监	-12938
估	-12939
谷	-12940
圾	-12941
疗	-12942
宁	-12943
犯	-12944
仍	-12945
挑	-12946
妙	-12947
噜	-12948
舍	-12949
宣	-12950
织	-12951
余	-12952
枪	-12953
检	-12954
孔	-12955
兽	-12956
耶	-12957
巫	-12958
暴	-12959
f	-12960
诺	-12961
箱	-12962
唐	-12963
港	-12964
爆	-12965
骑	-12966
均	-12967
猛	-12968
娜	-12969
硬	-12970
概	-12971
县	-12972
航	-12973
漫	-12974
尤	-12975
镇	-12976
傻	-12977
凉	-12978
抬	-12979
归	-12980
甲	-12981
腾	-12982
妇	-12983
拔	-12984
虚	-12985
折	-12986
晨	-12987
锅	-12988
奋	-12989
掌	-12990
莫	-12991
律	-12992
堆	-12993
扎	-12994
猜	-12995
曲	-12996
映	-12997
泳	-12998
搬	-12999
祖	-13000
桶	-13001
丛	-13002
祝	-13003
胆	-13004
秘	-13005
壮	-13006
辛	-13007
洲	-13008
介	-13009
范	-13010
墙	-13011
丑	-13012
摘	-13013
盛	-13014
拥	-13015
罪	-13016
尝	-13017
旧	-13018
姓	-13019
撞	-13020
诗	-13021
染	-13022
厚	-13023
庭	-13024
奔	-13025
登	-13026
鸦	-13027
馆	-13028
批	-13029
箭	-13030
赵	-13031
赞	-13032
委	-13033
核	-13034
湿	-13035
骗	-13036
桥	-13037
闭	-13038
岸	-13039
否	-13040
寒	-13041
弃	-13042
烈	-13043
弱	-13044
麦	-13045
扫	-13046
臣	-13047
圣	-13048
敲	-13049
碗	-13050
梯	-13051
佳	-13052
异	-13053
症	-13054
若	-13055
庄	-13056
剩	-13057
惯	-13058
壳	-13059
杰	-13060
虑	-13061
君	-13062
塘	-13063
捡	-13064
铺	-13065
禁	-13066
雅	-13067
炼	-13068
默	-13069
骂	-13070
幼	-13071
怜	-13072
饼	-13073
副	-13074
编	-13075
庆	-13076
磨	-13077
塞	-13078
判	-13079
夺	-13080
咚	-13081
敬	-13082
苗	-13083
抽	-13084
荣	-13085
秦	-13086
挖	-13087
辆	-13088
萨	-13089
竹	-13090
末	-13091
迪	-13092
穷	-13093
触	-13094
隔	-13095
乔	-13096
燕	-13097
涂	-13098
拖	-13099
孤	-13100
罚	-13101
卷	-13102
琴	-13103
椅	-13104
偏	-13105
珍	-13106
粒	-13107
凡	-13108
饱	-13109
菇	-13110
抗	-13111
郎	-13112
豪	-13113
尚	-13114
附	-13115
狠	-13116
腰	-13117
蛮	-13118
蛛	-13119
抖	-13120
聚	-13121
词	-13122
替	-13123
咋	-13124
朱	-13125
宽	-13126
递	-13127
宗	-13128
截	-13129
债	-13130
络	-13131
括	-13132
敌	-13133
绍	-13134
协	-13135
乒	-13136
蘑	-13137
赏	-13138
搜	-13139
叹	-13140
陆	-13141
洛	-13142
煮	-13143
执	-13144
怒	-13145
移	-13146
私	-13147
厨	-13148
盗	-13149
竞	-13150
启	-13151
壁	-13152
驴	-13153
咯	-13154
饮	-13155
蜗	-13156
缝	-13157
酸	-13158
晃	-13159
炎	-13160
峰	-13161
斑	-13162
蟹	-13163
曼	-13164
佛	-13165
貌	-13166
培	-13167
臭	-13168
典	-13169
慕	-13170
尊	-13171
撒	-13172
裁	-13173
齿	-13174
避	-13175
恒	-13176
屁	-13177
版	-13178
瘦	-13179
紫	-13180
糊	-13181
签	-13182
席	-13183
乘	-13184
扬	-13185
艾	-13186
释	-13187
辈	-13188
隐	-13189
吐	-13190
眉	-13191
库	-13192
献	-13193
盒	-13194
蜘	-13195
伍	-13196
荡	-13197
厅	-13198
吴	-13199
盆	-13200
杂	-13201
钢	-13202
朗	-13203
丰	-13204
汪	-13205
邻	-13206
弯	-13207
缘	-13208
呐	-13209
粮	-13210
乓	-13211
晒	-13212
杜	-13213
塔	-13214
咦	-13215
诚	-13216
柔	-13217
狂	-13218
粗	-13219
恋	-13220
厌	-13221
捕	-13222
汗	-13223
蒙	-13224
烂	-13225
绳	-13226
域	-13227
载	-13228
伞	-13229
损	-13230
阴	-13231
惨	-13232
央	-13233
访	-13234
灭	-13235
亏	-13236
魂	-13237
驾	-13238
欺	-13239
略	-13240
坡	-13241
患	-13242
润	-13243
姊	-13244
岛	-13245
征	-13246
遭	-13247
锻	-13248
熬	-13249
恢	-13250
淡	-13251
虾	-13252
邀	-13253
伟	-13254
凶	-13255
慌	-13256
闲	-13257
综	-13258
瑞	-13259
堡	-13260
慧	-13261
震	-13262
夸	-13263
拳	-13264
砍	-13265
阅	-13266
井	-13267
仓	-13268
逐	-13269
罐	-13270
毫	-13271
辣	-13272
幕	-13273
羡	-13274
唯	-13275
丈	-13276
悲	-13277
宋	-13278
呱	-13279
肺	-13280
傲	-13281
溪	-13282
勒	-13283
码	-13284
伦	-13285
勤	-13286
荐	-13287
隆	-13288
炸	-13289
逼	-13290
糟	-13291
遗	-13292
励	-13293
龄	-13294
役	-13295
荷	-13296
碎	-13297
欣	-13298
脖	-13299
曹	-13300
盟	-13301
诊	-13302
鳄	-13303
伊	-13304
混	-13305
著	-13306
违	-13307
莱	-13308
媒	-13309
脾	-13310
挣	-13311
剪	-13312
睁	-13313
悠	-13314
耀	-13315
剑	-13316
途	-13317
矮	-13318
缓	-13319
赚	-13320
厂	-13321
亡	-13322
储	-13323
贷	-13324
析	-13325
柴	-13326
吞	-13327
嘞	-13328
措	-13329
键	-13330
晶	-13331
耐	-13332
税	-13333
娱	-13334
援	-13335
审	-13336
含	-13337
番	-13338
梁	-13339
莉	-13340
申	-13341
握	-13342
吱	-13343
延	-13344
耍	-13345
夹	-13346
霸	-13347
缩	-13348
宜	-13349
铃	-13350
述	-13351
哗	-13352
柳	-13353
迟	-13354
扇	-13355
笼	-13356
跃	-13357
挤	-13358
迹	-13359
固	-13360
璃	-13361
摩	-13362
柜	-13363
匹	-13364
洁	-13365
嘉	-13366
闷	-13367
踩	-13368
挡	-13369
泰	-13370
扭	-13371
涉	-13372
陷	-13373
植	-13374
授	-13375
距	-13376
呗	-13377
绕	-13378
苍	-13379
匠	-13380
昂	-13381
葡	-13382
撑	-13383
阶	-13384
趁	-13385
旗	-13386
啪	-13387
炒	-13388
宿	-13389
萄	-13390
烤	-13391
蒂	-13392
凭	-13393
页	-13394
链	-13395
屏	-13396
瓦	-13397
贪	-13398
玻	-13399
滋	-13400
坑	-13401
恨	-13402
恼	-13403
趴	-13404
劝	-13405
瓣	-13406
残	-13407
鼹	-13408
倍	-13409
俊	-13410
拾	-13411
叮	-13412
徒	-13413
埋	-13414
爪	-13415
悬	-13416
革	-13417
奏	-13418
羞	-13419
横	-13420
裙	-13421
扣	-13422
胃	-13423
啄	-13424
泉	-13425
巾	-13426
骄	-13427
串	-13428
晓	-13429
愁	-13430
嫌	-13431
怨	-13432
牵	-13433
召	-13434
莓	-13435
浑	-13436
罩	-13437
蕉	-13438
疯	-13439
眠	-13440
纯	-13441
舌	-13442
锦	-13443
插	-13444
租	-13445
披	-13446
尿	-13447
裤	-13448
匆	-13449
嘎	-13450
欲	-13451
董	-13452
虹	-13453
暂	-13454
卧	-13455
叽	-13456
螃	-13457
扶	-13458
宇	-13459
肤	-13460
棉	-13461
川	-13462
忠	-13463
彼	-13464
嫁	-13465
谓	-13466
焦	-13467
忧	-13468
嫩	-13469
灾	-13470
钓	-13471
榜	-13472
郑	-13473
稻	-13474
·	-13475
丧	-13476
迫	-13477
墨	-13478
昏	-13479
肠	-13480
淋	-13481
郁	-13482
冻	-13483
锋	-13484
疾	-13485
贼	-13486
锁	-13487
幻	-13488
凌	-13489
摄	-13490
翔	-13491
戒	-13492
悔	-13493
胸	-13494
绪	-13495
扮	-13496
翼	-13497
序	-13498
稍	-13499
玛	-13500
婶	-13501
废	-13502
悉	-13503
诸	-13504
妆	-13505
浮	-13506
痒	-13507
豹	-13508
刮	-13509
甘	-13510
歉	-13511
渴	-13512
仿	-13513
芽	-13514
浇	-13515
扩	-13516
徐	-13517
悟	-13518
稀	-13519
贫	-13520
慰	-13521
酷	-13522
愤	-13523
惠	-13524
扰	-13525
瑰	-13526
凯	-13527
订	-13528
诞	-13529
旦	-13530
驶	-13531
汁	-13532
础	-13533
丫	-13534
玫	-13535
潮	-13536
谋	-13537
罢	-13538
嚏	-13539
俗	-13540
爽	-13541
障	-13542
促	-13543
嚷	-13544
愧	-13545
凳	-13546
奈	-13547
晋	-13548
鹊	-13549
陕	-13550
詹	-13551
牧	-13552
姚	-13553
敏	-13554
忆	-13555
沟	-13556
喵	-13557
傅	-13558
妮	-13559
胎	-13560
迅	-13561
哩	-13562
逆	-13563
踏	-13564
喘	-13565
歪	-13566
繁	-13567
肩	-13568
邮	-13569
宠	-13570
莎	-13571
眯	-13572
殿	-13573
眨	-13574
氏	-13575
衡	-13576
泽	-13577
醉	-13578
脆	-13579
贾	-13580
侠	-13581
霍	-13582
凤	-13583
甩	-13584
裂	-13585
薄	-13586
荒	-13587
舅	-13588
吊	-13589
返	-13590
芦	-13591
魏	-13592
仪	-13593
廷	-13594
砸	-13595
毁	-13596
邦	-13597
阻	-13598
伏	-13599
棍	-13600
抵	-13601
瞪	-13602
斤	-13603
捧	-13604
俱	-13605
屈	-13606
遥	-13607
纹	-13608
讶	-13609
符	-13610
宾	-13611
缸	-13612
仗	-13613
浓	-13614
逛	-13615
洪	-13616
浴	-13617
仇	-13618
呦	-13619
郭	-13620
仰	-13621
咳	-13622
惑	-13623
琪	-13624
姿	-13625
碌	-13626
抹	-13627
津	-13628
烫	-13629
届	-13630
炮	-13631
蚊	-13632
潜	-13633
枯	-13634
喳	-13635
炉	-13636
予	-13637
咧	-13638
吼	-13639
嗓	-13640
祸	-13641
坦	-13642
袭	-13643
晕	-13644
牢	-13645
寄	-13646
庙	-13647
娇	-13648
辞	-13649
筑	-13650
燃	-13651
盯	-13652
梨	-13653
鹤	-13654
艳	-13655
沿	-13656
秒	-13657
莲	-13658
蛤	-13659
愈	-13660
渔	-13661
踪	-13662
兼	-13663
盈	-13664
绵	-13665
爹	-13666
疲	-13667
鸣	-13668
叭	-13669
账	-13670
侵	-13671
轰	-13672
蔬	-13673
肝	-13674
饰	-13675
寺	-13676
拒	-13677
杆	-13678
欠	-13679
添	-13680
咖	-13681
仁	-13682
舔	-13683
鸽	-13684
怖	-13685
扯	-13686
犹	-13687
岩	-13688
尘	-13689
雕	-13690
俄	-13691
嘲	-13692
瞎	-13693
挨	-13694
茅	-13695
液	-13696
牠	-13697
驼	-13698
棕	-13699
椒	-13700
姜	-13701
玲	-13702
艰	-13703
谅	-13704
猩	-13705
绒	-13706
刑	-13707
旺	-13708
灿	-13709
漏	-13710
轩	-13711
洒	-13712
菊	-13713
赔	-13714
污	-13715
档	-13716
贡	-13717
逗	-13718
尸	-13719
柱	-13720
耗	-13721
拨	-13722
蟆	-13723
姥	-13724
臂	-13725
绑	-13726
汇	-13727
寿	-13728
旋	-13729
穆	-13730
倾	-13731
赋	-13732
迈	-13733
袜	-13734
党	-13735
雾	-13736
孟	-13737
喇	-13738
奉	-13739
径	-13740
恭	-13741
誉	-13742
薇	-13743
蝇	-13744
闯	-13745
愉	-13746
晴	-13747
垂	-13748
媳	-13749
畅	-13750
赫	-13751
允	-13752
扛	-13753
凑	-13754
恰	-13755
灌	-13756
跨	-13757
卓	-13758
枕	-13759
筋	-13760
肖	-13761
仆	-13762
圳	-13763
歇	-13764
茫	-13765
掏	-13766
惹	-13767
抛	-13768
赖	-13769
陶	-13770
吕	-13771
筝	-13772
蹲	-13773
扁	-13774
抑	-13775
啡	-13776
悦	-13777
割	-13778
慈	-13779
捏	-13780
拐	-13781
翁	-13782
嘘	-13783
鲨	-13784
娶	-13785
唤	-13786
螂	-13787
振	-13788
栗	-13789
湾	-13790
贤	-13791
憾	-13792
哀	-13793
壶	-13794
彻	-13795
揉	-13796
铜	-13797
巢	-13798
梳	-13799
捞	-13800
辽	-13801
牡	-13802
撕	-13803
腹	-13804
奴	-13805
尺	-13806
帕	-13807
募	-13808
芯	-13809
催	-13810
塑	-13811
贸	-13812
挠	-13813
棋	-13814
Q	-13815
咔	-13816
抚	-13817
厕	-13818
滩	-13819
祥	-13820
宴	-13821
殊	-13822
穴	-13823
乃	-13824
樱	-13825
缠	-13826
遮	-13827
坛	-13828
侯	-13829
盐	-13830
阔	-13831
瞬	-13832
岗	-13833
橘	-13834
澳	-13835
狱	-13836
祭	-13837
浅	-13838
鲤	-13839
侧	-13840
涛	-13841
漠	-13842
螺	-13843
贺	-13844
呈	-13845
妃	-13846
巡	-13847
拆	-13848
趋	-13849
埃	-13850
寸	-13851
覆	-13852
辉	-13853
填	-13854
霉	-13855
墓	-13856
肾	-13857
萤	-13858
W	-13859
捂	-13860
芒	-13861
浦	-13862
婷	-13863
幺	-13864
陌	-13865
御	-13866
幽	-13867
暑	-13868
槽	-13869
册	-13870
谎	-13871
葫	-13872
吻	-13873
弓	-13874
碧	-13875
黎	-13876
筒	-13877
傍	-13878
弗	-13879
芳	-13880
蒲	-13881
跪	-13882
嘀	-13883
竖	-13884
蜡	-13885
J	-13886
盾	-13887
赌	-13888
蹈	-13889
枚	-13890
兮	-13891
崖	-13892
拦	-13893
栏	-13894
嗒	-13895
岂	-13896
伐	-13897
堵	-13898
茂	-13899
惩	-13900
桂	-13901
轨	-13902
邪	-13903
咒	-13904
崇	-13905
皱	-13906
骆	-13907
唧	-13908
询	-13909
鞭	-13910
愣	-13911
捷	-13912
纠	-13913
孝	-13914
督	-13915
漆	-13916
浙	-13917
盼	-13918
v	-13919
咽	-13920
毯	-13921
嗡	-13922
堪	-13923
谦	-13924
芬	-13925
薪	-13926
攀	-13927
逊	-13928
婴	-13929
筹	-13930
趟	-13931
渣	-13932
叉	-13933
纵	-13934
偿	-13935
柿	-13936
枣	-13937
矛	-13938
桑	-13939
翠	-13940
赤	-13941
宅	-13942
砰	-13943
尬	-13944
吁	-13945
寂	-13946
慎	-13947
蜻	-13948
摊	-13949
啃	-13950
葛	-13951
雁	-13952
契	-13953
咐	-13954
欸	-13955
聘	-13956
肌	-13957
蓬	-13958
勃	-13959
亭	-13960
饥	-13961
淹	-13962
宙	-13963
辅	-13964
辑	-13965
邓	-13966
丸	-13967
匙	-13968
撤	-13969
诱	-13970
咸	-13971
粘	-13972
】	-13973
蔡	-13974
惧	-13975
【	-13976
嫂	-13977
茄	-13978
钩	-13979
渡	-13980
橡	-13981
逢	-13982
杭	-13983
叠	-13984
斧	-13985
栽	-13986
盲	-13987
剥	-13988
豫	-13989
沈	-13990
秃	-13991
蜓	-13992
驱	-13993
喻	-13994
戚	-13995
藤	-13996
颖	-13997
昆	-13998
籍	-13999
帘	-14000
嚓	-14001
叼	-14002
腐	-14003
拟	-14004
韦	-14005
勺	-14006
浩	-14007
沃	-14008
琳	-14009
侍	-14010
涌	-14011
豚	-14012
茸	-14013
蠢	-14014
泄	-14015
尴	-14016
勾	-14017
孵	-14018
袁	-14019
贯	-14020
宰	-14021
乞	-14022
靴	-14023
哒	-14024
涯	-14025
胞	-14026
乏	-14027
牲	-14028
肿	-14029
莹	-14030
啰	-14031
芝	-14032
兜	-14033
辩	-14034
碑	-14035
赐	-14036
描	-14037
羚	-14038
馋	-14039
夕	-14040
宏	-14041
痴	-14042
剂	-14043
泛	-14044
裹	-14045
辱	-14046
捣	-14047
衰	-14048
稼	-14049
谱	-14050
株	-14051
亦	-14052
抄	-14053
玄	-14054
孕	-14055
翘	-14056
鹉	-14057
疆	-14058
迁	-14059
鹦	-14060
翰	-14061
筐	-14062
哧	-14063
乳	-14064
侦	-14065
泼	-14066
僧	-14067
嗽	-14068
蝌	-14069
袖	-14070
肃	-14071
蚓	-14072
哨	-14073
岭	-14074
循	-14075
沾	-14076
胳	-14077
蚯	-14078
岳	-14079
胀	-14080
沪	-14081
钉	-14082
皆	-14083
喉	-14084
锤	-14085
哄	-14086
泣	-14087
瑟	-14088
烛	-14089
狡	-14090
颤	-14091
昌	-14092
览	-14093
蟑	-14094
窜	-14095
灶	-14096
蚪	-14097
毅	-14098
跤	-14099
脂	-14100
葱	-14101
铅	-14102
犬	-14103
籽	-14104
粥	-14105
钥	-14106
胶	-14107
卵	-14108
削	-14109
辨	-14110
丘	-14111
碍	-14112
绣	-14113
卢	-14114
掩	-14115
葬	-14116
纽	-14117
琦	-14118
腻	-14119
酱	-14120
顽	-14121
橙	-14122
磊	-14123
崩	-14124
遵	-14125
旨	-14126
葵	-14127
耕	-14128
塌	-14129
嚼	-14130
携	-14131
冯	-14132
劫	-14133
氛	-14134
煎	-14135
笛	-14136
瘸	-14137
蟋	-14138
浆	-14139
蝈	-14140
蟀	-14141
饶	-14142
柏	-14143
疏	-14144
拎	-14145
捆	-14146
潭	-14147
陵	-14148
斜	-14149
谨	-14150
绘	-14151
揭	-14152
颠	-14153
忌	-14154
寓	-14155
腊	-14156
嗦	-14157
寡	-14158
窄	-14159
捐	-14160
蝉	-14161
膊	-14162
冤	-14163
竿	-14164
萌	-14165
菌	-14166
虐	-14167
蹭	-14168
兹	-14169
陛	-14170
详	-14171
脉	-14172
饺	-14173
姻	-14174
押	-14175
衔	-14176
胁	-14177
蒸	-14178
熙	-14179
翩	-14180
阱	-14181
仲	-14182
译	-14183
俺	-14184
寨	-14185
筷	-14186
誓	-14187
楠	-14188
逮	-14189
拽	-14190
舰	-14191
叙	-14192
庞	-14193
鲍	-14194
燥	-14195
蚕	-14196
嘱	-14197
愚	-14198
躁	-14199
奸	-14200
炫	-14201
彭	-14202
歧	-14203
癌	-14204
谊	-14205
妞	-14206
叛	-14207
猾	-14208
莺	-14209
弥	-14210
斩	-14211
哆	-14212
砖	-14213
霞	-14214
擅	-14215
卑	-14216
彤	-14217
桔	-14218
萧	-14219
辰	-14220
旱	-14221
潘	-14222
寞	-14223
汰	-14224
皂	-14225
膝	-14226
丐	-14227
恳	-14228
裳	-14229
痕	-14230
吩	-14231
芭	-14232
佬	-14233
唷	-14234
沸	-14235
珊	-14236
棚	-14237
蝠	-14238
矩	-14239
耽	-14240
嗖	-14241
娥	-14242
瞅	-14243
闺	-14244
獾	-14245
赴	-14246
凰	-14247
卦	-14248
瘾	-14249
衫	-14250
驰	-14251
衙	-14252
鹏	-14253
颇	-14254
囊	-14255
妒	-14256
廉	-14257
挽	-14258
淇	-14259
叨	-14260
哲	-14261
宵	-14262
爵	-14263
铛	-14264
煤	-14265
姬	-14266
轿	-14267
伪	-14268
唇	-14269
帆	-14270
帚	-14271
挪	-14272
祈	-14273
罕	-14274
馨	-14275
à	-14276
垫	-14277
纱	-14278
拇	-14279
畏	-14280
鲸	-14281
膏	-14282
#	-14283
憋	-14284
黏	-14285
缴	-14286
蝙	-14287
鼎	-14288
藩	-14289
酬	-14290
斥	-14291
杖	-14292
吨	-14293
哑	-14294
驮	-14295
寝	-14296
渠	-14297
瓢	-14298
驻	-14299
丞	-14300
腔	-14301
搏	-14302
薯	-14303
锐	-14304
乙	-14305
扒	-14306
磕	-14307
昭	-14308
陋	-14309
憨	-14310
掀	-14311
牺	-14312
搁	-14313
癞	-14314
吒	-14315
矿	-14316
谣	-14317
栋	-14318
蹄	-14319
雇	-14320
咩	-14321
涵	-14322
帐	-14323
搓	-14324
稿	-14325
瓷	-14326
涕	-14327
犀	-14328
袍	-14329
逻	-14330
劣	-14331
吾	-14332
劈	-14333
戈	-14334
拓	-14335
ā	-14336
氧	-14337
肢	-14338
铲	-14339
坎	-14340
匪	-14341
坊	-14342
赠	-14343
墩	-14344
框	-14345
阁	-14346
妥	-14347
枫	-14348
讽	-14349
逸	-14350
杏	-14351
柯	-14352
艘	-14353
吟	-14354
屉	-14355
鉴	-14356
骚	-14357
桩	-14358
沫	-14359
浣	-14360
溢	-14361
郊	-14362
厄	-14363
署	-14364
婉	-14365
橱	-14366
杠	-14367
屎	-14368
搅	-14369
窃	-14370
凝	-14371
厦	-14372
拢	-14373
玺	-14374
盏	-14375
诈	-14376
谜	-14377
鸿	-14378
烘	-14379
耻	-14380
笃	-14381
晖	-14382
逝	-14383
舟	-14384
践	-14385
瞒	-14386
惰	-14387
硕	-14388
荆	-14389
颁	-14390
嫉	-14391
拱	-14392
慨	-14393
湘	-14394
奢	-14395
媚	-14396
拯	-14397
唔	-14398
敦	-14399
梢	-14400
浸	-14401
乾	-14402
嗅	-14403
屑	-14404
鸵	-14405
坟	-14406
魅	-14407
泊	-14408
觅	-14409
鳞	-14410
弦	-14411
掘	-14412
祷	-14413
庸	-14414
纺	-14415
痰	-14416
绊	-14417
篓	-14418
樊	-14419
辜	-14420
佐	-14421
噗	-14422
畜	-14423
徽	-14424
绸	-14425
禅	-14426
妨	-14427
渊	-14428
篱	-14429
馅	-14430
碟	-14431
巅	-14432
朴	-14433
衬	-14434
榴	-14435
裕	-14436
刹	-14437
魄	-14438
揪	-14439
僵	-14440
璋	-14441
禹	-14442
啼	-14443
戳	-14444
曰	-14445
蓄	-14446
蕾	-14447
辫	-14448
晰	-14449
械	-14450
贩	-14451
卸	-14452
恍	-14453
拴	-14454
璐	-14455
勋	-14456
坠	-14457
溃	-14458
卿	-14459
址	-14460
蹬	-14461
茉	-14462
礁	-14463
刊	-14464
倦	-14465
勉	-14466
杉	-14467
槐	-14468
鸥	-14469
貂	-14470
茨	-14471
蚱	-14472
挫	-14473
澈	-14474
膜	-14475
─	-14476
澄	-14477
á	-14478
搂	-14479
酿	-14480
锄	-14481
屠	-14482
晾	-14483
删	-14484
唬	-14485
桐	-14486
烊	-14487
瑜	-14488
侣	-14489
笆	-14490
曝	-14491
焰	-14492
荫	-14493
煌	-14494
蜀	-14495
妄	-14496
霜	-14497
咙	-14498
弊	-14499
沐	-14500
禾	-14501
蟒	-14502
粪	-14503
锯	-14504
嗷	-14505
蒋	-14506
盔	-14507
琼	-14508
惭	-14509
谐	-14510
窟	-14511
雯	-14512
嗳	-14513
遂	-14514
淮	-14515
甫	-14516
ǎ	-14517
瑶	-14518
豺	-14519
嘭	-14520
椎	-14521
炖	-14522
琢	-14523
檐	-14524
醋	-14525
儒	-14526
咨	-14527
喃	-14528
坪	-14529
炭	-14530
敷	-14531
凿	-14532
撼	-14533
沮	-14534
猕	-14535
巷	-14536
竭	-14537
吭	-14538
柄	-14539
睹	-14540
窦	-14541
郡	-14542
殖	-14543
缕	-14544
贬	-14545
馒	-14546
樵	-14547
淌	-14548
薛	-14549
豌	-14550
侄	-14551
/	-14552
敞	-14553
歹	-14554
梭	-14555
舱	-14556
锡	-14557
嫦	-14558
萎	-14559
骏	-14560
茎	-14561
嘶	-14562
鹃	-14563
彬	-14564
佑	-14565
肆	-14566
兑	-14567
屡	-14568
蜥	-14569
衍	-14570
躬	-14571
拘	-14572
潇	-14573
腕	-14574
嬉	-14575
兆	-14576
吆	-14577
攒	-14578
蔓	-14579
枉	-14580
跷	-14581
钳	-14582
崛	-14583
笋	-14584
霆	-14585
侃	-14586
懈	-14587
灸	-14588
崔	-14589
篷	-14590
绽	-14591
靖	-14592
俯	-14593
旭	-14594
啤	-14595
峡	-14596
滨	-14597
漉	-14598
磁	-14599
螳	-14600
酪	-14601
驳	-14602
喀	-14603
禽	-14604
甄	-14605
聆	-14606
崽	-14607
蚣	-14608
熏	-14609
蜈	-14610
妾	-14611
跺	-14612
撇	-14613
惕	-14614
惫	-14615
囱	-14616
瘤	-14617
厢	-14618
贱	-14619
鳗	-14620
婪	-14621
鹂	-14622
吏	-14623
啧	-14624
帖	-14625
槛	-14626
汹	-14627
狈	-14628
哮	-14629
唠	-14630
伶	-14631
啾	-14632
%	-14633
匈	-14634
旬	-14635
辟	-14636
亩	-14637
嗬	-14638
凄	-14639
碳	-14640
菩	-14641
隋	-14642
俏	-14643
懵	-14644
耸	-14645
衷	-14646
贞	-14647
鞠	-14648
奄	-14649
惶	-14650
渤	-14651
溅	-14652
纤	-14653
赎	-14654
蹿	-14655
淳	-14656
甸	-14657
羿	-14658
菠	-14659
隙	-14660
侮	-14661
娅	-14662
拣	-14663
耿	-14664
噔	-14665
烁	-14666
睬	-14667
墅	-14668
幢	-14669
殷	-14670
躯	-14671
棘	-14672
菱	-14673
棠	-14674
刨	-14675
噩	-14676
狒	-14677
禀	-14678
绰	-14679
鹭	-14680
浏	-14681
稚	-14682
苇	-14683
蔽	-14684
怯	-14685
讼	-14686
+	-14687
坤	-14688
履	-14689
怡	-14690
瑚	-14691
蓉	-14692
掰	-14693
瞄	-14694
驯	-14695
婿	-14696
昕	-14697
梧	-14698
佣	-14699
倡	-14700
剔	-14701
梗	-14702
蜴	-14703
陀	-14704
拂	-14705
窖	-14706
壤	-14707
疙	-14708
狭	-14709
腥	-14710
蒜	-14711
呛	-14712
啸	-14713
噼	-14714
彦	-14715
滔	-14716
茧	-14717
蕊	-14718
Y	-14719
隶	-14720
垮	-14721
刃	-14722
拧	-14723
瘩	-14724
雌	-14725
秩	-14726
肪	-14727
脊	-14728
廊	-14729
泌	-14730
茜	-14731
蛾	-14732
贿	-14733
揍	-14734
滞	-14735
缤	-14736
腮	-14737
艇	-14738
韵	-14739
粽	-14740
拌	-14741
瘫	-14742
禧	-14743
羲	-14744
舀	-14745
舜	-14746
趾	-14747
魁	-14748
尉	-14749
杈	-14750
泻	-14751
稽	-14752
è	-14753
凛	-14754
夷	-14755
瞌	-14756
雏	-14757
饲	-14758
绅	-14759
ì	-14760
椰	-14761
褐	-14762
遣	-14763
诀	-14764
锣	-14765
凸	-14766
呕	-14767
喏	-14768
萍	-14769
钦	-14770
勿	-14771
嚎	-14772
扳	-14773
揽	-14774
湛	-14775
蟾	-14776
厘	-14777
绎	-14778
跆	-14779
蹑	-14780
铭	-14781
麟	-14782
诡	-14783
骁	-14784
ī	-14785
巩	-14786
襄	-14787
冥	-14788
嚯	-14789
沼	-14790
瘟	-14791
絮	-14792
腺	-14793
俐	-14794
蔷	-14795
「	-14796
朦	-14797
栖	-14798
舆	-14799
伽	-14800
剃	-14801
ù	-14802
懊	-14803
撅	-14804
桓	-14805
犁	-14806
噪	-14807
幂	-14808
涩	-14809
囚	-14810
蔚	-14811
霖	-14812
沥	-14813
漱	-14814
宛	-14815
坝	-14816
弘	-14817
洼	-14818
窍	-14819
谭	-14820
・	-14821
俭	-14822
蚌	-14823
韧	-14824
>	-14825
囔	-14826
悍	-14827
芙	-14828
苞	-14829
茵	-14830
蜍	-14831
飙	-14832
黛	-14833
骤	-14834
鸠	-14835
袄	-14836
颂	-14837
鳖	-14838
琐	-14839
僻	-14840
寇	-14841
斌	-14842
沁	-14843
滥	-14844
垒	-14845
尧	-14846
裸	-14847
涅	-14848
砂	-14849
糯	-14850
媛	-14851
绞	-14852
蜇	-14853
鳅	-14854
亨	-14855
崭	-14856
揣	-14857
簇	-14858
胧	-14859
霄	-14860
痘	-14861
豁	-14862
钮	-14863
韬	-14864
咿	-14865
柠	-14866
粹	-14867
裔	-14868
檬	-14869
苔	-14870
骡	-14871
狄	-14872
娟	-14873
旷	-14874
穗	-14875
蛀	-14876
榆	-14877
秧	-14878
兢	-14879
栅	-14880
惟	-14881
睦	-14882
蜷	-14883
熄	-14884
诵	-14885
怂	-14886
橇	-14887
匡	-14888
掠	-14889
們	-14890
绢	-14891
跛	-14892
堤	-14893
缀	-14894
虞	-14895
镶	-14896
倚	-14897
庚	-14898
焕	-14899
煲	-14900
疤	-14901
筛	-14902
缚	-14903
冕	-14904
匣	-14905
朕	-14906
焚	-14907
碾	-14908
羹	-14909
馈	-14910
」	-14911
抠	-14912
窿	-14913
陡	-14914
ū	-14915
棺	-14916
瀑	-14917
瘪	-14918
<	-14919
刁	-14920
妍	-14921
娲	-14922
棱	-14923
膨	-14924
辘	-14925
掐	-14926
暮	-14927
脯	-14928
鹕	-14929
奕	-14930
斓	-14931
馍	-14932
孽	-14933
捋	-14934
晏	-14935
酥	-14936
晗	-14937
聋	-14938
俘	-14939
咻	-14940
鹈	-14941
í	-14942
忒	-14943
靡	-14944
侈	-14945
辖	-14946
ē	-14947
嚣	-14948
郝	-14949
哞	-14950
妓	-14951
袱	-14952
邹	-14953
凹	-14954
函	-14955
犊	-14956
猝	-14957
苟	-14958
恕	-14959
诫	-14960
鲫	-14961
昊	-14962
蘸	-14963
唰	-14964
喧	-14965
怦	-14966
浊	-14967
伺	-14968
坞	-14969
沦	-14970
畔	-14971
垄	-14972
惺	-14973
摧	-14974
沛	-14975
煞	-14976
纲	-14977
蚤	-14978
跋	-14979
冈	-14980
冉	-14981
巍	-14982
剖	-14983
呸	-14984
哉	-14985
婢	-14986
擎	-14987
疮	-14988
莽	-14989
峻	-14990
嵌	-14991
捅	-14992
蝗	-14993
咂	-14994
咆	-14995
懿	-14996
邱	-14997
ɡ	-14998
仑	-14999
虱	-15000
蛐	-15001
讥	-15002
镖	-15003
驹	-15004
惋	-15005
昧	-15006
淀	-15007
觑	-15008
鄙	-15009
饵	-15010
嗝	-15011
怼	-15012
昼	-15013
睿	-15014
绯	-15015
藻	-15016
嫣	-15017
榨	-15018
绛	-15019
蔑	-15020
轼	-15021
丙	-15022
吝	-15023
嘣	-15024
噌	-15025
屯	-15026
彪	-15027
楂	-15028
砌	-15029
這	-15030
溺	-15031
藕	-15032
偎	-15033
呻	-15034
淑	-15035
盹	-15036
赁	-15037
麒	-15038
來	-15039
侥	-15040
哐	-15041
拙	-15042
擒	-15043
谌	-15044
唾	-15045
澎	-15046
疚	-15047
粤	-15048
纣	-15049
绷	-15050
渗	-15051
猿	-15052
胥	-15053
诛	-15054
沧	-15055
獭	-15056
龚	-15057
匀	-15058
叩	-15059
禄	-15060
酋	-15061
鳓	-15062
彰	-15063
惦	-15064
昀	-15065
溶	-15066
肴	-15067
荧	-15068
镑	-15069
奠	-15070
嵩	-15071
怠	-15072
膛	-15073
臼	-15074
锹	-15075
宦	-15076
榕	-15077
祛	-15078
鑫	-15079
岔	-15080
斋	-15081
昱	-15082
暇	-15083
栓	-15084
矶	-15085
蛄	-15086
逞	-15087
哔	-15088
栈	-15089
榛	-15090
漓	-15091
蚩	-15092
谍	-15093
個	-15094
倔	-15095
哺	-15096
缉	-15097
耷	-15098
朽	-15099
毙	-15100
钞	-15101
ó	-15102
侏	-15103
卒	-15104
眶	-15105
糙	-15106
荚	-15107
踮	-15108
颉	-15109
驸	-15110
尹	-15111
矣	-15112
磋	-15113
葩	-15114
宪	-15115
昔	-15116
澜	-15117
崎	-15118
逾	-15119
钧	-15120
颊	-15121
é	-15122
捶	-15123
琉	-15124
睐	-15125
苛	-15126
虔	-15127
锈	-15128
哝	-15129
懦	-15130
挎	-15131
撮	-15132
秤	-15133
荔	-15134
逍	-15135
佟	-15136
咏	-15137
淤	-15138
淫	-15139
祀	-15140
缎	-15141
羔	-15142
诏	-15143
庵	-15144
桨	-15145
潺	-15146
盎	-15147
眷	-15148
虏	-15149
轴	-15150
阀	-15151
敖	-15152
辐	-15153
铸	-15154
ò	-15155
後	-15156
枢	-15157
磅	-15158
啬	-15159
悚	-15160
敛	-15161
渺	-15162
鳍	-15163
峭	-15164
琅	-15165
诅	-15166
阎	-15167
鲳	-15168
夭	-15169
戮	-15170
杞	-15171
焉	-15172
蔼	-15173
蜢	-15174
踱	-15175
坷	-15176
挚	-15177
摁	-15178
椭	-15179
毽	-15180
瘀	-15181
腑	-15182
芋	-15183
撩	-15184
渭	-15185
亢	-15186
搔	-15187
庐	-15188
绚	-15189
粑	-15190
ō	-15191
拭	-15192
箍	-15193
邵	-15194
剁	-15195
朔	-15196
膳	-15197
拄	-15198
祠	-15199
鹳	-15200
祟	-15201
窑	-15202
迭	-15203
鼾	-15204
呷	-15205
寥	-15206
庇	-15207
晌	-15208
汲	-15209
涎	-15210
簌	-15211
ǔ	-15212
矫	-15213
缭	-15214
蕴	-15215
诧	-15216
ú	-15217
栩	-15218
瀚	-15219
烹	-15220
萱	-15221
谏	-15222
霹	-15223
嗤	-15224
悯	-15225
曦	-15226
疹	-15227
裴	-15228
狩	-15229
瞳	-15230
莞	-15231
雍	-15232
髓	-15233
咣	-15234
峨	-15235
殃	-15236
殴	-15237
珑	-15238
蛰	-15239
邢	-15240
犄	-15241
芹	-15242
蔗	-15243
闸	-15244
霾	-15245
惬	-15246
狙	-15247
甭	-15248
霎	-15249
黯	-15250
缅	-15251
褂	-15252
襟	-15253
遏	-15254
韭	-15255
顷	-15256
仕	-15257
垛	-15258
捎	-15259
颅	-15260
榄	-15261
淅	-15262
灼	-15263
脐	-15264
裡	-15265
鼷	-15266
佗	-15267
奎	-15268
慷	-15269
撵	-15270
桧	-15271
琶	-15272
瓮	-15273
酵	-15274
鞅	-15275
倪	-15276
奚	-15277
孜	-15278
戎	-15279
ǐ	-15280
丕	-15281
扈	-15282
掺	-15283
皓	-15284
砚	-15285
箩	-15286
钙	-15287
雳	-15288
倭	-15289
凋	-15290
吠	-15291
咄	-15292
滤	-15293
漾	-15294
炙	-15295
僚	-15296
橄	-15297
秉	-15298
胤	-15299
蔺	-15300
贮	-15301
鞍	-15302
勘	-15303
徊	-15304
徘	-15305
撰	-15306
枞	-15307
湃	-15308
炕	-15309
锂	-15310
匿	-15311
姗	-15312
忡	-15313
悼	-15314
檀	-15315
簧	-15316
肘	-15317
胭	-15318
衅	-15319
說	-15320
邑	-15321
嬛	-15322
簿	-15323
冀	-15324
嬷	-15325
炊	-15326
甥	-15327
粱	-15328
	-15329
厮	-15330
睫	-15331
簸	-15332
逵	-15333
遛	-15334
鹑	-15335
嗵	-15336
噎	-15337
屹	-15338
烙	-15339
邯	-15340
隧	-15341
噻	-15342
圭	-15343
蕃	-15344
镰	-15345
霏	-15346
倘	-15347
庶	-15348
枸	-15349
珀	-15350
蛑	-15351
蝤	-15352
ě	-15353
乍	-15354
倌	-15355
剿	-15356
廖	-15357
淼	-15358
溯	-15359
荤	-15360
蚀	-15361
讳	-15362
鲻	-15363
兒	-15364
掷	-15365
柬	-15366
汝	-15367
涡	-15368
腌	-15369
鹌	-15370
怔	-15371
挟	-15372
汀	-15373
炳	-15374
碱	-15375
窸	-15376
褒	-15377
釉	-15378
匾	-15379
恺	-15380
攘	-15381
皎	-15382
窣	-15383
窥	-15384
褥	-15385
蹋	-15386
辙	-15387
啵	-15388
墟	-15389
恬	-15390
梆	-15391
殉	-15392
沽	-15393
眺	-15394
給	-15395
薰	-15396
诬	-15397
迦	-15398
酣	-15399
楞	-15400
琵	-15401
瞟	-15402
裘	-15403
褪	-15404
嗜	-15405
噬	-15406
惚	-15407
熔	-15408
硅	-15409
舵	-15410
蝎	-15411
鄂	-15412
Z	-15413
擂	-15414
昵	-15415
毋	-15416
瑕	-15417
痊	-15418
踫	-15419
阮	-15420
吮	-15421
弈	-15422
搀	-15423
柚	-15424
猥	-15425
痞	-15426
藉	-15427
踹	-15428
醇	-15429
峥	-15430
撬	-15431
涸	-15432
莴	-15433
螯	-15434
赦	-15435
桦	-15436
槌	-15437
浒	-15438
肋	-15439
嘚	-15440
垢	-15441
妲	-15442
宕	-15443
帷	-15444
癫	-15445
瞥	-15446
赃	-15447
俞	-15448
厥	-15449
樟	-15450
滕	-15451
眩	-15452
粼	-15453
辗	-15454
迢	-15455
啷	-15456
寅	-15457
晟	-15458
槃	-15459
蛏	-15460
谴	-15461
踝	-15462
鳌	-15463
麝	-15464
ǒ	-15465
嗑	-15466
坍	-15467
埂	-15468
惮	-15469
杷	-15470
歼	-15471
烨	-15472
窘	-15473
芊	-15474
芷	-15475
蒿	-15476
谕	-15477
雹	-15478
鬃	-15479
塾	-15480
岚	-15481
怏	-15482
拚	-15483
斟	-15484
於	-15485
枇	-15486
涮	-15487
缰	-15488
茁	-15489
蜒	-15490
飕	-15491
鸳	-15492
咤	-15493
屌	-15494
熠	-15495
痣	-15496
耙	-15497
鼬	-15498
恙	-15499
悻	-15500
掸	-15501
沌	-15502
涟	-15503
秆	-15504
纶	-15505
腱	-15506
芸	-15507
茬	-15508
诋	-15509
阪	-15510
馁	-15511
岐	-15512
涧	-15513
烬	-15514
猖	-15515
祯	-15516
糠	-15517
蔫	-15518
蜕	-15519
堕	-15520
杵	-15521
洽	-15522
璧	-15523
皋	-15524
翡	-15525
肮	-15526
蠕	-15527
靶	-15528
驿	-15529
髦	-15530
佼	-15531
垦	-15532
拗	-15533
烽	-15534
瓤	-15535
荀	-15536
赂	-15537
蹒	-15538
钝	-15539
黝	-15540
冢	-15541
弧	-15542
戛	-15543
毡	-15544
唏	-15545
屿	-15546
憧	-15547
憬	-15548
氓	-15549
翱	-15550
荞	-15551
蹊	-15552
闽	-15553
颐	-15554
麼	-15555
龇	-15556
仨	-15557
噶	-15558
撸	-15559
漩	-15560
瞻	-15561
辍	-15562
锥	-15563
馄	-15564
恃	-15565
煽	-15566
牟	-15567
痹	-15568
苑	-15569
饨	-15570
侨	-15571
倩	-15572
咀	-15573
撂	-15574
曳	-15575
梵	-15576
榈	-15577
淄	-15578
牦	-15579
釜	-15580
俑	-15581
慑	-15582
祁	-15583
胰	-15584
脓	-15585
迄	-15586
颍	-15587
颓	-15588
炯	-15589
眈	-15590
稠	-15591
竺	-15592
肇	-15593
驭	-15594
骼	-15595
哙	-15596
楷	-15597
濡	-15598
磷	-15599
窒	-15600
袅	-15601
讹	-15602
谗	-15603
跚	-15604
鸶	-15605
麽	-15606
囤	-15607
坨	-15608
埔	-15609
揖	-15610
暧	-15611
氢	-15612
溥	-15613
痪	-15614
瞩	-15615
稷	-15616
臊	-15617
蛟	-15618
鸯	-15619
咎	-15620
攥	-15621
桅	-15622
棣	-15623
玥	-15624
珂	-15625
粟	-15626
遢	-15627
邋	-15628
铠	-15629
靓	-15630
厩	-15631
咛	-15632
弩	-15633
抒	-15634
殆	-15635
炀	-15636
炬	-15637
珈	-15638
笠	-15639
诠	-15640
陨	-15641
兀	-15642
帜	-15643
會	-15644
沂	-15645
潍	-15646
箕	-15647
闫	-15648
髅	-15649
娴	-15650
抡	-15651
椿	-15652
瑙	-15653
癖	-15654
笙	-15655
箫	-15656
羁	-15657
鱿	-15658
匕	-15659
啕	-15660
媽	-15661
寐	-15662
蛳	-15663
谚	-15664
蹶	-15665
铝	-15666
飒	-15667
俨	-15668
哽	-15669
宓	-15670
榔	-15671
渝	-15672
濒	-15673
芜	-15674
蹴	-15675
韶	-15676
呲	-15677
喋	-15678
噫	-15679
徙	-15680
拷	-15681
梓	-15682
泾	-15683
涝	-15684
辕	-15685
醺	-15686
钗	-15687
铐	-15688
镯	-15689
饷	-15690
亵	-15691
卤	-15692
嘈	-15693
嘤	-15694
恪	-15695
悴	-15696
憔	-15697
炽	-15698
燎	-15699
畴	-15700
纬	-15701
腆	-15702
薏	-15703
阐	-15704
骷	-15705
鬣	-15706
囡	-15707
娄	-15708
怅	-15709
慜	-15710
捺	-15711
沒	-15712
涓	-15713
疵	-15714
篝	-15715
轲	-15716
郸	-15717
酌	-15718
隻	-15719
俪	-15720
掂	-15721
晦	-15722
湍	-15723
潼	-15724
稣	-15725
芥	-15726
蚜	-15727
蝽	-15728
钵	-15729
麓	-15730
嘹	-15731
囧	-15732
沓	-15733
泸	-15734
焖	-15735
皑	-15736
竣	-15737
篡	-15738
茹	-15739
蛹	-15740
骊	-15741
鬟	-15742
鸢	-15743
暨	-15744
浃	-15745
犟	-15746
琊	-15747
翟	-15748
胯	-15749
雉	-15750
黔	-15751
=	-15752
俅	-15753
偌	-15754
冶	-15755
喆	-15756
憎	-15757
汛	-15758
溉	-15759
臀	-15760
臻	-15761
褶	-15762
踉	-15763
遁	-15764
◇	-15765
噘	-15766
岑	-15767
戟	-15768
紊	-15769
蓑	-15770
伢	-15771
圃	-15772
嫖	-15773
弼	-15774
汾	-15775
狞	-15776
缪	-15777
荨	-15778
赘	-15779
跄	-15780
忐	-15781
忑	-15782
恤	-15783
恿	-15784
捍	-15785
擞	-15786
晁	-15787
矢	-15788
蟠	-15789
锚	-15790
髡	-15791
鲋	-15792
麋	-15793
×	-15794
喱	-15795
坳	-15796
樹	-15797
汕	-15798
瑾	-15799
聂	-15800
袒	-15801
譬	-15802
铮	-15803
霓	-15804
饪	-15805
魟	-15806
峙	-15807
杳	-15808
歆	-15809
汩	-15810
疡	-15811
瘴	-15812
稞	-15813
缙	-15814
膑	-15815
藓	-15816
蛊	-15817
褚	-15818
褴	-15819
锭	-15820
锵	-15821
陇	-15822
偃	-15823
卯	-15824
唳	-15825
嗥	-15826
姣	-15827
扼	-15828
泷	-15829
谩	-15830
亥	-15831
卞	-15832
嫚	-15833
忖	-15834
昙	-15835
烩	-15836
缆	-15837
苣	-15838
诣	-15839
谪	-15840
遐	-15841
還	-15842
靳	-15843
岖	-15844
崴	-15845
忿	-15846
揩	-15847
時	-15848
眸	-15849
瞿	-15850
砺	-15851
耘	-15852
蛎	-15853
谬	-15854
迸	-15855
骇	-15856
呤	-15857
孓	-15858
弛	-15859
枭	-15860
氪	-15861
泞	-15862
潦	-15863
竽	-15864
藿	-15865
蛆	-15866
诲	-15867
踵	-15868
锃	-15869
雎	-15870
骸	-15871
悸	-15872
琨	-15873
瑁	-15874
萦	-15875
褛	-15876
轱	-15877
铎	-15878
镬	-15879
劾	-15880
嗣	-15881
抿	-15882
渍	-15883
缔	-15884
薩	-15885
蝼	-15886
袈	-15887
裟	-15888
跻	-15889
隘	-15890
雞	-15891
仃	-15892
坂	-15893
惆	-15894
拈	-15895
掳	-15896
擀	-15897
桀	-15898
淙	-15899
炅	-15900
琰	-15901
砥	-15902
硝	-15903
谤	-15904
迂	-15905
逖	-15906
酝	-15907
開	-15908
飓	-15909
忏	-15910
斐	-15911
漪	-15912
灞	-15913
煦	-15914
盅	-15915
秽	-15916
绮	-15917
阂	-15918
骋	-15919
鲢	-15920
廓	-15921
桠	-15922
泫	-15923
澹	-15924
矗	-15925
腼	-15926
膺	-15927
讪	-15928
颌	-15929
鲛	-15930
鹫	-15931
佃	-15932
渲	-15933
璇	-15934
芍	-15935
萃	-15936
谛	-15937
轧	-15938
遨	-15939
闵	-15940
阜	-15941
馊	-15942
°	-15943
呶	-15944
唆	-15945
帼	-15946
忪	-15947
忻	-15948
掬	-15949
汐	-15950
缇	-15951
聽	-15952
胚	-15953
芪	-15954
诩	-15955
阙	-15956
鞘	-15957
鲧	-15958
岱	-15959
抨	-15960
摞	-15961
槟	-15962
璀	-15963
璨	-15964
辄	-15965
過	-15966
饯	-15967
髯	-15968
鳝	-15969
剐	-15970
妳	-15971
愕	-15972
汴	-15973
漳	-15974
瓴	-15975
硫	-15976
绫	-15977
苓	-15978
逅	-15979
邂	-15980
鹬	-15981
伎	-15982
勐	-15983
姒	-15984
孪	-15985
毓	-15986
渎	-15987
滿	-15988
為	-15989
狰	-15990
