<pad>	0
<unk>	0
<s>	0
</s>	0
[PAD]	0
[UNK]	0
[CLS]	0
[SEP]	0
[MASK]	0
▁*	-0
""	-1
CH	-2
ER	-3
LD	-4
CHI	-5
CHILD	-6
TA	-7
ET	-8
RG	-9
RGET	-10
TARGET	-11
TH	-12
THER	-13
OTHER	-14
MOTHER	-15
▁我	-16
▁这	-17
▁你	-18
什么	-19
▁是	-20
一个	-21
TI	-22
就是	-23
VE	-24
AT	-25
OR	-26
IN	-27
STI	-28
GAT	-29
INVE	-30
GATOR	-31
INVESTI	-32
INVESTIGATOR	-33
。""	-34
▁了	-35
▁他	-36
:""	-37
xx	-38
▁嗯	-39
没有	-40
▁那	-41
▁好	-42
然后	-43
▁一	-44
▁个	-45
▁不	-46
▁的	-47
这个	-48
▁小	-49
我们	-50
自己	-51
EA	-52
TEA	-53
CHER	-54
TEACHER	-55
▁对	-56
知道	-57
可以	-58
▁有	-59
时候	-60
哈哈	-61
怎么	-62
!""	-63
▁啊	-64
▁"	-65
妈妈	-66
不是	-67
他们	-68
喜欢	-69
▁然后	-70
▁就	-71
现在	-72
▁在	-73
▁看	-74
还是	-75
xxx	-76
▁xxx	-77
觉得	-78
那个	-79
▁什么	-80
了一	-81
..	-82
因为	-83
真的	-84
还有	-85
但是	-86
起来	-87
▁要	-88
。"	-89
?""	-90
这样	-91
到了	-92
▁大	-93
朋友	-94
也是	-95
an	-96
AD	-97
LT	-98
ADU	-99
ADULT	-100
的时候	-101
出来	-102
▁它	-103
ao	-104
▁呢	-105
他的	-106
可是	-107
▁来	-108
孩子	-109
东西	-110
▁我们	-111
都是	-112
en	-113
的人	-114
的小	-115
▁到	-116
爸爸	-117
也不	-118
ai	-119
比赛	-120
▁""	-121
▁n	-122
所以	-123
你好	-124
这么	-125
▁说	-126
故事	-127
▁z	-128
▁哦	-129
我的	-130
已经	-131
ei	-132
有一	-133
▁还	-134
▁哈哈	-135
很多	-136
▁嗯嗯	-137
中国	-138
感觉	-139
FA	-140
▁去	-141
FATHER	-142
▁上	-143
▁y	-144
,""	-145
里面	-146
▁b	-147
▁d	-148
▁也	-149
▁吃	-150
大家	-151
可能	-152
自己的	-153
其实	-154
不过	-155
一起	-156
开始	-157
时间	-158
应该	-159
▁呀	-160
电影	-161
来了	-162
...	-163
▁l	-164
▁给	-165
的话	-166
▁就是	-167
而且	-168
拜拜	-169
好的	-170
如果	-171
▁s	-172
你们	-173
今天	-174
▁是啊	-175
▁h	-176
一样	-177
再见	-178
这些	-179
非常	-180
▁他们	-181
▁把	-182
最近	-183
比较	-184
走了	-185
▁妈妈	-186
青蛙	-187
一点	-188
新闻	-189
一下	-190
▁没	-191
看到	-192
▁怎么	-193
特别	-194
▁你好	-195
不好	-196
▁讲	-197
大的	-198
下来	-199
▁没有	-200
▁sh	-201
的一	-202
狐狸	-203
不会	-204
这种	-205
一只	-206
的是	-207
AN	-208
百分	-209
不能	-210
发现	-211
为什么	-212
▁都	-213
▁会	-214
你的	-215
那么	-216
一定	-217
ou	-218
以后	-219
老鼠	-220
▁zh	-221
人的	-222
百分之	-223
地方	-224
生活	-225
看看	-226
4.	-227
▁对啊	-228
去了	-229
事情	-230
这是	-231
那种	-232
▁吗	-233
▁还有	-234
苹果	-235
▁拿	-236
上的	-237
一直	-238
▁哎	-239
公司	-240
厉害	-241
▁想	-242
之前	-243
▁喔	-244
不知道	-245
我觉得	-246
世界	-247
▁很	-248
好像	-249
需要	-250
肯定	-251
▁只	-252
ang	-253
高兴	-254
▁玩	-255
两个	-256
二十	-257
▁吧	-258
关注	-259
我就	-260
一些	-261
▁可以	-262
于是	-263
最后	-264
▁但是	-265
希望	-266
▁m	-267
动物	-268
确实	-269
老师	-270
一天	-271
看了	-272
▁下	-273
▁哪	-274
问题	-275
▁人	-276
▁里	-277
告诉	-278
▁en	-279
▁g	-280
我也	-281
不错	-282
▁爸爸	-283
看见	-284
▁ni	-285
这里	-286
一次	-287
为了	-288
ji	-289
xi	-290
之后	-291
原来	-292
兔子	-293
手机	-294
国家	-295
不要	-296
眼睛	-297
▁着	-298
▁这样	-299
过来	-300
地说	-301
▁因为	-302
的大	-303
那些	-304
1.	-305
有点	-306
▁现在	-307
▁这个	-308
它们	-309
▁w	-310
后来	-311
好了	-312
里的	-313
回家	-314
足球	-315
以前	-316
出了	-317
游戏	-318
▁所以	-319
听说	-320
▁当	-321
ch	-322
▁知道	-323
▁再	-324
第二	-325
▁青蛙	-326
会儿	-327
咱们	-328
▁从	-329
虽然	-330
▁le	-331
先生	-332
谢谢	-333
要是	-334
二零	-335
▁放	-336
▁好的	-337
森林	-338
工作	-339
漂亮	-340
突然	-341
色的	-342
▁打	-343
每天	-344
--	-345
真是	-346
ng	-347
办法	-348
▁可	-349
了一个	-350
姐姐	-351
我是	-352
GR	-353
AND	-354
GRAND	-355
XX	-356
篮球	-357
▁t	-358
晚上	-359
▁这里	-360
意思	-361
▁狗	-362
▁啦	-363
就会	-364
回来	-365
▁猫	-366
电视	-367
变成	-368
有一个	-369
是一	-370
有的	-371
太阳	-372
别人	-373
▁a	-374
▁哈哈哈	-375
睡觉	-376
真的是	-377
▁又	-378
▁xi	-379
运动	-380
都不	-381
这次	-382
发生	-383
▁谁	-384
▁做	-385
▁家	-386
▁飞	-387
▁跟	-388
!"	-389
当时	-390
正在	-391
的故事	-392
市场	-393
▁是不是	-394
声音	-395
▁她	-396
妖怪	-397
▁但	-398
爷爷	-399
过去	-400
方面	-401
房子	-402
▁掉	-403
给我	-404
只是	-405
宝宝	-406
准备	-407
国王	-408
第一	-409
▁k	-410
人家	-411
出去	-412
▁阿	-413
不到	-414
结果	-415
上了	-416
▁干	-417
好多	-418
▁ji	-419
衣服	-420
▁是的	-421
3.	-422
了解	-423
▁长	-424
美国	-425
毕竟	-426
身体	-427
▁完	-428
▁其实	-429
来到	-430
▁水	-431
一边	-432
小熊	-433
▁多	-434
猴子	-435
先走了	-436
了吗	-437
▁大象	-438
个人	-439
▁三	-440
2.	-441
老虎	-442
好看	-443
▁bu	-444
这一	-445
看着	-446
来的	-447
地上	-448
一个人	-449
平时	-450
或者	-451
▁哇	-452
▁今天	-453
人们	-454
学校	-455
▁快	-456
GRANDMOTHER	-457
▁如果	-458
说的	-459
出现	-460
▁拜拜	-461
在看	-462
我要	-463
有人	-464
终于	-465
表示	-466
哥哥	-467
▁东西	-468
发展	-469
奶奶	-470
心里	-471
▁听	-472
uo	-473
...""	-474
▁用	-475
样子	-476
她的	-477
记得	-478
。""""	-479
儿子	-480
想到	-481
▁ch	-482
姑娘	-483
给你	-484
这样的	-485
今年	-486
它的	-487
▁能	-488
▁里面	-489
▁找	-490
主人	-491
开心	-492
了吧	-493
看过	-494
后面	-495
我还	-496
▁而	-497
▁过	-498
▁可是	-499
有什么	-500
▁妖怪	-501
子里	-502
有个	-503
▁那个	-504
不对	-505
越来	-506
继续	-507
容易	-508
公主	-509
越来越	-510
家里	-511
美丽	-512
只有	-513
快乐	-514
一看	-515
松鼠	-516
是不是	-517
许多	-518
学习	-519
▁天	-520
反正	-521
不了	-522
以为	-523
情况	-524
▁让	-525
我们的	-526
蚂蚁	-527
▁树	-528
▁q	-529
关系	-530
开了	-531
重要	-532
小白	-533
身边	-534
三十	-535
是一个	-536
狮子	-537
▁shi	-538
表现	-539
▁走	-540
▁zhei	-541
多的	-542
▁ba	-543
▁苹果	-544
▁ma	-545
▁得	-546
亿元	-547
你知道	-548
▁对呀	-549
▁和	-550
是个	-551
小猪	-552
也很	-553
BL	-554
ANK	-555
BLANK	-556
这时	-557
才能	-558
经常	-559
一般	-560
名字	-561
▁两	-562
的东西	-563
▁边	-564
慢慢	-565
的一个	-566
生气	-567
起了	-568
进行	-569
▁好不好	-570
成了	-571
认为	-572
医生	-573
影响	-574
▁有没有	-575
不得	-576
的事	-577
也没有	-578
马上	-579
身上	-580
的地方	-581
▁那么	-582
其他	-583
都会	-584
尾巴	-585
中的	-586
几个	-587
ge	-588
同学	-589
▁跑	-590
▁yi	-591
月亮	-592
着一	-593
颜色	-594
▁真	-595
只要	-596
比如	-597
这部	-598
▁看看	-599
▁故事	-600
他们的	-601
你是	-602
▁叫	-603
过了	-604
住了	-605
就不	-606
▁孩	-607
▁哪里	-608
你说	-609
帮助	-610
很好	-611
找到	-612
▁洗	-613
外面	-614
▁的时候	-615
▁起来	-616
消息	-617
▁球	-618
的啊	-619
了起来	-620
学生	-621
喜欢看	-622
▁为什么	-623
▁我觉得	-624
我看	-625
你好啊	-626
冠军	-627
有些	-628
就在	-629
▁先	-630
不起	-631
三个	-632
决定	-633
▁而且	-634
一会儿	-635
进了	-636
是什么	-637
我不	-638
▁我是	-639
你看	-640
?""""	-641
也没	-642
▁不是	-643
子的	-644
害怕	-645
▁you	-646
当然	-647
我想	-648
企业	-649
直接	-650
年的	-651
技术	-652
努力	-653
▁喜欢	-654
▁阿姨	-655
下了	-656
成为	-657
进去	-658
球员	-659
相信	-660
总是	-661
二零一	-662
男孩	-663
听到	-664
多了	-665
来说	-666
能够	-667
肚子	-668
朋友们	-669
都有	-670
▁再见	-671
▁na	-672
不行	-673
实力	-674
回答	-675
那里	-676
ui	-677
哪里	-678
都在	-679
你也	-680
大了	-681
年轻	-682
▁不过	-683
参加	-684
只能	-685
弟弟	-686
十分	-687
吃的	-688
明白	-689
BA	-690
投资	-691
上去	-692
多少	-693
带着	-694
女儿	-695
▁hao	-696
刚才	-697
女孩	-698
▁出来	-699
▁自己	-700
坐在	-701
▁同	-702
▁手	-703
听了	-704
好好	-705
▁像	-706
!""""	-707
死了	-708
上面	-709
机会	-710
我都	-711
旁边	-712
▁你们	-713
回去	-714
说了	-715
几天	-716
▁本	-717
在一起	-718
来看	-719
▁太	-720
星星	-721
▁是呀	-722
也有	-723
奇怪	-724
兄弟	-725
赶紧	-726
▁等	-727
▁最	-728
和小	-729
哈哈哈	-730
怎么样	-731
就要	-732
的那个	-733
十二	-734
乌龟	-735
▁一下	-736
说话	-737
▁"*	-738
小白兔	-739
▁老	-740
me	-741
见了	-742
发布	-743
长的	-744
愿意	-745
▁呃	-746
▁对不对	-747
"",	-748
▁画	-749
下去	-750
蝴蝶	-751
体育	-752
部分	-753
让我	-754
健康	-755
刚刚	-756
▁飞机	-757
的事情	-758
一条	-759
的比赛	-760
一百	-761
聪明	-762
有一天	-763
极了	-764
就像	-765
▁wo	-766
小的	-767
经济	-768
还要	-769
很有	-770
▁坐	-771
球队	-772
▁花	-773
刺猬	-774
必须	-775
关于	-776
汽车	-777
是在	-778
回到	-779
清楚	-780
其中	-781
十五	-782
▁真的	-783
欢迎	-784
▁你也	-785
城市	-786
都没有	-787
他说	-788
安全	-789
各种	-790
eng	-791
电视剧	-792
小兔	-793
ian	-794
父亲	-795
根本	-796
通过	-797
萝卜	-798
房间	-799
."	-800
第二天	-801
很快	-802
可爱	-803
▁后来	-804
电话	-805
▁需要	-806
大学	-807
▁马	-808
一种	-809
路上	-810
那你	-811
忽然	-812
▁还是	-813
注意	-814
耳朵	-815
样的	-816
就可以	-817
种子	-818
目前	-819
对于	-820
颈鹿	-821
主要	-822
ong	-823
宝贝	-824
教育	-825
去看	-826
的好	-827
数据	-828
uai	-829
▁开	-830
▁这么	-831
保护	-832
显示	-833
还没	-834
选择	-835
妹妹	-836
完了	-837
▁de	-838
科技	-839
▁da	-840
在这	-841
▁弄	-842
昨天	-843
▁被	-844
长得	-845
▁zhe	-846
▁谢谢	-847
他就	-848
▁红	-849
翅膀	-850
一定要	-851
她们	-852
给他	-853
得到	-854
▁我也	-855
都很	-856
鼻子	-857
石头	-858
一块	-859
▁那你	-860
研究	-861
的那	-862
树上	-863
▁中	-864
▁睡觉	-865
▁哈	-866
▁每	-867
报道	-868
新的	-869
简直	-870
小老鼠	-871
他是	-872
▁二	-873
下的	-874
医院	-875
嘴巴	-876
不同	-877
只好	-878
社会	-879
桌子	-880
▁行	-881
小心	-882
▁四	-883
小猴	-884
变得	-885
山羊	-886
认识	-887
得了	-888
基本	-889
所有	-890
他在	-891
甚至	-892
小花	-893
日本	-894
高的	-895
场比赛	-896
▁别	-897
▁猪	-898
蜜蜂	-899
▁点	-900
增长	-901
垃圾	-902
就把	-903
看来	-904
能力	-905
吃了	-906
还在	-907
娃娃	-908
家的	-909
有了	-910
演的	-911
▁诶	-912
不太	-913
作为	-914
服务	-915
00	-916
价格	-917
成功	-918
接着	-919
▁男	-920
▁头	-921
除了	-922
所有的	-923
说是	-924
▁噢	-925
吃饭	-926
感到	-927
十一	-928
▁出	-929
动物们	-930
让人	-931
去找	-932
""。	-933
很喜欢	-934
大象	-935
休息	-936
站在	-937
食物	-938
前面	-939
放在	-940
经过	-941
小鸟	-942
了啊	-943
美丽的	-944
更多	-945
想要	-946
▁ai	-947
原因	-948
幸福	-949
▁张	-950
好吧	-951
森林里	-952
的声音	-953
了个	-954
疫情	-955
一刻	-956
事儿	-957
实在	-958
有没有	-959
▁你好啊	-960
期待	-961
木头	-962
也会	-963
演员	-964
还挺	-965
伙伴	-966
类的	-967
跟着	-968
▁qi	-969
日子	-970
状态	-971
的样子	-972
▁带	-973
▁并	-974
天天	-975
小猫	-976
产品	-977
],	-978
都要	-979
任何	-980
可惜	-981
▁倒	-982
明星	-983
进入	-984
不知	-985
一声	-986
▁ya	-987
▁这些	-988
▁书	-989
遇到	-990
公鸡	-991
▁跳	-992
不然	-993
北京	-994
▁地	-995
▁ta	-996
▁熊	-997
用的	-998
▁唉	-999
华为	-1000
大声	-1001
父母	-1002
是我	-1003
要求	-1004
行业	-1005
明天	-1006
离开	-1007
▁哦哦	-1008
了呢	-1009
五十	-1010
▁e	-1011
打开	-1012
早上	-1013
分享	-1014
对对	-1015
一步	-1016
不多	-1017
的吗	-1018
面前	-1019
整个	-1020
冬天	-1021
怎么办	-1022
▁全	-1023
一片	-1024
羽毛	-1025
给了	-1026
教练	-1027
本来	-1028
成绩	-1029
不想	-1030
把它	-1031
做的	-1032
更加	-1033
▁确实	-1034
段时间	-1035
正好	-1036
活动	-1037
两只	-1038
天空	-1039
母亲	-1040
说完	-1041
结束	-1042
不住	-1043
▁觉得	-1044
轻轻	-1045
如此	-1046
▁gei	-1047
会有	-1048
美元	-1049
历史	-1050
▁睡	-1051
喜欢的	-1052
月二十	-1053
哪儿	-1054
完全	-1055
▁颜色	-1056
掉了	-1057
春天	-1058
NBA	-1059
RE	-1060
▁以	-1061
资讯	-1062
支持	-1063
漂亮的	-1064
灰狼	-1065
国的	-1066
之间	-1067
▁大家	-1068
大家都	-1069
出来了	-1070
伤心	-1071
是谁	-1072
就能	-1073
担心	-1074
专业	-1075
运动员	-1076
没想到	-1077
▁ei	-1078
管理	-1079
满了	-1080
▁中国	-1081
▁好像	-1082
我知道	-1083
相关	-1084
是吧	-1085
笑着	-1086
第三	-1087
▁当然	-1088
小兔子	-1089
住在	-1090
兴趣	-1091
脑袋	-1092
礼物	-1093
不用	-1094
都没	-1095
那样	-1096
什么的	-1097
是啊	-1098
银行	-1099
西瓜	-1100
人民	-1101
悄悄	-1102
唱歌	-1103
很久	-1104
王子	-1105
节目	-1106
▁孩儿	-1107
▁帮	-1108
我去	-1109
▁这是	-1110
电脑	-1111
正常	-1112
如何	-1113
不错的	-1114
消费	-1115
▁没错	-1116
有很多	-1117
现在的	-1118
,[	-1119
▁皮	-1120
每次	-1121
网球	-1122
让他	-1123
真的很	-1124
还不	-1125
小松鼠	-1126
走到	-1127
阳光	-1128
下次	-1129
人员	-1130
竟然	-1131
我说	-1132
我也是	-1133
▁请	-1134
看的	-1135
你要	-1136
信息	-1137
你就	-1138
不管	-1139
面包	-1140
主要是	-1141
一年	-1142
20	-1143
乌鸦	-1144
训练	-1145
▁mei	-1146
句话	-1147
政策	-1148
财经	-1149
▁喝	-1150
方式	-1151
的新闻	-1152
挺好的	-1153
的家	-1154
精神	-1155
超级	-1156
▁kan	-1157
到底	-1158
游泳	-1159
好朋友	-1160
南方	-1161
▁七	-1162
不仅	-1163
▁五	-1164
一个小	-1165
四十	-1166
鸭子	-1167
笑了	-1168
▁lai	-1169
居然	-1170
一阵	-1171
九年	-1172
比如说	-1173
原来是	-1174
的呢	-1175
中医	-1176
▁好吧	-1177
跑到	-1178
▁也是	-1179
▁哎呀	-1180
件事	-1181
孩子们	-1182
同时	-1183
打球	-1184
▁上面	-1185
受伤	-1186
那边	-1187
▁高	-1188
无法	-1189
国内	-1190
真正	-1191
的那种	-1192
精彩	-1193
舒服	-1194
得很	-1195
简单	-1196
▁白	-1197
实现	-1198
太太	-1199
小姐	-1200
一千	-1201
在了	-1202
爱的	-1203
还能	-1204
妻子	-1205
出的	-1206
哪个	-1207
老人	-1208
根据	-1209
小狗	-1210
我在	-1211
自然	-1212
接受	-1213
视频	-1214
▁才	-1215
应该是	-1216
选手	-1217
坏了	-1218
永远	-1219
▁希望	-1220
不少	-1221
天上	-1222
▁可能	-1223
▁买	-1224
叶子	-1225
看不	-1226
从来	-1227
环境	-1228
由于	-1229
资金	-1230
还没有	-1231
好啊	-1232
别的	-1233
生日	-1234
蘑菇	-1235
不可	-1236
人都	-1237
河马	-1238
▁长颈鹿	-1239
▁回	-1240
▁宝宝	-1241
说着	-1242
学会	-1243
▁爬	-1244
我感觉	-1245
生命	-1246
▁几	-1247
使用	-1248
不是很	-1249
小狐狸	-1250
▁ao	-1251
▁新	-1252
门口	-1253
一位	-1254
压力	-1255
难道	-1256
是因为	-1257
▁nei	-1258
蛋糕	-1259
出来的	-1260
▁我也是	-1261
危险	-1262
无聊	-1263
▁车	-1264
▁耶	-1265
严重	-1266
获得	-1267
不敢	-1268
看到了	-1269
女排	-1270
▁据	-1271
▁告诉	-1272
基金	-1273
国际	-1274
一家	-1275
值得	-1276
坚持	-1277
蜗牛	-1278
你在	-1279
财经资讯	-1280
▁一点	-1281
▁老师	-1282
西安	-1283
适合	-1284
不一样	-1285
不断	-1286
音乐	-1287
位置	-1288
皇帝	-1289
系统	-1290
包括	-1291
道理	-1292
不停	-1293
说不	-1294
要去	-1295
大树	-1296
了一下	-1297
▁地方	-1298
味道	-1299
超过	-1300
立刻	-1301
▁shen	-1302
国足	-1303
▁嗯呢	-1304
就是说	-1305
也不知道	-1306
这么多	-1307
▁一起	-1308
▁最后	-1309
尤其	-1310
全部	-1311
天气	-1312
▁见	-1313
想着	-1314
答应	-1315
妈妈说	-1316
▁ne	-1317
▁是吗	-1318
估计	-1319
因此	-1320
起来了	-1321
怎样	-1322
着急	-1323
水平	-1324
帽子	-1325
生的	-1326
项目	-1327
人类	-1328
方便	-1329
蜘蛛	-1330
计划	-1331
算是	-1332
▁果	-1333
小猴子	-1334
心想	-1335
▁下来	-1336
中国的	-1337
▁十	-1338
优秀	-1339
出门	-1340
我现在	-1341
▁木头	-1342
你怎么	-1343
的花	-1344
月十	-1345
才是	-1346
这儿	-1347
树林	-1348
ua	-1349
▁咱们	-1350
让你	-1351
习惯	-1352
10	-1353
▁yao	-1354
▁最近	-1355
分钟	-1356
▁欢迎	-1357
吓得	-1358
地问	-1359
玩儿	-1360
那儿	-1361
听见	-1362
▁chi	-1363
▁f	-1364
曾经	-1365
改变	-1366
寻找	-1367
感谢	-1368
▁黄	-1369
这部电影	-1370
时代	-1371
介绍	-1372
心的	-1373
我还是	-1374
几年	-1375
▁这样子	-1376
▁嘿	-1377
增加	-1378
随着	-1379
拿着	-1380
还可以	-1381
差不多	-1382
你可以	-1383
智能	-1384
可怜	-1385
未来	-1386
▁桌子	-1387
赛季	-1388
哎呀	-1389
▁发生	-1390
躺在	-1391
▁一个	-1392
处理	-1393
▁hai	-1394
婆婆	-1395
的老	-1396
导致	-1397
lai	-1398
还会	-1399
存在	-1400
仔细	-1401
很大的	-1402
的一些	-1403
平台	-1404
不容易	-1405
乒乓	-1406
知识	-1407
主意	-1408
▁qu	-1409
第一次	-1410
动了	-1411
都能	-1412
麻烦	-1413
▁其中	-1414
头上	-1415
的心	-1416
一下子	-1417
小刺猬	-1418
网络	-1419
――	-1420
sh	-1421
出一	-1422
就说	-1423
随便	-1424
这只	-1425
二零一九年	-1426
内容	-1427
一定会	-1428
锻炼	-1429
的呀	-1430
发挥	-1431
那是	-1432
把他	-1433
▁小朋友	-1434
▁主人	-1435
谢谢你	-1436
多么	-1437
解决	-1438
▁为	-1439
▁jiu	-1440
网上	-1441
以及	-1442
你不	-1443
▁bi	-1444
说道	-1445
方法	-1446
▁哈哈哈哈	-1447
见过	-1448
梅西	-1449
▁饭	-1450
母鸡	-1451
了一只	-1452
点儿	-1453
树叶	-1454
属于	-1455
大王	-1456
▁虽然	-1457
恢复	-1458
河边	-1459
受到	-1460
急忙	-1461
全国	-1462
▁以后	-1463
的生活	-1464
叔叔	-1465
的就是	-1466
的时间	-1467
我有	-1468
▁抓	-1469
忘了	-1470
▁坏	-1471
英雄	-1472
跟我	-1473
就这样	-1474
建议	-1475
▁哥哥	-1476
送给	-1477
打的	-1478
月份	-1479
XXX	-1480
最好的	-1481
XXXXX	-1482
点点	-1483
从前	-1484
▁开始	-1485
行为	-1486
▁p	-1487
了好	-1488
下面	-1489
▁你知道	-1490
达到	-1491
一把	-1492
ma	-1493
无论	-1494
▁一样	-1495
以来	-1496
▁空	-1497
保持	-1498
小朋友	-1499
六十	-1500
粉丝	-1501
世界上	-1502
过去了	-1503
▁该	-1504
没错	-1505
队的	-1506
魔法	-1507
其他的	-1508
到处	-1509
对了	-1510
可怕	-1511
大灰狼	-1512
机构	-1513
一听	-1514
只见	-1515
▁于是	-1516
▁它们	-1517
我先	-1518
▁鱼	-1519
文章	-1520
了很多	-1521
星期	-1522
▁吓	-1523
见到	-1524
作用	-1525
普通	-1526
考虑	-1527
▁结果	-1528
进来	-1529
变成了	-1530
的这个	-1531
证券	-1532
▁圆	-1533
▁应该	-1534
▁我看	-1535
毛毛	-1536
池塘	-1537
▁接	-1538
你有	-1539
来到了	-1540
小时	-1541
并不	-1542
演技	-1543
羡慕	-1544
yi	-1545
的说	-1546
飞机	-1547
▁我的	-1548
忘记	-1549
自由	-1550
读书	-1551
播报	-1552
一口	-1553
从小	-1554
身子	-1555
每个	-1556
爱情	-1557
三百	-1558
还是很	-1559
比较喜欢	-1560
▁li	-1561
睡着	-1562
他想	-1563
没事	-1564
一场	-1565
▁南	-1566
我先走了	-1567
机器	-1568
▁菜	-1569
推荐	-1570
回来了	-1571
我可以	-1572
▁xiao	-1573
公公	-1574
对手	-1575
过程	-1576
不久	-1577
很大	-1578
名的	-1579
阿姨	-1580
跑了	-1581
鳄鱼	-1582
▁脚	-1583
美的	-1584
还好	-1585
玉米	-1586
那么多	-1587
上来	-1588
政府	-1589
底下	-1590
是真的	-1591
下降	-1592
我还有	-1593
精灵	-1594
全球	-1595
的手	-1596
金融	-1597
上市	-1598
一棵	-1599
头鹰	-1600
干什么	-1601
动作	-1602
另外	-1603
当中	-1604
嘟嘟	-1605
气球	-1606
▁房间	-1607
乒乓球	-1608
三点	-1609
我了	-1610
百姓	-1611
很难	-1612
▁ge	-1613
好像是	-1614
重新	-1615
▁这儿	-1616
夏天	-1617
牙齿	-1618
经历	-1619
不好意思	-1620
爸爸妈妈	-1621
职业	-1622
回事	-1623
赶快	-1624
▁事	-1625
也要	-1626
▁今年	-1627
完成	-1628
伯伯	-1629
洞里	-1630
打篮球	-1631
规模	-1632
▁r	-1633
现场	-1634
也就	-1635
看见了	-1636
▁摔	-1637
季度	-1638
▁医生	-1639
▁穿	-1640
偷偷	-1641
对方	-1642
微博	-1643
发出	-1644
干净	-1645
着小	-1646
然后就	-1647
巫婆	-1648
从此	-1649
我得	-1650
合作	-1651
是的	-1652
水里	-1653
▁zai	-1654
▁黑	-1655
打算	-1656
连忙	-1657
红的	-1658
胡子	-1659
厉害的	-1660
再也不	-1661
实际	-1662
也可以	-1663
你好呀	-1664
最大的	-1665
头发	-1666
力量	-1667
是有	-1668
小蚂蚁	-1669
邀请	-1670
去看看	-1671
善良	-1672
千万	-1673
方向	-1674
早就	-1675
椅子	-1676
树枝	-1677
行了	-1678
队伍	-1679
的电影	-1680
常常	-1681
▁你说	-1682
晚安	-1683
一会	-1684
上课	-1685
嘻嘻	-1686
床上	-1687
▁躲	-1688
业务	-1689
火车	-1690
▁吃饭	-1691
也不是	-1692
交易	-1693
更多的	-1694
幼儿	-1695
把我	-1696
和你	-1697
高兴地	-1698
▁种子	-1699
速度	-1700
▁反正	-1701
▁翻	-1702
哈喽	-1703
点评	-1704
▁感觉	-1705
也在	-1706
理解	-1707
去吧	-1708
▁di	-1709
控制	-1710
什么时候	-1711
▁朋友	-1712
球迷	-1713
结婚	-1714
嘴里	-1715
不在	-1716
代表	-1717
做了	-1718
微信	-1719
▁bao	-1720
报告	-1721
▁对对对	-1722
就有	-1723
渐渐	-1724
这个人	-1725
GRANDFATHER	-1726
八十	-1727
▁过来	-1728
分析	-1729
一大	-1730
很多人	-1731
▁嘛	-1732
。[	-1733
认真	-1734
▁已经	-1735
到这里	-1736
都市	-1737
九十	-1738
▁晚上	-1739
将军	-1740
▁加	-1741
不上	-1742
在您	-1743
带来	-1744
果然	-1745
uan	-1746
一切	-1747
左右	-1748
女生	-1749
脖子	-1750
这天	-1751
▁香	-1752
在这里	-1753
等等	-1754
小时候	-1755
▁要不要	-1756
娱乐	-1757
有时候	-1758
文化	-1759
调整	-1760
过的	-1761
或者是	-1762
怪物	-1763
提供	-1764
▁肯定	-1765
▁哭	-1766
五百	-1767
▁特别	-1768
力气	-1769
▁种	-1770
七十	-1771
▁那里	-1772
生产	-1773
似的	-1774
分别	-1775
乖乖	-1776
并没有	-1777
▁床	-1778
的歌	-1779
困难	-1780
四个	-1781
的问题	-1782
▁有一天	-1783
不喜欢	-1784
胡萝卜	-1785
小孩	-1786
▁原来	-1787
上涨	-1788
纷纷	-1789
尤其是	-1790
运会	-1791
功能	-1792
聊天	-1793
▁kuai	-1794
▁shuo	-1795
▁2	-1796
热点	-1797
葡萄	-1798
▁起	-1799
在您身边	-1800
勇敢	-1801
▁事情	-1802
▁外面	-1803
摇头	-1804
知道了	-1805
记者	-1806
你想	-1807
具体	-1808
下一	-1809
眼泪	-1810
我会	-1811
▁学	-1812
和我	-1813
想法	-1814
鞋子	-1815
我来	-1816
辛苦	-1817
可能是	-1818
上映	-1819
好吃	-1820
附近	-1821
非常的	-1822
个子	-1823
多久	-1824
风险	-1825
有一只	-1826
按照	-1827
兴奋	-1828
变化	-1829
的孩子	-1830
治疗	-1831
跟你	-1832
邻居	-1833
面对	-1834
感兴趣	-1835
你能	-1836
了下来	-1837
▁可不是	-1838
泡泡	-1839
收入	-1840
不如	-1841
警察	-1842
国外	-1843
就被	-1844
了出来	-1845
世界杯	-1846
你这	-1847
好看的	-1848
指数	-1849
▁听说	-1850
也不会	-1851
让我们	-1852
主任	-1853
国家的	-1854
▁八	-1855
两个人	-1856
就是这些	-1857
玻璃	-1858
镜子	-1859
找到了	-1860
导演	-1861
吸引	-1862
考试	-1863
不着	-1864
赢了	-1865
▁佩	-1866
股份	-1867
讨厌	-1868
叫做	-1869
很少	-1870
幼儿园	-1871
一件	-1872
鼹鼠	-1873
上海	-1874
这就是	-1875
我就是	-1876
提高	-1877
▁写	-1878
四点	-1879
性的	-1880
发现了	-1881
持续	-1882
妈妈的	-1883
温暖	-1884
病毒	-1885
长大	-1886
就没有	-1887
里面的	-1888
本领	-1889
▁变	-1890
等着	-1891
厨房	-1892
也太	-1893
支付	-1894
第一个	-1895
二零二零	-1896
得好	-1897
旅游	-1898
▁这次	-1899
倒是	-1900
好奇	-1901
的吧	-1902
那只	-1903
家庭	-1904
▁广	-1905
▁hua	-1906
卫生	-1907
对不起	-1908
▁牛	-1909
不动	-1910
▁衣服	-1911
两天	-1912
了嘛	-1913
软件	-1914
▁我想	-1915
得意	-1916
提升	-1917
都市报	-1918
边的	-1919
专门	-1920
销售	-1921
而已	-1922
南方都市报	-1923
一样的	-1924
▁前	-1925
花儿	-1926
▁你是	-1927
小小的	-1928
直到	-1929
老板	-1930
▁住	-1931
也许	-1932
大海	-1933
小姐姐	-1934
▁怎么样	-1935
▁成	-1936
上一	-1937
呵呵	-1938
▁目前	-1939
▁同比	-1940
什么呢	-1941
零点	-1942
踢球	-1943
他把	-1944
地里	-1945
还不错	-1946
麻雀	-1947
看起来	-1948
湖人	-1949
梦想	-1950
给我们	-1951
ing	-1952
地球	-1953
CA	-1954
帮忙	-1955
▁万	-1956
▁这种	-1957
▁更	-1958
使劲	-1959
鸡蛋	-1960
▁收	-1961
▁c	-1962
集团	-1963
增长百分之	-1964
玩具	-1965
说他	-1966
▁la	-1967
整天	-1968
望着	-1969
设计	-1970
▁孩名	-1971
并且	-1972
笨笨	-1973
▁洗澡	-1974
了几	-1975
决赛	-1976
走着	-1977
▁拍	-1978
▁此	-1979
既然	-1980
九点	-1981
可真	-1982
早晨	-1983
七点	-1984
又是	-1985
了我	-1986
▁截	-1987
中心	-1988
公交	-1989
明显	-1990
▁看来	-1991
▁外	-1992
首先	-1993
周围	-1994
少年	-1995
没看	-1996
螃蟹	-1997
交通	-1998
几乎	-1999
4!	-2000
的新	-2001
▁生气	-2002
宣布	-2003
▁佩奇	-2004
我记得	-2005
不说	-2006
▁下面	-2007
了一会儿	-2008
不见	-2009
一点儿	-2010
▁抱	-2011
▁房子	-2012
六点	-2013
KER	-2014
CARE	-2015
就好了	-2016
TAKER	-2017
CARETAKER	-2018
天下	-2019
白的	-2020
的情况	-2021
听说过	-2022
11	-2023
生病	-2024
找不到	-2025
今晚	-2026
口袋	-2027
电子	-2028
神奇	-2029
科学	-2030
▁che	-2031
▁总	-2032
剧情	-2033
大哥	-2034
不再	-2035
直播	-2036
都被	-2037
女人	-2038
也挺	-2039
失望	-2040
智慧	-2041
可能会	-2042
中间	-2043
有关	-2044
面上	-2045
▁下去	-2046
小鸡	-2047
没什么	-2048
▁正	-2049
在关注	-2050
有趣	-2051
规定	-2052
没办法	-2053
一头	-2054
家人	-2055
▁姐姐	-2056
一张	-2057
虫子	-2058
一颗	-2059
亿美元	-2060
韩国	-2061
我朋友	-2062
就很	-2063
FI	-2064
不及	-2065
之一	-2066
女主	-2067
小鱼	-2068
▁一直	-2069
联网	-2070
最喜欢	-2071
▁海	-2072
地区	-2073
玩的	-2074
伙伴们	-2075
▁你看	-2076
相当	-2077
负责	-2078
这件事	-2079
▁棒	-2080
对啊	-2081
有多	-2082
▁一定	-2083
小黑	-2084
小青蛙	-2085
不小心	-2086
意义	-2087
条件	-2088
也能	-2089
八点	-2090
笑着说	-2091
平常	-2092
是这样	-2093
的故事点评	-2094
飞到	-2095
屁股	-2096
才会	-2097
也不能	-2098
重要的	-2099
▁六	-2100
在地上	-2101
ED	-2102
口气	-2103
想去	-2104
感情	-2105
那时候	-2106
旅行	-2107
激动	-2108
家伙	-2109
果子	-2110
一根	-2111
依然	-2112
▁回来	-2113
ID	-2114
都可以	-2115
哭了	-2116
年纪	-2117
价值	-2118
绝对	-2119
绿色	-2120
我之前	-2121
放弃	-2122
他又	-2123
窗户	-2124
▁却	-2125
联赛	-2126
真实	-2127
照片	-2128
▁垃圾	-2129
就开始	-2130
伤害	-2131
▁们	-2132
因为他	-2133
真的太	-2134
上学	-2135
草地上	-2136
车来了	-2137
▁关	-2138
有一次	-2139
成的	-2140
放心	-2141
在一个	-2142
▁比	-2143
场上	-2144
类型	-2145
是怎么	-2146
小羊	-2147
那就	-2148
▁往	-2149
che	-2150
▁wan	-2151
目标	-2152
不可以	-2153
公司的	-2154
。"""	-2155
呼呼	-2156
▁将	-2157
▁怕	-2158
这部剧	-2159
空中	-2160
的感觉	-2161
一座	-2162
▁恩	-2163
了一些	-2164
别人的	-2165
厉害了	-2166
年轻人	-2167
他俩	-2168
而是	-2169
?"	-2170
秘密	-2171
跳舞	-2172
▁有一次	-2173
抓住	-2174
河里	-2175
对着	-2176
连续	-2177
广播	-2178
UN	-2179
试试	-2180
那天	-2181
在家	-2182
的水	-2183
观众	-2184
是很	-2185
EN	-2186
下车	-2187
▁不知道	-2188
恒大	-2189
基本上	-2190
上班	-2191
年龄	-2192
男主	-2193
园里	-2194
大概	-2195
▁只要	-2196
之类的	-2197
你喜欢	-2198
▁出去	-2199
出现了	-2200
我这	-2201
老头	-2202
需求	-2203
▁刚才	-2204
▁第二	-2205
▁进去	-2206
ENTI	-2207
FIED	-2208
UNID	-2209
ENTIFIED	-2210
UNIDENTIFIED	-2211
城堡	-2212
想想	-2213
对他	-2214
这位	-2215
了他	-2216
热闹	-2217
山上	-2218
帮我	-2219
这下	-2220
马拉	-2221
行动	-2222
会不会	-2223
三年	-2224
现实	-2225
》,	-2226
大叫	-2227
骄傲	-2228
二零二零年	-2229
瓶子	-2230
太好了	-2231
]。	-2232
名叫	-2233
问道	-2234
▁拼	-2235
不出	-2236
手道	-2237
▁非常	-2238
传说	-2239
孔雀	-2240
紧张	-2241
错了	-2242
▁对于	-2243
基础	-2244
白兔	-2245
CBA	-2246
期间	-2247
▁zuo	-2248
产生	-2249
它是	-2250
▁我就	-2251
有一些	-2252
制造	-2253
▁楼	-2254
刚好	-2255
这篇	-2256
毛毛虫	-2257
▁后	-2258
▁自	-2259
互相	-2260
穿着	-2261
LA	-2262
▁爱	-2263
一定是	-2264
肯定是	-2265
好久	-2266
你知道吗	-2267
▁喂	-2268
的嘛	-2269
脸上	-2270
远远	-2271
对吧	-2272
到时候	-2273
明白了	-2274
再次	-2275
▁猫咪	-2276
回家了	-2277
醒了	-2278
互联网	-2279
zi	-2280
▁哼	-2281
后的	-2282
▁空手道	-2283
手里	-2284
草丛	-2285
你了	-2286
眼前	-2287
猎人	-2288
甜甜	-2289
一直在	-2290
LATI	-2291
LATIVE	-2292
RELATIVE	-2293
丈夫	-2294
睡着了	-2295
发了	-2296
客气	-2297
球赛	-2298
走去	-2299
悄悄地	-2300
大人	-2301
强的	-2302
玫瑰	-2303
吃掉	-2304
姐妹	-2305
you	-2306
怎么会	-2307
说明	-2308
怎么说	-2309
两千	-2310
▁弟弟	-2311
▁美国	-2312
事件	-2313
你去	-2314
难过	-2315
▁进	-2316
块钱	-2317
效果	-2318
但是我	-2319
组织	-2320
▁我要	-2321
在这个	-2322
还是挺	-2323
他还	-2324
▁shang	-2325
▁办	-2326
立即	-2327
退役	-2328
产业	-2329
高中	-2330
彩虹	-2331
和他	-2332
火箭	-2333
照顾	-2334
练习	-2335
解释	-2336
然而	-2337
股票	-2338
队员	-2339
袋鼠	-2340
买了	-2341
即使	-2342
远处	-2343
站了	-2344
白天	-2345
▁死	-2346
发生了	-2347
安静	-2348
满意	-2349
没有人	-2350
新闻啊	-2351
每个人	-2352
▁nar	-2353
田鼠	-2354
慢慢地	-2355
下午	-2356
资产	-2357
去年	-2358
秋天	-2359
最终	-2360
草莓	-2361
▁我知道	-2362
▁遍	-2363
呜呜	-2364
是不	-2365
树下	-2366
安排	-2367
调查	-2368
快地	-2369
表演	-2370
这个电影	-2371
把小	-2372
稳定	-2373
▁发现	-2374
▁当时	-2375
我喜欢	-2376
▁蓝	-2377
半天	-2378
▁厉害	-2379
综艺	-2380
看了看	-2381
刺激	-2382
qi	-2383
空气	-2384
--""	-2385
▁与	-2386
板块	-2387
话说	-2388
鸟儿	-2389
仍然	-2390
建设	-2391
▁小心	-2392
离开了	-2393
一个大	-2394
资本	-2395
媒体	-2396
好听	-2397
就没	-2398
不见了	-2399
一群	-2400
再说	-2401
燕子	-2402
▁jiao	-2403
我能	-2404
公开	-2405
仙女	-2406
部电影	-2407
半年	-2408
好吗	-2409
欺负	-2410
博士	-2411
屋里	-2412
▁dou	-2413
往前	-2414
▁站	-2415
走路	-2416
奥运会	-2417
ba	-2418
两人	-2419
懂得	-2420
经验	-2421
似乎	-2422
你会	-2423
八年	-2424
期的	-2425
累了	-2426
▁zen	-2427
▁山	-2428
▁羊	-2429
用户	-2430
▁吵	-2431
数据显示	-2432
想起	-2433
请问	-2434
便宜	-2435
跳跳	-2436
进步	-2437
都说	-2438
发行	-2439
拥有	-2440
消失	-2441
住着	-2442
部门	-2443
▁美	-2444
想了	-2445
熬夜	-2446
▁嗨	-2447
拿出	-2448
客人	-2449
搞笑	-2450
眼镜	-2451
小朋友们	-2452
醒来	-2453
同意	-2454
帮你	-2455
男人	-2456
角色	-2457
特别的	-2458
长长的	-2459
一夜	-2460
ianr	-2461
可不是	-2462
差点	-2463
是一种	-2464
的表现	-2465
最好	-2466
老爷爷	-2467
▁搭	-2468
接触	-2469
最高	-2470
跑步	-2471
▁害怕	-2472
这时候	-2473
毕业	-2474
的了	-2475
不去	-2476
减少	-2477
心情	-2478
真正的	-2479
二百	-2480
惊讶	-2481
感动	-2482
▁对的	-2483
不停地	-2484
我家	-2485
预计	-2486
19	-2487
绳子	-2488
不开	-2489
作品	-2490
▁好多	-2491
▁问	-2492
有所	-2493
▁看见	-2494
回了	-2495
男篮	-2496
力的	-2497
小象	-2498
屋子	-2499
▁那是	-2500
不够	-2501
新官	-2502
什么事	-2503
方面的	-2504
二点	-2505
传来	-2506
轻松	-2507
做好	-2508
陕西	-2509
多多	-2510
利润	-2511
利用	-2512
在地	-2513
在大	-2514
太多	-2515
胖胖	-2516
贝贝	-2517
这么说	-2518
人了	-2519
到的	-2520
来自	-2521
姆斯	-2522
怪兽	-2523
阅读	-2524
大笑	-2525
就去	-2526
观察	-2527
长颈鹿	-2528
跑去	-2529
投资者	-2530
▁动	-2531
重点	-2532
▁太阳	-2533
您的	-2534
情绪	-2535
开放	-2536
▁后面	-2537
bao	-2538
怎么了	-2539
英国	-2540
身上的	-2541
还是要	-2542
尽管	-2543
我很	-2544
网友	-2545
▁门	-2546
收听	-2547
▁zou	-2548
忍不住	-2549
保证	-2550
咪咪	-2551
地的	-2552
抱着	-2553
最近的	-2554
南方都市报播报	-2555
员工	-2556
呼噜	-2557
▁王	-2558
他一	-2559
▁擦	-2560
我没有	-2561
四百	-2562
夜里	-2563
提醒	-2564
到站了	-2565
zh	-2566
不聊	-2567
乔治	-2568
并不是	-2569
一起去	-2570
▁其	-2571
▁次	-2572
正是	-2573
标准	-2574
质量	-2575
▁哎哟	-2576
干嘛	-2577
举行	-2578
女孩子	-2579
享受	-2580
长大了	-2581
了呀	-2582
▁好了	-2583
在小	-2584
▁he	-2585
▁就是啊	-2586
满足	-2587
▁ye	-2588
▁甚至	-2589
再见吧	-2590
主播	-2591
感染	-2592
很厉害	-2593
向前	-2594
这条	-2595
▁从前	-2596
▁图	-2597
关键	-2598
唯一	-2599
措施	-2600
▁以前	-2601
反而	-2602
操作	-2603
没人	-2604
输了	-2605
▁妹妹	-2606
回头	-2607
这边	-2608
的眼睛	-2609
▁踢	-2610
心理	-2611
▁时候	-2612
偶尔	-2613
▁声	-2614
外国	-2615
▁昨天	-2616
▁hui	-2617
下雨	-2618
任务	-2619
一个个	-2620
印度	-2621
听过	-2622
就算	-2623
圆圆	-2624
们都	-2625
是吗	-2626
▁干嘛	-2627
你还	-2628
患者	-2629
▁zher	-2630
巴巴	-2631
的高	-2632
▁不要	-2633
偶像	-2634
肺炎	-2635
愿望	-2636
把你	-2637
背上	-2638
广播剧	-2639
故意	-2640
▁雪	-2641
农夫	-2642
在一	-2643
救命	-2644
破了	-2645
▁九	-2646
人生	-2647
影子	-2648
我对	-2649
▁漂亮	-2650
早知道	-2651
作业	-2652
检查	-2653
老婆	-2654
至于	-2655
亲爱的	-2656
喜鹊	-2657
▁那些	-2658
确实是	-2659
人说	-2660
正式	-2661
羽毛球	-2662
▁eng	-2663
▁wu	-2664
轻轻地	-2665
不像	-2666
▁根据	-2667
一万	-2668
气的	-2669
浑身	-2670
加油	-2671
用了	-2672
▁玩具	-2673
把自己	-2674
三天	-2675
利率	-2676
大叔	-2677
辈子	-2678
▁好吃	-2679
真好	-2680
计算	-2681
责任	-2682
▁人家	-2683
小鸭	-2684
散步	-2685
明明	-2686
竞争	-2687
联系	-2688
就是那个	-2689
不懂	-2690
创业	-2691
拿起	-2692
▁煮	-2693
皮皮	-2694
叫着	-2695
看得	-2696
巴萨	-2697
▁孩子	-2698
有意思	-2699
▁他的	-2700
皇马	-2701
加入	-2702
▁眼睛	-2703
▁第	-2704
不怕	-2705
以上	-2706
生物	-2707
进一步	-2708
▁就是说	-2709
是你	-2710
的地	-2711
▁各	-2712
至少	-2713
豆豆	-2714
小动物们	-2715
▁狗狗	-2716
啥的	-2717
家长	-2718
桃子	-2719
球星	-2720
▁小熊	-2721
剩下	-2722
阶段	-2723
热点财经资讯	-2724
师傅	-2725
讲故事	-2726
蔬菜	-2727
▁对了	-2728
货币	-2729
▁男孩	-2730
你说的	-2731
▁摆	-2732
恐怖	-2733
▁每天	-2734
全身	-2735
感冒	-2736
招呼	-2737
▁红色	-2738
▁这一刻	-2739
或许	-2740
采访	-2741
▁打翻	-2742
不可能	-2743
公布	-2744
系列	-2745
▁生活	-2746
小花猫	-2747
想象	-2748
确定	-2749
太多了	-2750
小女孩	-2751
不足	-2752
人物	-2753
合适	-2754
难受	-2755
▁奶奶	-2756
长时间	-2757
很多的	-2758
▁装	-2759
体验	-2760
农民	-2761
医疗	-2762
地产	-2763
拿到	-2764
这场比赛	-2765
打了	-2766
▁或者	-2767
詹姆斯	-2768
皮肤	-2769
▁椅子	-2770
小姑娘	-2771
▁bie	-2772
留下	-2773
2!	-2774
南瓜	-2775
领域	-2776
好几	-2777
风吹	-2778
▁会不会	-2779
命令	-2780
紧紧	-2781
贷款	-2782
证明	-2783
▁盖	-2784
态度	-2785
成长	-2786
死的	-2787
一起玩	-2788
夜晚	-2789
▁换	-2790
恐龙	-2791
意识	-2792
▁突然	-2793
▁国	-2794
他对	-2795
▁dao	-2796
痛苦	-2797
▁这一	-2798
真的好	-2799
个月	-2800
接下来	-2801
说不定	-2802
着头	-2803
▁之前	-2804
回答说	-2805
我们要	-2806
想的	-2807
印象	-2808
▁金	-2809
他不	-2810
的主	-2811
▁果实	-2812
▁为了	-2813
抬头	-2814
黑熊	-2815
▁对对	-2816
▁这时	-2817
中午	-2818
三千	-2819
跟他	-2820
▁嘿嘿	-2821
亲自	-2822
12	-2823
这不是	-2824
▁您	-2825
▁牠	-2826
里边	-2827
之下	-2828
▁洞	-2829
公众	-2830
所谓	-2831
意见	-2832
你们的	-2833
口罩	-2834
一部	-2835
我可	-2836
就是一个	-2837
▁近	-2838
来着	-2839
熟悉	-2840
▁小孩	-2841
买的	-2842
共同	-2843
欧洲	-2844
童话	-2845
一动	-2846
亮的	-2847
姚明	-2848
小男孩	-2849
人士	-2850
据说	-2851
明年	-2852
蜂蜜	-2853
走吧	-2854
我把	-2855
这个故事	-2856
地对	-2857
落在	-2858
躲在	-2859
小鹿	-2860
大大的	-2861
大熊	-2862
钢琴	-2863
开始了	-2864
我最近	-2865
▁汤	-2866
他也	-2867
优势	-2868
植物	-2869
做什么	-2870
盒子	-2871
红色的	-2872
▁河	-2873
教授	-2874
还得	-2875
猫头鹰	-2876
她说	-2877
居民	-2878
必要	-2879
有钱	-2880
为什么要	-2881
一说	-2882
叫声	-2883
▁皮球	-2884
保险	-2885
口水	-2886
拉着	-2887
老大	-2888
▁无	-2889
广州	-2890
要不	-2891
城里	-2892
女子	-2893
请你	-2894
机器人	-2895
安慰	-2896
联盟	-2897
喜马拉	-2898
喜马拉雅	-2899
▁李	-2900
糖果	-2901
角落	-2902
这才	-2903
▁同时	-2904
▁咦	-2905
▁笑	-2906
我我	-2907
走进	-2908
就不会	-2909
之外	-2910
令人	-2911
十年	-2912
品牌	-2913
拼命	-2914
积极	-2915
什么东西	-2916
百分之十	-2917
引起	-2918
心中	-2919
创造	-2920
时刻	-2921
你这个	-2922
▁页	-2923
上次	-2924
蛤蟆	-2925
▁xing	-2926
两年	-2927
记录	-2928
!"""	-2929
▁截至	-2930
我没	-2931
空间	-2932
被人	-2933
了一条	-2934
▁你好呀	-2935
哪些	-2936
黄金	-2937
土地	-2938
脾气	-2939
▁姊	-2940
在这儿	-2941
我才	-2942
流浪	-2943
▁之后	-2944
另一个	-2945
一日	-2946
劳动	-2947
的一种	-2948
听听	-2949
工具	-2950
转身	-2951
大部分	-2952
这样啊	-2953
在我	-2954
定的	-2955
如今	-2956
水果	-2957
没了	-2958
▁所以说	-2959
小说	-2960
数字	-2961
公园	-2962
团队	-2963
那一	-2964
巨大的	-2965
▁快点	-2966
▁都是	-2967
我怎么	-2968
不一会儿	-2969
▁你也在看	-2970
一刻再见吧	-2971
等到	-2972
玩游戏	-2973
利亚	-2974
小米	-2975
就想	-2976
指着	-2977
一起来	-2978
让他们	-2979
功夫	-2980
发展的	-2981
▁发	-2982
一路	-2983
听着	-2984
培训	-2985
很不	-2986
还有一个	-2987
▁强	-2988
的意思	-2989
很远	-2990
如果你	-2991
的风	-2992
▁只有	-2993
儿童	-2994
在那里	-2995
男朋友	-2996
更多财经资讯	-2997
勇士	-2998
参与	-2999
大臣	-3000
背后	-3001
▁回家	-3002
反应	-3003
圣诞	-3004
工资	-3005
时期	-3006
玩了	-3007
呼吸	-3008
实施	-3009
是最	-3010
爬到	-3011
作者	-3012
我只	-3013
树林里	-3014
刚开始	-3015
能不能	-3016
五点	-3017
梅花	-3018
▁那就	-3019
我们就	-3020
本身	-3021
深圳	-3022
告诉你	-3023
开门	-3024
给她	-3025
有空	-3026
跑得	-3027
夫妻	-3028
罗斯	-3029
说什么	-3030
▁奥	-3031
加上	-3032
失败	-3033
意外	-3034
这不	-3035
给大家	-3036
迅速	-3037
回聊	-3038
涨停	-3039
的对	-3040
排名	-3041
▁老鼠	-3042
实在是	-3043
创新	-3044
坐车	-3045
失误	-3046
拿了	-3047
经营	-3048
万元	-3049
五年	-3050
香港	-3051
男子	-3052
胜利	-3053
提前	-3054
▁动物	-3055
▁兔子	-3056
▁干么	-3057
▁我在	-3058
我还有事	-3059
▁打开	-3060
数量	-3061
有时	-3062
来找	-3063
喊道	-3064
▁比如	-3065
▁小朋友们	-3066
一眼	-3067
最大	-3068
花的	-3069
▁到处	-3070
▁比较	-3071
你呢	-3072
杀了	-3073
没有什么	-3074
▁青	-3075
是他	-3076
配合	-3077
食品	-3078
的原因	-3079
一朵	-3080
当地	-3081
骨头	-3082
伙子	-3083
咖啡	-3084
在哪里	-3085
草原	-3086
错误	-3087
觉得自己	-3088
沙发	-3089
蚊子	-3090
▁扔	-3091
外婆	-3092
时的	-3093
曼联	-3094
在他	-3095
很好的	-3096
面的	-3097
▁来自	-3098
▁狮子	-3099
粮食	-3100
不同的	-3101
▁敢	-3102
出生	-3103
现象	-3104
被子	-3105
香味	-3106
主动	-3107
台上	-3108
学的	-3109
广告	-3110
男生	-3111
累计	-3112
▁拉	-3113
断了	-3114
统计	-3115
做到	-3116
人民币	-3117
▁xia	-3118
▁养	-3119
裙子	-3120
▁第二天	-3121
上前	-3122
减肥	-3123
觉得很	-3124
▁这样啊	-3125
一号	-3126
艺术	-3127
六百	-3128
周末	-3129
商业	-3130
花瓣	-3131
更好的	-3132
去的	-3133
乐乐	-3134
山坡	-3135
▁一些	-3136
小乌龟	-3137
▁比如说	-3138
▁乱	-3139
相比	-3140
绿色的	-3141
更新	-3142
快递	-3143
生意	-3144
也好	-3145
决心	-3146
通知	-3147
大伙	-3148
我一	-3149
爪子	-3150
伸出	-3151
记住	-3152
孩子的	-3153
足球比赛	-3154
那个时候	-3155
▁教	-3156
▁时	-3157
大地	-3158
战争	-3159
热情	-3160
实话	-3161
快要	-3162
斯拉	-3163
▁热点财经资讯	-3164
那我	-3165
说过	-3166
获得了	-3167
▁wanr	-3168
之中	-3169
人在	-3170
多数	-3171
挂在	-3172
用手	-3173
百分之二十	-3174
把这	-3175
模样	-3176
碰到	-3177
不聊了	-3178
叫什么	-3179
因素	-3180
点头	-3181
快点	-3182
排球	-3183
病例	-3184
评论	-3185
回到家	-3186
IS	-3187
▁兔	-3188
最近有	-3189
就和	-3190
是否	-3191
五个	-3192
小灰	-3193
欣赏	-3194
程度	-3195
红色	-3196
联合	-3197
资源	-3198
打着	-3199
更是	-3200
蹦蹦	-3201
▁没关系	-3202
检测	-3203
这可	-3204
▁姊姊	-3205
在家里	-3206
有机会	-3207
女的	-3208
改革	-3209
▁贴	-3210
新鲜	-3211
贵的	-3212
下来了	-3213
每天都	-3214
on	-3215
来得	-3216
▁是吧	-3217
▁看到	-3218
喷嚏	-3219
小黄	-3220
整体	-3221
真的是太	-3222
礼貌	-3223
▁第一	-3224
实际上	-3225
全是	-3226
更好	-3227
洗澡	-3228
设备	-3229
百分之零点	-3230
的不	-3231
羊羊	-3232
送到	-3233
▁记得	-3234
▁痛	-3235
俱乐	-3236
不说了	-3237
▁你好你好	-3238
▁嘞	-3239
家族	-3240
▁西安	-3241
干活	-3242
建立	-3243
究竟	-3244
身份	-3245
造成	-3246
飞行	-3247
▁毕竟	-3248
俱乐部	-3249
肯定会	-3250
▁你也在关注	-3251
处于	-3252
奇妙	-3253
张开	-3254
方的	-3255
法律	-3256
玩耍	-3257
特别喜欢	-3258
初中	-3259
心地	-3260
和尚	-3261
打得	-3262
三只	-3263
四周	-3264
他就是	-3265
动漫	-3266
后悔	-3267
呱呱	-3268
用来	-3269
▁摸	-3270
不来	-3271
等待	-3272
▁乖乖	-3273
▁哪儿	-3274
办公	-3275
去做	-3276
▁杯	-3277
的头	-3278
道歉	-3279
队友	-3280
一点点	-3281
可爱的	-3282
好吃的	-3283
▁dong	-3284
特别是	-3285
风筝	-3286
▁南都	-3287
出一个	-3288
▁铺	-3289
人啊	-3290
思想	-3291
挑战	-3292
的日子	-3293
▁哟	-3294
带领	-3295
不错啊	-3296
了一大	-3297
叫起来	-3298
一名	-3299
去买	-3300
我一直	-3301
真是太	-3302
啦啦	-3303
逐渐	-3304
▁送	-3305
▁钱	-3306
也都	-3307
咚咚	-3308
执行	-3309
每年	-3310
告诉我	-3311
▁你这是	-3312
概念	-3313
巧克	-3314
长了	-3315
再聊	-3316
的路	-3317
青年	-3318
驾驶	-3319
小蜜蜂	-3320
生活中	-3321
的发展	-3322
培养	-3323
成熟	-3324
我和	-3325
武汉	-3326
闪闪	-3327
业绩	-3328
会上	-3329
对呀	-3330
用力	-3331
▁些	-3332
放下	-3333
是要	-3334
当年	-3335
▁除了	-3336
距离	-3337
长期	-3338
问他	-3339
▁昂	-3340
十八	-3341
巨人	-3342
是呀	-3343
点点头	-3344
感受	-3345
路过	-3346
打电话	-3347
▁有时候	-3348
人间	-3349
关心	-3350
往往	-3351
菲菲	-3352
▁身	-3353
快的	-3354
牡丹	-3355
范围	-3356
▁照	-3357
司机	-3358
针对	-3359
出现在	-3360
的一声	-3361
踢足球	-3362
八百	-3363
具有	-3364
四处	-3365
大婶	-3366
背着	-3367
他们在	-3368
广东	-3369
自行	-3370
就好	-3371
你觉得	-3372
怎么能	-3373
▁报	-3374
股价	-3375
顶上	-3376
就是在	-3377
箱子	-3378
说说	-3379
▁一天	-3380
不但	-3381
咕噜	-3382
商量	-3383
少了	-3384
苍蝇	-3385
怎么办呢	-3386
传统	-3387
动画	-3388
的美	-3389
遗憾	-3390
重的	-3391
▁终于	-3392
▁转	-3393
花园	-3394
▁一边	-3395
▁huai	-3396
制作	-3397
多年	-3398
老爷	-3399
老鹰	-3400
领导	-3401
受不了	-3402
喇叭	-3403
她就	-3404
提出	-3405
显得	-3406
告诉了	-3407
雪花	-3408
▁乔治	-3409
摇摇头	-3410
▁样	-3411
及时	-3412
晚饭	-3413
王后	-3414
▁好啊	-3415
▁有些	-3416
▁没事	-3417
▁狐狸	-3418
各种各	-3419
的小朋友	-3420
前的	-3421
形状	-3422
收拾	-3423
▁很多	-3424
名医	-3425
涨幅	-3426
饿了	-3427
鼓励	-3428
▁我还	-3429
地看着	-3430
无人	-3431
疾病	-3432
巧克力	-3433
没关系	-3434
他要	-3435
拒绝	-3436
症状	-3437
qu	-3438
起床	-3439
▁玩儿	-3440
答应了	-3441
整整	-3442
▁干吗	-3443
要不然	-3444
腾讯	-3445
你自己	-3446
▁这一刻就是这些	-3447
他和	-3448
▁这边	-3449
打游戏	-3450
跟你说	-3451
▁七点	-3452
小树	-3453
重视	-3454
因为我	-3455
上帝	-3456
倒了	-3457
厕所	-3458
保障	-3459
IST	-3460
SIST	-3461
SISTER	-3462
看好	-3463
in	-3464
举办	-3465
全都	-3466
市值	-3467
明确	-3468
是我的	-3469
怀疑	-3470
想吃	-3471
成本	-3472
有限	-3473
量的	-3474
▁狗儿	-3475
在里面	-3476
▁藏	-3477
不大	-3478
身后	-3479
预告	-3480
▁戴	-3481
严格	-3482
很高	-3483
思考	-3484
留言	-3485
白云	-3486
满满	-3487
相对	-3488
自从	-3489
▁西	-3490
们的	-3491
士兵	-3492
媳妇	-3493
▁光	-3494
丰富	-3495
给你们	-3496
点了	-3497
运气	-3498
出了一	-3499
内心	-3500
购买	-3501
都不知道	-3502
▁朵	-3503
取得	-3504
小学	-3505
▁的话	-3506
的朋友	-3507
都不会	-3508
听到了	-3509
子上	-3510
讨论	-3511
调皮	-3512
▁是嘛	-3513
你看了	-3514
有一种	-3515
▁卡	-3516
一想	-3517
王国	-3518
▁只是	-3519
每一个	-3520
岁的	-3521
盯着	-3522
绿的	-3523
▁蜘蛛	-3524
的名字	-3525
给他们	-3526
高兴地说	-3527
原谅	-3528
大大	-3529
爱好	-3530
▁gan	-3531
再也	-3532
惊喜	-3533
白白	-3534
开发	-3535
牛奶	-3536
▁我们下	-3537
▁咬	-3538
汪汪	-3539
▁过去	-3540
微笑	-3541
收益	-3542
就行了	-3543
▁七点早知道	-3544
▁公	-3545
狠狠	-3546
股东	-3547
飞来	-3548
▁时间	-3549
▁巴	-3550
坐吧	-3551
三号	-3552
▁xie	-3553
当初	-3554
爬上	-3555
自动	-3556
也是很	-3557
宿舍	-3558
得多	-3559
▁我感觉	-3560
▁生	-3561
两百	-3562
地把	-3563
移动	-3564
龙王	-3565
▁声音	-3566
比较多	-3567
▁心	-3568
▁游泳	-3569
1!	-3570
到现在	-3571
▁我记得	-3572
给它	-3573
进球	-3574
▁旁边	-3575
▁蜜蜂	-3576
我不是	-3577
表达	-3578
首歌	-3579
他自己	-3580
老奶奶	-3581
》。	-3582
小小	-3583
称为	-3584
可不	-3585
独自	-3586
运营	-3587
难以	-3588
挺喜欢	-3589
成就	-3590
的树	-3591
会议	-3592
商品	-3593
小红	-3594
方案	-3595
回到了	-3596
想了想	-3597
▁你平时	-3598
就是因为	-3599
电动	-3600
高了	-3601
嘿嘿	-3602
天鹅	-3603
野猪	-3604
一个月	-3605
▁破	-3606
▁祝	-3607
吃过	-3608
进攻	-3609
青春	-3610
▁也许	-3611
▁亲	-3612
人才	-3613
双手	-3614
魔鬼	-3615
),	-3616
▁安	-3617
小了	-3618
火的	-3619
的脚	-3620
事业	-3621
亚洲	-3622
同样	-3623
都已经	-3624
个好	-3625
夺冠	-3626
实验	-3627
斑马	-3628
我自己	-3629
▁翅膀	-3630
中国队	-3631
▁deng	-3632
承认	-3633
▁好好	-3634
▁有点	-3635
▁dai	-3636
▁假	-3637
上有	-3638
强大	-3639
篮子	-3640
大家的	-3641
光了	-3642
尊重	-3643
眼里	-3644
兔妈妈	-3645
难了	-3646
▁就像	-3647
你也是	-3648
给自己	-3649
这一天	-3650
角度	-3651
走出	-3652
集中	-3653
告诉我们	-3654
怎么回事	-3655
▁班	-3656
南都	-3657
将会	-3658
啄木	-3659
外援	-3660
神仙	-3661
神秘	-3662
顿时	-3663
它就	-3664
▁em	-3665
白色的	-3666
飞走了	-3667
▁早	-3668
▁	-3669
,	-3670
的	-3671
T	-3672
。	-3673
"	-3674
:	-3675
了	-3676
是	-3677
E	-3678
*	-3679
一	-3680
R	-3681
H	-3682
.	-3683
我	-3684
不	-3685
A	-3686
I	-3687
这	-3688
有	-3689
个	-3690
你	-3691
G	-3692
C	-3693
他	-3694
就	-3695
在	-3696
D	-3697
L	-3698
好	-3699
小	-3700
O	-3701
来	-3702
?	-3703
_	-3704
看	-3705
们	-3706
人	-3707
啊	-3708
那	-3709
说	-3710
大	-3711
么	-3712
子	-3713
上	-3714
到	-3715
M	-3716
也	-3717
!	-3718
要	-3719
还	-3720
里	-3721
后	-3722
都	-3723
可	-3724
去	-3725
对	-3726
得	-3727
没	-3728
着	-3729
会	-3730
时	-3731
天	-3732
下	-3733
很	-3734
a	-3735
x	-3736
地	-3737
以	-3738
过	-3739
然	-3740
i	-3741
为	-3742
家	-3743
出	-3744
什	-3745
多	-3746
呢	-3747
能	-3748
N	-3749
妈	-3750
嗯	-3751
想	-3752
和	-3753
哈	-3754
e	-3755
起	-3756
道	-3757
4	-3758
S	-3759
点	-3760
生	-3761
自	-3762
n	-3763
它	-3764
V	-3765
中	-3766
吧	-3767
样	-3768
只	-3769
呀	-3770
国	-3771
把	-3772
吗	-3773
现	-3774
事	-3775
儿	-3776
面	-3777
老	-3778
真	-3779
开	-3780
比	-3781
给	-3782
1	-3783
吃	-3784
觉	-3785
发	-3786
心	-3787
知	-3788
年	-3789
球	-3790
十	-3791
最	-3792
前	-3793
她	-3794
3	-3795
h	-3796
之	-3797
打	-3798
头	-3799
见	-3800
己	-3801
o	-3802
走	-3803
些	-3804
太	-3805
用	-3806
又	-3807
u	-3808
长	-3809
2	-3810
实	-3811
成	-3812
回	-3813
动	-3814
但	-3815
听	-3816
二	-3817
三	-3818
学	-3819
种	-3820
手	-3821
喜	-3822
怎	-3823
欢	-3824
再	-3825
候	-3826
高	-3827
果	-3828
行	-3829
分	-3830
当	-3831
于	-3832
经	-3833
花	-3834
边	-3835
新	-3836
做	-3837
而	-3838
从	-3839
爸	-3840
定	-3841
公	-3842
方	-3843
快	-3844
话	-3845
水	-3846
别	-3847
像	-3848
西	-3849
进	-3850
因	-3851
次	-3852
所	-3853
两	-3854
电	-3855
g	-3856
主	-3857
身	-3858
被	-3859
情	-3860
孩	-3861
气	-3862
感	-3863
意	-3864
其	-3865
让	-3866
正	-3867
玩	-3868
力	-3869
百	-3870
如	-3871
赛	-3872
机	-3873
先	-3874
间	-3875
、	-3876
美	-3877
才	-3878
树	-3879
叫	-3880
东	-3881
拜	-3882
问	-3883
关	-3884
常	-3885
明	-3886
白	-3887
女	-3888
友	-3889
本	-3890
哦	-3891
找	-3892
王	-3893
月	-3894
车	-3895
场	-3896
马	-3897
声	-3898
跟	-3899
外	-3900
作	-3901
等	-3902
放	-3903
飞	-3904
物	-3905
讲	-3906
同	-3907
直	-3908
拿	-3909
五	-3910
四	-3911
全	-3912
法	-3913
鼠	-3914
色	-3915
U	-3916
已	-3917
山	-3918
几	-3919
哪	-3920
业	-3921
嘛	-3922
朋	-3923
完	-3924
影	-3925
爱	-3926
名	-3927
啦	-3928
跑	-3929
应	-3930
特	-3931
眼	-3932
无	-3933
体	-3934
今	-3935
第	-3936
猫	-3937
熊	-3938
兔	-3939
住	-3940
该	-3941
门	-3942
y	-3943
部	-3944
更	-3945
带	-3946
日	-3947
近	-3948
口	-3949
每	-3950
重	-3951
宝	-3952
金	-3953
队	-3954
变	-3955
干	-3956
活	-3957
故	-3958
谁	-3959
相	-3960
青	-3961
平	-3962
加	-3963
z	-3964
b	-3965
安	-3966
将	-3967
红	-3968
理	-3969
市	-3970
l	-3971
笑	-3972
刚	-3973
狗	-3974
路	-3975
d	-3976
员	-3977
向	-3978
少	-3979
错	-3980
鱼	-3981
接	-3982
姐	-3983
位	-3984
八	-3985
害	-3986
越	-3987
亮	-3988
游	-3989
星	-3990
信	-3991
者	-3992
s	-3993
挺	-3994
谢	-3995
风	-3996
原	-3997
工	-3998
非	-3999
乐	-4000
望	-4001
海	-4002
F	-4003
表	-4004
难	-4005
象	-4006
房	-4007
m	-4008
师	-4009
睡	-4010
七	-4011
男	-4012
结	-4013
期	-4014
怪	-4015
掉	-4016
且	-4017
六	-4018
哥	-4019
晚	-4020
跳	-4021
买	-4022
九	-4023
解	-4024
光	-4025
受	-4026
始	-4027
报	-4028
死	-4029
足	-4030
张	-4031
演	-4032
黑	-4033
较	-4034
阿	-4035
林	-4036
资	-4037
闻	-4038
兴	-4039
哎	-4040
早	-4041
巴	-4042
零	-4043
告	-4044
服	-4045
处	-4046
教	-4047
空	-4048
火	-4049
网	-4050
通	-4051
世	-4052
度	-4053
万	-4054
合	-4055
办	-4056
便	-4057
记	-4058
数	-4059
猪	-4060
拉	-4061
钱	-4062
坐	-4063
强	-4064
爷	-4065
书	-4066
奇	-4067
此	-4068
入	-4069
条	-4070
请	-4071
-	-4072
帮	-4073
利	-4074
注	-4075
怕	-4076
收	-4077
医	-4078
确	-4079
总	-4080
鸡	-4081
神	-4082
运	-4083
片	-4084
草	-4085
远	-4086
奶	-4087
剧	-4088
亲	-4089
蛙	-4090
元	-4091
往	-4092
视	-4093
内	-4094
黄	-4095
画	-4096
皮	-4097
满	-4098
弟	-4099
牛	-4100
提	-4101
布	-4102
千	-4103
并	-4104
毛	-4105
狼	-4106
连	-4107
军	-4108
号	-4109
轻	-4110
保	-4111
阳	-4112
热	-4113
狐	-4114
认	-4115
目	-4116
河	-4117
文	-4118
件	-4119
清	-4120
反	-4121
病	-4122
与	-4123
产	-4124
音	-4125
司	-4126
狸	-4127
饭	-4128
量	-4129
算	-4130
管	-4131
羊	-4132
流	-4133
思	-4134
交	-4135
0	-4136
题	-4137
却	-4138
股	-4139
米	-4140
性	-4141
猴	-4142
斯	-4143
慢	-4144
您	-4145
计	-4146
需	-4147
送	-4148
鸟	-4149
界	-4150
字	-4151
伤	-4152
龙	-4153
城	-4154
忙	-4155
南	-4156
指	-4157
民	-4158
超	-4159
步	-4160
根	-4161
整	-4162
持	-4163
传	-4164
肯	-4165
息	-4166
许	-4167
块	-4168
品	-4169
倒	-4170
包	-4171
木	-4172
战	-4173
容	-4174
篮	-4175
化	-4176
精	-4177
转	-4178
使	-4179
衣	-4180
消	-4181
歌	-4182
各	-4183
技	-4184
久	-4185
台	-4186
r	-4187
戏	-4188
香	-4189
命	-4190
站	-4191
脚	-4192
c	-4193
松	-4194
示	-4195
准	-4196
系	-4197
代	-4198
周	-4199
科	-4200
咱	-4201
喔	-4202
落	-4203
厉	-4204
格	-4205
离	-4206
赶	-4207
至	-4208
类	-4209
母	-4210
竟	-4211
w	-4212
苹	-4213
联	-4214
t	-4215
急	-4216
选	-4217
石	-4218
据	-4219
备	-4220
价	-4221
希	-4222
聊	-4223
B	-4224
节	-4225
紧	-4226
失	-4227
达	-4228
或	-4229
院	-4230
半	-4231
诉	-4232
任	-4233
克	-4234
食	-4235
求	-4236
决	-4237
终	-4238
易	-4239
嘴	-4240
制	-4241
夜	-4242
虎	-4243
喝	-4244
照	-4245
够	-4246
朵	-4247
商	-4248
哭	-4249
续	-4250
穿	-4251
蛋	-4252
突	-4253
考	-4254
习	-4255
由	-4256
排	-4257
立	-4258
单	-4259
北	-4260
洗	-4261
练	-4262
写	-4263
X	-4264
尔	-4265
基	-4266
j	-4267
夫	-4268
哇	-4269
脸	-4270
深	-4271
雪	-4272
雨	-4273
妹	-4274
展	-4275
菜	-4276
差	-4277
响	-4278
停	-4279
森	-4280
底	-4281
~	-4282
刻	-4283
班	-4284
唱	-4285
亿	-4286
建	-4287
丽	-4288
拍	-4289
坏	-4290
士	-4291
及	-4292
婆	-4293
何	-4294
睛	-4295
脑	-4296
装	-4297
领	-4298
答	-4299
务	-4300
增	-4301
园	-4302
调	-4303
校	-4304
虽	-4305
待	-4306
爬	-4307
娘	-4308
华	-4309
客	-4310
贝	-4311
呼	-4312
k	-4313
随	-4314
漂	-4315
推	-4316
试	-4317
微	-4318
李	-4319
灰	-4320
绿	-4321
费	-4322
叶	-4323
播	-4324
父	-4325
敢	-4326
取	-4327
啥	-4328
板	-4329
妖	-4330
德	-4331
线	-4332
首	-4333
功	-4334
投	-4335
极	-4336
英	-4337
广	-4338
洞	-4339
救	-4340
惊	-4341
留	-4342
卡	-4343
鹿	-4344
》	-4345
《	-4346
识	-4347
愿	-4348
复	-4349
呃	-4350
背	-4351
支	-4352
区	-4353
养	-4354
术	-4355
味	-4356
官	-4357
乌	-4358
改	-4359
;	-4360
抓	-4361
形	-4362
育	-4363
角	-4364
毕	-4365
级	-4366
具	-4367
段	-4368
袋	-4369
刺	-4370
必	-4371
值	-4372
伙	-4373
言	-4374
苦	-4375
弄	-4376
团	-4377
助	-4378
专	-4379
药	-4380
治	-4381
破	-4382
居	-4383
云	-4384
导	-4385
造	-4386
双	-4387
瓜	-4388
偷	-4389
虫	-4390
观	-4391
追	-4392
集	-4393
床	-4394
低	-4395
显	-4396
圆	-4397
换	-4398
证	-4399
冠	-4400
q	-4401
吓	-4402
牙	-4403
野	-4404
论	-4405
彩	-4406
朝	-4407
语	-4408
梦	-4409
屋	-4410
规	-4411
份	-4412
春	-4413
颜	-4414
般	-4415
胖	-4416
政	-4417
耳	-4418
踢	-4419
财	-4420
摇	-4421
蓝	-4422
娃	-4423
姑	-4424
喊	-4425
肉	-4426
皇	-4427
护	-4428
细	-4429
继	-4430
课	-4431
翻	-4432
参	-4433
K	-4434
遇	-4435
油	-4436
灵	-4437
鸭	-4438
卖	-4439
约	-4440
季	-4441
断	-4442
态	-4443
杀	-4444
险	-4445
冲	-4446
抱	-4447
群	-4448
豆	-4449
5	-4450
状	-4451
土	-4452
岁	-4453
器	-4454
围	-4455
罗	-4456
况	-4457
尾	-4458
式	-4459
甜	-4460
村	-4461
切	-4462
店	-4463
旁	-4464
醒	-4465
创	-4466
简	-4467
历	-4468
蜜	-4469
程	-4470
酒	-4471
礼	-4472
银	-4473
顶	-4474
胡	-4475
俩	-4476
升	-4477
统	-4478
福	-4479
姨	-4480
未	-4481
预	-4482
优	-4483
读	-4484
帝	-4485
座	-4486
局	-4487
质	-4488
举	-4489
吹	-4490
尽	-4491
嗨	-4492
称	-4493
船	-4494
众	-4495
除	-4496
舞	-4497
亚	-4498
冬	-4499
迷	-4500
降	-4501
汉	-4502
幸	-4503
肚	-4504
懂	-4505
设	-4506
冷	-4507
评	-4508
伯	-4509
魔	-4510
冰	-4511
乱	-4512
速	-4513
户	-4514
采	-4515
累	-4516
京	-4517
痛	-4518
引	-4519
乎	-4520
争	-4521
棒	-4522
沙	-4523
项	-4524
桌	-4525
假	-4526
田	-4527
涨	-4528
(	-4529
粉	-4530
)	-4531
念	-4532
笨	-4533
健	-4534
静	-4535
帅	-4536
压	-4537
叔	-4538
迎	-4539
图	-4540
武	-4541
康	-4542
诶	-4543
兵	-4544
农	-4545
查	-4546
嘿	-4547
议	-4548
狮	-4549
获	-4550
激	-4551
古	-4552
智	-4553
蚁	-4554
严	-4555
势	-4556
血	-4557
鞋	-4558
企	-4559
率	-4560
阵	-4561
温	-4562
款	-4563
伴	-4564
另	-4565
藏	-4566
句	-4567
逃	-4568
绝	-4569
存	-4570
贵	-4571
则	-4572
共	-4573
仙	-4574
环	-4575
适	-4576
湖	-4577
即	-4578
州	-4579
蚂	-4580
防	-4581
躲	-4582
忘	-4583
营	-4584
麻	-4585
社	-4586
波	-4587
室	-4588
模	-4589
楼	-4590
普	-4591
仅	-4592
咪	-4593
型	-4594
巧	-4595
曾	-4596
圈	-4597
楚	-4598
担	-4599
蜂	-4600
善	-4601
'	-4602
丝	-4603
靠	-4604
研	-4605
腿	-4606
博	-4607
露	-4608
悄	-4609
净	-4610
铁	-4611
控	-4612
窗	-4613
标	-4614
富	-4615
景	-4616
初	-4617
警	-4618
料	-4619
配	-4620
龟	-4621
[	-4622
独	-4623
]	-4624
负	-4625
职	-4626
令	-4627
似	-4628
兄	-4629
午	-4630
糖	-4631
吸	-4632
钟	-4633
趣	-4634
义	-4635
盘	-4636
案	-4637
密	-4638
奥	-4639
击	-4640
盖	-4641
唉	-4642
颗	-4643
玉	-4644
杯	-4645
退	-4646
依	-4647
赢	-4648
享	-4649
江	-4650
训	-4651
际	-4652
鼻	-4653
组	-4654
境	-4655
究	-4656
效	-4657
维	-4658
搞	-4659
休	-4660
胜	-4661
聪	-4662
棵	-4663
止	-4664
按	-4665
史	-4666
艺	-4667
笔	-4668
泡	-4669
置	-4670
招	-4671
修	-4672
纸	-4673
卫	-4674
灯	-4675
暖	-4676
致	-4677
票	-4678
遍	-4679
婚	-4680
戴	-4681
餐	-4682
p	-4683
权	-4684
摆	-4685
伸	-4686
秀	-4687
摸	-4688
镜	-4689
验	-4690
忽	-4691
牌	-4692
陪	-4693
鬼	-4694
哼	-4695
闪	-4696
努	-4697
拼	-4698
顺	-4699
坚	-4700
乖	-4701
梅	-4702
滑	-4703
软	-4704
闹	-4705
付	-4706
刷	-4707
须	-4708
惜	-4709
渐	-4710
输	-4711
哟	-4712
奖	-4713
勇	-4714
刘	-4715
划	-4716
减	-4717
巨	-4718
劲	-4719
毒	-4720
宫	-4721
烦	-4722
架	-4723
济	-4724
省	-4725
瞧	-4726
短	-4727
讯	-4728
饿	-4729
施	-4730
互	-4731
恩	-4732
尼	-4733
嘟	-4734
绩	-4735
充	-4736
疫	-4737
额	-4738
疑	-4739
散	-4740
摔	-4741
补	-4742
妻	-4743
秋	-4744
浪	-4745
弹	-4746
丢	-4747
顾	-4748
良	-4749
桃	-4750
恶	-4751
汽	-4752
寻	-4753
例	-4754
守	-4755
噢	-4756
堂	-4757
旅	-4758
蹦	-4759
―	-4760
鲜	-4761
丁	-4762
昨	-4763
兰	-4764
货	-4765
层	-4766
蝶	-4767
融	-4768
左	-4769
颈	-4770
鹰	-4771
怀	-4772
素	-4773
挂	-4774
轮	-4775
捉	-4776
疼	-4777
碰	-4778
咬	-4779
挥	-4780
斗	-4781
印	-4782
吵	-4783
齐	-4784
钻	-4785
烧	-4786
威	-4787
羽	-4788
属	-4789
雷	-4790
夏	-4791
珠	-4792
9	-4793
责	-4794
池	-4795
萝	-4796
源	-4797
孙	-4798
限	-4799
族	-4800
滚	-4801
套	-4802
汤	-4803
猎	-4804
膀	-4805
喽	-4806
察	-4807
熟	-4808
稳	-4809
恐	-4810
右	-4811
纪	-4812
溜	-4813
积	-4814
临	-4815
鼓	-4816
卜	-4817
瓶	-4818
肥	-4819
烟	-4820
顿	-4821
针	-4822
志	-4823
策	-4824
纷	-4825
枝	-4826
洋	-4827
蝴	-4828
蛇	-4829
童	-4830
幅	-4831
纳	-4832
尖	-4833
欧	-4834
危	-4835
抢	-4836
帽	-4837
舒	-4838
贴	-4839
败	-4840
翅	-4841
骨	-4842
扔	-4843
喷	-4844
购	-4845
呵	-4846
猬	-4847
讨	-4848
操	-4849
苏	-4850
择	-4851
雀	-4852
借	-4853
派	-4854
杨	-4855
飘	-4856
喂	-4857
劳	-4858
躺	-4859
跌	-4860
泥	-4861
承	-4862
束	-4863
谈	-4864
频	-4865
咕	-4866
擦	-4867
冒	-4868
供	-4869
币	-4870
甚	-4871
困	-4872
永	-4873
免	-4874
糕	-4875
沉	-4876
佩	-4877
章	-4878
索	-4879
扑	-4880
6	-4881
鹅	-4882
端	-4883
呆	-4884
忍	-4885
8	-4886
暗	-4887
韩	-4888
街	-4889
销	-4890
呜	-4891
嘻	-4892
托	-4893
测	-4894
益	-4895
滴	-4896
泪	-4897
懒	-4898
刀	-4899
搭	-4900
录	-4901
脱	-4902
售	-4903
淘	-4904
乡	-4905
姆	-4906
探	-4907
某	-4908
攻	-4909
丹	-4910
澡	-4911
占	-4912
构	-4913
券	-4914
陈	-4915
鲁	-4916
既	-4917
茶	-4918
P	-4919
列	-4920
误	-4921
封	-4922
偶	-4923
府	-4924
7	-4925
透	-4926
窝	-4927
篇	-4928
仔	-4929
吉	-4930
缺	-4931
菲	-4932
射	-4933
雄	-4934
垃	-4935
脏	-4936
材	-4937
监	-4938
估	-4939
谷	-4940
圾	-4941
疗	-4942
宁	-4943
犯	-4944
仍	-4945
挑	-4946
妙	-4947
噜	-4948
舍	-4949
宣	-4950
织	-4951
余	-4952
枪	-4953
检	-4954
孔	-4955
兽	-4956
耶	-4957
巫	-4958
暴	-4959
f	-4960
诺	-4961
箱	-4962
唐	-4963
港	-4964
爆	-4965
骑	-4966
均	-4967
猛	-4968
娜	-4969
硬	-4970
概	-4971
县	-4972
航	-4973
漫	-4974
尤	-4975
镇	-4976
傻	-4977
凉	-4978
抬	-4979
归	-4980
甲	-4981
腾	-4982
妇	-4983
拔	-4984
虚	-4985
折	-4986
晨	-4987
锅	-4988
奋	-4989
掌	-4990
莫	-4991
律	-4992
堆	-4993
扎	-4994
猜	-4995
曲	-4996
映	-4997
泳	-4998
搬	-4999
祖	-5000
桶	-5001
丛	-5002
祝	-5003
胆	-5004
秘	-5005
壮	-5006
辛	-5007
洲	-5008
介	-5009
范	-5010
墙	-5011
丑	-5012
摘	-5013
盛	-5014
拥	-5015
罪	-5016
尝	-5017
旧	-5018
姓	-5019
撞	-5020
诗	-5021
染	-5022
厚	-5023
庭	-5024
奔	-5025
登	-5026
鸦	-5027
馆	-5028
批	-5029
箭	-5030
赵	-5031
赞	-5032
委	-5033
核	-5034
湿	-5035
骗	-5036
桥	-5037
闭	-5038
岸	-5039
否	-5040
寒	-5041
弃	-5042
烈	-5043
弱	-5044
麦	-5045
扫	-5046
臣	-5047
圣	-5048
敲	-5049
碗	-5050
梯	-5051
佳	-5052
异	-5053
症	-5054
若	-5055
庄	-5056
剩	-5057
惯	-5058
壳	-5059
杰	-5060
虑	-5061
君	-5062
塘	-5063
捡	-5064
铺	-5065
禁	-5066
雅	-5067
炼	-5068
默	-5069
骂	-5070
幼	-5071
怜	-5072
饼	-5073
副	-5074
编	-5075
庆	-5076
磨	-5077
塞	-5078
判	-5079
夺	-5080
咚	-5081
敬	-5082
苗	-5083
抽	-5084
荣	-5085
秦	-5086
挖	-5087
辆	-5088
萨	-5089
竹	-5090
末	-5091
迪	-5092
穷	-5093
触	-5094
隔	-5095
乔	-5096
燕	-5097
涂	-5098
拖	-5099
孤	-5100
罚	-5101
卷	-5102
琴	-5103
椅	-5104
偏	-5105
珍	-5106
粒	-5107
凡	-5108
饱	-5109
菇	-5110
抗	-5111
郎	-5112
豪	-5113
尚	-5114
附	-5115
狠	-5116
腰	-5117
蛮	-5118
蛛	-5119
抖	-5120
聚	-5121
词	-5122
替	-5123
咋	-5124
朱	-5125
宽	-5126
递	-5127
宗	-5128
截	-5129
债	-5130
络	-5131
括	-5132
敌	-5133
绍	-5134
协	-5135
乒	-5136
蘑	-5137
赏	-5138
搜	-5139
叹	-5140
陆	-5141
洛	-5142
煮	-5143
执	-5144
怒	-5145
移	-5146
私	-5147
厨	-5148
盗	-5149
竞	-5150
启	-5151
壁	-5152
驴	-5153
咯	-5154
饮	-5155
蜗	-5156
缝	-5157
酸	-5158
晃	-5159
炎	-5160
峰	-5161
斑	-5162
蟹	-5163
曼	-5164
佛	-5165
貌	-5166
培	-5167
臭	-5168
典	-5169
慕	-5170
尊	-5171
撒	-5172
裁	-5173
齿	-5174
避	-5175
恒	-5176
屁	-5177
版	-5178
瘦	-5179
紫	-5180
糊	-5181
签	-5182
席	-5183
乘	-5184
扬	-5185
艾	-5186
释	-5187
辈	-5188
隐	-5189
吐	-5190
眉	-5191
库	-5192
献	-5193
盒	-5194
蜘	-5195
伍	-5196
荡	-5197
厅	-5198
吴	-5199
盆	-5200
杂	-5201
钢	-5202
朗	-5203
丰	-5204
汪	-5205
邻	-5206
弯	-5207
缘	-5208
呐	-5209
粮	-5210
乓	-5211
晒	-5212
杜	-5213
塔	-5214
咦	-5215
诚	-5216
柔	-5217
狂	-5218
粗	-5219
恋	-5220
厌	-5221
捕	-5222
汗	-5223
蒙	-5224
烂	-5225
绳	-5226
域	-5227
载	-5228
伞	-5229
损	-5230
阴	-5231
惨	-5232
央	-5233
访	-5234
灭	-5235
亏	-5236
魂	-5237
驾	-5238
欺	-5239
略	-5240
坡	-5241
患	-5242
润	-5243
姊	-5244
岛	-5245
征	-5246
遭	-5247
锻	-5248
熬	-5249
恢	-5250
淡	-5251
虾	-5252
邀	-5253
伟	-5254
凶	-5255
慌	-5256
闲	-5257
综	-5258
瑞	-5259
堡	-5260
慧	-5261
震	-5262
夸	-5263
拳	-5264
砍	-5265
阅	-5266
井	-5267
仓	-5268
逐	-5269
罐	-5270
毫	-5271
辣	-5272
幕	-5273
羡	-5274
唯	-5275
丈	-5276
悲	-5277
宋	-5278
呱	-5279
肺	-5280
傲	-5281
溪	-5282
勒	-5283
码	-5284
伦	-5285
勤	-5286
荐	-5287
隆	-5288
炸	-5289
逼	-5290
糟	-5291
遗	-5292
励	-5293
龄	-5294
役	-5295
荷	-5296
碎	-5297
欣	-5298
脖	-5299
曹	-5300
盟	-5301
诊	-5302
鳄	-5303
伊	-5304
混	-5305
著	-5306
违	-5307
莱	-5308
媒	-5309
脾	-5310
挣	-5311
剪	-5312
睁	-5313
悠	-5314
耀	-5315
剑	-5316
途	-5317
矮	-5318
缓	-5319
赚	-5320
厂	-5321
亡	-5322
储	-5323
贷	-5324
析	-5325
柴	-5326
吞	-5327
嘞	-5328
措	-5329
键	-5330
晶	-5331
耐	-5332
税	-5333
娱	-5334
援	-5335
审	-5336
含	-5337
番	-5338
梁	-5339
莉	-5340
申	-5341
握	-5342
吱	-5343
延	-5344
耍	-5345
夹	-5346
霸	-5347
缩	-5348
宜	-5349
铃	-5350
述	-5351
哗	-5352
柳	-5353
迟	-5354
扇	-5355
笼	-5356
跃	-5357
挤	-5358
迹	-5359
固	-5360
璃	-5361
摩	-5362
柜	-5363
匹	-5364
洁	-5365
嘉	-5366
闷	-5367
踩	-5368
挡	-5369
泰	-5370
扭	-5371
涉	-5372
陷	-5373
植	-5374
授	-5375
距	-5376
呗	-5377
绕	-5378
苍	-5379
匠	-5380
昂	-5381
葡	-5382
撑	-5383
阶	-5384
趁	-5385
旗	-5386
啪	-5387
炒	-5388
宿	-5389
萄	-5390
烤	-5391
蒂	-5392
凭	-5393
页	-5394
链	-5395
屏	-5396
瓦	-5397
贪	-5398
玻	-5399
滋	-5400
坑	-5401
恨	-5402
恼	-5403
趴	-5404
劝	-5405
瓣	-5406
残	-5407
鼹	-5408
倍	-5409
俊	-5410
拾	-5411
叮	-5412
徒	-5413
埋	-5414
爪	-5415
悬	-5416
革	-5417
奏	-5418
羞	-5419
横	-5420
裙	-5421
扣	-5422
胃	-5423
啄	-5424
泉	-5425
巾	-5426
骄	-5427
串	-5428
晓	-5429
愁	-5430
嫌	-5431
怨	-5432
牵	-5433
召	-5434
莓	-5435
浑	-5436
罩	-5437
蕉	-5438
疯	-5439
眠	-5440
纯	-5441
舌	-5442
锦	-5443
插	-5444
租	-5445
披	-5446
尿	-5447
裤	-5448
匆	-5449
嘎	-5450
欲	-5451
董	-5452
虹	-5453
暂	-5454
卧	-5455
叽	-5456
螃	-5457
扶	-5458
宇	-5459
肤	-5460
棉	-5461
川	-5462
忠	-5463
彼	-5464
嫁	-5465
谓	-5466
焦	-5467
忧	-5468
嫩	-5469
灾	-5470
钓	-5471
榜	-5472
郑	-5473
稻	-5474
·	-5475
丧	-5476
迫	-5477
墨	-5478
昏	-5479
肠	-5480
淋	-5481
郁	-5482
冻	-5483
锋	-5484
疾	-5485
贼	-5486
锁	-5487
幻	-5488
凌	-5489
摄	-5490
翔	-5491
戒	-5492
悔	-5493
胸	-5494
绪	-5495
扮	-5496
翼	-5497
序	-5498
稍	-5499
玛	-5500
婶	-5501
废	-5502
悉	-5503
诸	-5504
妆	-5505
浮	-5506
痒	-5507
豹	-5508
刮	-5509
甘	-5510
歉	-5511
渴	-5512
仿	-5513
芽	-5514
浇	-5515
扩	-5516
徐	-5517
悟	-5518
稀	-5519
贫	-5520
慰	-5521
酷	-5522
愤	-5523
惠	-5524
扰	-5525
瑰	-5526
凯	-5527
订	-5528
诞	-5529
旦	-5530
驶	-5531
汁	-5532
础	-5533
丫	-5534
玫	-5535
潮	-5536
谋	-5537
罢	-5538
嚏	-5539
俗	-5540
爽	-5541
障	-5542
促	-5543
嚷	-5544
愧	-5545
凳	-5546
奈	-5547
晋	-5548
鹊	-5549
陕	-5550
詹	-5551
牧	-5552
姚	-5553
敏	-5554
忆	-5555
沟	-5556
喵	-5557
傅	-5558
妮	-5559
胎	-5560
迅	-5561
哩	-5562
逆	-5563
踏	-5564
喘	-5565
歪	-5566
繁	-5567
肩	-5568
邮	-5569
宠	-5570
莎	-5571
眯	-5572
殿	-5573
眨	-5574
氏	-5575
衡	-5576
泽	-5577
醉	-5578
脆	-5579
贾	-5580
侠	-5581
霍	-5582
凤	-5583
甩	-5584
裂	-5585
薄	-5586
荒	-5587
舅	-5588
吊	-5589
返	-5590
芦	-5591
魏	-5592
仪	-5593
廷	-5594
砸	-5595
毁	-5596
邦	-5597
阻	-5598
伏	-5599
棍	-5600
抵	-5601
瞪	-5602
斤	-5603
捧	-5604
俱	-5605
屈	-5606
遥	-5607
纹	-5608
讶	-5609
符	-5610
宾	-5611
缸	-5612
仗	-5613
浓	-5614
逛	-5615
洪	-5616
浴	-5617
仇	-5618
呦	-5619
郭	-5620
仰	-5621
咳	-5622
惑	-5623
琪	-5624
姿	-5625
碌	-5626
抹	-5627
津	-5628
烫	-5629
届	-5630
炮	-5631
蚊	-5632
潜	-5633
枯	-5634
喳	-5635
炉	-5636
予	-5637
咧	-5638
吼	-5639
嗓	-5640
祸	-5641
坦	-5642
袭	-5643
晕	-5644
牢	-5645
寄	-5646
庙	-5647
娇	-5648
辞	-5649
筑	-5650
燃	-5651
盯	-5652
梨	-5653
鹤	-5654
艳	-5655
沿	-5656
秒	-5657
莲	-5658
蛤	-5659
愈	-5660
渔	-5661
踪	-5662
兼	-5663
盈	-5664
绵	-5665
爹	-5666
疲	-5667
鸣	-5668
叭	-5669
账	-5670
侵	-5671
轰	-5672
蔬	-5673
肝	-5674
饰	-5675
寺	-5676
拒	-5677
杆	-5678
欠	-5679
添	-5680
咖	-5681
仁	-5682
舔	-5683
鸽	-5684
怖	-5685
扯	-5686
犹	-5687
岩	-5688
尘	-5689
雕	-5690
俄	-5691
嘲	-5692
瞎	-5693
挨	-5694
茅	-5695
液	-5696
牠	-5697
驼	-5698
棕	-5699
椒	-5700
姜	-5701
玲	-5702
艰	-5703
谅	-5704
猩	-5705
绒	-5706
刑	-5707
旺	-5708
灿	-5709
漏	-5710
轩	-5711
洒	-5712
菊	-5713
赔	-5714
污	-5715
档	-5716
贡	-5717
逗	-5718
尸	-5719
柱	-5720
耗	-5721
拨	-5722
蟆	-5723
姥	-5724
臂	-5725
绑	-5726
汇	-5727
寿	-5728
旋	-5729
穆	-5730
倾	-5731
赋	-5732
迈	-5733
袜	-5734
党	-5735
雾	-5736
孟	-5737
喇	-5738
奉	-5739
径	-5740
恭	-5741
誉	-5742
薇	-5743
蝇	-5744
闯	-5745
愉	-5746
晴	-5747
垂	-5748
媳	-5749
畅	-5750
赫	-5751
允	-5752
扛	-5753
凑	-5754
恰	-5755
灌	-5756
跨	-5757
卓	-5758
枕	-5759
筋	-5760
肖	-5761
仆	-5762
圳	-5763
歇	-5764
茫	-5765
掏	-5766
惹	-5767
抛	-5768
赖	-5769
陶	-5770
吕	-5771
筝	-5772
蹲	-5773
扁	-5774
抑	-5775
啡	-5776
悦	-5777
割	-5778
慈	-5779
捏	-5780
拐	-5781
翁	-5782
嘘	-5783
鲨	-5784
娶	-5785
唤	-5786
螂	-5787
振	-5788
栗	-5789
湾	-5790
贤	-5791
憾	-5792
哀	-5793
壶	-5794
彻	-5795
揉	-5796
铜	-5797
巢	-5798
梳	-5799
捞	-5800
辽	-5801
牡	-5802
撕	-5803
腹	-5804
奴	-5805
尺	-5806
帕	-5807
募	-5808
芯	-5809
催	-5810
塑	-5811
贸	-5812
挠	-5813
棋	-5814
Q	-5815
咔	-5816
抚	-5817
厕	-5818
滩	-5819
祥	-5820
宴	-5821
殊	-5822
穴	-5823
乃	-5824
樱	-5825
缠	-5826
遮	-5827
坛	-5828
侯	-5829
盐	-5830
阔	-5831
瞬	-5832
岗	-5833
橘	-5834
澳	-5835
狱	-5836
祭	-5837
浅	-5838
鲤	-5839
侧	-5840
涛	-5841
漠	-5842
螺	-5843
贺	-5844
呈	-5845
妃	-5846
巡	-5847
拆	-5848
趋	-5849
埃	-5850
寸	-5851
覆	-5852
辉	-5853
填	-5854
霉	-5855
墓	-5856
肾	-5857
萤	-5858
W	-5859
捂	-5860
芒	-5861
浦	-5862
婷	-5863
幺	-5864
陌	-5865
御	-5866
幽	-5867
暑	-5868
槽	-5869
册	-5870
谎	-5871
葫	-5872
吻	-5873
弓	-5874
碧	-5875
黎	-5876
筒	-5877
傍	-5878
弗	-5879
芳	-5880
蒲	-5881
跪	-5882
嘀	-5883
竖	-5884
蜡	-5885
J	-5886
盾	-5887
赌	-5888
蹈	-5889
枚	-5890
兮	-5891
崖	-5892
拦	-5893
栏	-5894
嗒	-5895
岂	-5896
伐	-5897
堵	-5898
茂	-5899
惩	-5900
桂	-5901
轨	-5902
邪	-5903
咒	-5904
崇	-5905
皱	-5906
骆	-5907
唧	-5908
询	-5909
鞭	-5910
愣	-5911
捷	-5912
纠	-5913
孝	-5914
督	-5915
漆	-5916
浙	-5917
盼	-5918
v	-5919
咽	-5920
毯	-5921
嗡	-5922
堪	-5923
谦	-5924
芬	-5925
薪	-5926
攀	-5927
逊	-5928
婴	-5929
筹	-5930
趟	-5931
渣	-5932
叉	-5933
纵	-5934
偿	-5935
柿	-5936
枣	-5937
矛	-5938
桑	-5939
翠	-5940
赤	-5941
宅	-5942
砰	-5943
尬	-5944
吁	-5945
寂	-5946
慎	-5947
蜻	-5948
摊	-5949
啃	-5950
葛	-5951
雁	-5952
契	-5953
咐	-5954
欸	-5955
聘	-5956
肌	-5957
蓬	-5958
勃	-5959
亭	-5960
饥	-5961
淹	-5962
宙	-5963
辅	-5964
辑	-5965
邓	-5966
丸	-5967
匙	-5968
撤	-5969
诱	-5970
咸	-5971
粘	-5972
】	-5973
蔡	-5974
惧	-5975
【	-5976
嫂	-5977
茄	-5978
钩	-5979
渡	-5980
橡	-5981
逢	-5982
杭	-5983
叠	-5984
斧	-5985
栽	-5986
盲	-5987
剥	-5988
豫	-5989
沈	-5990
秃	-5991
蜓	-5992
驱	-5993
喻	-5994
戚	-5995
藤	-5996
颖	-5997
昆	-5998
籍	-5999
帘	-6000
嚓	-6001
叼	-6002
腐	-6003
拟	-6004
韦	-6005
勺	-6006
浩	-6007
沃	-6008
琳	-6009
侍	-6010
涌	-6011
豚	-6012
茸	-6013
蠢	-6014
泄	-6015
尴	-6016
勾	-6017
孵	-6018
袁	-6019
贯	-6020
宰	-6021
乞	-6022
靴	-6023
哒	-6024
涯	-6025
胞	-6026
乏	-6027
牲	-6028
肿	-6029
莹	-6030
啰	-6031
芝	-6032
兜	-6033
辩	-6034
碑	-6035
赐	-6036
描	-6037
羚	-6038
馋	-6039
夕	-6040
宏	-6041
痴	-6042
剂	-6043
泛	-6044
裹	-6045
辱	-6046
捣	-6047
衰	-6048
稼	-6049
谱	-6050
株	-6051
亦	-6052
抄	-6053
玄	-6054
孕	-6055
翘	-6056
鹉	-6057
疆	-6058
迁	-6059
鹦	-6060
翰	-6061
筐	-6062
哧	-6063
乳	-6064
侦	-6065
泼	-6066
僧	-6067
嗽	-6068
蝌	-6069
袖	-6070
肃	-6071
蚓	-6072
哨	-6073
岭	-6074
循	-6075
沾	-6076
胳	-6077
蚯	-6078
岳	-6079
胀	-6080
沪	-6081
钉	-6082
皆	-6083
喉	-6084
锤	-6085
哄	-6086
泣	-6087
瑟	-6088
烛	-6089
狡	-6090
颤	-6091
昌	-6092
览	-6093
蟑	-6094
窜	-6095
灶	-6096
蚪	-6097
毅	-6098
跤	-6099
脂	-6100
葱	-6101
铅	-6102
犬	-6103
籽	-6104
粥	-6105
钥	-6106
胶	-6107
卵	-6108
削	-6109
辨	-6110
丘	-6111
碍	-6112
绣	-6113
卢	-6114
掩	-6115
葬	-6116
纽	-6117
琦	-6118
腻	-6119
酱	-6120
顽	-6121
橙	-6122
磊	-6123
崩	-6124
遵	-6125
旨	-6126
葵	-6127
耕	-6128
塌	-6129
嚼	-6130
携	-6131
冯	-6132
劫	-6133
氛	-6134
煎	-6135
笛	-6136
瘸	-6137
蟋	-6138
浆	-6139
蝈	-6140
蟀	-6141
饶	-6142
柏	-6143
疏	-6144
拎	-6145
捆	-6146
潭	-6147
陵	-6148
斜	-6149
谨	-6150
绘	-6151
揭	-6152
颠	-6153
忌	-6154
寓	-6155
腊	-6156
嗦	-6157
寡	-6158
窄	-6159
捐	-6160
蝉	-6161
膊	-6162
冤	-6163
竿	-6164
萌	-6165
菌	-6166
虐	-6167
蹭	-6168
兹	-6169
陛	-6170
详	-6171
脉	-6172
饺	-6173
姻	-6174
押	-6175
衔	-6176
胁	-6177
蒸	-6178
熙	-6179
翩	-6180
阱	-6181
仲	-6182
译	-6183
俺	-6184
寨	-6185
筷	-6186
誓	-6187
楠	-6188
逮	-6189
拽	-6190
舰	-6191
叙	-6192
庞	-6193
鲍	-6194
燥	-6195
蚕	-6196
嘱	-6197
愚	-6198
躁	-6199
奸	-6200
炫	-6201
彭	-6202
歧	-6203
癌	-6204
谊	-6205
妞	-6206
叛	-6207
猾	-6208
莺	-6209
弥	-6210
斩	-6211
哆	-6212
砖	-6213
霞	-6214
擅	-6215
卑	-6216
彤	-6217
桔	-6218
萧	-6219
辰	-6220
旱	-6221
潘	-6222
寞	-6223
汰	-6224
皂	-6225
膝	-6226
丐	-6227
恳	-6228
裳	-6229
痕	-6230
吩	-6231
芭	-6232
佬	-6233
唷	-6234
沸	-6235
珊	-6236
棚	-6237
蝠	-6238
矩	-6239
耽	-6240
嗖	-6241
娥	-6242
瞅	-6243
闺	-6244
獾	-6245
赴	-6246
凰	-6247
卦	-6248
瘾	-6249
衫	-6250
驰	-6251
衙	-6252
鹏	-6253
颇	-6254
囊	-6255
妒	-6256
廉	-6257
挽	-6258
淇	-6259
叨	-6260
哲	-6261
宵	-6262
爵	-6263
铛	-6264
煤	-6265
姬	-6266
轿	-6267
伪	-6268
唇	-6269
帆	-6270
帚	-6271
挪	-6272
祈	-6273
罕	-6274
馨	-6275
à	-6276
垫	-6277
纱	-6278
拇	-6279
畏	-6280
鲸	-6281
膏	-6282
#	-6283
憋	-6284
黏	-6285
缴	-6286
蝙	-6287
鼎	-6288
藩	-6289
酬	-6290
斥	-6291
杖	-6292
吨	-6293
哑	-6294
驮	-6295
寝	-6296
渠	-6297
瓢	-6298
驻	-6299
丞	-6300
腔	-6301
搏	-6302
薯	-6303
锐	-6304
乙	-6305
扒	-6306
磕	-6307
昭	-6308
陋	-6309
憨	-6310
掀	-6311
牺	-6312
搁	-6313
癞	-6314
吒	-6315
矿	-6316
谣	-6317
栋	-6318
蹄	-6319
雇	-6320
咩	-6321
涵	-6322
帐	-6323
搓	-6324
稿	-6325
瓷	-6326
涕	-6327
犀	-6328
袍	-6329
逻	-6330
劣	-6331
吾	-6332
劈	-6333
戈	-6334
拓	-6335
ā	-6336
氧	-6337
肢	-6338
铲	-6339
坎	-6340
匪	-6341
坊	-6342
赠	-6343
墩	-6344
框	-6345
阁	-6346
妥	-6347
枫	-6348
讽	-6349
逸	-6350
杏	-6351
柯	-6352
艘	-6353
吟	-6354
屉	-6355
鉴	-6356
骚	-6357
桩	-6358
沫	-6359
浣	-6360
溢	-6361
郊	-6362
厄	-6363
署	-6364
婉	-6365
橱	-6366
杠	-6367
屎	-6368
搅	-6369
窃	-6370
凝	-6371
厦	-6372
拢	-6373
玺	-6374
盏	-6375
诈	-6376
谜	-6377
鸿	-6378
烘	-6379
耻	-6380
笃	-6381
晖	-6382
逝	-6383
舟	-6384
践	-6385
瞒	-6386
惰	-6387
硕	-6388
荆	-6389
颁	-6390
嫉	-6391
拱	-6392
慨	-6393
湘	-6394
奢	-6395
媚	-6396
拯	-6397
唔	-6398
敦	-6399
梢	-6400
浸	-6401
乾	-6402
嗅	-6403
屑	-6404
鸵	-6405
坟	-6406
魅	-6407
泊	-6408
觅	-6409
鳞	-6410
弦	-6411
掘	-6412
祷	-6413
庸	-6414
纺	-6415
痰	-6416
绊	-6417
篓	-6418
樊	-6419
辜	-6420
佐	-6421
噗	-6422
畜	-6423
徽	-6424
绸	-6425
禅	-6426
妨	-6427
渊	-6428
篱	-6429
馅	-6430
碟	-6431
巅	-6432
朴	-6433
衬	-6434
榴	-6435
裕	-6436
刹	-6437
魄	-6438
揪	-6439
僵	-6440
璋	-6441
禹	-6442
啼	-6443
戳	-6444
曰	-6445
蓄	-6446
蕾	-6447
辫	-6448
晰	-6449
械	-6450
贩	-6451
卸	-6452
恍	-6453
拴	-6454
璐	-6455
勋	-6456
坠	-6457
溃	-6458
卿	-6459
址	-6460
蹬	-6461
茉	-6462
礁	-6463
刊	-6464
倦	-6465
勉	-6466
杉	-6467
槐	-6468
鸥	-6469
貂	-6470
茨	-6471
蚱	-6472
挫	-6473
澈	-6474
膜	-6475
─	-6476
澄	-6477
á	-6478
搂	-6479
酿	-6480
锄	-6481
屠	-6482
晾	-6483
删	-6484
唬	-6485
桐	-6486
烊	-6487
瑜	-6488
侣	-6489
笆	-6490
曝	-6491
焰	-6492
荫	-6493
煌	-6494
蜀	-6495
妄	-6496
霜	-6497
咙	-6498
弊	-6499
沐	-6500
禾	-6501
蟒	-6502
粪	-6503
锯	-6504
嗷	-6505
蒋	-6506
盔	-6507
琼	-6508
惭	-6509
谐	-6510
窟	-6511
雯	-6512
嗳	-6513
遂	-6514
淮	-6515
甫	-6516
ǎ	-6517
瑶	-6518
豺	-6519
嘭	-6520
椎	-6521
炖	-6522
琢	-6523
檐	-6524
醋	-6525
儒	-6526
咨	-6527
喃	-6528
坪	-6529
炭	-6530
敷	-6531
凿	-6532
撼	-6533
沮	-6534
猕	-6535
巷	-6536
竭	-6537
吭	-6538
柄	-6539
睹	-6540
窦	-6541
郡	-6542
殖	-6543
缕	-6544
贬	-6545
馒	-6546
樵	-6547
淌	-6548
薛	-6549
豌	-6550
侄	-6551
/	-6552
敞	-6553
歹	-6554
梭	-6555
舱	-6556
锡	-6557
嫦	-6558
萎	-6559
骏	-6560
茎	-6561
嘶	-6562
鹃	-6563
彬	-6564
佑	-6565
肆	-6566
兑	-6567
屡	-6568
蜥	-6569
衍	-6570
躬	-6571
拘	-6572
潇	-6573
腕	-6574
嬉	-6575
兆	-6576
吆	-6577
攒	-6578
蔓	-6579
枉	-6580
跷	-6581
钳	-6582
崛	-6583
笋	-6584
霆	-6585
侃	-6586
懈	-6587
灸	-6588
崔	-6589
篷	-6590
绽	-6591
靖	-6592
俯	-6593
旭	-6594
啤	-6595
峡	-6596
滨	-6597
漉	-6598
磁	-6599
螳	-6600
酪	-6601
驳	-6602
喀	-6603
禽	-6604
甄	-6605
聆	-6606
崽	-6607
蚣	-6608
熏	-6609
蜈	-6610
妾	-6611
跺	-6612
撇	-6613
惕	-6614
惫	-6615
囱	-6616
瘤	-6617
厢	-6618
贱	-6619
鳗	-6620
婪	-6621
鹂	-6622
吏	-6623
啧	-6624
帖	-6625
槛	-6626
汹	-6627
狈	-6628
哮	-6629
唠	-6630
伶	-6631
啾	-6632
%	-6633
匈	-6634
旬	-6635
辟	-6636
亩	-6637
嗬	-6638
凄	-6639
碳	-6640
菩	-6641
隋	-6642
俏	-6643
懵	-6644
耸	-6645
衷	-6646
贞	-6647
鞠	-6648
奄	-6649
惶	-6650
渤	-6651
溅	-6652
纤	-6653
赎	-6654
蹿	-6655
淳	-6656
甸	-6657
羿	-6658
菠	-6659
隙	-6660
侮	-6661
娅	-6662
拣	-6663
耿	-6664
噔	-6665
烁	-6666
睬	-6667
墅	-6668
幢	-6669
殷	-6670
躯	-6671
棘	-6672
菱	-6673
棠	-6674
刨	-6675
噩	-6676
狒	-6677
禀	-6678
绰	-6679
鹭	-6680
浏	-6681
稚	-6682
苇	-6683
蔽	-6684
怯	-6685
讼	-6686
+	-6687
坤	-6688
履	-6689
怡	-6690
瑚	-6691
蓉	-6692
掰	-6693
瞄	-6694
驯	-6695
婿	-6696
昕	-6697
梧	-6698
佣	-6699
倡	-6700
剔	-6701
梗	-6702
蜴	-6703
陀	-6704
拂	-6705
窖	-6706
壤	-6707
疙	-6708
狭	-6709
腥	-6710
蒜	-6711
呛	-6712
啸	-6713
噼	-6714
彦	-6715
滔	-6716
茧	-6717
蕊	-6718
Y	-6719
隶	-6720
垮	-6721
刃	-6722
拧	-6723
瘩	-6724
雌	-6725
秩	-6726
肪	-6727
脊	-6728
廊	-6729
泌	-6730
茜	-6731
蛾	-6732
贿	-6733
揍	-6734
滞	-6735
缤	-6736
腮	-6737
艇	-6738
韵	-6739
粽	-6740
拌	-6741
瘫	-6742
禧	-6743
羲	-6744
舀	-6745
舜	-6746
趾	-6747
魁	-6748
尉	-6749
杈	-6750
泻	-6751
稽	-6752
è	-6753
凛	-6754
夷	-6755
瞌	-6756
雏	-6757
饲	-6758
绅	-6759
ì	-6760
椰	-6761
褐	-6762
遣	-6763
诀	-6764
锣	-6765
凸	-6766
呕	-6767
喏	-6768
萍	-6769
钦	-6770
勿	-6771
嚎	-6772
扳	-6773
揽	-6774
湛	-6775
蟾	-6776
厘	-6777
绎	-6778
跆	-6779
蹑	-6780
铭	-6781
麟	-6782
诡	-6783
骁	-6784
ī	-6785
巩	-6786
襄	-6787
冥	-6788
嚯	-6789
沼	-6790
瘟	-6791
絮	-6792
腺	-6793
俐	-6794
蔷	-6795
「	-6796
朦	-6797
栖	-6798
舆	-6799
伽	-6800
剃	-6801
ù	-6802
懊	-6803
撅	-6804
桓	-6805
犁	-6806
噪	-6807
幂	-6808
涩	-6809
囚	-6810
蔚	-6811
霖	-6812
沥	-6813
漱	-6814
宛	-6815
坝	-6816
弘	-6817
洼	-6818
窍	-6819
谭	-6820
・	-6821
俭	-6822
蚌	-6823
韧	-6824
>	-6825
囔	-6826
悍	-6827
芙	-6828
苞	-6829
茵	-6830
蜍	-6831
飙	-6832
黛	-6833
骤	-6834
鸠	-6835
袄	-6836
颂	-6837
鳖	-6838
琐	-6839
僻	-6840
寇	-6841
斌	-6842
沁	-6843
滥	-6844
垒	-6845
尧	-6846
裸	-6847
涅	-6848
砂	-6849
糯	-6850
媛	-6851
绞	-6852
蜇	-6853
鳅	-6854
亨	-6855
崭	-6856
揣	-6857
簇	-6858
胧	-6859
霄	-6860
痘	-6861
豁	-6862
钮	-6863
韬	-6864
咿	-6865
柠	-6866
粹	-6867
裔	-6868
檬	-6869
苔	-6870
骡	-6871
狄	-6872
娟	-6873
旷	-6874
穗	-6875
蛀	-6876
榆	-6877
秧	-6878
兢	-6879
栅	-6880
惟	-6881
睦	-6882
蜷	-6883
熄	-6884
诵	-6885
怂	-6886
橇	-6887
匡	-6888
掠	-6889
們	-6890
绢	-6891
跛	-6892
堤	-6893
缀	-6894
虞	-6895
镶	-6896
倚	-6897
庚	-6898
焕	-6899
煲	-6900
疤	-6901
筛	-6902
缚	-6903
冕	-6904
匣	-6905
朕	-6906
焚	-6907
碾	-6908
羹	-6909
馈	-6910
」	-6911
抠	-6912
窿	-6913
陡	-6914
ū	-6915
棺	-6916
瀑	-6917
瘪	-6918
<	-6919
刁	-6920
妍	-6921
娲	-6922
棱	-6923
膨	-6924
辘	-6925
掐	-6926
暮	-6927
脯	-6928
鹕	-6929
奕	-6930
斓	-6931
馍	-6932
孽	-6933
捋	-6934
晏	-6935
酥	-6936
晗	-6937
聋	-6938
俘	-6939
咻	-6940
鹈	-6941
í	-6942
忒	-6943
靡	-6944
侈	-6945
辖	-6946
ē	-6947
嚣	-6948
郝	-6949
哞	-6950
妓	-6951
袱	-6952
邹	-6953
凹	-6954
函	-6955
犊	-6956
猝	-6957
苟	-6958
恕	-6959
诫	-6960
鲫	-6961
昊	-6962
蘸	-6963
唰	-6964
喧	-6965
怦	-6966
浊	-6967
伺	-6968
坞	-6969
沦	-6970
畔	-6971
垄	-6972
惺	-6973
摧	-6974
沛	-6975
煞	-6976
纲	-6977
蚤	-6978
跋	-6979
冈	-6980
冉	-6981
巍	-6982
剖	-6983
呸	-6984
哉	-6985
婢	-6986
擎	-6987
疮	-6988
莽	-6989
峻	-6990
嵌	-6991
捅	-6992
蝗	-6993
咂	-6994
咆	-6995
懿	-6996
邱	-6997
ɡ	-6998
仑	-6999
虱	-7000
蛐	-7001
讥	-7002
镖	-7003
驹	-7004
惋	-7005
昧	-7006
淀	-7007
觑	-7008
鄙	-7009
饵	-7010
嗝	-7011
怼	-7012
昼	-7013
睿	-7014
绯	-7015
藻	-7016
嫣	-7017
榨	-7018
绛	-7019
蔑	-7020
轼	-7021
丙	-7022
吝	-7023
嘣	-7024
噌	-7025
屯	-7026
彪	-7027
楂	-7028
砌	-7029
這	-7030
溺	-7031
藕	-7032
偎	-7033
呻	-7034
淑	-7035
盹	-7036
赁	-7037
麒	-7038
來	-7039
侥	-7040
哐	-7041
拙	-7042
擒	-7043
谌	-7044
唾	-7045
澎	-7046
疚	-7047
粤	-7048
纣	-7049
绷	-7050
渗	-7051
猿	-7052
胥	-7053
诛	-7054
沧	-7055
獭	-7056
龚	-7057
匀	-7058
叩	-7059
禄	-7060
酋	-7061
鳓	-7062
彰	-7063
惦	-7064
昀	-7065
溶	-7066
肴	-7067
荧	-7068
镑	-7069
奠	-7070
嵩	-7071
怠	-7072
膛	-7073
臼	-7074
锹	-7075
宦	-7076
榕	-7077
祛	-7078
鑫	-7079
岔	-7080
斋	-7081
昱	-7082
暇	-7083
栓	-7084
矶	-7085
蛄	-7086
逞	-7087
哔	-7088
栈	-7089
榛	-7090
漓	-7091
蚩	-7092
谍	-7093
個	-7094
倔	-7095
哺	-7096
缉	-7097
耷	-7098
朽	-7099
毙	-7100
钞	-7101
ó	-7102
侏	-7103
卒	-7104
眶	-7105
糙	-7106
荚	-7107
踮	-7108
颉	-7109
驸	-7110
尹	-7111
矣	-7112
磋	-7113
葩	-7114
宪	-7115
昔	-7116
澜	-7117
崎	-7118
逾	-7119
钧	-7120
颊	-7121
é	-7122
捶	-7123
琉	-7124
睐	-7125
苛	-7126
虔	-7127
锈	-7128
哝	-7129
懦	-7130
挎	-7131
撮	-7132
秤	-7133
荔	-7134
逍	-7135
佟	-7136
咏	-7137
淤	-7138
淫	-7139
祀	-7140
缎	-7141
羔	-7142
诏	-7143
庵	-7144
桨	-7145
潺	-7146
盎	-7147
眷	-7148
虏	-7149
轴	-7150
阀	-7151
敖	-7152
辐	-7153
铸	-7154
ò	-7155
後	-7156
枢	-7157
磅	-7158
啬	-7159
悚	-7160
敛	-7161
渺	-7162
鳍	-7163
峭	-7164
琅	-7165
诅	-7166
阎	-7167
鲳	-7168
夭	-7169
戮	-7170
杞	-7171
焉	-7172
蔼	-7173
蜢	-7174
踱	-7175
坷	-7176
挚	-7177
摁	-7178
椭	-7179
毽	-7180
瘀	-7181
腑	-7182
芋	-7183
撩	-7184
渭	-7185
亢	-7186
搔	-7187
庐	-7188
绚	-7189
粑	-7190
ō	-7191
拭	-7192
箍	-7193
邵	-7194
剁	-7195
朔	-7196
膳	-7197
拄	-7198
祠	-7199
鹳	-7200
祟	-7201
窑	-7202
迭	-7203
鼾	-7204
呷	-7205
寥	-7206
庇	-7207
晌	-7208
汲	-7209
涎	-7210
簌	-7211
ǔ	-7212
矫	-7213
缭	-7214
蕴	-7215
诧	-7216
ú	-7217
栩	-7218
瀚	-7219
烹	-7220
萱	-7221
谏	-7222
霹	-7223
嗤	-7224
悯	-7225
曦	-7226
疹	-7227
裴	-7228
狩	-7229
瞳	-7230
莞	-7231
雍	-7232
髓	-7233
咣	-7234
峨	-7235
殃	-7236
殴	-7237
珑	-7238
蛰	-7239
邢	-7240
犄	-7241
芹	-7242
蔗	-7243
闸	-7244
霾	-7245
惬	-7246
狙	-7247
甭	-7248
霎	-7249
黯	-7250
缅	-7251
褂	-7252
襟	-7253
遏	-7254
韭	-7255
顷	-7256
仕	-7257
垛	-7258
捎	-7259
颅	-7260
榄	-7261
淅	-7262
灼	-7263
脐	-7264
裡	-7265
鼷	-7266
佗	-7267
奎	-7268
慷	-7269
撵	-7270
桧	-7271
琶	-7272
瓮	-7273
酵	-7274
鞅	-7275
倪	-7276
奚	-7277
孜	-7278
戎	-7279
ǐ	-7280
丕	-7281
扈	-7282
掺	-7283
皓	-7284
砚	-7285
箩	-7286
钙	-7287
雳	-7288
倭	-7289
凋	-7290
吠	-7291
咄	-7292
滤	-7293
漾	-7294
炙	-7295
僚	-7296
橄	-7297
秉	-7298
胤	-7299
蔺	-7300
贮	-7301
鞍	-7302
勘	-7303
徊	-7304
徘	-7305
撰	-7306
枞	-7307
湃	-7308
炕	-7309
锂	-7310
匿	-7311
姗	-7312
忡	-7313
悼	-7314
檀	-7315
簧	-7316
肘	-7317
胭	-7318
衅	-7319
說	-7320
邑	-7321
嬛	-7322
簿	-7323
冀	-7324
嬷	-7325
炊	-7326
甥	-7327
粱	-7328
	-7329
厮	-7330
睫	-7331
簸	-7332
逵	-7333
遛	-7334
鹑	-7335
嗵	-7336
噎	-7337
屹	-7338
烙	-7339
邯	-7340
隧	-7341
噻	-7342
圭	-7343
蕃	-7344
镰	-7345
霏	-7346
倘	-7347
庶	-7348
枸	-7349
珀	-7350
蛑	-7351
蝤	-7352
ě	-7353
乍	-7354
倌	-7355
剿	-7356
廖	-7357
淼	-7358
溯	-7359
荤	-7360
蚀	-7361
讳	-7362
鲻	-7363
兒	-7364
掷	-7365
柬	-7366
汝	-7367
涡	-7368
腌	-7369
鹌	-7370
怔	-7371
挟	-7372
汀	-7373
炳	-7374
碱	-7375
窸	-7376
褒	-7377
釉	-7378
匾	-7379
恺	-7380
攘	-7381
皎	-7382
窣	-7383
窥	-7384
褥	-7385
蹋	-7386
辙	-7387
啵	-7388
墟	-7389
恬	-7390
梆	-7391
殉	-7392
沽	-7393
眺	-7394
給	-7395
薰	-7396
诬	-7397
迦	-7398
酣	-7399
楞	-7400
琵	-7401
瞟	-7402
裘	-7403
褪	-7404
嗜	-7405
噬	-7406
惚	-7407
熔	-7408
硅	-7409
舵	-7410
蝎	-7411
鄂	-7412
Z	-7413
擂	-7414
昵	-7415
毋	-7416
瑕	-7417
痊	-7418
踫	-7419
阮	-7420
吮	-7421
弈	-7422
搀	-7423
柚	-7424
猥	-7425
痞	-7426
藉	-7427
踹	-7428
醇	-7429
峥	-7430
撬	-7431
涸	-7432
莴	-7433
螯	-7434
赦	-7435
桦	-7436
槌	-7437
浒	-7438
肋	-7439
嘚	-7440
垢	-7441
妲	-7442
宕	-7443
帷	-7444
癫	-7445
瞥	-7446
赃	-7447
俞	-7448
厥	-7449
樟	-7450
滕	-7451
眩	-7452
粼	-7453
辗	-7454
迢	-7455
啷	-7456
寅	-7457
晟	-7458
槃	-7459
蛏	-7460
谴	-7461
踝	-7462
鳌	-7463
麝	-7464
ǒ	-7465
嗑	-7466
坍	-7467
埂	-7468
惮	-7469
杷	-7470
歼	-7471
烨	-7472
窘	-7473
芊	-7474
芷	-7475
蒿	-7476
谕	-7477
雹	-7478
鬃	-7479
塾	-7480
岚	-7481
怏	-7482
拚	-7483
斟	-7484
於	-7485
枇	-7486
涮	-7487
缰	-7488
茁	-7489
蜒	-7490
飕	-7491
鸳	-7492
咤	-7493
屌	-7494
熠	-7495
痣	-7496
耙	-7497
鼬	-7498
恙	-7499
悻	-7500
掸	-7501
沌	-7502
涟	-7503
秆	-7504
纶	-7505
腱	-7506
芸	-7507
茬	-7508
诋	-7509
阪	-7510
馁	-7511
岐	-7512
涧	-7513
烬	-7514
猖	-7515
祯	-7516
糠	-7517
蔫	-7518
蜕	-7519
堕	-7520
杵	-7521
洽	-7522
璧	-7523
皋	-7524
翡	-7525
肮	-7526
蠕	-7527
靶	-7528
驿	-7529
髦	-7530
佼	-7531
垦	-7532
拗	-7533
烽	-7534
瓤	-7535
荀	-7536
赂	-7537
蹒	-7538
钝	-7539
黝	-7540
冢	-7541
弧	-7542
戛	-7543
毡	-7544
唏	-7545
屿	-7546
憧	-7547
憬	-7548
氓	-7549
翱	-7550
荞	-7551
蹊	-7552
闽	-7553
颐	-7554
麼	-7555
龇	-7556
仨	-7557
噶	-7558
撸	-7559
漩	-7560
瞻	-7561
辍	-7562
锥	-7563
馄	-7564
恃	-7565
煽	-7566
牟	-7567
痹	-7568
苑	-7569
饨	-7570
侨	-7571
倩	-7572
咀	-7573
撂	-7574
曳	-7575
梵	-7576
榈	-7577
淄	-7578
牦	-7579
釜	-7580
俑	-7581
慑	-7582
祁	-7583
胰	-7584
脓	-7585
迄	-7586
颍	-7587
颓	-7588
炯	-7589
眈	-7590
稠	-7591
竺	-7592
肇	-7593
驭	-7594
骼	-7595
哙	-7596
楷	-7597
濡	-7598
磷	-7599
窒	-7600
袅	-7601
讹	-7602
谗	-7603
跚	-7604
鸶	-7605
麽	-7606
囤	-7607
坨	-7608
埔	-7609
揖	-7610
暧	-7611
氢	-7612
溥	-7613
痪	-7614
瞩	-7615
稷	-7616
臊	-7617
蛟	-7618
鸯	-7619
咎	-7620
攥	-7621
桅	-7622
棣	-7623
玥	-7624
珂	-7625
粟	-7626
遢	-7627
邋	-7628
铠	-7629
靓	-7630
厩	-7631
咛	-7632
弩	-7633
抒	-7634
殆	-7635
炀	-7636
炬	-7637
珈	-7638
笠	-7639
诠	-7640
陨	-7641
兀	-7642
帜	-7643
會	-7644
沂	-7645
潍	-7646
箕	-7647
闫	-7648
髅	-7649
娴	-7650
抡	-7651
椿	-7652
瑙	-7653
癖	-7654
笙	-7655
箫	-7656
羁	-7657
鱿	-7658
匕	-7659
啕	-7660
媽	-7661
寐	-7662
蛳	-7663
谚	-7664
蹶	-7665
铝	-7666
飒	-7667
俨	-7668
哽	-7669
宓	-7670
榔	-7671
渝	-7672
濒	-7673
芜	-7674
蹴	-7675
韶	-7676
呲	-7677
喋	-7678
噫	-7679
徙	-7680
拷	-7681
梓	-7682
泾	-7683
涝	-7684
辕	-7685
醺	-7686
钗	-7687
铐	-7688
镯	-7689
饷	-7690
亵	-7691
卤	-7692
嘈	-7693
嘤	-7694
恪	-7695
悴	-7696
憔	-7697
炽	-7698
燎	-7699
畴	-7700
纬	-7701
腆	-7702
薏	-7703
阐	-7704
骷	-7705
鬣	-7706
囡	-7707
娄	-7708
怅	-7709
慜	-7710
捺	-7711
沒	-7712
涓	-7713
疵	-7714
篝	-7715
轲	-7716
郸	-7717
酌	-7718
隻	-7719
俪	-7720
掂	-7721
晦	-7722
湍	-7723
潼	-7724
稣	-7725
芥	-7726
蚜	-7727
蝽	-7728
钵	-7729
麓	-7730
嘹	-7731
囧	-7732
沓	-7733
泸	-7734
焖	-7735
皑	-7736
竣	-7737
篡	-7738
茹	-7739
蛹	-7740
骊	-7741
鬟	-7742
鸢	-7743
暨	-7744
浃	-7745
犟	-7746
琊	-7747
翟	-7748
胯	-7749
雉	-7750
黔	-7751
=	-7752
俅	-7753
偌	-7754
冶	-7755
喆	-7756
憎	-7757
汛	-7758
溉	-7759
臀	-7760
臻	-7761
褶	-7762
踉	-7763
遁	-7764
◇	-7765
噘	-7766
岑	-7767
戟	-7768
紊	-7769
蓑	-7770
伢	-7771
圃	-7772
嫖	-7773
弼	-7774
汾	-7775
狞	-7776
缪	-7777
荨	-7778
赘	-7779
跄	-7780
忐	-7781
忑	-7782
恤	-7783
恿	-7784
捍	-7785
擞	-7786
晁	-7787
矢	-7788
蟠	-7789
锚	-7790
髡	-7791
鲋	-7792
麋	-7793
×	-7794
喱	-7795
坳	-7796
樹	-7797
汕	-7798
瑾	-7799
聂	-7800
袒	-7801
譬	-7802
铮	-7803
霓	-7804
饪	-7805
魟	-7806
峙	-7807
杳	-7808
歆	-7809
汩	-7810
疡	-7811
瘴	-7812
稞	-7813
缙	-7814
膑	-7815
藓	-7816
蛊	-7817
褚	-7818
褴	-7819
锭	-7820
锵	-7821
陇	-7822
偃	-7823
卯	-7824
唳	-7825
嗥	-7826
姣	-7827
扼	-7828
泷	-7829
谩	-7830
亥	-7831
卞	-7832
嫚	-7833
忖	-7834
昙	-7835
烩	-7836
缆	-7837
苣	-7838
诣	-7839
谪	-7840
遐	-7841
還	-7842
靳	-7843
岖	-7844
崴	-7845
忿	-7846
揩	-7847
時	-7848
眸	-7849
瞿	-7850
砺	-7851
耘	-7852
蛎	-7853
谬	-7854
迸	-7855
骇	-7856
呤	-7857
孓	-7858
弛	-7859
枭	-7860
氪	-7861
泞	-7862
潦	-7863
竽	-7864
藿	-7865
蛆	-7866
诲	-7867
踵	-7868
锃	-7869
雎	-7870
骸	-7871
悸	-7872
琨	-7873
瑁	-7874
萦	-7875
褛	-7876
轱	-7877
铎	-7878
镬	-7879
劾	-7880
嗣	-7881
抿	-7882
渍	-7883
缔	-7884
薩	-7885
蝼	-7886
袈	-7887
裟	-7888
跻	-7889
隘	-7890
雞	-7891
仃	-7892
坂	-7893
惆	-7894
拈	-7895
掳	-7896
擀	-7897
桀	-7898
淙	-7899
炅	-7900
琰	-7901
砥	-7902
硝	-7903
谤	-7904
迂	-7905
逖	-7906
酝	-7907
開	-7908
飓	-7909
忏	-7910
斐	-7911
漪	-7912
灞	-7913
煦	-7914
盅	-7915
秽	-7916
绮	-7917
阂	-7918
骋	-7919
鲢	-7920
廓	-7921
桠	-7922
泫	-7923
澹	-7924
矗	-7925
腼	-7926
膺	-7927
讪	-7928
颌	-7929
鲛	-7930
鹫	-7931
佃	-7932
渲	-7933
璇	-7934
芍	-7935
萃	-7936
谛	-7937
轧	-7938
遨	-7939
闵	-7940
阜	-7941
馊	-7942
°	-7943
呶	-7944
唆	-7945
帼	-7946
忪	-7947
忻	-7948
掬	-7949
汐	-7950
缇	-7951
聽	-7952
胚	-7953
芪	-7954
诩	-7955
阙	-7956
鞘	-7957
鲧	-7958
岱	-7959
抨	-7960
摞	-7961
槟	-7962
璀	-7963
璨	-7964
辄	-7965
過	-7966
饯	-7967
髯	-7968
鳝	-7969
剐	-7970
妳	-7971
愕	-7972
汴	-7973
漳	-7974
瓴	-7975
硫	-7976
绫	-7977
苓	-7978
逅	-7979
邂	-7980
鹬	-7981
伎	-7982
勐	-7983
姒	-7984
孪	-7985
毓	-7986
渎	-7987
滿	-7988
為	-7989
狰	-7990
