<pad>	0
<unk>	0
<s>	0
</s>	0
[PAD]	0
[UNK]	0
[CLS]	0
[SEP]	0
[MASK]	0
▁*	-0
""	-1
$$	-2
CH	-3
ER	-4
IL	-5
ILD	-6
CHILD	-7
TA	-8
ET	-9
RG	-10
RGET	-11
TARGET	-12
TH	-13
THER	-14
OTHER	-15
MOTHER	-16
▁我	-17
▁"	-18
▁这	-19
▁你	-20
一个	-21
什么	-22
▁是	-23
就是	-24
。""	-25
:""	-26
。"	-27
TI	-28
}$$	-29
VE	-30
没有	-31
AT	-32
OR	-33
IN	-34
GAT	-35
STI	-36
INVE	-37
GATOR	-38
INVESTI	-39
INVESTIGATOR	-40
$$\	-41
{{	-42
▁了	-43
我们	-44
▁他	-45
xx	-46
▁嗯	-47
可以	-48
然后	-49
}}	-50
▁那	-51
▁的	-52
▁\	-53
▁一	-54
▁好	-55
自己	-56
▁个	-57
这个	-58
▁不	-59
妈妈	-60
▁小	-61
▁对	-62
in	-63
EA	-64
TEA	-65
CHER	-66
TEACHER	-67
!""	-68
知道	-69
en	-70
不是	-71
时候	-72
答案	-73
▁有	-74
怎么	-75
{2	-76
他们	-77
..	-78
哈哈	-79
er	-80
▁啊	-81
喜欢	-82
ra	-83
▁在	-84
▁A	-85
现在	-86
rac	-87
frac	-88
▁B	-89
▁然后	-90
▁C	-91
▁就	-92
因为	-93
了一	-94
▁看	-95
还是	-96
▁答案	-97
题干	-98
的是	-99
▁$$	-100
le	-101
觉得	-102
那个	-103
lin	-104
line	-105
起来	-106
erline	-107
xxx	-108
▁xxx	-109
还有	-110
▁D	-111
选项	-112
an	-113
▁什么	-114
但是	-115
正确	-116
▁""	-117
到了	-118
▁解	-119
ri	-120
$$,	-121
?""	-122
rm	-123
所以	-124
这样	-125
▁$$\	-126
▁要	-127
{1	-128
▁解析	-129
}_	-130
朋友	-131
也是	-132
的时候	-133
中国	-134
gh	-135
我的	-136
ght	-137
▁大	-138
right	-139
爸爸	-140
}{	-141
AD	-142
出来	-143
▁)	-144
}^	-145
都是	-146
UL	-147
ULT	-148
ADULT	-149
的小	-150
可能	-151
的人	-152
真的	-153
可是	-154
时间	-155
他的	-156
孩子	-157
▁选项	-158
的一	-159
▁它	-160
东西	-161
...	-162
也不	-163
ao	-164
有一	-165
▁我们	-166
▁$	-167
▁呢	-168
ft	-169
已经	-170
,""	-171
▁来	-172
me	-173
比赛	-174
故事	-175
这么	-176
▁n	-177
left	-178
如果	-179
▁到	-180
一定	-181
需要	-182
开始	-183
ai	-184
很多	-185
▁z	-186
▁说	-187
你好	-188
▁哦	-189
ent	-190
▁y	-191
▁1	-192
ma	-193
cent	-194
centerline	-195
错误	-196
自己的	-197
一起	-198
不能	-199
应该	-200
▁b	-201
感觉	-202
▁还	-203
大家	-204
{2}}	-205
这些	-206
运动	-207
20	-208
.$$	-209
一样	-210
▁哈哈	-211
生活	-212
里面	-213
因此	-214
▁上	-215
来了	-216
▁嗯嗯	-217
▁下	-218
▁去	-219
=\	-220
大的	-221
do	-222
FA	-223
其实	-224
不过	-225
FATHER	-226
好的	-227
比较	-228
上的	-229
{2}	-230
今天	-231
发现	-232
看到	-233
."	-234
▁也	-235
而且	-236
un	-237
{{{	-238
▁吃	-239
非常	-240
世界	-241
的话	-242
你们	-243
电影	-244
是一	-245
▁故	-246
und	-247
}$$,	-248
ei	-249
人的	-250
underline	-251
▁s	-252
那么	-253
▁呀	-254
▁给	-255
两个	-256
不会	-257
▁就是	-258
一下	-259
动物	-260
中的	-261
一点	-262
这种	-263
走了	-264
▁x	-265
拜拜	-266
th	-267
▁h	-268
▁妈妈	-269
▁把	-270
国家	-271
{}$$	-272
▁d	-273
特别	-274
最近	-275
▁是啊	-276
ti	-277
再见	-278
▁他们	-279
青蛙	-280
老师	-281
▁(	-282
问题	-283
▁2	-284
dot	-285
发展	-286
新闻	-287
$$1	-288
通过	-289
它们	-290
主要	-291
不好	-292
地方	-293
这是	-294
▁没	-295
4.	-296
00	-297
为什么	-298
▁怎么	-299
▁你好	-300
▁讲	-301
下来	-302
狐狸	-303
发生	-304
▁没有	-305
你的	-306
以后	-307
▁sh	-308
--	-309
为了	-310
la	-311
太阳	-312
第一	-313
ang	-314
去了	-315
的大	-316
time	-317
times	-318
}_{	-319
影响	-320
百分	-321
▁都	-322
▁会	-323
AN	-324
看看	-325
老鼠	-326
最后	-327
一只	-328
事情	-329
物体	-330
一直	-331
ar	-332
好像	-333
社会	-334
"",	-335
苹果	-336
}\	-337
进行	-338
▁zh	-339
一些	-340
不同	-341
我就	-342
end	-343
公司	-344
百分之	-345
$${	-346
▁还有	-347
作用	-348
}^{2}}	-349
关系	-350
原来	-351
于是	-352
眼睛	-353
第二	-354
那种	-355
工作	-356
里的	-357
▁对啊	-358
不知道	-359
色的	-360
出了	-361
肯定	-362
之前	-363
希望	-364
高兴	-365
▁吗	-366
▁故选	-367
厉害	-368
▁拿	-369
ou	-370
思考	-371
我觉得	-372
关注	-373
▁所以	-374
这一	-375
速度	-376
▁a	-377
▁g	-378
▁哎	-379
▁想	-380
▁只	-381
二十	-382
虽然	-383
math	-384
看见	-385
告诉	-386
根据	-387
子的	-388
1.	-389
▁很	-390
之后	-391
▁喔	-392
有的	-393
sq	-394
▁玩	-395
声音	-396
手机	-397
▁可以	-398
地说	-399
看了	-400
$${{	-401
不要	-402
{\	-403
我也	-404
确实	-405
这里	-406
会儿	-407
▁当	-408
▁吧	-409
成了	-410
▁人	-411
0$$	-412
▁但是	-413
重要	-414
结果	-415
▁因为	-416
过来	-417
植物	-418
rt	-419
意思	-420
sqrt	-421
-1	-422
一天	-423
▁爸爸	-424
{3	-425
那些	-426
fla	-427
flag	-428
endflag	-429
回家	-430
环境	-431
2$$	-432
▁哪	-433
经济	-434
不错	-435
3.	-436
每天	-437
表示	-438
突然	-439
好了	-440
兔子	-441
有点	-442
后来	-443
▁里	-444
游戏	-445
▁en	-446
出现	-447
人们	-448
mathrm	-449
ta	-450
==	-451
▁ni	-452
▁从	-453
{1}	-454
以前	-455
=1	-456
▁c	-457
变化	-458
同学	-459
▁这样	-460
▁着	-461
足球	-462
就会	-463
▁这个	-464
先生	-465
反应	-466
只有	-467
!"	-468
▁现在	-469
细胞	-470
学生	-471
▁w	-472
方面	-473
过程	-474
真是	-475
▁可	-476
森林	-477
材料	-478
爷爷	-479
漂亮	-480
市场	-481
+\	-482
}{{{	-483
姐姐	-484
说法	-485
▁再	-486
身体	-487
属于	-488
生物	-489
听说	-490
晚上	-491
办法	-492
部分	-493
一次	-494
美国	-495
学习	-496
了一个	-497
咱们	-498
它的	-499
ro	-500
其他	-501
ji	-502
来的	-503
|$$\	-504
谢谢	-505
情况	-506
能够	-507
▁le	-508
▁知道	-509
▁$\	-510
给我	-511
▁本	-512
▁青蛙	-513
电视	-514
▁放	-515
正在	-516
2.	-517
信息	-518
有一个	-519
奶奶	-520
我是	-521
都不	-522
二零	-523
▁打	-524
别人	-525
下列	-526
方向	-527
篮球	-528
▁好的	-529
准备	-530
空气	-531
质量	-532
当时	-533
}}_	-534
▁,	-535
直接	-536
之间	-537
只是	-538
▁又	-539
个人	-540
上了	-541
过去	-542
睡觉	-543
看着	-544
学校	-545
容易	-546
▁3	-547
关于	-548
一边	-549
这次	-550
使用	-551
GR	-552
▁k	-553
AND	-554
衣服	-555
GRAND	-556
XX	-557
产生	-558
不到	-559
终于	-560
表现	-561
▁这里	-562
能力	-563
了解	-564
子里	-565
▁狗	-566
出去	-567
许多	-568
来到	-569
地球	-570
▁啦	-571
实验	-572
""。	-573
回来	-574
row	-575
▁猫	-576
arrow	-577
地上	-578
...""	-579
是一个	-580
真的是	-581
宝宝	-582
技术	-583
▁$${	-584
5$$	-585
我要	-586
$$,$$	-587
文化	-588
物质	-589
-\	-590
一般	-591
自然	-592
▁哈哈哈	-593
+1	-594
心里	-595
多的	-596
决定	-597
0.	-598
▁做	-599
或者	-600
▁她	-601
▁家	-602
▁谁	-603
的故事	-604
3$$	-605
我们的	-606
方法	-607
▁但	-608
美丽	-609
▁飞	-610
有人	-611
成为	-612
国王	-613
人民	-614
▁跟	-615
认为	-616
越来	-617
平时	-618
其中	-619
才能	-620
越来越	-621
妖怪	-622
选择	-623
回答	-624
继续	-625
答案是	-626
人家	-627
▁是不是	-628
保护	-629
▁水	-630
条件	-631
三个	-632
一个人	-633
▁如果	-634
颜色	-635
▁和	-636
变成	-637
想到	-638
她的	-639
4$$	-640
这样的	-641
哥哥	-642
▁掉	-643
ge	-644
研究	-645
同时	-646
小熊	-647
年的	-648
▁阿	-649
开心	-650
样子	-651
cdot	-652
活动	-653
好多	-654
具有	-655
了吗	-656
▁长	-657
说的	-658
▁今天	-659
符合	-660
▁干	-661
后面	-662
快乐	-663
▁用	-664
食物	-665
▁三	-666
很好	-667
主人	-668
老虎	-669
存在	-670
毕竟	-671
▁完	-672
我还	-673
{1}{	-674
只要	-675
▁其实	-676
▁是的	-677
''	-678
开了	-679
姑娘	-680
基本	-681
}$	-682
一看	-683
由于	-684
方式	-685
起了	-686
知识	-687
家里	-688
人类	-689
猴子	-690
rightarrow	-691
让我	-692
要求	-693
先走了	-694
现象	-695
▁大象	-696
ov	-697
一种	-698
观察	-699
这时	-700
房子	-701
记得	-702
给你	-703
▁bu	-704
安全	-705
▁多	-706
得到	-707
▁l	-708
溶液	-709
正确答案是	-710
题目	-711
形成	-712
▁哇	-713
。""""	-714
说明	-715
在看	-716
系统	-717
有什么	-718
找到	-719
的地方	-720
以为	-721
科学	-722
GRANDMOTHER	-723
▁听	-724
儿子	-725
有个	-726
10	-727
▁拜拜	-728
几个	-729
▁而	-730
帮助	-731
慢慢	-732
注意	-733
▁过	-734
增加	-735
企业	-736
历史	-737
利用	-738
是不是	-739
作为	-740
了吧	-741
种子	-742
▁ji	-743
▁xi	-744
▁东西	-745
一会儿	-746
判断	-747
都会	-748
▁快	-749
▁4	-750
经常	-751
不得	-752
不对	-753
uo	-754
小的	-755
蚂蚁	-756
只能	-757
=2	-758
不了	-759
▁ch	-760
长的	-761
正确的是	-762
公主	-763
氧化	-764
身边	-765
必须	-766
▁天	-767
看过	-768
▁里面	-769
松鼠	-770
▁可是	-771
相同	-772
▁能	-773
总是	-774
着一	-775
导致	-776
城市	-777
的事	-778
包括	-779
结构	-780
)$$	-781
身上	-782
分析	-783
相关	-784
.$$\	-785
是个	-786
月亮	-787
▁那个	-788
有些	-789
进了	-790
名字	-791
考查	-792
主义	-793
over	-794
▁两	-795
原因	-796
12	-797
▁{{	-798
▁妖怪	-799
经过	-800
看的	-801
我国	-802
我不	-803
住了	-804
三十	-805
努力	-806
马上	-807
内容	-808
▁q	-809
今年	-810
小白	-811
反正	-812
overrightarrow	-813
的东西	-814
也没有	-815
的一个	-816
要是	-817
都有	-818
以及	-819
题意	-820
尾巴	-821
-2	-822
▁得	-823
▁下列	-824
了起来	-825
健康	-826
生气	-827
医生	-828
▁走	-829
对于	-830
▁树	-831
教育	-832
参加	-833
我想	-834
汽车	-835
改变	-836
es	-837
认识	-838
所有	-839
ng	-840
就像	-841
是在	-842
十分	-843
温度	-844
201	-845
多少	-846
有关	-847
位置	-848
垃圾	-849
是什么	-850
亿元	-851
各种	-852
生产	-853
他们的	-854
完全	-855
你知道	-856
),	-857
}_{1	-858
▁{	-859
小猪	-860
比如	-861
.(	-862
可知	-863
听到	-864
狮子	-865
测量	-866
▁shi	-867
弟弟	-868
设计	-869
▁苹果	-870
▁ma	-871
▁ba	-872
面的	-873
▁zhei	-874
分别	-875
就在	-876
▁找	-877
进入	-878
精神	-879
一条	-880
▁对呀	-881
受到	-882
无法	-883
}=	-884
▁让	-885
就不	-886
状态	-887
新的	-888
BL	-889
sin	-890
下的	-891
▁边	-892
ANK	-893
▁那么	-894
BLANK	-895
实现	-896
出的	-897
在一起	-898
pi	-899
下了	-900
获得	-901
数据	-902
也有	-903
过了	-904
来说	-905
那里	-906
▁t	-907
生命	-908
大了	-909
▁好不好	-910
▁有没有	-911
根本	-912
消息	-913
害怕	-914
6$$	-915
吃的	-916
你说	-917
当然	-918
坐在	-919
都在	-920
不起	-921
▁真	-922
样的	-923
投资	-924
赶紧	-925
好好	-926
哪里	-927
带着	-928
这部	-929
也很	-930
可爱	-931
+2	-932
上去	-933
}=\	-934
放在	-935
▁跑	-936
_{	-937
?""""	-938
相信	-939
进去	-940
和小	-941
肚子	-942
明白	-943
多了	-944
理解	-945
冠军	-946
也没	-947
▁故事	-948
政府	-949
}_{1}}	-950
▁叫	-951
提供	-952
▁看看	-953
▁先	-954
科技	-955
全国	-956
▁m	-957
力的	-958
回到	-959
你看	-960
极了	-961
是否	-962
男孩	-963
成功	-964
的电	-965
▁孩	-966
▁洗	-967
旁边	-968
▁哪里	-969
▁球	-970
}^{	-971
$,	-972
▁+	-973
如何	-974
成的	-975
星星	-976
▁为什么	-977
下去	-978
提高	-979
阳光	-980
说话	-981
不行	-982
几天	-983
上面	-984
▁=	-985
年轻	-986
听了	-987
▁yi	-988
▁起来	-989
▁我觉得	-990
▁的时候	-991
$$2	-992
co	-993
女孩	-994
机会	-995
减少	-996
我看	-997
水平	-998
服务	-999
就要	-1000
你是	-1001
▁中	-1002
距离	-1003
▁而且	-1004
ir	-1005
喜欢看	-1006
不断	-1007
国际	-1008
你好啊	-1009
朋友们	-1010
路上	-1011
还要	-1012
!""""	-1013
体育	-1014
▁不是	-1015
女儿	-1016
di	-1017
▁我是	-1018
外面	-1019
直线	-1020
我都	-1021
▁喜欢	-1022
刚才	-1023
▁you	-1024
见了	-1025
蝴蝶	-1026
妹妹	-1027
任何	-1028
高的	-1029
▁等	-1030
球员	-1031
▁阿姨	-1032
父亲	-1033
十二	-1034
房间	-1035
北京	-1036
变得	-1037
死了	-1038
来看	-1039
家的	-1040
回去	-1041
奇怪	-1042
不仅	-1043
甚至	-1044
8$$	-1045
二零一	-1046
产品	-1047
目前	-1048
是一种	-1049
的啊	-1050
BA	-1051
分子	-1052
每次	-1053
▁最	-1054
做的	-1055
乌龟	-1056
▁再见	-1057
很快	-1058
兄弟	-1059
日本	-1060
▁不过	-1061
▁本题	-1062
耳朵	-1063
说了	-1064
过程中	-1065
就可以	-1066
结合	-1067
传播	-1068
忽然	-1069
发布	-1070
cos	-1071
功能	-1072
清楚	-1073
你也	-1074
小心	-1075
▁老	-1076
行为	-1077
分钟	-1078
愿意	-1079
增长	-1080
的声音	-1081
▁|	-1082
量的	-1083
排除	-1084
~~	-1085
有一天	-1086
大学	-1087
时代	-1088
是因为	-1089
生长	-1090
)=	-1091
消费	-1092
天气	-1093
萝卜	-1094
▁hu	-1095
▁自己	-1096
一步	-1097
聪明	-1098
▁像	-1099
第二天	-1100
石头	-1101
▁手	-1102
刚刚	-1103
▁hao	-1104
+{{	-1105
一定要	-1106
方程	-1107
▁出来	-1108
气体	-1109
地区	-1110
鼻子	-1111
整个	-1112
▁你们	-1113
}_{2}}	-1114
也会	-1115
天空	-1116
都没有	-1117
接着	-1118
显示	-1119
▁太	-1120
实力	-1121
站在	-1122
be	-1123
一百	-1124
第三	-1125
No	-1126
管理	-1127
小兔	-1128
^{2}	-1129
保持	-1130
欢迎	-1131
不可	-1132
一块	-1133
生态	-1134
还没	-1135
▁5	-1136
只好	-1137
小白兔	-1138
很有	-1139
不知	-1140
价格	-1141
稳定	-1142
民族	-1143
十五	-1144
1$$	-1145
除了	-1146
美丽的	-1147
完了	-1148
有了	-1149
哈哈哈	-1150
怎么样	-1151
▁是呀	-1152
他说	-1153
ing	-1154
政策	-1155
在这	-1156
成绩	-1157
自由	-1158
嘴巴	-1159
用的	-1160
▁画	-1161
让人	-1162
小时	-1163
电话	-1164
轻轻	-1165
控制	-1166
正常	-1167
更加	-1168
感到	-1169
资源	-1170
()	-1171
春天	-1172
翅膀	-1173
最大	-1174
▁==	-1175
基础	-1176
函数	-1177
的好	-1178
▁\\	-1179
支持	-1180
只小	-1181
▁一下	-1182
答案为	-1183
刺猬	-1184
▁"*	-1185
幸福	-1186
▁呃	-1187
坚持	-1188
随着	-1189
}}$$	-1190
▁花	-1191
BC	-1192
▁对不对	-1193
遇到	-1194
通常	-1195
▁).	-1196
所有的	-1197
适合	-1198
球队	-1199
基因	-1200
▁飞机	-1201
19	-1202
把它	-1203
树上	-1204
▁坐	-1205
一片	-1206
长得	-1207
:$$	-1208
叶子	-1209
宝贝	-1210
▁wo	-1211
完成	-1212
的那个	-1213
昨天	-1214
了个	-1215
全部	-1216
打开	-1217
桌子	-1218
的事情	-1219
他就	-1220
冬天	-1221
医院	-1222
▁根据	-1223
形状	-1224
电视剧	-1225
给他	-1226
}$$."	-1227
的比赛	-1228
建设	-1229
大小	-1230
思想	-1231
▁马	-1232
实际	-1233
简直	-1234
▁真的	-1235
▁后来	-1236
吃饭	-1237
简单	-1238
还在	-1239
一声	-1240
eng	-1241
句话	-1242
她们	-1243
的样子	-1244
那你	-1245
满了	-1246
看来	-1247
正确的	-1248
已知	-1249
特点	-1250
▁你也	-1251
_2	-1252
伙伴	-1253
每个	-1254
▁需要	-1255
ant	-1256
div	-1257
报道	-1258
父母	-1259
颈鹿	-1260
体现	-1261
更多	-1262
▁开	-1263
代表	-1264
处理	-1265
吃了	-1266
▁二	-1267
irc	-1268
sl	-1269
去看	-1270
都要	-1271
▁红	-1272
不住	-1273
蜜蜂	-1274
都很	-1275
▁点	-1276
qsl	-1277
qslant	-1278
▁被	-1279
结束	-1280
circ	-1281
是我	-1282
的那	-1283
▁还是	-1284
▁∴	-1285
他在	-1286
心的	-1287
国的	-1288
离开	-1289
▁.	-1290
休息	-1291
▁为	-1292
我说	-1293
,$$	-1294
想要	-1295
、$$	-1296
面前	-1297
能量	-1298
因素	-1299
工具	-1300
娃娃	-1301
单位	-1302
就能	-1303
母亲	-1304
▁四	-1305
元素	-1306
▁这么	-1307
全球	-1308
▁那你	-1309
0$$,	-1310
如此	-1311
跟着	-1312
并不	-1313
▁我也	-1314
▁de	-1315
小猴	-1316
满足	-1317
人员	-1318
▁谢谢	-1319
解决	-1320
▁弄	-1321
制度	-1322
疫情	-1323
▁da	-1324
小花	-1325
体的	-1326
价值	-1327
早上	-1328
电流	-1329
行业	-1330
十一	-1331
实在	-1332
段时间	-1333
▁F	-1334
就把	-1335
大声	-1336
笑着	-1337
他是	-1338
组织	-1339
山羊	-1340
▁哈	-1341
木头	-1342
是指	-1343
期待	-1344
▁本题考查	-1345
不同的	-1346
▁睡觉	-1347
▁同	-1348
}}^	-1349
场比赛	-1350
别的	-1351
前面	-1352
日子	-1353
本题	-1354
给了	-1355
呼吸	-1356
下面	-1357
我去	-1358
不太	-1359
的水	-1360
大象	-1361
明天	-1362
符合题意	-1363
的时间	-1364
羽毛	-1365
$$.	-1366
玻璃	-1367
电子	-1368
会有	-1369
▁f	-1370
我在	-1371
▁1.	-1372
怎么办	-1373
有没有	-1374
动物们	-1375
面上	-1376
共同	-1377
演的	-1378
正好	-1379
在水	-1380
一阵	-1381
▁出	-1382
Yes	-1383
喜欢的	-1384
ph	-1385
之间的	-1386
▁猪	-1387
说是	-1388
一刻	-1389
性的	-1390
天天	-1391
一位	-1392
}}_2	-1393
运动员	-1394
(1	-1395
不停	-1396
土壤	-1397
计算	-1398
压力	-1399
中国的	-1400
al	-1401
34	-1402
制作	-1403
那样	-1404
▁男	-1405
,$$\	-1406
小鸟	-1407
竟然	-1408
▁张	-1409
不用	-1410
▁行	-1411
掉了	-1412
▁-	-1413
不多	-1414
可能是	-1415
严重	-1416
▁头	-1417
一年	-1418
▁诶	-1419
森林里	-1420
时期	-1421
化学	-1422
悄悄	-1423
不然	-1424
好吧	-1425
政治	-1426
真正	-1427
很喜欢	-1428
数的	-1429
好看	-1430
特征	-1431
用于	-1432
▁噢	-1433
去找	-1434
哪儿	-1435
$$1$$	-1436
脑袋	-1437
兴趣	-1438
达到	-1439
出来了	-1440
事儿	-1441
不变	-1442
分享	-1443
本来	-1444
西瓜	-1445
走到	-1446
改革	-1447
文章	-1448
光的	-1449
演员	-1450
美元	-1451
公鸡	-1452
类的	-1453
'''	-1454
不想	-1455
考虑	-1456
说完	-1457
没想到	-1458
可惜	-1459
第一次	-1460
▁由	-1461
专业	-1462
水的	-1463
哪个	-1464
明星	-1465
0\	-1466
礼物	-1467
国内	-1468
tri	-1469
五十	-1470
了啊	-1471
小猫	-1472
银行	-1473
{1}{2}	-1474
我知道	-1475
合作	-1476
教练	-1477
▁并	-1478
定的	-1479
▁带	-1480
应该是	-1481
还挺	-1482
金属	-1483
▁ai	-1484
阅读	-1485
▁e	-1486
意义	-1487
标准	-1488
小老鼠	-1489
的花	-1490
的家	-1491
ol	-1492
相互	-1493
表达	-1494
0{	-1495
接受	-1496
▁书	-1497
▁以	-1498
是谁	-1499
中心	-1500
],	-1501
▁唉	-1502
▁你好啊	-1503
.2	-1504
计划	-1505
大家都	-1506
网络	-1507
节目	-1508
平衡	-1509
▁这些	-1510
超过	-1511
$$3	-1512
试题	-1513
)\	-1514
了呢	-1515
老人	-1516
▁qi	-1517
游泳	-1518
不少	-1519
▁一个	-1520
ch	-1521
▁na	-1522
{4	-1523
面积	-1524
主要是	-1525
▁倒	-1526
南方	-1527
▁则	-1528
唱歌	-1529
有很多	-1530
▁跳	-1531
原子	-1532
不管	-1533
吸引	-1534
▁地	-1535
华为	-1536
永远	-1537
关键	-1538
灰狼	-1539
爱的	-1540
笑了	-1541
出来的	-1542
都没	-1543
▁熊	-1544
对对	-1545
物体的	-1546
哪些	-1547
音乐	-1548
▁ta	-1549
项目	-1550
两只	-1551
▁ya	-1552
担心	-1553
点儿	-1554
angle	-1555
学会	-1556
味道	-1557
还能	-1558
ui	-1559
住在	-1560
都能	-1561
ca	-1562
2)	-1563
件事	-1564
到底	-1565
生的	-1566
▁哦哦	-1567
立刻	-1568
加入	-1569
▁。	-1570
项是	-1571
的影响	-1572
一个小	-1573
仔细	-1574
居然	-1575
训练	-1576
{5	-1577
""""	-1578
范围	-1579
建立	-1580
漂亮的	-1581
变成了	-1582
孩子们	-1583
之一	-1584
▁大家	-1585
▁题目	-1586
}$$.	-1587
跑到	-1588
面包	-1589
▁确实	-1590
平均	-1591
组成	-1592
动的	-1593
在了	-1594
很久	-1595
▁睡	-1596
力量	-1597
}+\	-1598
的生活	-1599
体积	-1600
月二十	-1601
工程	-1602
▁请	-1603
让他	-1604
好朋友	-1605
}{3	-1606
▁觉得	-1607
发挥	-1608
看不	-1609
介绍	-1610
▁gei	-1611
得很	-1612
电脑	-1613
.1	-1614
氧气	-1615
爸爸妈妈	-1616
门口	-1617
优秀	-1618
▁中国	-1619
相对	-1620
▁每	-1621
》,	-1622
寻找	-1623
含有	-1624
▁颜色	-1625
了一下	-1626
只见	-1627
NBA	-1628
方便	-1629
无论	-1630
pha	-1631
▁di	-1632
RE	-1633
得了	-1634
还不	-1635
下次	-1636
危险	-1637
资讯	-1638
发出	-1639
习惯	-1640
绿色	-1641
}}=	-1642
精彩	-1643
蜗牛	-1644
坏了	-1645
经历	-1646
动了	-1647
超级	-1648
什么的	-1649
下降	-1650
试题信息	-1651
你要	-1652
看到了	-1653
▁当然	-1654
你就	-1655
的心	-1656
传统	-1657
难道	-1658
▁me	-1659
alpha	-1660
皇帝	-1661
资金	-1662
▁别	-1663
一家	-1664
舒服	-1665
▁好像	-1666
王子	-1667
道理	-1668
不敢	-1669
是啊	-1670
^2	-1671
星期	-1672
乌鸦	-1673
▁ei	-1674
$$2$$	-1675
▁高	-1676
蘑菇	-1677
鸭子	-1678
球的	-1679
)$$,	-1680
▁新	-1681
尤其	-1682
葡萄	-1683
生日	-1684
天上	-1685
怎样	-1686
世界上	-1687
明显	-1688
蛋白	-1689
的主要	-1690
出一	-1691
首先	-1692
三角	-1693
四个	-1694
妈妈说	-1695
形式	-1696
恢复	-1697
飞机	-1698
原来是	-1699
数字	-1700
▁五	-1701
似的	-1702
按照	-1703
现在的	-1704
普通	-1705
还没有	-1706
小狗	-1707
我和	-1708
革命	-1709
选手	-1710
未来	-1711
-3	-1712
不错的	-1713
心想	-1714
the	-1715
▁帮	-1716
四十	-1717
视频	-1718
那边	-1719
叔叔	-1720
点点	-1721
也可以	-1722
我也是	-1723
▁皮	-1724
▁故答案为	-1725
,1	-1726
等于	-1727
以来	-1728
需求	-1729
uai	-1730
▁孩儿	-1731
小松鼠	-1732
▁这是	-1733
拿着	-1734
▁判断	-1735
▁白	-1736
▁6	-1737
的最	-1738
▁没错	-1739
从来	-1740
的吗	-1741
还会	-1742
一下子	-1743
不一样	-1744
值得	-1745
描述	-1746
才是	-1747
物理	-1748
估计	-1749
,[	-1750
受伤	-1751
树叶	-1752
中医	-1753
数量	-1754
蛋糕	-1755
7$$	-1756
污染	-1757
起来了	-1758
伤心	-1759
地问	-1760
说着	-1761
接触	-1762
ong	-1763
▁七	-1764
头上	-1765
小兔子	-1766
▁据	-1767
开放	-1768
大树	-1769
财经	-1770
▁喝	-1771
不容易	-1772
周期	-1773
工业	-1774
{3}	-1775
可能会	-1776
人都	-1777
准确	-1778
读书	-1779
▁mei	-1780
夏天	-1781
的手	-1782
or	-1783
认真	-1784
妻子	-1785
是吧	-1786
挺好的	-1787
英雄	-1788
比如说	-1789
九年	-1790
还可以	-1791
动作	-1792
太太	-1793
美的	-1794
例如	-1795
病毒	-1796
我感觉	-1797
▁kan	-1798
生成	-1799
建议	-1800
anr	-1801
听见	-1802
小姐	-1803
帽子	-1804
空间	-1805
说不	-1806
蜘蛛	-1807
是由	-1808
一千	-1809
吓得	-1810
$$3$$	-1811
想着	-1812
.""	-1813
曾经	-1814
机构	-1815
面对	-1816
el	-1817
资本	-1818
你在	-1819
制造	-1820
真的很	-1821
的新闻	-1822
▁即	-1823
是有	-1824
鸡蛋	-1825
名的	-1826
物的	-1827
基金	-1828
9$$	-1829
机器	-1830
阶段	-1831
}^\	-1832
一定会	-1833
▁lai	-1834
空中	-1835
▁也是	-1836
▁老师	-1837
重要的	-1838
重新	-1839
▁哎呀	-1840
最大的	-1841
社会主义	-1842
而是	-1843
答应	-1844
躺在	-1845
(\	-1846
左右	-1847
着急	-1848
多么	-1849
度的	-1850
事件	-1851
出门	-1852
调整	-1853
▁好吧	-1854
这么多	-1855
要去	-1856
西安	-1857
乒乓	-1858
从而	-1859
▁上面	-1860
利于	-1861
作者	-1862
树林	-1863
吸收	-1864
周围	-1865
▁与	-1866
这儿	-1867
用了	-1868
网球	-1869
智能	-1870
第一个	-1871
具体	-1872
好啊	-1873
后的	-1874
岩石	-1875
一把	-1876
故选	-1877
持续	-1878
交通	-1879
很大	-1880
的高	-1881
▁买	-1882
无聊	-1883
玩儿	-1884
确定	-1885
一定是	-1886
一切	-1887
逐渐	-1888
的发展	-1889
的老	-1890
女排	-1891
平台	-1892
作业	-1893
放大	-1894
的一项是	-1895
▁回	-1896
▁p	-1897
让你	-1898
▁希望	-1899
营养	-1900
调查	-1901
▁几	-1902
中央	-1903
小朋友	-1904
我还是	-1905
一口	-1906
作品	-1907
过的	-1908
锻炼	-1909
降低	-1910
中间	-1911
头发	-1912
十八	-1913
引起	-1914
玉米	-1915
可怜	-1916
越大	-1917
▁最后	-1918
你怎么	-1919
证明	-1920
河马	-1921
的重要	-1922
▁车	-1923
那儿	-1924
家庭	-1925
战争	-1926
=3	-1927
考试	-1928
5\	-1929
阿姨	-1930
收入	-1931
妈妈的	-1932
▁爬	-1933
也不知道	-1934
感谢	-1935
效果	-1936
▁长颈鹿	-1937
▁才	-1938
的一些	-1939
重力	-1940
就是说	-1941
差不多	-1942
曲线	-1943
规模	-1944
?"	-1945
▁宝宝	-1946
英国	-1947
}_{2}	-1948
相等	-1949
劳动	-1950
培养	-1951
把我	-1952
此时	-1953
反映	-1954
目的	-1955
并且	-1956
类型	-1957
来到了	-1958
。(	-1959
旅游	-1960
规定	-1961
▁ao	-1962
叫做	-1963
哎呀	-1964
果然	-1965
能源	-1966
▁其中	-1967
记录	-1968
▁我也是	-1969
xi	-1970
上海	-1971
提升	-1972
▁nei	-1973
称为	-1974
国家的	-1975
艺术	-1976
11	-1977
小狐狸	-1978
渐渐	-1979
操作	-1980
的呢	-1981
就这样	-1982
是不	-1983
电路	-1984
▁耶	-1985
▁告诉	-1986
▁zhe	-1987
红的	-1988
我现在	-1989
}^{2}	-1990
见到	-1991
▁0	-1992
意识	-1993
火车	-1994
天下	-1995
干净	-1996
▁我的	-1997
兴奋	-1998
温暖	-1999
cdots	-2000
法律	-2001
也不是	-2002
很大的	-2003
植物的	-2004
常常	-2005
打球	-2006
▁黄	-2007
gin	-2008
▁已知	-2009
NA	-2010
几年	-2011
联系	-2012
网上	-2013
课标	-2014
财经资讯	-2015
begin	-2016
▁do	-2017
措施	-2018
Na	-2019
的主	-2020
▁地方	-2021
责任	-2022
目标	-2023
了好	-2024
中华	-2025
积极	-2026
跟我	-2027
金融	-2028
二氧化	-2029
合理	-2030
增大	-2031
数列	-2032
边的	-2033
有时候	-2034
急忙	-2035
不在	-2036
下一	-2037
婆婆	-2038
电荷	-2039
身子	-2040
困难	-2041
▁一起	-2042
产业	-2043
创新	-2044
带来	-2045
sh	-2046
了我	-2047
转化	-2048
促进	-2049
百姓	-2050
成立	-2051
▁将	-2052
国足	-2053
那是	-2054
▁shen	-2055
最终	-2056
更多的	-2057
▁嗯呢	-2058
你可以	-2059
+3	-2060
▁ne	-2061
到处	-2062
算是	-2063
▁见	-2064
▁该	-2065
说道	-2066
并没有	-2067
的那种	-2068
现代	-2069
麻烦	-2070
的问题	-2071
也要	-2072
土地	-2073
气球	-2074
▁最近	-2075
▁种	-2076
报告	-2077
▁是吗	-2078
池塘	-2079
$$4	-2080
参与	-2081
发展的	-2082
让我们	-2083
不及	-2084
▁发生	-2085
附近	-2086
送给	-2087
过去了	-2088
世纪	-2089
月份	-2090
做了	-2091
造成	-2092
果实	-2093
规律	-2094
保证	-2095
嘴里	-2096
解释	-2097
theta	-2098
现实	-2099
qu	-2100
把他	-2101
磁铁	-2102
忘记	-2103
点的	-2104
错误的	-2105
AB	-2106
=4	-2107
外的	-2108
-{{	-2109
▁下来	-2110
新课标	-2111
▁十	-2112
)$	-2113
▁时	-2114
上一	-2115
女生	-2116
数学	-2117
随便	-2118
从小	-2119
提出	-2120
.12	-2121
▁木头	-2122
母鸡	-2123
▁咱们	-2124
连忙	-2125
生存	-2126
进来	-2127
te	-2128
对方	-2129
的作用	-2130
古代	-2131
上来	-2132
适应	-2133
.$$1	-2134
忘了	-2135
创造	-2136
的意思	-2137
着小	-2138
{3}}	-2139
你不	-2140
在一	-2141
很难	-2142
▁欢迎	-2143
▁yao	-2144
大王	-2145
同学们	-2146
表面	-2147
00$$	-2148
回来了	-2149
▁chi	-2150
上课	-2151
▁虽然	-2152
发现了	-2153
这部电影	-2154
树枝	-2155
▁嘿	-2156
睡着	-2157
程度	-2158
▁圆	-2159
纷纷	-2160
▁于是	-2161
我可以	-2162
谢谢你	-2163
卫生	-2164
用来	-2165
玩具	-2166
绝对	-2167
床上	-2168
性质	-2169
▁这样子	-2170
丰富	-2171
跑了	-2172
另外	-2173
少年	-2174
并不是	-2175
文学	-2176
赛季	-2177
大灰狼	-2178
无关	-2179
▁桌子	-2180
一听	-2181
可怕	-2182
的新	-2183
牙齿	-2184
几乎	-2185
职业	-2186
的情况	-2187
▁$$1	-2188
一点儿	-2189
leqslant	-2190
▁设	-2191
人物	-2192
\{	-2193
到的	-2194
我会	-2195
队伍	-2196
魔法	-2197
▁hai	-2198
遗传	-2199
不久	-2200
的对	-2201
lai	-2202
进一步	-2203
也就	-2204
从前	-2205
我有	-2206
不再	-2207
偷偷	-2208
小刺猬	-2209
直到	-2210
羡慕	-2211
接下来	-2212
Cl	-2213
行的	-2214
▁qu	-2215
进步	-2216
――	-2217
对了	-2218
这就是	-2219
千万	-2220
连续	-2221
有趣	-2222
小猴子	-2223
最好的	-2224
利益	-2225
真实	-2226
▁小朋友	-2227
下列说法	-2228
负责	-2229
幼儿	-2230
时的	-2231
毛毛	-2232
子上	-2233
精灵	-2234
底下	-2235
机械	-2236
从此	-2237
任务	-2238
我先	-2239
频率	-2240
二零一九年	-2241
回事	-2242
主意	-2243
全面	-2244
梦想	-2245
▁(2)	-2246
也不会	-2247
一场	-2248
河边	-2249
}{4	-2250
仍然	-2251
了很多	-2252
不动	-2253
▁主人	-2254
见过	-2255
打的	-2256
▁以后	-2257
乒乓球	-2258
我了	-2259
长大	-2260
以上	-2261
队的	-2262
▁它们	-2263
▁jiu	-2264
人体	-2265
所学	-2266
风险	-2267
十三	-2268
望着	-2269
就说	-2270
干什么	-2271
梅西	-2272
dfrac	-2273
就有	-2274
磁场	-2275
发生了	-2276
▁饭	-2277
爱情	-2278
秋天	-2279
▁哥哥	-2280
▁哈哈哈哈	-2281
比例	-2282
没错	-2283
▁抓	-2284
▁开始	-2285
没事	-2286
行了	-2287
{{\	-2288
▁若	-2289
推荐	-2290
看起来	-2291
似乎	-2292
公公	-2293
就被	-2294
欧洲	-2295
相当	-2296
在这里	-2297
是的	-2298
三百	-2299
神奇	-2300
粉丝	-2301
有效	-2302
农民	-2303
了下来	-2304
给我们	-2305
什么时候	-2306
一大	-2307
现场	-2308
▁下面	-2309
加强	-2310
▁坏	-2311
三角形	-2312
叙述	-2313
,2	-2314
交易	-2315
triangle	-2316
▁鱼	-2317
▁对于	-2318
证券	-2319
定义	-2320
XXX	-2321
伯伯	-2322
原理	-2323
看见了	-2324
▁你知道	-2325
勇敢	-2326
眼前	-2327
了出来	-2328
那么多	-2329
治疗	-2330
▁南	-2331
微信	-2332
善良	-2333
XXXXX	-2334
还好	-2335
和我	-2336
嘟嘟	-2337
想去	-2338
也在	-2339
长度	-2340
不是很	-2341
不如	-2342
智慧	-2343
最高	-2344
小时候	-2345
一样的	-2346
然而	-2347
语言	-2348
▁一样	-2349
不好意思	-2350
在地	-2351
当中	-2352
-4	-2353
来自	-2354
▁T	-2355
不上	-2356
期间	-2357
打算	-2358
洞里	-2359
记者	-2360
鳄鱼	-2361
感情	-2362
移动	-2363
辛苦	-2364
你有	-2365
文明	-2366
邀请	-2367
也能	-2368
力气	-2369
好奇	-2370
消失	-2371
的一种	-2372
早晨	-2373
观点	-2374
至少	-2375
赶快	-2376
,"	-2377
▁结果	-2378
业务	-2379
民主	-2380
白的	-2381
他想	-2382
头鹰	-2383
十四	-2384
了几	-2385
依然	-2386
等等	-2387
数为	-2388
行动	-2389
年龄	-2390
▁【	-2391
明确	-2392
它是	-2393
水分	-2394
本身	-2395
厨房	-2396
表明	-2397
刺激	-2398
这只	-2399
高兴地	-2400
眼泪	-2401
尤其是	-2402
的歌	-2403
的大小	-2404
胡萝卜	-2405
▁吓	-2406
脸上	-2407
也不能	-2408
都可以	-2409
专门	-2410
▁我看	-2411
大海	-2412
红色	-2413
数是	-2414
圆的	-2415
实施	-2416
水中	-2417
}{1	-2418
▁一点	-2419
▁分	-2420
}{2}	-2421
伤害	-2422
强的	-2423
}}\	-2424
唯一	-2425
大于	-2426
了一会儿	-2427
演技	-2428
经验	-2429
资产	-2430
教室	-2431
其他的	-2432
}{\	-2433
塑料	-2434
竞争	-2435
▁可能	-2436
的原因	-2437
我把	-2438
了一只	-2439
泡泡	-2440
镜子	-2441
运会	-2442
销售	-2443
早就	-2444
▁黑	-2445
播报	-2446
$$5	-2447
领导	-2448
将军	-2449
胡子	-2450
二氧化碳	-2451
句子	-2452
▁此	-2453
出现了	-2454
抓住	-2455
▁错误	-2456
也许	-2457
的方法	-2458
农业	-2459
影子	-2460
月球	-2461
$$(	-2462
内的	-2463
小鱼	-2464
摇头	-2465
紧张	-2466
气的	-2467
}{2	-2468
▁菜	-2469
最喜欢	-2470
统一	-2471
上学	-2472
人在	-2473
又是	-2474
▁(1	-2475
很厉害	-2476
比较喜欢	-2477
混合	-2478
上市	-2479
得意	-2480
打篮球	-2481
小孩	-2482
微博	-2483
}_{3	-2484
我还有	-2485
部门	-2486
邻居	-2487
集团	-2488
_1	-2489
嘻嘻	-2490
必要	-2491
分布	-2492
▁3.	-2493
零点	-2494
}}$$,	-2495
找到了	-2496
一张	-2497
避免	-2498
多久	-2499
▁脚	-2500
一根	-2501
外婆	-2502
想法	-2503
▁事	-2504
交流	-2505
再次	-2506
▁xiao	-2507
公园	-2508
观众	-2509
▁应该	-2510
幼儿园	-2511
▁穿	-2512
溶解	-2513
它们的	-2514
十六	-2515
处于	-2516
的就是	-2517
▁bi	-2518
好像是	-2519
领域	-2520
然后就	-2521
好吃	-2522
分为	-2523
娱乐	-2524
小说	-2525
是真的	-2526
▁晚上	-2527
互联	-2528
互相	-2529
不着	-2530
很少	-2531
联合	-2532
重点	-2533
十九	-2534
老板	-2535
自身	-2536
CD	-2537
.$${	-2538
主任	-2539
建筑	-2540
推动	-2541
▁我想	-2542
导体	-2543
▁房间	-2544
不停地	-2545
螃蟹	-2546
生活中	-2547
mb	-2548
乖乖	-2549
}_{0	-2550
▁li	-2551
知道了	-2552
ses	-2553
角度	-2554
结婚	-2555
▁这儿	-2556
▁$$,	-2557
减小	-2558
有多	-2559
支付	-2560
保障	-2561
巫婆	-2562
一会	-2563
两种	-2564
我得	-2565
迅速	-2566
▁ge	-2567
不喜欢	-2568
cases	-2569
}$$、	-2570
$$4$$	-2571
商品	-2572
▁)。	-2573
▁医生	-2574
使劲	-2575
仿佛	-2576
远处	-2577
有一次	-2578
▁有一天	-2579
$$5$$	-2580
宣布	-2581
▁空	-2582
警察	-2583
的呀	-2584
的关系	-2585
可得	-2586
▁摔	-2587
去吧	-2588
本领	-2589
▁原来	-2590
原则	-2591
不可能	-2592
聊天	-2593
地位	-2594
形象	-2595
50	-2596
个子	-2597
下午	-2598
等着	-2599
放弃	-2600
可真	-2601
地的	-2602
我来	-2603
长期	-2604
好看的	-2605
的质量	-2606
不见	-2607
OH	-2608
往往	-2609
有时	-2610
花儿	-2611
}+	-2612
▁zai	-2613
不足	-2614
▁你说	-2615
你能	-2616
都市	-2617
表演	-2618
你好呀	-2619
很多人	-2620
的孩子	-2621
会议	-2622
elta	-2623
公交	-2624
▁翻	-2625
晚安	-2626
上涨	-2627
取得	-2628
练习	-2629
一件	-2630
强调	-2631
成分	-2632
球迷	-2633
▁加	-2634
位于	-2635
这天	-2636
高中	-2637
▁吃饭	-2638
的速度	-2639
▁躲	-2640
以下	-2641
热点	-2642
正是	-2643
涉及	-2644
一颗	-2645
到这里	-2646
的这个	-2647
在一个	-2648
两天	-2649
安静	-2650
点评	-2651
照片	-2652
▁反正	-2653
鞋子	-2654
五百	-2655
发了	-2656
FF	-2657
▁种子	-2658
成长	-2659
我先走了	-2660
▁前	-2661
--""	-2662
这位	-2663
电池	-2664
充分	-2665
人生	-2666
快地	-2667
矛盾	-2668
▁感觉	-2669
就没有	-2670
▁写	-2671
场上	-2672
▁朋友	-2673
动力	-2674
哈喽	-2675
同一	-2676
Delta	-2677
▁香	-2678
我家	-2679
讨厌	-2680
笑着说	-2681
ho	-2682
想想	-2683
有所	-2684
透明	-2685
小小的	-2686
ve	-2687
海洋	-2688
麻雀	-2689
独立	-2690
穿着	-2691
和你	-2692
▁已经	-2693
一个个	-2694
上升	-2695
热闹	-2696
慢慢地	-2697
合适	-2698
词语	-2699
▁bao	-2700
立即	-2701
花的	-2702
世界杯	-2703
▁学	-2704
小蚂蚁	-2705
▁对对对	-2706
另一	-2707
整体	-2708
对手	-2709
远远	-2710
▁起	-2711
才会	-2712
理想	-2713
而不是	-2714
。[	-2715
电阻	-2716
rime	-2717
GRANDFATHER	-2718
▁过来	-2719
:201	-2720
ne	-2721
软件	-2722
▁嘛	-2723
十七	-2724
在您	-2725
正式	-2726
方案	-2727
口气	-2728
不小心	-2729
者的	-2730
有利于	-2731
家人	-2732
对不起	-2733
这个人	-2734
})	-2735
流动	-2736
拥有	-2737
跟你	-2738
▁2.	-2739
感兴趣	-2740
不开	-2741
怪物	-2742
想象	-2743
窗户	-2744
prime	-2745
广州	-2746
▁特别	-2747
屁股	-2748
在地上	-2749
拿起	-2750
呵呵	-2751
整天	-2752
液体	-2753
帮忙	-2754
两个人	-2755
心情	-2756
▁今年	-2757
互联网	-2758
传递	-2759
▁肯定	-2760
季度	-2761
安排	-2762
破坏	-2763
还是很	-2764
振动	-2765
都被	-2766
是一只	-2767
▁变	-2768
风吹	-2769
走着	-2770
伙伴们	-2771
30	-2772
▁八	-2773
共有	-2774
综合	-2775
性和	-2776
我喜欢	-2777
▁要不要	-2778
yi	-2779
▁哭	-2780
▁那里	-2781
检查	-2782
椅子	-2783
去看看	-2784
你这	-2785
我们要	-2786
得好	-2787
家伙	-2788
了一些	-2789
生病	-2790
我就是	-2791
里面的	-2792
生态系统	-2793
而已	-2794
拿出	-2795
200	-2796
是怎么	-2797
蓝色	-2798
再也不	-2799
▁牛	-2800
高度	-2801
一个大	-2802
他把	-2803
居民	-2804
什么呢	-2805
▁床	-2806
那天	-2807
轨道	-2808
既然	-2809
▁第二	-2810
运动的	-2811
顺序	-2812
或者是	-2813
我一	-2814
分类	-2815
的光	-2816
▁事情	-2817
这件事	-2818
向前	-2819
大笑	-2820
好玩	-2821
来源	-2822
态度	-2823
三年	-2824
情绪	-2825
口袋	-2826
对着	-2827
旅行	-2828
果子	-2829
▁kuai	-2830
▁shuo	-2831
股份	-2832
导演	-2833
秘密	-2834
▁===	-2835
失望	-2836
在您身边	-2837
规则	-2838
赢了	-2839
)。	-2840
也太	-2841
模型	-2842
▁这次	-2843
找不到	-2844
▁万	-2845
彩虹	-2846
文字	-2847
CA	-2848
依据	-2849
那只	-2850
虫子	-2851
上映	-2852
发育	-2853
火箭	-2854
da	-2855
用手	-2856
▁六	-2857
~~~~	-2858
想起	-2859
蔬菜	-2860
ore	-2861
ere	-2862
产生的	-2863
感受	-2864
时刻	-2865
一棵	-2866
小鸡	-2867
白色	-2868
描写	-2869
<{	-2870
增强	-2871
玫瑰	-2872
▁听说	-2873
公式	-2874
科学家	-2875
18	-2876
平常	-2877
优势	-2878
区域	-2879
没办法	-2880
▁可不是	-2881
亮的	-2882
传来	-2883
令人	-2884
▁总	-2885
不出	-2886
摩擦	-2887
传说	-2888
▁外面	-2889
花园	-2890
电场	-2891
绳子	-2892
鼹鼠	-2893
▁目前	-2894
另一个	-2895
每个人	-2896
lo	-2897
不说	-2898
两人	-2899
bf	-2900
100	-2901
mol	-2902
掌握	-2903
电动	-2904
心理	-2905
脖子	-2906
诗人	-2907
那就	-2908
错了	-2909
^{	-2910
▁7	-2911
在家	-2912
尽管	-2913
更好	-2914
跳舞	-2915
决赛	-2916
检测	-2917
CO	-2918
白天	-2919
相比	-2920
维持	-2921
大叫	-2922
照顾	-2923
醒了	-2924
呼呼	-2925
明白了	-2926
就是这些	-2927
▁E	-2928
他又	-2929
▁佩	-2930
就开始	-2931
▁海	-2932
的说	-2933
不可以	-2934
ii	-2935
手里	-2936
)=\	-2937
享受	-2938
忍不住	-2939
▁成	-2940
▁8	-2941
草地上	-2942
大量	-2943
指数	-2944
大会	-2945
广东	-2946
燕子	-2947
十年	-2948
皮肤	-2949
非常的	-2950
外国	-2951
胜利	-2952
悄悄地	-2953
_{1}	-2954
我这	-2955
飞到	-2956
化的	-2957
▁这种	-2958
激动	-2959
there	-2960
瓶子	-2961
卫星	-2962
染色	-2963
▁怎么样	-2964
山上	-2965
这下	-2966
轻轻地	-2967
▁收	-2968
队员	-2969
他一	-2970
年纪	-2971
做好	-2972
印度	-2973
甜甜	-2974
▁自	-2975
动能	-2976
方面的	-2977
二零二零	-2978
买了	-2979
眼镜	-2980
▁衣服	-2981
广播	-2982
开发	-2983
▁住	-2984
帮我	-2985
运用	-2986
食品	-2987
小姐姐	-2988
加上	-2989
在小	-2990
韩国	-2991
内部	-2992
有一些	-2993
地面	-2994
会不会	-2995
倒是	-2996
还不错	-2997
,3	-2998
▁比	-2999
意见	-3000
是为了	-3001
+4	-3002
把小	-3003
没什么	-3004
fore	-3005
核心	-3006
燃烧	-3007
蛋白质	-3008
therefore	-3009
▁全	-3010
放心	-3011
▁(1)	-3012
说他	-3013
的基本	-3014
DE	-3015
ad	-3016
刚好	-3017
坐标	-3018
大概	-3019
水果	-3020
别人的	-3021
理论	-3022
鸟儿	-3023
长长的	-3024
▁H	-3025
就好了	-3026
都市报	-3027
哭了	-3028
的电影	-3029
▁la	-3030
。"""	-3031
了嘛	-3032
南方都市报	-3033
体系	-3034
在大	-3035
应用	-3036
系列	-3037
地里	-3038
直播	-3039
▁P	-3040
上班	-3041
▁更	-3042
离子	-3043
间的	-3044
}{5	-3045
▁同比	-3046
在这个	-3047
媒体	-3048
骄傲	-3049
即使	-3050
反射	-3051
多种	-3052
的说法	-3053
特殊	-3054
走去	-3055
)}^{2}}	-3056
半天	-3057
往前	-3058
硫酸	-3059
发明	-3060
▁溶液	-3061
满意	-3062
去年	-3063
▁一定	-3064
▁后	-3065
亿美元	-3066
▁截	-3067
三点	-3068
感染	-3069
心中	-3070
的能力	-3071
今晚	-3072
▁我要	-3073
没看	-3074
笨笨	-3075
▁看来	-3076
成熟	-3077
试试	-3078
在我	-3079
扩大	-3080
河里	-3081
湖人	-3082
▁拍	-3083
大哥	-3084
问道	-3085
女人	-3086
校园	-3087
99	-3088
城堡	-3089
增长百分之	-3090
特性	-3091
▁洗澡	-3092
商业	-3093
因为他	-3094
geqslant	-3095
不够	-3096
定律	-3097
▁孩名	-3098
年轻人	-3099
值为	-3100
板块	-3101
紧紧	-3102
这篇	-3103
重量	-3104
▁姐姐	-3105
我记得	-3106
的感觉	-3107
那时候	-3108
▁正	-3109
我对	-3110
看了看	-3111
经营	-3112
20$$	-3113
15	-3114
快速	-3115
睡着了	-3116
的变化	-3117
},	-3118
剧情	-3119
下车	-3120
确保	-3121
是最	-3122
听说过	-3123
密度	-3124
成本	-3125
太好了	-3126
▁抱	-3127
体验	-3128
重大	-3129
▁你看	-3130
▁hua	-3131
概念	-3132
4!	-3133
▁ABC	-3134
▁有一次	-3135
草丛	-3136
\%	-3137
举行	-3138
限制	-3139
小黑	-3140
走路	-3141
▁生气	-3142
▁r	-3143
我很	-3144
vec	-3145
ED	-3146
化合	-3147
▁佩奇	-3148
人口	-3149
用力	-3150
马拉	-3151
树下	-3152
轻松	-3153
▁4.	-3154
半径	-3155
中午	-3156
介质	-3157
差异	-3158
一直在	-3159
也挺	-3160
回了	-3161
是这样	-3162
恐龙	-3163
KER	-3164
CARE	-3165
你想	-3166
一座	-3167
TAKER	-3168
CARETAKER	-3169
一群	-3170
▁房子	-3171
下雨	-3172
主动	-3173
大地	-3174
孔雀	-3175
跑步	-3176
丈夫	-3177
提醒	-3178
行星	-3179
评价	-3180
={{	-3181
▁正确	-3182
我朋友	-3183
▁che	-3184
名叫	-3185
和平	-3186
{1}{3	-3187
60	-3188
用户	-3189
货币	-3190
加速度	-3191
回家了	-3192
全身	-3193
夜晚	-3194
}$,	-3195
集中	-3196
测试	-3197
自行	-3198
草莓	-3199
一头	-3200
季节	-3201
讨论	-3202
广告	-3203
解答	-3204
▁一直	-3205
物质的	-3206
累了	-3207
走进	-3208
uan	-3209
▁下去	-3210
是错误的	-3211
复杂	-3212
女主	-3213
ga	-3214
大多	-3215
不见了	-3216
分解	-3217
水里	-3218
的表现	-3219
儿童	-3220
离开了	-3221
FI	-3222
大人	-3223
好久	-3224
留下	-3225
的吧	-3226
愿望	-3227
公共	-3228
的不	-3229
采取	-3230
和他	-3231
毕业	-3232
▁"""	-3233
▁第	-3234
剩下	-3235
反而	-3236
我又	-3237
抱着	-3238
▁你是	-3239
长时间	-3240
吃掉	-3241
我们可以	-3242
▁们	-3243
▁棒	-3244
的美	-3245
▁爱	-3246
踢球	-3247
他俩	-3248
我能	-3249
群众	-3250
你去	-3251
姐妹	-3252
基本上	-3253
大部分	-3254
se	-3255
对啊	-3256
贡献	-3257
:$$\	-3258
他还	-3259
老头	-3260
奥运会	-3261
▁却	-3262
惊讶	-3263
懂得	-3264
维护	-3265
▁外	-3266
熟悉	-3267
粮食	-3268
一起去	-3269
红色的	-3270
这条	-3271
我之前	-3272
利润	-3273
客人	-3274
联赛	-3275
释放	-3276
指出	-3277
▁美国	-3278
小于	-3279
破了	-3280
肺炎	-3281
白兔	-3282
毛毛虫	-3283
你会	-3284
效率	-3285
arra	-3286
3)	-3287
巨大的	-3288
因此正确答案是	-3289
的前	-3290
}}{	-3291
▁只要	-3292
▁我就	-3293
怎么会	-3294
热量	-3295
▁垃圾	-3296
肯定是	-3297
}}=\	-3298
台上	-3299
失败	-3300
▁其	-3301
地对	-3302
▁关于	-3303
机器人	-3304
大气	-3305
实践	-3306
阶级	-3307
长大了	-3308
真正的	-3309
车来了	-3310
光合	-3311
电压	-3312
你喜欢	-3313
array	-3314
▁恩	-3315
欣赏	-3316
调节	-3317
我没有	-3318
你了	-3319
运输	-3320
▁回来	-3321
同意	-3322
跳跳	-3323
$$6	-3324
屋里	-3325
草原	-3326
难以	-3327
颗粒	-3328
体现了	-3329
▁《	-3330
为主	-3331
股票	-3332
难过	-3333
相同的	-3334
ln	-3335
▁怕	-3336
口口	-3337
死亡	-3338
公司的	-3339
最好	-3340
che	-3341
不一会儿	-3342
固体	-3343
21	-3344
医疗	-3345
这时候	-3346
醒来	-3347
有一只	-3348
}}_3	-3349
zh	-3350
飞行	-3351
▁不知道	-3352
{1}{2	-3353
加油	-3354
没了	-3355
话说	-3356
就很	-3357
角色	-3358
这部剧	-3359
两千	-3360
之类的	-3361
男生	-3362
尊重	-3363
香味	-3364
开始了	-3365
块钱	-3366
老爷爷	-3367
5{	-3368
两位	-3369
呜呜	-3370
▁厉害	-3371
在关注	-3372
当地	-3373
真的太	-3374
保险	-3375
常见	-3376
所谓	-3377
接近	-3378
小青蛙	-3379
是很	-3380
贸易	-3381
青年	-3382
身上的	-3383
男主	-3384
是正确的	-3385
UN	-3386
▁出去	-3387
便宜	-3388
重视	-3389
对他	-3390
绿色的	-3391
家长	-3392
看得	-3393
跑去	-3394
到时候	-3395
叫声	-3396
猎人	-3397
抬头	-3398
没有人	-3399
使得	-3400
统计	-3401
▁刚才	-3402
散步	-3403
模式	-3404
袋鼠	-3405
}-\	-3406
▁太阳	-3407
转化为	-3408
你知道吗	-3409
$$、$$	-3410
▁进去	-3411
恒大	-3412
▁弟弟	-3413
▁拼	-3414
DEN	-3415
UNI	-3416
FIED	-3417
DENTI	-3418
UNIDENTI	-3419
UNIDENTIFIED	-3420
痛苦	-3421
的路	-3422
记忆	-3423
]。	-3424
始终	-3425
形容	-3426
再说	-3427
博士	-3428
强度	-3429
成就	-3430
手道	-3431
上有	-3432
球赛	-3433
太多	-3434
拉着	-3435
是对	-3436
▁非常	-3437
至于	-3438
的过程	-3439
▁山	-3440
▁楼	-3441
创业	-3442
回头	-3443
开展	-3444
实验中	-3445
法国	-3446
热情	-3447
二零二零年	-3448
中有	-3449
倍数	-3450
欺负	-3451
半年	-3452
着头	-3453
落在	-3454
都说	-3455
怎么说	-3456
LA	-3457
做法	-3458
我才	-3459
推进	-3460
气候	-3461
罗斯	-3462
▁zuo	-3463
不去	-3464
固定	-3465
帮你	-3466
请问	-3467
mbda	-3468
效应	-3469
qi	-3470
▁喂	-3471
情感	-3472
鼓励	-3473
}$$(	-3474
▁国	-3475
客气	-3476
lambda	-3477
▁哼	-3478
一夜	-3479
搞笑	-3480
疾病	-3481
线的	-3482
▁猫咪	-3483
生活的	-3484
》。	-3485
我们就	-3486
}_{1}	-3487
▁王	-3488
一路	-3489
公平	-3490
陕西	-3491
印象	-3492
浑身	-3493
24	-3494
多样	-3495
形成的	-3496
▁我知道	-3497
小学	-3498
患者	-3499
方的	-3500
小朋友们	-3501
及时	-3502
熊猫	-3503
公开	-3504
可不是	-3505
zi	-3506
^{2}}	-3507
田鼠	-3508
的嘛	-3509
一动	-3510
万元	-3511
仙女	-3512
出现在	-3513
▁空手道	-3514
之中	-3515
多个	-3516
您的	-3517
感动	-3518
还是挺	-3519
站了	-3520
▁为了	-3521
LATI	-3522
LATIVE	-3523
RELATIVE	-3524
有限	-3525
▁、	-3526
=$$	-3527
▁发现	-3528
的故事点评	-3529
ba	-3530
玩耍	-3531
退役	-3532
▁办	-3533
▁美	-3534
夜里	-3535
没人	-3536
胖胖	-3537
you	-3538
实际上	-3539
公布	-3540
即可	-3541
如今	-3542
统治	-3543
_{2}	-3544
不怕	-3545
了他	-3546
防止	-3547
{10	-3548
▁次	-3549
CBA	-3550
香港	-3551
严格	-3552
怎么了	-3553
}^{\	-3554
光合作用	-3555
事业	-3556
想了	-3557
▁shang	-3558
综艺	-3559
采用	-3560
网友	-3561
顿时	-3562
北极	-3563
同样	-3564
屋子	-3565
男人	-3566
小羊	-3567
怪兽	-3568
什么事	-3569
长颈鹿	-3570
周末	-3571
明明	-3572
的风	-3573
瞬间	-3574
糖果	-3575
偶尔	-3576
探究	-3577
新闻啊	-3578
不像	-3579
资料	-3580
消费者	-3581
就去	-3582
tab	-3583
利亚	-3584
比喻	-3585
▁∴$$	-3586
盒子	-3587
命运	-3588
做到	-3589
预计	-3590
▁nar	-3591
数据显示	-3592
住着	-3593
好吗	-3594
的了	-3595
▁遍	-3596
对吧	-3597
差点	-3598
有机	-3599
({	-3600
2\	-3601
叫着	-3602
形态	-3603
}=1	-3604
之下	-3605
好听	-3606
挑战	-3607
命令	-3608
恐怖	-3609
黄金	-3610
告诉我	-3611
这个电影	-3612
口水	-3613
▁羊	-3614
出生	-3615
年代	-3616
显得	-3617
多多	-3618
▁∵	-3619
巴巴	-3620
形的	-3621
本书	-3622
背上	-3623
那一	-3624
大大的	-3625
部电影	-3626
品牌	-3627
▁某	-3628
就算	-3629
▁小心	-3630
实行	-3631
把自己	-3632
特别的	-3633
▁9	-3634
密切	-3635
经典	-3636
标志	-3637
的身	-3638
亲爱的	-3639
""。"	-3640
▁&	-3641
▁九	-3642
人了	-3643
公众	-3644
设备	-3645
贝贝	-3646
青春	-3647
员工	-3648
电器	-3649
▁站	-3650
广泛	-3651
追求	-3652
不但	-3653
安慰	-3654
新鲜	-3655
回到家	-3656
▁当时	-3657
▁动	-3658
钢琴	-3659
▁jiao	-3660
前的	-3661
<{}	-3662
农村	-3663
呼噜	-3664
,$${	-3665
一致	-3666
亚洲	-3667
发芽	-3668
神经	-3669
结论	-3670
了一条	-3671
个月	-3672
二百	-3673
花瓣	-3674
▁AB	-3675
这么说	-3676
三天	-3677
师傅	-3678
最近的	-3679
:1	-3680
熬夜	-3681
▁死	-3682
人工	-3683
招呼	-3684
蚯蚓	-3685
针对	-3686
人说	-3687
▁dou	-3688
▁吵	-3689
、""	-3690
但是我	-3691
▁嗨	-3692
▁这时	-3693
▁zen	-3694
等待	-3695
的眼睛	-3696
$$6$$	-3697
▁问	-3698
打了	-3699
消耗	-3700
▁0.	-3701
不需要	-3702
说法错误	-3703
关心	-3704
购买	-3705
桃子	-3706
浓度	-3707
这两个	-3708
八年	-3709
人才	-3710
绿的	-3711
请你	-3712
车的	-3713
厉害的	-3714
充满	-3715
最多	-3716
英语	-3717
转身	-3718
这边	-3719
乔治	-3720
小红	-3721
这不是	-3722
出发	-3723
故意	-3724
率为	-3725
这句话	-3726
停止	-3727
势能	-3728
的工作	-3729
的方式	-3730
年来	-3731
黄色	-3732
的方向	-3733
上下	-3734
好几	-3735
▁搭	-3736
姆斯	-3737
感冒	-3738
▁害怕	-3739
两条	-3740
沙发	-3741
状况	-3742
小姑娘	-3743
▁门	-3744
贷款	-3745
人士	-3746
雪花	-3747
靠近	-3748
{1}{4	-3749
调皮	-3750
▁那是	-3751
女孩子	-3752
你还	-3753
团队	-3754
地看着	-3755
▁看见	-3756
不懂	-3757
或许	-3758
▁好多	-3759
地把	-3760
等式	-3761
还是要	-3762
到达	-3763
四点	-3764
四百	-3765
圣诞	-3766
▁奶奶	-3767
▁关	-3768
▁无	-3769
深刻	-3770
男篮	-3771
自我	-3772
}}^{	-3773
输了	-3774
为什么要	-3775
小明	-3776
分裂	-3777
加快	-3778
梅花	-3779
采访	-3780
偶像	-3781
道路	-3782
}^{2	-3783
▁近	-3784
童话	-3785
组合	-3786
他对	-3787
发光	-3788
我可	-3789
每一个	-3790
二点	-3791
小球	-3792
工资	-3793
可爱的	-3794
决心	-3795
我只	-3796
救命	-3797
被子	-3798
xt	-3799
伸出	-3800
咪咪	-3801
新官	-3802
角落	-3803
quad	-3804
小象	-3805
给它	-3806
各个	-3807
tan	-3808
了呀	-3809
学的	-3810
联盟	-3811
▁昨天	-3812
小女孩	-3813
▁进	-3814
重的	-3815
投资者	-3816
不符合题意	-3817
▁图	-3818
拿到	-3819
电磁	-3820
起床	-3821
公民	-3822
听过	-3823
四周	-3824
失去	-3825
干嘛	-3826
老婆	-3827
躲在	-3828
▁后面	-3829
▁由于	-3830
讲故事	-3831
事实	-3832
就是那个	-3833
25	-3834
办公	-3835
听着	-3836
张开	-3837
每年	-3838
rho	-3839
▁每天	-3840
0,	-3841
亲自	-3842
▁以前	-3843
的一声	-3844
还有一个	-3845
一日	-3846
一朵	-3847
祖国	-3848
及其	-3849
开门	-3850
0{}^\	-3851
教授	-3852
▁妹妹	-3853
▁突然	-3854
;""	-3855
▁对的	-3856
text	-3857
豆豆	-3858
分别为	-3859
厉害了	-3860
蚊子	-3861
!"""	-3862
特色	-3863
这才	-3864
双手	-3865
口罩	-3866
完善	-3867
我没	-3868
牛奶	-3869
的天	-3870
详解	-3871
如果你	-3872
有意思	-3873
共产	-3874
加热	-3875
bao	-3876
。。	-3877
收听	-3878
▁擦	-3879
喜鹊	-3880
这两	-3881
向上	-3882
难受	-3883
出一个	-3884
更是	-3885
^{\	-3886
一号	-3887
她说	-3888
脚步	-3889
$$10$$	-3890
fty	-3891
▁zou	-3892
infty	-3893
▁李	-3894
配合	-3895
▁从前	-3896
玩游戏	-3897
专家	-3898
处的	-3899
拼命	-3900
是你	-3901
▁ye	-3902
就是一个	-3903
南方都市报播报	-3904
七点	-3905
不聊	-3906
喊道	-3907
白色的	-3908
农夫	-3909
执行	-3910
的基础	-3911
大叔	-3912
深圳	-3913
▁甚至	-3914
动物的	-3915
▁第二天	-3916
14	-3917
点头	-3918
皮皮	-3919
相反	-3920
脾气	-3921
到站了	-3922
小动物们	-3923
▁声	-3924
指导	-3925
cm	-3926
五个	-3927
风筝	-3928
▁哎哟	-3929
各自	-3930
▁一天	-3931
有一种	-3932
指着	-3933
送到	-3934
昆虫	-3935
确实是	-3936
.《	-3937
发达	-3938
宇宙	-3939
要不	-3940
辈子	-3941
女子	-3942
三千	-3943
上次	-3944
初中	-3945
南瓜	-3946
男子	-3947
盯着	-3948
死的	-3949
地产	-3950
快递	-3951
是吗	-3952
人民币	-3953
▁就是啊	-3954
▁踢	-3955
之外	-3956
si	-3957
{~	-3958
再见吧	-3959
第四	-3960
▁好了	-3961
▁第一	-3962
}^{2}}+{{	-3963
买的	-3964
分数	-3965
▁不要	-3966
平方	-3967
最小	-3968
自行车	-3969
挂在	-3970
我怎么	-3971
}$$、$${	-3972
▁往	-3973
▁金	-3974
浪费	-3975
▁那些	-3976
不一定	-3977
举办	-3978
写的	-3979
光线	-3980
背后	-3981
贵的	-3982
▁时候	-3983
就不会	-3984
特别是	-3985
们都	-3986
的结果	-3987
美味	-3988
能不能	-3989
跑得	-3990
给她	-3991
被人	-3992
骨头	-3993
的位置	-3994
允许	-3995
加速	-3996
国外	-3997
把你	-3998
跟他	-3999
、$$\	-4000
循环	-4001
火星	-4002
而不	-4003
小男孩	-4004
早知道	-4005
所学知识	-4006
五年	-4007
利率	-4008
变为	-4009
宣传	-4010
等到	-4011
做什么	-4012
心地	-4013
探索	-4014
羽毛球	-4015
让他们	-4016
▁雪	-4017
乐乐	-4018
区别	-4019
▁干嘛	-4020
在那里	-4021
6\	-4022
通知	-4023
一段	-4024
城里	-4025
自动	-4026
还得	-4027
▁zher	-4028
▁接	-4029
碰到	-4030
这不	-4031
也就是	-4032
九点	-4033
断了	-4034
的特点	-4035
▁漂亮	-4036
在于	-4037
据说	-4038
背景	-4039
广播剧	-4040
:20	-4041
委员	-4042
小鸭	-4043
突破	-4044
船的	-4045
▁孩子	-4046
猫头鹰	-4047
驾驶	-4048
▁10	-4049
选项中	-4050
流浪	-4051
语文	-4052
$$0.	-4053
▁玩具	-4054
今年的	-4055
在家里	-4056
提前	-4057
是从	-4058
▁wu	-4059
太多了	-4060
▁|$$\	-4061
性格	-4062
mega	-4063
培训	-4064
大臣	-4065
▁或者	-4066
很远	-4067
的地	-4068
▁好吃	-4069
里有	-4070
任意	-4071
▁人家	-4072
不大	-4073
意味	-4074
皇马	-4075
是我们	-4076
说不定	-4077
内心	-4078
▁20	-4079
发行	-4080
快要	-4081
▁煮	-4082
静止	-4083
▁眼睛	-4084
更好的	-4085
一名	-4086
打着	-4087
拒绝	-4088
白云	-4089
连接	-4090
每天都	-4091
巴萨	-4092
无人	-4093
告诉你	-4094
繁殖	-4095
染色体	-4096
生物的	-4097
一万	-4098
上前	-4099
功夫	-4100
啥的	-4101
器官	-4102
完整	-4103
期的	-4104
他也	-4105
构成	-4106
树木	-4107
真是太	-4108
▁eng	-4109
▁假	-4110
升高	-4111
微笑	-4112
我最	-4113
球星	-4114
很多的	-4115
应的	-4116
悟空	-4117
一段时间	-4118
带领	-4119
明年	-4120
是要	-4121
模样	-4122
老大	-4123
里边	-4124
▁对了	-4125
氯化	-4126
玩的	-4127
电源	-4128
盐酸	-4129
运行	-4130
▁he	-4131
什么东西	-4132
▁河	-4133
他不	-4134
权利	-4135
回答说	-4136
trix	-4137
matrix	-4138
▁S	-4139
定了	-4140
爬到	-4141
展开	-4142
神秘	-4143
▁就是说	-4144
▁M	-4145
▁装	-4146
▁红色	-4147
詹姆斯	-4148
放下	-4149
的山	-4150
穿过	-4151
你们的	-4152
▁:	-4153
▁摆	-4154
很不	-4155
蜂蜜	-4156
▁狗狗	-4157
你说的	-4158
▁换	-4159
▁男孩	-4160
这个故事	-4161
司机	-4162
洗澡	-4163
集合	-4164
不正确	-4165
好吃的	-4166
这场比赛	-4167
).	-4168
▁您	-4169
一说	-4170
减肥	-4171
刚开始	-4172
在哪里	-4173
table	-4174
mathbf	-4175
一眼	-4176
主播	-4177
走吧	-4178
足够	-4179
▁N	-4180
八点	-4181
战略	-4182
裙子	-4183
热点财经资讯	-4184
的气	-4185
▁ti	-4186
外界	-4187
奇妙	-4188
把握	-4189
出口	-4190
厚的	-4191
均匀	-4192
有钱	-4193
记住	-4194
闪闪	-4195
稳定性	-4196
平面	-4197
玩了	-4198
小花猫	-4199
六点	-4200
在他	-4201
的两	-4202
阻力	-4203
▁这一刻	-4204
就没	-4205
棉花	-4206
武汉	-4207
因为我	-4208
收获	-4209
▁打翻	-4210
真好	-4211
$$8	-4212
▁各	-4213
入了	-4214
改善	-4215
首次	-4216
黑熊	-4217
▁这一	-4218
2!	-4219
位移	-4220
当年	-4221
爪子	-4222
种类	-4223
说什么	-4224
▁盖	-4225
学家	-4226
▁都是	-4227
beta	-4228
▁汤	-4229
获得了	-4230
天的	-4231
快点	-4232
▁椅子	-4233
喜马拉	-4234
喜马拉雅	-4235
危机	-4236
线上	-4237
骆驼	-4238
▁bie	-4239
=5	-4240
容器	-4241
▁之前	-4242
▁只有	-4243
你这个	-4244
全是	-4245
收集	-4246
整理	-4247
▁他的	-4248
▁会不会	-4249
否则	-4250
巧克	-4251
强大	-4252
显微	-4253
多次	-4254
手指	-4255
li	-4256
收拾	-4257
杯子	-4258
▁小熊	-4259
}_{{	-4260
一句	-4261
咚咚	-4262
德国	-4263
▁同时	-4264
一起来	-4265
没有什么	-4266
(2	-4267
来着	-4268
了一大	-4269
13	-4270
军事	-4271
姚明	-4272
行政	-4273
孩子的	-4274
傍晚	-4275
工厂	-4276
▁dao	-4277
▁洞	-4278
咖啡	-4279
感应	-4280
▁果实	-4281
的长	-4282
▁我在	-4283
打电话	-4284
给大家	-4285
有着	-4286
▁;	-4287
失误	-4288
浮力	-4289
▁嘿嘿	-4290
树林里	-4291
的理解	-4292
生活在	-4293
▁咦	-4294
▁笑	-4295
分离	-4296
较大	-4297
全都	-4298
拿了	-4299
有空	-4300
▁对对	-4301
真的好	-4302
告诉我们	-4303
助于	-4304
四处	-4305
放到	-4306
更新	-4307
泥土	-4308
倒了	-4309
夫妻	-4310
它就	-4311
舌头	-4312
(1)	-4313
黄色的	-4314
后代	-4315
来得	-4316
评论	-4317
的环境	-4318
文中	-4319
▁小孩	-4320
在这儿	-4321
ab	-4322
▁牠	-4323
听听	-4324
折射	-4325
|}	-4326
小鹿	-4327
满满	-4328
生意	-4329
趋势	-4330
黑暗	-4331
是中国	-4332
主席	-4333
下来了	-4334
学生对	-4335
各种各	-4336
人间	-4337
会在	-4338
合成	-4339
呈现	-4340
垂直	-4341
家族	-4342
葫芦	-4343
反对	-4344
多年	-4345
排名	-4346
实在是	-4347
显微镜	-4348
素质	-4349
组成的	-4350
可见	-4351
小米	-4352
并非	-4353
说过	-4354
很好的	-4355
就想	-4356
有可能	-4357
第二个	-4358
信心	-4359
点了	-4360
表述	-4361
这首	-4362
出了一	-4363
,4	-4364
晚饭	-4365
来找	-4366
▁之后	-4367
我最近	-4368
又有	-4369
沙漠	-4370
爱好	-4371
▁页	-4372
啦啦	-4373
千米	-4374
女的	-4375
这可	-4376
.34	-4377
一部	-4378
动画	-4379
塔台	-4380
承认	-4381
烈的	-4382
▁皮球	-4383
很好看	-4384
我我	-4385
苍蝇	-4386
蛤蟆	-4387
顺利	-4388
▁回家	-4389
巧克力	-4390
觉得自己	-4391
勇士	-4392
橡皮	-4393
走出	-4394
后悔	-4395
蹦蹦	-4396
▁截至	-4397
杀了	-4398
▁动物	-4399
厕所	-4400
武器	-4401
独自	-4402
的外	-4403
究竟	-4404
2019	-4405
深深	-4406
长了	-4407
黑色	-4408
共产党	-4409
喜欢吃	-4410
书包	-4411
是我的	-4412
姥姥	-4413
美好	-4414
可以通过	-4415
▁原	-4416
▁奥	-4417
做功	-4418
汪汪	-4419
累计	-4420
bi	-4421
惊喜	-4422
普遍	-4423
转移	-4424
得到了	-4425
▁这就是	-4426
信号	-4427
引发	-4428
背着	-4429
这样啊	-4430
日常	-4431
FT	-4432
三月	-4433
少了	-4434
平行	-4435
身份	-4436
AC	-4437
五点	-4438
喇叭	-4439
顶上	-4440
▁记得	-4441
▁xing	-4442
伙子	-4443
怀疑	-4444
早餐	-4445
早已	-4446
40	-4447
to	-4448
香蕉	-4449
的小朋友	-4450
损失	-4451
▁你好呀	-4452
#$	-4453
进行了	-4454
$$0$$	-4455
17	-4456
▁姊	-4457
变异	-4458
就好	-4459
道歉	-4460
▁比较	-4461
一起玩	-4462
}}_2}{	-4463
▁西	-4464
会的	-4465
财富	-4466
去的	-4467
问题的	-4468
16	-4469
2{	-4470
把这	-4471
排列	-4472
}$$,$$	-4473
士兵	-4474
log	-4475
$$,$$\	-4476
▁拉	-4477
地下	-4478
山坡	-4479
礼貌	-4480
有机会	-4481
▁所以说	-4482
光照	-4483
六百	-4484
引力	-4485
放学	-4486
""、""	-4487
得多	-4488
意外	-4489
比为	-4490
犯罪	-4491
▁快点	-4492
你呢	-4493
是他	-4494
$$9	-4495
发表	-4496
和尚	-4497
整整	-4498
面临	-4499
▁打开	-4500
去做	-4501
王国	-4502
带来的	-4503
点点头	-4504
下列说法正确的是	-4505
强盗	-4506
敌人	-4507
树的	-4508
▁你也在看	-4509
一刻再见吧	-4510
一半	-4511
呱呱	-4512
坐车	-4513
教师	-4514
男朋友	-4515
治理	-4516
六十	-4517
北方	-4518
摆动	-4519
狠狠	-4520
那我	-4521
溶液中	-4522
蓝色的	-4523
食物链	-4524
寒冷	-4525
超市	-4526
▁5.	-4527
带来了	-4528
我们在	-4529
的日子	-4530
个体	-4531
积累	-4532
怎么办呢	-4533
▁小朋友们	-4534
彼此	-4535
得出	-4536
想吃	-4537
叫什么	-4538
条件下	-4539
老奶奶	-4540
}_{0}}	-4541
他人	-4542
身后	-4543
{7	-4544
小乌龟	-4545
两次	-4546
很高	-4547
财政	-4548
飞来	-4549
哈哈大笑	-4550
8\	-4551
她就	-4552
干活	-4553
▁看到	-4554
更多财经资讯	-4555
▁#	-4556
着的	-4557
色彩	-4558
▁终于	-4559
也好	-4560
机制	-4561
了许多	-4562
会上	-4563
覆盖	-4564
对的	-4565
露出	-4566
叫起来	-4567
听到了	-4568
}_{4	-4569
去买	-4570
监管	-4571
▁比如	-4572
他就是	-4573
集体	-4574
IS	-4575
做出	-4576
静静	-4577
答应了	-4578
涨停	-4579
的笑	-4580
铅笔	-4581
▁老鼠	-4582
觉得很	-4583
4\	-4584
大伙	-4585
小黄	-4586
烦恼	-4587
老鹰	-4588
▁$#	-4589
▁养	-4590
一人	-4591
吃完	-4592
喷嚏	-4593
牡丹	-4594
让它	-4595
车上	-4596
病人	-4597
症状	-4598
箱子	-4599
相当于	-4600
厘米	-4601
在水中	-4602
投入	-4603
斯拉	-4604
不属于	-4605
也都	-4606
回聊	-4607
眼里	-4608
酒精	-4609
▁兔子	-4610
主题	-4611
事物	-4612
岁的	-4613
机关	-4614
病例	-4615
他们在	-4616
回到了	-4617
我已经	-4618
肯定会	-4619
=0$$	-4620
火虫	-4621
田野	-4622
细菌	-4623
遗憾	-4624
▁来自	-4625
我好	-4626
温柔	-4627
▁到处	-4628
▁敢	-4629
爆发	-4630
的有	-4631
碳酸	-4632
不来	-4633
国民	-4634
曹操	-4635
▁干么	-4636
告诉了	-4637
我一直	-4638
足球比赛	-4639
23	-4640
实话	-4641
▁一些	-4642
▁青	-4643
热的	-4644
路过	-4645
跟你说	-4646
80	-4647
双方	-4648
性状	-4649
打得	-4650
洋洋	-4651
说说	-4652
时光	-4653
曼联	-4654
自从	-4655
饿了	-4656
两年	-4657
商量	-4658
▁扔	-4659
儿的	-4660
对象	-4661
展示	-4662
kg	-4663
一道	-4664
▁照	-4665
再也	-4666
想的	-4667
花朵	-4668
问他	-4669
一个月	-4670
那个时候	-4671
伟大	-4672
这场	-4673
▁狮子	-4674
我自己	-4675
依法	-4676
宝石	-4677
就和	-4678
往下	-4679
无数	-4680
红了	-4681
高考	-4682
看不见	-4683
▁====	-4684
▁兔	-4685
由此	-4686
穿上	-4687
}{{	-4688
▁我还	-4689
▁乱	-4690
哪种	-4691
规范	-4692
适宜	-4693
再生	-4694
叶片	-4695
节奏	-4696
我还有事	-4697
俱乐	-4698
舞蹈	-4699
蜻蜓	-4700
计时	-4701
院子里	-4702
收益	-4703
风景	-4704
可以用	-4705
都不会	-4706
依旧	-4707
到来	-4708
小了	-4709
巨人	-4710
运营	-4711
▁解得	-4712
在中国	-4713
有两个	-4714
萤火虫	-4715
头的	-4716
缺乏	-4717
顺着	-4718
鲜花	-4719
▁时间	-4720
俱乐部	-4721
▁转	-4722
吃过	-4723
的头	-4724
进攻	-4725
这一天	-4726
▁这样啊	-4727
▁j	-4728
小灰	-4729
线圈	-4730
摇摇头	-4731
▁比如说	-4732
一旦	-4733
成果	-4734
怎么能	-4735
▁xia	-4736
▁样	-4737
咕噜	-4738
道德	-4739
队友	-4740
预期	-4741
的运动	-4742
六月	-4743
.13	-4744
▁故选择	-4745
还原	-4746
一想	-4747
街上	-4748
▁光	-4749
化石	-4750
孤独	-4751
陪伴	-4752
小动物	-4753
不吃	-4754
业绩	-4755
事故	-4756
性能	-4757
某些	-4758
封建	-4759
蒸发	-4760
行驶	-4761
俄罗斯	-4762
▁有时候	-4763
八百	-4764
发射	-4765
毫不	-4766
怎么回事	-4767
百分之二十	-4768
急得	-4769
五月	-4770
那时	-4771
受不了	-4772
▁热点财经资讯	-4773
=6	-4774
大雨	-4775
得更	-4776
▁生活	-4777
就是在	-4778
踢足球	-4779
建造	-4780
诗歌	-4781
▁wanr	-4782
动漫	-4783
彻底	-4784
羊羊	-4785
规划	-4786
你自己	-4787
给自己	-4788
22	-4789
像是	-4790
防控	-4791
_{0	-4792
最近有	-4793
▁年	-4794
对呀	-4795
菲菲	-4796
走来	-4797
▁除了	-4798
空气中	-4799
给他们	-4800
题目中	-4801
▁贴	-4802
他要	-4803
越高	-4804
速率	-4805
十一月	-4806
回答正确	-4807
地向	-4808
座位	-4809
珍珠	-4810
目光	-4811
自信	-4812
也被	-4813
支撑	-4814
监督	-4815
讲述	-4816
鱼儿	-4817
不符合	-4818
大家的	-4819
▁$${{	-4820
家门	-4821
你觉得	-4822
_2$$	-4823
嘲笑	-4824
整数	-4825
是呀	-4826
一开始	-4827
没关系	-4828
▁钱	-4829
下课	-4830
匆匆	-4831
大熊	-4832
尽量	-4833
无奈	-4834
脂肪	-4835
表情	-4836
意味着	-4837
▁没关系	-4838
真的是太	-4839
上帝	-4840
草地	-4841
不说了	-4842
▁摸	-4843
不觉	-4844
气温	-4845
▁姊姊	-4846
▁西安	-4847
要不然	-4848
|}#$	-4849
八十	-4850
分配	-4851
快的	-4852
夫人	-4853
▁送	-4854
们的	-4855
小树	-4856
指挥	-4857
排球	-4858
▁是吧	-4859
}^{3}}	-4860
▁痛	-4861
东方	-4862
将会	-4863
氢氧化	-4864
写着	-4865
怀里	-4866
成年	-4867
攻击	-4868
▁有些	-4869
的名字	-4870
回忆	-4871
七月	-4872
开花	-4873
批评	-4874
研发	-4875
▁毕竟	-4876
分别是	-4877
的内容	-4878
蓝狐狸	-4879
百分之零点	-4880
情节	-4881
月光	-4882
老爷	-4883
所在	-4884
放进	-4885
在里面	-4886
▁hui	-4887
交换	-4888
含量	-4889
神仙	-4890
随后	-4891
▁你好你好	-4892
mi	-4893
▁嘞	-4894
的妈妈	-4895
每一	-4896
白白	-4897
荷叶	-4898
今天的	-4899
▁你也在关注	-4900
河水	-4901
走过	-4902
鲨鱼	-4903
爸爸的	-4904
▁/	-4905
留言	-4906
_{1	-4907
▁乖乖	-4908
▁哪儿	-4909
放大镜	-4910
的一切	-4911
看出	-4912
▁很多	-4913
▁那就	-4914
我不是	-4915
着一个	-4916
和水	-4917
这件	-4918
000	-4919
给你们	-4920
低头	-4921
工人	-4922
战斗	-4923
清晰	-4924
:$${	-4925
}}_2}$$	-4926
▁些	-4927
▁铺	-4928
爬上	-4929
脚下	-4930
中国人	-4931
情况下	-4932
=0	-4933
单调	-4934
轨迹	-4935
ABC	-4936
}{6	-4937
一到	-4938
小组	-4939
成语	-4940
$$20	-4941
▁dong	-4942
窗外	-4943
小蜜蜂	-4944
依赖	-4945
型的	-4946
孔子	-4947
开的	-4948
粒子	-4949
黑的	-4950
因为它	-4951
▁哟	-4952
▁身	-4953
他和	-4954
天鹅	-4955
的确	-4956
篮子	-4957
▁南都	-4958
可爱的小	-4959
▁心	-4960
作家	-4961
供应	-4962
大喊	-4963
山东	-4964
斑马	-4965
而言	-4966
不错啊	-4967
特别喜欢	-4968
70	-4969
溜溜	-4970
爱吃	-4971
鲤鱼	-4972
-5	-4973
功率	-4974
放松	-4975
的味道	-4976
高兴地说	-4977
再聊	-4978
相似	-4979
SO	-4980
▁安	-4981
在海	-4982
应当	-4983
会导致	-4984
▁报	-4985
不让	-4986
媳妇	-4987
水面	-4988
其它	-4989
手法	-4990
无比	-4991
的总	-4992
请求	-4993
那就是	-4994
叫我	-4995
风格	-4996
▁你这是	-4997
从来没有	-4998
又要	-4999
理由	-5000
老爸	-5001
股价	-5002
高了	-5003
乎乎	-5004
人啊	-5005
劲儿	-5006
糊涂	-5007
自主	-5008
.24	-5009
命题	-5010
弹簧	-5011
硝酸	-5012
一点点	-5013
▁{{10	-5014
成一	-5015
默默	-5016
.23	-5017
我不知道	-5018
资本主义	-5019
on	-5020
四月	-5021
奔跑	-5022
当初	-5023
涨幅	-5024
补充	-5025
有助于	-5026
本题选	-5027
的朋友	-5028
▁(3)	-5029
▁昂	-5030
八月	-5031
嘿嘿	-5032
稻草	-5033
股东	-5034
▁一边	-5035
▁因此	-5036
到现在	-5037
_3	-5038
大婶	-5039
大多数	-5040
的情况下	-5041
名医	-5042
小小	-5043
藏在	-5044
运气	-5045
饼干	-5046
我看到	-5047
的机会	-5048
七十	-5049
申请	-5050
看好	-5051
要把	-5052
原来的	-5053
就行了	-5054
打游戏	-5055
看上去	-5056
又一	-5057
和谐	-5058
土豆	-5059
客厅	-5060
教训	-5061
王后	-5062
龙头	-5063
不愿意	-5064
的叙述	-5065
叫道	-5066
魔鬼	-5067
▁19	-5068
回答错误	-5069
都不知道	-5070
{6	-5071
河流	-5072
走向	-5073
学院	-5074
客观	-5075
爆炸	-5076
睁开	-5077
美好的	-5078
▁发	-5079
图书	-5080
沉淀	-5081
物品	-5082
相处	-5083
利的	-5084
板上	-5085
▁乔治	-5086
▁判断题	-5087
▁巴	-5088
共和	-5089
火的	-5090
继承	-5091
▁狐狸	-5092
高高的	-5093
但他	-5094
化妆	-5095
承担	-5096
斜面	-5097
$$8$$	-5098
人心	-5099
佩服	-5100
光了	-5101
清晨	-5102
▁没事	-5103
想了想	-5104
遇到了	-5105
对我	-5106
细节	-5107
美食	-5108
▁huai	-5109
七八	-5110
不由	-5111
为零	-5112
哎哟	-5113
场景	-5114
家乡	-5115
疑问	-5116
东北	-5117
手段	-5118
暑假	-5119
长着	-5120
小孩子	-5121
看不到	-5122
pp	-5123
先进	-5124
自语	-5125
▁好啊	-5126
▁玩儿	-5127
人和	-5128
野猪	-5129
钥匙	-5130
上午	-5131
上述	-5132
会被	-5133
威胁	-5134
腾讯	-5135
很快就	-5136
..."	-5137
▁卡	-5138
算了	-5139
饮食	-5140
一股	-5141
欢乐	-5142
▁戴	-5143
具备	-5144
千克	-5145
权力	-5146
纪念	-5147
世界上最	-5148
几次	-5149
匀速	-5150
即将	-5151
收到	-5152
的脸	-5153
▁这边	-5154
的现象	-5155
.$$3	-5156
+5	-5157
▁公	-5158
大约	-5159
搜索	-5160
滴滴	-5161
石油	-5162
({{	-5163
他自己	-5164
浙江	-5165
灯泡	-5166
什么呀	-5167
走过来	-5168
}$$;	-5169
三种	-5170
啄木	-5171
本质	-5172
桃花	-5173
毫无	-5174
至今	-5175
鹦鹉	-5176
▁干吗	-5177
优秀的	-5178
的身体	-5179
▁班	-5180
了两	-5181
类似	-5182
还真	-5183
$$7	-5184
▁七点	-5185
▁这一刻就是这些	-5186
夺冠	-5187
步骤	-5188
深入	-5189
磁性	-5190
都已经	-5191
项正确	-5192
▁我喜欢	-5193
它在	-5194
宿舍	-5195
西方	-5196
有点儿	-5197
水流	-5198
犹豫	-5199
TER	-5200
▁蜘蛛	-5201
云朵	-5202
看完	-5203
非洲	-5204
是通过	-5205
没有了	-5206
站起来	-5207
围绕	-5208
坐着	-5209
热爱	-5210
SIS	-5211
SISTER	-5212
包含	-5213
的书	-5214
预告	-5215
化合物	-5216
房地产	-5217
挺喜欢	-5218
▁}	-5219
个好	-5220
融资	-5221
的人们	-5222
的行为	-5223
小草	-5224
直角	-5225
花猫	-5226
▁狗儿	-5227
飞走了	-5228
放入	-5229
▁声音	-5230
又大	-5231
杭州	-5232
身高	-5233
比较多	-5234
的距离	-5235
这是一	-5236
|\	-5237
主持	-5238
升级	-5239
在那	-5240
天然	-5241
忙着	-5242
龙王	-5243
▁过去	-5244
▁朵	-5245
人数	-5246
光源	-5247
不下	-5248
人大	-5249
环节	-5250
画画	-5251
纤维	-5252
▁亲	-5253
唱着	-5254
思维	-5255
▁的话	-5256
▁藏	-5257
地在	-5258
救了	-5259
等我	-5260
啄木鸟	-5261
Fe	-5262
成员	-5263
花花	-5264
转动	-5265
过得	-5266
▁我感觉	-5267
一份	-5268
反复	-5269
大大	-5270
你看了	-5271
出了一个	-5272
▁<	-5273
消化	-5274
落到	-5275
法院	-5276
▁是嘛	-5277
▁蜜蜂	-5278
他们都	-5279
很高兴	-5280
结束了	-5281
一面	-5282
作文	-5283
▁也许	-5284
制的	-5285
同比	-5286
袋子	-5287
让她	-5288
赛事	-5289
采集	-5290
可以在	-5291
方程为	-5292
▁咬	-5293
▁求	-5294
大师	-5295
就跑	-5296
恰当	-5297
着大	-5298
难了	-5299
▁游泳	-5300
会影响	-5301
兔妈妈	-5302
我也不	-5303
▁祝	-5304
不成	-5305
依次	-5306
半个	-5307
坐吧	-5308
画面	-5309
队长	-5310
的人都	-5311
▁gan	-5312
直线运动	-5313
免疫	-5314
很小	-5315
的海	-5316
▁我们下	-5317
说法正确	-5318
▁下列关于	-5319
▁i	-5320
他了	-5321
吃饱	-5322
裤子	-5323
▁我记得	-5324
中正确的是	-5325
大夫	-5326
抬起	-5327
飞去	-5328
▁七点早知道	-5329
向量	-5330
就业	-5331
必然	-5332
▁一般	-5333
官员	-5334
战胜	-5335
打败	-5336
村民	-5337
▁旁边	-5338
▁$$3	-5339
平静	-5340
是用	-5341
电能	-5342
所以说	-5343
▁xie	-5344
的过程中	-5345
去世	-5346
四年	-5347
▁随着	-5348
hu	-5349
小溪	-5350
一跳	-5351
场所	-5352
完美	-5353
看你	-5354
对自己	-5355
就已经	-5356
叫他	-5357
太空	-5358
中国队	-5359
人们的	-5360
无限	-5361
玩笑	-5362
都快	-5363
▁BC	-5364
可能性	-5365
把这个	-5366
爸爸说	-5367
上场	-5368
两百	-5369
班牙	-5370
飞船	-5371
但是他	-5372
1!	-5373
付出	-5374
客户	-5375
第二次	-5376
不肯	-5377
军队	-5378
蜡烛	-5379
题材	-5380
好呀	-5381
差距	-5382
不就是	-5383
历史上	-5384
圆圆的	-5385
不清	-5386
台湾	-5387
各地	-5388
尝试	-5389
所需	-5390
暖和	-5391
{20	-5392
的食物	-5393
勇气	-5394
女性	-5395
对外	-5396
推出	-5397
翼翼	-5398
近日	-5399
看到的	-5400
▁你平时	-5401
▁鸟	-5402
与其	-5403
趴在	-5404
软的	-5405
▁不能	-5406
▁有点	-5407
不出来	-5408
会发生	-5409
你也是	-5410
充满了	-5411
飞快地	-5412
七百	-5413
创作	-5414
卧室	-5415
皇上	-5416
越多	-5417
▁其他	-5418
意思是	-5419
这也是	-5420
▁口	-5421
▁果	-5422
对话	-5423
酒店	-5424
▁好好	-5425
两端	-5426
公英	-5427
动手	-5428
吃得	-5429
杠杆	-5430
节约	-5431
费用	-5432
▁只是	-5433
甜甜的	-5434
让自己	-5435
▁$$2	-5436
透镜	-5437
一定的	-5438
$${{\	-5439
▁按	-5440
头来	-5441
肌肉	-5442
还说	-5443
餐厅	-5444
蒲公英	-5445
}$$,$$\	-5446
,\	-5447
▁风	-5448
三分	-5449
大事	-5450
实的	-5451
小河	-5452
敲门	-5453
讲讲	-5454
怎么也	-5455
的一天	-5456
▁接下来	-5457
$.	-5458
为他	-5459
冰箱	-5460
大幅	-5461
心态	-5462
钓鱼	-5463
鸽子	-5464
▁爷爷	-5465
▁翅膀	-5466
在我们	-5467
新闻吗	-5468
特斯拉	-5469
的第一	-5470
▁deng	-5471
傻瓜	-5472
围着	-5473
▁O	-5474
▁生	-5475
天哪	-5476
检验	-5477
窝里	-5478
而来	-5479
蝌蚪	-5480
▁dai	-5481
,0	-5482
边形	-5483
的事儿	-5484
=0$$,	-5485
椭圆	-5486
▁em	-5487
就是因为	-5488
▁药	-5489
南都	-5490
疫苗	-5491
矿物	-5492
门外	-5493
.$$2	-5494
}}+{{	-5495
取决	-5496
游客	-5497
级的	-5498
走在	-5499
跳到	-5500
配置	-5501
▁话	-5502
不禁	-5503
金额	-5504
黑了	-5505
伟大的	-5506
地球上	-5507
零一夜	-5508
内能	-5509
子和	-5510
导线	-5511
are	-5512
▁kai	-5513
分泌	-5514
团结	-5515
经理	-5516
赚钱	-5517
有一条	-5518
德在您身边	-5519
II	-5520
不合	-5521
原本	-5522
商店	-5523
对待	-5524
就行	-5525
灵活	-5526
种植	-5527
金鱼	-5528
▁肚子	-5529
不及待	-5530
不得不	-5531
世界的	-5532
迫不及待	-5533
奋斗	-5534
山的	-5535
市值	-5536
诸葛	-5537
▁相关	-5538
失去了	-5539
▁妈	-5540
住房	-5541
将来	-5542
把她	-5543
裁判	-5544
观念	-5545
▁第三	-5546
提供了	-5547
计算机	-5548
▁脸	-5549
确诊	-5550
艰难	-5551
落地	-5552
.14	-5553
bu	-5554
不信	-5555
回收	-5556
概括	-5557
的中	-5558
重复	-5559
成为了	-5560
我真的	-5561
的颜色	-5562
肚子里	-5563
高兴极了	-5564
▁连	-5565
尴尬	-5566
闭上	-5567
RNA	-5568
▁2\	-5569
▁刚刚	-5570
▁瓶子	-5571
▁马上	-5572
?。	-5573
个小	-5574
幸运	-5575
细细	-5576
航空	-5577
▁北京	-5578
不怎么	-5579
吃完了	-5580
▁字	-5581
一顿	-5582
千里	-5583
▁Na	-5584
▁市场	-5585
开心地	-5586
',	-5587
叽叽	-5588
呆了	-5589
喜爱	-5590
大陆	-5591
庄稼	-5592
航天	-5593
▁全国	-5594
▁好吗	-5595
取决于	-5596
女朋友	-5597
机械能	-5598
还是有	-5599
这里的	-5600
项错误	-5601
什么样的	-5602
变量	-5603
只会	-5604
钻进	-5605
颜值	-5606
不聊了	-5607
你这是	-5608
这一次	-5609
{2}{3	-5610
▁且	-5611
▁数	-5612
他能	-5613
外卖	-5614
拿来	-5615
民间	-5616
翻译	-5617
阳台	-5618
\}$$	-5619
宪法	-5620
激素	-5621
阿里	-5622
"";	-5623
在空中	-5624
就是他	-5625
滑梯	-5626
程序	-5627
就觉得	-5628
的温度	-5629
再来	-5630
我爱	-5631
提到	-5632
是大	-5633
重心	-5634
把它们	-5635
小心翼翼	-5636
>0	-5637
吃着	-5638
的钱	-5639
进球	-5640
陌生	-5641
▁就像	-5642
厉害啊	-5643
言自语	-5644
90	-5645
▁俩	-5646
就连	-5647
老公	-5648
讲的	-5649
诗句	-5650
适当	-5651
▁明天	-5652
好像在	-5653
yang	-5654
独特	-5655
天上的	-5656
看了一	-5657
抖音	-5658
留在	-5659
着我	-5660
自然界	-5661
▁教	-5662
个大	-5663
取消	-5664
好事	-5665
守恒	-5666
总统	-5667
打扮	-5668
最佳	-5669
每当	-5670
了过来	-5671
人类的	-5672
慢慢的	-5673
{}^\	-5674
▁丢	-5675
为人	-5676
屏幕	-5677
▁别人	-5678
中华民族	-5679
我们一起	-5680
应对	-5681
气得	-5682
跟前	-5683
▁我去	-5684
宝贝们	-5685
枕头	-5686
辣椒	-5687
受到的	-5688
的人生	-5689
很久以前	-5690
▁∴$$\	-5691
一共	-5692
不幸	-5693
久了	-5694
位数	-5695
公告	-5696
恋爱	-5697
花生	-5698
逻辑	-5699
鼠狼	-5700
()。	-5701
的最大	-5702
▁北	-5703
好处	-5704
糟糕	-5705
资格	-5706
▁主要	-5707
被称为	-5708
把自己的	-5709
一生	-5710
危害	-5711
▁破	-5712
开口	-5713
看书	-5714
DNA	-5715
不是说	-5716
的消息	-5717
的衣服	-5718
著名的	-5719
一时	-5720
你为什么	-5721
▁咪	-5722
公里	-5723
咕咕	-5724
比分	-5725
狗熊	-5726
身材	-5727
金子	-5728
men	-5729
我们班	-5730
▁网	-5731
保留	-5732
免费	-5733
她在	-5734
开车	-5735
淘宝	-5736
秋千	-5737
黄的	-5738
说的是	-5739
Omega	-5740
)+	-5741
小海	-5742
科比	-5743
了一声	-5744
停下来	-5745
他会	-5746
房屋	-5747
泉水	-5748
远的	-5749
剪刀	-5750
小马	-5751
惊奇	-5752
桌上	-5753
王者	-5754
袜子	-5755
讲解	-5756
我以前	-5757
的精神	-5758
要注意	-5759
▁陪	-5760
开关	-5761
离婚	-5762
走啊	-5763
远了	-5764
阵容	-5765
▁mol	-5766
中国女排	-5767
自言自语	-5768
万一	-5769
打击	-5770
村里	-5771
实现了	-5772
看新闻	-5773
su	-5774
喝水	-5775
▁准备	-5776
地球的	-5777
过来了	-5778
珍惜	-5779
纪录	-5780
长江	-5781
▁介绍	-5782
大口	-5783
菊花	-5784
下面的	-5785
生命的	-5786
说法正确的是	-5787
}-	-5788
▁o	-5789
▁甲	-5790
国产	-5791
带上	-5792
毛病	-5793
稍微	-5794
聚集	-5795
=2\	-5796
▁月亮	-5797
一句话	-5798
▁少	-5799
为你	-5800
商人	-5801
夫妇	-5802
平等	-5803
风雨	-5804
是非常	-5805
反应生成	-5806
嗓子	-5807
看他	-5808
▁你有	-5809
也不错	-5810
笨笨熊	-5811
部的	-5812
的关键	-5813
就是那种	-5814
错误的是	-5815
回归	-5816
点燃	-5817
也是很	-5818
多样性	-5819
的人物	-5820
也想	-5821
六年	-5822
显著	-5823
随意	-5824
▁包括	-5825
熊妈妈	-5826
神奇的	-5827
▁亮	-5828
就得	-5829
平安	-5830
扑通	-5831
解放	-5832
在我的	-5833
电磁波	-5834
=1$$,	-5835
天地	-5836
小船	-5837
朝廷	-5838
沿着	-5839
缺少	-5840
雪人	-5841
前段时间	-5842
饮料	-5843
:$$1	-5844
}}{{	-5845
南京	-5846
就跟	-5847
▁高兴	-5848
是我国	-5849
梅花鹿	-5850
}}_{2}}	-5851
人群	-5852
动着	-5853
荷花	-5854
老百姓	-5855
舍不得	-5856
西班牙	-5857
||$$\	-5858
丢了	-5859
我真	-5860
改进	-5861
一块儿	-5862
做一个	-5863
▁lao	-5864
可不	-5865
官方	-5866
影片	-5867
生理	-5868
谷歌	-5869
▁ha	-5870
▁以上	-5871
▁电	-5872
体温	-5873
干燥	-5874
路边	-5875
这回	-5876
▁游戏	-5877
----	-5878
一对	-5879
冲击	-5880
占比	-5881
血液	-5882
细胞的	-5883
}_{2}}$$	-5884
▁同比增长百分之	-5885
做饭	-5886
旋转	-5887
竖直	-5888
考验	-5889
辐射	-5890
这方面	-5891
5$$,	-5892
愉快	-5893
歌声	-5894
洞口	-5895
了不起	-5896
我给你	-5897
目的是	-5898
▁我现在	-5899
就是这样	-5900
▁腿	-5901
乌云	-5902
蟋蟀	-5903
主张	-5904
司马	-5905
星球	-5906
的名	-5907
食堂	-5908
▁名字	-5909
十二点	-5910
}(	-5911
▁灯	-5912
咯咯	-5913
大力	-5914
注重	-5915
芯片	-5916
强大的	-5917
我当时	-5918
五千	-5919
她是	-5920
最低	-5921
某种	-5922
流行	-5923
饺子	-5924
▁接着	-5925
才知道	-5926
▁百	-5927
定理	-5928
激烈	-5929
走的	-5930
违法	-5931
▁样子	-5932
成了一	-5933
,《	-5934
就是这个	-5935
还是比较	-5936
{1}{2}\	-5937
窗口	-5938
说到	-5939
隔离	-5940
我们是	-5941
达到了	-5942
广场	-5943
环保	-5944
得太	-5945
水和	-5946
淘气	-5947
▁水果	-5948
电影院	-5949
一遍	-5950
响了	-5951
▁不然	-5952
有许多	-5953
▁猫头鹰	-5954
3!	-5955
结局	-5956
过于	-5957
逐步	-5958
下车了	-5959
▁xiang	-5960
合力	-5961
均为	-5962
正当	-5963
老是	-5964
▁上去	-5965
▁国家	-5966
他现在	-5967
概率	-5968
欢呼	-5969
所有人	-5970
▁然后就	-5971
变大	-5972
委屈	-5973
小区	-5974
巨大	-5975
手上	-5976
着他	-5977
起点	-5978
0\%	-5979
▁不管	-5980
天空中	-5981
是由于	-5982
的手机	-5983
▁二零一	-5984
-6	-5985
BR	-5986
公子	-5987
淘淘	-5988
疑惑	-5989
▁皮皮	-5990
得像	-5991
我妈	-5992
本事	-5993
没法	-5994
获取	-5995
▁而是	-5996
我们家	-5997
^{2}+	-5998
克斯	-5999
制定	-6000
摇晃	-6001
胖猪	-6002
▁找到	-6003
我看了	-6004
都知道	-6005
▁一会儿	-6006
光在	-6007
拉拉	-6008
胳膊	-6009
社会的	-6010
我很喜欢	-6011
对比	-6012
筷子	-6013
能在	-6014
大量的	-6015
▁ting	-6016
咳嗽	-6017
验证	-6018
的物体	-6019
为啥	-6020
义务	-6021
做事	-6022
前进	-6023
我从	-6024
孙悟空	-6025
▁米	-6026
棵树	-6027
胆子	-6028
随时	-6029
有一点	-6030
▁够	-6031
▁脏	-6032
外援	-6033
▁汽车	-6034
一辆	-6035
你来	-6036
勤劳	-6037
帝国	-6038
强烈	-6039
报纸	-6040
▁今晚	-6041
什么啊	-6042
▁100	-6043
▁jia	-6044
▁我看了	-6045
一双	-6046
九百	-6047
喊着	-6048
说我	-6049
▁AC	-6050
不好的	-6051
广东省	-6052
忘记了	-6053
的动物	-6054
这么大	-6055
▁{{\	-6056
相互作用	-6057
▁块	-6058
和大	-6059
喝酒	-6060
女巫	-6061
格局	-6062
牛顿	-6063
禁止	-6064
原因是	-6065
房子里	-6066
▁鹿	-6067
出自	-6068
出行	-6069
显然	-6070
棒了	-6071
议论	-6072
飞翔	-6073
▁BD	-6074
▁zi	-6075
▁平时	-6076
▁二零一九年	-6077
▁弹	-6078
听的	-6079
▁-\	-6080
市场的	-6081
BROTHER	-6082
伸手	-6083
前后	-6084
积木	-6085
记载	-6086
▁才能	-6087
朵朵	-6088
给予	-6089
▁受	-6090
交给	-6091
动量	-6092
喳喳	-6093
笔记	-6094
著名	-6095
解得	-6096
的游戏	-6097
近代	-6098
可以的	-6099
的世界	-6100
高兴了	-6101
▁zhi	-6102
▁shou	-6103
不听	-6104
低于	-6105
你别	-6106
各国	-6107
感激	-6108
突出	-6109
了过去	-6110
小蜗牛	-6111
改造	-6112
焦点	-6113
种的	-6114
▁看了	-6115
黄鼠狼	-6116
▁zhao	-6117
中了	-6118
悠悠	-6119
草丛里	-6120
不时	-6121
逃跑	-6122
▁材料	-6123
下来的	-6124
想办法	-6125
▁dui	-6126
▁双	-6127
博物	-6128
清洁	-6129
联储	-6130
路程	-6131
▁gu	-6132
处理器	-6133
就是你	-6134
渐渐地	-6135
的这种	-6136
}}_4	-6137
又说	-6138
导电	-6139
春节	-6140
看法	-6141
了好多	-6142
全世界	-6143
太阳公公	-6144
这个问题	-6145
▁向	-6146
▁周	-6147
▁挺	-6148
地跑	-6149
日的	-6150
沙滩	-6151
理念	-6152
)$,	-6153
▁变成	-6154
回来的	-6155
太大了	-6156
2?	-6157
▁咱	-6158
年了	-6159
种群	-6160
老的	-6161
设施	-6162
不得了	-6163
小鸭子	-6164
水资源	-6165
▁重	-6166
假设	-6167
却是	-6168
它说	-6169
实数	-6170
意大	-6171
才行	-6172
▁通过	-6173
比赛的	-6174
这可是	-6175
▁记	-6176
▁面	-6177
依靠	-6178
告别	-6179
想看	-6180
要有	-6181
发生在	-6182
鸡妈妈	-6183
$$。"	-6184
▁想了解	-6185
}}={{	-6186
=9	-6187
公元	-6188
加工	-6189
抱怨	-6190
只不过	-6191
的一部分	-6192
35	-6193
▁刚	-6194
吃到	-6195
樱桃	-6196
银子	-6197
可惜了	-6198
NO	-6199
万人	-6200
不安	-6201
充足	-6202
美美	-6203
路了	-6204
▁娃娃	-6205
生气了	-6206
颜色的	-6207
▁唱	-6208
爱国	-6209
的正	-6210
谁知	-6211
▁下次	-6212
▁无论	-6213
上课了	-6214
▁来自南方都市报播报	-6215
up	-6216
举起	-6217
之处	-6218
小木	-6219
异常	-6220
快了	-6221
水蒸	-6222
约为	-6223
dao	-6224
▁可不	-6225
~{	-6226
▁越	-6227
启事	-6228
惩罚	-6229
活着	-6230
秩序	-6231
门前	-6232
▁真是	-6233
在水里	-6234
就知道	-6235
一笑	-6236
澳大	-6237
往前走	-6238
的功能	-6239
▁哈哈哈哈哈	-6240
▁乖	-6241
技能	-6242
不等式	-6243
好不好	-6244
▁真的是	-6245
▁蓝	-6246
企鹅	-6247
写字	-6248
合同	-6249
^{2	-6250
想起了	-6251
提出了	-6252
▁早	-6253
七年	-6254
化了	-6255
白雪	-6256
▁办法	-6257
▁本来	-6258
剩下的	-6259
办公室	-6260
环境的	-6261
的定义	-6262
发现自己	-6263
之间的关系	-6264
▁错	-6265
大战	-6266
立马	-6267
▁好玩	-6268
=1$$	-6269
各种各样的	-6270
▁X	-6271
所得	-6272
生了	-6273
荣耀	-6274
设置	-6275
他们说	-6276
睡不着	-6277
老婆婆	-6278
▁shei	-6279
}$$,$${{	-6280
~"	-6281
老了	-6282
遇见	-6283
▁世界	-6284
谁也不	-6285
新官肺炎	-6286
展现	-6287
海里	-6288
贝壳	-6289
▁赶快	-6290
▁首先	-6291
不断地	-6292
质量为	-6293
经济发展	-6294
不符	-6295
冬眠	-6296
又在	-6297
装置	-6298
颜六	-6299
你这么	-6300
六十五	-6301
第三个	-6302
菲菲姐姐	-6303
▁可不是吗	-6304
人为	-6305
体质	-6306
演唱	-6307
荣誉	-6308
了一块	-6309
净利润	-6310
会对	-6311
我再	-6312
气味	-6313
笨狼	-6314
过分	-6315
遭遇	-6316
你快	-6317
把手	-6318
走啦	-6319
零零	-6320
▁CD	-6321
▁另外	-6322
思考哪些	-6323
Cu	-6324
▁浴	-6325
之情	-6326
代替	-6327
力度	-6328
南极	-6329
场的	-6330
找来	-6331
白菜	-6332
自豪	-6333
证据	-6334
很容易	-6335
紧紧地	-6336
发生变化	-6337
越来越多	-6338
这个时候	-6339
这是一个	-6340
这样一个	-6341
}>	-6342
你先	-6343
几只	-6344
很强	-6345
斗争	-6346
要在	-6347
万亿元	-6348
▁\\\	-6349
3\	-6350
外出	-6351
对面	-6352
往上	-6353
杰克	-6354
完成了	-6355
想不到	-6356
▁DNA	-6357
▁$${{{	-6358
▁满	-6359
六个	-6360
变的	-6361
成交	-6362
挣扎	-6363
排放	-6364
橘子	-6365
眉头	-6366
▁||	-6367
都喜欢	-6368
当他	-6369
溶于	-6370
▁圆形	-6371
的时候就	-6372
这个新闻	-6373
先后	-6374
压强	-6375
密的	-6376
巴黎	-6377
年前	-6378
愤怒	-6379
暴力	-6380
条纹	-6381
这就	-6382
▁也不	-6383
▁厨房	-6384
图书馆	-6385
的儿子	-6386
简单的	-6387
▁寻	-6388
眼看	-6389
讲话	-6390
贝尔	-6391
高高	-6392
着眼睛	-6393
▁难	-6394
刷牙	-6395
姿势	-6396
豆腐	-6397
转换	-6398
▁电视	-6399
▁篮球	-6400
学会了	-6401
▁我之前	-6402
▁可不可以	-6403
召开	-6404
对小	-6405
悲伤	-6406
找个	-6407
的我	-6408
舞台	-6409
饱和	-6410
驴子	-6411
▁地下	-6412
▁要是	-6413
之所以	-6414
吃东西	-6415
这说明	-6416
▁想了解更多财经资讯	-6417
三只	-6418
央行	-6419
十二月	-6420
娱乐圈	-6421
我们国家	-6422
.$${{	-6423
!!	-6424
一支	-6425
亮了	-6426
体内	-6427
大哭	-6428
杂交	-6429
相遇	-6430
紫色	-6431
车辆	-6432
▁+\	-6433
时间内	-6434
▁dianr	-6435
▁捡	-6436
三大	-6437
不定	-6438
不已	-6439
仅仅	-6440
原谅	-6441
梯子	-6442
火了	-6443
羚羊	-6444
屋子里	-6445
进入了	-6446
后期	-6447
纸带	-6448
▁保护	-6449
什么都	-6450
你应该	-6451
同一个	-6452
=8	-6453
九月	-6454
冬季	-6455
字的	-6456
心疼	-6457
恐怕	-6458
担任	-6459
下一个	-6460
年轻的	-6461
形成了	-6462
文化的	-6463
主要考查	-6464
▁毛	-6465
区间	-6466
干了	-6467
疯狂	-6468
笑话	-6469
网站	-6470
铁路	-6471
电路中	-6472
超过了	-6473
黑色的	-6474
-1$$	-6475
可以说是	-6476
园里	-6477
居住	-6478
情景	-6479
符号	-6480
只剩下	-6481
有一定的	-6482
个个	-6483
刻度	-6484
拇指	-6485
有害	-6486
瞧瞧	-6487
酸性	-6488
▁并且	-6489
外面的	-6490
小声	-6491
小弟	-6492
技巧	-6493
报名	-6494
望去	-6495
▁吵架	-6496
2$$,	-6497
▁{{10}^{	-6498
代谢	-6499
几十	-6500
到我	-6501
前往	-6502
又把	-6503
太平	-6504
知乎	-6505
社区	-6506
融合	-6507
shi	-6508
▁毛毛虫	-6509
▁喊	-6510
光滑	-6511
浇水	-6512
这话	-6513
不适合	-6514
▁木	-6515
习近	-6516
波波	-6517
▁AD	-6518
快乐的	-6519
未来的	-6520
▁绿	-6521
一见	-6522
充电	-6523
写了	-6524
叶绿	-6525
同伴	-6526
村庄	-6527
眼神	-6528
通道	-6529
过了一会儿	-6530
再看	-6531
喝了	-6532
总结	-6533
抑郁	-6534
生素	-6535
董事	-6536
-1)	-6537
不过我	-6538
有时间	-6539
红红的	-6540
)、	-6541
。}	-6542
得分	-6543
花了	-6544
青草	-6545
下次聊	-6546
▁J	-6547
▁热	-6548
的很	-6549
量为	-6550
以为是	-6551
良好的	-6552
疫情防控	-6553
▁万德在您身边	-6554
滚动	-6555
▁我国	-6556
习近平	-6557
你旁边	-6558
可怜的	-6559
摩擦力	-6560
▁疼	-6561
体制	-6562
孤单	-6563
着脸	-6564
▁不会	-6565
委员会	-6566
我们去	-6567
把我的	-6568
还有什么	-6569
{9	-6570
天赋	-6571
少女	-6572
总会	-6573
戴着	-6574
错的	-6575
的同时	-6576
离不开	-6577
各位	-6578
use	-6579
四边形	-6580
小花狗	-6581
而且还	-6582
▁台	-6583
修改	-6584
向他	-6585
处罚	-6586
夏季	-6587
小水	-6588
树干	-6589
案件	-6590
活泼	-6591
这款	-6592
类型的	-6593
}_{\	-6594
7.	-6595
务院	-6596
小子	-6597
缺点	-6598
高速	-6599
不应该	-6600
来不及	-6601
▁$$=\	-6602
▁neng	-6603
▁wang	-6604
友谊	-6605
对应	-6606
教学	-6607
▁不见	-6608
你看过	-6609
打招呼	-6610
老师的	-6611
这次的	-6612
$$7$$	-6613
一脸	-6614
乘客	-6615
只得	-6616
昨晚	-6617
灯笼	-6618
落实	-6619
要和	-6620
试验	-6621
预测	-6622
他还是	-6623
桌子上	-6624
它会	-6625
一个好	-6626
前几天	-6627
太阳系	-6628
那个人	-6629
一小	-6630
临时	-6631
参考	-6632
四川	-6633
弄得	-6634
雨水	-6635
高温	-6636
他们就	-6637
结合所学知识	-6638
▁}^{2}}	-6639
参观	-6640
带你	-6641
忙碌	-6642
晚了	-6643
蟑螂	-6644
要用	-6645
赢得	-6646
▁学校	-6647
▁子	-6648
得知	-6649
感知	-6650
权益	-6651
缓解	-6652
预防	-6653
▁黄色	-6654
怪不得	-6655
里面有	-6656
▁华	-6657
信任	-6658
听得	-6659
四季	-6660
如下	-6661
开着	-6662
心灵	-6663
新型	-6664
脚印	-6665
自治	-6666
财产	-6667
陪你	-6668
意大利	-6669
我今天	-6670
二号	-6671
五彩	-6672
共享	-6673
回应	-6674
太狼	-6675
奇奇	-6676
干涉	-6677
店里	-6678
春秋	-6679
跑来	-6680
途径	-6681
领先	-6682
▁结束	-6683
▁guo	-6684
我一定要	-6685
}/	-6686
不理	-6687
好啦	-6688
度过	-6689
是以	-6690
的值	-6691
舅舅	-6692
长为	-6693
+6	-6694
4)	-6695
▁烧	-6696
做成	-6697
党的	-6698
家了	-6699
尖尖	-6700
广大	-6701
反映了	-6702
对他说	-6703
常见的	-6704
看电视	-6705
de	-6706
▁创	-6707
例题	-6708
将在	-6709
岁了	-6710
斯特	-6711
松树	-6712
歌唱	-6713
男的	-6714
脑子	-6715
过山	-6716
防守	-6717
马克	-6718
马路	-6719
▁du	-6720
▁电话	-6721
高兴兴	-6722
他很	-6723
远方	-6724
cause	-6725
快快	-6726
牺牲	-6727
五颜六	-6728
磁铁的	-6729
简直就是	-6730
mu	-6731
乡村	-6732
争取	-6733
哼哼	-6734
喜剧	-6735
百灵	-6736
你平时	-6737
三号	-6738
发抖	-6739
哇哇	-6740
地从	-6741
除去	-6742
]$$	-6743
小伙子	-6744
{1}{1	-6745
的解	-6746
▁人生	-6747
一个是	-6748
就感觉	-6749
▁201	-6750
百分之三十	-6751
▁如	-6752
伤了	-6753
债券	-6754
江南	-6755
终点	-6756
美妙	-6757
蝙蝠	-6758
指的是	-6759
诸葛亮	-6760
交往	-6761
凳子	-6762
善于	-6763
墙上	-6764
有误	-6765
遵守	-6766
高于	-6767
squ	-6768
▁wa	-6769
▁到了	-6770
▁就在	-6771
回去了	-6772
混合物	-6773
的国家	-6774
▁主要是	-6775
一点也不	-6776
square	-6777
产物	-6778
机场	-6779
节日	-6780
衣裳	-6781
差数列	-6782
物体在	-6783
because	-6784
个数	-6785
地震	-6786
透过	-6787
▁继续	-6788
一只小	-6789
和其他	-6790
睡觉了	-6791
,5	-6792
下滑	-6793
个股	-6794
医学	-6795
整齐	-6796
晶体	-6797
消灭	-6798
纸上	-6799
超越	-6800
0.0	-6801
写作	-6802
奇迹	-6803
带到	-6804
我刚	-6805
自转	-6806
观看	-6807
喜欢他	-6808
我发现	-6809
是没有	-6810
然后再	-6811
}_{1}}+{{	-6812
▁火	-6813
不易	-6814
力和	-6815
吃惊	-6816
对战	-6817
▁作为	-6818
听见了	-6819
答案选	-6820
跑过去	-6821
那么大	-6822
▁duo	-6823
▁如果你	-6824
▁炒	-6825
一番	-6826
为此	-6827
健身	-6828
夸张	-6829
棕熊	-6830
法的	-6831
视野	-6832
谁能	-6833
露珠	-6834
领着	-6835
飞过	-6836
不住了	-6837
lg	-6838
之和	-6839
去打	-6840
奖励	-6841
暂时	-6842
药物	-6843
了一点	-6844
凸透镜	-6845
小老虎	-6846
来了一	-6847
上天	-6848
十几	-6849
手术	-6850
方形	-6851
最有	-6852
你在看	-6853
和妈妈	-6854
就可以了	-6855
5.	-6856
▁东	-6857
成正	-6858
说你	-6859
过后	-6860
-$$	-6861
▁慢慢	-6862
特别好	-6863
这一切	-6864
都不敢	-6865
\%$$	-6866
▁下一刻再见吧	-6867
一代	-6868
中药	-6869
体会	-6870
增速	-6871
学者	-6872
对此	-6873
微微	-6874
新增	-6875
爸妈	-6876
顾客	-6877
最后一	-6878
▁笔	-6879
到大	-6880
放了	-6881
的红	-6882
眯眯	-6883
耳边	-6884
博物馆	-6885
有这么	-6886
只有一个	-6887
▁便	-6888
▁刷	-6889
原始	-6890
引导	-6891
欢喜	-6892
▁ke	-6893
增加了	-6894
胖小猪	-6895
小数	-6896
接过	-6897
最早	-6898
深处	-6899
票房	-6900
过滤	-6901
▁怪物	-6902
吃饭了	-6903
▁小老鼠	-6904
一带	-6905
仪式	-6906
快来	-6907
读者	-6908
鱼的	-6909
▁每次	-6910
▁钢琴	-6911
了半天	-6912
今天是	-6913
学生的	-6914
▁}$$	-6915
);	-6916
ac	-6917
▁碗	-6918
景色	-6919
高大	-6920
}=2	-6921
▁你在看	-6922
直线传播	-6923
篮球比赛	-6924
七个	-6925
去过	-6926
指南	-6927
绵羊	-6928
还行	-6929
不相信	-6930
你不是	-6931
那会儿	-6932
▁七点早知道播报	-6933
56	-6934
▁相	-6935
为您	-6936
小偷	-6937
指向	-6938
文艺	-6939
那位	-6940
▁yu	-6941
只有一	-6942
我平时	-6943
百分点	-6944
造成的	-6945
▁或	-6946
二月	-6947
倒霉	-6948
圆圆	-6949
▁他是	-6950
个不停	-6951
创业板	-6952
存在的	-6953
我们都	-6954
支付宝	-6955
温暖的	-6956
.$$4	-6957
▁{{{	-6958
军人	-6959
单独	-6960
庆祝	-6961
拍的	-6962
轮子	-6963
陷阱	-6964
▁叔叔	-6965
不正确的是	-6966
可乐	-6967
含义	-6968
唐朝	-6969
带我	-6970
当天	-6971
kan	-6972
▁早上	-6973
人民的	-6974
有机物	-6975
券商	-6976
地走	-6977
安装	-6978
春风	-6979
注册	-6980
画的	-6981
紧急	-6982
花钱	-6983
2}^{	-6984
了一口气	-6985
▁跌	-6986
仙子	-6987
光明	-6988
寂寞	-6989
摸摸	-6990
老实	-6991
辽宁	-6992
▁(\	-6993
▁森林	-6994
一定能	-6995
实验室	-6996
大家分享	-6997
也得	-6998
咔嚓	-6999
拥抱	-7000
捕食	-7001
燃料	-7002
的门	-7003
空调	-7004
近期	-7005
野兔	-7006
产生了	-7007
小伙伴	-7008
毕竟是	-7009
启动	-7010
大门	-7011
我叫	-7012
最新	-7013
石灰	-7014
耳机	-7015
这块	-7016
▁=\	-7017
▁人们	-7018
为自己	-7019
信用	-7020
则是	-7021
压缩	-7022
哭着	-7023
国庆	-7024
就看	-7025
所受	-7026
考生	-7027
讲堂	-7028
越小	-7029
都想	-7030
厚厚的	-7031
又大又	-7032
的历史	-7033
▁可不是嘛	-7034
百分之一点	-7035
下落	-7036
假的	-7037
分手	-7038
加点	-7039
十月	-7040
发电	-7041
地叫	-7042
太子	-7043
江苏	-7044
▁长大	-7045
▁雪儿	-7046
偷偷地	-7047
我要去	-7048
overline	-7049
TT	-7050
||	-7051
体重	-7052
奴隶	-7053
帅的	-7054
搭配	-7055
灾难	-7056
这座	-7057
都挺	-7058
▁二十	-7059
了一口	-7060
学校的	-7061
▁刘	-7062
修辞	-7063
做得	-7064
名著	-7065
式的	-7066
香的	-7067
九十	-7068
在山	-7069
电解	-7070
萌发	-7071
遭到	-7072
▁ra	-7073
家里的	-7074
Ri	-7075
▁茶	-7076
之王	-7077
今日	-7078
地理	-7079
屋顶	-7080
改为	-7081
生涯	-7082
的上	-7083
肚皮	-7084
要想	-7085
财主	-7086
对这个	-7087
比赛中	-7088
▁背	-7089
上说	-7090
作出	-7091
市民	-7092
希腊	-7093
指标	-7094
改编	-7095
灿烂	-7096
的后	-7097
▁两个	-7098
大讲堂	-7099
就不能	-7100
就是我	-7101
▁垃圾桶	-7102
▁欢迎收听	-7103
不不	-7104
二人	-7105
前来	-7106
包装	-7107
受了	-7108
吱吱	-7109
意的	-7110
购物	-7111
了一跳	-7112
微生物	-7113
的结构	-7114
美国的	-7115
这样做	-7116
▁冰	-7117
不当	-7118
形势	-7119
李娜	-7120
迷藏	-7121
降水	-7122
▁嗯哼	-7123
tian	-7124
现在已经	-7125
▁条	-7126
丁丁	-7127
他有	-7128
在此	-7129
威风	-7130
它想	-7131
战士	-7132
流入	-7133
返回	-7134
那条	-7135
打开了	-7136
的电压	-7137
起来的	-7138
上山	-7139
大众	-7140
少数	-7141
文件	-7142
无可	-7143
最爱	-7144
流传	-7145
秦国	-7146
能否	-7147
起的	-7148
陛下	-7149
▁你的	-7150
▁只能	-7151
▁蝴蝶	-7152
发出的	-7153
树上的	-7154
高高兴兴	-7155
...""""	-7156
凤凰	-7157
我用	-7158
水稻	-7159
没过	-7160
流水	-7161
茅台	-7162
见面	-7163
其中的	-7164
口袋里	-7165
有一位	-7166
的路上	-7167
这样说	-7168
这个东西	-7169
传染	-7170
你真	-7171
女神	-7172
字母	-7173
次数	-7174
湖南	-7175
阻止	-7176
▁嘴巴	-7177
▁陕西	-7178
名中医	-7179
静静地	-7180
这些东西	-7181
Right	-7182
物体的运动	-7183
Rightarrow	-7184
{8	-7185
甜的	-7186
相机	-7187
▁一只	-7188
▁他说	-7189
▁开心	-7190
▁谢谢你	-7191
?(	-7192
三国	-7193
不就	-7194
哗哗	-7195
才有	-7196
美人	-7197
公交车	-7198
▁jie	-7199
哈哈哈哈	-7200
=7	-7201
▁L	-7202
▁层	-7203
三次	-7204
了的	-7205
发热	-7206
婚姻	-7207
盘子	-7208
起到	-7209
▁老虎	-7210
▁地下室	-7211
好不容易	-7212
下跌	-7213
头顶	-7214
式为	-7215
部队	-7216
▁公司	-7217
公众号	-7218
工作人员	-7219
}_{1}}{{	-7220
平原	-7221
新疆	-7222
更有	-7223
魔术	-7224
▁那我	-7225
我看过	-7226
房间里	-7227
▁皮皮鼠	-7228
上市公司	-7229
复工	-7230
并联	-7231
照射	-7232
玩过	-7233
环比	-7234
看啊	-7235
老年	-7236
说起	-7237
部位	-7238
长安	-7239
都不是	-7240
吓了一跳	-7241
一身	-7242
喷喷	-7243
杂质	-7244
站着	-7245
误差	-7246
▁我会	-7247
就这么	-7248
得到的	-7249
新能源	-7250
消失了	-7251
的电阻	-7252
▁"",	-7253
▁我也觉得	-7254
协议	-7255
变了	-7256
女士	-7257
就用	-7258
景象	-7259
流量	-7260
淀粉	-7261
落后	-7262
评估	-7263
贵族	-7264
较低	-7265
捉迷藏	-7266
那我们	-7267
青少年	-7268
)(	-7269
仙人	-7270
又能	-7271
布朗	-7272
数目	-7273
普及	-7274
每人	-7275
道的	-7276
是一位	-7277
占据	-7278
戴上	-7279
沟通	-7280
湖北	-7281
给人	-7282
他们是	-7283
的实力	-7284
高兴得	-7285
▁然后呢	-7286
▁真的吗	-7287
这是什么	-7288
▁zhen	-7289
营收	-7290
识别	-7291
长出	-7292
食盐	-7293
水蒸气	-7294
=-	-7295
▁路	-7296
彩色	-7297
设立	-7298
飞了	-7299
▁打针	-7300
没问题	-7301
▁ren	-7302
▁吹	-7303
▁纸	-7304
▁肉	-7305
一本	-7306
不服	-7307
手中	-7308
摩托	-7309
游去	-7310
罢了	-7311
越快	-7312
较小	-7313
}_3	-7314
▁别的	-7315
做朋友	-7316
共和国	-7317
的状态	-7318
这个是	-7319
▁shu	-7320
蹦蹦跳跳	-7321
▁抢	-7322
吃吧	-7323
够了	-7324
比我	-7325
我的小	-7326
落下来	-7327
▁相关例题	-7328
▁深	-7329
天使	-7330
应为	-7331
柳树	-7332
黄牛	-7333
▁寻猫	-7334
引起的	-7335
的意思是	-7336
▁寻猫启事	-7337
你可	-7338
分成	-7339
变小	-7340
声波	-7341
找出	-7342
拍拍	-7343
赶忙	-7344
销量	-7345
隔壁	-7346
零食	-7347
有好多	-7348
相关的	-7349
▁zhu	-7350
口口口口	-7351
一来	-7352
半夜	-7353
协调	-7354
舒适	-7355
受到了	-7356
测量工具	-7357
▁aiyou	-7358
▁切	-7359
克服	-7360
兼职	-7361
出版	-7362
加大	-7363
收费	-7364
}{9	-7365
我不会	-7366
有些人	-7367
$$100	-7368
上看	-7369
他从	-7370
优点	-7371
太大	-7372
巧啊	-7373
把头	-7374
课程	-7375
跟在	-7376
发生的	-7377
的形成	-7378
}_{5	-7379
▁你说的	-7380
{1}{5	-7381
▁伸	-7382
▁气	-7383
▁针	-7384
三星	-7385
十个	-7386
味的	-7387
品质	-7388
对付	-7389
带电	-7390
库里	-7391
拍摄	-7392
有两	-7393
皇后	-7394
英超	-7395
落下	-7396
补贴	-7397
课文	-7398
些什么	-7399
感受到	-7400
我看你	-7401
男孩子	-7402
锻炼身体	-7403
名医大讲堂	-7404
^\	-7405
一闪	-7406
世上	-7407
乐观	-7408
优化	-7409
营业	-7410
了不少	-7411
出去了	-7412
大自然	-7413
现在是	-7414
聪明的	-7415
表达了	-7416
重力势能	-7417
$$9$$	-7418
▁fang	-7419
不舍	-7420
串联	-7421
封信	-7422
差不	-7423
淘汰	-7424
片子	-7425
老妈	-7426
起身	-7427
以前的	-7428
的要求	-7429
6.	-7430
主演	-7431
尊敬	-7432
幸好	-7433
眼的	-7434
说得	-7435
较为	-7436
▁讲讲	-7437
不仅仅	-7438
感觉到	-7439
我只是	-7440
注意到	-7441
给我的	-7442
也是一个	-7443
nu	-7444
干的	-7445
抑制	-7446
拖鞋	-7447
猩猩	-7448
累得	-7449
较高	-7450
不远处	-7451
了一场	-7452
哭了起来	-7453
▁知	-7454
他用	-7455
偶然	-7456
围巾	-7457
基于	-7458
岸边	-7459
药品	-7460
踢得	-7461
这段	-7462
除以	-7463
}{7	-7464
最小的	-7465
有人吗	-7466
笑眯眯	-7467
都觉得	-7468
▁chu	-7469
{3}{4	-7470
$$12$$	-7471
;2	-7472
yy	-7473
地点	-7474
天平	-7475
▁蟑螂	-7476
他不是	-7477
听起来	-7478
比较好	-7479
参照	-7480
台球	-7481
开启	-7482
标记	-7483
王的	-7484
西北	-7485
多少钱	-7486
▁咧	-7487
不爱	-7488
干吗	-7489
效力	-7490
火焰	-7491
然大	-7492
玩玩	-7493
病的	-7494
▁hei	-7495
不止	-7496
抽屉	-7497
毛驴	-7498
灯光	-7499
罗马	-7500
▁-1	-7501
跟我说	-7502
}^{2}}$$	-7503
▁G	-7504
一一	-7505
不通	-7506
过年	-7507
黑猫	-7508
▁上海	-7509
了一件	-7510
还不是	-7511
▁gen	-7512
做了一个	-7513
选项错误	-7514
一副	-7515
一手	-7516
大脑	-7517
恰好	-7518
林丹	-7519
派人	-7520
消防	-7521
米粒	-7522
ATP	-7523
▁前面	-7524
▁味道	-7525
玫瑰花	-7526
这是因为	-7527
▁排	-7528
做梦	-7529
全力	-7530
巴西	-7531
心脏	-7532
活跃	-7533
狡猾	-7534
进口	-7535
发布了	-7536
的叫声	-7537
我觉得他	-7538
▁K	-7539
出台	-7540
向下	-7541
尝尝	-7542
就更	-7543
早点	-7544
语境	-7545
赶到	-7546
转眼	-7547
他们两个	-7548
你有没有	-7549
力的作用	-7550
没有办法	-7551
重要的是	-7552
不正确的一项是	-7553
▁象	-7554
人人	-7555
就叫	-7556
就问	-7557
摆的	-7558
美洲	-7559
4$$,	-7560
▁不客气	-7561
综艺节目	-7562
不堪	-7563
为我	-7564
乐园	-7565
八戒	-7566
有事	-7567
梦中	-7568
这家	-7569
▁|-	-7570
▁星期	-7571
晒太阳	-7572
的两个	-7573
放大倍数	-7574
▁搞	-7575
你把	-7576
太婆	-7577
的树	-7578
远离	-7579
里去	-7580
钢铁	-7581
青菜	-7582
▁}}	-7583
▁从此	-7584
不明白	-7585
严重的	-7586
还是没有	-7587
{2}$$	-7588
ll	-7589
▁I	-7590
▁蛋	-7591
神气	-7592
镜头	-7593
问好	-7594
▁fan	-7595
等差数列	-7596
▁yang	-7597
▁锅	-7598
书写	-7599
原料	-7600
大吃	-7601
宫殿	-7602
正要	-7603
试管	-7604
之前的	-7605
告诉他	-7606
就喜欢	-7607
}^{3	-7608
-8	-7609
{|	-7610
帅气	-7611
清澈	-7612
老狼	-7613
▁草莓	-7614
在网上	-7615
的形状	-7616
葡萄糖	-7617
▁你喜欢	-7618
有限公司	-7619
还有很多	-7620
中超	-7621
京东	-7622
同情	-7623
响起	-7624
基地	-7625
如同	-7626
得上	-7627
快活	-7628
竹子	-7629
肩膀	-7630
闻到	-7631
更好地	-7632
死我了	-7633
▁yyy	-7634
at	-7635
▁女	-7636
保存	-7637
大鱼	-7638
替代	-7639
有几	-7640
轻易	-7641
手中的	-7642
百灵鸟	-7643
种子的	-7644
简直是	-7645
这一点	-7646
氢氧化钠	-7647
▁狼	-7648
优惠	-7649
天津	-7650
我吧	-7651
质点	-7652
合适的	-7653
好好的	-7654
对我们	-7655
的歌声	-7656
透明的	-7657
那样的	-7658
不知不觉	-7659
主体	-7660
斯坦	-7661
杀人	-7662
液态	-7663
课本	-7664
豆子	-7665
500	-7666
▁小猫	-7667
了口气	-7668
吓坏了	-7669
声音的	-7670
没怎么	-7671
BD	-7672
▁啰	-7673
▁鸡	-7674
》)	-7675
十万	-7676
局面	-7677
快慢	-7678
沙子	-7679
蓝天	-7680
话题	-7681
在哪儿	-7682
时间的	-7683
树枝上	-7684
这个游戏	-7685
}^{2}}+	-7686
ya	-7687
两点	-7688
取值	-7689
承受	-7690
石子	-7691
金牌	-7692
小麻雀	-7693
工作的	-7694
▁小白兔	-7695
人工智能	-7696
改革开放	-7697
▁牙	-7698
一惊	-7699
假如	-7700
嗡嗡	-7701
培育	-7702
时尚	-7703
王宫	-7704
策略	-7705
地上的	-7706
维生素	-7707
跳起来	-7708
▁$$4	-7709
.$$1$$	-7710
▁因	-7711
子弹	-7712
宗教	-7713
河南	-7714
用水	-7715
番茄	-7716
语音	-7717
了我的	-7718
参加了	-7719
只知道	-7720
生病了	-7721
pm	-7722
▁欸	-7723
月的	-7724
比值	-7725
肥皂	-7726
越长	-7727
▁阅读	-7728
普通的	-7729
:$${{	-7730
▁杨	-7731
不良	-7732
只听	-7733
子代	-7734
帮他	-7735
班的	-7736
般的	-7737
|=\	-7738
▁有的	-7739
▁预计	-7740
是那个	-7741
▁没想到	-7742
一不小心	-7743
我就觉得	-7744
公路	-7745
又不	-7746
变形	-7747
当作	-7748
恒星	-7749
把大	-7750
来吧	-7751
油的	-7752
老二	-7753
▁杯子	-7754
一口气	-7755
成功的	-7756
的最小	-7757
着自己	-7758
说不是	-7759
以外	-7760
储存	-7761
吩咐	-7762
四号	-7763
战国	-7764
无穷	-7765
正义	-7766
海边	-7767
胆小	-7768
随机	-7769
▁感谢	-7770
另一只	-7771
抓住了	-7772
拿出来	-7773
没见过	-7774
3$$,	-7775
▁录	-7776
与人	-7777
养分	-7778
古诗	-7779
君子	-7780
言论	-7781
谁的	-7782
过度	-7783
障碍	-7784
▁si	-7785
▁你要	-7786
▁晚安	-7787
了一种	-7788
动画片	-7789
都不能	-7790
里的水	-7791
特色社会主义	-7792
万里	-7793
严肃	-7794
列车	-7795
向往	-7796
总体	-7797
滋味	-7798
用心	-7799
贫困	-7800
黄河	-7801
xia	-7802
▁回去	-7803
固定的	-7804
更大	-7805
模仿	-7806
精确	-7807
重重	-7808
问问	-7809
▁同同	-7810
大伙儿	-7811
}}_3}$$	-7812
二年	-7813
代入	-7814
分化	-7815
尽快	-7816
格外	-7817
他已经	-7818
取得了	-7819
和一个	-7820
小伙伴们	-7821
▁追	-7822
七号	-7823
不完	-7824
亏损	-7825
做过	-7826
南北	-7827
无色	-7828
武帝	-7829
海水	-7830
第五	-7831
蓝的	-7832
你还是	-7833
想到了	-7834
我们也	-7835
高兴的	-7836
op	-7837
入选	-7838
墙壁	-7839
弯弯	-7840
拍照	-7841
提着	-7842
章鱼	-7843
米的	-7844
血管	-7845
转过	-7846
难度	-7847
▁Ca	-7848
不太好	-7849
你现在	-7850
包子	-7851
发的	-7852
吵架	-7853
定位	-7854
恐惧	-7855
民生	-7856
沙沙	-7857
滑动	-7858
社交	-7859
▁星星	-7860
不起来	-7861
联合国	-7862
过了一	-7863
那以后	-7864
▁板	-7865
复兴	-7866
头大	-7867
就先	-7868
带动	-7869
当了	-7870
意志	-7871
收购	-7872
高达	-7873
▁最终	-7874
▁香蕉	-7875
不舒服	-7876
元素的	-7877
写作业	-7878
受伤了	-7879
太阳能	-7880
然后他	-7881
▁nai	-7882
▁wei	-7883
的基础上	-7884
36	-7885
一层	-7886
之内	-7887
估值	-7888
便是	-7889
常识	-7890
干脆	-7891
当当	-7892
披露	-7893
溶质	-7894
真相	-7895
硬币	-7896
高手	-7897
}{8	-7898
▁6.	-7899
对我说	-7900
再也没有	-7901
我们中国	-7902
迫不及待地	-7903
▁直	-7904
停了	-7905
六号	-7906
协会	-7907
国有	-7908
小人	-7909
沸腾	-7910
省力	-7911
而去	-7912
▁花朵	-7913
和他的	-7914
=2$$	-7915
▁一样的	-7916
中共	-7917
凌晨	-7918
咱俩	-7919
它又	-7920
害羞	-7921
民众	-7922
猛地	-7923
▁不好	-7924
▁蚂蚁	-7925
一只大	-7926
你看看	-7927
原子核	-7928
必须要	-7929
改变了	-7930
精彩的	-7931
2020	-7932
▁猜	-7933
回报	-7934
大赛	-7935
打扰	-7936
暖暖	-7937
汉字	-7938
祝福	-7939
通信	-7940
▁经过	-7941
手机的	-7942
的力量	-7943
香喷喷	-7944
▁冷	-7945
▁救	-7946
哭声	-7947
弹性	-7948
泪水	-7949
滚滚	-7950
物种	-7951
结实	-7952
负担	-7953
|$$	-7954
来得及	-7955
的中国	-7956
的小鸟	-7957
}^{4	-7958
因数	-7959
学问	-7960
小雨	-7961
并未	-7962
接到	-7963
日前	-7964
痒痒	-7965
警方	-7966
豌豆	-7967
院子	-7968
霸王	-7969
中含有	-7970
国王的	-7971
的文章	-7972
让大家	-7973
这种情况	-7974
▁$$1$$	-7975
1\	-7976
▁>	-7977
▁草	-7978
▁饿	-7979
不和	-7980
发动	-7981
喵喵	-7982
对称	-7983
生殖	-7984
睡了	-7985
繁荣	-7986
能把	-7987
连连	-7988
都看	-7989
闪电	-7990
高级	-7991
躺在床上	-7992
他那	-7993
她想	-7994
很是	-7995
杀死	-7996
▁那儿	-7997
在学校	-7998
最高的	-7999
有的人	-8000
然后呢	-8001
一首	-8002
提示	-8003
的车	-8004
还想	-8005
不记得	-8006
很不错	-8007
我心里	-8008
打了个	-8009
掉下来	-8010
灰太狼	-8011
的社会	-8012
然后就是	-8013
▁唐	-8014
▁窗	-8015
不论	-8016
人也	-8017
圆周	-8018
家中	-8019
收盘	-8020
讲了	-8021
透露	-8022
▁呵呵	-8023
不能再	-8024
故排除	-8025
哺乳	-8026
睡眠	-8027
美女	-8028
苏联	-8029
+$$	-8030
我这个	-8031
有一座	-8032
▁}_{	-8033
这样的话	-8034
28	-8035
公安	-8036
冒险	-8037
带有	-8038
的多	-8039
▁请问	-8040
我可是	-8041
是这样的	-8042
的小动物	-8043
八号	-8044
听完	-8045
股权	-8046
迎接	-8047
下去了	-8048
单调递	-8049
▁曾	-8050
摸着	-8051
棒的	-8052
法官	-8053
淇淋	-8054
同样的	-8055
我不太	-8056
还需要	-8057
▁我最近	-8058
使其	-8059
医药	-8060
各项	-8061
婴儿	-8062
嫦娥	-8063
早早	-8064
朝着	-8065
波长	-8066
街道	-8067
金钱	-8068
▁上班	-8069
▁你这	-8070
的条件	-8071
我最喜欢	-8072
最喜欢的	-8073
.$$2$$	-8074
东京	-8075
大头	-8076
少量	-8077
灌木	-8078
热血	-8079
笑笑	-8080
综上	-8081
膨胀	-8082
}_2	-8083
▁楼梯	-8084
在他的	-8085
我们应该	-8086
ye	-8087
之路	-8088
这事	-8089
透了	-8090
陆续	-8091
地区的	-8092
光电	-8093
升起	-8094
史上	-8095
害虫	-8096
挂着	-8097
有望	-8098
来来	-8099
某个	-8100
门的	-8101
金色的	-8102
▁你可以	-8103
的好朋友	-8104
,$${{	-8105
$$20$$	-8106
▁短	-8107
不受	-8108
乞丐	-8109
灵魂	-8110
百万	-8111
而出	-8112
▁我说	-8113
▁火车	-8114
一部分	-8115
森林里的	-8116
一分	-8117
人是	-8118
写出	-8119
右手	-8120
同种	-8121
团团	-8122
在你	-8123
扩散	-8124
诸侯	-8125
部剧	-8126
=0.	-8127
▁大的	-8128
先生的	-8129
出现的	-8130
前两天	-8131
生产者	-8132
的是什么	-8133
》《	-8134
分散	-8135
发言	-8136
坚决	-8137
机的	-8138
泥巴	-8139
秀才	-8140
边上	-8141
饭菜	-8142
就应该	-8143
就是要	-8144
▁你怎么	-8145
{|$$\	-8146
26	-8147
▁读	-8148
倾斜	-8149
打造	-8150
来讲	-8151
满脸	-8152
潮湿	-8153
灰尘	-8154
骑着	-8155
小山羊	-8156
质量的	-8157
露出了	-8158
▁这一课	-8159
买个	-8160
勺子	-8161
当前	-8162
很想	-8163
打扫	-8164
服装	-8165
红柿	-8166
老家	-8167
地回答	-8168
地走了	-8169
已经是	-8170
▁shui	-8171
▁古	-8172
▁嘘	-8173
两边	-8174
十点	-8175
名为	-8176
嗨喽	-8177
将其	-8178
火柴	-8179
精心	-8180
规矩	-8181
起舞	-8182
大眼睛	-8183
狠狠地	-8184
:1$$	-8185
▁原来是	-8186
一千零一夜	-8187
中最	-8188
之比	-8189
毛衣	-8190
等级	-8191
都得	-8192
▁$(	-8193
小鼹鼠	-8194
更大的	-8195
过生日	-8196
▁小松鼠	-8197
▁清	-8198
一篇	-8199
委会	-8200
孙杨	-8201
小山	-8202
流通	-8203
碰撞	-8204
绝缘	-8205
贝克	-8206
遍了	-8207
魅力	-8208
▁an	-8209
▁你想	-8210
▁干净	-8211
了一阵	-8212
反应的	-8213
看没看	-8214
测量结果	-8215
一九	-8216
东南	-8217
也算	-8218
外星	-8219
奉献	-8220
宠物	-8221
志愿	-8222
李白	-8223
洪水	-8224
现金	-8225
老汉	-8226
而非	-8227
▁怎样	-8228
▁按照	-8229
池塘里	-8230
观察到	-8231
都是在	-8232
bo	-8233
▁懂	-8234
丛中	-8235
洗衣	-8236
演出	-8237
直径	-8238
遗产	-8239
野生	-8240
问我	-8241
一般的	-8242
七八糟	-8243
出去玩	-8244
▁幼儿园	-8245
变成了一	-8246
为止	-8247
坏人	-8248
引入	-8249
着手	-8250
零售	-8251
=-\	-8252
▁12	-8253
▁春天	-8254
▁沙发	-8255
苹果的	-8256
阳光下	-8257
▁就这样	-8258
▁那我们	-8259
▁推	-8260
分开	-8261
剩余	-8262
得不	-8263
文的	-8264
无所	-8265
浪漫	-8266
爱心	-8267
笑容	-8268
给您	-8269
▁宝贝	-8270
最多的	-8271
来源于	-8272
正常的	-8273
▁$$2$$	-8274
▁啥	-8275
关闭	-8276
冷了	-8277
包裹	-8278
坚定	-8279
日益	-8280
氨基	-8281
移民	-8282
▁他在	-8283
▁气球	-8284
关系的	-8285
我的心	-8286
把他们	-8287
的能量	-8288
▁小兔子	-8289
做客	-8290
全民	-8291
减轻	-8292
大山	-8293
山顶	-8294
热带	-8295
用途	-8296
这对	-8297
金币	-8298
国务院	-8299
经济的	-8300
▁不说了	-8301
▁对不起	-8302
他去	-8303
动静	-8304
单纯	-8305
彼得	-8306
童年	-8307
落叶	-8308
▁不仅	-8309
他觉得	-8310
却没有	-8311
湖人队	-8312
50$$	-8313
中国共产党	-8314
}_{3}}	-8315
▁滑	-8316
众人	-8317
假装	-8318
六千	-8319
她把	-8320
干部	-8321
扫帚	-8322
是被	-8323
机灵	-8324
点事	-8325
要吃	-8326
鬼子	-8327
黄帝	-8328
以来的	-8329
的家伙	-8330
:(1)	-8331
▁能不能	-8332
有的时候	-8333
▁布	-8334
不顾	-8335
亲戚	-8336
别说	-8337
鸟类	-8338
▁小猪	-8339
▁鼻子	-8340
了这个	-8341
到哪里	-8342
就这些	-8343
我不能	-8344
我也想	-8345
然后又	-8346
的尾巴	-8347
空气的	-8348
我也觉得	-8349
每个人的	-8350
.$$4$$	-8351
$$100$$	-8352
不算	-8353
人呢	-8354
使人	-8355
决策	-8356
减持	-8357
出租	-8358
取代	-8359
据此	-8360
电商	-8361
皮球	-8362
耐烦	-8363
胚胎	-8364
这项	-8365
▁学会	-8366
回了家	-8367
在上面	-8368
小田鼠	-8369
恢复了	-8370
材料中	-8371
实在是太	-8372
睁开眼睛	-8373
.$$3$$	-8374
▁月	-8375
五号	-8376
催化	-8377
教我	-8378
猪肉	-8379
甜蜜	-8380
等你	-8381
▁同学	-8382
▁日本	-8383
▁说明	-8384
发布会	-8385
我到站了	-8386
"",""	-8387
_0	-8388
举措	-8389
便利	-8390
大雁	-8391
常用	-8392
精力	-8393
边缘	-8394
首席	-8395
丰富的	-8396
准确性	-8397
流动性	-8398
还有一些	-8399
。《	-8400
九号	-8401
四千	-8402
是小	-8403
晶晶	-8404
构建	-8405
淡淡	-8406
片的	-8407
▁里边	-8408
看电影	-8409
回到家里	-8410
shang	-8411
公转	-8412
品尝	-8413
坏事	-8414
悬崖	-8415
我太	-8416
波动	-8417
着呢	-8418
船上	-8419
sim	-8420
大石头	-8421
新闻呢	-8422
▁远	-8423
了你	-8424
做个	-8425
尸体	-8426
年间	-8427
当成	-8428
挣钱	-8429
笑得	-8430
西湖	-8431
这类	-8432
进化	-8433
也算是	-8434
价值观	-8435
的心情	-8436
花园里	-8437
密切相关	-8438
资产阶级	-8439
这么大的	-8440
。2	-8441
但它	-8442
例子	-8443
同期	-8444
哭泣	-8445
时而	-8446
的三	-8447
途中	-8448
国外的	-8449
运动会	-8450
}_{1}}$$	-8451
it	-8452
你没	-8453
兰特	-8454
出色	-8455
原文	-8456
哪怕	-8457
推广	-8458
提取	-8459
无机	-8460
活力	-8461
缓缓	-8462
视觉	-8463
▁就算	-8464
一边说	-8465
于是他	-8466
到一个	-8467
和发展	-8468
教室里	-8469
8$$,	-8470
换了	-8471
明的	-8472
星座	-8473
求出	-8474
渴望	-8475
电梯	-8476
部落	-8477
+2\	-8478
▁这时候	-8479
上车	-8480
书法	-8481
书记	-8482
句中	-8483
同事	-8484
哗啦	-8485
大型	-8486
小龙	-8487
某一	-8488
歌手	-8489
的神	-8490
象征	-8491
这片	-8492
▁直接	-8493
几个月	-8494
另一种	-8495
可怕的	-8496
相应的	-8497
知道的	-8498
走过去	-8499
可能导致	-8500
点了点头	-8501
▁强	-8502
下山	-8503
不愿	-8504
你你	-8505
刘邦	-8506
北斗	-8507
帅了	-8508
很长	-8509
急了	-8510
我该	-8511
渠道	-8512
疼痛	-8513
脑筋	-8514
自在	-8515
识记	-8516
▁tang	-8517
▁陈	-8518
为何	-8519
场了	-8520
小镇	-8521
抛物	-8522
日食	-8523
村子	-8524
渔夫	-8525
球技	-8526
磁极	-8527
耐心	-8528
花粉	-8529
金星	-8530
双十一	-8531
很重要	-8532
有趣的	-8533
的爸爸	-8534
非常好	-8535
▁一个人	-8536
还有那个	-8537
textbf	-8538
书豪	-8539
伤口	-8540
可可	-8541
商务	-8542
大风	-8543
学着	-8544
工夫	-8545
底部	-8546
影视	-8547
称赞	-8548
马尔	-8549
▁依据	-8550
▁所有	-8551
专业的	-8552
主演的	-8553
我还以为	-8554
下班	-8555
后边	-8556
在外	-8557
地铁	-8558
排开	-8559
权的	-8560
校长	-8561
核酸	-8562
特意	-8563
\}$	-8564
又一次	-8565
这些人	-8566
为什么不	-8567
什么事情	-8568
▁你这是在看	-8569
其余	-8570
添加	-8571
莫雷	-8572
在路上	-8573
基因型	-8574
开玩笑	-8575
快乐地	-8576
:\	-8577
▁糖	-8578
▁蹦	-8579
▁选	-8580
一杯	-8581
仪器	-8582
传承	-8583
借助	-8584
妖精	-8585
挺好	-8586
热搜	-8587
野兽	-8588
▁难道	-8589
一路上	-8590
乎乎的	-8591
我一般	-8592
的价格	-8593
的成绩	-8594
▁你也是	-8595
五颜六色的	-8596
▁反	-8597
▁平	-8598
哲学	-8599
延续	-8600
斯诺	-8601
核桃	-8602
风力	-8603
▁形状	-8604
▁里头	-8605
在那个	-8606
希望能	-8607
电视机	-8608
千万不要	-8609
~~~~~~~~	-8610
▁游	-8611
地去	-8612
田里	-8613
花香	-8614
▁亲爱	-8615
二十四	-8616
小家伙	-8617
的电流	-8618
就是我们	-8619
▁龙	-8620
低下	-8621
冲冲	-8622
凭借	-8623
切线	-8624
景区	-8625
海底	-8626
火山	-8627
风儿	-8628
▁人民	-8629
▁未来	-8630
一天天	-8631
了一张	-8632
小公鸡	-8633
氧化物	-8634
1$$,	-8635
▁或者是	-8636
为什么会	-8637
取出	-8638
持股	-8639
散发	-8640
欢欢	-8641
的就	-8642
纳入	-8643
绿叶	-8644
餐桌	-8645
▁说话	-8646
下课了	-8647
你要是	-8648
唯一的	-8649
山坡上	-8650
这是我	-8651
你不知道	-8652
三人	-8653
从未	-8654
再去	-8655
势力	-8656
区分	-8657
实体	-8658
对你	-8659
情的	-8660
沉默	-8661
灰灰	-8662
牛逼	-8663
科创	-8664
融化	-8665
谨慎	-8666
骨碌	-8667
▁即使	-8668
为大家	-8669
新闻由	-8670
比赛了	-8671
的倍数	-8672
范围内	-8673
▁qiu	-8674
=2$$,	-8675
▁rang	-8676
新闻由南方都市报播报	-8677
7\	-8678
不必	-8679
作战	-8680
像个	-8681
关联	-8682
单质	-8683
想把	-8684
承诺	-8685
探测	-8686
是说	-8687
犯了	-8688
盈利	-8689
考察	-8690
见识	-8691
雨伞	-8692
飞的	-8693
食用	-8694
▁(5	-8695
▁石头	-8696
大声说	-8697
我听说	-8698
比赛吗	-8699
的球员	-8700
等方面	-8701
▁gao	-8702
最重要的	-8703
▁半	-8704
▁明	-8705
乙醇	-8706
冲突	-8707
小狼	-8708
歧视	-8709
殖民	-8710
飞舞	-8711
出发了	-8712
变化的	-8713
带我去	-8714
是一条	-8715
是可以	-8716
退役了	-8717
鸭妈妈	-8718
我也不知道	-8719
从中	-8720
供给	-8721
吃鸡	-8722
提起	-8723
而又	-8724
肺活	-8725
角的	-8726
遵循	-8727
鲜艳	-8728
}}}$$	-8729
}}^{2}	-8730
中国特色社会主义	-8731
Ca	-8732
一二	-8733
不满	-8734
不解	-8735
出名	-8736
双眼	-8737
想过	-8738
掌声	-8739
旁的	-8740
汉姆	-8741
片段	-8742
项链	-8743
为我们	-8744
▁jin	-8745
百分之五十	-8746
▁修	-8747
一连	-8748
三项	-8749
争夺	-8750
产量	-8751
力地	-8752
同桌	-8753
就从	-8754
干扰	-8755
模拟	-8756
游玩	-8757
确认	-8758
翻了	-8759
说来	-8760
不断的	-8761
国家队	-8762
.4	-8763
一圈	-8764
一项	-8765
下令	-8766
坡度	-8767
小牛	-8768
打发	-8769
放着	-8770
气泡	-8771
演过	-8772
▁强盗	-8773
▁有人	-8774
决定了	-8775
我一定	-8776
我相信	-8777
火箭队	-8778
▁mao	-8779
▁小时候	-8780
闭上眼睛	-8781
▁包	-8782
▁醒	-8783
你瞧	-8784
密码	-8785
收缩	-8786
欧冠	-8787
消毒	-8788
百度	-8789
跳着	-8790
轰隆	-8791
▁CO	-8792
▁本次	-8793
在外面	-8794
的相关	-8795
专项	-8796
制成	-8797
化为	-8798
和她	-8799
商场	-8800
干啥	-8801
标本	-8802
流星	-8803
自觉	-8804
▁然而	-8805
了一把	-8806
关注的	-8807
太阳光	-8808
的高度	-8809
稀盐酸	-8810
运用了	-8811
进去了	-8812
;3	-8813
▁碰	-8814
▁神	-8815
不许	-8816
从事	-8817
左边	-8818
推理	-8819
科研	-8820
过着	-8821
▁了解	-8822
▁蛋糕	-8823
你就是	-8824
载重量	-8825
速度为	-8826
▁怎么说	-8827
▁好的再见	-8828
▁本题考查学生对	-8829
▁砍	-8830
下载	-8831
中小	-8832
今后	-8833
作物	-8834
参数	-8835
味儿	-8836
幻想	-8837
柔软	-8838
柜子	-8839
水解	-8840
真心	-8841
行人	-8842
陪我	-8843
▁全部	-8844
▁必须	-8845
不动了	-8846
和我们	-8847
在北京	-8848
大公鸡	-8849
意识到	-8850
是利用	-8851
小心翼翼地	-8852
PP	-8853
▁嘉	-8854
不相	-8855
众多	-8856
向我	-8857
宰相	-8858
岁月	-8859
更高	-8860
罐子	-8861
主人的	-8862
我有点	-8863
的态度	-8864
看一下	-8865
澳大利亚	-8866
讲的故事	-8867
(3	-8868
来临	-8869
猎物	-8870
碎了	-8871
科普	-8872
违反	-8873
▁截止	-8874
▁据说	-8875
▁玉米	-8876
▁蓝色	-8877
▁这天	-8878
也很好	-8879
介质中	-8880
你最近	-8881
}}-{{	-8882
▁下列有关	-8883
丽的	-8884
二次	-8885
停下	-8886
厨师	-8887
去玩	-8888
吃草	-8889
多啊	-8890
抗日	-8891
有三	-8892
画家	-8893
缩小	-8894
高校	-8895
高铁	-8896
▁嘻嘻	-8897
一辈子	-8898
了一遍	-8899
惊呆了	-8900
第一名	-8901
▁bai	-8902
▁贵	-8903
》、	-8904
东海	-8905
力学	-8906
来回	-8907
比你	-8908
牌子	-8909
辅助	-8910
输入	-8911
▁正在	-8912
他们俩	-8913
后面的	-8914
在树上	-8915
电解质	-8916
笔记本	-8917
▁liang	-8918
}^{2}}$$,	-8919
▁苏	-8920
了大	-8921
事务	-8922
他都	-8923
合计	-8924
后续	-8925
君主	-8926
好大	-8927
孙子	-8928
想念	-8929
振幅	-8930
搅拌	-8931
放置	-8932
温室	-8933
}}}	-8934
一点的	-8935
中的小	-8936
你没有	-8937
使用的	-8938
合理的	-8939
喜羊羊	-8940
干净净	-8941
▁可以啊	-8942
_4	-8943
▁令	-8944
坐吗	-8945
太好	-8946
新高	-8947
旨在	-8948
晶莹	-8949
花盆	-8950
论证	-8951
00\	-8952
动物园	-8953
3:	-8954
▁经	-8955
▁胖	-8956
儿女	-8957
友好	-8958
外交	-8959
外公	-8960
扩张	-8961
摆脱	-8962
的爱	-8963
笑声	-8964
绕着	-8965
车子	-8966
难得	-8967
▁女孩	-8968
▁既然	-8969
会产生	-8970
前面的	-8971
小公主	-8972
小螃蟹	-8973
很奇怪	-8974
我也要	-8975
最后的	-8976
的核心	-8977
老师说	-8978
工程设计	-8979
怎么可能	-8980
▁我到站了	-8981
▁今天的故事	-8982
lu	-8983
▁折	-8984
之地	-8985
哪有	-8986
实质	-8987
已有	-8988
拍了	-8989
捕捉	-8990
氛围	-8991
衍射	-8992
试剂	-8993
▁根本	-8994
不认识	-8995
了好久	-8996
交朋友	-8997
如果是	-8998
家公司	-8999
时期的	-9000
气体的	-9001
▁胡萝卜	-9002
iP	-9003
▁粉	-9004
▁钻	-9005
摇了	-9006
水桶	-9007
滋滋	-9008
瀑布	-9009
热水	-9010
科幻	-9011
走走	-9012
达尔	-9013
郎平	-9014
高原	-9015
,+\	-9016
▁广州	-9017
卫生间	-9018
明显的	-9019
的生长	-9020
真的吗	-9021
▁wan	-9022
▁好吃的	-9023
▁现在的	-9024
▁甜	-9025
人就	-9026
嘎嘎	-9027
处处	-9028
岗位	-9029
往外	-9030
携带	-9031
转型	-9032
近视	-9033
▁ou	-9034
▁忽然	-9035
三个月	-9036
很开心	-9037
成正比	-9038
的角度	-9039
▁你觉得	-9040
你也在看	-9041
随便看看	-9042
▁你最近有	-9043
啊啊	-9044
小事	-9045
成都	-9046
掉进	-9047
暗暗	-9048
的鱼	-9049
确立	-9050
▁绿色	-9051
兴奋地	-9052
有道理	-9053
说话了	-9054
怎么样啊	-9055
生态环境	-9056
{1}{6	-9057
▁就是说啊	-9058
78	-9059
富有	-9060
幅度	-9061
打个	-9062
相传	-9063
群落	-9064
$$;	-9065
了他的	-9066
塑料袋	-9067
打网球	-9068
苹果树	-9069
马克思	-9070
$$、$$\	-9071
▁指	-9072
上网	-9073
之际	-9074
利物	-9075
时事	-9076
的内	-9077
西西	-9078
▁值得	-9079
时代的	-9080
这么好	-9081
jian	-9082
开学	-9083
战场	-9084
抵抗	-9085
摄像	-9086
照着	-9087
米饭	-9088
肥胖	-9089
裁缝	-9090
▁晚饭	-9091
发布的	-9092
留下了	-9093
都需要	-9094
下列关于	-9095
▁R	-9096
哪吒	-9097
国藩	-9098
心思	-9099
排队	-9100
柿子	-9101
海龟	-9102
的分	-9103
着了	-9104
利物浦	-9105
你看了吗	-9106
故本题选	-9107
▁慢	-9108
▁骑	-9109
一周	-9110
个儿	-9111
可用	-9112
四大	-9113
妇女	-9114
手下	-9115
担忧	-9116
生机	-9117
眼光	-9118
空的	-9119
详细	-9120
app	-9121
▁河马	-9122
▁认识	-9123
了一片	-9124
已经被	-9125
提高了	-9126
现代化	-9127
较大的	-9128
▁我就是	-9129
▁没有人	-9130
中华人民	-9131
希望他们	-9132
▁除	-9133
哆嗦	-9134
声说	-9135
多数	-9136
布局	-9137
年度	-9138
故乡	-9139
极限	-9140
洗手	-9141
笨熊	-9142
认可	-9143
酸的	-9144
锦赛	-9145
馒头	-9146
事物的	-9147
十五点	-9148
过山车	-9149
▁han	-9150
在自己的	-9151
我也喜欢	-9152
还是不错的	-9153
▁卖	-9154
▁通	-9155
停车	-9156
八个	-9157
同志	-9158
是三	-9159
的木	-9160
自杀	-9161
行吧	-9162
陷入	-9163
▁猫猫	-9164
其实是	-9165
对他的	-9166
我一个	-9167
细胞中	-9168
▁应该是	-9169
什么地方	-9170
传统文化	-9171
在森林里	-9172
mL	-9173
▁法	-9174
▁流	-9175
初步	-9176
在线	-9177
奶茶	-9178
微软	-9179
洛阳	-9180
莫名	-9181
鲁迅	-9182
=-1	-9183
也可能	-9184
他没有	-9185
做好了	-9186
我在看	-9187
有多少	-9188
到了一个	-9189
▁欧	-9190
他家	-9191
探出	-9192
早了	-9193
正误	-9194
突变	-9195
维斯	-9196
▁具体	-9197
▁点儿	-9198
了自己	-9199
外国人	-9200
我先去	-9201
林书豪	-9202
演唱会	-9203
物理学	-9204
马上就	-9205
战绩	-9206
掉的	-9207
文物	-9208
牛肉	-9209
用它	-9210
男女	-9211
眼珠	-9212
袭击	-9213
走近	-9214
转变	-9215
5\%	-9216
BCD	-9217
▁南瓜	-9218
想起来	-9219
抑郁症	-9220
一早	-9221
中学	-9222
仓鼠	-9223
品种	-9224
守护	-9225
小青	-9226
强壮	-9227
我被	-9228
手套	-9229
茸茸	-9230
违规	-9231
▁多少	-9232
▁松鼠	-9233
抬起头	-9234
▁...	-9235
阅读我是	-9236
体力	-9237
冲着	-9238
射线	-9239
层次	-9240
氢气	-9241
泽东	-9242
炫耀	-9243
▁奇怪	-9244
你是谁	-9245
你给我	-9246
名字叫	-9247
实力的	-9248
我还要	-9249
未成年	-9250
班主任	-9251
笑起来	-9252
表现出	-9253
听广播剧	-9254
就是为了	-9255
,'	-9256
不平	-9257
名单	-9258
嗓门	-9259
深的	-9260
行走	-9261
谁也	-9262
默写	-9263
我们来	-9264
▁dian	-9265
▁谁说不是	-9266
沿直线传播	-9267
三四	-9268
不该	-9269
事了	-9270
但我	-9271
冰雪	-9272
场面	-9273
坚硬	-9274
复制	-9275
她又	-9276
建成	-9277
水晶	-9278
消除	-9279
游来	-9280
特朗	-9281
痕迹	-9282
真理	-9283
讲究	-9284
转向	-9285
陆地	-9286
,{{	-9287
hao	-9288
▁他就	-9289
一家人	-9290
事情的	-9291
以上的	-9292
跟我们	-9293
一点儿也不	-9294
▁$$3$$	-9295
:'	-9296
▁日	-9297
一度	-9298
一模	-9299
我正	-9300
立法	-9301
约翰	-9302
观测	-9303
路线	-9304
这点	-9305
连胜	-9306
具体的	-9307
城市的	-9308
大学生	-9309
心里想	-9310
爷爷的	-9311
的技术	-9312
笑了笑	-9313
大家一起	-9314
你再	-9315
左手	-9316
康熙	-9317
教材	-9318
新年	-9319
治病	-9320
良好	-9321
边说	-9322
飞呀	-9323
▁好看	-9324
▁猴子	-9325
会出现	-9326
可以去	-9327
才发现	-9328
真是个	-9329
经历了	-9330
亲代	-9331
参赛	-9332
婚礼	-9333
战术	-9334
打架	-9335
津津	-9336
糊糊	-9337
鉴别	-9338
小燕子	-9339
杜兰特	-9340
的信息	-9341
简直太	-9342
$$2\	-9343
▁$$0.	-9344
▁nong	-9345
▁澡	-9346
一脚	-9347
一齐	-9348
全家	-9349
千年	-9350
咒语	-9351
四面	-9352
强弱	-9353
惨了	-9354
焦急	-9355
绿油	-9356
群体	-9357
顽皮	-9358
▁哈喽	-9359
▁泡泡	-9360
▁阳台	-9361
促进了	-9362
因为她	-9363
好几个	-9364
朋友圈	-9365
的意义	-9366
老太婆	-9367
跑过来	-9368
远远地	-9369
组成部分	-9370
gu	-9371
仆人	-9372
你对	-9373
因而	-9374
小车	-9375
本人	-9376
来接	-9377
温和	-9378
火锅	-9379
着说	-9380
要么	-9381
这几	-9382
难怪	-9383
-2\	-9384
▁ku	-9385
▁以及	-9386
▁有啊	-9387
分析师	-9388
比赛啊	-9389
NaOH	-9390
这么厉害	-9391
▁Q	-9392
乙烯	-9393
会员	-9394
吹牛	-9395
头脑	-9396
最为	-9397
相邻	-9398
赞美	-9399
通电	-9400
▁可得	-9401
▁那他	-9402
之比为	-9403
分子的	-9404
又不是	-9405
可以说	-9406
把这些	-9407
有这个	-9408
溶于水	-9409
还不如	-9410
_3$$	-9411
在水面上	-9412
$$15$$	-9413
àn	-9414
▁涂	-9415
关节	-9416
养老	-9417
又问	-9418
复苏	-9419
奇数	-9420
存款	-9421
桃树	-9422
湿润	-9423
质疑	-9424
ABD	-9425
▁身体	-9426
像一个	-9427
在那儿	-9428
小星星	-9429
有哪些	-9430
这样子	-9431
▁可能是	-9432
曲线运动	-9433
▁算	-9434
夸奖	-9435
平稳	-9436
我到	-9437
摇摇	-9438
蛋壳	-9439
行啊	-9440
跳跃	-9441
预备	-9442
▁$2	-9443
说实话	-9444
负责人	-9445
长鼻子	-9446
.234	-9447
▁巧	-9448
一线	-9449
下雪	-9450
受精	-9451
吃点	-9452
子女	-9453
恶的	-9454
把那	-9455
是好	-9456
梦见	-9457
此前	-9458
装备	-9459
该多	-9460
}/{	-9461
他可是	-9462
动植物	-9463
化合价	-9464
爬起来	-9465
的房子	-9466
让孩子	-9467
魔法师	-9468
你是不是	-9469
▁油	-9470
吐槽	-9471
奶油	-9472
弟子	-9473
抓起	-9474
括号	-9475
朱婷	-9476
楚国	-9477
楼梯	-9478
第六	-9479
起码	-9480
过河	-9481
餐饮	-9482
他看见	-9483
再加上	-9484
家门口	-9485
很生气	-9486
的物质	-9487
的空气	-9488
的那些	-9489
要不是	-9490
了自己的	-9491
%,	-9492
不料	-9493
使者	-9494
我呢	-9495
时常	-9496
明亮	-9497
杂志	-9498
溜达	-9499
灾害	-9500
班长	-9501
登记	-9502
米米	-9503
茫茫	-9504
追赶	-9505
我以为	-9506
挡住了	-9507
狐狸说	-9508
个子老鼠	-9509
二零一八年	-9510
▁臭	-9511
上个	-9512
两者	-9513
严厉	-9514
反弹	-9515
城的	-9516
思路	-9517
悬疑	-9518
晓得	-9519
理发	-9520
生怕	-9521
硬度	-9522
警告	-9523
货物	-9524
风的	-9525
▁车子	-9526
了一座	-9527
制造业	-9528
成一个	-9529
手里的	-9530
$$1.	-9531
到处都是	-9532
就在这时	-9533
我比较喜欢	-9534
▁以上新闻由南方都市报播报	-9535
会把	-9536
住宅	-9537
大嘴	-9538
山下	-9539
情形	-9540
手臂	-9541
木匠	-9542
海外	-9543
火烧	-9544
钱的	-9545
飘飘	-9546
鸵鸟	-9547
ACD	-9548
▁那边	-9549
当时的	-9550
是人类	-9551
条件的	-9552
▁好像是	-9553
▁∴$${{	-9554
办理	-9555
和新	-9556
响声	-9557
壁虎	-9558
多选	-9559
打仗	-9560
植株	-9561
玩得	-9562
聪聪	-9563
螳螂	-9564
质子	-9565
迎来	-9566
)."	-9567
}+{	-9568
▁能够	-9569
一定有	-9570
了解到	-9571
伤心地	-9572
表现的	-9573
何况	-9574
别提	-9575
喉咙	-9576
强了	-9577
时机	-9578
暂停	-9579
本次	-9580
登上	-9581
金刚	-9582
▁到底	-9583
不行了	-9584
了一次	-9585
妈妈在	-9586
电影吗	-9587
的长度	-9588
附近的	-9589
6$$,	-9590
32	-9591
修复	-9592
偶数	-9593
凉的	-9594
威尔	-9595
感叹	-9596
拿下	-9597
海豚	-9598
清朝	-9599
胎教	-9600
英俊	-9601
要到	-9602
▁华为	-9603
住着一	-9604
的使用	-9605
的小花	-9606
+1$$	-9607
怎么说呢	-9608
根据材料	-9609
过了几天	-9610
主角	-9611
农场	-9612
天生	-9613
最快	-9614
黑狗	-9615
▁窗户	-9616
买东西	-9617
引起了	-9618
时需要	-9619
的平均	-9620
要知道	-9621
▁没办法	-9622
越来越大	-9623
之心	-9624
勃勃	-9625
啪啪	-9626
好呢	-9627
学术	-9628
放出	-9629
海军	-9630
答道	-9631
部长	-9632
不由得	-9633
两只小	-9634
了出去	-9635
环境中	-9636
▁现	-9637
争吵	-9638
卡车	-9639
圆形	-9640
好友	-9641
忽略	-9642
感慨	-9643
无意	-9644
版本	-9645
考古	-9646
闹钟	-9647
香气	-9648
高山	-9649
▁巴比	-9650
双曲线	-9651
吃掉了	-9652
比较少	-9653
的知识	-9654
一点都不	-9655
他们一起	-9656
▁待	-9657
从不	-9658
以便	-9659
发酵	-9660
总算	-9661
抽烟	-9662
送你	-9663
▁国王	-9664
▁小猴	-9665
▁梯子	-9666
▁牛奶	-9667
不超过	-9668
自己也	-9669
▁我们的	-9670
修辞手法	-9671
干干净净	-9672
但是我觉得	-9673
▁}_{2}}	-9674
▁[	-9675
之人	-9676
分的	-9677
又被	-9678
嚷嚷	-9679
的和	-9680
直流	-9681
用电器	-9682
自己是	-9683
▁欢迎打开	-9684
一转	-9685
全体	-9686
冠状	-9687
可他	-9688
喊声	-9689
姑姑	-9690
敏感	-9691
深度	-9692
电势	-9693
立方	-9694
▁不用	-9695
人生的	-9696
他那个	-9697
回家去	-9698
摩托车	-9699
熊爸爸	-9700
雪白的	-9701
}^{1	-9702
▁冲	-9703
两句	-9704
各类	-9705
圆心	-9706
山西	-9707
所述	-9708
抗议	-9709
挑选	-9710
灰兔	-9711
能与	-9712
难题	-9713
鼓鼓	-9714
▁你就	-9715
上面的	-9716
实在太	-9717
的女儿	-9718
认真地	-9719
▁由题意	-9720
之时	-9721
了就	-9722
坚强	-9723
干旱	-9724
的面	-9725
躺着	-9726
除数	-9727
饿得	-9728
▁小兔	-9729
▁比赛	-9730
去哪儿	-9731
标志着	-9732
温度计	-9733
的影子	-9734
三位	-9735
凤仙	-9736
右边	-9737
哥们	-9738
尽力	-9739
未知	-9740
治愈	-9741
生动	-9742
百年	-9743
绝望	-9744
进程	-9745
量子	-9746
震撼	-9747
题中	-9748
▁葡萄	-9749
发光的	-9750
岂不是	-9751
拿到了	-9752
特朗普	-9753
知识的	-9754
逃走了	-9755
这个赛季	-9756
马上就要	-9757
不高	-9758
久的	-9759
外资	-9760
格力	-9761
气愤	-9762
能让	-9763
被他	-9764
视为	-9765
阵阵	-9766
+1)	-9767
了下去	-9768
使劲地	-9769
技术的	-9770
一个人的	-9771
▁v	-9772
▁内	-9773
一的	-9774
亲切	-9775
他为	-9776
但在	-9777
外表	-9778
女篮	-9779
日葵	-9780
有味	-9781
穿越	-9782
老牛	-9783
运算	-9784
▁18	-9785
▁乌龟	-9786
只要你	-9787
多年的	-9788
生态瓶	-9789
植物的生长	-9790
}}_{2}	-9791
大雪	-9792
心了	-9793
手的	-9794
损害	-9795
描绘	-9796
是真	-9797
纯净	-9798
脸色	-9799
辉煌	-9800
▁你还	-9801
到最后	-9802
奇怪的	-9803
物理量	-9804
电影啊	-9805
相对于	-9806
稻草人	-9807
▁尤其是	-9808
不一样的	-9809
为什么呢	-9810
全国人大	-9811
所学可知	-9812
}|	-9813
▁尿	-9814
不远	-9815
丰收	-9816
冷静	-9817
吸烟	-9818
图像	-9819
天堂	-9820
差了	-9821
总额	-9822
懒惰	-9823
扇子	-9824
护士	-9825
捧着	-9826
操场	-9827
有啥	-9828
询问	-9829
间隔	-9830
▁受伤	-9831
上半年	-9832
二十五	-9833
斯诺克	-9834
能量的	-9835
这表明	-9836
hone	-9837
物体运动	-9838
非常喜欢	-9839
Mg	-9840
yu	-9841
一滴	-9842
就对	-9843
幽默	-9844
惊慌	-9845
约定	-9846
这张	-9847
重庆	-9848
九十九	-9849
也不好	-9850
来看看	-9851
.123	-9852
▁bei	-9853
▁我还有	-9854
▁每个人	-9855
▁没有啊	-9856
▁我们下期	-9857
$$1$$,	-9858
9.	-9859
xy	-9860
▁呜	-9861
八千	-9862
塞尔	-9863
外线	-9864
学到	-9865
工艺	-9866
年底	-9867
快船	-9868
暴露	-9869
气象	-9870
红红	-9871
装饰	-9872
轮到	-9873
还很	-9874
闭合	-9875
防护	-9876
▁真正	-9877
▁邀请	-9878
我国的	-9879
指南针	-9880
的数量	-9881
叽叽喳喳	-9882
6{	-9883
▁胡	-9884
义词	-9885
也说	-9886
储备	-9887
子叶	-9888
打过	-9889
没能	-9890
滑冰	-9891
王朝	-9892
笼子	-9893
觅食	-9894
诉讼	-9895
"")	-9896
不开心	-9897
也跟着	-9898
十四点	-9899
平方米	-9900
快乐狼	-9901
我还没	-9902
找一个	-9903
说的话	-9904
另一方面	-9905
下降百分之	-9906
比较喜欢看	-9907
业内	-9908
号码	-9909
旅客	-9910
激励	-9911
订单	-9912
顺便	-9913
'。"	-9914
▁pi	-9915
▁各位	-9916
买了一	-9917
十三点	-9918
急忙忙	-9919
比数列	-9920
看到过	-9921
等因素	-9922
我的朋友	-9923
为难	-9924
入射	-9925
原点	-9926
回过	-9927
就就	-9928
幅画	-9929
明朝	-9930
松果	-9931
死后	-9932
爱护	-9933
翩翩	-9934
赶上	-9935
▁客厅	-9936
▁尽管	-9937
然后我	-9938
的都是	-9939
还是在	-9940
我们学校	-9941
挺不错的	-9942
{3}{5	-9943
)$$,$$	-9944
{1}{{{	-9945
下水	-9946
听话	-9947
哈欠	-9948
在意	-9949
感恩	-9950
放过	-9951
棍子	-9952
的数	-9953
福建	-9954
缘故	-9955
能使	-9956
身旁	-9957
▁xu	-9958
▁去年	-9959
了一圈	-9960
旁边的	-9961
问一下	-9962
▁}{3	-9963
▁当然了	-9964
▁$$4$$	-9965
4{	-9966
一粒	-9967
使命	-9968
外部	-9969
嫩的	-9970
思念	-9971
性命	-9972
推测	-9973
清水	-9974
清理	-9975
祖先	-9976
蒙古	-9977
要多	-9978
那人	-9979
teg	-9980
从树上	-9981
企业的	-9982
低着头	-9983
在美国	-9984
头上的	-9985
我好像	-9986
=4$$	-9987
冠状病毒	-9988
▁本题主要考查	-9989
{1}{2}$$	-9990
+8	-9991
45	-9992
▁云	-9993
三日	-9994
买入	-9995
像我	-9996
千玺	-9997
周年	-9998
弯曲	-9999
忙了	-10000
换个	-10001
杜甫	-10002
此外	-10003
汉堡	-10004
电力	-10005
等他	-10006
股市	-10007
▁玻璃	-10008
在自己	-10009
地说道	-10010
微笑着	-10011
的耳朵	-10012
这个剧	-10013
▁是的啊	-10014
人民群众	-10015
很多人都	-10016
该怎么办	-10017
贝克汉姆	-10018
▁这部电影	-10019
▁烫	-10020
到晚	-10021
十足	-10022
商家	-10023
奈何	-10024
桂花	-10025
着嘴	-10026
要看	-10027
逆转	-10028
骑士	-10029
不清楚	-10030
当然是	-10031
所说的	-10032
的一条	-10033
▁实际上	-10034
取值范围	-10035
乐趣	-10036
刘备	-10037
台阶	-10038
图画	-10039
坏蛋	-10040
宏观	-10041
更为	-10042
楼下	-10043
此次	-10044
毫升	-10045
海上	-10046
玉帝	-10047
精准	-10048
结了	-10049
请您	-10050
进门	-10051
▁从而	-10052
▁它的	-10053
买一个	-10054
十六点	-10055
好玩的	-10056
应该会	-10057
足球的	-10058
▁那肯定	-10059
我一个人	-10060
着自己的	-10061
走着走着	-10062
是怎么回事	-10063
▁元	-10064
一丝	-10065
丞相	-10066
债务	-10067
出身	-10068
变法	-10069
口的	-10070
大胆	-10071
平板	-10072
清香	-10073
约了	-10074
缓慢	-10075
赞同	-10076
趁着	-10077
锅里	-10078
随手	-10079
HCl	-10080
▁经常	-10081
▁说的	-10082
》、《	-10083
我不想	-10084
日本的	-10085
送给你	-10086
▁今天的	-10087
下次再聊	-10088
成了一个	-10089
看到一个	-10090
这件事情	-10091
}}_2}{{{	-10092
}^{2}}-{{	-10093
▁件	-10094
万物	-10095
保健	-10096
山谷	-10097
摸了	-10098
花草	-10099
追剧	-10100
闪着	-10101
▁怪兽	-10102
▁此题	-10103
无论是	-10104
适用于	-10105
那我就	-10106
▁我可以	-10107
超百分之	-10108
}}^{-1	-10109
一亮	-10110
一匹	-10111
外套	-10112
娘娘	-10113
宝藏	-10114
序号	-10115
往后	-10116
我吗	-10117
是非	-10118
田径	-10119
花开	-10120
)=1	-10121
dow	-10122
iii	-10123
tou	-10124
▁赶紧	-10125
▁还好	-10126
不管是	-10127
因为你	-10128
就是个	-10129
氨基酸	-10130
父亲的	-10131
}_{2	-10132
▁差不多	-10133
▁拔	-10134
▁雨	-10135
一月	-10136
区的	-10137
气质	-10138
源于	-10139
赛车	-10140
(2)	-10141
▁好嘞	-10142
▁盒子	-10143
▁那种	-10144
产品的	-10145
你就会	-10146
善良的	-10147
肺活量	-10148
要不要	-10149
都属于	-10150
▁ABD	-10151
你知道吧	-10152
确诊病例	-10153
苹果手机	-10154
▁结束对话	-10155
正确的一项是	-10156
公益	-10157
写道	-10158
减弱	-10159
午饭	-10160
子说	-10161
就到	-10162
待遇	-10163
支出	-10164
林里	-10165
激发	-10166
论文	-10167
路的	-10168
里了	-10169
项和	-10170
风中	-10171
ory	-10172
▁就会	-10173
▁朵拉	-10174
也喜欢	-10175
公元前	-10176
去参加	-10177
吃了一	-10178
大声喊	-10179
总觉得	-10180
水分和	-10181
表现为	-10182
我们现在	-10183
这个名字	-10184
也将	-10185
京城	-10186
地想	-10187
捡起	-10188
毛巾	-10189
湖边	-10190
重组	-10191
铃铛	-10192
马车	-10193
▁厕所	-10194
▁此时	-10195
任何的	-10196
太难了	-10197
空气中的	-10198
$$=$$	-10199
功劳	-10200
却说	-10201
唐代	-10202
坐下	-10203
学科	-10204
当我	-10205
暴雨	-10206
瓢虫	-10207
病了	-10208
的信	-10209
纳闷	-10210
那他	-10211
阿拉	-10212
黏土	-10213
好多人	-10214
希望他	-10215
电影的	-10216
自己在	-10217
选择了	-10218
=3$$	-10219
▁the	-10220
▁久	-10221
一试	-10222
上门	-10223
乘坐	-10224
凶猛	-10225
坚固	-10226
救援	-10227
爬山	-10228
白了	-10229
礼拜	-10230
要做	-10231
请教	-10232
▁许多	-10233
不好了	-10234
坐下来	-10235
小河边	-10236
怎样的	-10237
成功了	-10238
把那个	-10239
是一部	-10240
是那么	-10241
毛泽东	-10242
的不是	-10243
看一看	-10244
可以看出	-10245
▁根据题意	-10246
价钱	-10247
好心	-10248
帅哥	-10249
政权	-10250
晚餐	-10251
耽误	-10252
节课	-10253
里皮	-10254
▁西瓜	-10255
一个叫	-10256
不说啦	-10257
所以我	-10258
的小孩	-10259
表现了	-10260
这几天	-10261
0$$(	-10262
▁我没有	-10263
急急忙忙	-10264
物质的量	-10265
)$$,$$\	-10266
27	-10267
hi	-10268
▁瓶	-10269
一蹦	-10270
兮兮	-10271
卡片	-10272
往常	-10273
的热	-10274
真诚	-10275
睡得	-10276
缤纷	-10277
芝麻	-10278
要素	-10279
饥饿	-10280
鼻涕	-10281
▁成为	-10282
▁直到	-10283
个人的	-10284
了一天	-10285
就不是	-10286
氯化钠	-10287
▁西安市	-10288
保持不变	-10289
可以帮助	-10290
叹了口气	-10291
这篇文章	-10292
非常高兴	-10293
一堆	-10294
实用	-10295
广阔	-10296
找了	-10297
招聘	-10298
放假	-10299
无声	-10300
犹如	-10301
的可	-10302
等人	-10303
西亚	-10304
触角	-10305
诗词	-10306
通报	-10307
)+\	-10308
一下吧	-10309
不过他	-10310
又开始	-10311
就不用	-10312
毛茸茸	-10313
生长的	-10314
癞蛤蟆	-10315
的形式	-10316
说明了	-10317
这一刻	-10318
长出了	-10319
▁南都记者	-10320
▁线	-10321
以往	-10322
学了	-10323
持有	-10324
桔子	-10325
浣熊	-10326
语句	-10327
跑着	-10328
踏实	-10329
退休	-10330
银河	-10331
青青	-10332
▁估计	-10333
也比较	-10334
半径为	-10335
大小为	-10336
熊奶奶	-10337
自身的	-10338
西红柿	-10339
▁zan	-10340
▁当然可以	-10341
tegory	-10342
}^{2}}}{{{	-10343
▁然	-10344
光芒	-10345
斯的	-10346
有用	-10347
牧羊	-10348
秒钟	-10349
道题	-10350
▁不错	-10351
也不敢	-10352
救命啊	-10353
是多么	-10354
的身影	-10355
的还是	-10356
+1}}	-10357
先走了哈	-10358
妈妈的话	-10359
香喷喷的	-10360
▁趴	-10361
两岸	-10362
会使	-10363
吞吞	-10364
晴天	-10365
根廷	-10366
绿豆	-10367
认知	-10368
诱惑	-10369
选出	-10370
错过	-10371
首歌	-10372
▁15	-10373
▁冬天	-10374
他看到	-10375
你不要	-10376
你坐吧	-10377
做的功	-10378
大家对	-10379
我就会	-10380
戴口罩	-10381
此同时	-10382
狐狸的	-10383
陌生人	-10384
高大的	-10385
▁$$=	-10386
▁这也是	-10387
地球上的	-10388
▁下列说法	-10389
▁今晚就和	-10390
乡下	-10391
你都	-10392
停在	-10393
合法	-10394
听后	-10395
天体	-10396
拖着	-10397
掉到	-10398
狗狗	-10399
相差	-10400
给小	-10401
贫穷	-10402
跳进	-10403
黑夜	-10404
▁从来	-10405
▁卧室	-10406
对不对	-10407
我以后	-10408
抛物线	-10409
没时间	-10410
.124	-10411
▁ACD	-10412
有一只小	-10413
选项正确	-10414
▁本题考查学生	-10415
叹气	-10416
和它	-10417
声明	-10418
始皇	-10419
房里	-10420
无线	-10421
的白	-10422
行使	-10423
野猫	-10424
黄瓜	-10425
不存在	-10426
了好几	-10427
并不能	-10428
幸福的	-10429
我的手	-10430
深深地	-10431
迟到了	-10432
$$1{	-10433
}$$。	-10434
我和妈妈	-10435
这次比赛	-10436
▁就是那个	-10437
我们国家的	-10438
加班	-10439
却被	-10440
员外	-10441
周边	-10442
复习	-10443
奇艺	-10444
将于	-10445
尽情	-10446
杜鹃	-10447
条约	-10448
流着	-10449
清脆	-10450
阻挡	-10451
▁公主	-10452
周围的	-10453
尖尖的	-10454
活动的	-10455
的小猫	-10456
看那个	-10457
这本书	-10458
这个故事告诉我们	-10459
亚马	-10460
位的	-10461
剧烈	-10462
否定	-10463
喔喔	-10464
喜悦	-10465
娘子	-10466
差的	-10467
弱的	-10468
打死	-10469
打猎	-10470
灭了	-10471
班级	-10472
用过	-10473
相应	-10474
窗子	-10475
绝了	-10476
苏州	-10477
西部	-10478
▁国内	-10479
什么是	-10480
所以就	-10481
的思想	-10482
西安市	-10483
}}^-	-10484
▁pao	-10485
一同	-10486
们说	-10487
其妙	-10488
办事	-10489
外力	-10490
对她	-10491
成像	-10492
法治	-10493
活儿	-10494
灿灿	-10495
特尔	-10496
玛丽	-10497
足了	-10498
都好	-10499
降临	-10500
▁动作	-10501
。()	-10502
和社会	-10503
是植物	-10504
的面积	-10505
科创板	-10506
紧接着	-10507
给妈妈	-10508
讲的是	-10509
――""	-10510
▁那时候	-10511
你有什么	-10512
的新闻吗	-10513
75	-10514
半场	-10515
司法	-10516
均衡	-10517
情愿	-10518
无力	-10519
矮人	-10520
赔偿	-10521
金银	-10522
▁让我	-10523
什么样	-10524
任何人	-10525
咱们的	-10526
大树下	-10527
对应的	-10528
我妈妈	-10529
谁知道	-10530
$$2{	-10531
.134	-10532
▁这不是	-10533
▁较	-10534
冰冰	-10535
回复	-10536
打破	-10537
掏出	-10538
栗子	-10539
死去	-10540
注射	-10541
活了	-10542
演奏	-10543
珊瑚	-10544
自律	-10545
那次	-10546
随之	-10547
▁足球	-10548
▁镜子	-10549
一大早	-10550
决定的	-10551
十分钟	-10552
新时代	-10553
的话呢	-10554
细胞核	-10555
细胞膜	-10556
表面的	-10557
▁huo	-10558
▁大家好	-10559
思考如何	-10560
自己的孩子	-10561
▁忙	-10562
▁非	-10563
乐器	-10564
人不	-10565
公正	-10566
延长	-10567
收藏	-10568
木块	-10569
朱元	-10570
监会	-10571
行吗	-10572
降落	-10573
难看	-10574
预报	-10575
▁手机	-10576
向日葵	-10577
垃圾桶	-10578
更喜欢	-10579
的需求	-10580
能看到	-10581
草原上	-10582
评论区	-10583
这个世界	-10584
>0$$,	-10585
指示	-10586
木板	-10587
树洞	-10588
核糖	-10589
梦里	-10590
比是	-10591
的脚	-10592
纸条	-10593
蝈蝈	-10594
过冬	-10595
驱动	-10596
▁嘉嘉	-10597
一共有	-10598
无聊啊	-10599
电动车	-10600
的一次	-10601
的办法	-10602
的身上	-10603
运动时	-10604
都是有	-10605
▁来关注	-10606
▁看一看	-10607
也挺好的	-10608
用自己的	-10609
▁林	-10610
▁骂	-10611
之上	-10612
们在	-10613
你得	-10614
偏偏	-10615
元的	-10616
光是	-10617
可谓	-10618
封闭	-10619
山洞	-10620
牵牛	-10621
看我	-10622
碱性	-10623
竞技	-10624
美术	-10625
装满	-10626
走开	-10627
追逐	-10628
选举	-10629
随风	-10630
隐私	-10631
▁它是	-10632
了进去	-10633
这首歌	-10634
.$$6	-10635
▁dei	-10636
作为一个	-10637
化学反应	-10638
大吃一惊	-10639
▁这一课就是这些	-10640
mg	-10641
传奇	-10642
先去	-10643
同步	-10644
向你	-10645
天才	-10646
富翁	-10647
总理	-10648
搬到	-10649
某某	-10650
海报	-10651
玩意	-10652
神话	-10653
警惕	-10654
说出	-10655
那场	-10656
$$-	-10657
$$|	-10658
▁医院	-10659
价值的	-10660
千万别	-10661
可怕了	-10662
看比赛	-10663
脖子上	-10664
2018	-10665
挺好看的	-10666
题目中的	-10667
▁二零二零年	-10668
▁谁说不是呢	-10669
八卦	-10670
出场	-10671
制品	-10672
尼亚	-10673
很像	-10674
汤姆	-10675
沮丧	-10676
纽约	-10677
选填	-10678
风车	-10679
▁电影	-10680
从来不	-10681
冰淇淋	-10682
留下的	-10683
里的小	-10684
▁ang	-10685
中国人民	-10686
3?	-10687
▁名	-10688
为一	-10689
五六	-10690
地图	-10691
嫉妒	-10692
有过	-10693
此刻	-10694
滑轮	-10695
艰苦	-10696
诞生	-10697
\{\	-10698
▁看着	-10699
▁积木	-10700
个子猫	-10701
然后把	-10702
系统的	-10703
▁据了解	-10704
一动不动	-10705
$$,$$2	-10706
专制	-10707
他他	-10708
你呀	-10709
几何	-10710
地吃	-10711
境界	-10712
天啊	-10713
岛上	-10714
早期	-10715
明珠	-10716
湿了	-10717
滴加	-10718
粗糙	-10719
老三	-10720
脱离	-10721
菜园	-10722
马的	-10723
▁七月	-10724
▁培训	-10725
听故事	-10726
听说了	-10727
怎么做	-10728
我看见	-10729
飞到了	-10730
一下子就	-10731
因为他们	-10732
当然可以	-10733
▁我们下一刻再见吧	-10734
98	-10735
▁蛇	-10736
两国	-10737
啥呀	-10738
学期	-10739
布置	-10740
往回	-10741
打点	-10742
猜测	-10743
皮鞋	-10744
茉莉	-10745
行李	-10746
跟她	-10747
退出	-10748
=""	-10749
}+2	-10750
伤心的	-10751
户人家	-10752
电动势	-10753
这首诗	-10754
▁lou	-10755
你也喜欢	-10756
如果没有	-10757
▁diao	-10758
▁方	-10759
中秋	-10760
人多	-10761
刻苦	-10762
属性	-10763
年后	-10764
当代	-10765
既有	-10766
树立	-10767
演讲	-10768
理财	-10769
罚款	-10770
骗子	-10771
完整的	-10772
彩色的	-10773
才可以	-10774
的叶子	-10775
这个消息	-10776
iPhone	-10777
这是怎么回事	-10778
}^{2}}-	-10779
为国	-10780
家家	-10781
履行	-10782
我呀	-10783
控股	-10784
是想	-10785
此类	-10786
流程	-10787
深夜	-10788
破产	-10789
语气	-10790
还被	-10791
他之前	-10792
吃饱了	-10793
我马上	-10794
所谓的	-10795
放弃了	-10796
的一点	-10797
程度上	-10798
身边的	-10799
这个小	-10800
很厉害的	-10801
$$0$$,	-10802
)-	-10803
▁何	-10804
万分	-10805
却不	-10806
图案	-10807
增多	-10808
平凡	-10809
我听	-10810
我心	-10811
擅长	-10812
早饭	-10813
正面	-10814
湿度	-10815
灵机	-10816
篱笆	-10817
走上	-10818
还给	-10819
▁四月	-10820
▁恐龙	-10821
十一点	-10822
安全的	-10823
有引力	-10824
朱元璋	-10825
因为这个	-10826
好奇地问	-10827
本题答案选	-10828
4?	-10829
▁试	-10830
▁赵	-10831
伤病	-10832
呆呆	-10833
嫌疑	-10834
尽了	-10835
得以	-10836
总裁	-10837
打打	-10838
新人	-10839
期望	-10840
澳门	-10841
见他	-10842
赶来	-10843
跳绳	-10844
▁八月	-10845
▁熊熊	-10846
上了一	-10847
下了头	-10848
了一家	-10849
了上去	-10850
大老虎	-10851
棉花糖	-10852
笑嘻嘻	-10853
角落里	-10854
这一个	-10855
这只小	-10856
是什么呢	-10857
百分之四十	-10858
uparrow	-10859
一吹	-10860
书的	-10861
会了	-10862
军训	-10863
名词	-10864
城镇	-10865
岸上	-10866
或是	-10867
执法	-10868
推行	-10869
斧头	-10870
来一	-10871
栗鼠	-10872
气势	-10873
等车	-10874
茄子	-10875
▁mo	-10876
▁上来	-10877
▁对吧	-10878
▁随便	-10879
太小了	-10880
带回家	-10881
很正常	-10882
拼命地	-10883
然大悟	-10884
的学生	-10885
赛场上	-10886
▁0$$	-10887
▁mai	-10888
反正就是	-10889
9\	-10890
内涵	-10891
基层	-10892
天文	-10893
安卓	-10894
律师	-10895
怀念	-10896
悠闲	-10897
惭愧	-10898
来啦	-10899
汉语	-10900
湖水	-10901
爱你	-10902
笑脸	-10903
精致	-10904
诚实	-10905
这也	-10906
▁上次	-10907
▁利用	-10908
了一句	-10909
参照物	-10910
在一旁	-10911
太阳的	-10912
掉进了	-10913
暖暖的	-10914
的讲解	-10915
美味的	-10916
▁∵$$	-10917
圣诞老人	-10918
越来越好	-10919
{1}{\	-10920
▁喜马拉雅	-10921
(4	-10922
▁闻	-10923
不长	-10924
乐意	-10925
史实	-10926
周五	-10927
搬家	-10928
极其	-10929
楼上	-10930
气喘	-10931
水性	-10932
游乐	-10933
誉为	-10934
骨骼	-10935
▁以为	-10936
▁学习	-10937
十七点	-10938
在天上	-10939
大小的	-10940
把我们	-10941
没多久	-10942
的值为	-10943
确实很	-10944
美联储	-10945
$$10	-10946
不合题意	-10947
从此以后	-10948
那个那个	-10949
▁判断正误	-10950
不是很了解	-10951
很久很久以前	-10952
不愧	-10953
先把	-10954
向东	-10955
学历	-10956
就走	-10957
已被	-10958
我怕	-10959
推送	-10960
村长	-10961
游记	-10962
照耀	-10963
眨眼	-10964
素的	-10965
课堂	-10966
过大	-10967
追上	-10968
那块	-10969
阻碍	-10970
▁你在	-10971
▁头发	-10972
▁更多	-10973
▁综上	-10974
特殊的	-10975
灵机一动	-10976
等比数列	-10977
莫名其妙	-10978
▁niao	-10979
▁杯	-10980
世间	-10981
向心	-10982
小屋	-10983
带了	-10984
我做	-10985
才华	-10986
提议	-10987
文言	-10988
昼夜	-10989
理性	-10990
鸡毛	-10991
龙虾	-10992
▁夏天	-10993
▁帽子	-10994
你刚才	-10995
导致的	-10996
快去吧	-10997
我终于	-10998
我都会	-10999
的主题	-11000
▁特别是	-11001
一个一个	-11002
代表大会	-11003
王者荣耀	-11004
▁0$$,	-11005
错的回答错误	-11006
▁下列说法正确的是	-11007
.5	-11008
4:	-11009
兰花	-11010
刷刷	-11011
动听	-11012
又好	-11013
发愁	-11014
境外	-11015
室内	-11016
幼虫	-11017
招待	-11018
救救	-11019
框架	-11020
短期	-11021
这份	-11022
进展	-11023
那年	-11024
长长	-11025
问你	-11026
飞奔	-11027
)^2	-11028
▁英国	-11029
发育成	-11030
小黑熊	-11031
留下来	-11032
.$$5	-11033
}}_{2}}{	-11034
▁交	-11035
▁停	-11036
▁占	-11037
动态	-11038
唧唧	-11039
抓到	-11040
涉嫌	-11041
漂浮	-11042
疲惫	-11043
穷人	-11044
起义	-11045
越好	-11046
{16	-11047
▁全球	-11048
不是有	-11049
培养基	-11050
常用的	-11051
的部分	-11052
▁BCD	-11053
很有意思	-11054
恍然大悟	-11055
植物生长	-11056
传导	-11057
大黄	-11058
既是	-11059
日记	-11060
枝头	-11061
漫画	-11062
绿灯	-11063
艺人	-11064
镇上	-11065
高峰	-11066
▁不知	-11067
▁关系	-11068
▁果汁	-11069
▁正好	-11070
一系列	-11071
与其他	-11072
习惯了	-11073
从小就	-11074
优美的	-11075
十八点	-11076
政府的	-11077
)={{	-11078
对自己的	-11079
生活中的	-11080
直角坐标	-11081
▁保	-11082
▁联	-11083
▁首	-11084
一瞧	-11085
不看	-11086
冒着	-11087
喘气	-11088
多大	-11089
对岸	-11090
幸亏	-11091
报警	-11092
拉力	-11093
提倡	-11094
摄入	-11095
步伐	-11096
洞穴	-11097
犀牛	-11098
狂风	-11099
白鹅	-11100
百合	-11101
车厢	-11102
辞职	-11103
震惊	-11104
高处	-11105
=20	-11106
_{\	-11107
▁尾巴	-11108
▁或许	-11109
作用力	-11110
你这样	-11111
学习的	-11112
所需的	-11113
结束后	-11114
说这个	-11115
▁hen	-11116
分析可知	-11117
笑了起来	-11118
▁tian	-11119
.$$5$$	-11120
▁易	-11121
前方	-11122
发烧	-11123
咨询	-11124
子了	-11125
常数	-11126
惯性	-11127
懂了	-11128
播种	-11129
王爷	-11130
用到	-11131
赛跑	-11132
还用	-11133
陪着	-11134
难的	-11135
零件	-11136
打开门	-11137
打破了	-11138
把他的	-11139
氧化碳	-11140
研究院	-11141
自然数	-11142
阿根廷	-11143
▁那这个	-11144
这种事情	-11145
▁我不知道	-11146
▁数据显示	-11147
:(	-11148
。'	-11149
专注	-11150
主观	-11151
九日	-11152
他才	-11153
住的	-11154
冬冬	-11155
励志	-11156
失业	-11157
恶心	-11158
打量	-11159
歌曲	-11160
焦虑	-11161
肖战	-11162
蒸汽	-11163
龙宫	-11164
▁想想	-11165
▁那样	-11166
下雨了	-11167
人体的	-11168
仔细地	-11169
奇妙的	-11170
是谁啊	-11171
这么快	-11172
风吹来	-11173
▁下列对	-11174
游来游去	-11175
上线	-11176
不绝	-11177
主权	-11178
优质	-11179
吃不	-11180
对错	-11181
有毒	-11182
气了	-11183
睡前	-11184
种种	-11185
积分	-11186
第七	-11187
系数	-11188
荷兰	-11189
造型	-11190
▁建议	-11191
不好看	-11192
再见了	-11193
就是有	-11194
的一只	-11195
还真是	-11196
速度是	-11197
▁2$$	-11198
最后一个	-11199
生态平衡	-11200
omega	-11201
我还有事先走了	-11202
1:	-11203
▁呐	-11204
不计	-11205
勤奋	-11206
发起	-11207
后果	-11208
啤酒	-11209
固态	-11210
宇航	-11211
样本	-11212
猎狗	-11213
石块	-11214
磁针	-11215
胡须	-11216
腾腾	-11217
芦苇	-11218
,19	-11219
▁角落	-11220
他发现	-11221
叶绿体	-11222
好东西	-11223
好办法	-11224
就比较	-11225
我都不	-11226
推动了	-11227
早上好	-11228
的一项	-11229
说自己	-11230
还有个	-11231
那么好	-11232
那可是	-11233
钻进了	-11234
▁hong	-11235
这个新闻啊	-11236
▁chang	-11237
by	-11238
之力	-11239
余额	-11240
十号	-11241
各有	-11242
夕阳	-11243
奥运	-11244
差别	-11245
羞愧	-11246
能有	-11247
边走	-11248
遥控	-11249
面粉	-11250
▁mi	-11251
▁你会	-11252
▁清楚	-11253
▁结合	-11254
不利于	-11255
同意了	-11256
很简单	-11257
水中的	-11258
通常是	-11259
▁创业板	-11260
▁我平时	-11261
津津有味	-11262
说法是错误的	-11263
依依	-11264
修养	-11265
击败	-11266
创始	-11267
到位	-11268
宁静	-11269
尚未	-11270
康复	-11271
开头	-11272
拼个	-11273
拼音	-11274
激光	-11275
猕猴	-11276
福利	-11277
精英	-11278
被我	-11279
野花	-11280
▁大概	-11281
▁屋子	-11282
几个人	-11283
历史的	-11284
是一对	-11285
长着一	-11286
ello	-11287
、$${	-11288
成为一个	-11289
考查学生对	-11290
??	-11291
mv	-11292
一团	-11293
卡卡	-11294
叫人	-11295
大火	-11296
家园	-11297
帅啊	-11298
当你	-11299
流感	-11300
职责	-11301
谦虚	-11302
贪婪	-11303
道士	-11304
闪烁	-11305
nai	-11306
▁蔬菜	-11307
俗话说	-11308
秦始皇	-11309
结婚了	-11310
自己去	-11311
▁fei	-11312
我也看了	-11313
的小姑娘	-11314
的小老鼠	-11315
这种现象	-11316
▁今天我们	-11317
中华人民共和国	-11318
公斤	-11319
四条	-11320
巩固	-11321
晴朗	-11322
特定	-11323
琪琪	-11324
称号	-11325
长成	-11326
▁聪明	-11327
一定很	-11328
两个月	-11329
土壤中	-11330
大熊猫	-11331
它们在	-11332
害怕了	-11333
对他们	-11334
对环境	-11335
已经很	-11336
打比赛	-11337
清楚了	-11338
的冠军	-11339
进行的	-11340
▁(4)	-11341
▁hou	-11342
▁我还是	-11343
不过现在	-11344
微信公众号	-11345
}}_{2}}$$	-11346
▁轩	-11347
临床	-11348
事的	-11349
传出	-11350
全年	-11351
明媚	-11352
的首	-11353
进屋	-11354
频繁	-11355
▁er	-11356
▁嗯呐	-11357
▁她们	-11358
▁导致	-11359
大家说	-11360
给别人	-11361
这也太	-11362
这里吗	-11363
)}^{	-11364
万有引力	-11365
种子萌发	-11366
还不知道	-11367
hline	-11368
{4}{5	-11369
叫什么名字	-11370
平行四边形	-11371
▁共	-11372
▁已	-11373
一间	-11374
便于	-11375
几步	-11376
外观	-11377
强化	-11378
得过	-11379
必定	-11380
播放	-11381
散了	-11382
窗帘	-11383
负面	-11384
遮挡	-11385
陈述	-11386
▁Fe	-11387
▁起床	-11388
下起了	-11389
不高兴	-11390
只需要	-11391
大拇指	-11392
树洞里	-11393
液体的	-11394
盒子里	-11395
给孩子	-11396
这都是	-11397
体育新闻	-11398
力的方向	-11399
各种各样	-11400
}_{2}}$$,	-11401
不忍	-11402
丝绸	-11403
亲人	-11404
人造	-11405
对抗	-11406
怀抱	-11407
朝鲜	-11408
波的	-11409
烧杯	-11410
独木	-11411
胰岛	-11412
阿布	-11413
降雨	-11414
项羽	-11415
set	-11416
▁萝卜	-11417
▁被子	-11418
它就是	-11419
我认为	-11420
的一半	-11421
的一生	-11422
▁说不定	-11423
这些都是	-11424
那么多的	-11425
一刻在您身边	-11426
▁热点财经资讯一刻在您身边	-11427
76	-11428
▁断	-11429
一处	-11430
优美	-11431
你家	-11432
倒数	-11433
养成	-11434
则该	-11435
吁吁	-11436
它把	-11437
少的	-11438
强制	-11439
忍受	-11440
新冠	-11441
机遇	-11442
机长	-11443
果果	-11444
疼得	-11445
的病	-11446
轮船	-11447
还蛮	-11448
===	-11449
其他人	-11450
内心的	-11451
咚咚咚	-11452
有人在	-11453
猪妈妈	-11454
看什么	-11455
+{{\	-11456
})$$	-11457
}}}{	-11458
▁10.	-11459
▁于	-11460
▁船	-11461
奇特	-11462
家务	-11463
师父	-11464
恭喜	-11465
悲剧	-11466
用啊	-11467
聚会	-11468
藏着	-11469
赞叹	-11470
起伏	-11471
面条	-11472
var	-11473
{12	-11474
可不能	-11475
地站在	-11476
建立了	-11477
房子的	-11478
摸了摸	-11479
教育部	-11480
有人说	-11481
电流表	-11482
的鼻子	-11483
稳定的	-11484
采用了	-11485
但是现在	-11486
然后我就	-11487
资本市场	-11488
▁不好意思	-11489
bc	-11490
▁Y	-11491
▁常	-11492
一向	-11493
一套	-11494
丁俊	-11495
东坡	-11496
交代	-11497
前期	-11498
协商	-11499
又跳	-11500
咕咚	-11501
在做	-11502
好人	-11503
完毕	-11504
思议	-11505
最强	-11506
有序	-11507
李小	-11508
游到	-11509
火灾	-11510
紧密	-11511
观赏	-11512
证实	-11513
间接	-11514
非要	-11515
靴子	-11516
rox	-11517
二零二	-11518
地望着	-11519
差点儿	-11520
我刚刚	-11521
是这个	-11522
稀硫酸	-11523
设计的	-11524
那不是	-11525
▁然后就是	-11526
$$,$$3	-11527
▁使	-11528
▁压	-11529
主场	-11530
书中	-11531
乱了	-11532
代价	-11533
假期	-11534
典型	-11535
启示	-11536
嘴唇	-11537
四只	-11538
回落	-11539
在她	-11540
天黑	-11541
安娜	-11542
快到	-11543
放开	-11544
模糊	-11545
洗脸	-11546
重了	-11547
_{3	-11548
▁三月	-11549
▁意思	-11550
三个人	-11551
了一百	-11552
但还是	-11553
出门了	-11554
勒布朗	-11555
安全性	-11556
小河马	-11557
有一定	-11558
的肚子	-11559
老太太	-11560
这三个	-11561
▁小猴子	-11562
咱们这个	-11563
我们这个	-11564
货币政策	-11565
▁那你知道	-11566
百分之二点	-11567
approx	-11568
一趟	-11569
东尼	-11570
书籍	-11571
优先	-11572
前途	-11573
巅峰	-11574
房企	-11575
打滚	-11576
朵花	-11577
此题	-11578
没啥	-11579
灰色	-11580
热气	-11581
版的	-11582
物资	-11583
监狱	-11584
筛选	-11585
表扬	-11586
逃走	-11587
麦子	-11588
_{2	-11589
▁底下	-11590
丁俊晖	-11591
从来没	-11592
是一片	-11593
是比较	-11594
电流的	-11595
的家庭	-11596
的香味	-11597
第一天	-11598
紫色的	-11599
绿绿的	-11600
觉得他	-11601
过得好	-11602
▁然后他	-11603
另外一个	-11604
{3}}$$	-11605
0}	-11606
一等	-11607
主力	-11608
主帅	-11609
余年	-11610
周琦	-11611
境内	-11612
尺子	-11613
报答	-11614
教堂	-11615
有大	-11616
玩着	-11617
甲虫	-11618
调控	-11619
辆车	-11620
这棵	-11621
都用	-11622
▁好啦	-11623
不相同	-11624
可以把	-11625
就走了	-11626
汉武帝	-11627
的性质	-11628
5$$(	-11629
再生能源	-11630
塔台模型	-11631
打了一个	-11632
还有就是	-11633
进行光合作用	-11634
)}	-11635
▁撞	-11636
七星	-11637
买卖	-11638
人之	-11639
原油	-11640
女友	-11641
富裕	-11642
将它	-11643
山里	-11644
废弃	-11645
明月	-11646
板凳	-11647
法规	-11648
皇宫	-11649
祈祷	-11650
红花	-11651
躲避	-11652
那那	-11653
钻石	-11654
香肠	-11655
不同意	-11656
兔宝宝	-11657
大声地	-11658
我赶紧	-11659
是一件	-11660
NaCl	-11661
▁有一个	-11662
▁2019	-11663
38	-11664
ān	-11665
▁铁	-11666
不为	-11667
丝毫	-11668
乡亲	-11669
出售	-11670
图片	-11671
孵化	-11672
年初	-11673
怪的	-11674
摇篮	-11675
水钟	-11676
熟了	-11677
用电	-11678
的口	-11679
纸张	-11680
脾胃	-11681
送去	-11682
难忘	-11683
鞭炮	-11684
颤抖	-11685
默契	-11686
一边走	-11687
可以啊	-11688
基因的	-11689
就一直	-11690
的一片	-11691
的目的	-11692
每个人都	-11693
元素的质量	-11694
▁另	-11695
侦探	-11696
前提	-11697
半球	-11698
嬉戏	-11699
挖掘	-11700
欲望	-11701
激凌	-11702
疲劳	-11703
短语	-11704
▁坏人	-11705
主持人	-11706
已经在	-11707
的生命	-11708
老头儿	-11709
飞过来	-11710
'''(	-11711
身体健康	-11712
▁偷	-11713
加以	-11714
北风	-11715
名句	-11716
嫌弃	-11717
岁时	-11718
批准	-11719
抓紧	-11720
拯救	-11721
拿过	-11722
月饼	-11723
植树	-11724
流出	-11725
琢磨	-11726
电离	-11727
真想	-11728
短暂	-11729
签订	-11730
认同	-11731
钱了	-11732
mao	-11733
写出了	-11734
女孩儿	-11735
感觉很	-11736
更容易	-11737
洗干净	-11738
的存在	-11739
解决了	-11740
▁还行吧	-11741
可以看到	-11742
;4	-11743
Al	-11744
km	-11745
▁单	-11746
九个	-11747
华德	-11748
在哪	-11749
她还	-11750
改正	-11751
点心	-11752
线索	-11753
膝盖	-11754
要比	-11755
解除	-11756
随即	-11757
▁整个	-11758
▁跳跳	-11759
▁面对	-11760
内容的	-11761
呜呜呜	-11762
和朋友	-11763
我其实	-11764
沙滩上	-11765
薇姐姐	-11766
可能就是	-11767
这样的人	-11768
}}^{2	-11769
pH	-11770
▁眼	-11771
不准	-11772
在上	-11773
埃及	-11774
想买	-11775
汗水	-11776
深化	-11777
盛开	-11778
看吧	-11779
纠结	-11780
谁啊	-11781
迟到	-11782
龙的	-11783
-10	-11784
]。[	-11785
▁休息	-11786
人们都	-11787
会受到	-11788
可是他	-11789
好多的	-11790
是不会	-11791
石头上	-11792
近年来	-11793
^{2-	-11794
也越来越	-11795
太厉害了	-11796
没有任何	-11797
bianr	-11798
}}}{{{	-11799
又长	-11800
国君	-11801
当下	-11802
当今	-11803
打听	-11804
投降	-11805
澄清	-11806
用品	-11807
离家	-11808
端午	-11809
能为	-11810
英文	-11811
跟头	-11812
00{	-11813
▁耳朵	-11814
▁那天	-11815
利用了	-11816
好孩子	-11817
每一次	-11818
漂亮了	-11819
的大树	-11820
董事长	-11821
霍华德	-11822
▁}}\	-11823
守恒定律	-11824
必要条件	-11825
春天来了	-11826
营养物质	-11827
.$$0.	-11828
▁今天天气	-11829
}}^{2}}	-11830
mm	-11831
专心	-11832
你啊	-11833
修建	-11834
又会	-11835
后再	-11836
实习	-11837
徒弟	-11838
懒腰	-11839
戒指	-11840
执政	-11841
搞得	-11842
早日	-11843
权威	-11844
来买	-11845
枝条	-11846
薄的	-11847
装着	-11848
过多	-11849
长城	-11850
▁轩轩	-11851
。19	-11852
主人公	-11853
也不要	-11854
开心的	-11855
悄悄的	-11856
爬上了	-11857
真实的	-11858
低下了头	-11859
智慧语音	-11860
科学技术	-11861
}}}=\	-11862
▁xian	-11863
▁零	-11864
▁鞋	-11865
亲手	-11866
传到	-11867
佳佳	-11868
倒在	-11869
反思	-11870
发放	-11871
召集	-11872
嗯嗯	-11873
宋代	-11874
宽松	-11875
富贵	-11876
崇拜	-11877
愚蠢	-11878
扶贫	-11879
排水	-11880
的字	-11881
的黑	-11882
知名	-11883
艾伦	-11884
虚拟	-11885
酸钾	-11886
▁小鸟	-11887
伴随着	-11888
在一定	-11889
寒冷的	-11890
提出的	-11891
材料的	-11892
爱奇艺	-11893
的认识	-11894
第三天	-11895
这几年	-11896
可以用来	-11897
这部电视剧	-11898
高高兴兴地	-11899
.$$6$$	-11900
智慧语音采集	-11901
29	-11902
▁结	-11903
七千	-11904
乾隆	-11905
信仰	-11906
农历	-11907
冰块	-11908
前三	-11909
县官	-11910
含着	-11911
央视	-11912
就来	-11913
慢了	-11914
浏览	-11915
爱数	-11916
物流	-11917
通讯	-11918
那棵	-11919
那颗	-11920
靠着	-11921
_2\	-11922
▁可惜	-11923
▁小明	-11924
▁相信	-11925
制成的	-11926
如果不	-11927
新中国	-11928
椅子上	-11929
烊千玺	-11930
的父亲	-11931
的生日	-11932
相等的	-11933
这种事	-11934
预告片	-11935
▁下列各	-11936
▁我在看	-11937
仔细一看	-11938
题目描述	-11939
)^{2}	-11940
▁故本题选	-11941
孩子下课了	-11942
▁喷	-11943
互动	-11944
到此	-11945
发觉	-11946
得起	-11947
报仇	-11948
挥手	-11949
捉住	-11950
月相	-11951
标赛	-11952
热刺	-11953
路径	-11954
输出	-11955
送来	-11956
马云	-11957
▁--	-11958
▁我不	-11959
五亿元	-11960
仙人掌	-11961
做匀速	-11962
兔子的	-11963
到这儿	-11964
可真是	-11965
有几个	-11966
荡秋千	-11967
}}{\	-11968
气喘吁吁	-11969
飞来飞去	-11970
▁你知道吗	-11971
我都不知道	-11972
直角三角形	-11973
▁文	-11974
▁脱	-11975
他妈	-11976
再把	-11977
坏的	-11978
太小	-11979
奖项	-11980
庄园	-11981
念头	-11982
我吃	-11983
投篮	-11984
指责	-11985
排在	-11986
探险	-11987
球场	-11988
粒体	-11989
职能	-11990
蚕豆	-11991
金光	-11992
面向	-11993
}_4	-11994
▁也对	-11995
▁睡着	-11996
了一位	-11997
创造了	-11998
可以让	-11999
是自己	-12000
池塘边	-12001
的学习	-12002
的活动	-12003
的笑容	-12004
赢得了	-12005
▁FFF	-12006
▁wai	-12007
单调递增	-12008
本来就是	-12009
这么好的	-12010
ty	-12011
▁夹	-12012
个性	-12013
勉强	-12014
包围	-12015
卖了	-12016
卷心	-12017
又想	-12018
崛起	-12019
引进	-12020
棒棒	-12021
水草	-12022
浪花	-12023
良心	-12024
身影	-12025
进而	-12026
选用	-12027
飞向	-12028
▁ca	-12029
世锦赛	-12030
主要的	-12031
二零零	-12032
他也是	-12033
先走啦	-12034
接着说	-12035
有的像	-12036
有问题	-12037
现在都	-12038
知识点	-12039
▁'''	-12040
阿里巴巴	-12041
生态系统中	-12042
都有自己的	-12043
$$30$$	-12044
。)	-12045
。【	-12046
主导	-12047
之类	-12048
九九	-12049
云彩	-12050
光学	-12051
冷的	-12052
动车	-12053
取了	-12054
变色	-12055
噜噜	-12056
复数	-12057
多彩	-12058
大片	-12059
带的	-12060
成反	-12061
房价	-12062
抱起	-12063
梦乡	-12064
洋葱	-12065
渗透	-12066
电台	-12067
留着	-12068
示范	-12069
约束	-12070
网吧	-12071
美了	-12072
蜈蚣	-12073
财务	-12074
赛场	-12075
跟随	-12076
轮胎	-12077
遥远	-12078
遭受	-12079
min	-12080
▁麻烦	-12081
亮晶晶	-12082
存在于	-12083
小主人	-12084
小哥哥	-12085
总冠军	-12086
收益率	-12087
还好吧	-12088
飞起来	-12089
▁很多人	-12090
▁要不然	-12091
一般都是	-12092
其中一个	-12093
抬头一看	-12094
解决问题	-12095
$${{{	-12096
▁武	-12097
二者	-12098
交点	-12099
亲密	-12100
做人	-12101
做完	-12102
受力	-12103
捂着	-12104
损伤	-12105
极端	-12106
欺骗	-12107
泡沫	-12108
电信	-12109
疯了	-12110
监测	-12111
知了	-12112
私人	-12113
穿的	-12114
草帽	-12115
警长	-12116
说要	-12117
身的	-12118
防疫	-12119
▁五月	-12120
一百一	-12121
主要由	-12122
亚马逊	-12123
地面上	-12124
我只好	-12125
是一场	-12126
的一样	-12127
的一面	-12128
都非常	-12129
钻出来	-12130
飞来了	-12131
怎么这么	-12132
适宜的温度	-12133
}^{2}}-2	-12134
爱数智慧语音采集	-12135
▁所	-12136
书本	-12137
哪一	-12138
很早	-12139
抗体	-12140
日夜	-12141
是为	-12142
更快	-12143
极为	-12144
栖息	-12145
榜样	-12146
烟囱	-12147
父子	-12148
碎片	-12149
都比	-12150
▁eh	-12151
▁三百	-12152
七亿元	-12153
主教练	-12154
低下头	-12155
哪一个	-12156
妈妈和	-12157
拿出一	-12158
有名的	-12159
玩手机	-12160
走出来	-12161
}}}=	-12162
下列有关	-12163
不可思议	-12164
现在这个	-12165
知道自己	-12166
那个什么	-12167
5{}^\	-12168
▁zang	-12169
,6	-12170
33	-12171
下调	-12172
了三	-12173
保卫	-12174
增添	-12175
寝室	-12176
拉丁	-12177
推开	-12178
最初	-12179
走得	-12180
都给	-12181
难免	-12182
鲜肉	-12183
{15	-12184
▁3\	-12185
▁是呢	-12186
形状和	-12187
村子里	-12188
之间的距离	-12189
{3}{2}	-12190
不胜	-12191
两颗	-12192
丫丫	-12193
佛教	-12194
你一	-12195
全班	-12196
受益	-12197
在花	-12198
嫁给	-12199
必需	-12200
放射	-12201
标签	-12202
温馨	-12203
激情	-12204
狼的	-12205
竹竿	-12206
融入	-12207
血压	-12208
}$.	-12209
▁7.	-12210
▁嗯对	-12211
不注意	-12212
做出了	-12213
可以吗	-12214
呼呼地	-12215
圣诞节	-12216
已经有	-12217
我不要	-12218
拼个桌	-12219
正准备	-12220
我最喜欢的	-12221
通过光合作用	-12222
}^{2}}\	-12223
下列说法中正确的是	-12224
88	-12225
ni	-12226
▁么	-12227
▁圈	-12228
▁窝	-12229
不给	-12230
也对	-12231
儿们	-12232
反抗	-12233
失了	-12234
好想	-12235
子孙	-12236
情怀	-12237
指甲	-12238
水位	-12239
王星	-12240
种族	-12241
纳德	-12242
词的	-12243
迎面	-12244
这颗	-12245
齐国	-12246
到这个	-12247
句子中	-12248
得意地	-12249
总决赛	-12250
的一位	-12251
的路程	-12252
需要的	-12253
)$$.	-12254
▁所有的	-12255
▁还好吧	-12256
地球表面	-12257
{4}{3	-12258
▁记不记得	-12259
马克思主义	-12260
▁我们一起来	-12261
+9	-12262
▁左	-12263
争议	-12264
先是	-12265
叮叮	-12266
大国	-12267
她也	-12268
将他	-12269
就越	-12270
开辟	-12271
是无	-12272
果树	-12273
爬树	-12274
竖起	-12275
美满	-12276
能和	-12277
船只	-12278
著作	-12279
集市	-12280
面子	-12281
▁假如	-12282
▁小狗	-12283
▁很快	-12284
回去吧	-12285
它就会	-12286
沙发上	-12287
电视台	-12288
的太阳	-12289
磁感应	-12290
许许多	-12291
}$$)	-12292
一模一样	-12293
中国足球	-12294
准备好了	-12295
可以减少	-12296
在草地上	-12297
我只知道	-12298
结合所学知识可知	-12299
不尽	-12300
他呢	-12301
俄国	-12302
出新	-12303
宽容	-12304
对联	-12305
服了	-12306
混乱	-12307
点是	-12308
状元	-12309
贾乃	-12310
达成	-12311
遗址	-12312
长高	-12313
音频	-12314
鱼类	-12315
)=2	-12316
▁凳子	-12317
▁巧虎	-12318
▁忘记	-12319
▁深圳	-12320
我们会	-12321
我希望	-12322
更加的	-12323
本来就	-12324
这样吧	-12325
▁zui	-12326
▁那就是	-12327
实验结果	-12328
我知道了	-12329
种子发芽	-12330
胎教故事	-12331
ds	-12332
▁答	-12333
优雅	-12334
名称	-12335
吓人	-12336
和红	-12337
声响	-12338
成群	-12339
我却	-12340
拉开	-12341
摘下	-12342
无疑	-12343
此事	-12344
行情	-12345
要使	-12346
陶醉	-12347
1],	-12348
}-1	-12349
▁咪咪	-12350
▁当前	-12351
不行啊	-12352
出租车	-12353
在不同	-12354
对对对	-12355
很高的	-12356
感到很	-12357
的粉丝	-12358
绝缘体	-12359
▁还可以	-12360
做的事情	-12361
是否正确	-12362
每一个人	-12363
这个事情	-12364
▁我是主播	-12365
^{2}}{	-12366
▁挂	-12367
▁浇	-12368
▁累	-12369
一轮	-12370
上是	-12371
两万	-12372
中子	-12373
入侵	-12374
在乎	-12375
坑里	-12376
当做	-12377
担当	-12378
拳击	-12379
接待	-12380
氮气	-12381
牵着	-12382
白马	-12383
血糖	-12384
▁城堡	-12385
三亿元	-12386
中医院	-12387
也是有	-12388
了一起	-12389
出色的	-12390
十九点	-12391
方法是	-12392
的对手	-12393
的小狗	-12394
的本领	-12395
的水平	-12396
一直都是	-12397
传播速度	-12398
的准确性	-12399
▁tiao	-12400
我也很喜欢	-12401
不离	-12402
云南	-12403
井里	-12404
吉米	-12405
想啊	-12406
战役	-12407
来吃	-12408
每日	-12409
沿海	-12410
磁力	-12411
试着	-12412
递给	-12413
酵母	-12414
雅典	-12415
雨点	-12416
黄昏	-12417
▁这就	-12418
吸引力	-12419
唱着歌	-12420
在身上	-12421
就到了	-12422
怎么看	-12423
我家的	-12424
的阳光	-12425
虽然是	-12426
那么高	-12427
锦标赛	-12428
▁截止到	-12429
交通事故	-12430
叫了起来	-12431
已经开始	-12432
生命活动	-12433
南都名医大讲堂	-12434
+{	-12435
Ag	-12436
ce	-12437
▁Z	-12438
▁吴	-12439
▁艾	-12440
包里	-12441
只剩	-12442
只顾	-12443
向外	-12444
垂头	-12445
我爸	-12446
时空	-12447
标题	-12448
梳理	-12449
的发	-12450
盐水	-12451
看点	-12452
航班	-12453
解析	-12454
道上	-12455
银杏	-12456
▁哇塞	-12457
▁如今	-12458
危险的	-12459
原子的	-12460
普通人	-12461
有一颗	-12462
浓硫酸	-12463
的狐狸	-12464
科学的	-12465
还以为	-12466
▁小狐狸	-12467
差不多了	-12468
自然界中	-12469
▁是啊是啊	-12470
{1}{2}$$,	-12471
▁根	-12472
原地	-12473
哇克	-12474
塑造	-12475
总量	-12476
扔到	-12477
看似	-12478
罐头	-12479
落了	-12480
迁徙	-12481
颁布	-12482
▁每个	-12483
上班了	-12484
他们也	-12485
傻瓜熊	-12486
初速度	-12487
在后面	-12488
就特别	-12489
电子烟	-12490
都比较	-12491
也很喜欢	-12492
但是还是	-12493
没过多久	-12494
▁宝	-12495
几百	-12496
出轨	-12497
土里	-12498
小麦	-12499
开来	-12500
异性	-12501
律宾	-12502
快去	-12503
攻打	-12504
文帝	-12505
来做	-12506
波浪	-12507
的太	-12508
▁一位	-12509
我经常	-12510
最新的	-12511
的前提	-12512
第一位	-12513
菲律宾	-12514
计时器	-12515
这故事	-12516
首先要	-12517
在空气中	-12518
生物多样性	-12519
自言自语地说	-12520
+}	-12521
,(	-12522
不自	-12523
不选	-12524
丑陋	-12525
加剧	-12526
可靠	-12527
多吃	-12528
手表	-12529
打到	-12530
摄影	-12531
架上	-12532
痛快	-12533
算式	-12534
网红	-12535
读音	-12536
还把	-12537
shu	-12538
中心的	-12539
了很久	-12540
就成了	-12541
构成的	-12542
的公司	-12543
眼前的	-12544
长大的	-12545
▁你最近	-12546
摇了摇头	-12547
那种感觉	-12548
一批	-12549
两眼	-12550
人对	-12551
他被	-12552
划分	-12553
张大	-12554
强国	-12555
怀孕	-12556
猫耳	-12557
留学	-12558
织女	-12559
聊着	-12560
苦恼	-12561
路口	-12562
鼓起	-12563
▁此次	-12564
▁问题	-12565
公开赛	-12566
反映出	-12567
小熊说	-12568
我刚才	-12569
新闻说	-12570
是不能	-12571
谈恋爱	-12572
造成了	-12573
醒过来	-12574
题干中	-12575
?"""	-12576
null	-12577
{5}}	-12578
▁$$.	-12579
有意思的	-12580
▁guan	-12581
不过我觉得	-12582
▁罗	-12583
上港	-12584
侵略	-12585
加盟	-12586
叹息	-12587
吓唬	-12588
四种	-12589
投票	-12590
抱歉	-12591
拳头	-12592
揭示	-12593
最先	-12594
眉毛	-12595
舆论	-12596
营销	-12597
计较	-12598
雕刻	-12599
▁FT	-12600
▁勇敢	-12601
▁祝您	-12602
▁要不	-12603
上映了	-12604
不耐烦	-12605
你不能	-12606
叙利亚	-12607
有一年	-12608
洁白的	-12609
的不同	-12610
这是个	-12611
{{{\	-12612
}_2{	-12613
停了下来	-12614
每天都要	-12615
自己的小	-12616
我们的生活	-12617
▁我们下期再见	-12618
不负	-12619
代数	-12620
价比	-12621
借口	-12622
出于	-12623
嘀咕	-12624
地主	-12625
大衣	-12626
就吃	-12627
想让	-12628
愁眉	-12629
拿走	-12630
无忧	-12631
有理	-12632
残酷	-12633
气管	-12634
编号	-12635
附属	-12636
高声	-12637
▁讨厌	-12638
上一个	-12639
又来了	-12640
碳酸钠	-12641
哺乳动物	-12642
还是一个	-12643
▁非常感谢	-12644
▁儿	-12645
不讲	-12646
中原	-12647
人与	-12648
太宗	-12649
打出	-12650
查阅	-12651
清新	-12652
部署	-12653
金丝	-12654
金色	-12655
风向	-12656
▁-2	-12657
垂头丧	-12658
女主角	-12659
心中的	-12660
拿着一	-12661
的特征	-12662
的研究	-12663
送给了	-12664
▁亲爱的	-12665
新能源汽车	-12666
之为	-12667
乔丹	-12668
何时	-12669
你像	-12670
便把	-12671
发誓	-12672
姥爷	-12673
它对	-12674
安安	-12675
尺寸	-12676
意料	-12677
批判	-12678
是将	-12679
有余	-12680
树梢	-12681
相貌	-12682
看作	-12683
立的	-12684
站牌	-12685
结冰	-12686
西南	-12687
赏析	-12688
青山	-12689
高低	-12690
发挥的	-12691
太棒了	-12692
就看看	-12693
新闻呀	-12694
的同学	-12695
不知道了	-12696
我还有点事	-12697
对的回答正确	-12698
▁力	-12699
▁取	-12700
▁插	-12701
▁摘	-12702
▁表	-12703
▁隔	-12704
县令	-12705
变革	-12706
坐到	-12707
壮壮	-12708
它有	-12709
就让	-12710
巫师	-12711
您好	-12712
横线	-12713
毫米	-12714
的下	-12715
考核	-12716
西甲	-12717
mid	-12718
▁pa	-12719
一方面	-12720
不要再	-12721
小心地	-12722
就直接	-12723
心爱的	-12724
新鲜的	-12725
的帮助	-12726
考虑到	-12727
革命的	-12728
▁$$6	-12729
今天晚上	-12730
和你聊天	-12731
爷爷奶奶	-12732
英雄联盟	-12733
这方面的	-12734
▁特	-12735
▁练	-12736
▁调	-12737
个位	-12738
丽莎	-12739
作答	-12740
头部	-12741
子是	-12742
常规	-12743
态势	-12744
把门	-12745
抱住	-12746
晚会	-12747
杆菌	-12748
森纳	-12749
气态	-12750
水了	-12751
测定	-12752
贵了	-12753
阿凡	-12754
韩信	-12755
顶端	-12756
人家的	-12757
你有看	-12758
公布了	-12759
冰激凌	-12760
反应后	-12761
在心里	-12762
好奇地	-12763
完美的	-12764
方程式	-12765
而且他	-12766
走进了	-12767
""$$	-12768
▁tao	-12769
我的孩子	-12770
这段时间	-12771
▁其实我觉得	-12772
▁了解更多财经资讯	-12773
一串	-12774
两口	-12775
举动	-12776
争论	-12777
儒家	-12778
吉祥	-12779
后卫	-12780
呼唤	-12781
在玩	-12782
壮观	-12783
夜间	-12784
头了	-12785
妇人	-12786
我跟	-12787
才好	-12788
打起	-12789
扫地	-12790
折磨	-12791
摆着	-12792
施肥	-12793
溶剂	-12794
猫的	-12795
航行	-12796
辩证	-12797
降价	-12798
▁of	-12799
▁也有	-12800
▁好呀	-12801
▁报告	-12802
也非常	-12803
努力的	-12804
十五号	-12805
卷心菜	-12806
太多的	-12807
的文化	-12808
跑出来	-12809
身体的	-12810
}_{6	-12811
▁有什么	-12812
大个子老鼠	-12813
▁织	-12814
▁躺	-12815
交所	-12816
传感	-12817
伸长	-12818
向您	-12819
天陪	-12820
她和	-12821
它能	-12822
宋朝	-12823
对其	-12824
带回	-12825
开会	-12826
找我	-12827
教你	-12828
相加	-12829
看清	-12830
缸里	-12831
自已	-12832
视线	-12833
2.5	-12834
2],	-12835
zhe	-12836
▁中午	-12837
▁分析	-12838
▁浴室	-12839
▁老鹰	-12840
一切都	-12841
不公平	-12842
了中国	-12843
体育课	-12844
写了一	-12845
小狮子	-12846
尽可能	-12847
有三个	-12848
氧呼吸	-12849
电场力	-12850
的小熊	-12851
的设计	-12852
过来的	-12853
}{12	-12854
一组	-12855
七彩	-12856
上岸	-12857
两极	-12858
它那	-12859
导航	-12860
店铺	-12861
张望	-12862
江湖	-12863
电线	-12864
缝里	-12865
获胜	-12866
装进	-12867
载体	-12868
黑黑	-12869
{2\	-12870
▁不同	-12871
▁安静	-12872
为他们	-12873
也表示	-12874
去寻找	-12875
您分享	-12876
我身边	-12877
接受了	-12878
的原则	-12879
的妻子	-12880
知道吗	-12881
蚕宝宝	-12882
""--	-12883
▁1$$	-12884
▁广东省	-12885
平衡位置	-12886
我要走了	-12887
有人坐吗	-12888
没有一个	-12889
绿油油的	-12890
那你平时	-12891
天陪在您身边	-12892
Ba	-12893
一碗	-12894
两侧	-12895
中年	-12896
回升	-12897
地质	-12898
抗战	-12899
挥舞	-12900
排斥	-12901
日起	-12902
曼城	-12903
果园	-12904
海南	-12905
熟练	-12906
的马	-12907
老弟	-12908
花样	-12909
蒙蒙	-12910
被打	-12911
间距	-12912
{0.	-12913
▁"《	-12914
▁果然	-12915
他这个	-12916
古老的	-12917
很漂亮	-12918
氢原子	-12919
给你的	-12920
还是不	-12921
={{\	-12922
▁$$8	-12923
晚安妈妈	-12924
一旁	-12925
傻了	-12926
前行	-12927
否认	-12928
声优	-12929
密集	-12930
小丑	-12931
层的	-12932
山水	-12933
得的	-12934
曲子	-12935
比起	-12936
深受	-12937
牢牢	-12938
用处	-12939
监察	-12940
老天	-12941
胖子	-12942
这人	-12943
通红	-12944
▁一块	-12945
一件事	-12946
上前去	-12947
不过是	-12948
丑小鸭	-12949
劳动力	-12950
哭起来	-12951
大规模	-12952
小精灵	-12953
急匆匆	-12954
恨不得	-12955
结构和	-12956
{2}{	-12957
▁谁知道	-12958
在评论区	-12959
我车来了	-12960
每天晚上	-12961
bb	-12962
ok	-12963
二的	-12964
侵犯	-12965
别墅	-12966
地形	-12967
场地	-12968
手了	-12969
数值	-12970
新生	-12971
有力	-12972
望远	-12973
朝天	-12974
水是	-12975
流畅	-12976
皮毛	-12977
离心	-12978
评分	-12979
足以	-12980
都来	-12981
阿嚏	-12982
风光	-12983
=-2	-12984
不确定	-12985
华为的	-12986
又一个	-12987
开心了	-12988
父母的	-12989
用的是	-12990
脚步声	-12991
行业的	-12992
该怎么	-12993
远远的	-12994
}^{-	-12995
▁yan	-12996
传播方向	-12997
回家去了	-12998
故答案为	-12999
有自己的	-13000
mo	-13001
乐得	-13002
人来	-13003
仓库	-13004
光荣	-13005
分明	-13006
外边	-13007
就给	-13008
师兄	-13009
心事	-13010
快讯	-13011
手掌	-13012
猫咪	-13013
生死	-13014
白发	-13015
看去	-13016
药水	-13017
蒸馏	-13018
读数	-13019
过量	-13020
▁多的	-13021
▁白色	-13022
▁讲话	-13023
▁阿里	-13024
了多少	-13025
可持续	-13026
哗啦啦	-13027
增长的	-13028
当我们	-13029
必要的	-13030
生产力	-13031
白白的	-13032
细细的	-13033
还是会	-13034
-2$$	-13035
huir	-13036
不和你说	-13037
世界第一	-13038
很多很多	-13039
职业生涯	-13040
这个地方	-13041
}_{20	-13042
▁你说的是	-13043
▁我看了啊	-13044
$$,$${{	-13045
NH	-13046
习俗	-13047
体操	-13048
匈奴	-13049
去掉	-13050
友情	-13051
叮嘱	-13052
唐僧	-13053
在想	-13054
地毯	-13055
大军	-13056
就往	-13057
应是	-13058
当它	-13059
挡住	-13060
架子	-13061
演绎	-13062
留意	-13063
笨蛋	-13064
美观	-13065
而在	-13066
茂盛	-13067
议会	-13068
阴影	-13069
零八	-13070
飞得	-13071
▁下午	-13072
▁担心	-13073
安东尼	-13074
成熟的	-13075
我爸爸	-13076
的时代	-13077
的材料	-13078
▁ban	-13079
▁小刺猬	-13080
新官病毒	-13081
生气地说	-13082
一回	-13083
以此	-13084
但她	-13085
养料	-13086
南山	-13087
复产	-13088
斯卡	-13089
称呼	-13090
获奖	-13091
蜥蜴	-13092
讽刺	-13093
预约	-13094
▁分别	-13095
▁跳舞	-13096
▁轮子	-13097
兄弟俩	-13098
先生说	-13099
发出了	-13100
小王子	-13101
我突然	-13102
明亮的	-13103
星期天	-13104
是一名	-13105
的小鱼	-13106
马拉松	-13107
dots	-13108
▁一点点	-13109
▁美联储	-13110
也没什么	-13111
了一个大	-13112
光电效应	-13113
的小女孩	-13114
百分之三点	-13115
二零一九年十一月	-13116
?!	-13117
中山	-13118
乙两	-13119
人均	-13120
兴致	-13121
包容	-13122
又去	-13123
埋怨	-13124
填写	-13125
弘扬	-13126
搭建	-13127
摆摆	-13128
施工	-13129
湖泊	-13130
点赞	-13131
狼群	-13132
男性	-13133
谈话	-13134
身为	-13135
▁我和	-13136
▁注意	-13137
中医的	-13138
做成的	-13139
做游戏	-13140
六亿元	-13141
吸引了	-13142
和自己	-13143
少年的	-13144
怎么啦	-13145
我正在	-13146
过去的	-13147
中的作用	-13148
先不聊了	-13149
我小时候	-13150
还挺好的	-13151
▁^{2}	-13152
六十五天天	-13153
95	-13154
▁嗳	-13155
为之	-13156
为正	-13157
乙酸	-13158
二手	-13159
写法	-13160
凉快	-13161
出院	-13162
刚一	-13163
卖的	-13164
大觉	-13165
天宫	-13166
容量	-13167
显性	-13168
沉浸	-13169
泰山	-13170
的他	-13171
研制	-13172
老远	-13173
迷了	-13174
防御	-13175
首诗	-13176
""!	-13177
▁不如	-13178
▁心里	-13179
▁树叶	-13180
制度的	-13181
可以是	-13182
当然了	-13183
我每次	-13184
我看看	-13185
时间为	-13186
是他的	-13187
淡淡的	-13188
这一块	-13189
霸王龙	-13190
不容易啊	-13191
什么游戏	-13192
只是一个	-13193
领着孩子	-13194
▁对啊对啊	-13195
▁祝您晚安	-13196
六十五天天天陪在您身边	-13197
31	-13198
▁乐	-13199
▁咋	-13200
▁念	-13201
▁沪	-13202
▁道	-13203
▁酒	-13204
元宵	-13205
叫它	-13206
它也	-13207
尔斯	-13208
新兴	-13209
有只	-13210
极大	-13211
河北	-13212
滴答	-13213
短短	-13214
走呀	-13215
趁机	-13216
躲到	-13217
还算	-13218
除非	-13219
3],	-13220
▁lu	-13221
▁恩恩	-13222
意义的	-13223
爸爸和	-13224
的数据	-13225
的目光	-13226
还是得	-13227
陕西省	-13228
▁gai	-13229
人士表示	-13230
就是就是	-13231
那你知道	-13232
上台	-13233
乘法	-13234
再用	-13235
冒出	-13236
叮咚	-13237
就拿	-13238
崩溃	-13239
步行	-13240
水在	-13241
水珠	-13242
波迪	-13243
派出	-13244
界的	-13245
科举	-13246
绘画	-13247
继科	-13248
若干	-13249
草坪	-13250
视着	-13251
解读	-13252
较多	-13253
高压	-13254
▁想要	-13255
▁秋天	-13256
减少了	-13257
厨房里	-13258
受欢迎	-13259
和分析	-13260
的城市	-13261
着一只	-13262
长满了	-13263
▁但是他	-13264
▁大灰狼	-13265
从那以后	-13266
有一个人	-13267
根本没有	-13268
注意的是	-13269
疫情影响	-13270
这个位置	-13271
""。""	-13272
}^{20	-13273
▁这个故事	-13274
好吃的东西	-13275
▁滚	-13276
乘积	-13277
合金	-13278
向右	-13279
处置	-13280
奶牛	-13281
尔特	-13282
想出	-13283
排序	-13284
村的	-13285
枫叶	-13286
武术	-13287
海马	-13288
液中	-13289
相连	-13290
石榴	-13291
落的	-13292
衡量	-13293
长相	-13294
▁16	-13295
▁我家	-13296
▁我对	-13297
▁这下	-13298
也不用	-13299
可惜啊	-13300
微博上	-13301
溶解度	-13302
的一下	-13303
的根本	-13304
看他的	-13305
花栗鼠	-13306
蝴蝶结	-13307
软软的	-13308
默默地	-13309
▁gou	-13310
▁确实是	-13311
不是很好	-13312
的重要性	-13313
{2}$$,	-13314
▁Category	-13315
上月	-13316
不忙	-13317
代的	-13318
到这	-13319
北宋	-13320
吹着	-13321
填入	-13322
大涨	-13323
夺得	-13324
帆船	-13325
慌张	-13326
扮演	-13327
拜访	-13328
晋级	-13329
有位	-13330
枝叶	-13331
港元	-13332
珍贵	-13333
疙瘩	-13334
质数	-13335
鲸鱼	-13336
phi	-13337
▁tu	-13338
▁可爱	-13339
▁广告	-13340
了一根	-13341
传统的	-13342
头大汗	-13343
就会被	-13344
感觉他	-13345
我们不	-13346
无机盐	-13347
狮子的	-13348
看球赛	-13349
第三次	-13350
足够的	-13351
可以分为	-13352
我一定会	-13353
无可奈何	-13354
社会发展	-13355
这样下去	-13356
▁你也喜欢	-13357
给我们留言	-13358
.3	-13359
两大	-13360
亲眼	-13361
低调	-13362
变暖	-13363
可就	-13364
失踪	-13365
她了	-13366
小路	-13367
尖叫	-13368
市长	-13369
归纳	-13370
我倒	-13371
我将	-13372
接种	-13373
未能	-13374
气氛	-13375
治国	-13376
猜想	-13377
疼了	-13378
粽子	-13379
耗子	-13380
能吃	-13381
请他	-13382
▁哎呦	-13383
▁帮助	-13384
▁我有	-13385
▁的确	-13386
▁自由	-13387
▁部分	-13388
▁鞋子	-13389
不在家	-13390
不早了	-13391
他人的	-13392
公园里	-13393
几分钟	-13394
变得更	-13395
句子的	-13396
基础上	-13397
外星人	-13398
工程师	-13399
很有趣	-13400
的一块	-13401
的电话	-13402
的话就	-13403
的音乐	-13404
过日子	-13405
▁$$5	-13406
▁tai	-13407
▁我以前	-13408
一步一步	-13409
思考植物	-13410
的可能性	-13411
那场比赛	-13412
\}$$,	-13413
▁瑞	-13414
中美	-13415
伽利	-13416
光彩	-13417
制约	-13418
协助	-13419
柱子	-13420
统统	-13421
自私	-13422
营造	-13423
豪华	-13424
顶级	-13425
鼻孔	-13426
6],	-13427
▁我我	-13428
传感器	-13429
创始人	-13430
好几天	-13431
很强的	-13432
把你的	-13433
是关于	-13434
都会有	-13435
非生物	-13436
($$\	-13437
▁因为他	-13438
到了晚上	-13439
每天都在	-13440
超级喜欢	-13441
这样的一个	-13442
▁本题考查对	-13443
}}_4}$$	-13444
án	-13445
不含	-13446
仍在	-13447
仙鹤	-13448
北控	-13449
口腔	-13450
大狼	-13451
恶魔	-13452
手脚	-13453
捡到	-13454
流的	-13455
灭亡	-13456
监控	-13457
磁通	-13458
花瓶	-13459
谁来	-13460
账户	-13461
迷茫	-13462
采摘	-13463
闹闹	-13464
青岛	-13465
鼓掌	-13466
$$、	-13467
-1}	-13468
▁以下	-13469
倒在地	-13470
很难过	-13471
打败了	-13472
的一组	-13473
的实验	-13474
的小猪	-13475
老年人	-13476
胖胖熊	-13477
问妈妈	-13478
▁tui	-13479
▁怎么了	-13480
下列叙述	-13481
不敢相信	-13482
中医中药	-13483
千零一夜	-13484
}}_{4	-13485
足球运动员	-13486
):	-13487
▁刀	-13488
▁夜	-13489
▁杀	-13490
一觉	-13491
使他	-13492
例外	-13493
入口	-13494
公牛	-13495
哈利	-13496
它了	-13497
定向	-13498
宝玉	-13499
带走	-13500
归来	-13501
拉克	-13502
拍着	-13503
春季	-13504
晚间	-13505
特效	-13506
猫和	-13507
真美	-13508
结尾	-13509
老子	-13510
谁呀	-13511
贵州	-13512
靠谱	-13513
4],	-13514
5],	-13515
▁天哪	-13516
▁小小	-13517
与题意	-13518
伽利略	-13519
到哪儿	-13520
复杂的	-13521
如果我	-13522
就像是	-13523
弦定理	-13524
现在就	-13525
跑回家	-13526
轰隆隆	-13527
阿森纳	-13528
2000	-13529
▁到时候	-13530
开心极了	-13531
摇摇头说	-13532
都是这样	-13533
什么也没有	-13534
)>	-13535
▁威	-13536
一拍	-13537
出声	-13538
出道	-13539
古人	-13540
哎呦	-13541
在它	-13542
场合	-13543
复合	-13544
德勒	-13545
整合	-13546
没钱	-13547
油菜	-13548
特曼	-13549
稀奇	-13550
荡荡	-13551
见证	-13552
饿死	-13553
黄豆	-13554
▁唉呀	-13555
▁回答	-13556
▁自从	-13557
▁还要	-13558
一直都	-13559
之后就	-13560
传来了	-13561
再看看	-13562
可以从	-13563
完成的	-13564
所以他	-13565
游乐场	-13566
足球赛	-13567
.$$8	-13568
}}=1	-13569
▁中国的	-13570
▁好巧啊	-13571
▁你有没有	-13572
}}^{2+	-13573
一找	-13574
与水	-13575
九千	-13576
又高	-13577
只想	-13578
吸入	-13579
大姐	-13580
女王	-13581
宣言	-13582
并在	-13583
底的	-13584
敢于	-13585
沸点	-13586
男神	-13587
真人	-13588
社团	-13589
签约	-13590
能干	-13591
腐蚀	-13592
认定	-13593
跑进	-13594
路人	-13595
金球	-13596
魔王	-13597
▁三角	-13598
▁整理	-13599
太平洋	-13600
就会有	-13601
我爱你	-13602
独特的	-13603
的事件	-13604
碧绿的	-13605
穿上了	-13606
认为是	-13607
7$$,	-13608
▁悄悄地	-13609
▁让我们	-13610
直接影响	-13611
公交车来了	-13612
变成了一个	-13613
}^{2}}}{	-13614
▁呦	-13615
信念	-13616
几句	-13617
很棒	-13618
懒得	-13619
按时	-13620
柠檬	-13621
欣喜	-13622
灭火	-13623
甲卷	-13624
的根	-13625
穿了	-13626
给出	-13627
质土	-13628
跑的	-13629
跳下	-13630
轻盈	-13631
铃声	-13632
院长	-13633
鲁鲁	-13634
▁$|	-13635
不仅是	-13636
了一颗	-13637
像我们	-13638
和他们	-13639
是否有	-13640
点什么	-13641
特定的	-13642
的目标	-13643
看不懂	-13644
祖国的	-13645
脸上的	-13646
上面写着	-13647
圆周运动	-13648
▁先不说啦	-13649
所学知识可知	-13650
▁管	-13651
▁颗	-13652
不利	-13653
养的	-13654
几下	-13655
出席	-13656
听众	-13657
大伯	-13658
巴克	-13659
引领	-13660
无际	-13661
气息	-13662
皱着	-13663
祝贺	-13664
而成	-13665
苏宁	-13666
蚂蚱	-13667
采购	-13668
闺蜜	-13669
音机	-13670
▁兄弟	-13671
▁化妆	-13672
化学能	-13673
国家和	-13674
地叫着	-13675
我都是	-13676
牵牛花	-13677
的特性	-13678
着急了	-13679
红着脸	-13680
也就是说	-13681
0\%$$	-13682
▁还有一个	-13683
恰当的一项是	-13684
▁沙	-13685
。3	-13686
伸进	-13687
你听	-13688
分辨	-13689
向着	-13690
她对	-13691
很爱	-13692
找找	-13693
水滴	-13694
汽油	-13695
潜力	-13696
牛郎	-13697
珠宝	-13698
花费	-13699
角为	-13700
让小	-13701
这群	-13702
陶瓷	-13703
▁函数	-13704
像一只	-13705
全球化	-13706
强烈的	-13707
得不到	-13708
的人才	-13709
的体积	-13710
着一条	-13711
见到了	-13712
<{}\	-13713
▁我看过	-13714
大象伯伯	-13715
百分之十	-13716
跳了起来	-13717
$$50$$	-13718
}_{1}}\	-13719
43	-13720
MV	-13721
▁梨	-13722
中所	-13723
中期	-13724
单车	-13725
又叫	-13726
唯有	-13727
局部	-13728
巴掌	-13729
当家	-13730
恶劣	-13731
推断	-13732
撒娇	-13733
文本	-13734
有利	-13735
睡在	-13736
磁感	-13737
菩萨	-13738
西藏	-13739
雪莉	-13740
400	-13741
}({	-13742
▁中间	-13743
▁国际	-13744
▁牙齿	-13745
▁说说	-13746
三只小	-13747
以确保	-13748
使劲儿	-13749
做一些	-13750
儿子的	-13751
可以使	-13752
好好地	-13753
小袋鼠	-13754
没看过	-13755
试一试	-13756
贾乃亮	-13757
过一个	-13758
▁陕西省	-13759
乱七八糟	-13760
动物们都	-13761
方向相反	-13762
易烊千玺	-13763
满头大汗	-13764
:2020	-13765
ldots	-13766
不死	-13767
个头	-13768
何必	-13769
你太	-13770
冷却	-13771
午后	-13772
团体	-13773
基建	-13774
多远	-13775
惊恐	-13776
摸到	-13777
日期	-13778
流泪	-13779
的点	-13780
红包	-13781
羊肉	-13782
贵妃	-13783
长在	-13784
非凡	-13785
风扇	-13786
guo	-13787
mma	-13788
▁0,	-13789
▁分钟	-13790
▁小米	-13791
▁超级	-13792
三十号	-13793
不允许	-13794
了上来	-13795
向资金	-13796
回家后	-13797
在一棵	-13798
我还真	-13799
最重要	-13800
来自于	-13801
满满的	-13802
的最高	-13803
的花朵	-13804
笼子里	-13805
美国队	-13806
那里的	-13807
▁大家都	-13808
这么多的	-13809
透明物体	-13810
▁}{2}	-13811
两端的电压	-13812
▁$$、$$\	-13813
st	-13814
▁W	-13815
▁克	-13816
▁扶	-13817
▁顶	-13818
不容	-13819
两块	-13820
主旨	-13821
先走	-13822
写得	-13823
军的	-13824
冬奥	-13825
呼吁	-13826
她要	-13827
妮妮	-13828
层面	-13829
开幕	-13830
我等	-13831
打工	-13832
把钱	-13833
抛弃	-13834
挫折	-13835
捕鱼	-13836
提琴	-13837
率领	-13838
百花	-13839
见的	-13840
赶走	-13841
转折	-13842
这支	-13843
院的	-13844
鞋匠	-13845
+10	-13846
▁客人	-13847
▁山羊	-13848
▁话说	-13849
▁鸡蛋	-13850
产业链	-13851
健康的	-13852
再一次	-13853
好主意	-13854
成长的	-13855
收到了	-13856
没看见	-13857
的正确	-13858
线粒体	-13859
这几个	-13860
▁我们要	-13861
▁我已经	-13862
大叫起来	-13863
新闻快讯	-13864
百分之五	-13865
粉红色的	-13866
▁baby	-13867
▁不一会儿	-13868
外面的世界	-13869
很远的地方	-13870
AM	-13871
po	-13872
▁害	-13873
▁应	-13874
五万	-13875
其次	-13876
凉了	-13877
刚落	-13878
刚要	-13879
十多	-13880
又来	-13881
可恶	-13882
尖牙	-13883
弥漫	-13884
我带	-13885
斑点	-13886
木材	-13887
构造	-13888
正巧	-13889
每到	-13890
求婚	-13891
溪水	-13892
留给	-13893
的公	-13894
相继	-13895
羊群	-13896
职工	-13897
胃口	-13898
音调	-13899
首都	-13900
高空	-13901
▁天天	-13902
▁柜子	-13903
一次性	-13904
也开始	-13905
入水中	-13906
分布在	-13907
十八号	-13908
对中国	-13909
我倒是	-13910
方向与	-13911
有一棵	-13912
电影节	-13913
的描述	-13914
的演技	-13915
的礼物	-13916
的经济	-13917
的花瓣	-13918
的小男孩	-13919
走了过来	-13920
5$$."	-13921
一心	-13922
一是	-13923
一级	-13924
三万	-13925
儿了	-13926
减数	-13927
刻画	-13928
前锋	-13929
吃个	-13930
排出	-13931
方针	-13932
日报	-13933
残忍	-13934
洁白	-13935
照样	-13936
瓜子	-13937
碱基	-13938
笑道	-13939
街头	-13940
诚信	-13941
轮流	-13942
▁8.	-13943
▁他还	-13944
两银子	-13945
小蝌蚪	-13946
小鱼儿	-13947
性价比	-13948
我昨天	-13949
故本题	-13950
日本人	-13951
是多少	-13952
有的是	-13953
的人群	-13954
的工具	-13955
的生物	-13956
西游记	-13957
过几天	-13958
还有点	-13959
那些人	-13960
▁""。	-13961
▁cha	-13962
反应速率	-13963
可以一起	-13964
控制变量	-13965
$$10{	-13966
=3$$,	-13967
{1}{10	-13968
▁三百六十五天天天陪在您身边	-13969
-9	-13970
CP	-13971
▁朱	-13972
▁棵	-13973
之战	-13974
会很	-13975
光子	-13976
全场	-13977
兴起	-13978
合格	-13979
大妈	-13980
宴会	-13981
尼克	-13982
屋檐	-13983
弥补	-13984
性别	-13985
时节	-13986
演戏	-13987
画眉	-13988
试图	-13989
谈判	-13990
蹲在	-13991
门上	-13992
▁我啊	-13993
不了了	-13994
只有在	-13995
和那个	-13996
山脚下	-13997
摄像头	-13998
是地球	-13999
望远镜	-14000
的夜晚	-14001
的心理	-14002
第一部	-14003
给了他	-14004
聊聊天	-14005
$$1\	-14006
5$$;	-14007
▁也不是	-14008
▁也就是	-14009
下列哪种	-14010
毫不犹豫	-14011
翩翩起舞	-14012
走来走去	-14013
.$${{{	-14014
}_{1}}$$,$${{	-14015
{(	-14016
▁盘	-14017
上床	-14018
与众	-14019
为她	-14020
举重	-14021
化成	-14022
发亮	-14023
小虾	-14024
就打	-14025
慌忙	-14026
打法	-14027
放的	-14028
方位	-14029
时分	-14030
有制	-14031
樱花	-14032
浓浓	-14033
清清	-14034
狗的	-14035
盛顿	-14036
终身	-14037
脏了	-14038
计数	-14039
超人	-14040
辅导	-14041
震荡	-14042
风铃	-14043
▁下雨	-14044
一下就	-14045
也是个	-14046
分之一	-14047
坐标为	-14048
天然气	-14049
的观点	-14050
移动的	-14051
肯定要	-14052
1000	-14053
▁我今天	-14054
▁曾国藩	-14055
也有很多	-14056
因为我们	-14057
干什么呢	-14058
在评论区给我们留言	-14059
86	-14060
▁位	-14061
▁舔	-14062
一幅	-14063
不等	-14064
伙计	-14065
侵蚀	-14066
光从	-14067
分母	-14068
别急	-14069
午餐	-14070
叫你	-14071
听觉	-14072
姿态	-14073
建联	-14074
开通	-14075
开阔	-14076
我那	-14077
换成	-14078
盲目	-14079
看呢	-14080
着它	-14081
辨析	-14082
香甜	-14083
▁11	-14084
▁一是	-14085
九健康	-14086
了我们	-14087
小汽车	-14088
戴维斯	-14089
打喷嚏	-14090
激烈的	-14091
的光芒	-14092
给我买	-14093
说出来	-14094
转过身	-14095
这样呀	-14096
这种人	-14097
0$$;	-14098
ABCD	-14099
▁我的天	-14100
和我一起	-14101
大哭起来	-14102
小宝贝们	-14103
有什么用	-14104
本题考查	-14105
中医中药有	-14106
新型冠状病毒	-14107
三夜	-14108
变质	-14109
唱的	-14110
处在	-14111
大米	-14112
得住	-14113
正想	-14114
毁了	-14115
潜艇	-14116
热了	-14117
盖上	-14118
聊聊	-14119
脱下	-14120
蜡笔	-14121
西边	-14122
^{3	-14123
▁找找	-14124
▁有了	-14125
▁画画	-14126
凤仙花	-14127
地发现	-14128
小灰鼠	-14129
工作了	-14130
慢吞吞	-14131
推出了	-14132
提到的	-14133
朋友的	-14134
的出现	-14135
被誉为	-14136
认识的	-14137
领域的	-14138
什么都不	-14139
保护环境	-14140
再也不敢	-14141
打乒乓球	-14142
绿色植物	-14143
▁怎么说呢	-14144
▁这是一个	-14145
重力加速度	-14146
▁民	-14147
▁造	-14148
不懈	-14149
也来	-14150
从他	-14151
农家	-14152
出演	-14153
剧本	-14154
却又	-14155
命的	-14156
实地	-14157
局势	-14158
局限	-14159
彤彤	-14160
挺有	-14161
摔跤	-14162
男友	-14163
目镜	-14164
直叫	-14165
花纹	-14166
那张	-14167
隐性	-14168
高啊	-14169
高等	-14170
""(	-14171
}(\	-14172
▁假装	-14173
▁小强	-14174
▁能干	-14175
不能吃	-14176
了一棵	-14177
作用下	-14178
同时也	-14179
在上海	-14180
振动的	-14181
月球的	-14182
有一对	-14183
胖胖的	-14184
一直没有	-14185
名中医来	-14186
工业革命	-14187
最后还是	-14188
适应环境	-14189
▁二零一八年	-14190
+7	-14191
49	-14192
▁土	-14193
▁敲	-14194
▁湿	-14195
一摸	-14196
争先	-14197
会更	-14198
保罗	-14199
凡是	-14200
创意	-14201
叫啥	-14202
寻求	-14203
尽头	-14204
巨星	-14205
思索	-14206
慈善	-14207
按摩	-14208
日出	-14209
本地	-14210
林中	-14211
活性	-14212
王位	-14213
视力	-14214
谁都	-14215
越想	-14216
车祸	-14217
违背	-14218
,12	-14219
=10	-14220
wan	-14221
▁实在	-14222
▁累计	-14223
▁过了	-14224
▁香港	-14225
不能用	-14226
好多了	-14227
必须得	-14228
挺多的	-14229
春天的	-14230
球队的	-14231
田野里	-14232
真不错	-14233
较高的	-14234
边走边	-14235
这个大	-14236
▁有道理	-14237
体育运动	-14238
因此选项	-14239
更多的名中医来	-14240
ax	-14241
▁额	-14242
一无	-14243
不乐	-14244
值班	-14245
卧槽	-14246
后人	-14247
唠叨	-14248
在天	-14249
坚守	-14250
小题	-14251
干预	-14252
年级	-14253
店的	-14254
感人	-14255
成龙	-14256
抛出	-14257
招生	-14258
摇着	-14259
播出	-14260
斯科	-14261
检察	-14262
温下	-14263
狼狈	-14264
知县	-14265
磷酸	-14266
稳稳	-14267
莲花	-14268
菜了	-14269
远近	-14270
适用	-14271
非法	-14272
飞飞	-14273
▁9.	-14274
▁屁股	-14275
▁近期	-14276
了一道	-14277
他们把	-14278
付出了	-14279
净流入	-14280
北极星	-14281
回答道	-14282
小学生	-14283
市场上	-14284
我的话	-14285
是一些	-14286
没事儿	-14287
看到他	-14288
那个啥	-14289
$$2.	-14290
}{4}	-14291
但是他们	-14292
真的是很	-14293
:2019	-14294
▁shuai	-14295
▁如果大家对	-14296
买到	-14297
全程	-14298
各大	-14299
吸水	-14300
唱起	-14301
宝剑	-14302
客场	-14303
开拓	-14304
总之	-14305
悲哀	-14306
条例	-14307
樵夫	-14308
清明	-14309
玩家	-14310
的画	-14311
美景	-14312
财报	-14313
辫子	-14314
降息	-14315
▁1,	-14316
▁一次	-14317
▁每晚	-14318
一阵阵	-14319
举行的	-14320
分子间	-14321
到底是	-14322
半决赛	-14323
志愿者	-14324
文学家	-14325
眼睛里	-14326
网陪你	-14327
藏起来	-14328
▁RNA	-14329
▁好好好	-14330
中共中央	-14331
为您解答	-14332
我和我的	-14333
我有一个	-14334
▁∵$$\	-14335
}{2}$$	-14336
▁秦	-14337
一事	-14338
不甘	-14339
之意	-14340
你请	-14341
倡导	-14342
内外	-14343
写完	-14344
匹马	-14345
叫来	-14346
同声	-14347
回购	-14348
妹子	-14349
工匠	-14350
开水	-14351
房门	-14352
承载	-14353
撞击	-14354
敬佩	-14355
期限	-14356
样品	-14357
正经	-14358
球鞋	-14359
细心	-14360
维尼	-14361
苦苦	-14362
话来	-14363
贴在	-14364
轻声	-14365
这句	-14366
钻到	-14367
为了让	-14368
了几下	-14369
他知道	-14370
你听说	-14371
十二号	-14372
宇航员	-14373
宝宝们	-14374
开始的	-14375
总书记	-14376
才是最	-14377
民族的	-14378
漂亮啊	-14379
珍贵的	-14380
生产的	-14381
的选择	-14382
▁200	-14383
什么也没	-14384
呼吸作用	-14385
在生活中	-14386
很长时间	-14387
_{2}$	-14388
正确答案为	-14389
睡觉的时候	-14390
▁邀请更多的名中医来	-14391
(-	-14392
2:	-14393
▁乙	-14394
▁莫	-14395
不明	-14396
份额	-14397
分工	-14398
前景	-14399
助攻	-14400
叮当	-14401
扬州	-14402
接收	-14403
支配	-14404
有有	-14405
比一	-14406
法庭	-14407
着脚	-14408
着要	-14409
秋季	-14410
跌幅	-14411
通项	-14412
那头	-14413
露露	-14414
但是她	-14415
北极熊	-14416
嘴巴里	-14417
满满一	-14418
的话题	-14419
落在了	-14420
认真的	-14421
一百二十	-14422
也是非常	-14423
五彩缤纷	-14424
化学性质	-14425
我不喜欢	-14426
我吃完了	-14427
的时候呢	-14428
美丽的小	-14429
under	-14430
▁价	-14431
▁鸭	-14432
五一	-14433
侧面	-14434
发声	-14435
坦克	-14436
多亏	-14437
太郎	-14438
对照	-14439
小平	-14440
戏剧	-14441
无缘	-14442
杀手	-14443
热能	-14444
红狼	-14445
联邦	-14446
莉莉	-14447
被迫	-14448
试点	-14449
踪影	-14450
醋酸	-14451
$$)	-14452
cap	-14453
wei	-14454
▁进来	-14455
了一会	-14456
从一个	-14457
十一号	-14458
地盯着	-14459
已成为	-14460
感冒了	-14461
新赛季	-14462
森林的	-14463
没那么	-14464
留学生	-14465
的翅膀	-14466
目的地	-14467
还是个	-14468
这样了	-14469
遇见了	-14470
重要作用	-14471
:2017	-14472
\%$$,	-14473
$$,$$4	-14474
之道	-14475
他便	-14476
但也	-14477
内地	-14478
初期	-14479
占有	-14480
变速	-14481
垄断	-14482
城乡	-14483
导弹	-14484
工商	-14485
已是	-14486
微观	-14487
懂事	-14488
报复	-14489
捣蛋	-14490
故宫	-14491
梁山	-14492
流失	-14493
父王	-14494
的问	-14495
赋予	-14496
赶路	-14497
钻出	-14498
长征	-14499
门票	-14500
阿尔	-14501
黑白	-14502
▁}\	-14503
他来到	-14504
很好啊	-14505
或其他	-14506
有个人	-14507
柔软的	-14508
深刻的	-14509
的压力	-14510
的羽毛	-14511
等待着	-14512
脑子里	-14513
茂密的	-14514
足球吗	-14515
近几年	-14516
迷路了	-14517
那个小	-14518
长耳朵	-14519
}{10	-14520
月二十号	-14521
邀请到了	-14522
错误的回答错误	-14523
▁座	-14524
▁片	-14525
一枚	-14526
下沉	-14527
中说	-14528
忠实	-14529
提交	-14530
最美	-14531
本期	-14532
毯子	-14533
治好	-14534
泰国	-14535
牢固	-14536
车轮	-14537
近似	-14538
采蜜	-14539
铲子	-14540
:{{	-14541
▁一切	-14542
不会有	-14543
准备了	-14544
国内的	-14545
它可以	-14546
完之后	-14547
很好奇	-14548
我就要	-14549
放心吧	-14550
有关系	-14551
特别多	-14552
的对象	-14553
的模样	-14554
的水分	-14555
的电子	-14556
看出来	-14557
经历过	-14558
而来的	-14559
送到了	-14560
阿凡提	-14561
:$$2	-14562
▁一定要	-14563
不起来了	-14564
南都记者	-14565
基础设施	-14566
▁$$6$$	-14567
▁故事中的小	-14568
1?	-14569
▁色	-14570
乱跳	-14571
伦敦	-14572
你猜	-14573
兴高	-14574
出国	-14575
到你	-14576
叫到	-14577
名声	-14578
弹力	-14579
总要	-14580
拳道	-14581
效益	-14582
整治	-14583
景点	-14584
智商	-14585
有缘	-14586
武装	-14587
汇率	-14588
泄露	-14589
满贯	-14590
状腺	-14591
端的	-14592
而后	-14593
而行	-14594
芒果	-14595
苏轼	-14596
话音	-14597
说啊	-14598
走势	-14599
香啊	-14600
▁叶子	-14601
了一样	-14602
人物的	-14603
出名的	-14604
因斯坦	-14605
岩石和	-14606
欢快地	-14607
的主人	-14608
相结合	-14609
看这个	-14610
红狐狸	-14611
纤维素	-14612
老人家	-14613
装满了	-14614
规定的	-14615
费德勒	-14616
9$$,	-14617
九健康网	-14618
已经成为	-14619
▁好的拜拜	-14620
▁还有就是	-14621
▁这个时候	-14622
AI	-14623
专利	-14624
元钱	-14625
各式	-14626
啥呢	-14627
外来	-14628
征求	-14629
意愿	-14630
所用	-14631
所能	-14632
既能	-14633
末尾	-14634
爬呀	-14635
瞌睡	-14636
网易	-14637
茶叶	-14638
说她	-14639
负极	-14640
起路	-14641
踢的	-14642
闷闷	-14643
三分钟	-14644
几天后	-14645
半导体	-14646
导演的	-14647
时不时	-14648
的原理	-14649
的笑声	-14650
窗台上	-14651
题详解	-14652
2017	-14653
▁san	-14654
市场经济	-14655
我还没有	-14656
来了一个	-14657
金融机构	-14658
:2016	-14659
想出了一个	-14660
因此本题答案选	-14661
▁如果大家对中医中药有	-14662
(0	-14663
▁吸	-14664
▁靠	-14665
东汉	-14666
举报	-14667
了她	-14668
从头	-14669
他将	-14670
保安	-14671
典礼	-14672
十天	-14673
向左	-14674
巧妙	-14675
并列	-14676
快跑	-14677
无情	-14678
期末	-14679
期货	-14680
枯萎	-14681
案例	-14682
武磊	-14683
沉沉	-14684
活的	-14685
球了	-14686
神的	-14687
竹筏	-14688
而上	-14689
腐败	-14690
芭蕉	-14691
8],	-14692
{11	-14693
▁原子	-14694
▁央行	-14695
不是在	-14696
了一番	-14697
关注过	-14698
向上的	-14699
大树上	-14700
小乌鸦	-14701
影响力	-14702
想一想	-14703
树爷爷	-14704
电动机	-14705
的大海	-14706
转移到	-14707
酵母菌	-14708
主要用于	-14709
也是一种	-14710
他们都是	-14711
嗨你好啊	-14712
对妈妈说	-14713
就是这么	-14714
往常一样	-14715
时事政治	-14716
百分之七	-14717
}{2}\	-14718
▁所以我们	-14719
阅读我是主播	-14720
-7	-14721
之旅	-14722
偏转	-14723
写信	-14724
大佬	-14725
差为	-14726
强啊	-14727
当场	-14728
根系	-14729
格林	-14730
潇洒	-14731
火龙	-14732
的哦	-14733
福气	-14734
颜料	-14735
sum	-14736
▁一会	-14737
▁一旦	-14738
▁专门	-14739
▁虫子	-14740
不服气	-14741
与环境	-14742
催化剂	-14743
十三号	-14744
好几次	-14745
差一点	-14746
很愉快	-14747
我只能	-14748
漫长的	-14749
的努力	-14750
的电脑	-14751
碰到了	-14752
获得的	-14753
这个数	-14754
复工复产	-14755
夏薇姐姐	-14756
有什么事	-14757
科学研究	-14758
均匀介质中	-14759
▁剥	-14760
▁响	-14761
▁歌	-14762
一笔	-14763
三尺	-14764
从容	-14765
判决	-14766
别看	-14767
十字	-14768
向了	-14769
天乐	-14770
安宁	-14771
寓言	-14772
当她	-14773
心上	-14774
想来	-14775
折腾	-14776
探头	-14777
撒谎	-14778
旗下	-14779
早起	-14780
格兰	-14781
梧桐	-14782
气压	-14783
求得	-14784
爬行	-14785
片刻	-14786
疲力	-14787
的毛	-14788
签署	-14789
美团	-14790
螺丝	-14791
螺旋	-14792
豹子	-14793
费力	-14794
逃脱	-14795
锤子	-14796
隐患	-14797
雷霆	-14798
20\	-14799
300	-14800
▁六月	-14801
▁当地	-14802
▁相比	-14803
▁青菜	-14804
他们还	-14805
件事情	-14806
停止了	-14807
八亿元	-14808
兴高采	-14809
再见啊	-14810
加入了	-14811
地笑了	-14812
大数据	-14813
小母鸡	-14814
小胖猪	-14815
小蝴蝶	-14816
就是不	-14817
真的有	-14818
这里是	-14819
}}^+	-14820
我觉得这个	-14821
的取值范围	-14822
的小朋友们	-14823
的放大倍数	-14824
$$11$$	-14825
▁孙	-14826
▁忘	-14827
▁虫	-14828
▁酸	-14829
七日	-14830
下手	-14831
传媒	-14832
信封	-14833
光能	-14834
写成	-14835
净化	-14836
呆在	-14837
回国	-14838
快看	-14839
成人	-14840
春雨	-14841
楼房	-14842
潮流	-14843
用法	-14844
病情	-14845
益于	-14846
眼了	-14847
碰上	-14848
而过	-14849
肿瘤	-14850
谈论	-14851
转了	-14852
近了	-14853
静电	-14854
领袖	-14855
风化	-14856
chu	-14857
},\	-14858
▁这位	-14859
不一会	-14860
今晚的	-14861
四十五	-14862
好大的	-14863
对人类	-14864
平面镜	-14865
庆余年	-14866
爱好者	-14867
的因素	-14868
瞧不起	-14869
阳台上	-14870
=6$$	-14871
▁你这个	-14872
▁溶液中	-14873
那么大的	-14874
最近有什么	-14875
}$$,$${	-14876
2,	-14877
wa	-14878
交替	-14879
克隆	-14880
凶手	-14881
刹车	-14882
动词	-14883
吃肉	-14884
和高	-14885
困境	-14886
城墙	-14887
定价	-14888
就讲	-14889
屈原	-14890
很火	-14891
得罪	-14892
心来	-14893
政协	-14894
文具	-14895
无敌	-14896
是人	-14897
本科	-14898
物镜	-14899
用小	-14900
的反	-14901
秃秃	-14902
稀释	-14903
红灯	-14904
肉眼	-14905
花狗	-14906
选拔	-14907
▁我都	-14908
▁抽屉	-14909
▁欺负	-14910
▁运动	-14911
▁马桶	-14912
下列对	-14913
了一顿	-14914
又没有	-14915
各方面	-14916
吵醒了	-14917
和太阳	-14918
女主人	-14919
成一团	-14920
搞笑的	-14921
政策的	-14922
来进行	-14923
毕业生	-14924
没有啊	-14925
溶液的	-14926
的电场	-14927
的种子	-14928
看看吧	-14929
第二年	-14930
认识到	-14931
跳下来	-14932
这东西	-14933
这会儿	-14934
》:""	-14935
但是这个	-14936
打羽毛球	-14937
然后他就	-14938
百分之六	-14939
直接关系	-14940
这个样子	-14941
▁jian	-14942
▁与此同时	-14943
自己的身体	-14944
$$2$$,	-14945
{1}{3}	-14946
人民代表大会	-14947
哈哈大笑起来	-14948
▁邀请更多的名中医来为您解答	-14949
Zn	-14950
▁摇	-14951
丫头	-14952
中毒	-14953
凉爽	-14954
大厦	-14955
失眠	-14956
奶酪	-14957
巨头	-14958
查看	-14959
法典	-14960
海鸥	-14961
瘦瘦	-14962
相爱	-14963
着火	-14964
秘书	-14965
编剧	-14966
车站	-14967
这把	-14968
遇上	-14969
雾霾	-14970
黑洞	-14971
▁上学	-14972
不在乎	-14973
也需要	-14974
地问道	-14975
我带你	-14976
我正好	-14977
的大门	-14978
的心态	-14979
的缘故	-14980
跟他们	-14981
跳出来	-14982
韩国的	-14983
0$$.	-14984
▁FFT	-14985
小白兔说	-14986
文化遗产	-14987
新闻上说	-14988
看了一个	-14989
空气阻力	-14990
任何的疑问	-14991
不做	-14992
功效	-14993
占领	-14994
因其	-14995
大河	-14996
娜娜	-14997
小胖	-14998
拓展	-14999
捉弄	-15000
时要	-15001
桥上	-15002
的去	-15003
的背	-15004
眼皮	-15005
答题	-15006
粉末	-15007
联想	-15008
船长	-15009
购房	-15010
里斯	-15011
鲜明	-15012
▁一路	-15013
▁中信	-15014
函数的	-15015
对方的	-15016
我有事	-15017
摇晃晃	-15018
是你的	-15019
玩意儿	-15020
生成的	-15021
电子的	-15022
的人啊	-15023
的空间	-15024
肯定的	-15025
草丛中	-15026
岁的时候	-15027
是一只小	-15028
漂亮的小	-15029
的大眼睛	-15030
▁叉	-15031
。1	-15032
两根	-15033
会长	-15034
单一	-15035
四肢	-15036
在河	-15037
外地	-15038
孤儿	-15039
废物	-15040
忽视	-15041
我便	-15042
捂住	-15043
时针	-15044
曲折	-15045
机智	-15046
此处	-15047
比亚	-15048
深了	-15049
维奇	-15050
老王	-15051
能被	-15052
财宝	-15053
透气	-15054
院士	-15055
隐约	-15056
黑板	-15057
APP	-15058
▁hi	-15059
▁也请	-15060
▁哪个	-15061
也应该	-15062
体现出	-15063
典型的	-15064
准备好	-15065
发现的	-15066
家孩子	-15067
就是她	-15068
张继科	-15069
数量的	-15070
是他们	-15071
然后在	-15072
碳酸钙	-15073
这孩子	-15074
非常有	-15075
住着一只	-15076
兄弟姐妹	-15077
密切接触	-15078
所以我们	-15079
把所有的	-15080
是不是很	-15081
现在很多	-15082
看了一眼	-15083
通过观察	-15084
飞了起来	-15085
:2018	-15086
{1}{{	-15087
▁我比较喜欢	-15088
re	-15089
|=	-15090
▁搬	-15091
▁采	-15092
不经	-15093
从天	-15094
和人	-15095
墙角	-15096
大水	-15097
异口	-15098
拼搏	-15099
摆在	-15100
癌症	-15101
脱贫	-15102
要说	-15103
解开	-15104
象限	-15105
走后	-15106
辛勤	-15107
进的	-15108
项中	-15109
▁哇哦	-15110
乖乖地	-15111
但是你	-15112
但是它	-15113
到我的	-15114
发脾气	-15115
古时候	-15116
可是我	-15117
国王说	-15118
在一片	-15119
大老鼠	-15120
存在着	-15121
小熊的	-15122
小猴说	-15123
小球的	-15124
山上的	-15125
感动了	-15126
我也会	-15127
我也有	-15128
整个人	-15129
没意思	-15130
然后你	-15131
特有的	-15132
现在在	-15133
的兔子	-15134
的概率	-15135
等一下	-15136
通过了	-15137
不一定是	-15138
光的折射	-15139
温度升高	-15140
这种东西	-15141
=4$$,	-15142
▁也就是说	-15143
▁$$,$$	-15144
}^{2}}+2	-15145
1,	-15146
^-	-15147
▁轻	-15148
之事	-15149
也可	-15150
书房	-15151
仍旧	-15152
休闲	-15153
冰川	-15154
刚想	-15155
各级	-15156
局长	-15157
市的	-15158
平日	-15159
强势	-15160
得我	-15161
恰恰	-15162
懒觉	-15163
扛着	-15164
搭档	-15165
攀登	-15166
斜率	-15167
江西	-15168
流淌	-15169
湖里	-15170
的金	-15171
硬件	-15172
绵绵	-15173
膳食	-15174
要来	-15175
达克	-15176
通风	-15177
长久	-15178
长短	-15179
隧道	-15180
飞快	-15181
{5}	-15182
一起看	-15183
中医药	-15184
了一段	-15185
从哪里	-15186
以后的	-15187
内马尔	-15188
农产品	-15189
对身体	-15190
方便了	-15191
时间和	-15192
是生物	-15193
是谁呀	-15194
服务员	-15195
▁可以的	-15196
▁想一想	-15197
不过这个	-15198
他是一个	-15199
是好朋友	-15200
的实验中	-15201
过得好吗	-15202
篮球运动员	-15203
正确的回答正确	-15204
3{	-15205
▁套	-15206
一溜	-15207
七天	-15208
却在	-15209
叫她	-15210
命中	-15211
咕嘟	-15212
多余	-15213
大吼	-15214
太后	-15215
急事	-15216
想当	-15217
接连	-15218
是是	-15219
暗示	-15220
未必	-15221
格斯	-15222
求解	-15223
烟花	-15224
瓶中	-15225
笼罩	-15226
糟了	-15227
脸蛋	-15228
钳子	-15229
餐具	-15230
▁一口	-15231
▁大人	-15232
东西吃	-15233
交易日	-15234
从天上	-15235
妈妈把	-15236
就是很	-15237
想知道	-15238
手机上	-15239
的发生	-15240
的效果	-15241
看了吗	-15242
眼看着	-15243
给我讲	-15244
而且是	-15245
超喜欢	-15246
▁cai	-15247
▁men	-15248
▁小青蛙	-15249
人民法院	-15250
什么什么	-15251
你怎么了	-15252
未成年人	-15253
这篇报道	-15254
0$$."	-15255
来到喜马拉雅	-15256
8{	-15257
Mn	-15258
wu	-15259
▁饱	-15260
不留	-15261
不被	-15262
中文	-15263
书生	-15264
关羽	-15265
原先	-15266
地板	-15267
大将	-15268
对准	-15269
常态	-15270
微风	-15271
无影	-15272
满地	-15273
眼中	-15274
眼花	-15275
着你	-15276
离去	-15277
突发	-15278
缺陷	-15279
网剧	-15280
褪色	-15281
边儿	-15282
鉴定	-15283
▁儿子	-15284
▁元素	-15285
▁往往	-15286
不是我	-15287
什么也	-15288
先下了	-15289
全都是	-15290
只见他	-15291
地来到	-15292
将成为	-15293
小猫咪	-15294
小鳄鱼	-15295
我也很	-15296
才开始	-15297
服务业	-15298
水平的	-15299
灌木丛	-15300
生活着	-15301
的具体	-15302
等方式	-15303
等问题	-15304
跆拳道	-15305
重重地	-15306
阳光的	-15307
▁也可以	-15308
注意安全	-15309
这是我的	-15310
闪闪发光	-15311
'''('''	-15312
55	-15313
ci	-15314
不光	-15315
予以	-15316
会让	-15317
值是	-15318
倾向	-15319
偷吃	-15320
养生	-15321
向她	-15322
喝着	-15323
将士	-15324
布袋	-15325
心愿	-15326
招手	-15327
捉到	-15328
星空	-15329
朦胧	-15330
木星	-15331
武松	-15332
潜水	-15333
珠子	-15334
甲烷	-15335
甲的	-15336
祖父	-15337
脚上	-15338
舞会	-15339
蔓延	-15340
蛋蛋	-15341
请来	-15342
辜负	-15343
这根	-15344
通入	-15345
都吃	-15346
野外	-15347
饲养	-15348
7],	-15349
▁加油	-15350
▁反应	-15351
▁曾经	-15352
▁此刻	-15353
他们会	-15354
如果说	-15355
换一个	-15356
数的和	-15357
是如何	-15358
灰色的	-15359
老公公	-15360
让我来	-15361
辛苦了	-15362
遥远的	-15363
高科技	-15364
▁我也不	-15365
摇摇晃晃	-15366
没有想到	-15367
的原因是	-15368
叹了一口气	-15369
得干干净净	-15370
大家分享到这里	-15371
ǎn	-15372
▁低	-15373
▁瞧	-15374
▁鬼	-15375
一瓶	-15376
不忘	-15377
东部	-15378
八哥	-15379
到家	-15380
又从	-15381
发病	-15382
售价	-15383
学说	-15384
富人	-15385
弯腰	-15386
怎能	-15387
我给	-15388
显卡	-15389
没用	-15390
炸弹	-15391
献给	-15392
现状	-15393
理会	-15394
痛得	-15395
的铁	-15396
蜜桃	-15397
退了	-15398
通的	-15399
门槛	-15400
饮酒	-15401
首位	-15402
▁经济	-15403
三十六	-15404
想看看	-15405
有效的	-15406
来关注	-15407
现在我	-15408
的动作	-15409
的队伍	-15410
确定的	-15411
腿就跑	-15412
还不够	-15413
阿拉伯	-15414
垂头丧气	-15415
异口同声	-15416
挺厉害的	-15417
给我讲讲	-15418
到底是什么	-15419
▁园	-15420
临走	-15421
丹麦	-15422
事项	-15423
云层	-15424
亚军	-15425
作的	-15426
历程	-15427
喝的	-15428
奖金	-15429
她那	-15430
布谷	-15431
投诉	-15432
折叠	-15433
拉住	-15434
最最	-15435
桥梁	-15436
欧阳	-15437
满是	-15438
漏洞	-15439
灰熊	-15440
的量	-15441
穿梭	-15442
终结	-15443
要命	-15444
观音	-15445
话了	-15446
顺手	-15447
顽强	-15448
预算	-15449
(3)	-15450
▁看过	-15451
▁针对	-15452
一分钟	-15453
不至于	-15454
二十二	-15455
体育馆	-15456
分数为	-15457
和生活	-15458
懒洋洋	-15459
无所谓	-15460
洋娃娃	-15461
甲状腺	-15462
的价值	-15463
的气味	-15464
称之为	-15465
箱子里	-15466
轻轻一	-15467
这里有	-15468
面积为	-15469
▁tuo	-15470
▁妈妈说	-15471
上的运动	-15472
也是这样	-15473
年的时间	-15474
新闻了吗	-15475
百分之九	-15476
还是有点	-15477
indow	-15478
▁guai	-15479
▁我还有事	-15480
磁感应强度	-15481
越来越多的	-15482
▁sheng	-15483
▁齐	-15484
一行	-15485
两家	-15486
互为	-15487
做着	-15488
困扰	-15489
圈子	-15490
地往	-15491
塞进	-15492
多人	-15493
头疼	-15494
射门	-15495
平民	-15496
教会	-15497
是哪	-15498
最少	-15499
欧元	-15500
欧盟	-15501
滴水	-15502
焦距	-15503
白银	-15504
看重	-15505
票了	-15506
等多	-15507
累的	-15508
邮递	-15509
▁作者	-15510
于是就	-15511
会增加	-15512
你们看	-15513
其它的	-15514
凭什么	-15515
华盛顿	-15516
吃起来	-15517
大大小	-15518
妻子的	-15519
带着一	-15520
影响了	-15521
慌不忙	-15522
拼多多	-15523
比以前	-15524
浪微博	-15525
猴子的	-15526
的座位	-15527
篮球的	-15528
能力的	-15529
说不出	-15530
发生改变	-15531
听见知乎	-15532
在阳光下	-15533
地球自转	-15534
怎样才能	-15535
有很大的	-15536
的时候啊	-15537
金黄色的	-15538
2$$."	-15539
爱数智慧语音采集二零一九年十一月	-15540
89	-15541
一体	-15542
他问	-15543
促使	-15544
几种	-15545
原野	-15546
可我	-15547
后天	-15548
后羿	-15549
太过	-15550
定期	-15551
宠爱	-15552
开朗	-15553
心协	-15554
拿大	-15555
摆长	-15556
摔倒	-15557
教官	-15558
整除	-15559
民国	-15560
沉重	-15561
滑板	-15562
独角	-15563
现有	-15564
窗前	-15565
绒毛	-15566
缝隙	-15567
误会	-15568
野牛	-15569
防范	-15570
饭店	-15571
首领	-15572
香香	-15573
$$0	-15574
▁喇叭	-15575
▁有时	-15576
▁警察	-15577
▁这不	-15578
下一次	-15579
两位数	-15580
也是在	-15581
但不能	-15582
使用了	-15583
去世了	-15584
在他们	-15585
失败了	-15586
小宝宝	-15587
是用来	-15588
每分钟	-15589
用什么	-15590
的习惯	-15591
的母亲	-15592
结构的	-15593
那一天	-15594
_4$$	-15595
tion	-15596
任何一个	-15597
发布会上	-15598
好多好多	-15599
好无聊啊	-15600
就是没有	-15601
怎么样了	-15602
感兴趣的	-15603
我们不能	-15604
我们还是	-15605
核酸检测	-15606
演的那个	-15607
看不出来	-15608
这种感觉	-15609
{1}{8	-15610
▁bang	-15611
▁你最近有关注	-15612
▁愿	-15613
▁活	-15614
一款	-15615
仅有	-15616
伊朗	-15617
坐了	-15618
外形	-15619
妈呀	-15620
威武	-15621
山区	-15622
平抛	-15623
恭敬	-15624
承重	-15625
指引	-15626
杀害	-15627
滑雪	-15628
玉皇	-15629
等腰	-15630
貌似	-15631
越远	-15632
辨别	-15633
造纸	-15634
鸭蛋	-15635
(-2	-15636
▁否则	-15637
▁筷子	-15638
一百零	-15639
不要紧	-15640
也觉得	-15641
只是一	-15642
吃什么	-15643
和一只	-15644
和国家	-15645
好像有	-15646
它那个	-15647
小红帽	-15648
我就不	-15649
我看着	-15650
注意力	-15651
的脑袋	-15652
胰岛素	-15653
证监会	-15654
跳跳猴	-15655
都这么	-15656
销售额	-15657
闪闪的	-15658
非金属	-15659
($${	-15660
jing	-15661
实际情况	-15662
我跟你说	-15663
每天早上	-15664
生日快乐	-15665
野生动物	-15666
▁下次再说	-15667
东京奥运会	-15668
百分之四点	-15669
一方	-15670
上方	-15671
上都	-15672
东边	-15673
兄妹	-15674
凝聚	-15675
又像	-15676
双缝	-15677
吸热	-15678
哀求	-15679
喝茶	-15680
国旗	-15681
天真	-15682
套餐	-15683
嫂子	-15684
将是	-15685
布拉	-15686
带给	-15687
杰伦	-15688
桑叶	-15689
测得	-15690
海浪	-15691
的雨	-15692
而起	-15693
装有	-15694
过敏	-15695
追着	-15696
那可	-15697
链接	-15698
霸道	-15699
0.5	-15700
▁$1	-15701
▁天气	-15702
▁每周	-15703
▁腾讯	-15704
不好吃	-15705
呱呱呱	-15706
声优祭	-15707
大海里	-15708
电容器	-15709
细胞内	-15710
老人的	-15711
落到了	-15712
错过了	-15713
$$5{	-15714
▁今年的	-15715
▁是的呢	-15716
半个小时	-15717
变得更加	-15718
得不得了	-15719
的话就是	-15720
第一时间	-15721
{2}{5	-15722
▁bing	-15723
回家的路上	-15724
的说法是错误的	-15725
▁欢迎收听听见知乎	-15726
ha	-15727
▁V	-15728
▁化	-15729
▁右	-15730
▁封	-15731
▁拜	-15732
▁枪	-15733
▁量	-15734
享有	-15735
作了	-15736
保温	-15737
公寓	-15738
则有	-15739
刷到	-15740
去吃	-15741
在该	-15742
增幅	-15743
外号	-15744
大一	-15745
孟子	-15746
宫廷	-15747
平了	-15748
怒气	-15749
扔掉	-15750
是啥	-15751
果蝇	-15752
沉积	-15753
炎帝	-15754
电灯	-15755
祝你	-15756
米兰	-15757
论坛	-15758
课外	-15759
赤道	-15760
跟踪	-15761
进城	-15762
违约	-15763
送我	-15764
逛街	-15765
马虎	-15766
骑马	-15767
鸦片	-15768
9],	-15769
▁分子	-15770
制作的	-15771
动脑筋	-15772
可能就	-15773
向心力	-15774
在同一	-15775
在怀里	-15776
大学的	-15777
方程组	-15778
更高的	-15779
每小时	-15780
热情地	-15781
的小草	-15782
睡大觉	-15783
输给了	-15784
逃跑了	-15785
.$$9	-15786
▁}{6	-15787
▁不不不	-15788
▁知道啊	-15789
也没办法	-15790
今天食堂	-15791
咱们中国	-15792
是不可能	-15793
no	-15794
▁借	-15795
▁离	-15796
▁麦	-15797
一台	-15798
上路	-15799
乳酸	-15800
修炼	-15801
出手	-15802
南宋	-15803
印刷	-15804
名人	-15805
向后	-15806
多元	-15807
多呀	-15808
把水	-15809
敏捷	-15810
无处	-15811
沉思	-15812
满天	-15813
热心	-15814
猫猫	-15815
航海	-15816
试卷	-15817
迎着	-15818
那片	-15819
闲着	-15820
▁ka	-15821
▁工作	-15822
▁此前	-15823
上来了	-15824
它们都	-15825
恒大的	-15826
牛伯伯	-15827
真多啊	-15828
磁场中	-15829
还有的	-15830
这个啊	-15831
集中在	-15832
风吹过	-15833
^{3}	-15834
农业生产	-15835
化学变化	-15836
参加比赛	-15837
回头一看	-15838
感觉自己	-15839
这样才能	-15840
第二天早上	-15841
▁如果大家对中医中药有任何的疑问	-15842
▁哥	-15843
乌龙	-15844
低温	-15845
便捷	-15846
升机	-15847
单打	-15848
吸取	-15849
嘱咐	-15850
嘴角	-15851
座山	-15852
惊叹	-15853
战的	-15854
扬扬	-15855
投放	-15856
持仓	-15857
提及	-15858
法子	-15859
灵敏	-15860
等效	-15861
红军	-15862
绰号	-15863
貂蝉	-15864
这三	-15865
▁个人	-15866
▁可怜	-15867
▁直线	-15868
不停的	-15869
四亿元	-15870
太帅了	-15871
姐姐的	-15872
小猪说	-15873
很可爱	-15874
我不禁	-15875
我们俩	-15876
我想要	-15877
探索吧	-15878
有点像	-15879
来判断	-15880
统计局	-15881
老虎的	-15882
记住了	-15883
跑得快	-15884
飞行员	-15885
鸟妈妈	-15886
$$."	-15887
▁我们将	-15888
不仅仅是	-15889
发达国家	-15890
向您问好	-15891
思考不同	-15892
▁$$10	-15893
}}_2}\	-15894
he	-15895
▁衣	-15896
下场	-15897
不分	-15898
交警	-15899
光泽	-15900
减速	-15901
医护	-15902
古装	-15903
句式	-15904
司令	-15905
后就	-15906
小鼠	-15907
心动	-15908
总能	-15909
意为	-15910
援助	-15911
救助	-15912
有心	-15913
盆里	-15914
秦王	-15915
纠纷	-15916
耀眼	-15917
设法	-15918
雪白	-15919
飘着	-15920
黛玉	-15921
(0,	-15922
▁决定	-15923
▁餐厅	-15924
不下来	-15925
不错了	-15926
九亿元	-15927
休息了	-15928
光秃秃	-15929
我们把	-15930
打球啊	-15931
是怎样	-15932
有一百	-15933
的事物	-15934
的科学	-15935
真漂亮	-15936
竞争力	-15937
设计师	-15938
这么久	-15939
送给我	-15940
▁我朋友	-15941
垃圾分类	-15942
环境污染	-15943
▁感谢收听	-15944
du	-15945
▁盆	-15946
▁逃	-15947
一举	-15948
价的	-15949
侮辱	-15950
做起	-15951
利息	-15952
口碑	-15953
多万	-15954
官网	-15955
德里	-15956
抗风	-15957
抹布	-15958
改装	-15959
欧文	-15960
比的	-15961
水泥	-15962
汉朝	-15963
泥鳅	-15964
热门	-15965
看成	-15966
移植	-15967
等号	-15968
线段	-15969
踩着	-15970
转转	-15971
迪士	-15972
那啥	-15973
酶的	-15974
(1-	-15975
▁表示	-15976
▁要求	-15977
▁阿公	-15978
一直是	-15979
一阵风	-15980
了一份	-15981
他决定	-15982
关注了	-15983
勇敢的	-15984
就因为	-15985
所以才	-15986
橡皮泥	-15987
的电荷	-15988
真是一	-15989
老山羊	-15990
走到了	-15991
这里面	-15992
锰酸钾	-15993
▁lei	-15994
▁我是诺	-15995
▁我看到	-15996
▁第一次	-15997
世界大战	-15998
其实就是	-15999
在一起了	-16000
大家都很	-16001
的是一个	-16002
阳光明媚	-16003
_{1}$	-16004
先不和你说	-16005
▁也请在评论区给我们留言	-16006
▁剪	-16007
▁谢	-16008
下巴	-16009
丢失	-16010
两项	-16011
到他	-16012
变态	-16013
变换	-16014
口中	-16015
只在	-16016
合并	-16017
听我	-16018
和睦	-16019
外层	-16020
多月	-16021
天亮	-16022
学过	-16023
它还	-16024
安石	-16025
序列	-16026
必有	-16027
扶持	-16028
技艺	-16029
损坏	-16030
普勒	-16031
林子	-16032
毛线	-16033
珠海	-16034
的力	-16035
的能	-16036
盘旋	-16037
稻田	-16038
索尼	-16039
诊断	-16040
过渡	-16041
lar	-16042
▁二是	-16043
▁当你	-16044
▁舒服	-16045
不自禁	-16046
买不起	-16047
争先恐	-16048
人们对	-16049
以至于	-16050
十七号	-16051
去医院	-16052
只能是	-16053
外婆家	-16054
很精彩	-16055
感觉好	-16056
有一双	-16057
特色的	-16058
的眼神	-16059
让它们	-16060
诺贝尔	-16061
辽宁队	-16062
迪士尼	-16063
5$$.	-16064
▁如果您	-16065
▁我们在	-16066
三月二十	-16067
有很多人	-16068
物理学家	-16069
这条新闻	-16070
遗传物质	-16071
都没有了	-16072
▁每晚九点	-16073
▁人民网陪你	-16074
▁}^{2}}\	-16075
▁喜	-16076
▁波	-16077
使出	-16078
关上	-16079
再不	-16080
别怕	-16081
台词	-16082
在前	-16083
在说	-16084
女单	-16085
嫩芽	-16086
小问	-16087
布鲁	-16088
应急	-16089
开创	-16090
往来	-16091
忠诚	-16092
挣脱	-16093
新款	-16094
明了	-16095
服用	-16096
比方	-16097
海中	-16098
特地	-16099
环形	-16100
的都	-16101
硬的	-16102
美德	-16103
职务	-16104
色素	-16105
芳香	-16106
要走	-16107
阅兵	-16108
)}{	-16109
▁CH	-16110
▁你能	-16111
▁偷偷	-16112
▁这部	-16113
之后呢	-16114
也都是	-16115
了一眼	-16116
吃完饭	-16117
奠定了	-16118
布娃娃	-16119
操场上	-16120
有一块	-16121
有一片	-16122
母亲的	-16123
的风险	-16124
跟那个	-16125
2016	-16126
▁man	-16127
▁我一直	-16128
▁这一天	-16129
了一只小	-16130
咕噜咕噜	-16131
天气预报	-16132
小的时候	-16133
来不及了	-16134
现在就是	-16135
生日礼物	-16136
觉得这个	-16137
indows	-16138
不好意思地说	-16139
{3}}{2}	-16140
{1}{3}$$	-16141
▁信	-16142
▁理	-16143
一提	-16144
下蛋	-16145
他却	-16146
伯特	-16147
内存	-16148
向西	-16149
喘着	-16150
在树	-16151
太守	-16152
奖杯	-16153
安心	-16154
尊严	-16155
尤文	-16156
尼奥	-16157
延伸	-16158
微粒	-16159
惊醒	-16160
无知	-16161
景物	-16162
楚王	-16163
母子	-16164
注定	-16165
清了	-16166
灭绝	-16167
球衣	-16168
的圆	-16169
的比	-16170
秋风	-16171
糖尿	-16172
练练	-16173
编织	-16174
要从	-16175
资管	-16176
足足	-16177
跳出	-16178
里头	-16179
重物	-16180
饱满	-16181
鳞片	-16182
zhu	-16183
▁三个	-16184
▁广东	-16185
▁科技	-16186
▁箱子	-16187
一下吗	-16188
之后的	-16189
唱起了	-16190
土壤的	-16191
嫌疑人	-16192
孤零零	-16193
建设的	-16194
我应该	-16195
战争的	-16196
散发着	-16197
概率为	-16198
爷爷说	-16199
给他的	-16200
都一样	-16201
帮助别人	-16202
智能手机	-16203
百分之八	-16204
衍射现象	-16205
▁$$=1	-16206
▁qiao	-16207
▁我最喜欢	-16208
一讲	-16209
上万	-16210
但不	-16211
冻得	-16212
又香	-16213
口味	-16214
地狱	-16215
密密	-16216
对吗	-16217
形变	-16218
打水	-16219
报了	-16220
拦住	-16221
材质	-16222
生下	-16223
虽说	-16224
蝗虫	-16225
触摸	-16226
▁\%	-16227
▁{\	-16228
▁听完	-16229
▁总是	-16230
▁植物	-16231
▁马蜂	-16232
你愿意	-16233
化妆品	-16234
只要一	-16235
太阳和	-16236
我非常	-16237
洗衣服	-16238
的爱情	-16239
类似的	-16240
美滋滋	-16241
舞台上	-16242
轻轻的	-16243
这才是	-16244
邓小平	-16245
采蘑菇	-16246
兴高采烈	-16247
别的地方	-16248
我喜欢的	-16249
我就知道	-16250
这样一来	-16251
gamma	-16252
其实我觉得	-16253
比赛的时候	-16254
-0	-16255
>\	-16256
▁石	-16257
▁豆	-16258
丁香	-16259
业的	-16260
人力	-16261
会计	-16262
会说	-16263
你很	-16264
务员	-16265
十日	-16266
厂商	-16267
受体	-16268
堆里	-16269
好在	-16270
山林	-16271
扑鼻	-16272
指点	-16273
旋律	-16274
无踪	-16275
旧的	-16276
有谁	-16277
柔和	-16278
查理	-16279
橡胶	-16280
注入	-16281
火炉	-16282
煤炭	-16283
爱丽	-16284
美容	-16285
节省	-16286
评审	-16287
账号	-16288
越看	-16289
迷迷	-16290
jia	-16291
▁一九	-16292
▁圆圆	-16293
▁属于	-16294
▁年龄	-16295
▁说到	-16296
一季度	-16297
不了解	-16298
他是个	-16299
但不是	-16300
但是在	-16301
却发现	-16302
可回收	-16303
在全国	-16304
就变成	-16305
当地的	-16306
总经理	-16307
挺大的	-16308
有办法	-16309
猪八戒	-16310
类似于	-16311
▁nao	-16312
▁我真的	-16313
北斗七星	-16314
所有人都	-16315
爱因斯坦	-16316
的文章是	-16317
真的很好	-16318
都不一样	-16319
hello	-16320
▁chou	-16321
变得越来越	-16322
打点计时器	-16323
日常生活中	-16324
44	-16325
▁→	-16326
▁击	-16327
上空	-16328
两名	-16329
中全	-16330
中和	-16331
再度	-16332
呵护	-16333
备受	-16334
姨妈	-16335
宁愿	-16336
审美	-16337
对人	-16338
年年	-16339
悲惨	-16340
扭头	-16341
抄袭	-16342
木马	-16343
棉被	-16344
糖类	-16345
纺织	-16346
落体	-16347
顶点	-16348
鲜血	-16349
黑人	-16350
HCO	-16351
▁Cu	-16352
▁预备	-16353
一本书	-16354
二十一	-16355
产阶级	-16356
内容请	-16357
地坐在	-16358
好成绩	-16359
小灰兔	-16360
极坐标	-16361
溜溜的	-16362
的季节	-16363
那这个	-16364
金球奖	-16365
闭上了	-16366
你最近有	-16367
大口大口	-16368
我去坐车	-16369
打发时间	-16370
童话故事	-16371
000$$	-16372
▁欢迎打开今晚的	-16373
▁今天我们邀请到了	-16374
▁主	-16375
▁超	-16376
乐了	-16377
何处	-16378
保姆	-16379
倒入	-16380
健全	-16381
准时	-16382
区块	-16383
去呢	-16384
喂养	-16385
国债	-16386
强劲	-16387
摩尔	-16388
时辰	-16389
短路	-16390
硬壳	-16391
祖宗	-16392
竞赛	-16393
箱里	-16394
细致	-16395
联手	-16396
铁匠	-16397
防治	-16398
{13	-16399
▁天空	-16400
▁蘑菇	-16401
▁随后	-16402
严格的	-16403
太大的	-16404
我们能	-16405
我要是	-16406
来这里	-16407
极大的	-16408
的人数	-16409
的做法	-16410
算什么	-16411
统一的	-16412
荷叶上	-16413
蚂蚁们	-16414
袋子里	-16415
设计图	-16416
走起路	-16417
适当的	-16418
金灿灿	-16419
=0$,	-16420
为自己的	-16421
怎么样呢	-16422
白雪公主	-16423
▁dang	-16424
▁还有那个	-16425
▁我也不知道	-16426
▁'	-16427
▁广	-16428
为生	-16429
亮亮	-16430
亮光	-16431
修订	-16432
充实	-16433
前去	-16434
变动	-16435
口渴	-16436
器的	-16437
天猫	-16438
小美	-16439
尚书	-16440
峡谷	-16441
改成	-16442
断开	-16443
标点	-16444
梳妆	-16445
游览	-16446
猎豹	-16447
真菌	-16448
级别	-16449
终究	-16450
装扮	-16451
试探	-16452
载人	-16453
金山	-16454
闻了	-16455
马戏	-16456
高效	-16457
20{	-16458
qiu	-16459
▁中医	-16460
▁得到	-16461
▁遇到	-16462
了解过	-16463
你认为	-16464
心协力	-16465
我们还	-16466
斜面的	-16467
样子的	-16468
熟悉的	-16469
的报道	-16470
的权利	-16471
的脸上	-16472
线城市	-16473
试试看	-16474
谢谢您	-16475
越想越	-16476
▁这个是	-16477
但是没有	-16478
住着一个	-16479
大家都在	-16480
好好学习	-16481
我们需要	-16482
温室效应	-16483
音频早餐	-16484
_{2}\	-16485
▁huir	-16486
我的车来了	-16487
口口口口口口口口	-16488
^3	-16489
▁伤	-16490
▁撕	-16491
▁间	-16492
下游	-16493
会变	-16494
八日	-16495
古典	-16496
吸气	-16497
啥啊	-16498
在的	-16499
地朝	-16500
多好	-16501
宽阔	-16502
得对	-16503
想找	-16504
比他	-16505
求求	-16506
沼泽	-16507
清醒	-16508
状的	-16509
看待	-16510
看病	-16511
破碎	-16512
站住	-16513
苯酚	-16514
落户	-16515
西兰	-16516
赢的	-16517
轿车	-16518
都去	-16519
金的	-16520
铁丝	-16521
陪您	-16522
雕像	-16523
黑影	-16524
($$	-16525
cup	-16526
kai	-16527
▁有个	-16528
三十五	-16529
不愧是	-16530
也不动	-16531
傻孩子	-16532
副主任	-16533
区块链	-16534
可能有	-16535
同一种	-16536
它们是	-16537
没看到	-16538
特别大	-16539
的所有	-16540
穿衣服	-16541
让别人	-16542
这一年	-16543
酒精灯	-16544
黑黑的	-16545
▁也没有	-16546
中国男篮	-16547
咱们国家	-16548
这么一说	-16549
这么觉得	-16550
.1234	-16551
▁这里是三	-16552
一个小小的	-16553
属于自己的	-16554
还是可以的	-16555
这可怎么办	-16556
64	-16557
▁号	-16558
▁粮	-16559
不打	-16560
中枢	-16561
们也	-16562
任命	-16563
关门	-16564
分了	-16565
医科	-16566
嘴八	-16567
地冲	-16568
增量	-16569
大帝	-16570
奋力	-16571
审核	-16572
忍着	-16573
怀着	-16574
情侣	-16575
我问	-16576
打雷	-16577
污水	-16578
清早	-16579
清洗	-16580
看个	-16581
等啊	-16582
脚的	-16583
艾玛	-16584
西洋	-16585
言语	-16586
醉了	-16587
钱包	-16588
预赛	-16589
齐齐	-16590
0$,	-16591
▁原谅	-16592
▁礼拜	-16593
▁音乐	-16594
勇士队	-16595
可用于	-16596
呈现出	-16597
她就是	-16598
小孩儿	-16599
小熊猫	-16600
成反比	-16601
有关的	-16602
瓶子里	-16603
的人民	-16604
的到来	-16605
的想法	-16606
看不起	-16607
真好看	-16608
许多人	-16609
还有人	-16610
鼠妈妈	-16611
▁他就是	-16612
▁在这个	-16613
▁我当时	-16614
他的比赛	-16615
基础知识	-16616
闷闷不乐	-16617
}$$。"	-16618
▁今年以来	-16619
我去坐车啦	-16620
$$18$$	-16621
▁今天过得好吗	-16622
}}_{3}}$$	-16623
1{	-16624
▁复	-16625
▁配	-16626
刷新	-16627
加坡	-16628
助手	-16629
同类	-16630
四人	-16631
大爷	-16632
太难	-16633
婶婶	-16634
寒风	-16635
小强	-16636
尼斯	-16637
格里	-16638
球球	-16639
白花	-16640
的腿	-16641
苦难	-16642
蒸腾	-16643
蚕卵	-16644
西欧	-16645
路灯	-16646
钢笔	-16647
闹得	-16648
鲫鱼	-16649
hou	-16650
▁会儿	-16651
▁关键	-16652
▁唉唷	-16653
▁疫情	-16654
▁盘子	-16655
▁韩国	-16656
不方便	-16657
乐呵呵	-16658
他就会	-16659
你不会	-16660
响起了	-16661
嘴八舌	-16662
失望了	-16663
它看见	-16664
效力于	-16665
熊先生	-16666
的一部	-16667
的小说	-16668
看样子	-16669
磁感线	-16670
精彩了	-16671
英特尔	-16672
表现得	-16673
让妈妈	-16674
还没等	-16675
还记得	-16676
顾不上	-16677
.$$7	-16678
;$$\	-16679
▁看了啊	-16680
两个孩子	-16681
主要还是	-16682
什么故事	-16683
千万不能	-16684
基因型为	-16685
太阳系中	-16686
然后那个	-16687
的小兔子	-16688
的比赛吗	-16689
皱着眉头	-16690
突然发现	-16691
{3}$$	-16692
}+{{{	-16693
也没有什么	-16694
37	-16695
eq	-16696
na	-16697
▁喽	-16698
▁橘	-16699
一晃	-16700
两下	-16701
二日	-16702
凝结	-16703
医保	-16704
吹得	-16705
咬牙	-16706
大方	-16707
家具	-16708
寿命	-16709
山大	-16710
待在	-16711
意境	-16712
户外	-16713
月初	-16714
每周	-16715
洗涤	-16716
烟雾	-16717
登陆	-16718
盖子	-16719
看谁	-16720
稳固	-16721
粉色	-16722
素养	-16723
红光	-16724
耕地	-16725
胞胎	-16726
草药	-16727
被抓	-16728
货车	-16729
跃进	-16730
躲进	-16731
阴暗	-16732
颈椎	-16733
1.5	-16734
_{4	-16735
▁mL	-16736
▁听了	-16737
▁实现	-16738
▁流浪	-16739
也不想	-16740
他们又	-16741
保护区	-16742
兴奋剂	-16743
参加过	-16744
妈妈就	-16745
快点儿	-16746
猫妈妈	-16747
的最后	-16748
的老鼠	-16749
着脑袋	-16750
端午节	-16751
这两种	-16752
邮递员	-16753
▁如果是	-16754
▁是因为	-16755
不太了解	-16756
吃的东西	-16757
太可怕了	-16758
我就喜欢	-16759
格力电器	-16760
的电视剧	-16761
自然资源	-16762
mathop	-16763
有误的一项是	-16764
和你聊天很愉快	-16765
▁千	-16766
▁宋	-16767
匹配	-16768
听你	-16769
啊呜	-16770
将要	-16771
斑斓	-16772
最短	-16773
有名	-16774
朗读	-16775
束缚	-16776
棒啊	-16777
流向	-16778
满身	-16779
的梦	-16780
相如	-16781
着眼	-16782
瞬时	-16783
碗里	-16784
私募	-16785
积雪	-16786
立在	-16787
立场	-16788
笑的	-16789
糯米	-16790
肩上	-16791
西斯	-16792
语段	-16793
贯彻	-16794
身心	-16795
辣的	-16796
连声	-16797
颁奖	-16798
频道	-16799
飞着	-16800
▁13	-16801
▁14	-16802
▁打扫	-16803
▁明白	-16804
不了的	-16805
两个字	-16806
只要有	-16807
可以被	-16808
可惜的	-16809
可是它	-16810
呼吸道	-16811
奶奶家	-16812
工作时	-16813
无人机	-16814
易建联	-16815
的力气	-16816
的感情	-16817
的改变	-16818
的照片	-16819
篇文章	-16820
精神的	-16821
艺术家	-16822
过分了	-16823
还喜欢	-16824
▁)$$	-16825
三天三夜	-16826
哈喽你好	-16827
应该不会	-16828
每天都会	-16829
而且还是	-16830
这个比赛	-16831
那个地方	-16832
▁创业板指	-16833
出来的时候	-16834
吃饭的时候	-16835
广东省中医院	-16836
▁zhuang	-16837
}_{0}}$$	-16838
▁我们一起来探索吧	-16839
▁合	-16840
▁岁	-16841
下行	-16842
五日	-16843
占了	-16844
古老	-16845
可别	-16846
后腿	-16847
和黄	-16848
哈登	-16849
啪啦	-16850
天色	-16851
官府	-16852
急着	-16853
承包	-16854
掌柜	-16855
无私	-16856
林冲	-16857
椅上	-16858
猛龙	-16859
电筒	-16860
画了	-16861
纯粹	-16862
艰辛	-16863
要好	-16864
首个	-16865
高端	-16866
鸟巢	-16867
黑龙	-16868
+1}	-16869
=0$	-16870
▁完全	-16871
▁电子	-16872
▁鸭子	-16873
不合理	-16874
人们在	-16875
你妈妈	-16876
几十年	-16877
听不懂	-16878
和中国	-16879
和狐狸	-16880
回家吧	-16881
小水珠	-16882
我们有	-16883
是根据	-16884
棒棒糖	-16885
电影了	-16886
的形象	-16887
真空中	-16888
而成的	-16889
距离为	-16890
过去吧	-16891
运营商	-16892
还是蛮	-16893
}_{7	-16894
▁我不是	-16895
大了眼睛	-16896
我是一个	-16897
.$$8$$	-16898
▁拖	-16899
▁留	-16900
▁限	-16901
一株	-16902
丛林	-16903
丸子	-16904
你又	-16905
头晕	-16906
悦耳	-16907
换上	-16908
新娘	-16909
是她	-16910
有小	-16911
望望	-16912
来打	-16913
桌面	-16914
横截	-16915
江山	-16916
税收	-16917
窟窿	-16918
精打	-16919
红薯	-16920
衰变	-16921
赞成	-16922
跳去	-16923
还剩	-16924
长沙	-16925
风暴	-16926
飞上	-16927
geq	-16928
▁1\	-16929
▁工具	-16930
▁马车	-16931
但由于	-16932
你已经	-16933
十九号	-16934
反应中	-16935
在相同	-16936
好消息	-16937
应该有	-16938
战胜了	-16939
拒绝了	-16940
是哪个	-16941
涉及到	-16942
爬到了	-16943
猴妈妈	-16944
的安全	-16945
耐心地	-16946
这么做	-16947
_1$$	-16948
▁十二月	-16949
▁是的呀	-16950
发展中国	-16951
大叫一声	-16952
大声喊道	-16953
就到这里	-16954
情不自禁	-16955
想到这里	-16956
最近不是	-16957
的小伙伴	-16958
虽然没有	-16959
都是一些	-16960
出现了一个	-16961
还是挺好的	-16962
92	-16963
▁德	-16964
下楼	-16965
两步	-16966
书上	-16967
传球	-16968
入境	-16969
写在	-16970
咩咩	-16971
啪嗒	-16972
嗅觉	-16973
大理	-16974
奥沙	-16975
好不	-16976
好似	-16977
心头	-16978
拿去	-16979
放声	-16980
是其	-16981
果冻	-16982
橡树	-16983
法制	-16984
淋漓	-16985
清除	-16986
演义	-16987
申报	-16988
羊仔	-16989
股的	-16990
胖了	-16991
自来	-16992
英勇	-16993
蟾蜍	-16994
解说	-16995
设定	-16996
读作	-16997
这头	-16998
阴阳	-16999
降温	-17000
▁企业	-17001
▁你别	-17002
▁完成	-17003
了之后	-17004
共同体	-17005
在国内	-17006
崭新的	-17007
帮助你	-17008
拍了拍	-17009
拿冠军	-17010
根本就	-17011
每次都	-17012
流动的	-17013
细胞质	-17014
给它们	-17015
能够在	-17016
自己做	-17017
辛苦苦	-17018
遥控器	-17019
都是很	-17020
锋利的	-17021
雪地里	-17022
▁ATP	-17023
▁我只是	-17024
▁有的人	-17025
一个小时	-17026
可以根据	-17027
可以直接	-17028
咬了一口	-17029
好久不见	-17030
就变成了	-17031
真是一个	-17032
知不知道	-17033
聚在一起	-17034
辛辛苦苦	-17035
这么一个	-17036
$$201	-17037
一数	-17038
三七	-17039
不息	-17040
且仅	-17041
也快	-17042
人性	-17043
几位	-17044
受过	-17045
启蒙	-17046
因子	-17047
围观	-17048
大桥	-17049
妞妞	-17050
悬浮	-17051
悲痛	-17052
教导	-17053
真空	-17054
石涛	-17055
苗苗	-17056
装修	-17057
雪橇	-17058
青铜	-17059
飘来	-17060
马斯	-17061
鲁班	-17062
鳗鱼	-17063
bar	-17064
▁哪怕	-17065
▁生病	-17066
会说话	-17067
去上学	-17068
大家好	-17069
容易被	-17070
常委会	-17071
必须的	-17072
惊醒了	-17073
散发出	-17074
的身份	-17075
纪录片	-17076
背景下	-17077
获得过	-17078
jiao	-17079
你就可以	-17080
坐在地上	-17081
就比如说	-17082
正确的有	-17083
狮子大王	-17084
身体素质	-17085
高锰酸钾	-17086
4$$."	-17087
▁qian	-17088
受到的浮力	-17089
$$16$$	-17090
Br	-17091
▁捉	-17092
▁认	-17093
与他	-17094
从没	-17095
几根	-17096
医师	-17097
发呆	-17098
可好	-17099
史记	-17100
同源	-17101
同胞	-17102
城区	-17103
好梦	-17104
小丽	-17105
就诊	-17106
展览	-17107
徒手	-17108
得快	-17109
手艺	-17110
拉的	-17111
拐杖	-17112
授权	-17113
杨树	-17114
正方	-17115
汽水	-17116
疲倦	-17117
的肉	-17118
腹部	-17119
表皮	-17120
褐色	-17121
谁呢	-17122
谣言	-17123
负债	-17124
这年	-17125
迷惑	-17126
▁不久	-17127
▁女生	-17128
▁计算	-17129
了一半	-17130
可爱了	-17131
回事儿	-17132
就是一	-17133
就是啊	-17134
是世界	-17135
是那种	-17136
然后用	-17137
着身子	-17138
石灰水	-17139
背上的	-17140
让你们	-17141
跑到了	-17142
▁xiu	-17143
▁太好了	-17144
我们都是	-17145
没有那么	-17146
非常重要	-17147
}}_{{	-17148
百分之五点	-17149
▁嘴	-17150
▁定	-17151
▁挖	-17152
。4	-17153
业余	-17154
丰盛	-17155
人称	-17156
他刚	-17157
但却	-17158
借鉴	-17159
傲慢	-17160
八九	-17161
八方	-17162
出差	-17163
后者	-17164
多项	-17165
失落	-17166
奢侈	-17167
寻常	-17168
引人	-17169
振兴	-17170
断裂	-17171
新奇	-17172
派的	-17173
砍柴	-17174
示弱	-17175
给的	-17176
绽放	-17177
胡歌	-17178
蟒蛇	-17179
足量	-17180
轴的	-17181
键盘	-17182
院里	-17183
一颗颗	-17184
危险了	-17185
又可以	-17186
和别人	-17187
在我国	-17188
地面的	-17189
太累了	-17190
奶奶的	-17191
就那个	-17192
屋顶上	-17193
新衣服	-17194
爱上了	-17195
给了我	-17196
还不能	-17197
食物的	-17198
▁tou	-17199
▁}{\	-17200
▁小孩子	-17201
一氧化碳	-17202
一百五十	-17203
不是一个	-17204
争先恐后	-17205
河马先生	-17206
的小伙子	-17207
/}{{{	-17208
▁我是石涛	-17209
我很喜欢看	-17210
)"	-17211
ig	-17212
▁项	-17213
一言	-17214
争光	-17215
产权	-17216
入手	-17217
八大	-17218
关爱	-17219
到小	-17220
十大	-17221
咬住	-17222
哭得	-17223
噪声	-17224
圈圈	-17225
天神	-17226
女婿	-17227
帮她	-17228
很帅	-17229
慌了	-17230
拉斯	-17231
斧子	-17232
新区	-17233
新建	-17234
是把	-17235
有好	-17236
水池	-17237
没完	-17238
真像	-17239
破烂	-17240
礼仪	-17241
花蜜	-17242
获悉	-17243
西汉	-17244
赶着	-17245
起诉	-17246
转发	-17247
近的	-17248
门诊	-17249
闻名	-17250
雷声	-17251
非得	-17252
饭吃	-17253
(-1	-17254
neq	-17255
▁公鸡	-17256
他怎么	-17257
他认为	-17258
体现在	-17259
作用的	-17260
只能说	-17261
小白鼠	-17262
很伤心	-17263
愣住了	-17264
我个人	-17265
没必要	-17266
白胡子	-17267
程度的	-17268
等平台	-17269
紫外线	-17270
说起来	-17271
跳起了	-17272
问题了	-17273
顺序是	-17274
▁TFF	-17275
▁他们的	-17276
▁红红的	-17277
一天晚上	-17278
一条直线	-17279
七嘴八舌	-17280
以为自己	-17281
反应过来	-17282
大笑起来	-17283
▁beng	-17284
▁你有关注	-17285
}}$$,$${{	-17286
Hz	-17287
OB	-17288
▁钟	-17289
▁韩	-17290
乙的	-17291
他叫	-17292
低的	-17293
修理	-17294
先用	-17295
创办	-17296
咆哮	-17297
地壳	-17298
地道	-17299
夜幕	-17300
张三	-17301
很深	-17302
我啊	-17303
欧美	-17304
油脂	-17305
法拉	-17306
率先	-17307
精度	-17308
绕过	-17309
葵花	-17310
野鸡	-17311
面试	-17312
=1$	-17313
▁你对	-17314
▁各种	-17315
▁噢噢	-17316
▁平常	-17317
▁父亲	-17318
▁研究	-17319
▁银行	-17320
一屁股	-17321
仍然是	-17322
他以前	-17323
你可能	-17324
你真的	-17325
信息的	-17326
制造的	-17327
向前走	-17328
团团转	-17329
城市里	-17330
家里人	-17331
我准备	-17332
最大值	-17333
有那么	-17334
李小璐	-17335
的中心	-17336
的响声	-17337
篮球赛	-17338
肯定有	-17339
讲完了	-17340
这么小	-17341
都很好	-17342
金黄的	-17343
)$$\	-17344
▁第一个	-17345
一点一点	-17346
先不说了	-17347
光在同种	-17348
变成一个	-17349
啊什么的	-17350
奇怪的是	-17351
迷迷糊糊	-17352
都不愿意	-17353
非常好的	-17354
▁已知函数	-17355
▁我也看了	-17356
一个大大的	-17357
密切接触者	-17358
▁这里是三九健康网	-17359
//	-17360
▁吉	-17361
▁吼	-17362
▁既	-17363
▁考	-17364
▁黏	-17365
不屑	-17366
五天	-17367
关了	-17368
减去	-17369
几条	-17370
分给	-17371
助力	-17372
卖出	-17373
卫视	-17374
去去	-17375
可它	-17376
可要	-17377
号召	-17378
嘴边	-17379
四日	-17380
天子	-17381
室友	-17382
寡妇	-17383
尽的	-17384
打气	-17385
时会	-17386
杂草	-17387
沐浴	-17388
等的	-17389
箭头	-17390
细腻	-17391
舍得	-17392
蜕皮	-17393
负数	-17394
转录	-17395
过人	-17396
锐角	-17397
风雪	-17398
高三	-17399
高楼	-17400
(-\	-17401
▁唱歌	-17402
▁姿势	-17403
▁总体	-17404
▁裤子	-17405
万美元	-17406
下半年	-17407
你一定	-17408
做不到	-17409
军运会	-17410
冬天的	-17411
到外面	-17412
十四号	-17413
在河边	-17414
基本的	-17415
就只有	-17416
开满了	-17417
方向的	-17418
电视上	-17419
目前的	-17420
睡梦中	-17421
自在地	-17422
蹦乱跳	-17423
_{3}	-17424
就是他们	-17425
微笑着说	-17426
的一组是	-17427
▁我们可以	-17428
涨百分之零点	-17429
{0	-17430
▁》	-17431
▁春	-17432
中外	-17433
伊斯	-17434
伤的	-17435
内阁	-17436
史料	-17437
嘀嘀	-17438
多家	-17439
少林	-17440
库存	-17441
我俩	-17442
打完	-17443
指针	-17444
本土	-17445
核苷	-17446
满怀	-17447
灵感	-17448
玩吧	-17449
线路	-17450
蔗糖	-17451
裁员	-17452
许可	-17453
费了	-17454
赵国	-17455
跑出	-17456
选取	-17457
选的	-17458
通往	-17459
顶着	-17460
高尔	-17461
黄鹂	-17462
▁有关	-17463
不影响	-17464
动物都	-17465
古天乐	-17466
大尾巴	-17467
实验时	-17468
就好像	-17469
我有个	-17470
文中的	-17471
激动的	-17472
独木舟	-17473
的比例	-17474
的花儿	-17475
老鼠的	-17476
跑起来	-17477
这个事	-17478
2$$.	-17479
▁0.0	-17480
▁第二个	-17481
少数民族	-17482
就知道了	-17483
掉了下来	-17484
没有体现	-17485
这么多年	-17486
_{1}+	-17487
▁前段时间	-17488
控制变量法	-17489
是什么意思	-17490
斜面上的运动	-17491
-{	-17492
48	-17493
▁代	-17494
▁招	-17495
▁立	-17496
▁角	-17497
一则	-17498
一走	-17499
丧失	-17500
了对	-17501
二是	-17502
元件	-17503
切实	-17504
创建	-17505
利文	-17506
刹那	-17507
可贴	-17508
外貌	-17509
字典	-17510
察觉	-17511
对阵	-17512
将近	-17513
年内	-17514
幼稚	-17515
德尔	-17516
我所	-17517
教的	-17518
旺盛	-17519
有意	-17520
有条	-17521
歪歪	-17522
比比	-17523
水花	-17524
海拔	-17525
病原	-17526
的剧	-17527
直奔	-17528
维亚	-17529
芬芳	-17530
苦脸	-17531
责怪	-17532
贪吃	-17533
问了	-17534
面目	-17535
高层	-17536
,-1	-17537
ymb	-17538
}={	-17539
▁可怕	-17540
▁坚持	-17541
▁我能	-17542
▁明明	-17543
与材料	-17544
中的一	-17545
向我们	-17546
听不到	-17547
小壁虎	-17548
小矮人	-17549
的掌握	-17550
真好吃	-17551
经常会	-17552
这么高	-17553
▁+{{	-17554
传来一阵	-17555
小个子猫	-17556
有这样的	-17557
的质量为	-17558
饱和溶液	-17559
ymbol	-17560
}$$.(	-17561
▁zhan	-17562
生态系统的	-17563
这个电视剧	-17564
$$3$$,	-17565
%。	-17566
▁篇	-17567
一气	-17568
一顶	-17569
不小	-17570
两头	-17571
乃至	-17572
乐于	-17573
人情	-17574
人文	-17575
便会	-17576
六日	-17577
冤枉	-17578
出海	-17579
勇于	-17580
南海	-17581
周瑜	-17582
响亮	-17583
地表	-17584
多米	-17585
大街	-17586
太高	-17587
就又	-17588
帐篷	-17589
弓箭	-17590
彩笔	-17591
改了	-17592
救治	-17593
智力	-17594
极值	-17595
模特	-17596
沟里	-17597
满面	-17598
皇家	-17599
目瞪	-17600
等会	-17601
胸脯	-17602
记作	-17603
身穿	-17604
还未	-17605
逃避	-17606
钉子	-17607
随身	-17608
露水	-17609
>$$	-17610
▁1)	-17611
▁sa	-17612
▁说完	-17613
一回事	-17614
一看到	-17615
二亿元	-17616
于是它	-17617
你只要	-17618
努力地	-17619
奇函数	-17620
小笨熊	-17621
弯弯的	-17622
我特别	-17623
我的家	-17624
提供的	-17625
星期五	-17626
的表情	-17627
研究所	-17628
组织的	-17629
要健康	-17630
走出了	-17631
适量的	-17632
olds	-17633
▁而不是	-17634
▁这部剧	-17635
中国古代	-17636
比较好的	-17637
没有时间	-17638
测量纸带	-17639
自然环境	-17640
非常生气	-17641
▁$$20	-17642
▁shir	-17643
▁乱七八糟	-17644
我特别喜欢	-17645
$$,$$5	-17646
}$$、$$	-17647
)}^{2}}+{{	-17648
.$	-17649
=(	-17650
GM	-17651
▁体	-17652
▁硬	-17653
一字	-17654
一艘	-17655
一词	-17656
不妨	-17657
两手	-17658
亚冠	-17659
化解	-17660
周长	-17661
呼哧	-17662
堆积	-17663
外壳	-17664
失利	-17665
安徽	-17666
宙斯	-17667
对它	-17668
小李	-17669
录取	-17670
感触	-17671
才对	-17672
撞到	-17673
操纵	-17674
期盼	-17675
种皮	-17676
精卫	-17677
繁华	-17678
结晶	-17679
落山	-17680
说罢	-17681
隆平	-17682
"".	-17683
▁不得	-17684
▁你像	-17685
一溜烟	-17686
丝分裂	-17687
中加入	-17688
也不行	-17689
了一层	-17690
事实上	-17691
二季度	-17692
依赖于	-17693
功率为	-17694
单位是	-17695
各自的	-17696
大森林	-17697
大臣们	-17698
如果有	-17699
核糖体	-17700
泡泡糖	-17701
的小鸡	-17702
矿物的	-17703
矿物质	-17704
脏兮兮	-17705
遗传和	-17706
郭艾伦	-17707
马路上	-17708
▁$$9	-17709
▁sui	-17710
▁那你们	-17711
医科大学	-17712
我再也不	-17713
电场强度	-17714
.$$-\	-17715
▁我很喜欢	-17716
▁根据材料	-17717
最好的朋友	-17718
孩子比较喜欢	-17719
▁亲爱的小朋友	-17720
79	-17721
▁夏	-17722
▁蛮	-17723
一米	-17724
乘凉	-17725
人鱼	-17726
催促	-17727
冲动	-17728
协同	-17729
原有	-17730
受害	-17731
受损	-17732
品的	-17733
哒哒	-17734
场强	-17735
定点	-17736
张家	-17737
我买	-17738
手游	-17739
故障	-17740
杰瑞	-17741
点到	-17742
爱上	-17743
相距	-17744
祭祀	-17745
翻身	-17746
而下	-17747
蓬蓬	-17748
被窝	-17749
谷子	-17750
跳动	-17751
还将	-17752
迹象	-17753
送的	-17754
难为	-17755
骨折	-17756
AMD	-17757
▁to	-17758
▁人类	-17759
▁简单	-17760
▁车车	-17761
▁还没	-17762
▁进入	-17763
上一次	-17764
下列各	-17765
二十八	-17766
别着急	-17767
在国际	-17768
在森林	-17769
奥特曼	-17770
很长的	-17771
很难受	-17772
我就想	-17773
我帮你	-17774
摘下来	-17775
改革的	-17776
教育的	-17777
斜面上	-17778
日子里	-17779
每一天	-17780
的事实	-17781
的人了	-17782
的大象	-17783
的美好	-17784
目瞪口	-17785
英国的	-17786
▁小姐姐	-17787
▁就可以	-17788
佩戴口罩	-17789
在树林里	-17790
希望他能	-17791
有很多的	-17792
bolds	-17793
可能会导致	-17794
的小动物们	-17795
、$$3$$	-17796
boldsymbol	-17797
▁嚯	-17798
丝丝	-17799
书店	-17800
传粉	-17801
分割	-17802
刑事	-17803
古怪	-17804
叫醒	-17805
感官	-17806
手帕	-17807
放回	-17808
散文	-17809
文人	-17810
替补	-17811
武功	-17812
每逢	-17813
水量	-17814
炎热	-17815
牛的	-17816
犯规	-17817
玲玲	-17818
穿透	-17819
菠萝	-17820
视角	-17821
诗中	-17822
课上	-17823
适量	-17824
雨滴	-17825
马丁	-17826
高位	-17827
hua	-17828
▁30	-17829
▁先生	-17830
▁勺子	-17831
▁社会	-17832
五分钟	-17833
但没有	-17834
只能在	-17835
叶绿素	-17836
就是那	-17837
我本来	-17838
改编的	-17839
横线上	-17840
正能量	-17841
水面上	-17842
沉浸在	-17843
生下来	-17844
的范围	-17845
的这些	-17846
精打采	-17847
苏东坡	-17848
速度与	-17849
$$3.	-17850
▁但是我	-17851
仔细观察	-17852
他的妻子	-17853
太可惜了	-17854
媒体报道	-17855
怎么会有	-17856
愁眉苦脸	-17857
有关部门	-17858
正确答案	-17859
还是可以	-17860
还是很有	-17861
▁我也喜欢	-17862
公司的员工	-17863
$$40$$	-17864
.$$0$$	-17865
发生了什么事	-17866
}{2}$$,	-17867
}}_{3}}	-17868
▁!	-17869
万能	-17870
主的	-17871
之以	-17872
也为	-17873
以翔	-17874
休班	-17875
但又	-17876
倒影	-17877
停顿	-17878
冬瓜	-17879
即便	-17880
同行	-17881
四万	-17882
壮的	-17883
大惊	-17884
大盗	-17885
大致	-17886
就怕	-17887
当个	-17888
得一	-17889
成效	-17890
房顶	-17891
报酬	-17892
景向	-17893
来玩	-17894
欧姆	-17895
男单	-17896
等候	-17897
管家	-17898
绿了	-17899
衬衫	-17900
诸多	-17901
越强	-17902
足协	-17903
躺下	-17904
音符	-17905
领土	-17906
bot	-17907
lao	-17908
sui	-17909
▁反而	-17910
▁练习	-17911
▁脑袋	-17912
▁面包	-17913
一般人	-17914
也来了	-17915
做了个	-17916
发明了	-17917
喊起来	-17918
国民党	-17919
打球了	-17920
放射性	-17921
是个大	-17922
有个叫	-17923
殖民地	-17924
每年的	-17925
然后她	-17926
痒痒的	-17927
科主任	-17928
进来了	-17929
▁4$$	-17930
▁这一次	-17931
他们就是	-17932
你请坐吧	-17933
大气污染	-17934
忍不住了	-17935
打篮球吗	-17936
谢谢你们	-17937
通项公式	-17938
里面还有	-17939
▁1.""	-17940
▁2020	-17941
▁故事中的	-17942
的主要成分	-17943
$$.$$\	-17944
)=0$$,	-17945
}}}$$,	-17946
并结合所学知识	-17947
65	-17948
▁初	-17949
▁盛	-17950
▁顺	-17951
乱的	-17952
亚历	-17953
令我	-17954
冬雨	-17955
加了	-17956
加法	-17957
动人	-17958
十位	-17959
台风	-17960
吧嗒	-17961
夜空	-17962
大白	-17963
孙女	-17964
学业	-17965
守着	-17966
开出	-17967
往家	-17968
总局	-17969
排行	-17970
摇大	-17971
族的	-17972
无辜	-17973
晃晃	-17974
水星	-17975
没说	-17976
热火	-17977
照料	-17978
男足	-17979
短缺	-17980
等了	-17981
红球	-17982
约车	-17983
纳米	-17984
脏的	-17985
说吧	-17986
质地	-17987
铁粉	-17988
长到	-17989
阴谋	-17990
▁25	-17991
▁5\	-17992
▁他把	-17993
▁你不	-17994
▁家里	-17995
▁拼图	-17996
东西了	-17997
乡亲们	-17998
他每天	-17999
他的话	-18000
做生意	-18001
准确地	-18002
去哪里	-18003
在前面	-18004
大气层	-18005
对面的	-18006
我是个	-18007
晚上的	-18008
生孩子	-18009
的老人	-18010
的高低	-18011
确实挺	-18012
表面上	-18013
鼓鼓的	-18014
▁zei	-18015
▁三角形	-18016
我和爸爸	-18017
细胞分裂	-18018
自由落体	-18019
这是一种	-18020
}}{{{	-18021
▁另一方面	-18022
就是这样的	-18023
继续往前走	-18024
还没来得及	-18025
..."""	-18026
这一刻就是这些	-18027
}_{2}}+{{	-18028
OA	-18029
▁徐	-18030
▁拳	-18031
▁整	-18032
▁绑	-18033
▁许	-18034
上年	-18035
上演	-18036
不掉	-18037
保守	-18038
农药	-18039
冷啊	-18040
只需	-18041
地带	-18042
大使	-18043
姓名	-18044
学费	-18045
小虎	-18046
总数	-18047
惊险	-18048
手工	-18049
抗击	-18050
放热	-18051
新政	-18052
施展	-18053
无边	-18054
替他	-18055
果皮	-18056
死在	-18057
比尔	-18058
水塘	-18059
涨价	-18060
漂流	-18061
热身	-18062
照亮	-18063
礁石	-18064
能级	-18065
袋里	-18066
要让	-18067
越短	-18068
跑啊	-18069
轮车	-18070
输给	-18071
铁锅	-18072
除杂	-18073
▁一种	-18074
▁大哥	-18075
▁环比	-18076
▁跑步	-18077
一直到	-18078
你关注	-18079
你想要	-18080
光照射	-18081
半个月	-18082
和人类	-18083
小鲜肉	-18084
就算是	-18085
尽全力	-18086
捡起来	-18087
期待的	-18088
正方形	-18089
正电荷	-18090
深深的	-18091
王安石	-18092
的老师	-18093
老母鸡	-18094
自然的	-18095
身份证	-18096
闻到了	-18097
$$18	-18098
$${1	-18099
▁xin	-18100
▁小男孩	-18101
一到周五	-18102
三十一号	-18103
传说中的	-18104
有一个小	-18105
气体交换	-18106
现在我们	-18107
白色沉淀	-18108
看见一只	-18109
这么想的	-18110
▁菲菲姐姐	-18111
这部电影的	-18112
mathbb	-18113
;"	-18114
下棋	-18115
不走	-18116
举手	-18117
了它	-18118
了指	-18119
亲情	-18120
人吗	-18121
况且	-18122
削弱	-18123
厚度	-18124
双脚	-18125
反驳	-18126
告诫	-18127
和风	-18128
国人	-18129
在其	-18130
在后	-18131
字形	-18132
官吏	-18133
射手	-18134
就干	-18135
往里	-18136
成指	-18137
房贷	-18138
抢救	-18139
按钮	-18140
晃动	-18141
木棍	-18142
深情	-18143
漫长	-18144
热烈	-18145
爆米	-18146
的全	-18147
皇冠	-18148
粗心	-18149
终止	-18150
诈骗	-18151
轻重	-18152
较快	-18153
运转	-18154
闪光	-18155
阶层	-18156
骚扰	-18157
▁出门	-18158
上大学	-18159
交给了	-18160
实现的	-18161
所在的	-18162
时间了	-18163
有意义	-18164
用这个	-18165
能力和	-18166
都不想	-18167
长大后	-18168
▁$$7	-18169
▁所以啊	-18170
同学你好	-18171
在水中的	-18172
就不见了	-18173
生活方式	-18174
目瞪口呆	-18175
表述错误	-18176
骑自行车	-18177
▁然后我就	-18178
}$$、$${{	-18179
}^{2}}}{2	-18180
▁桌	-18181
不倒	-18182
不响	-18183
仍是	-18184
再多	-18185
创立	-18186
力是	-18187
单身	-18188
去啊	-18189
去拿	-18190
发财	-18191
启发	-18192
咬着	-18193
寂静	-18194
对角	-18195
开个	-18196
强队	-18197
拍手	-18198
搬运	-18199
暗自	-18200
每种	-18201
水喝	-18202
滑稽	-18203
熄灭	-18204
盼望	-18205
简谐	-18206
精子	-18207
考了	-18208
肥肥	-18209
蔷薇	-18210
说有	-18211
跳得	-18212
较少	-18213
配音	-18214
陈情	-18215
集权	-18216
:1.	-18217
▁业内	-18218
▁价格	-18219
▁只见	-18220
▁小白	-18221
▁摸摸	-18222
▁祝你	-18223
一个数	-18224
一定比	-18225
一棵树	-18226
下车啦	-18227
不会再	-18228
他们要	-18229
他演的	-18230
公主的	-18231
在这一	-18232
多大的	-18233
大气压	-18234
就是想	-18235
成熟了	-18236
我开始	-18237
我的天	-18238
林子里	-18239
比较大	-18240
河流域	-18241
的天气	-18242
的政策	-18243
眨眼睛	-18244
离子的	-18245
迎来了	-18246
都是由	-18247
}=-\	-18248
}=0.	-18249
▁你看过	-18250
▁卫生间	-18251
▁跳跳糖	-18252
如何影响	-18253
就像一个	-18254
得意地说	-18255
拼个桌吗	-18256
观察到的	-18257
因素的影响	-18258
的主要功能	-18259
▁生活要健康	-18260
东东	-18261
伴随	-18262
你那	-18263
儿啊	-18264
关税	-18265
去哪	-18266
吃药	-18267
合唱	-18268
嘴上	-18269
太极	-18270
小华	-18271
小鬼	-18272
山中	-18273
底线	-18274
弟兄	-18275
彰显	-18276
意象	-18277
无语	-18278
松子	-18279
棋子	-18280
此后	-18281
洗完	-18282
猫说	-18283
省份	-18284
线下	-18285
老树	-18286
考研	-18287
走廊	-18288
边长	-18289
连着	-18290
雪糕	-18291
▁九月	-18292
▁大大	-18293
▁期待	-18294
与物体	-18295
了一千	-18296
他可以	-18297
做的事	-18298
去看了	-18299
天黑了	-18300
对我的	-18301
庞大的	-18302
当年的	-18303
放在了	-18304
泥土里	-18305
用鼻子	-18306
电场中	-18307
的支持	-18308
的水果	-18309
的视频	-18310
红彤彤	-18311
舒舒服	-18312
要学会	-18313
跳到了	-18314
麻烦了	-18315
>0$$	-18316
▁特斯拉	-18317
一带一路	-18318
交通工具	-18319
山羊老师	-18320
战国时期	-18321
文学常识	-18322
无影无踪	-18323
狐狸先生	-18324
资料显示	-18325
-1$$,	-18326
▁还有一些	-18327
$$24$$	-18328
说法是正确的	-18329
▁今晚就和大家分享到这里	-18330
▁师	-18331
▁汉	-18332
▁紫	-18333
不应	-18334
五大	-18335
交叉	-18336
制止	-18337
又饿	-18338
多岁	-18339
孝顺	-18340
屋外	-18341
废纸	-18342
征服	-18343
抓着	-18344
抵制	-18345
掀起	-18346
末年	-18347
来听	-18348
氯气	-18349
沉迷	-18350
浓眉	-18351
海盗	-18352
漫步	-18353
火花	-18354
煤气	-18355
特区	-18356
的你	-18357
篮网	-18358
粗气	-18359
编辑	-18360
职位	-18361
自习	-18362
转让	-18363
连夜	-18364
都怪	-18365
重合	-18366
黄狗	-18367
"":	-18368
▁头条	-18369
▁满足	-18370
▁睡衣	-18371
▁蜗牛	-18372
▁轻松	-18373
▁选择	-18374
一起打	-18375
他好像	-18376
会变成	-18377
再见哈	-18378
和她的	-18379
定义域	-18380
广场上	-18381
我看的	-18382
最适合	-18383
的姑娘	-18384
的风景	-18385
看着我	-18386
还会有	-18387
那两个	-18388
{3}\	-18389
▁xue	-18390
一百三十	-18391
不容易的	-18392
倒在地上	-18393
光的反射	-18394
娱乐新闻	-18395
挺喜欢的	-18396
电视剧啊	-18397
舒舒服服	-18398
走起路来	-18399
陪您度过	-18400
中医的奇妙	-18401
觉得很奇怪	-18402
{3}$$,	-18403
我和我的祖国	-18404
氢氧化钠溶液	-18405
▁$$~~~~	-18406
▁怪	-18407
▁溜	-18408
不放	-18409
五四	-18410
介意	-18411
他来	-18412
他跟	-18413
优良	-18414
估算	-18415
养活	-18416
凝固	-18417
刚出	-18418
化作	-18419
县城	-18420
号的	-18421
听懂	-18422
咋样	-18423
填空	-18424
新月	-18425
无虑	-18426
欢快	-18427
比作	-18428
海棠	-18429
疑似	-18430
知府	-18431
经纪	-18432
美股	-18433
谁会	-18434
谈到	-18435
转弯	-18436
轴上	-18437
选秀	-18438
阿木	-18439
鱼说	-18440
鲁能	-18441
}>\	-18442
▁听见	-18443
▁新的	-18444
▁欧洲	-18445
不能说	-18446
了回来	-18447
亲自讲	-18448
农作物	-18449
另一边	-18450
圆滚滚	-18451
在天空	-18452
她们的	-18453
好起来	-18454
影响到	-18455
很久了	-18456
我的头	-18457
是国家	-18458
沉重的	-18459
的人呢	-18460
的天空	-18461
的小溪	-18462
纳达尔	-18463
虽然说	-18464
袁隆平	-18465
被窝里	-18466
走开了	-18467
赶紧把	-18468
越看越	-18469
运行的	-18470
▁孩子们	-18471
▁红色的	-18472
可能是因为	-18473
.$$10$$	-18474
等平台陪您度过	-18475
2}	-18476
ke	-18477
▁仅	-18478
▁唔	-18479
▁扛	-18480
▁雷	-18481
一出	-18482
一律	-18483
上当	-18484
上过	-18485
下定	-18486
久久	-18487
也叫	-18488
但这	-18489
农田	-18490
古城	-18491
吕布	-18492
哼着	-18493
噩梦	-18494
女足	-18495
宽敞	-18496
山脉	-18497
巴士	-18498
常年	-18499
恶意	-18500
打车	-18501
振荡	-18502
播的	-18503
曝光	-18504
机体	-18505
比特	-18506
水源	-18507
法定	-18508
清华	-18509
演得	-18510
王母	-18511
相见	-18512
睡衣	-18513
研报	-18514
社保	-18515
神来	-18516
租赁	-18517
空了	-18518
笔直	-18519
等下	-18520
绿草	-18521
美梦	-18522
聚焦	-18523
触电	-18524
调侃	-18525
跺脚	-18526
进出	-18527
醒醒	-18528
长腿	-18529
风和	-18530
鱼虾	-18531
黎明	-18532
▁叫做	-18533
▁我这	-18534
▁樱桃	-18535
▁超市	-18536
不完全	-18537
净买入	-18538
告别了	-18539
好奇心	-18540
导致了	-18541
小房子	-18542
岩石的	-18543
很好吃	-18544
很好玩	-18545
捉虫子	-18546
最开始	-18547
服务的	-18548
气呼呼	-18549
狐狸和	-18550
球场上	-18551
的一段	-18552
的一端	-18553
的措施	-18554
睡懒觉	-18555
类食物	-18556
老巫婆	-18557
还给我	-18558
马戏团	-18559
}_{8	-18560
▁你现在	-18561
▁小蚂蚁	-18562
▁我怎么	-18563
▁我相信	-18564
▁我看你	-18565
一天到晚	-18566
不是特别	-18567
两个小时	-18568
二零一九	-18569
信息技术	-18570
多长时间	-18571
昨天晚上	-18572
睡前故事	-18573
美满健康	-18574
▁2018	-18575
▁财经资讯	-18576
主任的讲解	-18577
还是很不错的	-18578
42	-18579
97	-18580
Le	-18581
tu	-18582
▁烤	-18583
▁袋	-18584
一摇	-18585
上火	-18586
主流	-18587
也行	-18588
二话	-18589
典故	-18590
印发	-18591
和无	-18592
圆柱	-18593
复出	-18594
好用	-18595
少吃	-18596
惬意	-18597
慈禧	-18598
扔进	-18599
抢着	-18600
披着	-18601
景观	-18602
格格	-18603
槐树	-18604
民营	-18605
求救	-18606
渣男	-18607
琴声	-18608
用时	-18609
相亲	-18610
短信	-18611
等地	-18612
绒绒	-18613
置于	-18614
老猫	-18615
背诵	-18616
脆弱	-18617
自古	-18618
装在	-18619
读了	-18620
越过	-18621
鉴赏	-18622
问她	-18623
首钢	-18624
黄花	-18625
ppo	-18626
▁不太	-18627
▁他又	-18628
▁具有	-18629
▁同意	-18630
▁外婆	-18631
▁容易	-18632
▁当天	-18633
上去了	-18634
不进去	-18635
与亲代	-18636
他们家	-18637
企业家	-18638
但它们	-18639
去年的	-18640
双胞胎	-18641
叫我了	-18642
就是了	-18643
有力的	-18644
洗衣机	-18645
活动中	-18646
清政府	-18647
生气地	-18648
的一大	-18649
的人员	-18650
的作品	-18651
的政治	-18652
的标准	-18653
的身边	-18654
磁通量	-18655
▁头条号	-18656
▁就是你	-18657
一个星期	-18658
上幼儿园	-18659
强调的是	-18660
民主政治	-18661
电视剧吗	-18662
站了起来	-18663
综合考虑	-18664
跑来跑去	-18665
名医亲自讲	-18666
我们中国的	-18667
转化为电能	-18668
你旁边的座位	-18669
我孩子下课了	-18670
}^{2}}-4	-18671
▁七点早知道新闻快讯	-18672
▁欢迎收听听见知乎本期	-18673
▁约	-18674
举着	-18675
人马	-18676
代言	-18677
保暖	-18678
初级	-18679
向它	-18680
国防	-18681
在等	-18682
处境	-18683
复仇	-18684
大为	-18685
守门	-18686
射击	-18687
当兵	-18688
总共	-18689
房产	-18690
抚养	-18691
文武	-18692
明代	-18693
果汁	-18694
水体	-18695
班里	-18696
瑟瑟	-18697
田地	-18698
绘本	-18699
缘分	-18700
荆棘	-18701
虚弱	-18702
赞扬	-18703
选自	-18704
那会	-18705
那双	-18706
顺风	-18707
_{5	-18708
▁不行	-18709
▁努力	-18710
▁我才	-18711
▁我没	-18712
▁斑马	-18713
一个劲	-18714
不过来	-18715
了解的	-18716
以后就	-18717
你肯定	-18718
到地上	-18719
听的你	-18720
大摇大	-18721
带走了	-18722
找工作	-18723
是一颗	-18724
气坏了	-18725
王国的	-18726
的任务	-18727
2$$(	-18728
▁回不来	-18729
不是什么	-18730
也可能是	-18731
了解一下	-18732
关注这些	-18733
医护人员	-18734
帮助我们	-18735
校园生物	-18736
浪微博号	-18737
然后我们	-18738
谢谢你的	-18739
这一现象	-18740
""$$\	-18741
5\%$$	-18742
项符合题意	-18743
$$13$$	-18744
{1}{4}	-18745
▁每周一到周五	-18746
等平台陪您度过美满健康	-18747
▁宁	-18748
▁急	-18749
▁扫	-18750
一跃	-18751
三下	-18752
以内	-18753
传达	-18754
光头	-18755
关在	-18756
冲出	-18757
包袱	-18758
单元	-18759
卖掉	-18760
可比	-18761
可笑	-18762
四下	-18763
基督	-18764
增持	-18765
好象	-18766
家电	-18767
就向	-18768
层层	-18769
式子	-18770
弹琴	-18771
战后	-18772
抽出	-18773
接通	-18774
显现	-18775
最怕	-18776
每月	-18777
港口	-18778
热度	-18779
的积	-18780
的第	-18781
红楼	-18782
纪律	-18783
自家	-18784
表哥	-18785
论述	-18786
(1,	-18787
=3\	-18788
ace	-18789
per	-18790
xie	-18791
▁in	-18792
▁th	-18793
▁卧槽	-18794
▁我很	-18795
▁来到	-18796
▁梅西	-18797
也特别	-18798
他最近	-18799
你们都	-18800
出来吧	-18801
创新的	-18802
在内的	-18803
大人们	-18804
好看吗	-18805
我决定	-18806
或者说	-18807
控制的	-18808
数不清	-18809
新朋友	-18810
正整数	-18811
照镜子	-18812
电场线	-18813
穿着一	-18814
脚下的	-18815
边说边	-18816
那边的	-18817
青蛙说	-18818
.$$-	-18819
?!""	-18820
▁喜欢啊	-18821
▁机器人	-18822
▁说实话	-18823
一个声音	-18824
关注体育	-18825
在一起的	-18826
希望自己	-18827
我们这些	-18828
淡水资源	-18829
自动驾驶	-18830
谢谢你啊	-18831
躺在地上	-18832
违法行为	-18833
都是为了	-18834
▁NaOH	-18835
是什么东西	-18836
沿直线传播的	-18837
▁这一刻就这些	-18838
3]	-18839
TF	-18840
从大	-18841
从我	-18842
他到	-18843
偷懒	-18844
几千	-18845
几声	-18846
制取	-18847
劝告	-18848
又怕	-18849
可她	-18850
增值	-18851
大神	-18852
季报	-18853
就此	-18854
庄子	-18855
弯下	-18856
很冷	-18857
得直	-18858
才把	-18859
抒情	-18860
搜集	-18861
教养	-18862
散射	-18863
无事	-18864
暗中	-18865
服从	-18866
椰子	-18867
琳娜	-18868
畏惧	-18869
纸片	-18870
老将	-18871
而死	-18872
跳上	-18873
都打	-18874
金黄	-18875
麻辣	-18876
麻麻	-18877
黄鱼	-18878
=1.	-18879
▁##	-18880
▁盖子	-18881
个数为	-18882
举行了	-18883
二十六	-18884
他应该	-18885
以为然	-18886
塔台的	-18887
头也不	-18888
好久没	-18889
影子的	-18890
手指头	-18891
状态下	-18892
的是的	-18893
看不清	-18894
笑呵呵	-18895
细胞壁	-18896
老先生	-18897
质量和	-18898
足球队	-18899
跟别人	-18900
ular	-18901
▁我到了	-18902
▁我听说	-18903
一个问题	-18904
不下去了	-18905
不慌不忙	-18906
什么意思	-18907
健康科普	-18908
因为没有	-18909
很感兴趣	-18910
物理变化	-18911
物理性质	-18912
▁teng	-18913
▁这个电影	-18914
{2}}{2}	-18915
▁野	-18916
个球	-18917
他正	-18918
全省	-18919
再到	-18920
凡事	-18921
发球	-18922
变出	-18923
叠加	-18924
叫作	-18925
可口	-18926
和对	-18927
噬菌	-18928
四五	-18929
圈儿	-18930
大啊	-18931
她会	-18932
就将	-18933
干草	-18934
开采	-18935
恒定	-18936
想说	-18937
扔下	-18938
挑食	-18939
挠挠	-18940
揉揉	-18941
无需	-18942
是新	-18943
望了	-18944
树皮	-18945
水浒	-18946
永恒	-18947
油价	-18948
湖面	-18949
猛然	-18950
玄宗	-18951
皱纹	-18952
碰碰	-18953
笛子	-18954
纳斯	-18955
自尊	-18956
谁是	-18957
靠在	-18958
魏国	-18959
麦田	-18960
leq	-18961
▁pH	-18962
▁仔细	-18963
▁做成	-18964
▁十一	-18965
▁天使	-18966
▁消费	-18967
▁食物	-18968
地方的	-18969
城里的	-18970
大概是	-18971
好一点	-18972
对人体	-18973
小兔说	-18974
就来了	-18975
放风筝	-18976
氧气和	-18977
玻璃瓶	-18978
积极性	-18979
考试了	-18980
路上的	-18981
魔术师	-18982
鸟儿们	-18983
$$1:	-18984
▁$$(	-18985
▁在一个	-18986
▁有些人	-18987
到此结束	-18988
好像在说	-18989
对外开放	-18990
无忧无虑	-18991
根本就不	-18992
袋鼠妈妈	-18993
那是因为	-18994
}_{2}}\	-18995
.6	-18996
58	-18997
▁嘟	-18998
▁工	-18999
▁查	-19000
▁灰	-19001
▁称	-19002
▁绝	-19003
▁银	-19004
▁随	-19005
中生	-19006
习性	-19007
互补	-19008
他呀	-19009
全能	-19010
共识	-19011
兵马	-19012
华丽	-19013
卵石	-19014
受热	-19015
城门	-19016
声中	-19017
官司	-19018
快手	-19019
恳求	-19020
所欲	-19021
所说	-19022
扎克	-19023
找啊	-19024
无味	-19025
最深	-19026
有益	-19027
松开	-19028
案子	-19029
梨花	-19030
步子	-19031
的药	-19032
真有	-19033
眼帘	-19034
着想	-19035
睡的	-19036
砰砰	-19037
穴位	-19038
竟敢	-19039
篮板	-19040
纠正	-19041
纯合	-19042
缴纳	-19043
胸前	-19044
船体	-19045
补习	-19046
被告	-19047
要对	-19048
起电	-19049
运河	-19050
部首	-19051
锄头	-19052
降幅	-19053
难听	-19054
黄渤	-19055
▁主意	-19056
▁他也	-19057
▁卡儿	-19058
▁可知	-19059
▁听听	-19060
▁咖啡	-19061
▁完了	-19062
▁我妈	-19063
▁我来	-19064
▁第四	-19065
不会是	-19066
他心里	-19067
公布的	-19068
去了解	-19069
可以做	-19070
含有的	-19071
啊这些	-19072
多一点	-19073
就有了	-19074
我的脚	-19075
无数的	-19076
比自己	-19077
的作者	-19078
的反应	-19079
的投资	-19080
还是没	-19081
领导人	-19082
▁那可不	-19083
一个劲儿	-19084
一年四季	-19085
了一个小	-19086
依依不舍	-19087
几个小时	-19088
带着您的	-19089
开了一家	-19090
意想不到	-19091
确实有点	-19092
聆听的你	-19093
静悄悄的	-19094
:1$$,	-19095
不知道为什么	-19096
▁U	-19097
▁闭	-19098
一排	-19099
万万	-19100
乱跑	-19101
二三	-19102
以免	-19103
伪装	-19104
响应	-19105
富含	-19106
导游	-19107
小妹	-19108
小康	-19109
往事	-19110
愉悦	-19111
抵达	-19112
柜里	-19113
武魂	-19114
每隔	-19115
汉子	-19116
王一	-19117
玻片	-19118
着她	-19119
红旗	-19120
缩短	-19121
臭臭	-19122
诱导	-19123
请坐	-19124
豪猪	-19125
起初	-19126
跳远	-19127
长满	-19128
长辈	-19129
问候	-19130
chi	-19131
▁is	-19132
▁{}	-19133
▁不少	-19134
▁走路	-19135
一亿元	-19136
不会的	-19137
不只是	-19138
个小时	-19139
伸出手	-19140
妈妈了	-19141
小东西	-19142
山洞里	-19143
是一座	-19144
爱健康	-19145
生物体	-19146
的秘密	-19147
等多种	-19148
结果是	-19149
$$3\	-19150
10],	-19151
====	-19152
Left	-19153
▁一下子	-19154
▁因为我	-19155
▁我要去	-19156
▁真的啊	-19157
▁进一步	-19158
不得不说	-19159
世界经济	-19160
其他国家	-19161
受不了了	-19162
奇怪地问	-19163
相对位置	-19164
越来越少	-19165
非常非常	-19166
▁gang	-19167
▁我也是啊	-19168
▁看了看了	-19169
不是很清楚	-19170
你这是在看	-19171
可再生能源	-19172
大大小小的	-19173
年轻的时候	-19174
$$1$$)	-19175
{1}{4}$$	-19176
Leftrightarrow	-19177
47	-19178
QQ	-19179
fo	-19180
──	-19181
▁今	-19182
▁碎	-19183
不休	-19184
亿股	-19185
他没	-19186
以待	-19187
前辈	-19188
半岛	-19189
和张	-19190
大肠	-19191
宝物	-19192
小哥	-19193
小块	-19194
志玲	-19195
惊人	-19196
最长	-19197
木屋	-19198
杨幂	-19199
标的	-19200
水牛	-19201
滋润	-19202
的狗	-19203
磨合	-19204
移到	-19205
空隙	-19206
统筹	-19207
置换	-19208
肉食	-19209
访问	-19210
起源	-19211
过上	-19212
郁郁	-19213
酸雨	-19214
骑车	-19215
jin	-19216
{4}	-19217
▁交通	-19218
▁照片	-19219
▁说起	-19220
且仅当	-19221
动不动	-19222
只要是	-19223
好听的	-19224
所用的	-19225
无聊了	-19226
核苷酸	-19227
比一天	-19228
测量的	-19229
电视里	-19230
这棵树	-19231
一场比赛	-19232
他的儿子	-19233
找到一个	-19234
生存环境	-19235
▁chen	-19236
▁知不知道	-19237
是什么样的	-19238
直角坐标系	-19239
▁$$8$$	-19240
、$$4$$	-19241
tabular	-19242
,,	-19243
39	-19244
▁商	-19245
也该	-19246
书桌	-19247
事先	-19248
体型	-19249
使我	-19250
像他	-19251
冲到	-19252
别字	-19253
动弹	-19254
千金	-19255
台下	-19256
吵闹	-19257
大话	-19258
天后	-19259
寒假	-19260
并用	-19261
床边	-19262
开得	-19263
徘徊	-19264
或将	-19265
把球	-19266
木偶	-19267
栅栏	-19268
楼的	-19269
洞宾	-19270
淡水	-19271
特长	-19272
电站	-19273
画笔	-19274
翻滚	-19275
而易	-19276
耳其	-19277
节能	-19278
茎和	-19279
论语	-19280
请了	-19281
贴着	-19282
较弱	-19283
郁闷	-19284
钱买	-19285
长官	-19286
魔力	-19287
▁2,	-19288
▁24	-19289
▁他想	-19290
也许是	-19291
什么人	-19292
他的小	-19293
你看我	-19294
全新的	-19295
劳动者	-19296
医生说	-19297
十六号	-19298
又大的	-19299
变色龙	-19300
告诉她	-19301
如果在	-19302
对她说	-19303
小仙女	-19304
平台上	-19305
往上爬	-19306
成这样	-19307
我还想	-19308
我都要	-19309
把一个	-19310
文明的	-19311
来帮忙	-19312
来跳去	-19313
渐渐的	-19314
熊宝宝	-19315
牌子的	-19316
用一个	-19317
着头皮	-19318
种类和	-19319
被别人	-19320
转变为	-19321
鸡毛鸭	-19322
,2,3	-19323
8$$(	-19324
▁TFT	-19325
▁动物园	-19326
▁奇妙的	-19327
▁怪不得	-19328
▁我一般	-19329
▁梅花鹿	-19330
值得我们	-19331
去年同期	-19332
四月二十	-19333
在了地上	-19334
完全没有	-19335
话音刚落	-19336
主要是因为	-19337
咱们国家的	-19338
等平台陪您度过美满健康的一天	-19339
87	-19340
▁市	-19341
之子	-19342
乐曲	-19343
他啊	-19344
出不	-19345
华夏	-19346
历经	-19347
又细	-19348
嘟囔	-19349
外衣	-19350
多想	-19351
室里	-19352
平坦	-19353
应选	-19354
异的	-19355
强迫	-19356
急切	-19357
成名	-19358
我打	-19359
我拿	-19360
扩展	-19361
捉虫	-19362
捣乱	-19363
授予	-19364
排着	-19365
有啊	-19366
法则	-19367
火苗	-19368
瞄准	-19369
祖母	-19370
立足	-19371
第八	-19372
胡说	-19373
袖子	-19374
被你	-19375
质的	-19376
酸奶	-19377
长方	-19378
雨中	-19379
面貌	-19380
预言	-19381
高贵	-19382
黄土	-19383
har	-19384
▁但他	-19385
▁做好	-19386
▁支持	-19387
▁考查	-19388
▁重新	-19389
▁餐桌	-19390
上厕所	-19391
为中心	-19392
交易所	-19393
他喜欢	-19394
出水面	-19395
发挥了	-19396
只要能	-19397
可以将	-19398
在头上	-19399
在这种	-19400
小弟弟	-19401
慢悠悠	-19402
指了指	-19403
是美国	-19404
特点是	-19405
用自己	-19406
看他们	-19407
绕地球	-19408
英格兰	-19409
莱纳德	-19410
$$15	-19411
▁一只小	-19412
▁你们好	-19413
▁是一个	-19414
也是因为	-19415
休息一下	-19416
到原来的	-19417
基因突变	-19418
得意洋洋	-19419
没听说过	-19420
电磁感应	-19421
的作用是	-19422
看见一个	-19423
给我说说	-19424
这样子的	-19425
通过实验	-19426
}}^{*	-19427
▁yong	-19428
中医名中医	-19429
▁但是我觉得	-19430
▁头条号和新	-19431
▁头条号和新浪微博号	-19432
;'	-19433
ww	-19434
七万	-19435
下周	-19436
世人	-19437
亚当	-19438
亲热	-19439
他向	-19440
判定	-19441
劲了	-19442
发力	-19443
吃货	-19444
名将	-19445
后又	-19446
四方	-19447
回味	-19448
圈粉	-19449
它一	-19450
它从	-19451
家有	-19452
少爷	-19453
应付	-19454
当即	-19455
心跳	-19456
感的	-19457
我玩	-19458
搏斗	-19459
摄氏	-19460
新股	-19461
树根	-19462
橙子	-19463
水来	-19464
海绵	-19465
目不	-19466
矿产	-19467
简称	-19468
而降	-19469
胚芽	-19470
脚地	-19471
腿上	-19472
补助	-19473
道夫	-19474
顶尖	-19475
+1\	-19476
jie	-19477
▁感冒	-19478
▁那这	-19479
不准确	-19480
他总是	-19481
会引起	-19482
关键词	-19483
到自己	-19484
北京市	-19485
太高了	-19486
我回去	-19487
数字化	-19488
是不可	-19489
点电荷	-19490
然后去	-19491
的共同	-19492
的训练	-19493
细小的	-19494
统治者	-19495
网络上	-19496
过马路	-19497
都具有	-19498
陈情令	-19499
$$=1	-19500
'''。	-19501
▁两个人	-19502
你能不能	-19503
你说的是	-19504
大小相等	-19505
很有道理	-19506
我们自己	-19507
标点符号	-19508
正在这时	-19509
▁gong	-19510
▁reng	-19511
▁此刻正在	-19512
▁然后那个	-19513
我朋友来了	-19514
百分之八十	-19515
的重要组成部分	-19516
_{1}^{2}	-19517
▁南都名医大讲堂	-19518
66	-19519
▁作	-19520
▁句	-19521
▁形	-19522
一架	-19523
一波	-19524
三条	-19525
与之	-19526
世的	-19527
出个	-19528
功课	-19529
协作	-19530
压抑	-19531
又甜	-19532
只看	-19533
吃吃	-19534
和为	-19535
当选	-19536
执教	-19537
拍卖	-19538
指头	-19539
收取	-19540
更换	-19541
未经	-19542
死人	-19543
气孔	-19544
洗个	-19545
灌溉	-19546
玲珑	-19547
疼爱	-19548
组建	-19549
衔接	-19550
表弟	-19551
要先	-19552
选赛	-19553
逮捕	-19554
钟表	-19555
雪球	-19556
面孔	-19557
食材	-19558
鬼脸	-19559
麦克	-19560
(1+	-19561
>{{	-19562
▁他会	-19563
▁假设	-19564
▁只好	-19565
▁好听	-19566
▁想象	-19567
▁永远	-19568
▁煮饭	-19569
一年级	-19570
下降了	-19571
十年代	-19572
四条腿	-19573
容器中	-19574
建筑物	-19575
的一棵	-19576
的梦想	-19577
的重量	-19578
禁不住	-19579
粉色的	-19580
讲一个	-19581
躲起来	-19582
转眼间	-19583
那好吧	-19584
风婆婆	-19585
}_{9	-19586
▁11.	-19587
▁小蜗牛	-19588
了不起的	-19589
你有关注	-19590
单调递减	-19591
很多东西	-19592
很多时候	-19593
我的妈妈	-19594
谁也没有	-19595
:2014	-19596
▁""""	-19597
▁1$$,	-19598
就先下车啦	-19599
▁chuan	-19600
带着您的疑问	-19601
的说法正确的是	-19602
▁同比下降百分之	-19603
ts	-19604
▁举	-19605
▁实	-19606
与我	-19607
十里	-19608
句是	-19609
就别	-19610
底层	-19611
当着	-19612
念叨	-19613
性子	-19614
性情	-19615
总值	-19616
惹人	-19617
懒汉	-19618
成千	-19619
打进	-19620
找他	-19621
找呀	-19622
抗震	-19623
摇摆	-19624
日月	-19625
棕色	-19626
欣慰	-19627
毁灭	-19628
洛克	-19629
浑浊	-19630
爱了	-19631
缺失	-19632
而知	-19633
聊了	-19634
芦花	-19635
行列	-19636
起步	-19637
都为	-19638
酒窝	-19639
雄鹿	-19640
首相	-19641
---	-19642
-1\	-19643
▁两只	-19644
▁姑娘	-19645
▁第五	-19646
▁行业	-19647
一起吃	-19648
供应链	-19649
公安局	-19650
冬奥会	-19651
受伤的	-19652
可能为	-19653
呢就是	-19654
在研究	-19655
多少人	-19656
大儿子	-19657
强度的	-19658
恒成立	-19659
我当然	-19660
拿下了	-19661
星期六	-19662
湖人的	-19663
现在还	-19664
男孩儿	-19665
的产品	-19666
的人类	-19667
的头上	-19668
皮皮鲁	-19669
真的挺	-19670
篮子里	-19671
粒子的	-19672
纯净物	-19673
老师和	-19674
肯定能	-19675
这家伙	-19676
那么小	-19677
静止的	-19678
▁也是哈	-19679
▁哦哦哦	-19680
亿美元的	-19681
玉皇大帝	-19682
科学探究	-19683
该多好啊	-19684
这有什么	-19685
与题意不符	-19686
初中的时候	-19687
足球比赛吗	-19688
▁$$5$$	-19689
、$$2$$	-19690
}^{2}}{{	-19691
$$1$$,$$2	-19692
光在同种均匀介质中	-19693
$;	-19694
3,	-19695
ào	-19696
▁吐	-19697
▁塞	-19698
▁朝	-19699
也从	-19700
优越	-19701
但愿	-19702
低了	-19703
你和	-19704
保佑	-19705
信托	-19706
入学	-19707
出汗	-19708
加重	-19709
吆喝	-19710
哧溜	-19711
回顾	-19712
基准	-19713
大睡	-19714
奋勇	-19715
女娲	-19716
它不	-19717
审查	-19718
总有	-19719
扑向	-19720
本子	-19721
波比	-19722
济南	-19723
火腿	-19724
独行	-19725
白纸	-19726
看呀	-19727
逍遥	-19728
面具	-19729
飞出	-19730
骏马	-19731
800	-19732
▁|}	-19733
▁块钱	-19734
▁大声	-19735
▁小象	-19736
▁懂得	-19737
▁早晨	-19738
▁由此	-19739
▁至少	-19740
中全会	-19741
从而使	-19742
你们要	-19743
你真是	-19744
出一副	-19745
各式各	-19746
听不见	-19747
地球是	-19748
对物体	-19749
将继续	-19750
尽情地	-19751
找吃的	-19752
推荐的	-19753
来了个	-19754
比较有	-19755
氧气中	-19756
浓浓的	-19757
激动地	-19758
猎人的	-19759
的小船	-19760
网约车	-19761
请来了	-19762
起床了	-19763
较小的	-19764
这么想	-19765
陌生的	-19766
面上的	-19767
▁$(\	-19768
▁enh	-19769
▁我不会	-19770
告诉大家	-19771
寻找食物	-19772
约了朋友	-19773
设计方案	-19774
基本上都是	-19775
我可以坐在	-19776
我还挺喜欢	-19777
}_{1}}-{{	-19778
ck	-19779
~\	-19780
▁倍	-19781
▁军	-19782
▁堆	-19783
一刀	-19784
下方	-19785
专辑	-19786
丢弃	-19787
丹顶	-19788
也多	-19789
亲近	-19790
像你	-19791
内角	-19792
冰棍	-19793
初心	-19794
匀强	-19795
压岁	-19796
去给	-19797
口红	-19798
古今	-19799
只吃	-19800
吴京	-19801
告示	-19802
地将	-19803
孙权	-19804
孩儿	-19805
它要	-19806
宽度	-19807
就大	-19808
山腰	-19809
店主	-19810
心生	-19811
戏骨	-19812
成品	-19813
接纳	-19814
救我	-19815
早晚	-19816
树苗	-19817
正规	-19818
深远	-19819
牙刷	-19820
用脚	-19821
电竞	-19822
看在	-19823
而我	-19824
肥沃	-19825
记着	-19826
迷人	-19827
通了	-19828
量筒	-19829
闺女	-19830
隐藏	-19831
风能	-19832
骗人	-19833
,10	-19834
|+\	-19835
▁(6	-19836
▁小姐	-19837
▁金融	-19838
一年的	-19839
为代表	-19840
从这里	-19841
发动机	-19842
吕洞宾	-19843
在你的	-19844
字母哥	-19845
就把他	-19846
居住在	-19847
工智能	-19848
带领下	-19849
新房子	-19850
核心的	-19851
然后说	-19852
的老板	-19853
老和尚	-19854
认识了	-19855
让人们	-19856
资源的	-19857
需要在	-19858
}}+\	-19859
▁什么样	-19860
▁你是说	-19861
▁可以呀	-19862
三国演义	-19863
义务教育	-19864
了一大跳	-19865
因为它们	-19866
小松鼠说	-19867
帝国主义	-19868
每天早晨	-19869
的理解和	-19870
▁我是压力	-19871
一天比一天	-19872
类型的电影	-19873
同比增长百分之	-19874
}}^{2}}$$	-19875
▁此刻正在聆听的你	-19876
iv	-19877
▁凉	-19878
▁围	-19879
▁晚	-19880
▁端	-19881
三者	-19882
上任	-19883
不稳	-19884
之大	-19885
享用	-19886
刚从	-19887
包包	-19888
双双	-19889
[...]
